[PAD]
[unused0]
[unused1]
[unused2]
[unused3]
[unused4]
[unused5]
[unused6]
[unused7]
[unused8]
[unused9]
[unused10]
[unused11]
[unused12]
[unused13]
[unused14]
[unused15]
[unused16]
[unused17]
[unused18]
[unused19]
[unused20]
[unused21]
[unused22]
[unused23]
[unused24]
[unused25]
[unused26]
[unused27]
[unused28]
[unused29]
[unused30]
[unused31]
[unused32]
[unused33]
[unused34]
[unused35]
[unused36]
[unused37]
[unused38]
[unused39]
[unused40]
[unused41]
[unused42]
[unused43]
[unused44]
[unused45]
[unused46]
[unused47]
[unused48]
[unused49]
[unused50]
[unused51]
[unused52]
[unused53]
[unused54]
[unused55]
[unused56]
[unused57]
[unused58]
[unused59]
[unused60]
[unused61]
[unused62]
[unused63]
[unused64]
[unused65]
[unused66]
[unused67]
[unused68]
[unused69]
[unused70]
[unused71]
[unused72]
[unused73]
[unused74]
[unused75]
[unused76]
[unused77]
[unused78]
[unused79]
[unused80]
[unused81]
[unused82]
[unused83]
[unused84]
[unused85]
[unused86]
[unused87]
[unused88]
[unused89]
[unused90]
[unused91]
[unused92]
[unused93]
[unused94]
[unused95]
[unused96]
[unused97]
[unused98]
[unused99]
[unused100]
[unused101]
[unused102]
[unused103]
[unused104]
[unused105]
[unused106]
[unused107]
[unused108]
[unused109]
[unused110]
[unused111]
[unused112]
[unused113]
[unused114]
[unused115]
[unused116]
[unused117]
[unused118]
[unused119]
[unused120]
[unused121]
[unused122]
[unused123]
[unused124]
[unused125]
[unused126]
[unused127]
[unused128]
[unused129]
[unused130]
[unused131]
[unused132]
[unused133]
[unused134]
[unused135]
[unused136]
[unused137]
[unused138]
[unused139]
[unused140]
[unused141]
[unused142]
[unused143]
[unused144]
[unused145]
[unused146]
[unused147]
[unused148]
[unused149]
[unused150]
[unused151]
[unused152]
[unused153]
[unused154]
[unused155]
[unused156]
[unused157]
[unused158]
[unused159]
[unused160]
[unused161]
[unused162]
[unused163]
[unused164]
[unused165]
[unused166]
[unused167]
[unused168]
[unused169]
[unused170]
[unused171]
[unused172]
[unused173]
[unused174]
[unused175]
[unused176]
[unused177]
[unused178]
[unused179]
[unused180]
[unused181]
[unused182]
[unused183]
[unused184]
[unused185]
[unused186]
[unused187]
[unused188]
[unused189]
[unused190]
[unused191]
[unused192]
[unused193]
[unused194]
[unused195]
[unused196]
[unused197]
[unused198]
[unused199]
[unused200]
[unused201]
[unused202]
[unused203]
[unused204]
[unused205]
[unused206]
[unused207]
[unused208]
[unused209]
[unused210]
[unused211]
[unused212]
[unused213]
[unused214]
[unused215]
[unused216]
[unused217]
[unused218]
[unused219]
[unused220]
[unused221]
[unused222]
[unused223]
[unused224]
[unused225]
[unused226]
[unused227]
[unused228]
[unused229]
[unused230]
[unused231]
[unused232]
[unused233]
[unused234]
[unused235]
[unused236]
[unused237]
[unused238]
[unused239]
[unused240]
[unused241]
[unused242]
[unused243]
[unused244]
[unused245]
[unused246]
[unused247]
[unused248]
[unused249]
[unused250]
[unused251]
[unused252]
[unused253]
[unused254]
[unused255]
[unused256]
[unused257]
[unused258]
[unused259]
[unused260]
[unused261]
[unused262]
[unused263]
[unused264]
[unused265]
[unused266]
[unused267]
[unused268]
[unused269]
[unused270]
[unused271]
[unused272]
[unused273]
[unused274]
[unused275]
[unused276]
[unused277]
[unused278]
[unused279]
[unused280]
[unused281]
[unused282]
[unused283]
[unused284]
[unused285]
[unused286]
[unused287]
[unused288]
[unused289]
[unused290]
[unused291]
[unused292]
[unused293]
[unused294]
[unused295]
[unused296]
[unused297]
[unused298]
[unused299]
[unused300]
[unused301]
[unused302]
[unused303]
[unused304]
[unused305]
[unused306]
[unused307]
[unused308]
[unused309]
[unused310]
[unused311]
[unused312]
[unused313]
[unused314]
[unused315]
[unused316]
[unused317]
[unused318]
[unused319]
[unused320]
[unused321]
[unused322]
[unused323]
[unused324]
[unused325]
[unused326]
[unused327]
[unused328]
[unused329]
[unused330]
[unused331]
[unused332]
[unused333]
[unused334]
[unused335]
[unused336]
[unused337]
[unused338]
[unused339]
[unused340]
[unused341]
[unused342]
[unused343]
[unused344]
[unused345]
[unused346]
[unused347]
[unused348]
[unused349]
[unused350]
[unused351]
[unused352]
[unused353]
[unused354]
[unused355]
[unused356]
[unused357]
[unused358]
[unused359]
[unused360]
[unused361]
[unused362]
[unused363]
[unused364]
[unused365]
[unused366]
[unused367]
[unused368]
[unused369]
[unused370]
[unused371]
[unused372]
[unused373]
[unused374]
[unused375]
[unused376]
[unused377]
[unused378]
[unused379]
[unused380]
[unused381]
[unused382]
[unused383]
[unused384]
[unused385]
[unused386]
[unused387]
[unused388]
[unused389]
[unused390]
[unused391]
[unused392]
[unused393]
[unused394]
[unused395]
[unused396]
[unused397]
[unused398]
[unused399]
[unused400]
[unused401]
[unused402]
[unused403]
[unused404]
[unused405]
[unused406]
[unused407]
[unused408]
[unused409]
[unused410]
[unused411]
[unused412]
[unused413]
[unused414]
[unused415]
[unused416]
[unused417]
[unused418]
[unused419]
[unused420]
[unused421]
[unused422]
[unused423]
[unused424]
[unused425]
[unused426]
[unused427]
[unused428]
[unused429]
[unused430]
[unused431]
[unused432]
[unused433]
[unused434]
[unused435]
[unused436]
[unused437]
[unused438]
[unused439]
[unused440]
[unused441]
[unused442]
[unused443]
[unused444]
[unused445]
[unused446]
[unused447]
[unused448]
[unused449]
[unused450]
[unused451]
[unused452]
[unused453]
[unused454]
[unused455]
[unused456]
[unused457]
[unused458]
[unused459]
[unused460]
[unused461]
[unused462]
[unused463]
[unused464]
[unused465]
[unused466]
[unused467]
[unused468]
[unused469]
[unused470]
[unused471]
[unused472]
[unused473]
[unused474]
[unused475]
[unused476]
[unused477]
[unused478]
[unused479]
[unused480]
[unused481]
[unused482]
[unused483]
[unused484]
[unused485]
[unused486]
[unused487]
[unused488]
[unused489]
[unused490]
[unused491]
[unused492]
[unused493]
[unused494]
[unused495]
[unused496]
[unused497]
[unused498]
[unused499]
[unused500]
[unused501]
[unused502]
[unused503]
[unused504]
[unused505]
[unused506]
[unused507]
[unused508]
[unused509]
[unused510]
[unused511]
[unused512]
[unused513]
[unused514]
[unused515]
[unused516]
[unused517]
[unused518]
[unused519]
[unused520]
[unused521]
[unused522]
[unused523]
[unused524]
[unused525]
[unused526]
[unused527]
[unused528]
[unused529]
[unused530]
[unused531]
[unused532]
[unused533]
[unused534]
[unused535]
[unused536]
[unused537]
[unused538]
[unused539]
[unused540]
[unused541]
[unused542]
[unused543]
[unused544]
[unused545]
[unused546]
[unused547]
[unused548]
[unused549]
[unused550]
[unused551]
[unused552]
[unused553]
[unused554]
[unused555]
[unused556]
[unused557]
[unused558]
[unused559]
[unused560]
[unused561]
[unused562]
[unused563]
[unused564]
[unused565]
[unused566]
[unused567]
[unused568]
[unused569]
[unused570]
[unused571]
[unused572]
[unused573]
[unused574]
[unused575]
[unused576]
[unused577]
[unused578]
[unused579]
[unused580]
[unused581]
[unused582]
[unused583]
[unused584]
[unused585]
[unused586]
[unused587]
[unused588]
[unused589]
[unused590]
[unused591]
[unused592]
[unused593]
[unused594]
[unused595]
[unused596]
[unused597]
[unused598]
[unused599]
[unused600]
[unused601]
[unused602]
[unused603]
[unused604]
[unused605]
[unused606]
[unused607]
[unused608]
[unused609]
[unused610]
[unused611]
[unused612]
[unused613]
[unused614]
[unused615]
[unused616]
[unused617]
[unused618]
[unused619]
[unused620]
[unused621]
[unused622]
[unused623]
[unused624]
[unused625]
[unused626]
[unused627]
[unused628]
[unused629]
[unused630]
[unused631]
[unused632]
[unused633]
[unused634]
[unused635]
[unused636]
[unused637]
[unused638]
[unused639]
[unused640]
[unused641]
[unused642]
[unused643]
[unused644]
[unused645]
[unused646]
[unused647]
[unused648]
[unused649]
[unused650]
[unused651]
[unused652]
[unused653]
[unused654]
[unused655]
[unused656]
[unused657]
[unused658]
[unused659]
[unused660]
[unused661]
[unused662]
[unused663]
[unused664]
[unused665]
[unused666]
[unused667]
[unused668]
[unused669]
[unused670]
[unused671]
[unused672]
[unused673]
[unused674]
[unused675]
[unused676]
[unused677]
[unused678]
[unused679]
[unused680]
[unused681]
[unused682]
[unused683]
[unused684]
[unused685]
[unused686]
[unused687]
[unused688]
[unused689]
[unused690]
[unused691]
[unused692]
[unused693]
[unused694]
[unused695]
[unused696]
[unused697]
[unused698]
[unused699]
[unused700]
[unused701]
[unused702]
[unused703]
[unused704]
[unused705]
[unused706]
[unused707]
[unused708]
[unused709]
[unused710]
[unused711]
[unused712]
[unused713]
[unused714]
[unused715]
[unused716]
[unused717]
[unused718]
[unused719]
[unused720]
[unused721]
[unused722]
[unused723]
[unused724]
[unused725]
[unused726]
[unused727]
[unused728]
[unused729]
[unused730]
[unused731]
[unused732]
[unused733]
[unused734]
[unused735]
[unused736]
[unused737]
[unused738]
[unused739]
[unused740]
[unused741]
[unused742]
[unused743]
[unused744]
[unused745]
[unused746]
[unused747]
[unused748]
[unused749]
[unused750]
[unused751]
[unused752]
[unused753]
[unused754]
[unused755]
[unused756]
[unused757]
[unused758]
[unused759]
[unused760]
[unused761]
[unused762]
[unused763]
[unused764]
[unused765]
[unused766]
[unused767]
[unused768]
[unused769]
[unused770]
[unused771]
[unused772]
[unused773]
[unused774]
[unused775]
[unused776]
[unused777]
[unused778]
[unused779]
[unused780]
[unused781]
[unused782]
[unused783]
[unused784]
[unused785]
[unused786]
[unused787]
[unused788]
[unused789]
[unused790]
[unused791]
[unused792]
[unused793]
[unused794]
[unused795]
[unused796]
[unused797]
[unused798]
[unused799]
[unused800]
[unused801]
[unused802]
[unused803]
[unused804]
[unused805]
[unused806]
[unused807]
[unused808]
[unused809]
[unused810]
[unused811]
[unused812]
[unused813]
[unused814]
[unused815]
[unused816]
[unused817]
[unused818]
[unused819]
[unused820]
[unused821]
[unused822]
[unused823]
[unused824]
[unused825]
[unused826]
[unused827]
[unused828]
[unused829]
[unused830]
[unused831]
[unused832]
[unused833]
[unused834]
[unused835]
[unused836]
[unused837]
[unused838]
[unused839]
[unused840]
[unused841]
[unused842]
[unused843]
[unused844]
[unused845]
[unused846]
[unused847]
[unused848]
[unused849]
[unused850]
[unused851]
[unused852]
[unused853]
[unused854]
[unused855]
[unused856]
[unused857]
[unused858]
[unused859]
[unused860]
[unused861]
[unused862]
[unused863]
[unused864]
[unused865]
[unused866]
[unused867]
[unused868]
[unused869]
[unused870]
[unused871]
[unused872]
[unused873]
[unused874]
[unused875]
[unused876]
[unused877]
[unused878]
[unused879]
[unused880]
[unused881]
[unused882]
[unused883]
[unused884]
[unused885]
[unused886]
[unused887]
[unused888]
[unused889]
[unused890]
[unused891]
[unused892]
[unused893]
[unused894]
[unused895]
[unused896]
[unused897]
[unused898]
[unused899]
[unused900]
[unused901]
[unused902]
[unused903]
[unused904]
[unused905]
[unused906]
[unused907]
[unused908]
[unused909]
[unused910]
[unused911]
[unused912]
[unused913]
[unused914]
[unused915]
[unused916]
[unused917]
[unused918]
[unused919]
[unused920]
[unused921]
[unused922]
[unused923]
[unused924]
[unused925]
[unused926]
[unused927]
[unused928]
[unused929]
[unused930]
[unused931]
[unused932]
[unused933]
[unused934]
[unused935]
[unused936]
[unused937]
[unused938]
[unused939]
[unused940]
[unused941]
[unused942]
[unused943]
[unused944]
[unused945]
[unused946]
[unused947]
[unused948]
[unused949]
[unused950]
[unused951]
[unused952]
[unused953]
[unused954]
[unused955]
[unused956]
[unused957]
[unused958]
[unused959]
[unused960]
[unused961]
[unused962]
[unused963]
[unused964]
[unused965]
[unused966]
[unused967]
[unused968]
[unused969]
[unused970]
[unused971]
[unused972]
[unused973]
[unused974]
[unused975]
[unused976]
[unused977]
[unused978]
[unused979]
[unused980]
[unused981]
[unused982]
[unused983]
[unused984]
[unused985]
[unused986]
[unused987]
[unused988]
[unused989]
[unused990]
[unused991]
[unused992]
[unused993]
[unused994]
[unused995]
[unused996]
[unused997]
[unused998]
[unused999]
[UNK]
[CLS]
[SEP]
[MASK]
!
"
#
$
%
&
'
(
)
*
+
,
-
.
/
0
1
2
3
4
5
6
7
8
9
:
;
<
=
>
?
@
[
\
]
^
_
`
a
b
c
d
e
f
g
h
i
j
k
l
m
n
o
p
q
r
s
t
u
v
w
x
y
z
{
|
}
~
¡
¢
£
¤
¥
¦
§
¨
©
ª
«
¬
®
¯
°
±
²
³
´
µ
¶
·
¸
¹
º
»
¼
½
¾
¿
×
ß
æ
ð
÷
ø
þ
đ
ħ
ı
ł
ŋ
œ
ƒ
ɑ
ɔ
ə
ɛ
ʹ
ʿ
ˆ
ˇ
ˈ
ː
˚
ˮ
ͼ
α
β
γ
δ
ε
ζ
η
θ
ι
κ
λ
μ
ν
ξ
ο
π
ρ
ς
σ
τ
υ
φ
χ
ψ
ω
ϕ
а
б
в
г
д
е
ж
з
и
к
л
м
н
о
п
р
с
т
у
ф
х
ц
ч
ш
щ
ъ
ы
ь
э
ю
я
ђ
є
ѕ
і
ј
љ
ґ
һ
ա
ե
ն
ո
ր
א
ב
ג
ד
ה
ו
ז
ח
ט
י
כ
ל
ם
מ
ן
נ
ס
ע
פ
צ
ק
ר
ש
ת
،
ء
ا
ب
ة
ت
ث
ج
ح
خ
د
ذ
ر
ز
س
ش
ص
ض
ط
ظ
ع
غ
ـ
ف
ق
ك
ل
م
ن
ه
و
ى
ي
پ
چ
ک
گ
ی
ە
क
ग
ज
त
द
न
प
ब
म
य
र
ल
व
स
ह
ा
ि
ी
ो
ক
ত
ন
ব
ম
য
র
ল
া
ি
ে
க
த
ன
ப
ம
ர
ா
ி
ு
ก
ข
ค
ง
จ
ช
ด
ต
ท
น
บ
ป
พ
ม
ย
ร
ล
ว
ส
ห
อ
ะ
า
฿
เ
แ
โ
ไ
་
ა
ე
ი
ლ
მ
ნ
ო
რ
ს
ᄀ
ᄂ
ᄃ
ᄅ
ᄆ
ᄇ
ᄉ
ᄋ
ᄌ
ᄎ
ᄏ
ᄐ
ᄑ
ᄒ
ᅡ
ᅢ
ᅥ
ᅦ
ᅧ
ᅩ
ᅪ
ᅬ
ᅭ
ᅮ
ᅲ
ᅳ
ᅴ
ᅵ
ᆨ
ᆫ
ᆯ
ᆷ
ᆸ
ᆼ
ᐈ
‐
‑
‒
–
—
―
‘
’
‚
“
”
„
†
‡
•
…
‰
′
″
‹
›
₂
₨
€
℃
№
™
←
↑
→
↓
⇒
−
√
≈
≤
≥
⋅
─
■
□
▪
▫
▲
▶
►
▻
▼
○
●
☀
★
☆
☺
♀
♡
♣
♥
♦
✅
✌
✓
✔
✚
✨
✭
✰
❄
❑
❤
➔
⠀
⭐
ⰰ
、
。
「
」
【
】
あ
い
う
え
お
か
き
く
け
こ
さ
し
す
せ
そ
た
ち
っ
つ
て
と
な
に
の
は
ま
み
め
も
や
よ
ら
り
る
れ
わ
を
ん
ア
ィ
イ
ウ
ェ
エ
オ
カ
キ
ク
ケ
コ
サ
シ
ス
セ
タ
チ
ッ
ツ
テ
ト
ナ
ニ
ネ
ハ
ヒ
フ
ヘ
ホ
マ
ミ
ム
メ
モ
ャ
ュ
ョ
ラ
リ
ル
レ
ロ
ワ
ン
・
ー
䄀
䈀
䐀
䔀
䜀
䠀
䤀
䬀
䰀
䴀
一
七
万
三
上
下
不
与
世
业
东
个
中
为
主
么
之
乐
九
也
乡
买
了
争
事
二
于
五
交
产
京
人
什
今
他
仙
代
以
们
件
伀
会
传
位
体
何
作
你
使
供
保
信
元
光
克
免
入
全
八
公
六
关
其
内
円
册
准
出
刀
分
划
创
利
到
制
前
力
加
务
动
势
動
匀
化
北
区
十
华
单
南
博
原
县
及
双
发
取
口
古
可
台
号
司
吀
合
同
名
后
吗
和
品
哪
唀
商
器
四
回
国
图
在
地
场
址
坛
城
堂
場
士
外
多
大
天
太
头
奖
女
好
如
姐
娱
婆
子
字
学
安
官
定
宝
实
客
室
家
富
对
小
少
就
尾
展
山
川
州
工
巧
市
布
平
年
广
庆
库
店
度
建
开
式
当
录
彩
影
律
得
微
德
心
必
快
怎
思
性
总
情
意
感
戏
成
我
户
所
手
打
技
投
报
拉
持
挂
推
提
播
教
数
文
料
斯
新
方
族
无
日
时
明
星
是
時
更
最
月
有
服
期
木
本
机
杀
村
来
東
林
枚
果
校
样
格
業
次
正
比
民
氓
水
江
沙
河
法
波
注
活
流
测
海
清
港
游
湖
源
澳
点
爱
片
版
牌
牛
物
特
狗
玄
王
玩
现
球
理
生
用
田
电
画
界
登
白
百
的
皇
盘
目
盲
直
相
看
県
真
着
知
石
码
社
神
票
福
科
程
空
立
站
第
等
算
管
精
系
红
线
组
经
结
网
美
群
老
者
肖
能
自
色
花
英
行
街
表
西
要
見
规
视
解
語
计
记
论
设
诗
财
费
资
赌
赛
赢
走
足
跑
路
身
车
软
载
过
这
进
送
选
通
道
部
都
里
重
金
钱
铁
镇
长
間
门
阳
际
限
院
集
霸
青
面
音
预
食
香
马
高
黄
龙
ﬁ
ﬂ
！
（
）
，
：
？
ｩ
ﾞ
𝐞
🌟
🌸
🎉
🏻
🏼
👊
👌
👍
👏
💕
💖
💗
💙
💚
💛
💜
💪
🔥
😀
😁
😂
😃
😄
😅
😆
😉
😊
😋
😍
😎
😘
😛
😜
😦
😬
😱
😳
🙁
🙂
🙄
🙈
🙌
🙏
🤔
🤗
##o
##v
##e
##d
##a
##n
##g
##r
##p
##s
##m
##l
##h
##i
##u
##t
##ø
##k
##j
##c
##f
##y
##b
##w
##2
##8
##3
##1
##9
##0
##ق
##ش
##ی
##ن
##ه
##4
##7
##5
##а
##н
##в
##ŋ
##x
##6
##ذ
##ر
##ا
##م
##ص
##د
##و
##´
##¤
##z
##リ
##ン
##ク
##サ
##イ
##ト
##は
##д
##у
##р
##и
##с
##æ
##ィ
##コ
##±
##😍
##💪
##り
##е
##з
##о
##б
##ы
##×
##ف
##ي
##г
##л
##к
##כ
##ל
##😘
##❤
##đ
##ま
##い
##も
##の
##®
##س
##گ
##°
##т
##か
##て
##き
##る
##ز
##q
##я
##ร
##พ
##า
##ว
##ل
##ج
##😬
##ラ
##し
##ᅳ
##ᆯ
##ᄌ
##ᅵ
##ᄀ
##ᅭ
##ᄉ
##ж
##👍
##ʹ
##¥
##ю
##ч
##η
##τ
##ρ
##ο
##γ
##λ
##υ
##ب
##м
##ш
##া
##য
##ᄎ
##ᅡ
##ᆨ
##ᅥ
##ᆫ
##ᄃ
##ᅩ
##ᆼ
##ь
##ע
##ו
##ב
##ד
##י
##ם
##რ
##ა
##მ
##😉
##п
##ר
##ה
##ᄅ
##ᄋ
##ᄒ
##ᅪ
##ı
##ย
##ท
##ห
##เ
##ð
##ᄆ
##ᅧ
##ω
##−
##ि
##ल
##ح
##ض
##な
##چ
##ت
##タ
##ホ
##ヒ
##ー
##น
##จ
##ɑ
##ː
##🤗
##ﬁ
##і
##ц
##€
##э
##ν
##ε
##α
##β
##フ
##ロ
##と
##う
##そ
##¬
##ß
##ᆷ
##さ
##れ
##た
##す
##に
##ˈ
##ח
##ש
##や
##ม
##ต
##ナ
##μ
##ι
##ﬂ
##ک
##ハ
##ع
##¸
##ك
##お
##²
##♡
##σ
##✨
##🙌
##ł
##♥
##κ
##ς
##😛
##π
##🙏
##ா
##ி
##த
##ர
##く
##ル
##ス
##テ
##™
##ส
##پ
##ط
##ウ
##ェ
##ة
##ᅦ
##チ
##シ
##ョ
##צ
##ן
##🏻
##ล
##х
##র
##¹
##ด
##һ
##œ
##め
##ט
##ƒ
##🏼
##🤔
##ニ
##𝐞
##ল
##ব
##ে
##ি
##க
##θ
##つ
##け
##¨
##خ
##ह
##ा
##व
##ी
##र
##µ
##ъ
##©
##स
##ज
##😊
##þ
##😃
##😂
##¼
##マ
##ャ
##を
##カ
##ケ
##ム
##レ
##👌
##щ
##º
##👏
##ᅢ
##💕
##よ
##あ
##ᄇ
##ᅮ
##ф
##न
##غ
##מ
##א
##ת
##£
##ア
##ん
##ᄐ
##÷
##อ
##บ
##ე
##ო
##ლ
##ი
##ր
##ն
##ո
##¾
##ワ
##😎
##ネ
##ッ
##ј
##ə
##😅
##ง
##क
##प
##💙
##ى
##ป
##ก
##פ
##ு
##ம
##💖
##ɛ
##ヘ
##こ
##ค
##↓
##≈
##っ
##ম
##ত
##φ
##🙈
##ะ
##ช
##แ
##ไ
##ข
##ন
##😄
##☀
##み
##⋅
##😋
##ს
##え
##💜
##¦
##ـ
##½
##ツ
##🌟
##љ
##💗
##○
##χ
##エ
##נ
##ュ
##ˆ
##ち
##ら
##ث
##ͼ
##モ
##⭐
##ो
##ʿ
##є
##ג
##य
##ब
##ɔ
##🌸
##☺
##ক
##ظ
##ᅴ
##त
##😱
##ء
##द
##せ
##ª
##♀
##🔥
##😁
##ნ
##ז
##😳
##ס
##→
##メ
##ᆸ
##ա
##म
##↑
##😆
##ᄂ
##キ
##😜
##ψ
##˚
##ħ
##わ
##ξ
##ᄑ
##☆
##►
##🎉
##─
##💚
##セ
##δ
##🙂
##ˇ
##โ
##ґ
##℃
##オ
##ミ
##ன
##⇒
##ᅬ
##¢
##ђ
##❄
##ק
##●
##ζ
##😀
##ە
##ᄏ
##ե
##√
##ˮ
##★
##ப
##ᅲ
##💛
##³
##♣
##👊
##ѕ
##≤
##✌
##✅
##¯
##№
##≥
##▶
##ﾞ
##▻
##ग
##⠀
##🙄
##🙁
##♦
##□
##←
##✓
##₂
##▲
##▼
##▪
##✔
##ϕ
##ｩ
##■
##😦
##✭
##➔
##฿
##▫
##✰
##ⰰ
##❑
##✚
##er
##ar
##en
##an
##or
##et
##tt
##in
##ll
##st
##om
##ag
##ch
##ig
och
##ed
for
##on
##at
##de
##ing
##al
ar
##ra
##sk
in
det
en
##el
att
pa
ti
som
vi
av
##te
##ck
sa
med
##na
##kt
var
st
##re
sk
##pp
##as
har
an
##un
de
##and
##sa
##ad
till
jag
##ning
##ter
##ol
den
##il
##ro
##ik
##all
om
##lig
##it
##ver
##der
##is
##es
##ang
##ade
ut
##am
kan
##att
bl
##iv
##em
##ast
og
##ur
##id
##eg
inte
##ot
##isk
##ss
ett
du
man
##ran
##ion
men
##for
##are
kom
##ta
##og
##ok
all
##ut
##ller
##itt
er
##het
##ande
##est
##ent
un
sp
##us
##var
##ist
##ak
##mer
##od
upp
sam
##inn
##ens
##ru
nar
##ul
##ort
se
eller
han
##ell
##yck
be
til
##ska
##ri
pro
##art
min
##ne
##den
##os
##ma
fran
##igt
ska
##ir
hel
##la
bar
##fter
##gen
under
over
fra
ha
fl
##ud
##ek
##ull
##ill
nag
kl
kon
##um
and
##ker
##sp
##va
fa
##op
##sl
##ation
20
##bb
##ord
##ant
##yg
far
at
ny
al
##ick
##ft
val
##ff
dar
##je
##se
##ser
##arna
da
##ke
##und
##sen
efter
stor
sig
##ost
li
per
nu
vara
##ger
del
ta
##ett
##ov
sl
##ør
##ock
sj
##ligt
##ev
##dag
gr
##sta
finn
##aste
pl
dag
##bl
lag
mo
kommer
##bet
gor
##im
##ans
##ga
gj
mer
bor
##gar
##per
kr
gen
kv
##opp
kun
or
##ark
##ling
ann
allt
vil
vill
ver
sin
##ene
##sam
mot
##jon
fr
##da
alla
mig
##ic
##ikt
tr
sy
finns
tra
sv
fram
ju
##ann
tid
##son
##ika
##ber
vid
bra
lang
##ass
##erna
inn
bil
hon
opp
lite
##ycket
19
##org
##ningen
##era
##iska
##kl
pr
##yr
##ka
beh
##ende
ex
##ekt
mycket
mang
vad
komm
##edan
##ats
##iga
jo
##eck
##satt
bara
hur
##dr
re
##av
##ier
sen
##del
##eter
##oll
##sm
blir
din
genom
##ott
##00
##ket
reg
201
aven
##liga
sex
##ja
hem
ock
##vand
##ulle
##ligen
##jer
ocksa
ma
andra
##alt
ser
ol
##pl
gar
##jt
##be
skulle
hade
sag
fin
##men
mat
samt
ber
##ia
detta
##mar
br
th
ch
hand
dig
##ningar
hj
##hall
##ack
bet
##som
##skap
ty
##ske
ik
arbet
##vis
##ere
##bil
##hol
no
##alv
##ering
person
##ank
##ygg
el
verk
##itet
##du
##ala
##ring
sm
spel
##ige
##ssa
et
##stall
dat
##enn
##ug
satt
##ara
gang
##lag
res
on
fol
utan
van
pre
fort
##yn
##ster
nat
bli
barn
##orr
oss
##ilj
anvand
gl
##ighet
##ien
hog
nagon
##aren
land
ikke
##ju
##riv
##ie
##man
svar
best
fors
manga
##kel
##pa
sven
##land
sedan
##eder
helt
der
##iskt
##if
of
##sb
##rad
##ult
##tal
##ets
##over
##dre
##gang
sn
nagot
tro
##ken
##ær
dem
##jting
kommun
mal
ga
tva
##me
##sn
hall
gora
liv
bes
##unt
##atis
god
lig
ble
forsta
##lighet
mar
so
##form
##ste
le
sitt
##gi
kra
tre
##asta
##le
##ote
fick
mell
inne
bru
fil
##net
##else
jobb
fun
hu
##ys
##ci
jeg
##ge
vet
sjalv
idag
seg
##lar
denna
##ater
blev
##orn
##ce
ratt
##kten
sver
##jan
##verk
##ner
##ader
##nad
##aden
gratis
##ram
va
hitt
ni
##get
vag
di
##ress
olika
vis
par
##nings
hela
kop
utv
##ytt
##amp
##yd
##ida
##far
rikt
kj
akt
saker
int
kall
nagra
##pt
ja
##ks
nor
inter
##nas
##amn
dejting
##bar
##kom
vikt
bade
##ingen
maste
lan
ligger
##rat
##age
las
su
18
form
nya
runt
##vet
dom
##kar
tv
##ont
vin
##vud
kor
te
mann
forst
##asjon
##aget
##ef
##des
##tem
##ym
kar
##ades
led
##van
inom
##ikk
pol
##eb
200
hjal
##holm
tran
##ativ
varit
hos
kvinn
##ktion
kanske
ord
sna
ka
ra
frag
tyck
ans
mellan
##ert
fam
##unn
kont
moj
##dom
##pel
rad
##ust
huvud
##jar
mark
to
##kter
sla
##ella
##aller
lik
skol
tar
igen
etter
10
bok
he
fatt
produ
##ine
##uren
dessa
fast
am
sverige
##agen
##atten
bland
skal
mest
##uk
##yl
foret
mitt
slut
eg
##bord
la
##rev
##jen
##rupp
ater
vilket
tal
hal
ved
dess
fakt
veck
bo
##sh
stock
innan
ant
ingen
gra
na
tan
ek
##ata
bak
jul
##fall
beg
annat
##rik
##utom
##rum
lar
stockholm
vald
##sson
##ps
gam
##ow
##gr
sid
star
kn
##orna
##iva
ur
##ære
just
##ts
før
the
##heten
ner
fot
besk
##fl
plan
dr
##øy
alltid
##fatt
ogsa
##fil
stora
dette
hans
##alen
forsk
forb
hv
hen
fre
vart
mass
##edel
im
##bak
##nar
porr
fall
##str
##anska
##stem
##met
##ha
##sv
##yk
sina
basta
##oj
her
##ess
##erade
##fr
##enter
lin
nog
svenska
##sak
behover
sol
##io
##igare
##pe
##ns
mor
red
batt
°c
sel
##ings
##orde
##pro
##iske
##sc
##skar
by
bro
inform
ger
varje
##snitt
##takt
pris
pen
kunna
skriv
tje
fy
ge
str
tor
enkel
##ial
ne
eu
stall
samma
varl
eftersom
##jekt
familj
##erar
15
##ada
pass
##ederbord
sager
##ratt
##pr
##led
##bo
##empel
##ari
##stand
hus
tank
bygg
gick
##jud
utveck
mus
##arbet
nord
##bild
##xt
##gram
flera
sist
##min
tag
##rekt
sal
egen
mm
##esta
sh
em
##elsen
##uss
##sid
##lem
mil
##ret
##utt
ro
valdigt
##blem
##borg
##giv
sok
##erat
mannisk
##perat
riktigt
dock
hopp
latt
full
inga
##end
kort
##rade
##mal
behov
koll
##par
12
ad
sak
##hand
vide
enligt
##erad
bort
##res
tror
##red
tycker
##iken
art
bilder
we
ca
##fol
tur
tiden
snabb
konst
##iten
##hus
spe
km
##ister
andre
##ler
grund
ly
##adde
##olog
si
##ard
blog
ak
lever
##samm
kost
varm
##istor
kontakt
mina
battre
ab
galler
##ina
##onom
rek
##ellt
ned
##lagg
##slag
##iver
##upp
##sfor
foretag
kro
##berg
folk
nytt
##sdag
ditt
##ue
##val
gjort
mindre
natur
##nade
##iet
##vag
fortsatt
rel
jan
##ung
verkligen
##tra
stad
ste
##las
##alog
##ian
##ipp
##mark
ingar
##skil
tack
svart
aldr
kunde
my
##pet
##by
dating
mis
##dan
komma
intress
anda
##ionen
##lek
forsok
syn
problem
list
##ubb
erb
##ars
ov
lu
kvar
noen
tog
trakten
ag
tim
exempel
##sch
##orer
##ivit
skall
ev
trad
styr
gjorde
##rakt
svensk
eng
lat
bed
fi
##eng
17
##sammans
##anis
##fe
hadde
meter
redan
information
tidigare
org
##ider
kvinnor
##ektiv
30
##ct
##cent
##uter
stud
ham
tillsammans
deras
##radet
##rang
##orter
aldrig
11
##beid
co
##akt
lok
genomsnitt
##ora
##øl
##ester
##orgon
medlem
##ationer
##sten
manniskor
ute
##aster
##peraturen
part
fler
manaden
hun
tek
##etter
##elser
være
milj
##stad
##andet
app
##ob
##ultat
##samhet
annan
onl
tillbak
##gifter
jam
16
esc
##assa
alle
##rak
son
##tid
##ingar
##øre
direkt
##rar
##pen
stort
vatten
hitta
stod
lo
fant
sma
##egg
stat
bild
norg
polit
##yt
sjuk
##br
enkelt
porn
dagen
borj
dina
landet
krav
##ært
rol
##ds
behand
post
darfor
##iker
bi
plats
ind
hy
off
honom
##ruk
kval
selv
##temperaturen
##spl
hjalp
sta
tillbaka
##med
samtid
kron
tjan
beratt
namn
denne
sar
##skol
gran
tel
##ember
webb
ter
pu
liten
##eld
##omm
start
##atser
##river
ok
##tr
##lingen
##ex
familjen
grupp
lyck
##anden
vann
medel
infor
noe
ganska
hemma
##iner
##sf
kat
sc
storre
kvall
film
##ennom
traff
rak
##lut
mu
##tern
histor
mon
nederbord
delen
ofta
henne
online
mojlighet
##inger
##cis
##mo
titt
14
program
bel
fem
##ip
##ator
vax
##ond
##illa
ung
##int
##lev
##raf
ih
sø
fel
##sikt
personer
lika
saga
##ition
matt
gjennom
eff
resultat
dessutom
##ide
##heter
dra
fri
##asin
##ennes
##ktet
dis
fred
##andel
speci
##ometer
langt
tekn
##ale
euro
viktig
nast
escort
prov
faktiskt
##amma
##ice
##bland
gre
typ
stra
ba
haft
##slut
besok
kropp
kanner
lak
13
rum
dal
match
ytt
folj
tjejer
tha
san
antal
##rift
##ydd
nett
visa
joh
hennes
dan
vack
ob
ang
##vard
ansvar
100
anvanda
litt
go
199
##elig
##bart
end
precis
massage
soci
##kop
##ve
gote
##ationen
##ilometer
##rukt
kons
beslut
##iter
kul
kanns
goteborg
##nat
##sattning
met
cent
ville
##inner
bek
mid
##igheter
klar
##ite
lange
##este
disk
via
innehall
norge
##elt
forl
sett
kna
samhall
lø
cat
kur
pengar
po
hund
##ons
##rot
##nen
##icka
kult
##drag
bill
dam
bas
sommar
is
inst
id
dagar
inget
##ille
topp
janu
utfor
havet
##naden
utbild
##kor
##illar
funger
regn
##inna
des
##stallet
##spel
##ind
##aga
aldre
25
inv
##ift
##eras
##ong
forv
gener
rik
vilken
knull
##saker
langre
samtidigt
##lla
##ras
tem
ganger
##els
nam
nastan
kopa
varfor
##hold
##fekt
##ins
##tes
organis
vissa
lam
gu
##alla
betal
000
flytt
bol
borjar
##iss
kjø
##lige
istallet
com
byg
alltsa
hoppas
mill
ror
if
##jur
tot
##nader
bad
lov
do
##imat
los
nov
##efon
varld
system
blivit
senaste
##jor
##arter
mange
50
fantast
##spro
bid
##ies
##sker
vidare
utt
hor
ener
##one
##otell
vard
snart
##ioner
senare
aug
gott
##istr
borjade
yo
jatt
##sida
##folk
annu
krist
##ningarna
##fer
egent
sang
##smedel
ho
ekonom
kontro
innebar
pat
ben
bruk
##als
##under
tillgang
##jus
##atsen
##oden
##gift
##ivt
halv
høy
vir
##tag
##ynd
glad
##ød
##farande
leg
me
igar
samman
vilka
##gor
minst
aret
publ
##anda
ibland
##ron
extra
arbeid
lek
garna
uten
tav
##itu
00
nasta
pos
##hor
syd
as
trots
jun
##kur
ul
##ternativ
rom
papp
mag
finans
enn
##bel
##rott
##senter
life
##revs
ren
##ever
sarskil
gamla
##lad
##bud
##klar
ap
natt
bare
##ers
meg
sista
##ograf
forut
deg
mobil
nara
video
foren
##alj
kap
sjal
haller
pun
##styr
ytter
##vid
stand
##joner
##staden
januari
kred
hol
visar
dejtingsa
##ux
juli
bost
kraft
fortfarande
mater
komp
lagen
storsta
##ummer
##reg
hvor
projekt
hotell
slik
vant
enda
sadan
sitter
endast
halla
##vall
narm
##cka
klart
##juder
alt
##aler
anal
bety
##of
frem
##igaste
##vor
helst
fore
verksamhet
sw
##aten
framfor
blogg
##esten
slaktet
##nam
norr
vært
sch
pop
##før
bon
##jo
##amm
tom
kok
klass
hittar
##anter
##anns
pla
underarter
##ny
ide
##andra
beskrevs
kultur
vel
##he
##ivers
bran
mode
catalog
##bol
bred
lasa
moder
##gj
august
livet
##drar
##sok
##fin
##ystem
##ument
ford
##ate
##ore
ovr
hver
priv
gatt
hast
mamma
##band
##vik
risk
##anger
jord
flere
##slo
##eringen
listade
heller
catalogue
rep
esk
kvalitet
stu
gav
##ede
pros
##bin
but
alternativ
mye
##okus
##gard
perfekt
ku
##ocker
##grupp
spela
fragor
invan
musik
farg
##sel
##ligare
kam
ihop
intern
anvander
##raden
##sett
##ette
##alis
##bygg
##ten
2017
##its
super
sammen
gir
fikk
rapp
erbjud
flyg
##ry
gangen
hva
serv
bast
##kan
dod
##sin
rund
##oc
##raft
##uta
ban
##dagen
tyd
telefon
##stra
soker
##bara
##ium
mø
##svar
free
gud
sidan
procent
ps
fyra
##ander
juni
sing
car
første
skog
lad
##ags
##ph
funktion
mojligt
##ukt
univers
talet
spar
##elle
stan
smak
snabbt
aren
##cept
vare
##gjen
tills
##otter
mellom
erot
berg
kal
host
##ivet
trev
sjalva
tips
borja
flesta
ungdom
##ab
##omen
invanare
log
kredit
omradet
varlden
fina
timmar
kamp
fokus
knapp
pri
slapp
skriver
##arer
les
##ive
ars
dec
skj
nak
##sla
skolan
insp
2018
desig
lev
fo
tak
feb
egentligen
##ity
bada
handel
handlar
jamfor
casin
gjør
viktigt
##dejting
ac
stark
##agg
morgon
oster
198
vanligt
arbete
gillar
kvad
##so
ton
tu
vecka
vaster
sverig
artik
##skapet
##klart
skar
##eln
sep
##tre
dej
und
bank
##ommen
##iz
skapa
bal
ens
##ninger
egna
borde
haha
##hl
test
minuter
medan
kvadrat
##lade
amer
skriva
##full
##bor
24
##dar
ljus
produkter
huvudstaden
sem
##ror
dro
21
ovan
##ifran
ring
fod
lilla
foral
vak
##entet
##dig
##imeter
vanlig
sov
##ven
registr
##ren
rost
soder
gjøre
##inne
kyr
##pan
##samma
popul
##faren
##iden
##ral
arbets
okt
usa
gol
natet
hot
kring
dy
22
føl
##raste
##lat
rev
##egor
valja
##ike
##dera
omfatt
aff
resp
massa
sek
##dat
veckan
brukar
##kes
##ng
alskar
dok
bu
lagga
emot
kompl
##fors
aka
skatt
ing
disse
##ksjon
malmo
jon
##tera
##andring
##nande
gul
sida
##ane
bud
##uella
40
fordel
##derar
samarbet
##sst
siden
borjan
maj
##iller
##ht
##ona
fraga
inkl
event
skick
##yll
unge
##ca
rod
delar
utveckling
##isen
##up
grunn
##rikt
verkar
ins
cy
apr
##onen
##iser
sagt
material
lug
##aa
install
manad
prakt
nye
197
valkom
fanns
roll
kopp
fisk
##ich
natdejting
##yss
2016
mars
varmaste
dejta
##anga
##lingar
##eta
bestar
favor
hogsta
fint
klubb
bef
erbjuder
kallaste
##lan
arsmedel
internet
ko
medeltemperaturen
kronor
mog
##øn
dags
elever
arsmedeltemperaturen
vit
tanka
sveriges
karl
millimeter
vux
kunne
bostad
##lam
##bok
##sakring
sall
2015
##emen
##igen
tanker
mott
tillfall
septem
trott
webbpl
##annande
augusti
luft
september
genomsnittlig
##kilometer
tred
effekt
tryck
##ober
##ish
kvadratkilometer
norsk
nej
passar
kommunen
utanfor
vem
##ots
##plan
##co
vast
##let
##rag
engel
omgiv
filmer
sarskilt
##frag
bestam
##koping
it
energi
##juk
febru
##ib
utvik
##nes
##rek
tren
##anta
##mor
situ
torraste
##skaper
hov
arsn
##vs
##film
kol
regnigaste
huvudsak
mak
arsnederbord
text
november
forra
rett
laget
alder
dagens
##alet
##skriv
johan
skap
posit
##igheten
##batt
kunder
##skin
fag
##ash
kanna
##sidor
erfaren
hard
kommit
##oligt
ata
avtal
fe
kvinna
him
nav
inf
##fik
nation
store
##vast
##estaur
cir
cl
last
##ppar
ve
##ana
##øk
eks
hjalpa
vagen
23
##øm
indiv
restaur
##spr
oslo
##cer
anled
inspir
##oter
sik
##ko
tjej
genomfor
klock
##leg
lord
roligt
##xx
##nt
beskriv
presenter
ph
gro
prat
##rack
sakerhet
yr
##sar
stør
##sport
pe
oktober
prof
rekommen
viss
anstall
vanner
produkt
abs
jobbet
2014
##ita
fj
##atta
##verket
skill
##ub
##star
ram
marknad
fyll
alls
##legg
##oende
boken
##ryck
eget
##ix
godk
famil
driv
vol
##kort
sport
##strom
framtid
rader
varandra
øn
annet
skont
allman
akte
kund
spr
mand
narheten
unga
upps
dist
##lin
##boll
196
##wa
##bund
##emot
sand
##set
foljande
##isa
ytterligare
##ffe
gi
##part
april
##ena
offent
arbetar
igjen
stol
behandling
sil
ander
miljo
psyk
gym
date
##jter
traning
tagit
aktiv
##kon
##uell
sason
stil
igenom
veta
##skl
##delse
veckor
konkur
##bro
tankte
kolla
dit
djur
gemen
##ordan
##sav
forslag
##rett
anvands
omk
utbildning
annars
amerik
noj
##llen
##ise
##samt
imorgon
##emang
tj
universitet
##olut
sakert
eskort
##otek
##arn
##ension
##unkt
norske
fon
liksom
##fri
span
hele
##skan
##still
##oren
##anser
##befolk
new
upplev
ej
ten
##mel
internation
social
fer
service
visst
hvordan
##slan
hander
lyss
skad
manader
titta
bruker
tri
satta
ret
kroppen
spelar
##dere
max
godt
indu
forsoka
barnen
sim
##mt
##atan
totalt
##æring
##iella
##varande
##veck
##her
##varr
blod
karlek
niva
kunskap
blant
forfatt
fly
grad
port
##kta
arets
hav
tillverk
##okrat
inlagg
##unden
tredje
otr
heter
fungerar
##ital
minn
tyvarr
peri
tol
fest
od
pal
stund
tidlig
##ansen
december
arrang
thai
forel
sent
bakom
fix
innehaller
##enser
betala
kara
effektiv
sprak
leder
##bruk
oav
hjel
privat
komment
##unch
##back
60
##agar
hej
##lo
holl
data
nedan
oft
ansok
stam
sant
forh
bilden
##ure
##stri
ifran
##ey
##sd
##itar
##urn
ass
##unda
bj
##sg
uppgifter
##sidan
sten
forsvar
varde
##agare
bilen
lara
##isjon
wh
##ova
lagt
##book
back
fys
spannande
forhall
filmen
##ba
##sut
##eri
##ea
februari
vardag
##qu
traffa
##ota
qu
nok
casino
mynd
##namn
avslut
##deles
2013
defin
forbatt
##ink
##ica
bedom
##lands
rundt
gall
##handling
utom
forstar
undersok
recept
chr
aker
fas
igang
centr
##tar
##edag
ark
hogre
omkring
##ces
steg
##tak
skil
eta
##oder
##mat
kre
region
##asser
paverk
##skatt
helgen
mys
elekt
later
##pon
##kr
##ith
##ham
cm
pres
##produ
##assage
##alist
##ligheten
anv
design
##kn
con
lamp
can
krit
samme
regel
face
teck
##stol
forskning
##los
af
vinter
provin
glom
bakgr
jobba
kombin
speciellt
kvallen
##po
spes
bev
klimat
##mera
dejtingsajt
##jol
##50
vatt
##redning
##ork
##slaget
##ias
kilometer
26
##onser
##arnas
pot
sur
##sade
nr
invest
##oo
hum
lon
##malt
sexiga
28
2012
##dde
##iteten
knulla
trygg
betyd
platt
##rateg
ungefar
blitt
ww
oper
hjalper
folja
27
klader
##enten
oppna
sier
##uppgifter
##edet
terrang
gri
##dering
##orl
##ban
##hav
glas
personal
kompet
skydd
##skydd
hvis
##enskap
##ologi
skrev
fragan
##itut
##ald
##but
forsoker
bestall
lank
##pass
tysk
siste
valjer
tall
##stid
##ager
uppta
skul
plac
##splan
kand
mel
oavsett
kart
ses
hjem
mote
##skog
buss
dju
storlek
##mi
forutom
##vaxt
##har
##ativt
##rust
sine
##sing
##ly
fjar
kontroll
##komm
##rans
bod
##20
##assen
tilbak
##satta
##blad
tok
ogon
smart
194
begyn
bur
lagg
ein
public
deltag
fortsatta
europa
yng
sym
www
porno
sju
pappa
ovriga
##ild
facebook
##aka
verd
2010
forvar
ed
##skt
tyckte
##asjoner
skyl
huset
##usen
resa
##otten
##mid
sker
##skade
##betal
ros
##hj
lamna
ir
jav
varldens
platser
##eldig
skon
veg
snygg
##angen
##za
kategor
##ygga
ry
stopp
##use
antalet
goda
otroligt
bat
##rav
oftast
##vart
##kla
delta
fan
2011
##ugg
bla
lop
vanliga
##port
##pol
##eden
matte
avs
##iat
sann
framst
##huset
dokument
fla
stallet
ljud
toppen
øk
##øtt
##san
29
slutet
link
fredag
fal
ske
hud
##amnar
finner
dare
##ola
##rig
##ement
hit
ras
##arbeid
nod
##les
xxx
jobbar
##ernas
klockan
krig
ivag
ting
fores
forandring
##mann
spelare
terrangen
damer
hjart
##ii
miljoner
klipp
##skor
beror
forklar
##ilt
samband
##terna
darmed
avl
##ista
sør
etabl
server
motor
##vent
arbetet
dejtingsidor
lokal
darefter
lager
hoj
##ffa
vilja
forsv
##jarn
##ych
vers
dejtingsajter
tjanster
##smark
##fte
are
provinsen
##cc
arbeta
tillegg
alldeles
hoved
pan
##ente
brost
utman
##ach
nan
##skad
betyder
##uellt
menne
drom
kontakta
massor
trafik
erik
##samheten
fotboll
##jell
profess
spring
lunch
wid
trak
rut
##rukost
exempelvis
forsakring
##skolan
dubb
gammal
naturligt
fullt
innen
##urer
informasjon
gikk
hom
elev
193
##sø
varen
##dress
anvandas
helg
bord
behovs
thaim
stre
dejt
##gaende
##skott
lund
nær
rack
mod
ital
31
passa
kopte
##isar
beroende
forek
##foret
##bli
##serv
kommunik
fart
##atet
middag
fru
##allt
tat
aller
##iviteter
flick
##inst
punkten
ident
kontroller
##ila
you
slutt
press
bry
##ften
veldig
##uten
profil
sort
##oret
##ern
##sj
##folj
intressant
uppdrag
##iel
ot
scen
liknande
##person
tatt
daremot
##garden
len
##ism
sad
cirka
##inge
fang
sty
##vist
band
kravs
tjen
hora
##ode
namligen
erfarenhet
##dater
beste
hø
slag
kande
mens
menar
finne
195
##add
uppsala
samhalle
##eringar
kostnad
industri
utr
antligen
thaimassage
frukt
admin
sitta
autom
##cke
##repp
tio
sadana
##smal
present
##rande
lata
##aljer
historia
vackra
laser
foto
tidligere
##icin
80
##ega
bocker
##erne
tanke
favorit
##ya
##lys
gron
berattar
promen
500
##seende
##juta
vaxer
##ensen
amator
prin
web
resten
sondag
foretaget
frukost
derfor
rapporter
sommaren
videos
enkl
staden
kora
##kont
##tering
##garder
ager
rapport
prata
ikvall
katt
htt
ume
fotograf
anmal
absolut
mannen
let
##mon
ønsker
lage
bygga
tand
forvant
##af
uppf
strateg
dri
##sattningar
tradition
bit
typer
langa
##vin
kung
fitt
##forande
neg
regler
interv
ost
riktig
bloggen
dyr
sjukdom
##komst
fastighet
70
brott
##itter
chat
butik
191
##ils
plus
hittade
vanster
##bur
frit
##fritt
##off
##klader
skade
tas
engelska
trodde
fro
guld
kir
chef
##visning
finland
ald
individ
##inder
##uts
kostnader
2009
lagger
##rike
##nytt
tit
meddel
forvalt
centrala
##ton
##kelig
klicka
valj
teknik
##tet
narmaste
omraden
anna
medlemmar
finnas
fodd
mart
ensam
##ativa
##enner
verkt
sod
lander
parker
tilbake
mulig
semester
inklu
hemsida
torsdag
##erande
farger
kalla
skicka
sjalvklart
##samling
##staende
##ama
rec
##ansk
fantastisk
klara
personliga
90
poang
##owan
vas
##hu
sova
maten
helsing
cam
allvar
omrade
spill
foljer
poj
##sorg
##stor
arg
nyhet
dere
##cker
##verka
behova
##bum
tankt
utgang
team
##ører
##stallning
##befolkat
videre
##ations
framgang
dorr
dla
##filmer
ore
##zny
misst
##ions
##lever
isl
vaxt
forhold
bruke
opt
bør
##ula
standard
##owanych
zalog
##oczny
widoczny
zalogowanych
##asjonen
##ocka
diskuter
##fa
##bu
reser
varme
priser
like
##ierna
klok
##fta
##dt
##unnit
christ
ulike
##enting
andel
tex
not
vantar
foraldrar
frank
drag
samtliga
namnet
yngre
prosjekt
##iti
blom
out
hant
oka
fortsatter
nojd
##ight
##ktioner
##ifier
rese
forsalj
uppe
##si
2008
##kj
##hang
reda
resultatet
forber
visade
borjat
valkommen
live
##rader
osv
##gn
transport
tidigt
sasom
enskil
bedre
motsvar
kant
gjen
dela
##ee
##edd
45
hell
prova
##isten
##bru
tavling
##rep
tillrack
europe
intresse
utmar
jack
##lare
##emal
dels
park
salt
##cess
partner
daligt
serien
pra
fu
sidor
ill
litet
##ruktur
larare
vok
utifran
##agra
hart
char
##ligheter
solen
##hi
##skje
##yp
dejtingsida
dator
fir
##bi
drift
digit
sodra
varmt
john
hogt
sat
anledning
energ
##cif
ont
uppmark
rull
sydost
gode
vari
slipp
##gende
radd
tw
##olig
cre
##urs
nummer
spør
tvatt
valg
exper
integr
nyheter
jes
##ovis
varier
malet
##janst
befolk
cykel
##kant
##mant
##resent
ingenting
icke
avsnitt
uttryck
svara
umea
##hem
sub
##sket
##press
##anske
kak
kvinner
##ump
onsdag
aut
ovrigt
lordag
##teck
jak
sats
35
jur
halsa
sadant
norra
rent
##vax
underhall
lind
nodvand
gjel
forskjell
omgivningarna
girl
##umenter
tum
drog
##arbete
aktiviteter
makt
col
##ble
##bes
saval
beratta
##garna
hang
infl
viser
##ssystem
arm
leva
villkor
menn
##urser
got
ep
yt
black
ena
##skning
ru
først
##nn
##ppen
##ektive
##sjon
##foren
##stav
sund
prote
kanskje
##orda
allra
glob
hoga
gast
amb
##ksom
##hov
marker
kallas
natten
prø
##ho
kraver
statist
##skri
##bilder
samarbete
programmet
sociala
stockholms
##ekv
bonus
skola
adress
##ips
##ose
##lagt
salj
ofte
vur
ax
utveckla
exakt
kansl
dalig
italien
forekom
peter
brand
##mm
mera
utnytt
cook
##yser
##gjør
##rummet
##inar
lju
avsl
##ting
kri
##delning
vader
dans
kuk
kjent
##ødt
sangen
##satte
agg
skapar
##ben
vitt
##oppet
inled
##ienter
søker
møte
##plats
viagra
##ytte
##kraft
langs
kott
respektive
##hal
anvandning
nakna
tjanst
spesi
##pport
relig
##cy
dø
gift
##ines
himla
mej
spen
##pper
snar
gal
kram
##endet
##ycken
ekonomiska
lagre
jatte
##program
kaffe
anser
mojligheter
192
##utveck
viktiga
kandes
onskar
mogna
extre
satte
engag
stalla
##bon
rid
trevlig
je
enor
spelet
forr
##ors
##ius
skit
berak
##fs
fordi
skillnad
##ile
puss
net
will
princi
kata
kille
2007
##bundet
intervju
sign
gay
##ktar
fard
fritid
lill
finnes
konto
ah
grader
##takter
senast
##utbild
2000
forstas
onsk
soka
medicin
vind
with
##dem
stats
gallande
enbart
dotter
sot
##istan
urspr
##okt
##laggning
##ura
##bas
skratt
190
##ført
produktion
erbjuda
##zz
##fun
##len
sjo
##pris
bidra
##ogg
##lø
trevligt
##ordning
##ftet
##syn
normalt
anslut
sikker
##edagog
uppgift
mjol
bygger
drar
ster
skrivit
finansier
##udd
##bert
##stre
##erte
inb
kast
framtiden
kurs
nagonsin
##stans
uppskatt
utover
kunn
brev
bus
gruppen
automat
bekv
##agn
trana
dryg
##delig
spa
nordvast
fig
tillhor
##raff
verksamheten
visste
##rid
lana
plots
##schen
lattare
mom
gymnas
hoger
##ball
idrott
mol
mandag
yrkes
plast
grav
##lov
rabatt
regeringen
stang
##aland
gard
naken
mail
oppet
dest
##roll
utb
svært
etc
webbplats
##han
triv
aust
##gren
kansla
fyl
atgarder
##spektiv
laga
bom
##kast
##fort
##føl
journ
##vara
goog
boende
muse
ordent
lyckas
ursprung
samtal
spelade
ansikt
side
punkt
okar
##revet
regionen
sms
satter
saknar
mas
aktivitet
##ire
fantastiskt
vuxna
vacker
miss
##ykk
studie
modell
##ningsvis
produc
300
erotisk
drabb
student
sjun
##sper
sjukt
personlig
saken
barne
##slagen
##una
forest
shopp
##orden
helse
##resenter
vanta
delt
njuta
lokala
##igg
porrfilm
konser
detaljer
dvs
maskin
testa
datum
jenter
oppen
##imer
boll
boka
lock
##inal
hosten
##iens
ris
forbi
##usjon
##ansvar
forening
borta
##makt
byta
##sex
bidrag
barnet
danmark
handling
##somrade
handla
eksempel
lett
##bell
##ungen
##nummer
pension
dagarna
##erer
36
media
mask
##gran
medvet
##andes
kla
tider
##hamn
2006
leverant
##ckar
hals
um
still
reklam
orebro
vore
##pas
hd
utmarkt
##skomm
period
gravid
ordforande
knappt
##larna
stress
bolag
##rin
##anse
##jut
forn
##pun
smar
lakem
verden
##spol
saklart
anders
##shus
up
undrar
##ialis
tyskland
nordost
##byg
vastra
##øres
vita
##kning
centrum
##we
##iger
marknaden
vall
sno
entre
vattnet
framt
givet
##usive
sum
sluta
##gas
skor
iaf
bilar
starka
serie
##medel
##passa
komme
mjuk
samhallet
artikel
carl
lugn
affar
##sled
billig
##xa
##rom
##kat
frisk
lesb
alko
lagenhet
miljon
verktyg
tankar
##sliv
sos
kil
tillrackligt
lyssna
hvil
##verkan
##alder
city
kunnat
priset
##ema
info
nack
##skon
spara
plotsligt
tanken
##ios
##ms
konkurr
rygg
##elige
##sad
kjøp
##ec
##vir
fett
special
##sted
##spekt
maria
##ppa
specif
bevis
##ube
tillstand
lack
upptack
tradgard
##givare
halso
valt
##lle
dersom
fantastiska
sydvast
##natt
##por
##skola
overt
vest
##klimat
studier
politik
ligga
##dal
varden
cit
deres
hamt
bibli
lond
##cep
##arta
framat
##kk
stabil
antingen
strand
##orlunda
opplev
##dene
fored
sasong
##gora
##uc
vinna
endr
##bolag
##hel
##lande
mesta
oke
##styrelsen
##ningsm
narmare
fire
mangd
##hy
ihag
##ake
01
##ffan
kyl
timme
problemet
medarbet
tube
japan
##punkt
flytta
##atch
innov
paket
ansokan
strax
##ient
kommune
naturligtvis
album
##ekk
hvert
studen
javla
restaurang
##sor
tisdag
##fred
mennesker
gif
større
harligt
##dus
støtt
antag
##ange
##skrift
fyr
dukt
uk
nagonting
##heng
kommuner
taget
minska
annen
##ærer
utbud
vagar
vist
alkohol
formod
projektet
forlor
##hop
prem
##gangen
kommande
##vika
utrust
vars
##skont
løpet
cookies
##alg
rim
##asa
##yttet
detalj
##dd
fredrik
don
kjøpe
overra
angel
##ood
rym
polis
rock
uppfatt
matchen
organisation
kong
##bef
økonom
motstand
##igh
overv
slags
pap
lake
##dels
utform
##lor
vuxen
http
betyg
slar
herr
##ningst
ekonomi
div
tving
starkt
huvudet
betydelse
##ologisk
run
##jal
hatt
##laget
tun
ort
##fiken
demokrat
riksdag
sav
relativt
blomm
london
##centr
08
født
forand
nyck
chok
##anner
##etten
søk
stick
forum
##lik
vinn
representer
klad
samarbeid
gjelder
utred
regering
papper
enhet
tillamp
utgor
##oss
tonar
distri
spra
##slos
os
tung
syk
viktigaste
mork
##utter
orig
mad
##iment
##slapp
datorn
sasongen
##ction
##varden
##ongen
##anen
fitta
okej
##terar
189
##ctor
øy
forbund
##gruppen
##partem
mik
##alitet
bestem
annonser
prior
lakemedel
ladda
bakgrund
mate
ei
finansiella
forhopp
##sprogram
monster
##endig
sky
betydligt
##kker
strom
jarn
##emat
valde
dol
fonster
ersatt
##beider
##stod
harlig
sexlek
medier
forhand
##stalla
hjelp
hamta
naring
##stone
rosa
sær
modern
lans
32
##aterial
07
utland
vat
vand
forte
garanter
eftermid
##farg
karri
##ase
skrift
senere
elektron
perioden
us
##iera
##ap
hotellet
systemet
vetenskap
##urt
numera
2005
brukes
mg
norges
rok
lanser
russ
##ferens
marknadsfor
regl
diskuss
##sby
lyckades
sikt
korde
##ment
kyrk
##kommer
offentlig
##arken
##oga
##rip
snygga
##kade
grupper
##klubb
##kke
bag
spiller
forvan
##bler
tydligt
ges
intens
alex
tusen
djup
master
vansk
09
straff
kostar
magn
##fyll
##asje
vinst
ordning
nasjon
underbart
skiv
yout
##bank
jamfort
33
kg
definit
tema
##pren
modeller
bidrar
musk
coll
funn
##ills
bolaget
total
avgor
lista
folket
landst
svarta
bestalla
##unnen
singel
##fest
vm
polisen
##splats
rolig
sorter
laste
pratar
plass
lys
fixa
frankrike
skjer
klubben
kommentar
oro
##ologiska
bre
anstallda
myndighet
comm
skott
naturlig
hamn
utsikt
uppdat
pek
forskol
tittar
lav
accep
tunn
##ringar
forhallande
##sr
ven
##oster
##adress
foreningen
brun
represent
##arder
gamle
set
prest
sommer
milf
stav
falt
staller
##irekt
internationella
##aner
##kopp
##iljo
jakt
promenad
##eller
bir
kompetens
skam
ordet
konsekv
##organis
##pat
##agt
real
dusch
##vo
lars
utsatt
mun
underklader
rem
##ktor
institut
koper
##sratt
killar
##pla
fell
##ular
##edes
bekvam
symbol
roliga
##uer
##ira
morgonen
goras
##pack
##adem
##th
gull
martin
trenger
kuper
atta
anses
gors
atmin
ky
utvikling
##talet
arkite
kallt
underbara
prosent
lakare
##eren
visas
omsorg
##lund
##vert
dyg
drygt
##ydda
forutsattningar
driver
camp
avgift
respekt
teg
cialis
##somradet
por
##assan
##fton
personuppgifter
bilderna
##ktionen
administ
##ford
hojd
skane
kompis
kontor
##spar
##ifik
##isering
kopt
sannol
annorlunda
##pos
slutade
##system
parti
magen
presid
play
profession
##mot
syfte
##ign
ialla
##amin
hogst
##ior
##ollar
##vel
slog
stal
flash
hort
##marna
pet
kampan
##anc
##foretag
singlar
##rasjon
starta
lant
lust
sof
##eratur
radio
##hen
formodligen
bestamm
kem
sprang
intresserad
utrym
##ønn
##chef
mening
hallbar
ersattning
kuperad
kapit
horn
##asen
##ses
##ertid
##varl
debatt
##stru
skogen
uppdater
personen
helsingborg
lamnar
grym
britt
redovis
het
ideer
##cessen
nød
budget
fordon
fukt
kunst
atminstone
##stat
ug
forsikt
kommunikation
populara
inlag
##vatt
kommentarer
samling
kjær
relev
site
##gt
riktning
former
air
fyller
samtidig
anvant
bergen
##leva
pedagog
##ics
dei
forsaljning
ip
stalle
faktum
##10
orsa
##verksamhet
givetvis
##anten
inklusive
##omradet
byggnad
##det
choklad
rummet
kyrkan
leda
##rast
deb
##ino
konstigt
orkar
hyp
mansk
aldri
chans
mener
##amen
paverkar
tala
utgangsp
anpassa
google
siff
##agram
flott
big
400
forbattra
##angd
mult
mogen
nuvarande
##phone
nas
sted
hann
jesus
gles
ke
iallafall
varum
2004
34
formaga
##ower
##draget
kina
##iven
talar
spesielt
##skraft
pul
mic
tydligen
188
sens
øv
syster
gratt
hat
roda
hantera
##oker
lugnt
invand
this
klarar
analyser
##sken
brukt
underbar
fø
kanda
ungdomar
kapital
##vers
##delar
##aket
##elen
##fot
undersø
rekke
inse
##heim
resept
##iell
sjon
pengarna
55
hittat
mitten
kontin
happ
popular
normal
##evel
##stam
politiska
##skal
rot
##ox
synd
##stift
amerikanska
ordentligt
##splatsen
##uft
bjud
minns
smid
salja
##sart
objekt
arene
teater
youtube
tru
slakt
##sil
hak
austral
prioriter
your
malt
utvecklas
miljø
sallan
wik
##empl
stjarn
##ante
mord
##oda
okad
enkla
mats
neste
soffan
##hund
saljer
inkop
05
wa
mich
huvudsakligen
politiker
pam
forsokte
ostra
##prov
##bran
publik
##behandling
op
##maskin
skid
næring
75
pil
overg
kos
##vagen
02
dram
##føre
funkar
intro
manniska
olyck
##gelig
##fan
##rer
kallade
ingr
gett
allmanna
est
##esp
sexleksaker
isra
##sprak
##rit
##kall
##osa
inkluder
##entyr
asikt
##itann
##partementet
dikt
forelas
mov
##handa
##behor
##kam
uppratt
dre
##ze
fleste
##iot
haret
##kv
stanna
##yggen
forskjellige
##ific
tvek
ott
uppen
mojligheten
befinner
brist
egenskaper
styrelsen
##nasjon
##kost
planer
metod
takt
storbr
studenter
##ori
##djur
aktie
##beskriv
##bladet
konstru
racker
oj
one
begran
valet
definitivt
swed
##mos
##hort
marken
lekt
mc
##ugga
##derna
amnen
##handel
kjære
##way
kallar
stads
england
##fragan
ack
##atter
##klag
ladd
##halla
utvecklingen
største
varken
fat
##akning
naturen
sara
##barn
avstand
hed
06
løs
torr
##idae
##own
perspektiv
##eres
fab
##ivare
exp
##start
kamer
metoder
tallet
##flikt
helhet
##annen
sweden
rattigheter
appar
vaknade
golf
svang
##inen
jorden
##bergs
venn
bjorn
##iam
storbritann
grill
##arens
##oteket
pga
positivt
##funn
dog
##polit
produksjon
losa
##gl
04
losningar
princip
uttal
##lertid
vackert
##blick
offic
##liv
bodde
gladje
##imul
dack
##istiska
mysigt
erfar
natverk
impon
flykt
datings
##30
situation
tyst
overfor
undant
##øker
humor
sammanhang
##borj
##øp
kors
##server
tillvaxt
separ
38
##sle
cont
dermed
begrepp
platsen
bestamt
snarare
springa
reng
##fon
au
tekniska
følge
##spart
motiv
david
era
ye
initi
syns
tyg
##gene
##fard
inspiration
##til
langd
kunnskap
rest
ranta
dim
syke
chatt
syss
vattendrag
unn
fritt
sock
internasjon
ron
omedel
##klara
##ima
bete
byen
##ssk
##serna
funktioner
##cel
##egaende
##roende
39
##rop
gjerne
stral
arbeidet
kjem
allerede
##visa
klin
resan
##elsens
nev
hin
thom
betrakt
utdan
dager
##hag
dj
tapp
##xor
paverka
##peratur
silver
##dex
inrikt
mota
##fi
##skole
##isch
medarbetare
##enden
forbin
gitt
rea
fungera
##mes
utvar
fardig
stift
##ingene
upplevelse
vanskelig
happy
vinner
besvar
mojliga
oppga
##derade
##ekn
ryss
fjer
bjuder
undan
glesbefolkat
##iland
##edom
bilj
##svall
nere
##ckning
sajt
##brott
york
bror
letar
##ou
vent
major
legg
##isert
##llop
lanet
framforallt
island
dild
paul
stolt
37
grat
neder
box
interes
socker
##demokrat
sattet
##skat
felles
tabell
##delen
##deling
fack
hyll
stem
huden
positiv
##skrifter
besoka
motiver
stycken
aktuella
##kret
rekommenderar
mai
##utveckling
oer
domstol
risken
jordbruk
losning
betalar
jobbigt
##pi
##sakt
beskriver
hushall
kill
03
skru
gavle
andersson
relation
botten
innlegg
slott
ori
foreb
matcher
##df
mac
behovde
##mala
illa
1000
underl
nil
##hog
eleverna
flickor
##ris
fortsatte
lopp
fork
enklare
skada
staten
show
ringa
klan
##ival
187
##minister
##histor
regjer
##iste
##mus
blad
##bra
jonkoping
chansen
redo
nyligen
kanslor
standigt
##elefon
##ros
delst
##aker
inkomst
##au
central
kuh
hinner
oversikt
daniel
garant
##burg
##annonser
##jord
##laggande
eit
dubbel
##ric
##endel
plat
exkl
stranden
##god
lyx
aventyr
skole
harliga
##stil
spørsmal
sallskap
vasteras
fantas
undvika
okat
##platsen
sosial
186
korrekt
##bat
videor
historien
##dela
legge
koket
brollop
formid
ball
hundar
konstnar
øst
investering
garden
rov
gis
fet
##iko
rub
synes
kines
entrepren
vapen
digital
revis
smarta
##ah
tvungen
utga
kommenter
fallet
hunnit
150
paris
##deras
##stalld
##assigt
top
vila
aktivt
il
##falt
struktur
##ikker
##sattningen
livsmedel
##till
65
fakta
48
kommunens
##ockey
tus
gas
glass
moderna
kollektiv
##iteter
vd
lyckats
##imal
grov
konflikt
pratade
hjer
rakt
nom
forbered
fry
##okoll
2003
##delningen
sor
kran
billigt
##ningsb
individer
urval
landsting
omoj
kanslan
startade
time
vadret
dine
seks
smal
golv
##terade
erotiska
##ledning
block
hittills
##sund
bb
flex
##otta
mast
prins
bem
gun
inc
##sats
##grupper
riktiga
##ledare
leng
brod
lid
grundlaggande
has
##angt
effektivt
trakigt
varv
omfattande
national
sammanfatt
registrering
diagn
overens
likevel
kristen
eld
vik
dor
##fulla
##ids
motsvarande
##valt
metall
berattade
##ges
myndigheter
##lats
##fisk
fylla
perfekta
##skrig
personalen
skuld
tillfalle
milit
nødv
##risk
renover
dollar
prot
forhoppningsvis
nesten
kompletter
resurser
listan
##ografi
##varo
allmant
langsikt
forekommer
##tryck
plock
##odet
sover
##ome
planen
forfattare
##hets
begge
hunden
jar
ryska
cert
vekt
gill
##lak
hyres
##fly
##uff
asiat
##ini
deler
##kul
skull
vardags
hjul
kunden
trum
marie
handa
##partiet
arkitekt
##stret
##jet
stig
visat
tids
kroner
organ
micro
varma
begrans
mottag
vanligtvis
ledare
nettst
gn
slipper
andras
##cken
##fullt
utlan
mont
antall
musl
##iosa
##ogen
##huvud
ii
hansyn
potent
tyska
kunskaper
thailand
tjock
inl
##out
##trad
anpass
langst
fing
parkering
utomhus
##ensjon
betyr
friv
##forsakring
sade
##orld
extremt
##vatten
##kere
anvandare
##ual
faktisk
linkoping
##ycke
stimul
##vakt
delvis
tidningen
##oner
besøk
##tiden
samre
president
##ows
kursen
kollade
refl
avsug
israel
webbplatser
mos
##orerna
##lok
##ytande
navn
njut
knullar
varav
verdens
lamnade
antar
nytta
banan
##skoter
rakna
##ojd
termin
##ksomhet
funderar
enskilda
postadress
glada
pool
syftet
##betalning
webbplatsen
hamnar
skand
landets
daliga
##lades
faller
position
##stallningar
fika
bio
alskade
bjor
narvarande
blommor
dum
tecken
feil
##sprodu
slutar
##rem
lapp
iphone
pin
##gande
version
##teras
grona
snabbare
##enny
patienter
ekte
##ellan
karaktar
##ebra
gat
jobbat
nationella
georg
lagom
brann
##mannen
tillgangliga
gemensamma
##sklimat
insatser
statistik
bandet
42
##gatan
fragade
ifall
##øring
kontrollera
instru
##yer
hotel
skyld
##arm
avgifter
heta
##eten
imid
##tekn
pack
illust
produs
##alisering
moter
##40
##ones
##ley
tittade
imidlertid
ganske
sugen
langtar
##ivan
##spolit
utfordr
##lost
##vern
##ubl
lenge
snabba
##fallet
bloggar
litteratur
tilgjen
servic
privata
avseende
##edde
##givning
kanada
musikk
hjarn
dricka
##janster
##edi
holde
##yta
frivill
snyggt
bestamde
##gitt
center
##slivet
kamera
##derat
mobilen
wal
tatbefolkat
tillhanda
##erades
##jas
svenskt
fris
mormor
erfarenheter
##vaxter
forstaelse
sval
administrat
mala
##gere
process
tydlig
sette
forandringar
brom
fria
##vok
forny
fodels
klick
oh
foljd
dn
dorren
billiga
##skost
thomas
erbjudanden
##uelle
erotik
brasil
eventuella
##vd
tax
arbetsm
bussen
bered
besokare
##dens
wil
##ckor
korta
skra
##sporter
henrik
##platser
villa
dialog
##ves
hande
##legget
vek
##oven
johansson
begar
mamm
anges
##ac
guds
##sag
atit
##fart
frakt
lamn
bekraft
status
sonder
varan
analys
akta
vanda
finansiering
2002
mikro
##fragor
cor
journalist
##ørt
skadespel
leta
desto
figur
samfunn
premi
flashback
anledningen
levande
mangder
tjansten
2001
cer
orsak
von
##jobb
oerhort
jud
oppr
##gra
karn
tilb
##ect
svarar
fuck
forran
europeiska
##slin
##ffekt
halvt
wind
stallen
##qvist
mojlig
ogonen
potatis
##ratten
forsknings
tjenester
kry
##ensioner
ringde
introdu
46
lankar
nagonstans
##holder
##losa
##viken
unika
konstater
begr
hjarta
##tatt
kombination
bransch
##atorer
##ela
særlig
assist
hoppa
tillganglig
logga
##landet
amerikansk
arsm
love
veter
##usten
avanc
forsamling
initiativ
fn
barna
handen
skatte
utseende
jurid
dos
uppfy
##drett
troll
##punkter
slike
skan
##engt
##11
##rare
##yra
nodvandigt
piz
##niva
traffar
romant
skot
godis
##ynt
jonas
linje
##intress
enheter
##kelse
beb
forutsattning
organisationer
##onym
fargen
dekor
sop
smor
skaffa
halften
hens
##alender
pagar
##sek
mjolk
aktiver
jer
traffade
dop
hjartat
dildo
ledande
porrfilmer
##osof
even
uppleva
##vere
##gangar
hehe
nyckel
##urg
##best
lyd
ledam
badrum
belopp
tant
enkelte
##raning
resul
ork
##sman
pc
##ward
count
intressanta
make
redus
bot
mek
ryggen
##verse
fullstand
49
vintern
##ep
klassiska
##iene
kontrakt
saknas
unik
hjelpe
##och
##ivalen
valkomna
grann
lagenheten
##rym
raknas
##skyl
##fam
support
besta
##sene
kans
##ikken
framtida
sus
##ands
utav
texten
gren
misstan
lycka
deltagare
nio
##orte
##ordningen
hi
rej
varsta
lj
blanda
minne
inlagget
inner
skickas
arten
pasta
expl
avsugning
girls
civ
konkret
stedet
osaker
##arbetet
sexy
anbef
franska
uppfolj
that
artiklar
overallt
grunden
sags
##jef
krimin
bedomning
batter
ell
undersokning
perio
frasch
matemat
dokumenter
##anvand
akadem
##omrade
oppnar
turn
slappa
##rument
trol
44
sarskilda
ledig
timer
sjukhus
skickar
mju
##icy
klassen
line
befint
##ffer
resor
##afil
world
##wn
##sforen
##mask
tiltak
okade
forts
beskrivning
##rinning
stammer
svamp
##somraden
##mere
##plikt
mulighet
funnits
shopping
leverans
##byggnad
trygghet
mobilt
ratta
nik
eldre
aning
mex
ent
##irt
hundra
positiva
sadar
##amer
foraldr
butiker
onod
hemm
utrustning
kandid
refer
saledes
ekstra
champ
gemensamt
##kval
digitala
bilde
fen
egne
vardering
betalning
økt
massasje
##sven
overtyg
##ølge
stro
##beroende
fiske
anlagg
slit
hag
fordelar
altsa
600
plocka
##oper
søn
##riken
arab
arv
##jande
##onn
lul
tillagg
ange
sekunder
bredvid
tillfallen
januar
##uro
ofor
##spill
kjærlighet
ansatte
##bal
##bit
millioner
lille
##namnden
fjell
##pre
lou
##vi
##ico
snitt
vagg
kommunal
vise
anmalan
bestammelser
kampen
##kje
ledning
funksjon
##behov
##utbildning
vurder
##sreg
lokaler
##hallen
kik
1990
##forbundet
##indu
stack
ki
barns
svt
genomfora
undantag
undervisning
grattis
sorg
##deringar
egentlig
##ski
minskar
tacka
ratten
engelsk
##varm
from
produkten
99
##ums
reserv
agare
forlag
framover
startar
syfta
iv
##istisk
kompon
tilbud
##resultat
betalnings
##tav
minsta
##ugan
fysisk
forsam
langivare
forman
rob
repar
##ney
isol
##vn
que
mall
passade
##resa
avfall
##sbol
##sked
behandlingen
##ringen
julkla
hanga
prag
ola
##ftar
pi
utenfor
artikeln
tavlingen
kristian
cro
##ls
turk
##vetenskap
##ege
##frika
sun
##sse
motion
befolkningen
støtte
stefan
tycka
kurser
frihet
##umm
allting
prost
professor
domin
##kommande
##ennende
blas
flyttade
47
##fir
fotball
sakra
varor
##fører
##bad
##entals
lim
forbindelse
emma
##bilar
politisk
vaxa
##box
kreativ
hanger
bekym
konsument
sundsvall
##skj
innhold
ker
escorts
noll
##rog
##ningene
anger
##andre
plasser
laten
##inga
deretter
skydda
kyck
##skapen
brit
##sniva
##haller
inre
uttr
mini
begynte
modellen
tomt
stann
180
##ime
rena
##stud
ri
guide
##skudd
rekt
##aret
bett
##siden
##evis
reflekt
cup
startet
##umer
forre
##institut
##varlden
naturliga
ref
kryss
latar
prosjektet
gram
verkligheten
ryssland
ledar
##spa
socialt
##sbruk
alltfor
speg
somn
golvet
43
medfor
gru
##12
magnus
inredning
seri
robert
halm
lære
spelat
demon
##indra
motet
##formen
vaga
samla
olje
mine
##ykke
omfattar
##erligen
##ffar
##former
tam
gammel
typen
forklara
islam
virkelig
ful
##sform
rekry
original
##ementer
intell
##oth
toal
annon
##ingarna
fragar
swedish
##dra
varre
kalmar
##olja
##atisk
vei
oblig
##speri
##que
2019
framsta
forslaget
forestall
hastar
restauranger
mix
##amal
høyere
grej
fira
brett
lokalt
##øs
##ria
kvinne
ment
observer
luften
moten
instagram
mur
##skam
delstaten
##føring
historie
utfora
fjarde
svaret
aktiva
##inister
##skom
pers
bestammer
foll
##rarna
nerv
##ningens
##mande
##annes
attrakt
trapp
radda
arbeids
##con
død
hyr
innenfor
marknadsforing
utok
eventuellt
##avtal
##rol
##atte
##iendom
socialdemokrat
avvik
ler
##rapport
utbildningen
ull
ventil
rant
fortroende
upplever
rora
##zonen
dia
minim
rapporten
##anken
angaende
storbritannien
karriar
balans
##uv
gjenopp
tolv
duktig
bygge
##mode
##riter
##forsalj
horde
##anal
trond
more
##inform
##service
##olf
1800
skador
tip
behovet
##strin
anslutning
check
power
##fag
aterigen
sd
##schef
kasin
spanien
satsa
offentliga
stri
snall
arbetsmark
administr
avgorande
##inav
bestamma
##hr
arkiv
skolen
patient
##itionen
west
tillat
##stallningen
forskott
##ani
foran
appen
nilsson
aktier
stadig
butiken
kallad
partiet
##savgift
fundera
iran
##uth
##old
##cia
beslutet
##læring
##botten
cas
alsk
vander
sortiment
christian
andreas
sikre
##jansten
war
ifølge
sprid
karlstad
handelser
##ivande
hinna
##kal
cell
##smak
fond
41
generisk
##juter
meld
felakt
diverse
nem
lamnat
rog
pir
sota
blick
imp
banken
##ple
besl
uppna
foregaende
gaster
daglig
himmel
registrera
strategi
##rika
##gick
fik
smitt
utredning
mr
uts
##ymp
sammant
situationen
gom
torg
diskutera
##li
posted
##kas
##ikal
1999
lasare
arbetat
##uch
##cks
venner
behandlas
##vide
klas
cal
bedriv
##mail
bri
noggran
undervis
##nast
tillfallet
eva
wall
lart
order
nyss
rekord
darlig
automatiskt
##angel
kategorier
##rekte
tillbehor
pask
kanal
##befolkad
##tere
avser
##flytt
forsvinner
miljarder
poker
nødvendig
ansiktet
tillfor
apple
##klass
##forbund
bolig
##ckan
underlag
trop
exklus
high
kontinuer
##rass
kompisar
##rimin
##arden
bull
ox
faktorer
temperatur
hyra
##bla
rit
##skrav
forskare
diam
eneste
sahar
victor
gusta
##kurat
legger
banker
engagemang
bostader
##nare
sve
redig
cafe
kristna
##di
hemmet
kameran
tranings
single
lese
##slyck
norrkoping
utgangspunkt
papek
klassisk
ikkje
bjod
turen
spin
kvinnan
##omb
##ismen
nyfiken
efterat
apen
bygget
deltar
akkurat
##ppe
salg
##besok
sec
##hjal
185
rott
##domen
orden
##omraden
rorelse
##sbygg
##js
hverandre
utdanning
##pac
teknisk
##radd
nojda
##satter
##ytter
axel
spille
boras
##got
informationen
arter
phil
##boken
troligen
##ians
emil
arbetst
sydostra
ansvarig
medveten
##ua
hypotek
##esh
##ysning
inred
roman
strid
##matt
filosof
##rikes
pigg
blek
sannolikt
##ugor
eier
gunn
behor
##60
##byte
sarskild
##80
##lagen
windows
lulea
##linjer
loss
utstyr
##ele
idrett
##mas
##kket
skolor
william
##varor
cancer
utrymme
statens
fjor
hjemme
skiljer
garder
vær
planering
turist
indik
dryck
jamt
##jekter
finna
##orp
hypotekslan
koncentr
instit
skillnaden
marked
obefolkad
pojk
kull
tranar
vaxjo
##smed
baten
opprett
##øv
##elses
##skop
arlig
riks
enlighet
exist
lut
##bring
bif
misslyck
##produkter
eiendom
##maktige
##aterna
noga
vanligen
driva
##vaxtart
atgard
sovrum
ekonomisk
fasta
totala
##ogon
tradisjon
obs
utvalg
relationer
funnet
##upplev
reag
250
##do
forteller
jac
veien
kaff
andelen
ec
presentation
##ae
##fria
##beskrivning
ansvarar
sexig
##mun
teen
##oten
onskemal
##kande
omedelbart
##cus
intill
##sbyg
##gin
religion
surf
##splatser
lagstift
##hast
forf
kortare
arbeider
bock
800
forsokt
##sna
ike
##ete
##oring
arbetsgiv
knut
penger
jamn
nick
byggnader
52
##rost
tilf
lamnas
##illkor
starten
grejer
omstand
##ladd
bul
tyng
sykdom
ferdig
##øte
spennende
formed
apotek
##astro
framgar
cla
bott
##bby
traffas
1980
##ssp
uppmarksamhet
ringer
cykl
pann
forhallanden
penis
medborg
ran
mobiltelefon
halva
familje
samverkan
tonaring
59
styrka
familjer
divis
##ettet
retur
1900
64
tap
##ksjoner
##orks
upptacka
##inter
micha
##taget
handlade
protokoll
syr
sjukvard
##sspel
##sne
##kro
kritik
##kvall
faststall
sug
##forening
svarare
hinder
##riker
grand
lagar
##ortt
##tion
cu
##hengig
basen
paborj
##sommar
ski
intresserade
##komma
høyre
inser
https
advok
alternativt
ansl
##plass
baby
mika
vanligaste
##ivitet
praktisk
amnet
eftermiddag
##ved
##ited
komplett
forpack
samm
eleg
##garen
evenemang
anord
rejalt
##cir
lax
##gatt
##isin
optim
##oma
ple
gifta
front
invol
##sland
svenskar
spraket
skram
##arch
##aning
miner
sko
terror
nt
nomin
yta
lesbisk
gitar
##icera
goteborgs
narmast
gustav
omt
likt
##skort
etik
bostadsratt
hemsidan
##fo
juster
bist
medlemmer
situationer
##gjort
fjall
oxa
kontakter
hev
##rades
lost
##problem
##ye
trom
asikter
museum
omojligt
petter
svag
##play
sinn
##che
1970
1998
format
varlds
liber
avlon
amne
fril
diskussion
##kopings
##peri
##kontakt
lyssnar
##savtal
knyttet
følger
utomlands
antagligen
hold
pyss
##skvall
overen
##wood
traningen
leksaker
innehallet
##estad
##stiden
##bri
gemensam
##bs
bordet
sjalvstand
søke
##ogn
leverantorer
manniskan
halmstad
selskapet
uke
##antering
##pot
skulder
hvilke
##fast
flicka
##umin
para
##material
medverk
##15
allmanhet
stader
trend
linne
skapat
cd
##sjuk
skona
dyker
ekonomiskt
inomhus
120
astr
##sas
kyrka
fora
erbjudande
##ekul
##rel
##grund
poly
visserligen
koncept
##cam
##ykket
sto
##mene
fodelsedag
eleven
ansvaret
latin
jattebra
bibel
leka
##personer
seger
ever
byn
kvitt
##ypt
##undersok
kris
fattar
fasc
trevliga
sikkerhet
arena
##can
parad
raka
knappast
møter
green
##ingsdag
house
taket
benen
døde
##rona
transporter
strøm
effekter
oppdag
pag
##rifter
##mak
utval
##bolaget
##osen
pdf
eskorter
##platt
##skill
twitter
hellre
utbildnings
##ordes
varmen
##inarie
anvande
presentera
formen
lac
munnen
ovanligt
call
##ative
##ml
liter
cum
trivs
riv
##ydds
impl
##uel
olja
tvart
##iled
berom
aktuell
olof
planerar
overvag
borg
planera
skara
ago
foreslar
identif
##ents
index
rutiner
##ugo
##itor
bang
##18
basert
##landa
opplys
##sfull
forvaltning
##eland
##aktor
darifran
gyn
klimatzonen
inslag
kategori
kollar
rus
behalla
slutligen
pod
mi
delas
stj
jobbade
fjarils
isa
##drom
doda
snur
##uttar
storst
exempl
markt
get
kassa
##onger
##ense
mkt
fur
slang
##ordin
gutt
##asjer
kjente
##agan
##ares
##fen
##lit
navnet
trening
charl
melod
konsekvenser
##iellt
hvem
lic
foljde
vr
lordagen
fagel
kus
kne
##bered
styrelse
##70
##isera
karin
landskap
forresten
aspekt
##stu
følgende
tang
reha
85
stannar
jobber
##vete
##kanna
relater
hamnade
bos
uppstar
troligt
##stein
lenger
midt
kraftigt
tidig
95
lær
down
høyt
motesplatsen
smatt
sekund
konfer
ledde
cool
direkte
materialet
##fod
bibliotek
spark
flertal
illustr
##ugh
billigare
uppfor
mots
anne
mata
##kans
stracker
jamfora
haper
stallning
løp
utmaningar
##mod
##munt
kraftig
tycks
overlev
inkom
##reter
##ationerna
minnes
##kod
kod
pepp
56
blond
##ops
instrument
avslapp
eventuell
skinn
sluts
##vig
holder
fjarilsart
affars
##rats
tradgarden
larsson
ica
traditionella
##jejer
angest
linda
manskliga
tillag
##klan
##iler
upplag
fann
insats
bis
jordbruksmark
##biliter
speciella
blogga
hvorfor
kjør
##emon
##awa
liker
bedrift
ikea
kyckling
##olen
stannade
##vær
tjana
##gu
uppenbar
skjut
summa
54
mysig
eftermiddagen
prøve
oberoende
spor
pic
aud
aks
avloningsdag
sende
obe
vandring
sed
verksamheter
posten
rich
##liggande
svarade
tillsatt
vardagen
glomt
##erats
##yo
velge
skrevet
spri
akten
coach
erbjuds
##agande
koppla
desember
betalas
grasm
emellan
##banan
bevilj
flyttar
##ago
vaxter
read
##fit
konsert
savann
premiar
utvikle
grymt
##bryt
verket
texter
konkurran
##ikte
53
##iets
riksdagen
selskap
abo
kommet
februar
##vinge
trondheim
kveld
processen
albumet
tusentals
gjøres
##ath
atmos
jos
missa
ukra
utstra
pavir
lane
scenen
voksne
##ordet
##asy
konferens
paus
##egang
medlemskap
##usk
##eks
fysiska
sjek
##losning
##sbrev
formul
klimatet
osc
knappen
##ament
civil
enormt
argument
spelas
##ming
##jent
club
rida
hantverk
speciell
ytan
informer
have
uppman
3d
##skaff
myr
skoj
rekommendera
inspel
ordinarie
##mast
avgjør
bens
lediga
##pporter
##tain
verklighet
kim
##000
avst
bjør
slippa
##yndigheten
##esjon
##orth
foremal
utgar
bestallning
appl
eric
skape
begrav
sentr
final
egendom
##itra
helsingfors
monter
ferd
runda
anstr
eskil
lade
spins
rø
korr
identitet
##ague
flest
##freds
gymnasie
imor
##skommun
##isere
bredden
hack
koncer
##aldern
##roller
rosen
garanti
##lass
gront
møtt
##iftet
absol
##uelt
lyfta
##opro
##nads
tilgjengelig
alvor
foton
begynner
vo
##fang
##ansett
cyk
poeng
tabl
##sprodukter
verkade
dun
australien
jente
trav
umgas
andring
bytte
praktiskt
##holmen
dru
##ilte
beteende
good
opprinn
distrikt
upphov
##24
##klad
kust
elva
184
stallde
##lista
##varme
general
finalen
mp
deltog
plugga
##ementet
##ano
fransk
andro
##rut
##oppa
##sjo
stoppa
##ripande
expert
tavla
hockey
insag
betalt
lokale
bekant
fott
##orten
hamtade
##bana
telefonnummer
regul
lot
paga
##forvalt
universitetet
belon
blu
lagenheter
utrolig
forvand
##uld
##16
armen
##utvik
suger
moss
besoker
utbredning
##ission
swinger
viktigste
syssel
hastighet
##jun
diskrimin
uc
##itz
##ally
tillsyn
ottawa
result
##holl
bryr
##varde
internett
1997
faktur
statt
solid
raskt
jarnvag
##ingo
lita
sovjet
overrask
veget
word
glomma
aga
veckans
##vare
##ymer
bakter
sambo
asyl
uansett
generellt
anton
gjordes
##vards
doft
certifier
##samtal
krydd
bjuda
intraff
dansk
movies
dagligen
lask
gustaf
##gubb
bubb
brut
maskiner
##core
kapitel
omgivande
prop
rekommenderas
rop
##ampa
##onomi
1960
aktorer
orienter
##agaren
bin
forskolan
forlang
##shem
inbjud
##ensis
femin
vert
johannes
##ison
michael
attack
karleken
ess
lena
mobler
minut
jamforelse
gronsaker
sutt
kniv
klokker
league
parall
handler
serier
##14
##zon
##fragas
kompetanse
kaka
##pad
tør
ht
norden
##atur
bakgrunn
forsak
body
meddelande
##elden
forstark
lamplig
##elsene
##beratt
lisa
irriter
hammar
halsen
relevant
storm
hanna
larande
inge
tvavinge
tvavingeart
##enta
##shand
karlsson
##yper
station
journal
angiv
##ides
57
gjord
bron
##vark
andamal
##oppen
musiken
##ienten
##hals
##foring
malin
temat
tillater
harda
utlaning
express
kontaktannonser
vite
gransen
##statt
imorse
flor
somnade
elit
krev
##sperson
lør
##osex
##itch
nivaer
##ese
betong
intakter
lyft
perman
upplevelser
motsvarar
tidning
sjukdomar
traffat
##talje
uker
tenn
pussy
lud
lone
pall
##arbeider
synner
act
kostnaden
##istik
velat
fynd
ledsen
anvandar
##menn
biljetter
anti
avrinning
##tjanst
##porr
utnyttja
styra
tunga
##vat
ress
##edia
skoter
regelbundet
nyar
##projekt
organisationen
konsult
svett
##annsyn
morse
##90
##fikk
motte
springer
kopen
utviklet
hasten
handlingar
##sall
##cesser
##fat
losen
starkare
##verkt
fokusera
##uen
##sstil
##entlig
debut
elin
afton
##park
gb
##ole
meny
ungdoms
steder
##21
##agning
cop
##ritt
home
fara
anonym
frig
1994
offer
kontant
ud
personligt
##onde
58
belast
berlin
baserat
historiska
eme
ask
##fla
latta
planet
gubb
##olution
fredags
halls
##stan
##uttet
##ool
lun
ara
##vikt
cap
djupt
anlaggning
definition
##otte
##offer
##esel
barneh
rollen
##meddel
##entene
styret
bengt
pak
datab
forbud
loj
##otet
styre
undersoka
goran
##com
fader
stadens
##ksis
vaggen
retning
snack
tunnel
spons
nederland
##agna
republ
saaa
galla
nordiska
look
##25
kann
##mans
sjukskoter
apne
kjenner
annons
##bildning
tranare
##bordet
andas
farre
tuff
tvar
telefonen
utstrackning
politiet
affarer
koka
gjorts
##ultur
partier
bomull
opplæring
infrast
protein
avtalet
cur
studio
pren
varierar
##vest
##ked
##alte
##ansvart
##iness
dygn
phot
##isser
overenskomm
##stekn
##skra
##annet
##delser
##ij
foddes
narings
favoriter
skrive
leverantor
klatt
num
##jning
tenke
##sprojekt
rand
placering
intressen
hekt
##ners
signal
##olin
farmor
##rater
praktik
genast
avses
plugg
overst
minutter
ovant
buk
##emid
behandlar
handelse
viste
sakerstalla
omrader
beskriva
##giver
android
##ical
sekret
roligare
aring
kalender
hakan
##sbes
syftar
##varna
##iljø
recensioner
##strand
tera
mojligen
##tack
plant
kulture
##sler
trett
1996
roy
shem
likad
moln
rank
brudar
fenomen
sank
##illing
verkliga
stada
reise
foretagets
##rustning
riktlinjer
yoga
departementet
##vention
##uu
kannas
afrika
beach
nettsteder
gjenopprett
foljt
styrke
##lu
##hjul
holdt
pas
##ffs
strum
uppat
fine
##soft
raknar
##ianter
alexander
##tas
landskapet
##lene
##isterna
datorer
##kak
skarm
praktiska
tempo
personlighet
insattning
sanna
gla
familie
levitra
##king
rask
utgifter
##bruks
asa
kontra
inneholder
dramat
##sko
rat
internationell
emeller
rette
ovre
tvang
olymp
navig
dygnet
##our
##imm
tuttar
lærer
mage
midsommar
emellertid
market
kriter
kass
lung
his
tross
tungt
##skurs
element
##øst
##sgatan
konsumenter
nic
kopenhamn
##gards
dato
##ener
suttit
legat
##kok
kvinnliga
##hør
##ektion
luk
##hoj
1995
##cm
femte
##aring
farligt
atervand
separat
inkluderar
familien
##efte
smaning
##holde
our
##ssons
konstant
##rod
psykisk
kanon
agen
ansikte
sannsyn
##essen
##terat
mikael
type
##stjarn
tilbyr
##sborg
bestaende
mam
tavlingar
aterf
##føres
skala
innebara
##iering
framme
##innande
forebygg
landsbyg
##fig
obligator
##uppgift
befintliga
sympt
internasjonale
gunnar
##skottet
69
kjøre
holm
johanna
øke
konsekvens
besikt
akut
viktige
##inget
ingredi
shemale
skonhet
##essig
julen
lyst
##atera
hatar
##bile
##leder
days
chil
skandinav
##aks
somna
uppmunt
anlegg
##vagn
teor
utgiv
lanken
arbetsgivare
reis
forfattaren
##skolen
verka
##beide
snalla
frid
##ologiskt
fordju
offentlige
samlar
uppfattning
ink
forandra
##skriget
muskel
planerat
attra
##oph
framgangs
ugnen
##station
##behand
trosor
rh
arenden
abb
##forsk
nm
fastigheten
##shop
livs
##idan
##grader
vardet
bilaga
##edda
smaningom
##jam
##fra
##meter
hors
leverera
livsstil
skje
rekommend
##iserar
observ
51
praktiken
hr
oppmer
hp
kin
watch
negativa
masse
aterstall
prenumer
anhor
stycket
##ikring
inriktning
##beth
serios
vitamin
berattelser
karakter
##pros
finska
duktiga
arbetslos
kjønn
skillnader
levereras
67
foreldre
fastigheter
king
skett
trist
##cial
hette
##hopp
kabel
enheten
bakat
what
lycklig
prom
ønsket
forklarar
beveg
tvartom
kas
vett
##lysning
international
feber
radi
gillade
fabrik
resultaten
forelig
malm
##alten
gig
ert
##idor
sosiale
hjalpte
diabet
##ifi
bay
harom
##rollen
hett
##kte
amerikanske
kreditkort
##kong
tillbring
overlag
##22
annonsen
dyrt
forkyl
lis
##ifest
ivar
##ute
jamstalld
valp
creek
cha
gotland
etn
afg
grus
##dagar
##sal
innbyg
tilgang
##spass
specifika
katastro
slutten
volym
muslim
borger
##litt
kollegor
##ningss
spekt
omvand
pizza
1500
forhandling
siffror
##pacitet
amp
##varen
smidigt
adam
interesser
danska
bryta
kika
varenda
studien
##center
##iro
tydliga
nøy
slapper
##øren
smink
##shandel
internationellt
##cell
##egen
##estall
##vil
##iox
simon
primar
##stuna
##hn
oppnade
bik
kolon
speed
undersøkel
erk
naringsliv
sider
takk
forandras
##vas
behandla
sakta
egypt
##slosa
heder
soll
foredrar
##glas
grun
drivs
erfaring
intryck
personligen
global
##ccin
broder
forlust
integritet
##dagens
morka
##domar
##ojligheter
lovar
##ness
samlet
##rist
naz
kirke
hop
forsøk
register
senior
##stilling
james
##ew
##programmet
brittiska
stavanger
##bilitet
valgt
##fold
togs
pum
hundrat
sorts
maneder
uppdraget
##ølv
foretagen
66
slot
##hard
harry
tapet
ligg
fragorna
##yttes
sexuella
vantade
##øen
jap
##takten
hyd
homo
teknologi
##funnet
gjennomført
fartyg
vakt
blandning
effekten
avslo
gras
##departementet
##oser
eskilstuna
lordags
ljuset
programmer
1992
fattig
stanga
ingredienser
gatan
##disk
cra
halvar
byggdes
hygg
portug
utvecklar
snon
##ssystemet
fylkes
1993
nils
##iere
utmaning
foder
sondagen
##ystemet
##skick
budsj
katol
analy
183
##inns
transa
##smet
drabbas
spesial
##post
musikal
##tan
##sfri
vunnit
##formaga
doktor
schwe
jula
lott
lopande
trag
##hamt
riskerar
kalk
alumin
human
studer
yrke
komplex
origin
kommunala
falla
setter
##maskiner
minnen
##osta
bog
mør
##formed
##emed
##sutveck
##øt
dalarna
omtal
bokstav
vider
bind
problemer
ogonblick
##parten
ida
kond
##idens
venstre
##inspekt
insikt
norska
tvingas
utstallning
##sy
##inari
dagis
##kommen
medelhav
tings
skum
parlam
ostersund
forvaltnings
levererar
forbed
63
avsluta
enorm
tagg
lader
yog
badoo
oscar
foss
spot
##okl
paverkas
##reterare
day
##ience
sofia
betydande
storlekar
dress
medisin
##foreningen
balanser
##ettere
##anmark
negativt
fonder
##rov
belg
garn
ves
##ipend
pasi
stressa
enten
regnet
business
##attan
kalas
pojkar
##issar
polen
tekst
troja
##bocker
debatten
book
teori
bevar
##bul
infekt
##ikon
##anna
publiken
miljop
##ansvarig
tett
rester
##kamp
##iserade
##ceae
vakna
uppfyller
flexi
sanningen
faktura
hoppade
eriksson
galet
reduc
##eve
klanning
folke
forvir
sonen
##ned
skapade
white
afrik
works
ideal
uav
dynam
forbru
gymnasiet
aluminium
forsvann
morgen
##omer
tilsvar
##fru
foreningens
studera
kriget
webben
rehabiliter
##line
begransad
##19
byggt
vikten
unna
##sned
skjul
##splanen
hallet
##ffektiv
handerna
##skrona
manniskors
observera
##kommit
spendera
minuters
advokat
##konto
bredd
arbetade
anmala
solna
identifier
report
tvatta
kraven
aldsta
##ytning
praksis
ifragas
rutin
yttre
tad
tekniken
ljung
dahl
deltagarna
##igheterna
andringar
charm
recension
webblas
romer
dott
sajten
##casin
kick
pagaende
ts
forsvars
persson
uppgifterna
##cake
leker
dagliga
stilla
mangf
branschen
anstallning
regjeringen
##dring
presenteras
klasser
##svagen
##uti
jakob
overnatt
##ifor
barnens
jordgubb
trycka
drommar
##spris
rika
##ktorn
vinster
uppmarksamm
tjejerna
hallen
rast
ast
##pool
sva
bestille
##varda
prim
##isse
overfl
esp
bd
beakt
rav
olj
tech
forbjud
variant
##okk
kvart
innlegget
jacob
virus
forskola
priserna
samlat
sprida
hjarnan
##cing
fatta
avkast
##følg
klag
hantering
##storp
may
nasjonal
tull
ml
oron
vinden
beraknas
##eth
delakt
##ppet
##isjonen
økonomi
##17
##byggd
omgang
varianter
oppdrag
##rogen
representanter
bbw
endringer
forlorade
##vek
forklaring
behag
granser
harmon
##rich
batteri
##kyr
##ivna
##information
jobbe
ursprungligen
valuta
sha
##iskop
farsk
cle
##gjorde
redov
rorelser
ze
reglerna
class
##delsen
packa
velger
sakerhets
##ioxid
ving
##hydr
fjarr
##budet
organisasjon
##text
bitar
forstod
##gg
volvo
grek
1950
barnets
slo
oppett
socken
##pri
she
fotter
game
eskorte
how
levde
##ykker
iii
mangden
##spelet
carol
sprut
metoden
roller
historier
kampanj
jenny
medans
1991
nark
##13
oversatt
fredagen
sites
##arke
##last
fiber
##enfor
spanska
##plassen
##kelen
baka
begynn
lod
orter
##felt
nedre
jattef
oliv
lønn
betalningsanmark
progn
nærmere
arliga
alv
##job
##repet
homosex
militar
konkurrens
beskrivs
##ferd
##teckning
old
unikt
schweiz
university
##ance
ulf
##irektor
##kons
##sminister
budskap
##etag
utlandska
hil
abonn
ene
inbland
finaste
aktuellt
jern
karakt
selvføl
kvarter
ellers
tropiskt
jazz
oppettider
uppdatera
##stallda
gt
marke
misstag
700
##kra
##gol
busk
sikkert
klær
nemlig
festival
uppfyll
##bag
maxim
endre
reson
antik
grans
##arker
utbildningar
##ielle
trang
insekt
##stolen
muligheter
##produktion
kalt
sparar
applik
##spelare
ib
hvilken
rosta
kortet
slatt
72
##assiga
##enne
mem
pant
forsen
##beg
##jd
##styrelsens
kvalific
##ogs
long
effektiva
nyhetsbrev
manus
anstalld
migr
fyllt
tjanste
ana
minus
garderob
innehalla
##iew
sanger
ledd
vision
norrland
slots
group
meningen
##allen
microsoft
##øyd
tt
mjuka
testat
talt
slekt
redovisning
add
##aaaa
stek
medborgare
tilldel
katter
##resor
##sbo
##rus
##blom
samord
drott
bolagets
iden
##opt
kronika
muligheten
størr
jeans
avse
involver
multi
moral
2020
kenn
bildet
mans
arbetsplats
munt
besokte
myst
hyresg
vurdering
staende
kommunfull
open
orolig
##ebror
##bare
starter
##priset
frida
efterfragan
rag
sexfilm
##eftea
befolkning
ytterst
united
forvantningar
laggs
##duk
foreskrifter
vaxtlighet
##koppling
passion
bearbet
##ydde
moment
private
dvd
blank
##zer
risiko
kilo
lørdag
##lang
negativ
hallbarhet
gruppe
silden
lider
julklapp
##ømme
mobb
byggnaden
bebis
##fraga
hamna
##nere
boksta
herre
maned
strukt
besø
68
sjuka
uppfoljning
sildenafil
biblioteket
orsaken
uppvarm
62
sammenlig
##rull
roster
stodja
##rikke
##uktor
utd
larm
gymmet
forvag
sannolik
##innan
moderne
##ington
invig
langsamt
dame
deleg
medbor
psykolog
##backen
steget
##yrer
##rigt
vild
##emark
sallad
utsatta
spelautom
##papper
torn
klokke
avlopp
##hallanden
##enhet
##bandet
forstatt
uppehall
##position
##tur
ish
infrastruktur
##morgon
overgang
føre
smslan
passer
punkter
##just
meget
hardcore
##bt
orgas
junior
smuts
ovanfor
kvaliteten
gammalt
endelig
##alism
underlatta
##trafik
##issionen
pred
slak
paverkan
premium
bockerna
livsl
tillgod
##sbel
godkant
##erings
hoja
ked
sthl
##saken
bryter
foredrag
##svik
begreppet
##sagare
allmanheten
forhindra
paminner
placera
blomster
presenterar
sas
##ado
##idrag
cel
##kurs
##løs
vaxte
##flyg
##oci
ledarskap
agera
bestod
synlig
moms
konsul
bekvamt
arke
virksomhet
foraldrarna
jose
dras
jean
utbetal
##lopp
utredningen
intresset
konsum
karta
sidorna
##ati
prog
advent
jev
##eman
##orts
jakla
kommunerna
regeringens
auktor
backen
##ningsfor
ryck
##ji
vaknar
marks
sesongen
##itten
##bev
gotaland
##skriften
##verkets
skrack
affaren
##pal
party
titeln
##finans
##øver
##kna
belysning
##peut
##planen
investeringar
trupp
##kland
konver
indien
geograf
##annan
perioder
##jør
avsikt
##smalet
anvandes
action
spont
opptatt
##punkten
smaken
##pis
forekomm
stille
innovation
##stin
##barhet
##skostnader
rio
krever
##dalen
kinesiska
samlade
##fel
ombord
tacksam
kategorin
føler
##stillstand
py
artens
plattform
##ous
trans
berattelse
dricker
##smannen
##sbok
temperaturen
samlas
bondag
##jente
utvid
##cha
larar
alternativet
brad
krediter
sentrum
ovningar
##pert
bun
##etta
vice
kjæreste
##arbeidet
oppdater
tillfreds
pian
##massigt
sr
##utrym
alska
##gym
utmark
88
##tran
division
traden
afghan
spis
##rest
##cher
##ygger
kommunikasjon
foreningar
bollen
##forsaljare
deltok
specifik
tillganglighet
kvalite
##side
##skador
hemib
##sbest
suga
installation
allian
##kontroll
aktenskap
##75
##oreala
##usi
forsiktigt
loppet
mekan
##oler
hemiboreala
forsiktig
alm
shop
virksom
upptackte
diabetes
##pens
lyser
bøker
politiskt
søndag
astad
skov
trykk
kaj
innefatt
##marken
distriktet
kollega
museet
##sser
risker
utgangspun
avsnittet
##day
aterupp
resultater
##visningar
mist
olsson
##byggda
##hult
permanent
##redovis
##akar
høst
##artik
bergig
##skyld
fører
elisa
ken
##bba
veckorna
74
josef
##feller
##hh
himlen
kommentera
interess
synpunkter
symt
##sbolag
73
spillet
inkludert
##tekt
forvaring
avlag
brister
forvantas
skiva
byter
##ylar
##visor
hundarna
sammanlagt
hungr
##tals
sir
forbruk
japanska
##enset
byte
arrangemang
kasta
##celler
##igar
skickade
##esen
##no
titel
tomm
##slutning
##forsvar
##ript
nærm
timmars
sterk
rakar
vold
patienten
slett
bea
indones
##etts
installning
robin
inneb
##stopp
squ
98
stalls
sticka
burde
kontoret
##steg
flyttat
uppskattar
minor
linn
skik
tø
hihi
##mord
automatisk
wikip
filter
blan
firma
##iff
cast
ramen
demokrati
suc
oskar
fonstret
losenord
brygg
##sproblem
##dende
##etøy
##slok
##bost
##funktion
blatt
regi
##bjud
##kene
##iar
uppdatering
videon
godkand
sku
##organ
##dack
ledamoter
tjanstem
komfort
dipl
lansstyrelsen
lil
##stran
sendt
acceptera
dele
##itim
##vardighet
kold
tydelig
samhallen
##ule
populart
street
varda
##grad
hensyn
filer
henta
enorma
brukere
baserad
restaurangen
bakgrunden
kvant
destin
##sdagen
vav
fanga
detsamma
fac
vg
well
##smode
spelarna
aterv
fortjan
meng
pamin
frustr
pratat
morkt
smaland
gum
tend
##sig
sthlm
overgripande
##´s
sovit
variera
76
lyk
bh
##nades
##flykt
##centrum
skarp
jobben
asiatiska
funktionsned
vedtak
hjelper
fylke
friluft
skapas
79
operation
##fab
cru
meddela
gifte
vistelse
tidningar
kandidat
##ads
arbetsuppgifter
##varer
vig
sana
ansoka
thor
teoret
##paket
okning
riket
small
##bott
høg
omfattas
inatt
term
parken
premier
##jonen
area
klare
traditionell
fardiga
##kamera
korkort
unnga
eksp
gilla
tjejen
##iserte
dick
fotterna
##blogg
tyder
enst
klima
zo
utbredningsomrade
artister
kompens
##usjoner
vaccin
##asten
udde
forplikt
versionen
inflytande
vantat
##omet
skatter
forbereda
##slar
##sfall
referens
professionell
tele
wi
slappte
##dags
skift
barndom
enskild
besviken
bondage
allvarligt
kh
missat
statliga
##lock
workshop
stapp
arean
bereg
pump
97
losningen
##uggar
put
ledningen
##sky
krang
avgora
ande
##erende
lur
##banken
##rige
##supp
kanaler
fulla
ambassa
forbundet
nettopp
finger
gjorda
##smid
##alafil
øye
prøver
##strek
utsl
78
##chen
spilte
minskat
marin
katalog
bab
fangelse
blandskog
datingside
killen
obehag
##orget
rektor
operat
kapacitet
saljs
ig
utviklingen
chatta
camping
bratt
##een
tadalafil
tander
##serien
lt
upphandling
valk
jas
parter
soft
vinnare
selvfølgelig
orsaker
access
bam
repl
citron
##setning
teamet
brukte
##edem
##temot
plag
tantra
##branschen
##sons
##verktyg
stream
stott
natter
##landskap
##unskap
netta
massan
##yre
kva
gur
##speriod
begav
##ifte
##foljande
##ave
meste
palit
tolk
##light
##sledare
njuter
tillt
pur
fullstandigt
vaxande
1989
lampligt
italienska
##bod
virt
komplic
kallor
erkanna
jess
foralder
godkanner
##iør
##revis
##halsa
loser
##kken
##muse
miljoer
##stroms
rante
##malm
arkitektur
ped
##andan
nervos
##ove
##album
malar
##like
statsminister
makten
pig
email
utspel
omfattning
høsten
gjennomsnitt
asp
win
##øse
##ihop
##iserad
##boende
enstaka
kladd
##alar
menyn
tillit
langvar
utforska
##nende
##iana
grunnlag
skolans
mull
krafter
##kanten
kreditupp
inspirerande
morfar
##riska
grundades
fardigt
##frihet
tidiga
forloss
delarna
varldskriget
ama
##koll
tillampas
##blog
##laren
læring
brot
mari
skylt
stein
fruktansvart
nut
george
##elding
artist
rang
dl
billigaste
##vens
peppar
deltagande
##oli
bruks
##eksjon
usb
kud
pon
bytt
tour
utrikes
sammanfattning
chock
victoria
spanning
tillgangar
##klipp
##belt
##taket
##hs
globala
escortt
1700
informera
richard
upprep
muskler
##atar
##spun
utslapp
avdeling
profesjon
skyldig
webcam
forbl
spann
kjøper
efterhand
##don
myndigheten
svensson
aringen
pens
##førte
garanterat
##legging
##ican
##lander
arbetsmiljo
fyllde
adel
skedde
##ussen
sjukhuset
damm
##nor
parf
landslag
mick
etablering
tron
##atgarder
##sprogrammet
labor
nettet
##hantering
##board
flod
fysiskt
yttrande
balkong
##ugen
foten
seriosa
fungerande
##stark
snor
vagbeskrivning
irland
##sep
kostnads
gest
aterstar
77
##lex
##kap
forlora
vasent
nadde
##ytor
revider
##sarbete
##adels
erhall
banklan
ult
sper
ahl
##arten
skell
bemot
drack
north
ordningen
vilt
##slig
amnes
kampar
produkterna
##umb
vager
##butik
hill
kravet
##sling
college
##iljon
kalle
kjell
viktigare
europas
fak
reseptfritt
tjeneste
diskriminering
textil
arr
bistand
##jakt
pay
tekniker
sej
expon
betydning
##sprocessen
kollat
skin
nodvandiga
##flugor
arig
##visar
larde
sønn
##imin
prosjekter
aik
mobila
##sliga
##ced
palest
##imot
##unds
##elin
panik
forsø
heltid
satsar
apnet
koppar
smyg
merke
etablert
xx
slanga
talat
utlandet
narhet
##yst
torka
skarmen
anl
overl
def
manniskorna
legges
studi
grabb
summer
nude
##dam
sken
mennesk
##dorr
##skiftet
##gir
kombinera
##eldt
formal
implementer
eksempl
175
forrige
sektor
utvardering
##ssjuk
maltid
matematik
avrinningsomradet
troligtvis
##rim
ordna
skriven
flagg
##vapen
##anmal
spets
hustru
officiella
mestadels
brud
aterkommer
identifiera
##vardet
kontanter
##bek
##kjent
svenske
anmark
bjork
bredband
narkot
matlag
##ospel
##ineras
lektion
##issa
toalett
handika
lengre
ursprungliga
snacka
misstank
majoriteten
##ytan
framja
96
ist
900
skip
lenn
majoritet
pensjon
fota
anvandarna
arligt
overhuvud
kunderna
##hjalp
##bruket
110
skyddar
stallt
utvecklat
løsninger
flyt
talets
utvalda
1988
utvecklats
margar
skjøn
##ulen
##eled
kosta
urin
enter
seb
pojkvan
##lage
omstandigheter
outfit
##isjoner
oppgaver
svarigheter
tjanar
smaka
skydds
##sajter
##ckande
intervjuer
lagring
##ooth
bdsm
bow
##yndighet
##alternativ
sokande
first
cerro
##ykte
##sback
grøn
galen
alp
taxi
gallde
resen
trycker
lettere
##ratter
plikt
plagg
##ovan
##bilen
immun
import
##splikt
morsom
pick
##stig
klassiker
anfall
diskret
verktøy
##svag
##cykel
nad
##spra
centralt
undersokningen
##lapp
marcus
##lakare
klippa
ole
dessuten
tilby
##skall
undvik
##porn
dart
mattias
##svenskan
strek
leverand
vanilj
##hyr
anvants
japansk
usch
fungerade
spelen
arendet
begag
room
##oen
strang
##bbe
##zy
ersatta
##holds
avslutade
syskon
gilt
##ningsl
barcel
jonsson
siv
school
helger
julia
blue
##fakt
##drene
besked
##sha
##fram
##agne
klarade
utfors
selve
##ogram
penn
swe
slapptes
konstatera
160
rejal
dyl
##medlem
grepp
lagstiftning
potens
##betyg
##valla
producera
chanser
tredj
##cos
alene
##test
alg
##ikan
was
bildades
light
##sbas
gissa
##inerande
høye
redovisas
demonstr
varderingar
forvarva
vitlok
mynt
omsattning
send
provat
suck
##ware
kommunfullmaktige
biljett
rust
##ssel
##rund
tviv
tillverkad
dagbladet
nyttig
gemenskap
mora
beslutade
paret
##iforn
##regler
##rutt
kristianstad
sunn
##bec
nrk
84
##spunkt
lyfter
tju
##stedt
sannsynlig
byxor
klickar
gitarr
intensiv
organisasjoner
rubriken
gula
tart
tryg
##23
representant
##enes
##ømmer
1920
prøv
kore
lyn
policy
fungerer
##ax
89
##profil
slaget
slutat
formular
auto
sykehus
170
skaff
politiske
rengoring
licens
elegant
sentral
tyske
samarbetet
madrid
##zo
radgivning
privatpersoner
##hver
kolleg
malen
temper
##plat
##avgift
oken
fokuserar
kampa
sverigedem
fit
arende
##berget
grunnleg
##gte
fm
##ely
manag
##sang
historisk
tester
fylld
husk
##cl
lands
graviditet
hentai
smaker
slump
grekland
guid
pressa
grunder
vedlike
varumark
dire
1930
##stallande
medlemmarna
##stal
foreligger
faste
##verksamheten
gransk
elevene
nasjonale
ledamot
##famil
forbattring
begaran
##atiska
##jej
maskinen
mandat
##gjøre
lagsta
noveller
prestand
oppfølg
##naren
##inlagg
regiss
##knytning
serveras
wikipedia
lockar
##okument
lakaren
varumarken
aftonbladet
forsor
cock
maken
blott
arne
vaggar
tilsyn
vana
##cket
skadespelare
leve
anta
pier
ambition
##kansla
voksen
undervisningen
work
vande
belaget
medie
beteck
nordic
bell
vardera
wo
aterforsaljare
week
stjer
halvtim
globalt
opplysninger
##file
grønn
satts
oppnas
##gav
downlo
musiker
##spe
publiceras
innebærer
##ygien
lasning
##data
elektronisk
hangde
fixade
overklag
pojke
skivor
kvinnorna
cykla
engang
seminari
hahaha
##systemet
##atus
interesse
nei
delade
hendel
##ary
elsker
##bane
nyanser
korv
tenker
##design
past
sodertalje
normala
##ylt
tacker
##mn
##ywood
##opol
uv
herren
onska
installningar
stipend
##verre
afghanistan
drive
##omal
hobby
hogskolan
koppling
høre
##shistor
##sand
river
wester
jenn
snakke
gh
trump
##oman
inlogg
##uge
fien
nyborj
nike
exemplar
##vagar
##sorganis
commun
varumarke
##øya
games
##jk
foretagare
tillfalligt
forlat
stjarnor
arbeten
##makten
foretags
odd
dubbla
az
apoteket
lukt
supp
klarer
konstruktion
slakte
glatt
tram
##opter
damp
##anke
skjønn
nettstedet
specialist
forank
pel
##knipp
dyra
hap
sjunga
seier
sydvastra
komponenter
south
hemskt
##uvida
##sforbund
anteck
madde
tja
distans
vurdere
potential
ce
huruvida
typiskt
syl
##pul
skri
sesong
planerade
linjer
kritisk
høyde
realist
kontinuerligt
kaos
che
##mart
experter
liknar
skjuta
##65
medi
##lon
tankarna
hormon
adult
##forandring
inntil
mt
casinon
##fund
flyttet
spir
##sack
##sakerhet
robot
avdelning
noter
179
rolle
satsning
##shamn
sjunger
forutsattningarna
tjugo
jattem
tilfeller
ogat
galopp
##wh
namna
1987
anstrang
##everket
mes
utbred
night
granskning
farlig
flertalet
ekonomin
##ecken
breda
##smat
norm
pus
handikapp
flag
tomas
definier
sydlig
allvarliga
redd
##shuset
omdom
dagars
ash
kvm
aja
nice
kock
##hallet
amat
uppgick
ons
rullar
flygplats
who
diskussioner
estet
oand
rens
anslag
savannklimat
forord
uttag
##agarna
assa
rød
underlatt
##eda
allerg
##rapporter
vaska
ff
kulle
argent
head
kav
##rafik
sterkt
##ksjonen
rakade
gentemot
94
##ekte
søknad
##industri
##gorande
##datum
##holms
brans
##familj
##bagg
##wer
firar
stunder
faktor
kontakten
ss
fans
##ify
##rakning
##ulette
jamstalldhet
##arv
sokte
song
onodigt
viktor
1986
##helm
hei
mv
1940
nj
funktionsh
##ruta
##cal
vanligvis
avtale
godkjent
##itte
patri
##yft
ipad
belagen
individuella
##omy
arligen
flask
webs
##ljus
nordostra
kjæresten
tabellen
uteslut
wild
missade
avhengig
##bling
overhuvudtaget
mosa
markligt
prast
decenn
##rator
sit
tipsa
##sem
hyre
orkade
socialdemokraterna
samfunnet
opin
gradde
magasin
##stjanst
##skval
ekologisk
lof
generation
tilsvarende
sorters
irak
##dor
øker
synnerhet
professionella
psykiat
minnas
funktionen
##delige
flickvan
aner
##istiskt
##utval
diplom
flygplatsen
jens
balt
hjalpmedel
medborgar
##ocke
soderut
narmar
asiatisk
ytterlig
drikke
koordin
disc
snø
##undersokning
justin
genomfors
virker
vint
heldig
friid
##forbruk
forstor
samhalls
cyklar
livets
passet
tyr
nationell
undersokningar
holland
skelleftea
##jed
1984
bære
økonomisk
bidr
overenskommelse
##musik
ado
##utrustning
presenterade
placeras
##hallare
deil
ond
smycken
##aksjon
ensamstaende
##zen
##entar
##skolor
lakar
grev
julafton
friend
kampanjer
140
##perioden
vardenafil
norrut
sokt
magnet
vaxel
##dy
mental
omgaende
avg
86
profiler
underteck
missbruk
##mote
kostnaderna
beslutar
hogskole
odds
83
##delingen
talade
uppsk
kommunicera
##aser
brasilien
bond
bana
card
avsloj
neut
gyll
uppfylla
##ages
ljusa
exklusiva
##espiller
sverigedemokrat
##ffel
tjeck
oftare
extrem
spillere
lararna
ern
formagan
klam
vardagsrum
smalt
##livet
fixat
aterkommande
rein
populære
fornøyd
dansa
kjøkken
teknolog
inviter
styrels
installera
hør
processer
##teknik
##istret
ovning
##juka
kallat
grasmarker
tvekan
forknipp
oppos
behall
sukker
regjering
1985
formiddagen
##sokt
flotte
riktar
saa
rytt
swingers
knep
produktionen
bekymmer
atl
gala
mia
##juden
odling
##circa
foreg
muslimer
lavere
##ni
adcirca
manaderna
drev
tillhorande
##dell
hvit
filmerna
adressen
130
##radande
1600
##jenester
distribut
alger
omhand
amerika
spekul
bero
bekre
vib
narvaro
##usjonen
forvarv
friska
##ualitet
imponerande
atervin
mojligheterna
##stendig
vantan
storleken
##hallning
otill
##ikat
havs
##havare
helena
strategier
ekologiska
uni
menade
trafiken
utstallningen
##bilj
##entre
##middel
##olyck
nordvastra
##lyst
##stek
krets
##delag
tomten
frista
hastarna
ettersom
blyg
studenten
salde
bensin
barcelona
##ionens
tagits
gluten
amanda
skalbagg
sjong
forordning
##radets
93
talas
##sforening
tillslut
##potek
specialis
vindkraft
generelt
here
radet
testade
godkannande
##oped
##spros
hmm
##skarm
##lager
depress
hagen
glommer
##fjord
diesel
farfar
likasa
touch
ai
tumbl
##slet
fog
spelaren
##ights
bestemt
##splas
bolags
trafikk
##radare
##bre
##eler
kolhydr
##spir
##srika
omtr
gna
##unge
arhund
##etid
analysera
starte
##ures
jatteg
##fj
stappklimat
mount
vaken
##miljo
montering
way
##uering
middel
##trykk
blixt
eksister
louis
##oty
##istens
balkon
feng
##figur
kid
##staller
fristaende
##sbr
graf
økonomiske
mangfald
koncern
bokning
##dret
utl
tillverkning
hoppar
mobile
skovde
gigant
##pade
tann
unger
##dating
sjø
investera
road
kontrollen
syri
stok
##atiskt
registrert
##sajt
protest
markedet
domstolen
hanterar
##laggningar
havdar
##cs
valgte
made
##smaterial
exam
##samlingen
lyssnade
krava
cou
##løp
##kram
ordin
##holdt
iron
skalbaggsart
finansinstitut
##sbru
##kommun
tumblr
tomma
leende
hemliga
##pten
besluta
forvanad
utgjør
##namnda
saint
##veien
examen
wow
intellig
aspekter
skjedde
areal
##edig
varna
kristus
lugna
soldater
periode
hogtal
kondom
tackar
##parken
leon
##sband
aterbetal
bestallde
ambul
flyga
##ullar
scand
skradd
##estene
lady
virke
fortsette
ledigt
utel
##cu
skur
sykkel
telefoner
medic
download
turer
##hd
budsjett
ursakt
avancerade
seriost
rehabilitering
lagret
flygplan
beredskap
uppenbart
varierande
aldern
krigen
namnda
fle
##bilden
kjøtt
aw
vans
fantasi
##maren
##snummer
##ulin
##gotland
celler
##øtet
##ords
lastbil
##arbeten
begynne
interna
##ratta
##front
samle
##esser
glem
digitalt
skriftlig
armar
##styrka
##delt
regionala
##arg
katten
##klubben
##unnet
61
##log
flat
sanka
fund
must
##elie
extern
manager
##pra
omtrent
##kaka
##oe
##cancer
darav
##stick
forbe
samrad
kusin
kasino
hensikt
bonde
vardagsrummet
dyka
dragit
servera
byggnads
##industrin
aterbetalning
glomde
notera
pekar
##asj
##bileum
skepp
dur
eur
hogskola
kret
##motor
borgen
##upplevelse
##bunden
varmland
utfordringer
laggas
##yter
stru
##rets
institutionen
##meddelande
vetenskapliga
regional
viking
symtom
math
##kontor
arbetsmarknaden
hundratals
tennis
kopet
##shav
doden
gjennomføre
beslutat
skamt
uppenbarligen
epis
##innen
##namnet
beman
bebygg
uppgiften
##esi
kokos
skota
##akk
utse
spilt
nyan
bedrag
##sperioden
about
problemen
ønske
kvadratmeter
senter
hjalpt
kongress
skivan
hallbart
##blomm
##ilar
saft
nodvandig
klarte
redusere
landerna
fremst
##ony
vivan
##givande
lr
##stider
flykting
bedoma
middagen
sevard
ljuv
##endige
##vanlig
82
orange
turkiet
non
##pes
arbetsgivaren
##okan
##marker
skratta
lesbiska
kommersi
radsla
upphand
bm
externa
##brid
##fft
tappar
flit
##ssen
slappt
ling
##ørene
##jorden
strack
website
##emedlem
individuell
bonusar
biskop
kakor
indonesien
analyt
undra
ukraina
betale
erf
chic
##vit
##elserna
1982
glid
forret
margin
any
spindel
kemikal
likhet
ping
vanlige
hallas
##splaner
avslutas
nud
uppdaterad
vass
vul
##vandring
##sutveckling
falun
##ssitu
moll
hm
gel
skickat
vastlig
arbeidst
salu
##platta
##cle
ode
tryggt
##alisera
##sbar
oc
insektsart
brak
spise
##verd
øvrige
tillgangligt
vivanza
kle
butikk
content
stanger
baksidan
principer
##utvikling
##rorelsen
avtalen
ovanstaende
slagit
##igenom
utbudet
lakt
kassan
moun
dottern
revol
berattelsen
citat
##ero
jakten
solo
kjøpt
matta
inuti
opplever
respons
##nd
komb
##sklass
fornuft
frist
##rock
tobak
178
gasterna
mins
##tillverk
sankt
orka
##asjonene
##ifer
fug
medicinsk
skugg
frivillig
mess
music
antib
##nev
##jorn
bokstaver
##zan
##ily
##sagt
lova
vedtatt
anvandningen
lina
utsatts
samarbetar
lampliga
proje
viet
filip
tillh
##ffen
##oliga
##varon
slip
ordentlig
##hjel
redigera
avdelningen
viten
partners
mejl
women
relevanta
symptom
løn
myn
motorn
locka
rud
patrik
##ynda
biverk
##vux
avkastning
forskningen
##amet
##komsten
es
tillverkare
##isme
fremtid
engasjer
succe
oversattning
nettapotek
kommunstyrelsen
behandlingar
alders
ansvarlig
dumt
stugan
langden
forfall
##ollen
##entr
chile
konstaterar
##infl
legitim
87
quiz
##cast
agaren
##forfatt
glans
avbr
vilda
##agor
##forsor
bosatt
fritids
minnet
snick
killarna
foster
anlaggningar
fixar
femt
legend
smith
now
upptacker
spok
aggress
glede
##egn
enhver
kjer
ake
ytor
betydelig
spet
arbetsformed
symboler
forsikring
onskan
##elly
##skamp
meddelanden
oppleve
sjukvarden
lom
typisk
hektar
sanning
trøn
##cht
feder
grovt
verkstad
derimot
smer
drottning
##forskning
kryp
handlingen
jaja
##regl
cross
hamtar
dubbelt
##vind
reaktion
cos
##ods
dartill
##ilia
ungar
92
##ki
1974
##tagen
kreativa
##ito
norway
forelasning
##laggare
##ssn
kommunene
##lagga
byggde
##gb
anklag
remiss
##stock
forverk
besvik
beredd
fordela
isen
stralande
evangel
ariga
sticker
forlorat
##grunn
frekv
1975
##stugan
virk
wel
##listan
saks
ødel
agent
kanten
sommeren
dorrar
##ife
bedriva
##skontroll
##riga
hodet
##resan
##laddning
avslutar
italiensk
had
##nos
##eringer
sams
kompa
##bundna
##hotell
ifk
kontaktuppgifter
cec
##loss
behorighet
trygga
introduktion
overdr
peder
##kvar
modul
førte
medicinska
gbg
##car
nedanfor
tranat
##inska
begynnelsen
anpassade
mojliggor
undersøkelse
vanskap
administrasjon
american
science
##skur
trotta
tarta
mjukt
intim
persiska
pancake
dessverre
arbetsmarknad
pse
suks
slikt
flaska
smakar
bekvama
color
asf
framgangsrika
1968
agde
opera
##gel
blind
flyger
##laggningen
##eby
mammas
tolkning
orsaka
henhold
hjerte
##politik
##marknad
iso
sound
##junkt
leif
ansag
view
forlorar
betting
manliga
dagslaget
1971
scan
1973
1979
##ident
mexico
##tagna
##reserv
kreativitet
kompos
vardnad
forebyggande
skikkelig
bostaden
##analys
prisen
rimligt
storstad
jor
##chester
after
vegas
lesbian
høyeste
garage
tonaringar
##rud
##tral
klubbens
djuren
langsiktigt
oppfølging
anledningar
##oppga
huvudvark
sentrale
tappa
busklandskap
##spiller
##rant
infora
innanfor
accepterar
rekrytering
proffs
vagn
##byxor
1972
sajter
##ree
##cen
sjekke
sandra
rummen
##etch
medlemsst
##zi
cash
stackars
vibr
blin
enklere
tittat
ekteskap
##sforvalt
upplevt
spred
tommy
ytterligere
vekst
succ
romantisk
wifi
myt
##faltet
forsakringsk
betraktas
ljudet
forskrift
underhallning
badrummet
rumpa
netto
konkurs
ansluta
##uru
ansikts
anbud
jimm
##onto
##skvallen
##stang
finansiell
skritt
befolknings
corn
receptet
##seln
forekommande
skrek
##central
bestemm
utbygg
dokumentation
##onia
passande
fatal
##video
shoppa
##lamp
kundtjanst
##ierade
##passet
verdi
##dsel
greit
gutter
dyrare
kannet
export
jung
tv4
brinner
hamburg
baseras
##kler
russiske
rike
bedoms
##fora
holls
##sider
##cas
slapps
##ynet
eval
redovisa
##fu
prestanda
sexfilmer
##viker
##sakra
bildene
##aton
html
alice
forvis
ending
hytt
little
mum
laborator
utført
##ders
narmsta
##utte
konserv
za
dir
kladerna
sakerna
forholdet
faglar
beund
##imentet
sondags
tromsø
##aktig
samarbeta
##bed
tappat
tillverkade
duschen
torra
fortsetter
lit
fortjanar
møtte
##antor
tabletter
##elset
management
tilltal
nyborjare
katastrof
genet
situasjonen
mach
missar
signer
mandagen
frammande
konflikter
skilja
bortsett
bjørn
##bygd
##kostnader
miljovan
##rill
trakasser
jamna
fortelle
##natur
##skriven
marg
##33
kropps
djupare
comments
blaser
##brand
##sklubb
intervall
scener
vandrar
1976
mysiga
##skande
inland
photos
sjalvklar
tir
birgitt
##nats
stel
##forslag
loven
konkurren
##byra
1983
nackdelar
stoff
smidig
##svin
die
##kott
##ales
utgitt
avsk
innsats
1945
##inspektionen
journalister
forberedel
##hagen
skym
svin
genomforande
page
politiken
nevnt
trolig
diameter
partik
fakult
display
rose
favoritter
##anas
##ville
stuga
ms
møtet
tagen
nedsatt
lotta
lei
byggs
uttrycka
deklar
fax
forsvaret
##flode
forelasningar
torsdagen
grunnleggende
bygd
skrattade
upptackt
##casino
##evin
##jenesten
redskap
91
##agda
avancerad
hogkval
##kelige
berorda
lovskog
##eliv
parag
##ittel
mission
##hjart
poster
alskling
skrap
##irasjon
bekanta
##oa
rorande
inkomster
forkort
##strad
redog
administration
opphold
bakterier
skraddars
uttrykk
konsol
conta
71
kommand
rulla
overtygad
slottet
##yren
foraldra
##ellet
##ekon
retro
testet
1981
kirken
hardare
webblasare
##span
##priser
##aria
portratt
kriterier
byr
sul
##ippa
nest
gjer
lotter
niklas
minskade
bedrifter
nettverk
smek
##reen
categor
skaper
tradgardar
tillkommer
tig
uppger
natverket
oppdat
##heran
##aganden
forsvinna
vinkel
allvarlig
meta
same
direktiv
##istiske
blow
##adet
##havet
nivan
sjekk
##mers
agna
fodda
##lada
bagge
forne
damms
##lege
racka
lennart
reste
vuxit
##aterade
betraff
utru
alfa
sinne
konkl
annika
kvalif
##centralen
stiger
charles
##ekonom
reserver
##promen
noje
synas
pm
atal
stamning
mums
utvecklings
kvartalet
forfl
arbetsdag
ordfor
bastu
sjukdomen
##arina
gos
fisken
stravar
##foretaget
1978
##dahl
chefer
syntes
lokalen
ombud
noggrant
350
fjol
anhoriga
lila
lunds
padd
##win
##pere
##hvert
kartan
royal
kreditvardighet
funderingar
##rorna
kriminal
landstinget
entreprenor
floden
forsaljningen
regnskog
hamnen
linjen
mammor
orn
tredjedel
funderat
helvete
beaut
korn
##ellen
##yder
jessica
forflytt
hornet
diagram
gata
male
young
semif
upph
##vision
cv
##arp
genu
akade
varannan
anlaggningen
stilling
oroa
##ador
##oklipp
narkotika
diagnos
intyg
atte
##underlag
wash
noggrann
##chat
julklappar
spelautomater
pastar
frys
##itativ
farliga
turister
##ikern
##not
titlar
##ated
feed
innefattar
gold
##oppar
danske
##delningar
drick
provning
drama
vagnen
obeg
registrerade
aa
startat
##gjennom
osterrike
lor
##stren
##karna
story
oppfor
tjansteman
stamp
basket
forutsatt
##akes
personuppgift
jacka
befri
spelades
##fron
##entuna
gris
##bror
provade
bransle
##ssaker
hemifran
bestallt
personerna
besluts
tufft
##chf
angeles
egenskap
avgjørende
pad
hyper
logg
jf
hass
visning
progress
varer
idol
arabiska
##svillkor
##fy
videoer
endret
vattent
klikk
bilda
isb
folkets
publisert
felt
##berga
##serie
##skrivna
##skrivning
bildar
farge
inledning
oral
roulette
russland
fiskar
vs
##journ
hollywood
producerar
kulturen
innbyggere
##iserer
beseg
cons
skogs
##ologiske
tappade
##mastare
##vald
xn
indian
semestern
pals
haug
vakre
5000
festen
great
##grens
funktionsnedsattning
##ondition
forhin
xd
there
utg
##produkt
nordisk
okenklimat
benyttes
ledet
svarte
diet
halland
kjenn
##ickor
foreslas
firade
##pg
viner
##æren
##poang
importer
elisabeth
toner
anvandaren
##otekn
ugn
rensa
elect
sallsyn
lyckad
1969
revolution
sud
##km
sande
begara
##mis
beton
fordelen
kristians
##ankande
invester
opprettet
festivalen
stiftelsen
namnden
pseud
glim
avdrag
sola
halvlek
oppdatert
gator
##skans
##ship
sexuellt
teheran
farska
anpassad
drommer
pont
aland
county
tradgards
##vene
ingred
indre
øyebl
tavlar
ljust
framtidens
villkoren
rapporterar
##edal
uthyr
tidpunkt
##uster
nettsted
aldrar
nes
hamnat
kvallens
##lop
paminn
fron
endring
historik
placerade
skrivbord
stortinget
chefen
santa
reiser
##stjanster
dari
##tex
subst
kapp
hert
forebygga
medvetna
##date
##smiljo
portugal
leil
minsann
dobb
kommissionen
##tro
##kerne
instruktioner
lekte
1977
analsex
##stuga
hungrig
saljare
##ktig
specifikt
##øyt
maila
videoklipp
##hamtning
roger
##sbut
forsvara
bedriver
##bot
kungliga
pirat
vell
forvantar
##syk
##villkor
skulpt
bevara
##vitt
rakningar
motesplats
tillverkas
fordr
retningslin
koldioxid
kommers
##lav
##plasser
##ektionen
samtalet
forar
genomforas
mkr
arbetssatt
insidan
paketet
3000
##stillinger
ystad
rita
kungen
frost
stolta
##garant
find
prylar
##sforeningen
##utna
bedomer
meet
kundens
fc
lege
veder
##vad
varst
lex
turne
##mjol
##usion
inspirerad
borte
hallow
##undersø
wien
##sberg
##linjen
##sbeslut
øver
kvartal
haromdagen
lchf
ingang
buff
kontrast
feta
1967
atmosfar
antas
lyckligt
##fett
flytande
ala
found
wood
##amerika
##plac
jakarta
##langt
##svikt
øya
programvara
##inci
forhallandet
hjarna
hyggelig
menings
sopp
m2
tjocka
canada
nina
samarbetspart
tillatet
lappar
grannar
##lack
fargerna
##bom
##esund
spørsmalet
varia
hallbara
gd
##45
##manland
##une
hallit
mester
konserter
vistas
award
territ
##drift
nationellt
ign
angr
klasse
##prosjekt
##maskinen
ensamma
##sun
kroppens
valfard
valut
administrativ
ebon
representerar
##annat
orsakar
oga
suver
ggr
ør
norw
byra
##hallande
##angs
know
piller
bege
##sforetag
mira
biograf
lab
bildas
onsdagen
associ
servicen
uppsta
knack
presentkort
upplevelsen
##arbetare
offis
alternativa
ansprak
hardt
konkurranse
##handeln
lampor
##gro
##elever
berget
kard
gy
lada
imot
brons
##veis
tillhandahaller
##teringen
minskning
##bibli
kvelden
genomfordes
gava
appel
plockade
instrukt
allihop
liver
##allet
##ammation
compan
underlattar
hanteras
vaskan
kjører
forklarade
##sre
##ople
passager
ada
snabblan
tob
indiska
filen
##inerna
nordland
##ningssatt
batar
uavhengig
baserade
mosaik
sne
forare
dnr
underhallande
nasan
gøy
##forvaltningen
##venn
videregaende
utby
forstora
##stro
mellanrum
rotter
fair
177
##komligt
tillbaks
##organisation
sjalvfort
offens
inneha
oppdaget
gate
sf
mj
##skas
berattat
selvsagt
varsin
125
##orier
##estyr
rantor
halt
tranade
mangler
nobel
kalles
strumpor
##fran
onlin
##amnen
ingrediens
sexuell
skadestand
bestemte
aktiebolag
##27
##atsas
erfaringer
##itation
sammenheng
tendens
##sbeg
utstall
kontaktann
blot
ishockey
##eh
rantan
##fallen
byggas
degen
##bottens
javligt
spell
konkurrenskraft
office
debuter
røy
normer
alf
visby
##smatch
stabilitet
besokt
gps
menneske
misstankt
flo
omgivning
applic
##rediter
publikum
innom
grekiska
beromda
omfattende
##iseras
##vetet
##sklader
mir
##ttill
diagnost
##xy
ags
filt
##unna
##ih
pase
dead
forsamlingen
##gam
##slov
publicerat
stry
bern
forskar
##fet
##speg
regioner
raknat
cirk
njot
lillebror
##rap
seminar
versjon
kostnadsfritt
grata
rick
kum
klev
sokning
baren
somras
agar
ebony
talam
tunna
oratt
mild
##sgran
##brudd
camilla
##block
hallon
stryk
jackp
kyrkans
torget
trakig
metro
abonnemang
review
invandrare
forsakringen
care
soldat
orientering
kyss
kiss
##vann
stemmer
tekniskt
skatteverket
ihjal
designer
dream
##hammar
##sbanken
honung
doma
##bete
kontinuerlig
ratter
retten
tes
##halt
##stj
expans
kroat
##vill
##ato
mandags
poolen
opprinnelig
vagrar
##hur
##tell
##emi
##søk
dokumentar
kallades
laddar
modernt
varat
tilstand
##spolicy
arsredovis
escorter
jordgubbar
enkle
##beck
lignende
favoritt
tvil
aktuelle
##ebo
kreditupplysning
##sug
vitenskap
forma
keram
##pedagog
christer
##rettel
avslutning
##chi
onskade
nyt
panel
##ekom
mountain
360
palm
mega
rykte
effektivitet
##ilda
franske
##avstand
ovrig
pict
##akade
francis
andrar
brukade
insamling
individuellt
##egrupp
godkanda
klubbar
##moder
ventilation
manniskans
ekstre
aktivera
gabri
bibe
research
##omi
antibiot
cr
oppgave
##skolans
##99
blodet
orten
treng
wiki
lover
djupa
ingick
##drer
aksep
stekel
pix
morkret
##kvalitet
okanda
begransat
##middag
missn
vilkar
##sokande
pite
##spolitik
vinsten
##ating
styck
kirk
smorg
onan
tilrettel
minuten
##lange
kamper
argumenter
politikk
##go
beskatt
minimum
##fsat
papir
lararen
samsung
pok
search
markte
##kann
egg
kristne
##gjorda
##alk
water
##asyster
spotify
skrivande
handelsen
integration
##hattan
kungs
##pump
arbetsloshet
##aminer
overgrepp
##insatser
vintage
pilot
blivande
frukosten
bygglov
##ibla
gass
##sforsakring
kanslig
servering
##26
raddningst
varning
linnea
markedsf
##traff
skrattar
asien
colomb
##esson
nylig
latina
##ømt
vaggarna
bibliote
maja
saknade
skilda
hurt
##utdan
klarat
foreslag
italia
gleder
##stationen
omfatter
platta
##dren
##kg
orgasm
ova
radik
utsikten
faren
##slost
##marknaden
marknader
##prom
arskurs
sliter
utmer
gumm
##atern
##boy
uppmarksam
##mott
##fyllda
##35
nordmenn
koh
##konst
explo
helik
jamtland
1964
rutan
ryt
##kle
samtycke
##bis
konkreta
handlat
years
utvikler
news
bt
##usa
diskuterar
beloppet
passerar
halloween
##slen
##etr
##work
utformning
##aken
recens
bokat
mandel
marknads
klaga
genomfort
##byn
sprider
regnskap
snakker
religiosa
tummarna
arn
##imenter
##resultatet
rommet
utdelning
albert
##ky
orkide
malgrupp
splitt
moderaterna
##fond
##eds
rekommendationer
##oni
stekelart
##olo
nek
ll
desp
umiddel
cykeln
##mester
##itiv
ansoker
see
producent
flu
kjærligheten
##ession
##øpet
hemsidor
glasogon
tydligare
casinot
popularitet
##veg
skriker
##filmen
fremdeles
paras
kafe
pend
blekinge
##ografiska
##ay
##havn
tanderna
lasse
korrig
kasinon
bestammelserna
uh
pasienter
rattvis
spania
##visningen
mexiko
##atorn
##bai
manchester
sovrummet
##brev
jordbruks
kent
renovering
vietnam
##gjord
##ful
projektledare
etiketter
forvanta
barr
absolutt
omgivningen
udda
opplevelse
formedla
undrade
ledelse
##krig
##vaska
skuespiller
louise
skept
dna
##ialt
sørge
jesu
sterke
##anmalan
miljopart
##trader
utnyttjar
##baserade
vegetar
key
##stallt
##chel
sølv
aterfinns
##itativa
fula
overvakning
amerikan
##kalla
svull
videospel
vap
mente
ingrid
valkanda
forfatter
dimension
offentligt
missfor
prinsipp
birgitta
arbetsplatser
kostade
wordpress
##storlek
pia
darpa
oppret
##sloven
##annelse
overleva
apner
##fas
##28
tiot
klim
##samman
kvallarna
lux
terrass
luktar
lyder
deilig
spare
hygien
##krit
##plattor
pastor
##pir
framgangsrik
nyheterna
##skrid
##erier
plug
hører
1200
kunskapen
avsloja
tanter
benytte
betraffande
varmare
##feldt
##otyp
regelverk
lacker
fos
listen
apel
##auf
cirkel
##mass
vises
intakt
relaterade
##29
avsedd
gifter
ressurser
##fordon
##vol
ansatt
kanel
frik
uppvaxt
##glad
trekke
##ygen
kristina
koden
miljom
centimeter
skader
parterna
elast
operativ
vinne
komplettera
pappers
skadade
bekost
intellekt
inspirasjon
ray
tillverkar
kampanjen
rakning
kjend
handled
##sarbeid
gratul
inratt
##kir
##terad
bokar
sja
##skogen
stodjer
skargard
##ledes
meriter
uppdateras
##anne
flam
butt
vip
genomsnittet
##pum
folks
##nan
hiv
##langd
##vice
uken
m²
##legge
spik
##vader
utnyttj
kyla
interessant
biverkningar
fastan
vikar
trinn
henry
anden
situasjon
##ов
personlige
selger
##prak
skorna
allas
##objekt
stenar
maltider
styrket
##instit
##kron
bedomningen
medelhavsklimat
##ktis
##alerna
##registr
jobbig
##jav
gaming
##forhold
##svatten
##ory
overlat
##forum
only
trøndelag
bore
rør
veterin
every
endte
##jack
##onder
sannolikhet
lamm
fattas
1965
konvention
size
tillforlit
nja
##varu
varg
##lagda
dennes
pluts
avis
##jerna
##aktt
hvite
bø
tisdagen
##ence
komplement
ankomst
stangt
ravaror
string
ferie
##bus
vagledning
fattiga
##ftt
stilen
plutselig
brutt
##jel
slick
spektak
gjenoppretting
##kommende
##eborg
tals
klokt
snap
bass
##esc
ansvariga
burk
eh
hjartan
merc
most
grip
next
##emidler
karlskrona
usikker
midler
benam
religi
tros
nacka
dep
bevisst
##styret
letade
##bilda
##astaende
tegel
hyfsat
##come
sverigedemokraterna
repet
beat
contin
motivation
filtr
##viv
overraskning
boy
vacka
ganget
forvent
resurs
vackraste
tilstrek
##skada
##stens
landslaget
kruk
##zar
##iket
motsatt
milli
likadant
kreft
nedenfor
series
instruktion
dens
avled
skrivet
introduc
resultatene
##elia
statlig
minister
rymd
##oka
##arbeide
xnxx
##nu
buller
halsar
##marke
elias
##cet
pyssel
##stjarnor
roligaste
skrammande
vals
merket
tillhandahalla
##eep
##kapp
gradvis
pt
cigar
##arig
gods
skoll
halvtimme
flickan
kvinnors
1962
##klassen
##essige
torrt
balkongen
schema
passform
meddelar
##estr
##quist
try
##verkar
kandis
tin
inblandade
hentet
metal
mary
tuffa
lednings
angrep
bn
luck
dek
##unionen
spray
eksempler
nærheten
alltmer
verksam
generell
##ding
jaha
##byggt
break
##hjem
kø
tinder
latex
uddevalla
hero
kansliga
##smassigt
##visas
fasad
##dragen
olle
##batten
##vesen
##skyddet
##produksjon
name
##regel
hansen
bladd
fordelarna
innspill
lanka
##ovning
coop
polar
namns
spesielle
##skul
##ekreterare
godkjen
kk
##ikation
erfarna
prostitu
fb
stracka
vagade
veiled
lagst
##hojd
expressen
kolhydrater
betalningar
##linje
##andare
interiør
langsiktig
##sveck
verdt
##kult
onda
nyans
##vav
matcherna
trakiga
sitte
kit
init
soffa
wer
##skot
medium
sjalvstandigt
mosk
designen
##ped
##format
forsakringskassan
filosofi
low
revisor
prestation
arbeide
race
sparas
##lur
gardagens
bryt
maxi
rider
texas
rettigheter
skarpa
##sformer
skruv
tillata
vannet
publicera
fotografering
britiske
mysa
##cin
behol
utbyte
##vaningen
##kvist
kru
felaktig
arsmote
samuel
vaxthus
kontaktar
techn
ohalsa
##ws
peppark
sasonger
begransa
kinesisk
fittor
stamningen
##bevis
##skiv
vanligare
utgangspunktet
konstiga
##alken
##ption
norweg
sax
inlandsklimat
tomat
##jeller
##kunn
protester
pedagogisk
##steklar
##check
matcha
##ebr
sommarlov
armband
utgors
vagarna
##sbyggnad
oppmerksom
matlagning
##strateg
##beller
joseph
herreg
loper
##renover
skilj
people
vedlikehold
rapportering
##¤r
edward
dvar
borlange
##skold
nost
##opa
##lende
##jde
##omrader
valdes
##effekt
blandat
##iteen
trenden
industr
løsning
##savgiften
absoluta
##vnte
##ology
optimal
begransningar
##alem
oppmerksomhet
brunn
uppmarksamma
##ørs
flock
stir
##ssyn
##dyr
harald
penning
montera
theres
rulle
batterier
onani
elektrisk
innovasjon
tyngre
pp
sjutt
energik
ey
##ross
81
##uden
grafik
iaktt
seni
##anvandning
##cipl
##samnen
pics
idiot
inneholl
framsteg
##lere
huvudstad
arbetskraft
blabar
rabattkod
diskuteras
##jev
suksess
loner
forvaltningen
sling
tale
##ipul
anbefaler
harifran
venter
upplys
##tips
ovantat
reagerar
stov
uppvarmning
##ст
farten
historiskt
examens
potentiella
##kjøp
betyda
##butikk
bomb
delav
##pension
shirt
##idering
eventuelt
stot
enskilt
mamman
##odde
vaning
kvalitets
kvinnlig
prosessen
medvetet
redusert
rymmer
skrivs
anim
assistans
kammar
##sey
##glom
trener
depression
##skr
##sburg
forg
sagas
myk
skold
alvorlig
tillatelse
tell
dial
alliansen
##arl
benyttet
heldigvis
utforas
##ender
omdome
kitt
##stalle
##innare
tempererat
arch
##ungna
1966
kanalen
christina
##varre
##øtter
##utbildningen
migrations
ultra
militara
olag
inntekt
##ikanska
hemlighet
australia
verklig
landsbygden
forekomma
lopning
wilhelm
smin
bifog
andrade
atervanda
##idning
krok
langsiktiga
##ifikat
kvarn
vennskap
nyg
partiled
foretradare
simul
reform
##jeneste
nyte
fastighets
namnde
times
genomgang
##ropp
##register
##penning
unntak
mona
##sleder
falken
##my
samhallets
##ection
please
juridiska
forvisso
##varld
schemat
størrelse
##ankar
bemotande
armarna
apent
##modellen
##brod
pupp
jattekul
##jene
internt
##yth
variation
##fiske
##forhallanden
utenland
##klin
tallrik
columb
##innar
uppr
fremover
utrustad
use
##ansokan
garanterar
kvallar
engagerade
sprit
##halls
resulterade
resur
testar
institutet
##blas
##bostad
attraktiv
##uder
##historia
##vant
jordens
grott
cart
narliggande
##sve
gummi
medarbeider
justera
##69
gjeldende
husdjur
debiter
##skons
##sbran
##yssel
cred
##tek
subt
manaders
##gs
resterande
##xis
##tagning
age
morker
dyk
arbetstid
mut
ringen
##ental
shit
stressad
malade
tirsdag
inger
mul
forfar
internasjonalt
##amot
kopare
singles
trekant
ekologiskt
redu
utrymmen
ic
##kre
kjøpte
pom
ale
sjef
signaler
##massan
rabatter
imper
sho
besøke
skord
chi
avklar
movie
##wan
##iers
astadkomma
kakel
arrangert
partierna
##ungit
herregud
funnit
storbritannia
informations
minoritet
kusten
salen
fortsattning
slass
tegn
foresla
bilarna
tillracklig
entusi
vim
argentina
##stillingen
ostergotland
studiet
tent
ks
sjunker
valdtakt
badkar
tenkt
slakten
talang
gem
hyresgast
##borgs
forandrats
utgangen
utk
##iza
cirkul
##latt
##finansiering
##egron
nova
food
##utbildningar
nato
vardagar
##ischer
foreldrene
konstig
onskat
erbjudandet
##rester
rackte
liverpool
formiddag
oronen
talamod
mossa
upphovsratt
uppratthalla
ming
guvern
##koden
exped
avveck
##ymen
inneband
utslag
nul
utslipp
uf
##ckare
nyfik
stunden
##mund
pist
them
##uma
otal
spegel
##tein
oklart
galleri
fylkeskommun
faglig
sammantrade
##yle
omedelbar
spridning
##smann
##ærende
syv
bitt
##oon
charlotte
skilsm
otto
sakna
##kyl
##sept
krypa
kallare
##ladan
1952
laddning
##jacka
kandidater
##astning
##shot
tipp
fysik
vera
taggad
halsade
drept
bonn
tilbakem
##asc
##klund
##økene
blandade
tarar
slappna
kopplade
dyn
bruna
sebast
ade
dagene
##egard
hjemmes
stamma
forrad
##enterna
terr
benny
kundservice
taby
uppskatta
lades
fær
konsten
hugo
##innor
##sti
latarna
seo
faltet
steph
melodifest
##omsorg
lysande
kulturer
siri
erotiske
wars
existerar
gymnast
##chefen
slutsatser
webbsida
runtom
maximal
ukjent
skrevs
##skiva
patent
agerar
mineral
dessvarre
leveranser
1963
##byen
delavrinning
stere
romanen
utfall
syda
##icia
enna
oliver
misstanker
tilhør
##eback
utdrag
traditionellt
rengor
##stadiet
runde
blast
inledde
##agd
ohl
huvudsakliga
ellen
##isol
nb
toler
meddelade
##settes
aur
##tert
interessert
##parker
##ryss
syre
stiller
##onus
markera
drabbade
skyldighet
##essan
domare
##brist
fare
granne
kladogram
##skran
moh
trakt
monstret
norwegian
haftigt
utgora
stadning
dolda
sjost
forhallningssatt
##yy
sena
biler
##syr
##fjell
##sbolaget
paragraf
lantbruk
imorr
inde
doften
engl
##uppdrag
kanneteck
##provning
aro
##scen
jentene
industrin
##ters
vinnaren
bestaller
stjarna
##vc
omdomen
betalningsanmarkningar
lovat
year
gon
brygger
##smojligheter
kjol
slutandan
tet
pent
hip
##akim
trekk
vandra
##saret
organisasjonen
##regn
avslutades
##lede
upphor
promenader
etablerade
explos
arbetsformedlingen
sjukskoterska
munch
##umul
varberg
overvikt
hull
##angden
spad
informasjonen
utmarkta
##plic
##pning
##holdning
ef
lanade
bonder
vinet
soph
##ious
elite
1948
varu
bosn
fullstandig
avgiften
darigenom
liste
utfard
##°c
katarina
washington
maks
sakerheten
tillverka
brown
##rene
forfattar
nhl
##aaa
##smarknaden
##sorgen
paradis
##ates
##skorna
utebl
langvarig
mobl
elimin
verken
nit
dron
carlsson
##ен
tilskudd
aqu
kopplas
funka
sevardheter
vantas
bund
##field
domen
publish
akademiker
##alismen
flek
##iek
##him
india
bevisa
davarande
distribu
skanska
osterut
energin
barnehage
kyrkor
tenderar
prick
##ofs
morr
handtag
ovanpa
uppdateringar
##ups
##bred
naglar
rene
komfor
eid
##riar
nacken
utvardera
enk
##xamen
numret
summan
miste
##tekter
positive
marka
place
stadsegron
##forvar
europeiske
##ili
resonemang
##agasin
##pengar
studerade
finlands
##34
innholdet
trender
møn
garantera
##merad
patag
km²
##arrang
flexibel
bibeln
markus
skidor
flog
##list
##lyser
british
mottes
rorelsen
velkommen
dods
##iop
institutt
natterna
##foral
##inas
loppis
deltagit
røde
font
logist
løse
syrien
batteriet
rinner
narstaende
lem
stabilt
maklare
hammarby
konton
jattes
mobel
klagomal
leser
europeisk
attit
astrid
kompakt
overvak
blods
urban
starker
kopia
husen
hemmaplan
nakne
kulturella
spørre
rele
hittas
fremme
generationer
##hyll
##ighets
komprom
bidragit
skrib
juridisk
hogra
uppfod
##farger
valkomst
dejten
naked
##anting
##pak
rt
##somt
efterlangt
toppar
bust
mastare
##ørsel
##vackande
uppdel
kunstner
sjalvfortroende
okand
torsdags
merk
1939
##massa
ded
virksomheten
sill
budd
differ
##alia
arbeidsgiver
##card
##ame
konsumtion
rattvisa
tillampning
##innet
forval
##foljer
kliva
##eger
fororen
tork
intensivt
vente
testam
foda
sparet
vilar
gavs
fantastiske
ført
tilstrekkelig
##horn
jane
##foder
konserten
brotts
stodet
pabor
classic
fortell
temperat
underratt
vitaminer
surfa
##rens
avd
dm
blowjob
deltid
tobias
##fjar
turneringen
dc
vasterut
myndigheterna
vatska
##pati
manu
snubb
villig
scenar
anime
flakt
indirekt
inrednings
##row
fras
kate
##ingenjor
joakim
hug
1961
mort
zoo
barnmor
besoket
vrid
tiderna
skjedd
bredare
##iks
bromma
brunett
klocka
##hart
avgang
micke
vispa
##fotograf
pitea
nyckeln
hindra
oppe
solidar
olsen
rolf
naja
##ikke
morg
##oid
etterhvert
rattegang
leds
##66
##77
##seffekt
veterinar
paj
blogginlagg
ramme
langtid
1956
##frist
ursa
##ilen
##kamer
pettersson
eksisterende
regelbundna
arige
lejon
latsas
dopp
##mu
satell
sjok
overd
patt
tekniske
sadel
##strid
stater
toy
prostata
##asjons
quote
droger
##oken
tankande
tankas
##ologin
##tabelt
dil
duscha
arvid
prepar
##ringer
##bidrag
lektioner
fordom
parfym
bob
hemmag
motstandare
vasa
institution
varas
##stest
intet
innvand
##snat
sports
##plock
vindu
##ørende
kondition
undersøkelsen
lee
ront
valda
individen
latit
snarast
delavrinningsomrade
##alth
teckna
leveran
skadad
##smessig
ingaende
##massage
slav
##anlaggning
byggd
utflykt
uppre
slanger
casinospel
norde
utbildad
##adi
berattig
tripp
kottet
posisjon
officiellt
colombia
kontot
alfred
##put
hindrar
giftet
##univers
##henger
##sidig
arbetsplatsen
naringslivet
kloster
##parlam
bygde
bingo
blomma
motverka
mn
bikini
##vakten
relationen
plockar
dejtingsidan
##rent
##yrkan
utvecklade
ross
diskussionen
ultral
digitale
##skvalitet
trettio
kosten
kommersiella
anpassas
english
manat
blo
##sanal
stolar
##runa
yes
cry
framgangar
xbox
stallas
karaktarer
revolut
fragestall
##oro
genomsnittliga
##edy
##jak
psykiska
utmaningen
fjerne
planeras
drabbats
golden
raden
##unskaper
datter
forblir
nyheten
foreløp
sovmorgon
kapas
teman
flug
##sverket
##panel
valfar
monsun
rap
grens
bortom
ersatter
orkester
publicerade
##lampa
poangen
1958
møt
null
intera
fingrar
ext
law
drakt
##steknik
hamtat
hook
gjeng
drink
conne
##forsta
cecilia
##salj
njur
##osten
login
uppkopp
internasjonal
ego
prel
anskaff
kjenne
artikkelen
varnar
lampa
produsert
##skytt
##vei
blei
dispon
tul
mit
##run
sein
hostens
marian
stotta
pluss
##urgi
maur
fotbolls
politikerna
##personal
utmatt
bruken
##frisk
kyrkog
sofie
vasterbotten
givit
##anlegg
##uf
iordning
nettsiden
emelie
##itution
scha
utmanande
liga
fascin
begravning
fangar
##ways
xl
ersatts
brant
##cho
økte
trek
##aktiv
##intresse
vamp
##mig
chips
styrning
ende
uppgar
aktive
pannkak
##period
olav
leo
grot
##oft
vaningen
blandar
fortsattningen
føle
##olas
airport
benytter
stina
1944
biografi
##ining
segern
homosexuella
tjug
konstnarer
##umen
services
valget
svarat
##stamm
success
amatorer
treff
slat
##paret
##stallen
hands
maz
framgangsrikt
kemi
creamp
statistiken
##stalls
1917
resenarer
##eon
femton
##app
fisket
gil
tvungna
jensen
##ush
funderade
smala
hovedsak
##vardig
##bitar
beck
sakerligen
disney
scott
##kategor
champagne
daribland
gult
sammanstallning
turnering
##modell
fattigdom
trail
##ssy
sikte
fotografera
feedback
kommuns
kopplat
svenskarna
fjader
finan
##smorgon
skytt
##ird
point
jesper
gjennomføring
165
##edon
bekl
##ampning
utspelar
bulgar
##nis
##atik
inhand
løy
##skydds
cc
less
other
hamp
verksamhets
saab
snow
##kelsen
horsel
sander
##ydlig
rubrik
##altar
verdenskrig
some
nass
flyktingar
tina
muskl
krak
##sfullt
##emar
##etar
##unes
##urne
##ighetene
second
husse
attityd
blondin
rekrutt
kjøretøy
reportage
##jarvi
gad
##gan
plassert
delaktighet
nederlanderna
sunt
fattade
##hurt
miljok
pedagogiska
begransade
##scent
##bjorn
intraffar
chan
##ckit
##gruppe
##banen
datas
monica
##valet
anvandarnamn
hult
dykt
hundre
dran
delat
##mek
tryckt
##64
flytte
tilh
belgien
forenings
fantasy
hemat
bankkonto
grunnen
manads
genomforts
kalen
##fattning
inventer
bakken
selskaper
##strar
##opplys
skyldes
visit
atom
konstrukt
trivas
anat
##sche
ersattare
tyngd
##indrade
174
kollektivavtal
givande
##spot
bk
insekter
##mede
basis
tenkte
skrik
harddisk
fjerde
##oplan
nyttigt
krom
influ
##djursart
qual
jonkopings
langiv
##fiber
forestallningar
##andras
psykologi
##oy
##sindu
monteras
irriterad
svd
igjennom
aktiviteten
transf
##dokument
strikt
spansk
category
behovas
##korn
##sval
maximalt
levt
##ektor
##inrikt
kramar
intag
##øyde
fingrarna
##endo
adhd
##ez
##bevar
therese
kapten
##well
##akere
maler
##house
valfri
marock
samvete
asian
spelande
hojer
1918
forfragan
allsvenskan
skr
##umma
lunchen
klassific
egypten
##inos
forde
##klare
finsk
##issen
##lust
1910
##odd
syntet
skalet
forbattringar
skattem
styrelsens
gunung
##ynene
pressmeddelande
studerar
drin
##ipa
formann
stans
image
want
tarm
forumet
andrat
forbruker
funksjoner
serverar
flyttas
##dukar
##stolar
midten
heliga
kraften
mb
lise
ngt
trafikverket
##akare
tjenesten
adolf
vattenfall
revision
utreda
minskad
apt
vardepapper
##install
##aki
##festivalen
##gers
lanar
absor
hk
desperat
vaskor
landbruk
rally
oppnat
manlig
omhandert
inbrott
konceptet
##uls
rimelig
easy
kanad
##byggnaden
stapel
utat
arsen
provet
tort
engagera
trycket
##inet
overlam
teorier
radhus
tvingades
##verige
myster
sommarens
##lakt
##ared
utarbet
aj
befann
branscher
company
sysselsattning
##sklas
million
skotsel
bespar
fager
##tren
##fabrik
vansterpartiet
forban
##iserat
stolen
fardigheter
utfort
##sprov
yttersta
fyllda
agenda
silikon
bladdra
beskjed
samlag
##blar
sjalvmord
##rea
emellanat
varmer
øvrig
utov
energie
##jta
slap
arrangeras
umu
svaren
flert
nordens
##uck
anner
avt
naturreserv
tangent
##vattnet
skottland
redakt
##undervisning
avslojar
trader
##ogra
databas
tanda
dokumentasjon
utstallningar
##room
kogn
##ordforande
askad
ank
bristande
epost
strackan
publicerades
##vap
innovativa
krossa
inleddes
svek
fastnade
rostade
biten
omradena
langtan
##wi
sammanhanget
tillfallig
ær
engagerad
enklaste
ataganden
##smetoder
##ipl
##krets
##ffin
verdier
samsta
##kontoret
tida
laur
budskapet
##holdsvis
evne
prognos
utst
take
korru
monte
##nær
fusk
##rine
1957
##ekyl
##gorelse
placerad
elektroniska
##koder
##skontoret
filipp
flackar
matning
##skapande
efterfrag
forutsatter
##ekont
verkligt
nekt
bitter
figurer
demokratiska
##napp
plassen
##ovningar
piano
sony
franvaro
politi
##illverk
jerus
prester
namner
forsvarsmakten
sarah
equ
##butiker
kiruna
arbetslosa
##vanliga
typiska
##korea
expand
karnkraft
torde
reflex
ladan
experiment
bedrivs
rig
sortera
blandas
logistik
chal
tide
fut
moskva
klassiskt
jaga
litter
nasjonalt
oce
stilar
##wall
settes
skjema
inspirera
fordonet
enkat
cover
fjord
##bben
##pulver
bekraftelse
kylskap
##produc
##savgifter
begrenset
solgt
##ifiering
sakalte
##givaren
adoos
##studier
jubileum
##inte
direktor
drop
forsvunnit
tradisjonelle
##saktiviteter
rf
kartor
sou
intraffade
cand
rapportera
##hogskolan
lasar
##idas
backar
##cion
misslyckas
ikon
hotels
##svenska
familjemedlem
##rr
postades
##95
##jøring
angivna
168
dekk
fekk
motta
lugnare
detaljplan
utforande
uppskattat
siffrorna
inbjudan
##cerande
flyter
##ulla
handels
kraftiga
masser
##skede
faster
granny
##festival
blicken
##traning
imorn
fullmakt
forestalla
trog
grava
hoppet
magiska
nal
automatis
aer
jerusalem
planlagt
##sinform
njutning
##arium
overforing
pala
amate
receptfritt
utro
arme
klanningar
belastning
usd
kraftfull
malvakt
trojan
##mater
gyl
jevn
stop
oland
tolka
begagnade
stygg
##panna
sekreterare
publicerad
forbattras
##bullar
frans
auktion
klient
##meh
restaurant
blues
stadium
##entrepren
frascha
gdpr
tvaa
granska
hbt
nedanstaende
samarbeidet
varumarket
platserna
attraktiva
##ssak
##overket
betalat
##rukket
norrbotten
##hojden
inverkan
##ping
sott
telia
##modeller
levere
betalningsanmarkning
medverka
premie
##spo
formar
##lings
rysk
forsaljnings
##ekort
tingsratt
cola
kollektivtrafik
##øtte
olycka
academ
fortjust
arrangerar
artikkel
sektion
saljaren
##medal
vra
##helg
guy
soff
##edomning
##terapi
inat
monsunklimat
arsmotet
elektronik
##ssnitt
pasient
virkel
tidens
misshandel
##sbi
##seffektiv
##war
sebastian
belagg
ingenjor
hente
inleds
strider
pengene
##given
doc
sjatte
falska
##legger
##angar
enastaende
##ammare
##holdene
kemiska
lest
bokfor
##unk
ekv
forbedre
##sperspektiv
laskigt
##jod
kastar
##irk
livslangd
sovjetunionen
kroppar
right
##bock
postat
tos
1946
jimmy
##helst
barbara
traningspass
timma
##posten
janne
hitler
koncernen
propag
##varan
##asar
vasentligt
annanstans
slem
giss
wahl
##olia
tveka
ekster
avslappnad
nettsider
uppskattade
##utstyr
stadsdel
##formar
##akers
samsvar
kerstin
arbetsliv
utmana
##ariga
koparen
gross
##71
oppfatt
sliten
fjort
flin
ordforanden
##handlare
passerat
jones
ignor
##dinge
##illgang
caroline
##eli
cho
unionen
brid
##mens
##blod
##nov
knappar
ral
##mare
avsedda
450
veier
pussel
datama
ordnar
strunt
heart
sortimentet
itu
irriterande
ansett
utgjorde
1938
1947
sexstallningar
manifest
okande
kortsikt
klinisk
hvilket
uppror
##akor
betydelsen
forbattrar
timmen
bortt
utbilda
##krav
sender
##ifiera
pulver
ruta
strategisk
hudvard
##straff
##ssjef
whisk
sendes
ventet
vakker
agnar
insett
##stora
valbered
valkomnar
1959
##smiljø
byx
tandlak
##aktiver
boendet
rune
##lasning
##bonus
arlanda
##px
forse
##domstolen
skapades
fliken
comp
##istri
##deltag
accept
upplagg
legiti
havre
##sidorna
tvivel
##dis
##rafta
agnet
print
##vagnen
poet
samlingen
trojor
stadat
##fug
lay
##struktur
##stamma
union
##arkiv
skoler
odla
syndrom
##byran
campus
tillvag
sodermalm
drommen
##ards
behovt
##sdal
tystnad
direktør
bloggare
imponerad
##rede
sjunde
jansson
##lagd
olympiska
quest
##shavare
behovdes
funkade
erg
stø
standarder
##oarer
##sparken
ios
##idningen
satsningar
quick
quebec
##sens
##ali
ledere
citer
##parti
##ovic
konsek
kombinerar
sommark
trim
##skilt
aber
hostas
erotic
stasjon
bly
studerande
anlita
##rere
overvaga
klist
abra
##vagnar
antibiotika
kemikalier
finare
territor
##dubb
forfog
##osp
##ving
kristiansand
broderna
utbetalning
optimalt
##hjelp
flesh
##sprocess
rostfritt
krankande
lyckliga
##bang
lasaren
tranga
billan
vackte
transpar
frekvens
##medicin
utføre
##cerades
prosess
##okning
utsett
jø
hipp
vesentlig
##forbud
dokumentet
glam
justering
mim
genus
vaxtart
kalkyl
spre
chicago
welcome
arbetare
konstaterade
##essa
##firma
chris
kalv
umiddelbart
tillfalliga
kjempe
overord
##36
##ventionen
##ielt
poliser
roma
fallen
graset
1936
øster
kantonen
reaktioner
undersøkelser
##ologen
omfang
sammank
##sskydd
beta
tilfred
##iren
gjennomføres
hydro
djurgarden
materiale
lidande
##nevnte
brostet
finnmark
##uri
kanslom
kannedom
extrema
##ssas
##istrikt
forestallningen
felaktigt
style
sanda
##perspektiv
hex
##skikt
numer
kontaktperson
upptrad
avsluttet
##agon
ou
##rakningen
narma
##ume
##formular
forbereder
segel
##atum
jim
snakket
salong
co2
kulturell
east
parallellt
livstid
tvinga
1941
fastnar
institusjon
community
##aliseringen
##ido
utvalget
klokken
digitalisering
##itioner
apps
overskott
tankbara
smartphone
##videos
sjelden
mangel
stretch
glod
handboll
institutioner
dataskydd
dialekt
donald
forlangning
trene
staffan
##udi
##desig
##ikationer
##mets
trygt
etterpa
saldes
parlamentet
##oke
rostar
##kultur
vardefulla
socialstyrelsen
tupp
##vagg
##phy
jobbiga
stemme
konfir
##biljetter
bangkok
mattan
audi
gent
kf
##sammare
chelse
giv
fundament
##kyrka
kylan
avsevart
chili
##oar
fisker
tempel
soner
agder
utlø
kilde
konferensen
banen
amazon
karolin
hurtig
##messig
kroatien
nedgang
omgangen
europaparlam
privatlan
dromma
avsked
##amatch
kristin
fester
fascinerande
kyst
##olit
##atts
upplevde
lagras
bart
##endørs
##ulara
##ogging
innbygger
anmalt
##jung
##situ
leksak
telefoni
smooth
anhorig
trell
##psyk
drøm
asker
faktiska
kreditt
provar
##skare
marina
svea
varierad
mobiltelefoner
tf
##unst
tilpas
bella
##alan
anknytning
brittisk
fotografier
jamnt
##fari
kritiska
tilfelle
midnatt
lurt
smartan
inkluderer
foraren
##hastighet
##museum
omvard
retningslinjer
lador
##baserad
elevernas
aktører
##konstru
bussar
##ilsynet
babe
pryd
##buss
grenser
bryn
##count
ytre
country
jurist
jattemycket
velg
discipl
svaga
versioner
hariga
##haug
tilpasset
utø
bryst
hage
##utvalget
ebba
##etil
sangar
synonym
otrolig
##sallad
##kit
smeten
analysen
##forman
omradene
##ledaren
chill
##eraturen
funktionshinder
das
foljs
landskrona
##indlar
stiga
gp
forbattrad
upplaga
hylla
##betet
transaktion
tomater
barnbarn
familjens
lampan
milliarder
##iction
varandras
cyber
kind
##ungar
bokade
kaliforn
##oment
##smo
grejen
sakrare
tiger
1914
akershus
veckors
løper
infektion
kastade
dyre
forskole
##universitet
produceras
olyckor
##korning
krona
drycker
##elius
marit
mistet
elef
disken
##artan
1949
makeup
##spersonal
allians
##utet
japp
trangt
halsband
ljusare
hamtad
korte
escorttjej
nyanlanda
leie
regisser
product
styrs
1955
nedladdning
kjørte
barer
jagar
uppstod
##sadress
hjar
lyssnat
##stader
1912
zon
fortryck
##luft
simma
lovade
nedat
betaling
bollar
countyt
dispens
arom
pern
kvarts
meters
retor
kapittel
exakta
strukturer
smhi
##flyt
##jem
##tida
erhalla
nodvandigtvis
ft
spur
overs
##yen
doll
shorts
uppfattas
bevil
dolj
##iche
intra
proff
##dotter
##kol
creampie
##fal
melding
bærekraft
omega
signifik
dt
korning
forvaras
stycke
aaa
annerledes
lass
borr
salv
##straning
formel
dressyr
seminarium
tej
energis
indisk
ryn
dommer
omvarlden
queen
##fonden
administrativa
fars
snus
tavlor
scb
svan
smed
blodtryck
erov
grin
ere
1954
referenser
garderoben
fad
økning
upplosning
##smast
slas
vri
##bella
bekraftar
sjalen
indel
speglar
##elett
omfatta
overflod
hair
149
utova
distribution
##ruppen
viktigast
kd
ali
oppstar
##bia
onsdags
startades
##plex
miljob
vidta
##resta
laddas
boj
ungdomarna
##immer
##ofog
interra
##blet
antyder
##ymbol
##holt
atskill
iuc
osyn
matchar
kyrko
##intresserade
town
##partner
mediciner
mottatt
##fylld
##ра
##anien
##38
proport
traffades
1942
kalorier
psykiskt
##flykter
moa
champions
##riper
tamligen
graviditeten
avn
bokforing
tillskott
bohus
fasen
polska
eksper
##kedja
creme
##ebel
105
sapass
blackjack
liban
eldste
blanc
##sfest
##aling
##overv
##status
komplexa
gustafsson
##skurser
løpe
porslin
##resp
vibrator
kongen
tildelt
##egge
valen
trill
terapi
##ui
##trafiken
ups
dagtid
tillampa
arsskiftet
skjor
tillhorde
stationen
##autom
ansags
##antar
effekterna
skjønnhet
##urd
kontaktannons
pip
##ienterna
##col
underholdning
forpackning
handeln
##smote
##spen
##ningsmet
hovedsa
styrker
##sele
forkylning
bacon
##hm
skyddas
##ommun
systematisk
nøk
hverdag
regnskogsklimat
foreløpig
magisk
##kelser
taggar
tl
tvist
moderat
medfora
foundation
fortalte
##altet
perm
inflytt
migran
sexual
luftk
reparation
##sspelare
pitt
racing
fuktigt
herrar
kravande
brevet
kakade
##smot
fried
skadar
##obi
tidspunkt
##sprinci
manipul
pressen
utskrift
bunn
kronofog
økende
uttalande
sektorn
##slor
malsattning
nyfikna
fjellet
sekt
krog
##unget
sahl
##utan
objektiv
pappas
##vne
escorttjejer
næringsliv
##assist
medverkar
sannsynligvis
##entets
hovedsakelig
##odor
levert
sentralt
elektriska
foot
##hin
kristall
##cation
verksamma
isak
nykoping
pojken
##oto
lyckat
edu
utlandsk
##rukturen
gjens
uteslutande
sattas
##arin
huvudperson
engasj
villiga
uppgra
tisdags
##utrymmet
##ologer
dejtar
fish
ledende
nabo
johnson
##lubb
arbetslivet
utoka
feel
oste
friends
ub
##edin
undviker
tyrk
understre
avslag
tjenest
samlingar
sb
skype
##gilt
##sdotter
gave
snusk
##ikar
amateur
frascht
forsakringar
saljas
##risen
planter
forvara
ng
goa
sistnamnda
##sverk
bmw
sala
vedkommende
tilnær
##banor
etablera
tatu
1951
##ashion
##strøm
analog
##uper
##stoff
smas
boreala
anstalla
##filter
##ycker
cyklade
collect
##spapper
fungerat
1953
kaller
beloning
malat
passe
konge
brosch
nagorlunda
fucking
##ikket
preget
vulkan
##ason
when
##sforbundet
direkta
##loppet
##rycket
##idi
##artor
##smuse
##kostnad
##cted
froken
forskjellig
miljopartiet
reformer
syrran
deut
##cont
nasa
divisjon
optimer
##ningstiden
regim
##order
nyfikenhet
champion
skatten
##fargade
##examen
##forklar
##ty
##filer
naturvetenskap
hord
kommenterar
benet
øynene
tripad
##forare
gnall
##stjarna
skiner
trotthet
##ssenter
ribb
psyko
landstings
boob
fullkomligt
fost
##esultat
oarna
cher
kritiker
##hemmet
##sansvar
##hub
##drat
##organisationer
tilltrade
##stander
##ostnader
hevder
novell
umgang
skiten
flitigt
overlever
skjuter
opptil
hf
##iliteter
aran
oar
nettdating
minste
ryd
##arkite
støtter
solned
##immar
##point
uthall
forskarna
##spark
friskt
likvid
slangde
##ligaste
driften
hul
positioner
etablere
paminnelse
fortid
galna
eventyr
rettet
flack
##rostning
bekrafta
realt
odm
##eliga
php
forvantat
ressur
barnehagen
osk
##cykl
handle
svagt
mineraler
namnt
matare
enig
doman
situasjoner
gestalt
fullstendig
fotot
somnar
kylen
forster
##tabel
illama
##kende
##39
eventuelle
##via
opph
##ential
##ize
tillats
hansson
svalt
foretagande
freesp
##rettet
##ombud
behandlet
inbyggd
jattet
##alds
##stenar
strander
hemt
akademi
##anol
assistent
amatør
omgangar
##icus
##jek
torp
tony
valbef
opplevelser
##enheter
poll
vark
melodifestivalen
kvinnen
ober
vastern
##kropp
idrotts
temperaturer
skarpt
hunger
pappan
influen
vekk
svanger
skrot
##uga
mentalt
umulig
trig
##saks
styrelseled
anpassat
fleire
ostersjon
lykkes
##nation
##senhet
##ekret
varsel
##orm
skrivna
balansen
minutt
utsidan
pub
iucn
nødvendige
##ikerna
linus
apelsin
skalen
hiss
militær
reading
##hot
riksrevis
vardel
kristine
##garda
atervander
letat
cupen
bestand
lampar
beskrevet
konsekvenserna
trelleborg
oversv
arbetsgivar
fodelsed
sjansen
vinteren
##ortering
kaffet
070
skyldigheter
asfalt
lagade
relasjoner
ackumul
bredt
konvers
ration
roka
diff
utesl
##artiklar
##anj
uppsattning
##ando
lp
rosor
adresse
forste
tyckt
beviljas
blaste
nanting
##olan
##føringen
programmering
operasjon
invandring
begynt
helikopter
datingsidor
brudd
universum
they
##isterande
##hett
lapparna
##riket
##44
klump
langsta
dark
skapande
fattat
itunes
representerer
##foretagen
##68
1919
taler
random
rutt
##verken
datingsider
tripadvisor
isk
handverk
ofrukt
regnar
foregang
##fukt
kallaren
gissar
linkopings
inledande
drammen
erotikk
gudom
##ledningen
husets
morkare
weekend
abort
nojes
liggande
namnas
nos
dance
drø
exklusiv
stimulera
interracial
fengsel
kej
ponny
otrogen
cougar
pink
true
self
##blast
opphav
badet
leverantoren
snallt
uppdaterade
selge
butikken
finansiera
kandisar
##minen
sambon
kjemp
koks
boss
polisens
toaletten
elsa
##golv
jør
##adel
begrens
sjukgym
kanter
gatu
swedbank
chesh
hassel
kopier
##anpassa
synen
popularaste
##orns
##vinkel
axlar
tver
1937
##raget
sark
lc
uttrycket
redaktion
vy
##øg
nyare
smakade
slam
md
ulrika
radgivare
nærmeste
forbjudet
##istene
underlaget
##sstrateg
rorde
##fack
angrar
uppnatt
##roendet
registrerar
##iskor
bolan
##iseringen
##skaffa
coolt
marianne
anvisningar
mygg
secur
asia
tilfredsst
nagel
densamma
medlems
##master
resulterar
klockor
##eldinger
220
sjof
biologiska
respon
##øye
trenings
##bill
hest
voll
##nick
##ripa
##iret
##insats
joel
##utta
studenterna
brow
beskrev
hanvisar
underveis
cheshmeh
florida
forandringen
ansokningar
##organisationen
horlur
biog
1928
storningar
regelbunden
bostads
##forsorjning
dagbok
##sfun
##rix
carina
##rapporten
karolinska
slaktingar
halvan
##orf
##bolagen
tingsratten
spelt
1943
spenderat
charlie
analyse
##cul
upptagen
judar
naturvards
følelser
standarden
prenumerera
##mad
##alisert
potter
arbetstagare
##slosningar
bosatta
##petens
onodiga
sommart
visningar
grep
adri
##lorna
230
presidenten
oljan
##biler
1400
koncentration
gin
landa
formula
konstnaren
forluster
pock
styl
hemska
##ikor
forsøker
##nene
240
uttrycker
##resjon
utlaningsprodukter
##gre
1924
luther
##runda
tusan
vurdert
strategiska
kub
##sklipp
fulgte
ledighet
flexibilitet
stoppar
samlades
receptionen
##berattelse
forordningen
evigt
russisk
traditioner
bing
veteran
innebandy
sprungit
leverer
nulaget
skattef
##slandet
innehallsfor
##interv
pah
prioritera
skuff
representerte
avslutad
klanningen
gyllene
obekv
handlingsplan
katolska
##ilton
befintlig
vagrade
minner
susanne
##anan
##spelen
marktes
##uit
konkurransen
##fix
ikapp
ultim
##vardering
yoghurt
efterratt
fonden
##namnd
manen
clar
stoder
##ascript
tras
stold
jfr
vanstra
arenan
partiets
paminna
riktade
manglende
ds
redogor
##avgifter
stadion
##endt
storting
badd
##glasogon
##head
kb
1933
imorrn
strump
##atra
model
javascript
inspireras
kare
prisvarda
##sbrott
overraskande
utbildade
##bos
egnet
nufor
sura
flaskor
##37
##ami
beslag
##ply
havd
costa
notter
fordelning
utgift
kombinationen
gladjen
studentene
##attack
track
##skel
snackar
titan
##ception
puls
brinnande
##malet
lanserades
frals
branden
belys
tillbringa
hode
dugg
herman
bertil
##snes
huddinge
##jong
##etting
kevin
##prat
krisen
##kusten
kommunstyrelsens
rann
luftkondition
ringar
##32
konflikten
animer
##huvudstaden
opptak
##flodet
grundare
##sgrupp
##direkt
inlaggen
ofruktbar
kravde
msek
##isont
regnes
shir
chelsea
##ennelse
##unga
##ites
##namndens
elektro
robust
##kladd
sittande
did
##pter
tysta
ypper
##driv
vedlegg
adresser
prefer
##slappen
omslag
kot
##litteratur
friidrott
##spre
ora
hagg
##pend
hejda
##hc
ged
##sstod
kanin
##sutvik
johnny
effektivare
inlam
avbryt
maskerad
skjuts
klor
##stur
presenterades
skolorna
andliga
passagerare
isolering
utvand
gry
##dringer
informasjonskap
sporten
signatur
##fre
##derad
grater
##seg
msn
##srel
##ampar
##ody
moster
halsan
skyltar
byer
lasta
beskrivelse
utformad
vaner
##familjer
##sattnings
reiste
db
grim
forbran
##vanor
##icitet
infordes
##haha
diar
solsken
fastighetsagare
oon
krono
karna
nufortiden
profet
##omme
stolthet
##befolkningen
kw
fetish
bidrog
tillvaron
##prins
trakasserier
dvarg
uppsagning
sext
guiden
return
utrustade
state
##sde
mottagare
opplevd
copyr
kryddor
drabbar
vond
motes
##made
overstiger
anlit
fadern
grafisk
proced
##udier
lindgren
##styrning
blogger
##uttag
jamlik
hittades
tagna
packade
##rada
vetenskaplig
likest
regelverket
##plet
hotellrum
hydra
bedriften
judiska
##rorelse
frol
spy
##larare
kopman
arbeidsmark
##vags
rosten
planerna
##pin
mekanis
##rice
oppf
skre
avbrott
pierre
fashion
amster
mannens
##100
webbsidor
principen
milfs
nitt
galt
angelagen
fortare
tayl
stram
vettigt
jennifer
borgerliga
enskilde
motorcykel
harig
antis
jattefin
karriere
impro
dekker
landade
formalet
##sproses
anmel
marginal
##lighetens
western
muslimska
sci
##brett
spenderade
karen
##ogenhet
trollhattan
frukter
wolf
saknat
gardagen
##rekord
saff
trost
##phones
skrid
travel
bubbel
juice
kink
reder
##market
##vekst
##mg
anstallnings
spesiell
fremtiden
hindre
##kara
acc
joe
tab
uppmanar
##oms
##betalningar
##iago
efternamn
##strakt
kompletta
##splasser
utvecklades
avslutat
overgangen
##ammer
kretsar
godkjenning
roj
utnyttjas
##hai
ernst
abraham
kukar
##sty
blommorna
amsterdam
hybrid
onlines
haf
hørt
ya
telefonsamtal
passera
eksam
teksten
transform
tkr
##ego
forberedelser
##sbyra
hotellets
ericsson
upprikt
##rium
felet
rimlig
producerat
##andid
##tvatt
jen
##rafiken
agneta
1905
erbjudas
##insk
bransje
sis
1929
arbetsmilj
##fect
##faktor
##iki
##prisen
kalifornien
nærmest
grannen
ovenfor
gymnasium
exot
termer
kostym
##opplysninger
butikker
organisering
prover
sensuell
exponering
##garanti
inntrykk
felaktiga
perf
uppskattas
helgens
##flix
##junktur
tjeckien
uppmuntra
aster
dør
mordet
utskick
sollentuna
##buk
##partiets
##less
myndighetene
uppnas
listar
bely
avstandet
##rekk
engelske
djav
##irektoratet
polyester
knall
##tavling
trappan
##ningstid
andres
##ryl
beslutsfatt
kontrollerar
promenera
##festen
750
##trada
nuru
##hon
levnad
##67
standig
tipsar
skylla
kirurg
folkhog
jour
resort
falsk
carolina
##edelig
##ffarer
behaller
logo
akademiska
hojden
delstats
##belopp
##sfria
philip
##adan
1935
kottfar
mentor
france
tillvaxten
##eval
angrepp
forskere
fox
melde
health
pluk
##ergi
tugg
konf
ay
forbunds
haver
knyta
opprinnelige
wales
druckit
dekke
representerade
##produs
##oba
##blin
arts
gabriel
helen
hamtas
marknadens
kopiera
organisator
konfigur
rekommenderade
californ
olyckan
##ues
autent
##uda
bytas
##bilde
##vari
knullad
zlat
turner
1907
ligge
krigs
lovande
utvidet
avsta
muss
frysen
pannan
##pers
hetaste
atervande
##sprot
kameror
copyright
yngsta
onskad
telen
framtradande
olivolja
brus
kapa
##но
obama
##vardigt
kurset
applikationer
evighet
##miljø
inblick
visades
minimal
nora
freespins
##ippi
falkenberg
arsaken
vaknat
formaner
##deringen
##plast
dov
##55
pron
##valda
##bygging
norrtalje
##forbrukning
##vade
beskytt
stord
medeltida
tecknade
cookie
systematiskt
1932
hangt
ranking
milan
##gelige
sprint
uppsats
fodelse
estland
fossil
genomtan
columbia
paf
##agningen
bista
brunt
##mys
framsidan
fikade
landar
utseendet
behorig
professionellt
tillvaro
##spartner
##fokus
konkurrenter
snakk
revisjon
claes
##urell
ovar
popp
overblick
siffra
main
menas
margareta
hemmal
detaljerna
banor
depri
kreditbetyg
##sforet
orm
elv
##esome
flode
sakerstaller
stadigt
lærere
frivilligt
staderna
##nara
israels
apparater
cyl
mature
plockat
freder
hyster
glitter
agarna
sparade
##igan
rabb
aterkomma
telemark
webbkamera
ludvig
sundby
##inalen
malgruppen
upprepade
grova
kilder
##forel
runka
fryser
regleras
1913
portion
##ques
handledning
foreskriv
##dige
slutsatsen
lg
klattra
seder
##utvecklingen
rakenskap
samarbetspartners
##zu
tjat
smalta
kliver
valpar
##emer
##forandringar
profilen
nystart
osakra
hjemmel
##utor
levende
hjort
distin
forfrag
medlemmene
##værende
marocko
raskere
vital
##utdanning
obligatorisk
framstar
##mont
atel
##stedet
malning
##ttid
##match
##fjorden
størst
##bbar
##sljus
coola
##frid
grymma
lindberg
veron
forflutna
##ektorn
friheten
ideell
##arerna
dumma
noja
##emiddel
tranas
##agaz
tillverkat
##folket
hammer
hendelser
diagnosen
landsby
precision
##chatt
rasmus
reprodu
##pisar
##ierad
##satts
staket
kone
byggda
otro
yrken
given
##num
apost
##bryn
atkomst
dow
grundade
##forbundets
utenrik
betyget
dryga
##grunden
bodø
##promenad
##husen
stamm
tilhører
beredda
fiender
dirig
følte
##tter
##smodell
etikett
livskraft
##odling
betalade
##88
stjal
mah
handledare
helset
##oppgaver
##ifa
##polis
matilda
dou
##version
##kapital
hogtalare
vastervik
jattel
vardefull
fitness
##lans
dann
fragat
surt
produksjonen
##floden
kis
havda
listor
##ekonomi
akl
##gade
ligan
republiken
pavirke
anlegget
nisch
behar
fallit
praglas
##ojda
##skontrakt
virgin
astronom
##rics
logistikk
##smus
stilren
kosttill
dofter
foregar
motorer
##tagande
##lyft
agil
sallskapet
overtid
bestallningar
bøn
hantverkare
berakning
laror
##ury
overtra
author
lykke
historiske
##skivor
ava
##opplev
inrikes
sco
naværende
##sspar
verne
insatsen
stoppet
generella
ultimata
utses
oppstart
knullkontakt
##ctic
divisionen
tore
lucia
##intyg
bluet
##represent
deltakere
1908
##brun
##olycka
kombinasjon
efterfoljande
bestams
##die
##liggende
datt
##auffor
sjoar
kombineras
##media
##eslag
##yttan
døds
dolja
tavlade
hong
comment
plattan
##alven
##fargad
skots
insulin
tranny
planerad
169
ferdigheter
slet
investerare
regionalt
##falla
uppskattad
##summer
hacka
vinnande
andersen
1934
fiska
##valg
toll
##slager
kamrat
upplands
stadgar
dikter
utkast
klem
markedsføring
##invest
friidrett
synliga
rasism
tits
utenlandske
gunilla
hemsk
skl
kronisk
installd
##appar
space
lillasyster
bebyggelse
##hord
zomb
scandinav
sweet
lovet
##smyndigheten
fatol
##ljud
talen
besokarna
kjøpes
fordons
##hz
huske
##frek
##sfakt
moro
offert
pensionarer
tilkn
jenta
skjønner
##orienter
registrerat
aringar
##somme
tillbringade
proces
dk
lonen
1925
##erav
varens
##jordes
irrit
smula
bbc
madrass
godkanna
##sbordet
##veckan
##forsaljning
krydda
hassle
skagg
sydafrika
##nek
##sbe
bostadslan
1911
backa
nakenbilder
ero
avlid
##ер
andan
bilens
lengde
frykt
##klæring
styrkor
osakerhet
pinsamt
kollektion
opposition
##vallen
seminarier
snett
akvar
napp
##iderna
##ileg
branna
løsningen
ljusstyrka
kommunic
vasby
butikerna
##amo
uppratta
##jørn
slum
egentliga
kakan
auktoriserad
1921
alexandra
jaa
##ckt
sanker
##avtalet
radande
hudik
arsaldern
skaffe
kvick
agnes
balsam
husker
two
##virkning
##alle
hier
bjuds
sjalvklara
møtes
fikt
ice
leke
utmerket
konsekvent
##glada
bestamd
enige
##skv
legendar
steve
mansklig
operationen
##itas
kravene
##vanligt
frp
115
##ovo
nede
hogtid
tove
##sprosjekt
rekryter
kompress
vaningar
planlegging
halvparten
##dals
isar
##sbank
##vensjon
kommunale
lives
skadliga
bestill
patienterna
jull
teckning
bie
gruppens
fp
##galler
sperma
forov
slu
pendel
trekker
##inf
intelligens
hverdagen
##berry
oppgjør
anmaler
glade
lekar
ekskl
artikler
excel
formularet
planeringen
mulige
bydel
ulla
leken
glidmedel
hoft
framling
tik
samarbeten
jpg
dropp
paborjas
1926
need
tidpunkten
frysa
sap
1927
##samhallet
genomforde
kad
trappa
skapt
starkaste
existens
gjut
raddningstjansten
entreprenad
bristen
ns
midlertid
følg
jackson
peru
risik
cust
avkopp
forhor
grundskola
##ektioner
hek
stallningar
detaljerad
ufor
friluftsliv
subjekt
sammantaget
betrakta
##fonster
namnen
1890
santiago
##ofta
##odden
bent
motivera
medelalder
##minist
##ifta
aningen
##øter
##etabl
skrifter
feltet
botan
saman
valbefinnande
organisera
sushi
lrf
buck
knappa
gynn
##terer
fungere
bert
##ope
##oooo
ikt
godaste
napol
sorgligt
##ssok
klitor
kompletterande
##styp
skaffat
varar
lagligt
mind
bankerna
##48
eurovision
##mojligheter
massiv
sands
tai
##iseres
skadan
sog
budgeten
sjølv
petra
veiledning
klapp
gatorna
allergi
inhem
marx
##sbild
##rec
grundskolan
forlossningen
byt
reflektera
fastnat
meningar
1923
insyn
biologisk
manuellt
skiller
nøye
forestallning
brukerne
genomgaende
korea
klagar
jackpot
kategoriserar
akuta
passasjer
destination
##utskott
kompati
langtat
nint
forratt
fantasier
jatter
##nok
fibr
kali
merit
anlande
surfplatta
##sbidrag
slicka
##førsel
spenderar
##amoter
reiseliv
uka
##splass
##200
reagera
gradda
innr
immunforsvar
ugg
hjør
stravan
##gener
nydelig
faststalla
##deklar
sykl
hamburgare
prøvde
entreprenorer
kritikk
##inske
netflix
##iges
flyr
genombrott
færre
applen
riskera
svak
tittelen
skapet
fraser
cirkus
##ptop
teatern
##ifisert
søknaden
partene
opinion
samst
dekket
forkyld
forskolor
kuddar
blommar
valma
spana
skuggan
djung
fullmaktige
jordb
svampar
##losningar
##itel
##plar
østfold
bf
dalen
##athan
lofven
strip
sved
##vt
bokslut
avanser
uppslag
forventet
huv
blocket
##tøy
bluetooth
gymnastik
reglering
privatperson
##ketter
##akon
sterkere
stoter
##ummet
##ovlig
uppfattar
bergman
riskerna
tapeter
tunt
clo
##bris
##von
1931
##funktioner
intervjun
tyget
besvara
besøkende
folkhals
rekommendation
fornyelse
fullstandiga
reporter
##fodda
escorte
francisco
bullar
sydney
persons
kapell
praxis
sykeple
tackt
quality
vansinn
##ray
##svid
fylls
kjøn
##nant
malta
##stral
##reger
##nede
ungern
villor
##antorer
nicklas
mp3
##monster
vegetari
##skifte
kristi
afrikanska
agerande
gardiner
##utbud
fordelt
neuro
dansade
##pekt
rakat
galden
jorgen
storebror
troms
##stamman
fia
skede
pelle
registreras
oppgaven
uthyrning
fetisch
bolagen
forsakrade
##vida
avslutande
sfs
##matta
##karl
svare
dax
drap
williams
otillrack
short
beting
dodsfall
hastigheten
katal
##agarens
formagor
inlar
artion
##ampo
##elag
adop
lime
tenk
##cat
aktor
oct
handlaggare
1922
##skostnad
kista
elg
utarbeidet
fylle
##fulle
##ovet
tval
evaluering
paulus
illamaende
##atene
##espill
##omsorgen
mike
##stadning
honor
lektionen
forlanga
##ørte
hjalmar
tidleg
ungarna
trivsel
paverkat
playstation
etapp
tillvara
forvandlas
applicera
radets
motala
tvers
gravida
vika
sæ
##slande
##avfall
case
scene
civila
minimera
ornskold
##ream
rgb
separata
lss
fods
1916
stug
gangavstand
tillkann
##hammer
##lappar
##sersattning
very
verkan
tass
meller
lurer
spruta
##foto
kapasitet
uppstatt
##bladig
albin
uppdrags
plattformen
krogen
woman
fleshlight
forvantan
mojliggora
koster
rumpan
##uan
forelasare
pontus
fed
vida
##samhall
forbli
opprettholde
foreslog
##pix
kastrull
evig
##sbor
##vering
wol
decennier
misshand
grilla
glo
romaner
##spresent
##hed
koncentrera
vask
fitte
medverkade
heltack
resande
elf
soppa
fotade
barbar
lagstiftningen
##retten
axeln
tillgodose
elvis
yn
forverkliga
inng
illeg
blaa
vokser
ove
than
##egu
omtyck
##see
tvattmaskin
##sledande
mcc
##vidd
##sbacka
##plant
##itenskap
konkurrensen
##operat
##oarna
journalisten
gradd
##vsjo
##onster
visse
danne
##orry
oforand
dennis
##matning
##moss
##opsis
1909
hemlig
beaktas
gamm
annans
hanvisa
##smass
1906
lagts
##eser
skank
##upplevelsen
planbok
inleder
##horningar
kjørt
intensiva
smabarn
grunner
kabul
virket
forstarka
blickar
##hamster
tilfeldig
otaliga
gjent
passerade
##ssprak
fk
forvantade
studierna
flexibla
ornskoldsvik
##usson
cp
their
##handlingar
kwh
core
control
ideen
##alderen
stapeln
##klam
riva
brattom
##arth
##jade
glitt
overlevnad
cub
records
##fore
tonars
grenar
sjalvklarhet
magiskt
##sprotokoll
##udden
latest
##eknik
family
##spunktet
dagg
livskvalitet
naval
annonsera
gubben
##ibelt
1300
##shantering
korset
##tech
sture
skugga
tarna
##shu
tilknytning
merker
naturreservat
anka
##spolitiken
tackade
bosnien
taylor
snabbaste
hjalpsam
tverr
tilgjengelige
##ан
wide
german
salta
lockande
continue
##planer
bakifran
dobbelt
##loshet
satsningen
##skrivningar
oden
##rogna
##riske
segrar
duk
##resund
sekretes
slad
job
##spor
##vuxen
spo
antallet
jet
siffran
##fartyg
skrika
vardnadshavare
ronn
mønster
##atre
##ostern
overk
beteenden
fou
mattnad
pavirker
katrine
teorin
tight
##redaktor
volont
##rala
boden
sogn
munchen
homosexuell
rimliga
takket
rar
heim
fysiske
##bjudanden
kulturm
ridning
biotekn
putt
ambassad
##instrument
peka
##hum
##oks
sned
likval
kommission
oftest
musklerna
regulering
aterhamtning
european
4000
neur
gm
##pase
djupet
rattvist
mcdon
diskusjon
peak
monument
##nr
slutsats
øvre
dessert
grunnlaget
##omt
drevet
alban
busty
angra
mete
##vaxling
##hack
##ialen
##ingsas
##plo
informerar
returner
energieffektiv
thailandska
##shast
jonathan
standiga
##opplæring
sakrade
lackra
p4
socialtjanst
hjalpen
##natet
ntb
beter
borsen
naturlige
forebild
##manad
halsing
##svarde
##stips
flaskan
bøkene
innehar
anstrangning
virksomheter
##anterna
##oriter
ringt
ryttare
domaren
konstverk
##shog
kampade
gavor
##løsning
attraktivt
tandlakare
##spaket
rullade
nytte
engasjement
share
sammenlignet
##alisere
miljard
fulgt
bris
kosttillskott
beslot
berakna
demens
superbra
##hat
oil
skilt
skulden
##ikkerhet
vene
utmed
uppehallstillstand
skjorta
uppdaterar
##sfrihet
landsbygd
energim
undersoker
maleri
1915
forsakra
varva
##grona
godnatt
##aktiva
kunnig
skaldjur
komplicerat
skriftligt
skak
##rier
##skatten
ettersp
melder
passiv
elden
parlor
moon
dansar
##feltet
sving
##dec
besvikelse
borgenarer
sjel
gladjande
forenkl
grupperna
herunder
mister
medalj
rasen
supporter
miljøet
opprette
harad
pavag
forklaras
firas
##ekj
bnp
##givningen
ledelsen
forfogande
landene
presentere
korrekta
##egenskaper
##skjer
genomskin
##tecken
##ømte
sjukskoterskor
hahah
bakade
prix
kostnadseffektiv
alb
##rutan
olik
mottagaren
##bøker
pjas
vondt
##handlingen
tjuv
##nett
inngar
expansion
foraldral
##sbud
frisor
user
stangde
##hylla
netent
kvinno
drivkraft
arsredovisning
stiftet
smil
ankl
vardagliga
##emann
bildade
avkopplande
phone
medfoljer
ingrepp
krasch
##visande
lojalitet
temp
##inor
##stars
ramar
lidingo
##setninger
dorrarna
sif
vata
kopplar
øl
##eklass
drabbades
lucas
allihopa
gruv
avstang
centerpartiet
brygga
aften
samordning
##skru
forlaget
##scy
##sesid
talan
gangvag
registrerad
hels
##cyklar
##ols
utlov
filmens
eskortt
rogaland
glaset
personnummer
##kompis
##savtalet
karaktaren
urvalet
oppnad
lofte
resmal
omd
boenden
geografi
##ku
telef
##umet
##smyndighet
##skjut
hoppats
##alistiska
vasternorr
verb
oppfyll
##regionen
begrepet
gjennomgang
spontan
mannisko
arkiver
##olet
avvatt
mardrom
##innehall
skotte
jamte
omsesid
sked
herlig
ontar
valmaende
ritu
beskedet
muntlig
twe
helheten
viken
tyger
atmosfaren
##gardar
mare
ansluter
sjeld
stovlar
skifte
leter
ansoknings
truppen
##ioder
vl
akust
modellerna
tummen
animal
ontario
soul
omv
mixa
##cil
torkar
lokalerna
nybygg
tjansterna
barber
spam
lie
photoshop
##ict
##møte
benamn
absorber
skogar
fakultet
##andets
larsen
skattes
grønne
paven
fren
bryssel
viljan
motas
ivrig
ballen
medborgarna
formedlar
##sinformation
##skyldig
collection
##illstand
inspirert
##ught
streaming
##oria
##peuter
pow
grabbarna
delstatshuvudstaden
kup
##skift
hyllan
##kortet
attity
##landska
varpa
markant
##ytta
##publ
hein
pause
##nets
skolj
orim
nettbutikk
##verker
ambulans
tyres
##wig
##smedlem
forklaringen
##skultur
misstankta
hejsan
plank
wc
skutt
anvandbara
frivillige
halsosam
lattillgang
medvetenhet
zen
lønns
##bard
manuell
iofs
negative
##foraldrar
##slista
skry
cow
tjus
tonn
oppsummer
publicerar
ender
praktiske
##ized
chip
innsj
##arenden
jackpott
bjods
##latande
jr
##osystem
rullstol
reglene
##tema
klippet
##givna
gomma
rorlighet
mario
annie
vanja
socialtjansten
##alag
herc
drast
framkom
rorels
keiser
##sstor
whisky
kritiken
forekomst
konsept
utfar
inbyggda
raw
underhalla
sparat
tvn
fots
rakor
##sporten
##utbildade
kvarteret
hind
innført
tilbudet
hjartans
oljor
innehallsforteckning
aktieagare
##processen
foreninger
ideella
finish
skyldiga
##forsakringar
genomgatt
molekyl
certifierad
paborja
alta
##varet
##borden
kosmet
kang
##itta
onskel
endel
##roppar
juryn
placerar
##mur
##stillfallen
obligatoriskt
mogel
morgan
studion
jog
varianten
ankom
berre
vev
##iii
utformade
##dejt
proposition
vassa
etnisk
##skontor
streck
##urope
laroplan
##85
aterstalla
sykehuset
hanvisning
##olje
utflykter
experimenter
nordea
molly
arrangement
##31
tillatna
##prika
workshops
stekt
foreslagna
kokt
maraton
volt
adidas
models
##informasjon
joss
heldag
sert
sikrer
##denter
##glass
inkludera
##rende
##andning
##nivan
statistikk
help
renovera
vunnet
##ampen
satser
##imp
blomst
##krafter
kundene
johann
bitco
##ettan
redovisar
motsetning
never
ow
subtrop
grande
##emm
spiser
underliggande
gung
kastet
kreves
sult
##redningen
sveits
leverandør
upprepa
hurra
krim
##kare
videref
sea
tillval
##enge
felix
programledare
##kalas
##bestall
peng
lyr
##ligh
rontgen
einar
laddat
utdannings
##aliserade
base
officer
##manlands
spontant
sivil
pov
##sbilder
bekostnad
##pek
kommunalt
linde
avund
1904
spol
wat
antenn
rs
##sert
romantiska
##sregionen
juridik
zlatan
forsøke
##rick
medarbeidere
erkanner
migrationsverket
##yds
fordeler
hovud
tata
podcast
##rosa
##shjal
anor
##sbrevet
kreve
ingredienserna
##barns
lonsamhet
stadsdelen
##ktigt
kraftfulla
omvardnad
skjort
helene
eftertrad
svalna
oppfat
nøyaktig
blandningen
pernilla
reddit
##aringen
luftt
oroliga
stikk
##sprang
##rup
##atin
##loven
skynd
rykten
tryckte
satan
gedigen
generelle
oppført
##terapeut
koping
##irer
deltakerne
turism
gynnar
hosta
oversyn
samtalen
baj
legen
tillgangen
fav
graver
##allar
ifragasatta
koselig
##ransjen
skrivas
hets
forhallandevis
112
onlinek
radion
successivt
henv
ateranvand
##kunskap
##ommet
##steder
##ai
mengder
intrade
avde
kallelse
kolum
henger
lande
mattor
kommunestyr
uppfin
vurderer
klack
##butiken
vurderes
tub
arkitekter
motivet
##flickor
karriaren
##rygg
hender
kombinerat
handtere
mellanostern
locket
zu
inskran
snu
hemlag
kenneth
pyn
innh
fredrikstad
##kers
kontrolleras
paprika
xhamster
byrak
##bloggen
kunders
periodiskt
##iknande
biltillverk
uttalanden
##være
kanadens
##smiddel
litar
markliga
##skamrater
oskarshamn
stegen
kinder
garaget
##arena
befal
##restaur
bollnas
anordnar
forna
utføres
sekel
protokollet
kio
inspirerade
anslutna
transfer
##user
##imera
flyget
##narna
##jat
##rt
##menter
##rads
skadat
##isi
mottar
væ
hjertet
evolution
reservdelar
kennel
##splanering
##emus
tokyo
involvert
realtid
##rah
trea
klitoris
ledsagare
snyggare
uppfost
magi
##nord
kvinnelige
project
kvalifik
smalter
##sdata
moren
realistisk
relax
##genom
likte
autor
mercedes
##ор
sattes
atervinning
barrskog
##sbranschen
harmoni
##nte
ungefarlig
##stag
p1
framjar
terapeut
arrangor
canna
berodde
sparen
besiktning
##skoll
##alistisk
manskligheten
sallsynt
##gare
pornografiska
duger
demokratin
faglige
##akningen
stone
obligatoriska
##ellack
nettside
deal
##samfunn
intelligent
##ransat
##ough
motsatsen
timmarna
##fronten
strommen
erbjod
1880
##avagen
gota
innehav
rattare
verksamhetens
kompetensutveckling
aterfukt
klienter
##gata
antarktis
##fro
##kest
damen
anvandbar
langsam
friedrich
bæ
tekster
hsl
onlinespel
heav
come
fylt
flickorna
##museet
##nevnt
hogskol
vannerna
bekampa
oversatta
##fyller
smartphones
selskapets
motsats
olamp
visp
kreativt
pyssla
forhandlingar
varifran
lyfte
lakemed
sasongens
stjarnan
##vidt
blasa
linser
ratts
namnd
knat
##ffet
##arkivet
valbehov
flytten
grey
district
relevante
sosialt
anpassar
arsenal
vagnar
bisex
valjare
##fyllt
nylon
##foreningar
1100
##ternat
otur
arrond
alingsas
##unde
##politiken
sher
##innes
besatt
##orren
##renn
anpassning
bandy
layout
uteserver
##farenhet
fordjupa
folkeh
##stabil
forsiktighet
##lines
ersattningen
##senheten
sanden
##sbibli
##fint
##mannens
medverkande
##sutbildning
avsak
stede
utvecklad
unike
##hou
avbok
solidaritet
profesjonelle
lister
porrstjarnor
##alin
harnos
arrondiss
produktet
uppfordes
hobb
wor
pagatt
korg
pizz
redaktor
##skriver
##rie
sjutton
lette
screen
##ebygg
##potatis
deep
vidt
støy
dokt
dreier
korrid
##finalen
##arbe
##fara
dragon
##forvaltning
##ible
##flyn
troende
dug
granserna
##setting
svarighet
##jorer
ogonbryn
##pig
##odell
network
##sfordelning
##okker
morsomt
forfattarna
##sgrad
fornybar
bengtsson
lagets
##endal
dominerande
vilje
##eleder
søster
##astad
hembygd
generals
sprids
samlad
##gymnas
snapchat
##grav
california
lura
##ryt
kvinnene
hane
varn
spetsen
casual
atlant
helgerna
ulik
##iggande
##middagen
karet
##onda
besitter
kvarstar
bekvamligheter
oralsex
prisk
##medvet
forfor
##hild
##xi
lastbilar
nort
365
minimer
pion
klippt
prestige
ella
bluff
flodar
klage
anvandandet
marmor
##fav
##boda
tranaren
tecknad
grafikk
##skigt
##utsikt
kunskaps
kapitlet
fordelas
halsning
serb
##sinst
##ск
title
metode
samspel
##foten
##øyet
prioritet
etiop
tolkas
bokens
beauty
kartlaggning
##esse
edition
premiaren
kejsar
##sbro
pund
##ileder
##kin
besøker
header
nig
defens
museer
these
##lador
huvudman
halsningar
andam
##ivaler
forbannad
porten
alternativen
sjukvards
##ovar
##vakter
sangare
avverk
uppskattning
vardcentral
mvh
otroliga
##ilding
volks
kikade
snabbast
populær
universitets
##fallande
hemmel
##sette
utvecklare
##itlar
aksjon
##ores
alan
tidnings
dill
gangs
##spriset
vestfold
vittnes
##sprakiga
trot
living
heg
køben
snurrar
##ogna
##gjøring
galaxy
meir
forskjellen
##relaterade
prostituerade
##kningar
##ranta
##bun
##jes
ojam
stab
sexualitet
##srad
fd
lyckan
fronten
tone
##oz
foref
say
kjemisk
##imate
fleksi
systemer
fyrt
hydraul
pill
entusiast
elevens
##setter
##alens
##kligen
lyxigt
vern
oppning
lasas
øyne
skiter
klippte
asylsokande
regionale
frokost
elektronikk
devel
naglarna
fult
varuk
##skoga
laros
##urch
helge
##følgende
##forbin
kronan
##godis
sendte
altfor
kungsbacka
ledaren
mottagning
rosterna
looking
medelaldern
fight
##kalender
sykdommer
smerte
tvill
lip
blink
lave
nattflyn
tycke
tipset
ال
rattigheterna
fabriken
synnerligen
vennlig
forsvarar
bah
##ston
bars
##eum
varmvatten
##86
bedt
kompetent
##anlaggningar
ovantade
##asse
kristendom
##andringar
valjs
enklast
verkstallande
##hengige
vagled
erstat
atgarda
mojligtvis
kommersiell
##rakte
##psjon
lagra
generera
ivan
ovanliga
slippe
vaglangd
matchmak
kliniska
##forsok
lanets
utredningar
rikta
##irus
redde
##shov
smet
morten
##leie
lansert
gangbang
kriminella
grammat
halen
##aktivitet
##stallas
anita
##riller
otrohet
ocean
oppover
drinkar
dilem
##ommes
##ningsforetag
shl
arrangera
saudi
spinn
ojamn
boliger
sexkontakt
alvorlige
##utover
lutar
veckas
a4
poesi
anmalda
hyl
vandrarhem
velvære
kvantitet
daglige
produktene
tandvard
sammansattning
arbetsdagar
##uz
stilte
##oskop
filma
##slatt
baker
##blank
lovisa
brasilia
traktor
ifragasatt
militære
lanserar
##stationer
kartong
##sdirekt
lydnad
vinyl
cens
ct
##aldo
fastighetsag
kjønns
##nav
anlander
utgaende
dylikt
generos
##deg
gjester
##vardiga
parallell
##spsyk
##ysst
naturens
papekar
ted
anfor
sekretess
permal
matten
vetenskapligt
treffe
avskaff
##ives
leksand
##stammar
ultraljud
direktivet
erstatt
uppdaterat
sannolikheten
marknadsfora
valent
begransas
heja
karaktarerna
spesifik
samfund
predik
scout
korten
chass
##merna
helga
rart
account
##ovina
spillerne
afrikansk
handball
fenomenet
##ligheterna
hocke
invigdes
jordan
##kins
valkomnande
##eme
kopas
hudiksvall
forklare
arb
forklarer
##skip
##hamta
utenom
grensen
bjudit
##manns
sandviken
kli
fargton
135
strategiskt
##fektion
##egler
apparat
##bjudande
##ude
##olv
pasienten
privileg
##ktligen
jagare
##slokaler
spindelart
##hant
fordro
performan
jød
maklar
bedomningar
kopplad
emotion
uppkopplad
handlare
olycksfall
begransning
lym
portugis
opprør
##kladda
skillnaderna
##sledning
tempot
pojkarna
moped
møteplassen
handlaggning
skaka
##ities
slal
##icer
svarer
ntnu
e4
##terte
guider
sensor
slutliga
konkrete
skapad
enkoping
rytm
##anvisning
aptit
lew
brok
##skepp
munn
hotar
delades
smoret
anm
otack
url
basil
whe
salda
##ilog
##varv
genre
##urens
mottagande
befolkningsutveckling
karam
geografiska
pappret
aar
##stamning
informasjonskapsler
pocket
##lett
smile
portfolj
##emo
okningen
behandle
amar
arsak
pride
seniorer
rattighet
osm
##lid
kloka
##yon
##utskottet
konung
pornhub
bebisen
indikerar
tilldelas
aklag
miljopa
skeptisk
##verdi
##produktionen
innflyt
genomforandet
ansluten
befinna
bær
nycklar
mørke
utgave
anse
##garn
onskas
harris
musikken
##spartiet
kalendern
doms
tavlan
menneskene
tillstandet
astma
salts
##uppe
##atoren
bakre
delhi
tvingade
forhindrar
jattest
##rys
##umt
badade
oser
uttryckt
friskvard
dildos
atanke
##oteller
pakistan
provas
tvingar
##jarnen
papeka
dansen
konstnarliga
bryll
published
likheter
segt
tredjepart
dramatisk
##bestamm
apos
##odande
prenumeration
uteluk
agt
kristoffer
##sbyn
nynas
upptacktes
##chs
magic
sjalvstandighet
scenario
biom
cyklister
aterga
##peppar
kated
##utik
##flo
tolkar
stoppe
laptop
##skilj
bachel
##foretagare
niger
##prise
okom
projektets
kulor
jordbruket
##hangare
nintendo
rada
##upplevelser
##cert
vasen
##lagte
seil
overfora
skille
stallningst
slogs
alskare
##ield
##arkitekt
##stjarnan
sjonk
certifierade
jattefint
sate
spanningen
hosp
##usch
##splatt
temaet
##has
##цr
oversta
##iano
inje
laxor
##miar
uter
birger
designet
meddelas
uppkommer
sluttet
avlagsna
kritiskt
##sløs
attrah
lm
forete
medeltiden
nackdel
snyggaste
tvattar
innsikt
##visen
offisielle
##idrott
grundar
fritidshem
generosa
molde
julgran
yrket
##lader
beskytte
##ace
skynda
perfect
spelets
sorry
varvet
timmer
##starka
kungalv
vaxla
anteckningar
pyr
elementer
improvis
uber
horisont
utformas
planeten
##istans
utbrott
skjerm
medarbetarna
##sat
enz
##ternativer
tingene
inspelning
##uropa
pastaenden
utkik
##lement
nevne
flertall
##orps
tradet
##forsakringen
nyin
lum
halvaret
chalmers
usas
##iful
aten
##forsamling
association
bestammelsen
##vur
basic
globen
kikar
himmelen
omed
befatt
likadan
skipp
oljem
niss
##burit
avtaler
bagage
fargade
psal
pluggar
krevende
samtida
##ет
##ол
invanarna
1902
##skapets
miljontals
##sinn
##joy
##liknande
##lim
delikat
oppgitt
volksw
nyaste
avbild
umgange
##okrater
address
##hjartbladig
forfolj
##element
byar
programmen
konfirm
trio
##inerte
forholdene
viset
glogg
##sekonomi
samverk
zeeland
##stemperatur
##cup
step
grundig
beng
avdelningar
##also
baksida
undersøke
traum
placeringar
sidene
##47
kompletteras
pa¥
populært
strava
forberedd
##shistoria
##skridande
##ikevel
nettles
vips
elbil
handduk
dold
##corn
nevnte
lugnet
tveksam
##egangen
##esn
utsags
lyrics
medal
##verkstad
1901
upplevs
kostnadsfri
tacos
presentert
gutta
##sforslag
kortfatt
ube
teoretiska
investerar
sluttar
boxen
##listor
##arets
ifraga
undervisa
##slagna
##petanse
wii
angar
##inerer
hemmagjord
##pop
kvaliten
gards
studerat
##radio
chang
arrondissementet
lida
grunderna
##rening
sald
cin
##kvarter
herceg
onekligen
frivilliga
##emellan
aterkall
##yx
active
kari
erkannande
behaglig
dømt
christop
oppbevar
fackliga
##tagit
underst
svans
##revlig
double
biter
hugg
tilst
ramm
bidraget
ingenstans
svikt
buen
kampat
losas
kurt
##index
fakturor
its
fange
manatliga
besøkte
innskudd
singap
religios
##forpack
145
sjalvkansla
opplysningene
medfoljande
##ams
deltakelse
innkjøp
inflammation
ackligt
sle
forald
varierer
##ит
utsokt
droj
atskilliga
##ningsbar
marten
##kurran
1899
gubbe
integrerad
avhandling
knyt
##sutvikling
##sbak
pyram
vanligast
fluff
pupper
stigande
##berts
forfatteren
sponsor
##bør
util
slutgilt
machine
##iansk
uppstroms
miljopaverkan
##løse
sallsynta
tors
msk
binder
spelverksamhet
primara
##asi
##dejta
geomet
101
155
patraff
##usentals
gluk
texterna
stangs
photo
lanat
sick
##rand
irri
vvs
samliv
##somradena
fantasin
styrkan
meldinger
##intervju
frolunda
valling
vasterbottens
stangd
##gos
##arts
bestemmer
agnat
onanerar
osann
hustr
pasar
magaz
nanstans
diskuterade
samtale
beskrivningen
lego
noko
fakturan
vardegrund
fartyget
##bility
avsett
1870
farga
certifikat
angelholm
svampart
tabeller
##attra
##sforvaltningen
veronica
##emester
##fflor
leveres
##backa
forsakringsbolag
fortalt
##gnet
slickar
hok
stories
eus
snackade
slutspel
avdel
##dommer
cass
berakningar
plata
##lich
##miljon
finansierings
klyft
neutral
bjer
tillverkaren
misjon
portal
thro
garningsm
melan
datat
mattet
##sopp
oppnades
totale
singapore
##tok
inledningsvis
innv
seksjon
##cupen
nøkkel
clas
##lampor
##present
##songer
##grat
nin
pedagoger
utforske
plassering
klur
institu
foljaktligen
##slas
anbefales
litteraturen
fortviv
betydde
omojlig
stimulerande
beregnet
narmade
##forfattare
ilska
domdes
spurt
dannet
mk
traditionen
torkt
revolutionen
bindande
karlskoga
leverandører
##vita
##skunskap
##somhelst
grekisk
medisinsk
bita
arbeidsmarked
sic
overlevde
##sident
vov
bankid
tørr
pott
etablerte
subtropiskt
spurte
##svart
clean
##fys
medaljer
##nack
forskjeller
skjermen
ekspl
hjemmet
cav
sinnes
##ather
1903
jackan
designad
##skrivare
##positionen
konsulter
operator
##usias
##kjente
forpliktelser
##foss
anony
##bles
tyreso
##asso
registrere
specialister
##ssokande
calle
cham
sokmotor
##asing
##utvalg
eleganta
##ffaren
byens
prestera
##63
packat
anordnas
225
##spunkter
farj
mottak
datan
kungar
grunnlagt
inval
antioxid
begrunn
deltav
anmarknings
fortroendet
slos
utfordring
ordfører
bush
ci
undersokt
raknade
nagellack
##lassen
##studie
##behovet
hunder
upplagan
visu
reception
jatten
##amt
##bygget
forklaringar
stativ
snurra
paborjade
shar
emer
roret
##blommor
essa
forund
grind
bakgrunnen
reaksjon
efterlev
##specif
nyttiga
mors
##asjen
##iggen
styring
societ
raser
ensamkommande
older
sies
##kobling
##elekt
fotografen
varnamo
generationen
mellanmal
skadet
##meddelanden
tjur
##linge
tyn
vingar
##ningsbara
olivia
søte
kommentarerna
oforuts
##pill
##leden
lir
pell
depp
##helgen
keramik
cream
fjernet
avvikelser
##svalg
##ysk
##heterna
proteiner
femtio
varelser
##udde
167
boston
##49
##eeee
##skostnaden
rin
##somrader
##skriter
##detaljer
orsakade
hava
begra
kommende
ngn
orat
parla
##alus
arens
##shopp
##omat
##redskap
vattens
jocke
##funktionen
valley
##to
detaljerade
salongen
omkom
dromt
klassrummet
kronofogden
provincia
utrustningen
##strum
##bind
trakk
##ints
svarmor
ifra
demokratisk
tararna
kajsa
tape
pafrest
##egger
boliv
##atal
schack
vaxlar
eliza
##nivaer
##rekker
hc
saaaa
##mjolk
harmed
##itiva
xxl
##aksjoner
overkl
##tta
pahitt
switch
prøvd
##enget
patrick
trailer
utbyggnad
america
##sekonom
alster
oresund
etiska
bygninger
inneburit
marklig
oas
fanny
langivaren
andrats
fjad
familier
dev
toaletter
thank
##89
datumet
##orrar
noreg
blota
forband
##spromen
lilje
depon
produsere
skanes
gjeld
mulighetene
##skalla
##vey
forpackningen
##agatan
libanon
sunda
ryan
lagene
relativ
##brygg
##knapp
examin
rapporterade
paborjat
skrivare
kvalificerade
##noveller
cri
cykling
forha
mathias
excell
telenor
##hangen
teoretisk
bladet
servit
ekstremt
##sbonus
streama
rabattkoder
garantier
##utvecklare
sammenhen
delad
##plattan
ain
postadressen
corpor
blankett
tapte
socialnamnden
##overforing
##ilitet
sexshop
medelhavet
##vak
forlossning
##slip
tyckas
radera
fargglada
dammsug
##dedel
brodet
##ttelefon
kristdemokrat
reglerar
forpackningar
iver
nedover
forsøkte
##porten
muff
ronne
riksdagsled
##hanter
massvis
##jern
sour
kysten
##ianska
entusias
##minskning
hoppades
garnet
rattsliga
okomplic
##skoterska
##kjø
crazy
##porno
vagde
zar
##ojor
skruva
fuktig
boter
pasken
drojer
definieras
##svir
praster
benj
foreta
godkj
orsakerna
vits
iverk
hoteller
agnade
punk
alarm
also
gardar
##intill
mentala
framre
bøl
tales
walk
kustklimat
obehagligt
risikoen
konferenser
reproducerande
bokmark
psykos
sønnen
darlige
matchmaking
ingvar
medelalders
overgar
##eo
sjalvt
plante
##ynn
##bay
ensamhet
forfarande
avbryta
nel
##laden
fysio
avgors
televis
byggar
vardar
dottrar
finansk
twin
##gaard
stilt
infall
darutover
logiskt
maling
skams
antagning
kriminalitet
##rey
livmoder
arrester
matningar
forstarkning
vegg
doftar
organisert
erika
datamaskin
##etti
driven
julbord
skv
pagick
dje
accel
stromm
panna
uppenbara
incl
picture
funktionshindrade
rymden
sporter
horison
exklusivt
etablerat
lyxig
skadespeler
gronom
uen
##agerar
motsatta
tillika
##budsj
##ied
stul
ointress
##61
oandligt
jernban
##arie
##shuvud
tjenestene
morot
opplevde
##athon
antogs
omg
menneskerett
bunt
spion
gina
placerat
omtalt
exemplet
bring
nært
meditation
droppar
##skinn
stens
b2
##intens
toa
##su
grillen
##hua
ljungby
##emin
akryl
##ismens
huvudkontor
select
kolester
riktad
click
patientens
mant
gjennomsnittlig
##gron
planboken
fornya
initiativet
spack
utrymmet
bearbetning
sydkorea
##max
halet
vasentlig
konsistens
institusjoner
##gryn
øyeblikk
farbror
lært
blandad
roland
søt
centre
sagan
vannen
stabila
been
picknick
arsju
##srett
kanterna
anonymt
##motorer
forstaelsen
##ocken
piss
hua
sti
##forslaget
##unta
prefekt
fastna
henri
soderhamn
utmanar
flir
##eling
##kup
210
##وه
kontraktet
##bletter
regner
osten
cour
statistiska
assoc
hercegovina
biogas
hemmalaget
tvars
klokka
foretagens
##oversikt
justeras
palitlig
##algi
kopior
matematikk
hb
##geren
bowling
##sco
trium
reflektion
vastmanland
soja
terminen
handbok
##baggar
vasentliga
skred
##prof
malare
utdannet
##gad
riktige
##skarmen
migration
##ommer
styv
klamma
trade
##roman
##inspir
inleda
sri
lera
##sto
morgondagens
##smetod
reality
tacket
##dres
jersey
konsumenten
kjerne
stafett
hawa
parkeringen
benjamin
hjalm
interessante
cad
upptrader
bane
attri
##urella
##elva
innstilling
gangna
sept
brack
upprord
##irs
##oh
fullgora
##turer
lundberg
heltackande
gjø
##skjema
##sveckan
biv
fiction
lavt
varmepum
godare
jamforas
##givere
atgarden
##artikel
##satsen
infektioner
fingret
idrotten
##stend
nykter
piggare
mirakel
tiar
##hammed
forvanande
olagligt
torsk
vyk
engine
##bø
where
insatt
##dringar
foga
fritiden
osannol
dragkedja
blood
arrangerade
inspekt
sykdommen
nyhets
undertecknad
fylkesmannen
afri
mengde
##kring
lojligt
keb
mjukare
perfekte
##cirkel
autonom
tillfredsstallande
ther
ambitioner
konsent
partnerskap
fødsel
tjene
granssnitt
glider
##urb
dedik
vackt
frest
profesjonell
awards
varvid
overta
fittan
masterskap
##zing
stella
overdrivet
klarna
awesome
rickard
vagina
##ifierad
slita
vagat
##verdig
okant
pedersen
eben
attraktion
amatorporr
allen
##slage
rain
timmes
tunnelbanan
utem
##versi
derby
ursakta
desse
beskrivningar
hogkvalitativa
dokumentera
likadana
lv
##slopp
dys
farmas
optimera
##skij
lindra
skandinavien
##sol
herpes
potensial
pensionar
force
petrol
konkurrans
stottar
winter
misten
skipet
umeas
abc
rekre
##fina
sluten
##round
##baserat
mikrofon
kommentaren
session
shang
altanen
kryper
kommunikationen
forovrigt
sysslar
efterstra
varorna
ate
##familjen
huvudmannen
flygbolag
abstrakt
##imals
oskyld
ortod
##etty
lappland
kth
nikola
odmjuk
hjulen
##barber
officiell
apart
vt
linux
##uset
##snittet
kel
skiftet
skickades
vokste
horor
kee
føles
ansvara
figuren
sedermera
skyddade
slant
vanor
debuterade
valfarden
soligt
money
semest
##ignal
release
overraskad
##ennis
##cium
arthur
avkoppling
kurserna
dynamisk
dubai
quot
sandes
merparten
buffe
##dras
forekomsten
bakar
andrea
vurderinger
skapats
godmorgon
virkning
fastighetsmak
faglarna
kongressen
##øve
1860
kvalificerad
milano
vu
##artade
svind
statligt
genomford
rubb
spegeln
##skamrat
forsøkt
liberal
lopar
inredningen
skadas
produktivitet
forbundets
##bollar
byggher
##utrymme
pannkakor
funktionalitet
vindar
##orre
meddelandet
##asinon
##show
##tainment
borsta
laggning
##oi
note
rollspel
leden
##faller
surfplattor
hamar
spisen
##sbord
brottet
##ны
markning
##falle
fjern
stalldes
booty
##vanner
lamin
beløp
polism
drivit
brukeren
##aman
kondens
lukas
fangst
haj
handelserna
syra
level
entren
biologi
pie
hassleholm
spesif
##kameror
nostalg
frek
insikter
accessoarer
tartan
regissor
hotade
bransjen
utford
##kyrkan
fordomar
avstangd
sortens
originalet
sørger
##lingarna
samtlige
tuffare
grafiska
levering
sorm
ceremon
korsbar
allikevel
savida
gaende
sarbar
scanpix
slim
forstand
clara
medfører
ansikten
avel
##ferdig
##blo
##vetter
prosesser
kopplingar
stimulerar
fotbollsspelare
teknikk
fellesskap
sistnevnte
fiende
upplysningar
gjest
lidkoping
##sbehandling
##usse
skogbruk
secret
bibehalla
ekspert
prelimin
apenbart
doug
##sprocesser
##vise
rammer
##emente
##syra
homofile
##ornas
kava
trygge
##undersokningar
isbn
busker
eksamen
slitna
rengora
hedmark
allergisk
##spelning
##provet
oversett
rinna
mazily
framstaende
anar
p3
kontak
hanteringen
utvil
løfte
riksforbund
opinions
hotad
introdus
genuint
##rasjoner
uppgrader
##xen
##belysning
ovningen
databasen
talk
rymliga
eko
erhaller
hallt
##etning
tecknat
antonio
orkat
kenya
bestatt
visdom
##sinter
stralar
tavlingarna
aktiveras
lopare
##agangs
svard
modet
player
vetat
court
duss
følelse
skaffar
##sforhallanden
##dans
flow
signifikant
skriftliga
konfron
rokning
##stads
penetr
##aliseras
moz
syften
utbygging
##yng
forhoppning
pand
formulera
gap
idealisk
graden
##erapi
loken
byggts
raddning
naringsamnen
tsj
prisvard
stannat
##egarden
vp
tøff
energy
koder
##standen
formatet
brutit
københavn
forsker
medgivande
##bid
stjarnorna
transaktioner
psy
kraftverk
beakta
container
inloggning
##jort
produktiv
##vecka
forvirrad
##gat
##mastaren
industriell
finansieras
beskrivas
kommunestyret
##ype
tallene
punta
lages
skyddad
##papp
##spraket
border
samler
##gru
orkideer
mw
beautiful
regne
ston
utøver
##byggnader
definiera
##fragorna
utslappen
innkall
ergonom
operativsystem
##atisering
tidskrift
tillsvid
stillingen
##haft
##hes
ambitionen
##bber
##recept
tusenvis
radios
bakverk
porrbilder
barnehag
##spension
livradd
paron
bestemme
heb
##haus
flink
intelligen
sikret
residens
publicering
stoppade
gadd
##iert
##utredning
overnattning
watt
sparande
ritningar
paramet
mellersta
##atorerna
spender
overgrep
fragestallningar
oppenhet
##ending
bitcoin
##skrivet
presset
paradise
strukturen
morotter
fordes
genererar
tidningarna
stroke
##sbek
agentur
##propp
hemtjanst
europ
##inneha
riksdagens
volkswagen
malsattningen
parlamentar
lol
##spack
foljas
motivering
innled
##even
veterinaren
##sfond
java
performance
foretak
enkelhet
tomte
parl
folkm
navigation
smorgas
strong
##okal
noterade
torkade
programvare
furu
inteckning
departem
##spersoner
blonde
legitimation
sinnen
comeback
arstid
medis
komplikationer
##hatt
which
bladen
ket
pedagogik
edvard
intensitet
karlshamn
##webb
existerande
minsk
gjekk
##sacken
systrar
musikaliska
##motet
##forestall
somnat
christopher
lugnande
##jant
utdel
fynda
##holdet
fritidshus
##kurser
forbindelser
supert
chick
##sstat
bemanning
gavleborg
kallan
beprov
tidskriften
lix
##resurser
panor
##sbyran
skrivbordet
##idelse
svets
##banden
foljare
##efall
##sfon
jarnvagen
siktar
vardefullt
krister
utrustat
homofil
##guide
##how
husbil
bonor
skyddet
##rommet
iss
##das
skamm
##ymnas
tvaan
boys
penna
##sindustrin
redaktionen
requ
pust
sophie
##roret
loggar
brilj
##ssidan
ersattas
##upen
karnan
nk
fyllas
##institutet
hello
laddade
yrkesutbildningar
##ants
lyxiga
##skonst
magnes
vanersborg
exception
haftig
kreditupplys
engasjert
filme
##omradene
adobe
volley
onodan
synsatt
forutsag
##oil
lockade
##elos
kvinnans
##bostadshus
presse
atmosf
##kad
lappen
krypt
ester
forenade
byrakrat
utbr
hare
hovratt
gemenskapen
semifinal
##vinning
gymnasieskola
nordiske
katterna
##ssituation
connect
meteor
##62
ofver
fickor
##alo
arlige
queens
factor
bestemmelser
joda
henholdsvis
knas
somliga
tidsbeg
debiteras
##iao
##sfulla
forankring
forvalta
ovanlig
##paj
beige
##stillverk
kinky
fargmodellen
villan
##politiska
1897
loma
##aku
revolusjon
##varn
fargutrymmet
##graden
2030
nagons
berors
hexdec
noens
ivareta
##cit
##ikre
##fargkoden
##imalsfargkoden
hexdecimalsfargkoden
##ei
adekv
cannabis
##blikk
holdes
utforming
reinfeldt
magasinet
koud
verre
##smøte
kjennet
##faktorer
bosse
agility
##nest
##kryss
tapt
sommarjobb
svein
inifran
128
popcorn
##skapene
vog
leveransen
##valget
bridge
brynas
skulptur
vedr
tradlosa
nødvendigvis
fotbollen
solens
inngatt
##skod
1898
leave
dotterbolag
olofsson
credit
##berattig
##skoler
besluten
onskningar
sakalt
##vask
wir
guard
pastas
verktyget
kulturhistor
sloven
jast
armat
bevegelse
ødelagt
bebo
##rivill
motionen
eye
prosed
tradar
##aro
fv
brollopet
payday
avratt
##behandlingen
born
forstarkt
orsakas
medverkan
ropade
##ometern
medelstora
omne
##sammanhang
technology
smyck
rødt
##yan
innføring
rorliga
lagat
hyresgaster
kollektionen
##becca
forad
##omyia
sjukgymnast
grillade
crist
fonstren
tornet
pj
forsakrings
omstandigheterna
desc
uteplats
avgar
horlurar
nackdelen
##entusi
dromde
forventninger
##ention
skargarden
sondagar
##aktivt
representera
webshop
arabisk
dala
foredra
##arar
##ydliga
forberedelse
institute
oandliga
hellas
philips
vellykket
##sparet
##opl
##trycket
levnads
##sbestamm
bann
efterlangtade
solarium
hing
ære
##andelse
bærer
ceder
blodsocker
tillsvidare
sjunka
stillinger
bevakning
vigsel
##personell
kanslorna
haga
##iaceae
levererat
døgn
uppt
geografisk
luftkonditionering
formellt
hallning
antisem
tretton
søkte
dimensioner
ønsk
##bach
eco
##stt
sasen
##viks
##farlig
fjarrvarme
fosfor
karib
pluggat
##agangssatt
flirt
##drivna
##gorit
1895
##resen
mjukvara
##edlem
kunniga
prinsessan
##flaska
stamman
##iset
hypote
advan
##arka
ordnade
sjekket
chokladen
rebecca
##vaning
fraget
monopol
fordringar
lift
undervisnings
handjob
klassrum
bonusen
##ulus
##nik
snacks
##skonferens
specific
##debatt
##sku
##lika
##41
tillvagagangssatt
plantera
tackning
plikter
##drakt
natta
tillhandahalls
bug
stay
miam
##gning
luta
talmod
asper
obef
formogenhet
aksjer
##sappar
think
pumpa
arstider
strapon
diskmaskin
cockta
brf
kants
##behandlingar
komplicerade
##klubbar
erst
oks
summor
sandnes
falk
dubbels
zink
##eligt
iall
juan
creative
##onna
sugna
levererade
dejtat
lindstrom
strim
markta
##snivan
lararexamen
eker
harvard
dander
multipl
##ødte
evt
##schefen
incest
solberg
##stund
lamnats
plas
medierna
utgangspunkten
##yndig
malene
##regat
##inerende
trottnat
tillrackliga
skudd
puck
##spress
##scykel
anbefale
innga
##kust
events
vere
utvek
varmek
langhorningar
solglasogon
pim
price
certifiering
branner
utkom
rundan
seriet
truck
bevaka
##tjanster
##bibliotek
vardcentralen
sympat
##skansla
##benen
clint
forlorad
hanfor
seminariet
diamant
propaganda
hoff
tandlakaren
church
regissoren
utskott
overvagande
##dekor
forakt
muligens
motivasjon
deles
##ransport
inflamm
dramatiska
##splassen
emilia
##antik
kupp
zoom
##jul
gambling
klipper
coun
uppmarksammade
##ilus
bloggat
beraknad
ludvika
rekrytera
pale
belagna
yl
handdukar
lucka
manadens
tapetser
forfragningar
osl
knuten
wis
fs
pafyll
##øyene
##holts
hojdpunkt
kombinationer
idyll
magnesium
intraffat
##ockor
##pendent
symfon
##real
marc
enighet
utfører
slov
granen
tillaten
elak
##ел
luc
framfora
sjalvstandig
autism
foras
##ullen
buskar
expertis
impul
deckare
##vret
##gjøres
kids
tidsperiod
propp
torbjorn
##savdelningen
expedition
huvudrollen
domanen
disp
gmail
boost
tvunget
forskollar
strekker
##sokta
portfol
slack
alternative
##bers
stephen
##ifierade
nærmer
##strategi
##sskyl
##batar
alsklingen
biff
sistone
cams
drak
haninge
kompletterar
bandets
##iode
masten
bruce
##bys
karol
ideologi
apro
brother
##escort
kuken
tjockt
tionde
##verna
regna
sytt
sammanfatta
##navn
tenta
anth
akter
askadare
sans
upphav
symbolen
bekraftat
##agnet
tags
andetag
universal
marine
hjemmeside
##imo
savannskog
liam
##ikyr
tavlande
morgondagen
algeriet
forberett
sove
strangnas
##safton
provoc
stralning
saknades
##nojd
smut
stationer
seksuelle
checka
##ssven
teste
medverkat
dataskyddsfor
mørk
eter
##karen
##eksjoner
bakt
eder
##lof
gladare
##betalt
tillverkades
gruppa
tilltalande
kvist
hovratten
støttet
siktet
2500
##sforeningar
doser
rostat
##kjøring
1896
omnejd
styrde
spannmal
nyttja
hay
##zel
##ief
toget
liseberg
slutte
##relater
##ansvaret
tillagga
uppvuxen
param
kvalet
grannarna
ettan
boobs
proportion
##jonens
##elagen
etta
##ат
abu
aktiek
##cta
invas
##skript
daily
begatt
svalja
respektera
##massiga
arist
betalningen
tvilling
omklad
refinansiering
dekoration
finansiellt
vanskelige
##kontakter
angrepet
kvaliteter
##skiner
bredde
##42
fasaden
toda
##fasen
forlov
valgor
mejer
traningsvark
famili
##arning
##inredning
trengte
somnen
tavlings
brø
##linger
delagare
natural
tillfrag
behandles
##iotalet
bjar
personopplysninger
varldsklass
##sbrist
fortydlig
##sevne
##viser
valborg
sigt
altan
viktigere
lanseras
kopi
varann
forslagen
rammet
figh
behandlade
steam
##damp
palme
tilldelades
retter
##grupperna
##ibl
pryl
stenen
jum
entertainment
scra
arsaker
bokt
vegan
bergstopp
battle
##egr
##akan
mycke
bidrags
##linjerna
mapp
hager
trust
hakt
##beteck
oversvam
jungfru
barnvakt
tjockare
folkhogskola
massing
partiledare
flee
kling
##guiden
transparent
fastsatt
droja
iris
forsedd
gord
##slund
##wald
##odag
akademisk
virkeligheten
skapel
##samfund
framtagen
##skader
hojt
fyrkant
##vana
fysi
hl
bokstavligen
spørsmalene
genren
genomga
##paverkan
##illo
vitr
spott
##kabel
forhoppningar
opplyser
midjan
##musk
##ikansk
forandrade
revisions
sandberg
diamond
##oller
ekip
##shire
forbudet
##varmen
nærings
##ello
##moen
britisk
##eloven
oll
##skravande
##saft
broad
installningen
##otin
hojder
smutsiga
##vennlig
storande
attonde
intrycket
##feld
bygges
korresp
kolleger
canon
jatteroligt
eskorttjejer
aklagaren
henvendel
loste
challen
##ал
##urus
geir
##vaskor
webbsidan
kottbullar
alesund
##onstru
øverste
versjonen
##kede
salonger
tradlos
dell
##store
berglund
kylskapet
##trakt
overraskende
##faste
##yse
rabat
##svalet
trukket
paverkade
##kallande
##emt
annonsering
fotografi
##stenen
##utga
##ssex
prevent
overtok
kontinu
mekanisk
##sjukdom
turkiska
uppkall
sladd
##projektet
beger
outf
##foljd
oljemassage
##otyper
pest
sjøen
mykje
uppfattningen
nl
verste
logotyp
##hern
salunda
##uni
beholde
handlinger
dyp
prostitution
installationen
biod
##bostader
akesson
##skrit
##orca
universitetssjuk
##agasinet
facket
##43
##samlingar
##fargen
ingefara
onlinekasinon
##mitt
fulle
folkbok
domar
##sservice
stugor
avok
sits
##look
##skravet
skildrar
##tte
##medalen
##kannas
##sokning
materialer
##stammer
##entes
haftiga
halvvags
parkerings
taktik
develop
kompan
##rell
anmalningar
grasmattan
##retning
trosa
earth
farmasøyt
doktorn
stundtals
erholl
##registret
##standard
##rullen
false
##versionen
michel
##inflammation
##estaende
politikere
##tred
volymer
anmarkning
sater
fordubb
bekreftet
hits
##anpass
utgiven
##smott
utvalgte
##од
terreng
##somhet
ropar
vegne
##skonfer
muren
premiarminister
sjog
##strafik
##rekke
##shel
utforma
gommer
##iotal
dominerar
##fristiga
katalogen
##banker
tøns
##løpet
kortere
næringsmiddel
##byr
webbas
##vingar
plate
lantagare
##gras
1850
##yting
sjanse
##apest
##riktad
sab
nuet
juvel
##armen
klager
dirt
godkann
melodi
lillehammer
feat
nassjo
hapet
raddnings
mastercard
inhemska
##sort
650
nø
midlertidig
stressen
##umman
kunnskaps
utforda
volymen
forhalla
tablett
##klær
kudde
kino
##fing
550
frilans
mobiler
##legges
pakke
franco
sorgen
##dorrar
##voll
hevdet
ltd
##kostnaden
##sfot
##ikere
myter
exporter
avtryck
abd
ettermiddag
magdalen
overtal
##gardens
##biljett
reist
##acker
kongo
harnosand
utsm
utendørs
##erapeut
academy
oppfordrer
perspektivet
nyckeltal
пр
svaraste
sau
bergstrom
johansen
forhap
hau
4k
dee
forvantningarna
tjo
utbredt
graven
avsatt
forsin
artisten
catering
interior
christoffer
buddh
uppland
drømmer
effektive
##key
##edt
tidlegare
##folja
malays
handfull
contact
hms
langta
##pasar
##harig
##safe
##bladets
discover
frat
tenar
orsakat
leop
##ligan
utøvere
gangerna
beina
herrens
utmarkelsen
##formade
høring
##smodellen
visum
rikligt
budapest
##osjon
inntekter
better
tilgjengel
bogota
bygningen
##cier
##83
159
dry
##poj
vykort
hbtq
kronprins
kannetecknas
forestill
samarbeide
vasal
tillsatta
tjocklek
organiserade
rykt
malningar
##styrelse
##perna
##anderatt
projekten
slekten
aha
chatten
flyttades
illustrationer
##bedomning
hvitt
helsingborgs
a¤r
##aliserad
ensem
belysa
##elli
##vaggar
##kart
motstandet
inspirerar
##uret
spenning
axlarna
døpt
##ømmet
cuck
gedig
kaste
magnusson
##jag
selvstendig
havdade
intervaller
##spillet
fordelat
##vorna
##myndigheten
##seng
##holdes
kommunikations
været
kjøkkenet
styrt
##beloppet
death
grunnet
gotalands
vred
artionden
betaler
foc
lanseringen
##lappen
##uggor
##ision
hensikten
##fyr
##dorren
##info
postadresse
personbil
##spindlar
##forstaelse
anga
aska
ound
nykom
jawa
##db
##snor
forstarker
bou
fansen
##jtnant
sugar
foretrades
extreme
fersk
sammens
hær
aktien
betegn
nynashamn
##veri
##indik
individens
##smodeller
##fog
pictures
jakligt
##sno
6000
nordamerika
miami
geb
skikt
pasen
uppbyggnad
alternativer
##pern
beslutande
bærum
hogskolor
##erto
sula
paraply
onodig
##brikk
statlige
tilpasse
##skraven
##vaskan
##slitt
elizabeth
knullade
søvn
##avdelning
cumshot
##agner
mittfalt
forsvag
mangsid
tast
osa
##svarden
marketing
uppl
##formagan
strategin
referat
mugg
##sbron
##giro
##imension
vagor
billy
pornstar
##styre
##evi
cloud
toyota
gigantiska
alltihop
##rub
##foretak
utsp
gong
likestilling
##esystem
##hengighet
flora
##dav
##intakter
variabel
tidigast
genomtankt
omslaget
eliminera
oroar
fns
anette
joy
radslan
gotlands
haw
##skarna
tradde
##ooo
##basen
##konsol
rejala
##ikens
pinne
##cio
følelsen
kopplingen
begrep
studios
##ekar
##jakten
ele
##cre
##fell
semifinalen
code
kravas
eviga
haugesund
forenkla
regionens
overskudd
upply
andamalsen
##ifisering
valjarna
amal
brannande
ear
gips
allmenn
skarmar
##ografisk
foresp
glida
tulpan
transp
arbeidslivet
jama
termen
outlet
prosjektleder
utstilling
quebra
yah
##sasong
lyfts
luss
blam
strids
##yggor
exploat
befar
##revligt
docent
ragnar
charter
valparna
rabarber
plattformar
religiøse
##ctive
##katalog
router
sjøl
kupong
intressenter
permalanken
##nem
##otterna
optimala
hvorav
konvertering
slutfora
gyllen
envis
beord
mulliga
sanne
##zzi
gaver
give
kvalitativ
forhandla
forvanansvart
noensinne
mangfold
vincent
mjolken
fjarilar
gudstjanst
##ssar
happypan
##oprocent
medger
kassaflode
##hof
overlagsen
foretatt
dukker
blonda
lyster
lakan
prisvart
##progn
gled
tral
harstammar
##mit
tillfora
komponent
listas
aminos
sponsorer
##øyer
##wart
unic
medvetande
cost
lyse
utgivare
diagnoser
##gott
underlever
ordnas
delaktiga
##stritar
forsorjning
nacke
sofistik
##skyrkan
doljer
presentasjon
hakon
ersattnings
reply
forholde
tillga
motsta
sims
aktenskapet
##process
enkaten
kommunist
shad
masc
uttala
walter
langu
##ellom
solig
hjalte
save
ombyggnad
pommes
evenemanget
likes
##storningar
##svis
experience
mongol
isteden
##ising
##ollo
##sbev
##junga
kaffek
vlad
##ventil
behoven
##plus
akutt
restri
member
packning
##odi
engagerar
##kursen
forkast
faststalls
slovak
109
##sasongen
forsav
hemlagad
forson
##wich
leonard
mere
bios
bearbeta
##overskridande
tillatt
omfor
leir
tillate
maff
##beskrivningar
104
##sanalys
borst
uppmuntrar
##vekt
##bron
##emor
dall
arbetslosheten
tilknyttet
forekommit
loften
##yna
kinas
##ин
spilleautom
##hundra
##she
gresk
anderson
##mering
semi
punkterna
##ifikation
quebrada
##phia
stiftelse
skanker
vestlige
##tegn
##orkester
styrketraning
##ygd
push
jury
##klanning
funder
taste
four
solut
##gaser
bærekraftig
aktuelt
##biskop
demen
arsmøtet
inngang
##kedjan
brutalt
##sformaga
langesen
klassiske
lilj
graa
innehallande
##behør
radar
liberala
utbredelse
begransar
kedja
systems
ackrediter
skandinaviska
lede
hordaland
board
forsavitt
eksempelvis
incit
brevladan
##kalt
valkomstbonus
##smastare
raa
intresserar
fakturering
vattenytor
naturvardsverket
swish
jad
##horighet
mejla
nødt
bortskam
storhet
revisorer
##ppel
videok
anledningarna
fjardedel
##budget
promenaden
tacke
psykiske
##ells
forlusten
partiklar
##redit
socialdemokratiska
##andrag
jerry
nedbryt
facit
sack
artig
##injen
insida
konspir
oppdage
##overvakning
materiella
##yte
varldar
ridd
binda
tilhørende
##halv
klost
gigantisk
skallen
renn
entreprenorskap
eiendommen
givna
happypancake
varierat
ordnat
luftfukt
modersmal
utvide
##stry
torktum
frustration
##ulturen
malvakten
bant
raddade
tungan
##lank
##ekan
hundens
dialogen
##slu
evalu
##opat
gillat
107
jamforelser
dublin
rorlig
øvelser
vete
##ferds
regeln
meriterande
møteplass
obal
hyllor
eran
##ekretær
##prosjektet
rencont
mottok
sammanfattningsvis
gulligt
1889
vinklar
##kontrollen
##familien
arkivet
presentationer
kullen
##anserna
overrasket
##ified
fotografer
##rykk
parlament
flad
intrang
lunsj
sylt
dama
dekorera
specifikationer
utfordrende
inledningen
barnever
##valitet
rikedom
samisk
##fjarilar
ji
##chus
##fardig
lakemedlet
polic
##edning
rekommenderat
alvsjo
leger
##plagg
bim
krf
##otto
reglera
##nda
##litter
strackor
##yrning
hax
alk
nedladd
støv
singeln
anam
felicia
wilson
omtanke
##iterna
dricksvatten
today
timra
##pann
##sdatter
radon
bult
tradera
into
ljusst
##æringen
hoppat
##firmor
##wick
##skala
kommitten
##poeng
beskyttelse
bega
grønnsaker
pynt
##stycke
symptomer
wen
sold
liden
edit
##filen
##buffe
byxorna
varefter
tiotal
accepterat
hemmafru
walker
##esis
##icle
ian
justiti
vittnar
##mang
striden
blancolan
##sansvarig
brig
129
ivaret
protected
uppvisar
disciplin
anvandbart
##utslapp
segling
paren
macka
studere
personens
matchande
##rate
utstyrt
satellit
utnytte
omsorgs
##uggen
tempor
portioner
##slang
##temperatur
sigtuna
thriller
gymnasieskolan
gaffel
familjerna
føds
dagstid
##ffekter
320
romerska
oppdatering
tvahjartbladig
namnts
burkar
terje
undertøy
faciliteter
matsal
vanskeligere
kex
skyte
romersk
frø
bjorklund
##teckningar
oskuld
avisen
representation
omstallning
artiller
bidratt
##stilt
sannerligen
tillampar
jarl
giltig
prioritering
upprattas
wallen
citrus
##inea
##slutningen
##smorgonen
ragg
vingard
skolverket
##radde
generat
lib
valgorande
kirurgi
espress
bein
allehanda
pulsen
regnade
langsammare
djuret
##dagarna
samlats
##semester
linj
##hundar
##pit
##mil
livskraftig
engro
tittel
##rits
modig
avholdt
konversation
cut
bestallningen
##ummi
##komna
høgskolen
##lot
utsedd
##alas
rd
##pil
skogsbruk
obet
kyrkogard
##ppene
barbro
##lasare
tradlost
##utstallning
stjerne
sjoprocent
fastlandet
kunga
sundbyberg
##bridge
kja
utfallet
lyset
ærlig
teckens
slappas
hogkvalitativ
mobbing
kompetans
##vaggen
slitage
##iba
torsten
høres
tox
akvare
charmiga
forandrar
prisbel
##typer
vanstern
##nandet
##slosning
kes
kinesiske
##ømm
##bloggar
halsok
byggande
tjanstgor
spand
baddar
norrbottens
##mol
rostratt
skapte
alig
gulv
forbehaller
slutresultatet
pojkv
##berattelser
markerade
professional
##sgjer
gress
##kombin
statistisk
upphorde
behagligt
tacksamma
tights
mystiska
darligere
brottslighet
lankarna
##pler
automatiska
##ique
knullfilm
bryte
gulliga
vegetarisk
different
kraftfullt
1891
tidskrifter
sjofart
vrida
frojd
##valdig
regist
ingemar
##forstor
tysklands
hjulet
omkladnings
##final
lyckade
rb
rug
rall
##bildningen
##ipe
medelhojden
##krediter
##hallar
108
lixom
##psi
igarkvall
skat
neo
bachelor
##kampen
krama
desa
funktionella
forkant
lyckligtvis
fjallen
krangel
skiftande
yngste
nyere
gjestene
##henburg
ledarna
prestationer
##gladje
generasjon
aggen
kontors
prisene
reduksjon
dodar
buenos
sprutar
reviews
spesialist
religioner
##jorna
1892
dogg
##olar
pilg
samtycker
pang
hogstadiet
selma
magazine
fylket
slupp
apning
sjunkit
##ktiga
##iater
pedagogiskt
##jorda
prist
ulovlig
utgava
contest
synkron
aires
##reglerna
##ulering
tatuering
##analyser
dani
kedjan
nelly
##proses
gradden
landat
svager
##forskare
##ørr
racer
##løst
range
brydde
utfør
tillhora
##deler
##skansl
##siff
microgam
##zia
husvagn
##splant
snurr
solar
tvatten
vokse
##ysen
klang
upplagget
##alden
redaktør
на
kurd
##stjenester
##elo
fortlop
islands
orgel
pk
##grans
mara
riga
inspirationen
placeringen
jay
flygande
brød
##lay
##juice
vertik
##46
##mir
goth
##igo
##oppgjør
xi
forretnings
erkant
skaraborg
klister
enjoy
sjalvfallet
appro
forint
102
handlingarna
krock
##salternativ
videop
manual
byttet
123
##oval
##sombud
foreskrivs
##sbevis
putin
pinn
##oider
seinare
trasiga
lundgren
komite
##ches
betalkort
anhangare
nash
images
administrativt
##manniskor
trappor
samtaler
##steater
fjorden
stadade
magdalena
luci
sportlov
delux
resultera
celeb
safe
feg
systembolaget
framstallning
bostadsratter
1893
bedrageri
marta
faser
tunge
wet
kablar
##ippe
##sregler
forefaller
planlegge
##idar
##sformed
square
##uler
andy
bajs
##arat
##egj
bakplat
mango
bryggan
ljuvligt
##skillnader
versa
vinnarna
artiklarna
##chy
familjemedlemmar
backe
kladsel
##etik
installationer
borgar
nordvest
halsosamt
ulyk
holmen
kings
##jnings
adams
psykiatri
utdannelse
##stjansten
nastintill
gosta
andnings
strap
kombinert
pavirket
applikation
registret
flyet
kvitto
pastaende
transl
pure
producenter
vinterdack
tønsberg
##halten
mackor
##fotboll
##yggende
mobbning
utformningen
bitradande
navigera
##oproblem
##orin
forteckning
flagga
snapp
##coach
konsumer
atn
bokningar
affarside
bryts
kravdes
lanserade
lotus
##ej
jobs
sommartid
##avdelningen
vallentuna
innflytelse
instrum
bransl
inforandet
##ofer
teleg
forelasningen
##villa
##ssats
naturskydd
vegeta
cs
ogras
idio
##hev
utforts
##rif
forem
##bbel
patenter
historiken
utrikesminister
overtyga
zel
svep
innebord
riksrevisjonens
funktionerna
##datter
temaer
function
gje
gert
##asongen
##emala
delaktig
##mix
skop
anbefal
tyrkia
niclas
knapt
##friend
heidi
platen
##spolitiska
prioriterar
1a
ordnings
hastigt
terra
misstanks
##ape
innvil
stormen
uppst
##ethe
tont
videreutvik
skanka
tv3
kontrollere
dramatiskt
daremellan
farmasøytisk
fiskart
##kroppen
overlatelse
herrgard
koreanska
cf
stubb
korsord
tradisjonell
pull
tonen
formanen
##hust
forlagets
kumla
##uman
undantaget
kulturarv
##sprincipen
vastkusten
aterskap
##mina
utnevnt
lusten
##osyn
inspelningen
ladies
##sbutik
lonar
koble
erstattet
wonder
##ssch
rhod
##savdelning
##stiltak
dyb
##undersøkelse
chrome
framga
##bage
meddelat
kejs
ersattes
##omon
hostter
##ikerer
songen
##nia
gothenburg
hangande
overført
psych
attityder
engroshandel
hemligt
##egging
pyjam
bankens
molndal
uthallighet
ryggsack
1888
lysa
ruter
##itus
##slever
mallorca
103
dad
ludwig
demo
dukket
v75
kampene
inbjudna
ostermalm
hindret
##samhalle
##fabriken
##benet
##lie
arskurser
ingangen
rute
litterara
sido
fros
##kil
##moten
koptes
muffins
reparera
##ummen
##æl
tiltre
maneden
installerat
forverklig
##manuel
fortroendevalda
oy
antagen
tm
studiebesok
##ittande
nudist
##stillgangar
kliniken
##uddar
straks
olov
arkitekten
##stagande
omsattningen
strikk
##slandor
##bords
edge
##stop
tratt
bursdag
krym
##smater
malaren
1885
tryckta
##cerats
##jup
løpende
hood
palestina
##universitetet
flodet
follow
produsent
klum
jeff
##icon
parørende
linkedin
palace
upptagna
chefredaktor
trær
trasig
rydd
meldt
informerade
##ext
munk
##bour
skidakning
ashley
tillhorighet
##osteron
beskrive
oppdrett
tatort
integritetspolicy
brocc
forsoket
dosen
##sprid
plattor
##aldt
kai
aldrarna
##hara
hustrun
supple
##orge
hasse
##smassiga
##gransen
hørte
glimt
118
babys
availa
acceler
fullført
kidnapp
slarv
festivaler
lonn
sinnet
nerat
barri
møre
pollen
again
##char
##beveg
##skram
atferd
##elighet
miles
irritation
software
kolesterol
mf
##hyllan
##ierte
klubber
mack
##basert
brian
kungsholmen
##anor
adren
bc
galleries
sammanhangande
bota
##cafe
episode
startsidan
##energi
domina
steng
satsat
bemark
overraskningar
elver
stars
maktiga
##rann
##ebok
##vagarna
tryggare
##intag
kostymer
##ningsuppgifter
forstklass
##albumet
arc
foreslatt
##rasjonen
atervinnings
bukt
besparingar
godsaker
forsamlingar
nd
##stalt
kreditvardering
##kandid
##ekraft
prisut
elektroniskt
hetta
radjur
##ugn
flyplassen
1894
##politikk
inborde
harde
cord
##bab
uppmarksammas
stank
bronse
##faglig
konsesjon
forbattrade
nepal
laxa
identifierar
sao
behoriga
skav
valdet
hotellen
too
verkstall
zie
##marknader
##mentet
clear
instammer
##roja
vintertid
producerade
##boj
##bull
gryta
lete
hes
øyeblikket
forbinder
nutid
##frik
utbetalningar
potentiellt
##byten
sekretari
##badd
verdif
##sregister
nyarsafton
bromsar
pans
norda
lounge
elven
styremedlem
##ningsmedel
##egatan
fanget
heat
statoil
synder
aterspeg
overvaningen
isabella
##assistent
##sendt
trer
chann
varmepump
tier
designade
dunder
##ypal
overvaldig
alderen
redaksjon
##ssakerhet
##arab
skakade
kommunicerar
minskas
##akat
##sjukdomar
fral
bohuslan
produserer
oppvarm
javlar
##halvaret
forsberg
hojs
##jningen
##sefter
tilbakemeldinger
skriftligen
##slokal
##ии
tunnelbana
raff
oskydd
##ionde
specialiserade
skisser
tvingats
tele2
##egas
juridiskt
hofter
lagenheterna
education
forned
sokanden
avrund
arbeidstaker
bruket
##arige
##elsest
gustavsson
skruvar
tesla
##amd
##ssall
uppgorelse
atlas
resulterat
##ом
##areal
smartare
##flicka
arga
fyrverker
andning
rubriker
forknippas
ebenholts
row
fokusere
##paras
planlegger
dilemma
forventer
missnojd
utstallare
romsdal
ramlade
director
visuell
knana
tree
##umo
knulle
##avn
samtykke
oppvekst
away
kostnadsfria
kommunernas
##lind
##losen
pallar
procentenheter
bunke
øverst
independent
charmig
parten
lurar
sie
vittnen
allan
inaktiver
innvandrere
innovationer
testas
obehor
skrapa
vedtaket
privatliv
hormoner
framkall
konstnarlig
nødnummer
were
formell
hardrock
kompensera
frankf
teat
badar
trogen
elektriker
##øper
koras
inriktad
pik
bonuss
modo
dobbel
flyktninger
##ples
tankta
##py
##infar
forvaltar
skinka
mariestad
hemligheter
overtygade
reparationer
utnamn
zero
doppa
sexbutik
sakkunn
johans
lovlig
##itive
##filosof
skro
fremmed
vasternorrland
prasten
aktierna
skadespelaren
econom
btw
vende
local
tilstede
registrerte
utfordes
tillmote
isf
##ikum
andrades
stanley
motverkar
stell
##edo
italienske
forestaller
fordelade
rackvidd
oundvik
##esenter
balanserad
petroleum
puts
atgarderna
pinter
oz
folkom
##anza
##vetenskapliga
omtale
viktminskning
omvarld
iz
##sektorn
##sammen
##stallelse
hovedstaden
kramig
larom
##cco
vank
utskottet
provinshuvud
##sfast
aktorerna
konsentr
smaforetag
arvika
fodral
##trer
gullig
endres
nysgjer
lattnad
##rorelser
##olyckor
zara
oppgavene
forvirring
spinning
sofa
fikat
##studenter
mandagar
buskerud
##kran
smarttelefon
avviker
peker
investeringer
##yla
audio
bioteknologisk
reager
lanen
slutfor
bevarade
influensa
dypt
ullared
brevid
algorit
##olt
##armer
##rutiner
skvatt
kakao
talare
papeker
forbjuda
indikator
##vaxten
sambandet
##kjen
bygging
preparat
##ovit
jackor
designa
polsk
spanske
invitert
obegransat
##isation
barnehager
##brytare
upptag
desper
substans
ukene
fremfor
puerto
##scentrum
saljes
hyllning
riz
humoret
tillverkningen
##duken
tvattat
pvc
plantor
##itara
osterrik
bp
specialpedagog
nisse
##artad
naringsid
##sben
stamnings
anvandningsomraden
kalenderar
##ulan
##stodet
inneholde
valfritt
metabol
otrogna
svanga
næringslivet
##vang
##cakes
##ries
##representer
tils
##dad
cuckold
representert
skansen
medeltid
foralskad
følges
danner
##works
handskar
industi
##sades
carro
elektriske
rama
eke
leste
skrym
##sklubben
muskul
television
##atoriet
balanse
##sorganisation
utomstaende
##kanslan
fortlopande
society
trada
emp
verksamheterna
neon
stamde
transportera
turbo
mock
evel
avsikten
grundlag
varmlands
3g
upptrada
speltitlar
hallands
##prot
guldet
nybl
##itativt
konstruktionen
explorer
uppfyllda
##iant
fickan
##rapportering
##eus
akademin
narmre
##besvar
2x
skrivelse
moden
lantagaren
franz
rengjøring
tilbehør
fardas
qa
##losningen
stopper
enl
nur
fangade
tacksamhet
sisa
orgie
##oklad
tea
naromradet
tillkom
valgorenhet
beraknat
maksim
pornografi
slakting
##500
forhapentlig
occ
##ningstider
labb
##erie
##pact
soren
scoret
jamlikhet
gag
viol
uppdateringen
##rostningen
##ania
grense
talent
##ises
clips
shoppade
melk
teckningar
stengt
119
minusgrader
detaljvarer
##terande
##italet
client
tangentbord
tande
##bir
lagkon
diskutere
defa
kvarvarande
##husets
andrew
antika
rovdjur
##roner
##skategor
tilfellet
kokar
dd
forutse
terminal
luxem
delars
halter
##xxx
forvaning
potatisen
lasaret
slalom
palitliga
rys
##dringen
##ssatt
##ieren
traningar
kvalitetssak
vegetabil
overvaka
valberedningen
##otering
hiphop
toppa
vartannat
installeras
skøy
left
hertig
adekvat
##snas
dosering
satse
cet
tvattstugan
webbshop
ogillar
krysset
##ims
petersburg
chap
uttrak
phu
##ursen
høyest
slank
##sformen
tillgangligheten
##sprosessen
pretty
spelbolag
keep
##pist
##bakken
##gud
twist
##journalist
riktas
lakarna
roven
##forlust
haven
besluttet
overvager
tonaren
##rana
kraftdjursart
byggnaderna
alma
stoffer
##rette
lattaste
illustration
##grunder
reklamen
##dato
kompetenta
logn
##kontroller
kjøring
utesluta
kladda
gurka
upphora
tillmotes
greps
ipod
passat
pinnar
robb
sokes
reservation
middagar
pistol
##ijer
forurens
jattefina
##emedel
eslov
coaching
##armad
nettverket
lesere
lukten
kalcium
buy
solljus
gjensid
tidvis
##planering
romantik
virginia
##roit
##betala
falkoping
headset
nære
jult
finansminister
lagstad
dominant
safari
virtuella
##brunn
##olor
##yrket
smoothie
smidigare
کوه
beij
skribent
trummor
fern
byggandet
microgaming
pts
##ycklig
##sfag
toronto
##øvrig
##norsk
[...]
