[PAD]
[unused0]
[unused1]
[unused2]
[unused3]
[unused4]
[unused5]
[unused6]
[unused7]
[unused8]
[unused9]
[unused10]
[unused11]
[unused12]
[unused13]
[unused14]
[unused15]
[unused16]
[unused17]
[unused18]
[unused19]
[unused20]
[unused21]
[unused22]
[unused23]
[unused24]
[unused25]
[unused26]
[unused27]
[unused28]
[unused29]
[unused30]
[unused31]
[unused32]
[unused33]
[unused34]
[unused35]
[unused36]
[unused37]
[unused38]
[unused39]
[unused40]
[unused41]
[unused42]
[unused43]
[unused44]
[unused45]
[unused46]
[unused47]
[unused48]
[unused49]
[unused50]
[unused51]
[unused52]
[unused53]
[unused54]
[unused55]
[unused56]
[unused57]
[unused58]
[unused59]
[unused60]
[unused61]
[unused62]
[unused63]
[unused64]
[unused65]
[unused66]
[unused67]
[unused68]
[unused69]
[unused70]
[unused71]
[unused72]
[unused73]
[unused74]
[unused75]
[unused76]
[unused77]
[unused78]
[unused79]
[unused80]
[unused81]
[unused82]
[unused83]
[unused84]
[unused85]
[unused86]
[unused87]
[unused88]
[unused89]
[unused90]
[unused91]
[unused92]
[unused93]
[unused94]
[unused95]
[unused96]
[unused97]
[unused98]
[unused99]
[unused100]
[unused101]
[unused102]
[unused103]
[unused104]
[unused105]
[unused106]
[unused107]
[unused108]
[unused109]
[unused110]
[unused111]
[unused112]
[unused113]
[unused114]
[unused115]
[unused116]
[unused117]
[unused118]
[unused119]
[unused120]
[unused121]
[unused122]
[unused123]
[unused124]
[unused125]
[unused126]
[unused127]
[unused128]
[unused129]
[unused130]
[unused131]
[unused132]
[unused133]
[unused134]
[unused135]
[unused136]
[unused137]
[unused138]
[unused139]
[unused140]
[unused141]
[unused142]
[unused143]
[unused144]
[unused145]
[unused146]
[unused147]
[unused148]
[unused149]
[unused150]
[unused151]
[unused152]
[unused153]
[unused154]
[unused155]
[unused156]
[unused157]
[unused158]
[unused159]
[unused160]
[unused161]
[unused162]
[unused163]
[unused164]
[unused165]
[unused166]
[unused167]
[unused168]
[unused169]
[unused170]
[unused171]
[unused172]
[unused173]
[unused174]
[unused175]
[unused176]
[unused177]
[unused178]
[unused179]
[unused180]
[unused181]
[unused182]
[unused183]
[unused184]
[unused185]
[unused186]
[unused187]
[unused188]
[unused189]
[unused190]
[unused191]
[unused192]
[unused193]
[unused194]
[unused195]
[unused196]
[unused197]
[unused198]
[unused199]
[unused200]
[unused201]
[unused202]
[unused203]
[unused204]
[unused205]
[unused206]
[unused207]
[unused208]
[unused209]
[unused210]
[unused211]
[unused212]
[unused213]
[unused214]
[unused215]
[unused216]
[unused217]
[unused218]
[unused219]
[unused220]
[unused221]
[unused222]
[unused223]
[unused224]
[unused225]
[unused226]
[unused227]
[unused228]
[unused229]
[unused230]
[unused231]
[unused232]
[unused233]
[unused234]
[unused235]
[unused236]
[unused237]
[unused238]
[unused239]
[unused240]
[unused241]
[unused242]
[unused243]
[unused244]
[unused245]
[unused246]
[unused247]
[unused248]
[unused249]
[unused250]
[unused251]
[unused252]
[unused253]
[unused254]
[unused255]
[unused256]
[unused257]
[unused258]
[unused259]
[unused260]
[unused261]
[unused262]
[unused263]
[unused264]
[unused265]
[unused266]
[unused267]
[unused268]
[unused269]
[unused270]
[unused271]
[unused272]
[unused273]
[unused274]
[unused275]
[unused276]
[unused277]
[unused278]
[unused279]
[unused280]
[unused281]
[unused282]
[unused283]
[unused284]
[unused285]
[unused286]
[unused287]
[unused288]
[unused289]
[unused290]
[unused291]
[unused292]
[unused293]
[unused294]
[unused295]
[unused296]
[unused297]
[unused298]
[unused299]
[unused300]
[unused301]
[unused302]
[unused303]
[unused304]
[unused305]
[unused306]
[unused307]
[unused308]
[unused309]
[unused310]
[unused311]
[unused312]
[unused313]
[unused314]
[unused315]
[unused316]
[unused317]
[unused318]
[unused319]
[unused320]
[unused321]
[unused322]
[unused323]
[unused324]
[unused325]
[unused326]
[unused327]
[unused328]
[unused329]
[unused330]
[unused331]
[unused332]
[unused333]
[unused334]
[unused335]
[unused336]
[unused337]
[unused338]
[unused339]
[unused340]
[unused341]
[unused342]
[unused343]
[unused344]
[unused345]
[unused346]
[unused347]
[unused348]
[unused349]
[unused350]
[unused351]
[unused352]
[unused353]
[unused354]
[unused355]
[unused356]
[unused357]
[unused358]
[unused359]
[unused360]
[unused361]
[unused362]
[unused363]
[unused364]
[unused365]
[unused366]
[unused367]
[unused368]
[unused369]
[unused370]
[unused371]
[unused372]
[unused373]
[unused374]
[unused375]
[unused376]
[unused377]
[unused378]
[unused379]
[unused380]
[unused381]
[unused382]
[unused383]
[unused384]
[unused385]
[unused386]
[unused387]
[unused388]
[unused389]
[unused390]
[unused391]
[unused392]
[unused393]
[unused394]
[unused395]
[unused396]
[unused397]
[unused398]
[unused399]
[unused400]
[unused401]
[unused402]
[unused403]
[unused404]
[unused405]
[unused406]
[unused407]
[unused408]
[unused409]
[unused410]
[unused411]
[unused412]
[unused413]
[unused414]
[unused415]
[unused416]
[unused417]
[unused418]
[unused419]
[unused420]
[unused421]
[unused422]
[unused423]
[unused424]
[unused425]
[unused426]
[unused427]
[unused428]
[unused429]
[unused430]
[unused431]
[unused432]
[unused433]
[unused434]
[unused435]
[unused436]
[unused437]
[unused438]
[unused439]
[unused440]
[unused441]
[unused442]
[unused443]
[unused444]
[unused445]
[unused446]
[unused447]
[unused448]
[unused449]
[unused450]
[unused451]
[unused452]
[unused453]
[unused454]
[unused455]
[unused456]
[unused457]
[unused458]
[unused459]
[unused460]
[unused461]
[unused462]
[unused463]
[unused464]
[unused465]
[unused466]
[unused467]
[unused468]
[unused469]
[unused470]
[unused471]
[unused472]
[unused473]
[unused474]
[unused475]
[unused476]
[unused477]
[unused478]
[unused479]
[unused480]
[unused481]
[unused482]
[unused483]
[unused484]
[unused485]
[unused486]
[unused487]
[unused488]
[unused489]
[unused490]
[unused491]
[unused492]
[unused493]
[unused494]
[unused495]
[unused496]
[unused497]
[unused498]
[unused499]
[unused500]
[unused501]
[unused502]
[unused503]
[unused504]
[unused505]
[unused506]
[unused507]
[unused508]
[unused509]
[unused510]
[unused511]
[unused512]
[unused513]
[unused514]
[unused515]
[unused516]
[unused517]
[unused518]
[unused519]
[unused520]
[unused521]
[unused522]
[unused523]
[unused524]
[unused525]
[unused526]
[unused527]
[unused528]
[unused529]
[unused530]
[unused531]
[unused532]
[unused533]
[unused534]
[unused535]
[unused536]
[unused537]
[unused538]
[unused539]
[unused540]
[unused541]
[unused542]
[unused543]
[unused544]
[unused545]
[unused546]
[unused547]
[unused548]
[unused549]
[unused550]
[unused551]
[unused552]
[unused553]
[unused554]
[unused555]
[unused556]
[unused557]
[unused558]
[unused559]
[unused560]
[unused561]
[unused562]
[unused563]
[unused564]
[unused565]
[unused566]
[unused567]
[unused568]
[unused569]
[unused570]
[unused571]
[unused572]
[unused573]
[unused574]
[unused575]
[unused576]
[unused577]
[unused578]
[unused579]
[unused580]
[unused581]
[unused582]
[unused583]
[unused584]
[unused585]
[unused586]
[unused587]
[unused588]
[unused589]
[unused590]
[unused591]
[unused592]
[unused593]
[unused594]
[unused595]
[unused596]
[unused597]
[unused598]
[unused599]
[unused600]
[unused601]
[unused602]
[unused603]
[unused604]
[unused605]
[unused606]
[unused607]
[unused608]
[unused609]
[unused610]
[unused611]
[unused612]
[unused613]
[unused614]
[unused615]
[unused616]
[unused617]
[unused618]
[unused619]
[unused620]
[unused621]
[unused622]
[unused623]
[unused624]
[unused625]
[unused626]
[unused627]
[unused628]
[unused629]
[unused630]
[unused631]
[unused632]
[unused633]
[unused634]
[unused635]
[unused636]
[unused637]
[unused638]
[unused639]
[unused640]
[unused641]
[unused642]
[unused643]
[unused644]
[unused645]
[unused646]
[unused647]
[unused648]
[unused649]
[unused650]
[unused651]
[unused652]
[unused653]
[unused654]
[unused655]
[unused656]
[unused657]
[unused658]
[unused659]
[unused660]
[unused661]
[unused662]
[unused663]
[unused664]
[unused665]
[unused666]
[unused667]
[unused668]
[unused669]
[unused670]
[unused671]
[unused672]
[unused673]
[unused674]
[unused675]
[unused676]
[unused677]
[unused678]
[unused679]
[unused680]
[unused681]
[unused682]
[unused683]
[unused684]
[unused685]
[unused686]
[unused687]
[unused688]
[unused689]
[unused690]
[unused691]
[unused692]
[unused693]
[unused694]
[unused695]
[unused696]
[unused697]
[unused698]
[unused699]
[unused700]
[unused701]
[unused702]
[unused703]
[unused704]
[unused705]
[unused706]
[unused707]
[unused708]
[unused709]
[unused710]
[unused711]
[unused712]
[unused713]
[unused714]
[unused715]
[unused716]
[unused717]
[unused718]
[unused719]
[unused720]
[unused721]
[unused722]
[unused723]
[unused724]
[unused725]
[unused726]
[unused727]
[unused728]
[unused729]
[unused730]
[unused731]
[unused732]
[unused733]
[unused734]
[unused735]
[unused736]
[unused737]
[unused738]
[unused739]
[unused740]
[unused741]
[unused742]
[unused743]
[unused744]
[unused745]
[unused746]
[unused747]
[unused748]
[unused749]
[unused750]
[unused751]
[unused752]
[unused753]
[unused754]
[unused755]
[unused756]
[unused757]
[unused758]
[unused759]
[unused760]
[unused761]
[unused762]
[unused763]
[unused764]
[unused765]
[unused766]
[unused767]
[unused768]
[unused769]
[unused770]
[unused771]
[unused772]
[unused773]
[unused774]
[unused775]
[unused776]
[unused777]
[unused778]
[unused779]
[unused780]
[unused781]
[unused782]
[unused783]
[unused784]
[unused785]
[unused786]
[unused787]
[unused788]
[unused789]
[unused790]
[unused791]
[unused792]
[unused793]
[unused794]
[unused795]
[unused796]
[unused797]
[unused798]
[unused799]
[unused800]
[unused801]
[unused802]
[unused803]
[unused804]
[unused805]
[unused806]
[unused807]
[unused808]
[unused809]
[unused810]
[unused811]
[unused812]
[unused813]
[unused814]
[unused815]
[unused816]
[unused817]
[unused818]
[unused819]
[unused820]
[unused821]
[unused822]
[unused823]
[unused824]
[unused825]
[unused826]
[unused827]
[unused828]
[unused829]
[unused830]
[unused831]
[unused832]
[unused833]
[unused834]
[unused835]
[unused836]
[unused837]
[unused838]
[unused839]
[unused840]
[unused841]
[unused842]
[unused843]
[unused844]
[unused845]
[unused846]
[unused847]
[unused848]
[unused849]
[unused850]
[unused851]
[unused852]
[unused853]
[unused854]
[unused855]
[unused856]
[unused857]
[unused858]
[unused859]
[unused860]
[unused861]
[unused862]
[unused863]
[unused864]
[unused865]
[unused866]
[unused867]
[unused868]
[unused869]
[unused870]
[unused871]
[unused872]
[unused873]
[unused874]
[unused875]
[unused876]
[unused877]
[unused878]
[unused879]
[unused880]
[unused881]
[unused882]
[unused883]
[unused884]
[unused885]
[unused886]
[unused887]
[unused888]
[unused889]
[unused890]
[unused891]
[unused892]
[unused893]
[unused894]
[unused895]
[unused896]
[unused897]
[unused898]
[unused899]
[unused900]
[unused901]
[unused902]
[unused903]
[unused904]
[unused905]
[unused906]
[unused907]
[unused908]
[unused909]
[unused910]
[unused911]
[unused912]
[unused913]
[unused914]
[unused915]
[unused916]
[unused917]
[unused918]
[unused919]
[unused920]
[unused921]
[unused922]
[unused923]
[unused924]
[unused925]
[unused926]
[unused927]
[unused928]
[unused929]
[unused930]
[unused931]
[unused932]
[unused933]
[unused934]
[unused935]
[unused936]
[unused937]
[unused938]
[unused939]
[unused940]
[unused941]
[unused942]
[unused943]
[unused944]
[unused945]
[unused946]
[unused947]
[unused948]
[unused949]
[unused950]
[unused951]
[unused952]
[unused953]
[unused954]
[unused955]
[unused956]
[unused957]
[unused958]
[unused959]
[unused960]
[unused961]
[unused962]
[unused963]
[unused964]
[unused965]
[unused966]
[unused967]
[unused968]
[unused969]
[unused970]
[unused971]
[unused972]
[unused973]
[unused974]
[unused975]
[unused976]
[unused977]
[unused978]
[unused979]
[unused980]
[unused981]
[unused982]
[unused983]
[unused984]
[unused985]
[unused986]
[unused987]
[unused988]
[unused989]
[unused990]
[unused991]
[unused992]
[unused993]
[unused994]
[unused995]
[unused996]
[unused997]
[unused998]
[unused999]
[UNK]
[CLS]
[SEP]
[MASK]
!
"
#
$
%
&
'
(
)
*
+
,
-
.
/
0
1
2
3
4
5
6
7
8
9
:
;
=
?
@
[
\
]
^
_
`
a
b
c
d
e
f
g
h
i
j
k
l
m
n
o
p
q
r
s
t
u
v
w
x
y
z
{
|
}
~
¡
£
§
¨
«
®
°
±
²
³
´
µ
·
¹
º
»
¼
½
¾
×
ß
æ
ð
ø
þ
đ
ħ
ı
ł
ŋ
œ
ƒ
ɐ
ɑ
ɒ
ɔ
ɕ
ə
ɛ
ɡ
ɨ
ɪ
ɾ
ʀ
ʁ
ʃ
ʉ
ʊ
ʒ
ʔ
ʰ
ʲ
ʹ
ʻ
ʼ
ʾ
ʿ
ˈ
ˌ
ː
˚
α
β
γ
δ
ε
ζ
η
θ
ι
κ
λ
μ
ν
ξ
ο
π
ρ
ς
σ
τ
υ
φ
χ
ψ
ω
а
б
в
г
д
е
ж
з
и
к
л
м
н
о
п
р
с
т
у
ф
х
ц
ч
ш
щ
ъ
ы
ь
э
ю
я
ђ
є
і
ј
љ
њ
ћ
џ
қ
ү
ә
ө
ա
բ
գ
դ
ե
զ
թ
ի
լ
խ
կ
հ
ղ
մ
յ
ն
շ
ո
պ
ռ
ս
վ
տ
ր
ց
ւ
ք
א
ב
ג
ד
ה
ו
ז
ח
ט
י
כ
ל
ם
מ
ן
נ
ס
ע
ף
פ
צ
ק
ר
ש
ת
ء
ا
ب
ة
ت
ث
ج
ح
خ
د
ذ
ر
ز
س
ش
ص
ض
ط
ظ
ع
غ
ـ
ف
ق
ك
ل
م
ن
ه
و
ى
ي
پ
چ
ژ
ک
گ
ھ
ہ
ۆ
ی
ێ
ە
ܐ
ܕ
ܘ
ܝ
ܪ
ܬ
अ
क
ग
च
ज
ट
ड
ण
त
द
ध
न
प
ब
भ
म
य
र
ल
व
श
ष
स
ह
ा
ि
ी
ो
॥
ক
জ
ত
দ
ন
প
ব
ম
য
র
ল
স
া
ি
ী
ে
ਅ
ਆ
ਇ
ਕ
ਖ
ਗ
ਜ
ਣ
ਤ
ਦ
ਨ
ਪ
ਮ
ਰ
ਲ
ਵ
ਸ
ਹ
ਾ
ਿ
ੀ
લ
க
ச
ட
த
ன
ப
ம
ர
ல
வ
ா
ி
ு
ാ
ก
ค
ง
จ
ช
ด
ต
ท
น
บ
ป
พ
ม
ย
ร
ล
ว
ส
ห
อ
ะ
า
เ
་
།
ཀ
ཁ
ག
ང
ཆ
ད
ན
པ
ཕ
བ
མ
འ
ར
ལ
ཤ
ས
ა
ბ
გ
დ
ე
ვ
ზ
თ
ი
კ
ლ
მ
ნ
ო
პ
რ
ს
ტ
უ
ფ
ქ
ყ
შ
ჩ
ც
ძ
წ
ხ
ᄀ
ᄂ
ᄃ
ᄅ
ᄆ
ᄇ
ᄉ
ᄋ
ᄌ
ᄎ
ᄏ
ᄐ
ᄑ
ᄒ
ᅡ
ᅢ
ᅣ
ᅥ
ᅦ
ᅧ
ᅨ
ᅩ
ᅪ
ᅬ
ᅭ
ᅮ
ᅯ
ᅱ
ᅲ
ᅳ
ᅴ
ᅵ
ᆨ
ᆫ
ᆯ
ᆷ
ᆸ
ᆺ
ᆼ
ᚢ
ᚦ
ᚱ
ᚴ
ᚾ
ᛁ
ᛅ
ᛋ
ᛏ
ᛚ
᛫
រ
ា
‐
‑
–
—
‘
’
“
”
„
†
•
…
‰
′
″
‹
›
₂
€
℃
ℓ
№
⅍
→
∂
∇
∈
−
√
∞
∧
≈
≤
≥
⋅
─
│
└
├
●
★
♠
♥
♭
♯
⟨
⟩
い
う
か
き
し
と
の
り
ん
ア
イ
ウ
オ
カ
キ
ク
コ
サ
シ
ス
タ
ッ
テ
ト
ハ
ヒ
フ
ホ
マ
ラ
リ
ル
ロ
ン
・
ー
一
丁
七
万
三
上
下
世
东
中
丰
临
丹
主
义
之
乌
乐
九
乡
二
云
五
井
亚
京
亭
人
什
仁
仙
代
伊
会
佛
作
依
保
信
元
光
克
八
公
六
兰
共
关
兴
内
军
农
凤
刘
利
前
劉
力
加
勒
包
化
北
区
十
千
华
南
博
卡
厂
原
县
双
口
古
台
史
司
合
吉
同
后
向
吴
周
和
哈
唐
嘉
嘎
四
回
团
园
国
图
國
土
地
场
址
坊
坑
坝
坡
坪
城
堂
堡
塔
塘
墓
士
夏
外
多
大
天
太
头
女
如
子
孔
字
孙
孝
学
學
宁
安
宋
宗
官
定
宝
家
富
寨
寺
寿
小
尔
尖
尼
居
屯
山
屿
岗
岛
岩
岭
岳
峡
峰
島
川
州
工
巴
市
布
帝
常
干
平
年
广
庄
庆
库
店
庙
府
康
建
式
张
張
当
彝
彦
徐
德
心
志
成
房
所
扎
拉
政
教
文
斯
新
方
族
旗
日
旧
昌
明
星
春
昭
普
景
曲
書
曹
會
月
望
朝
木
本
朱
机
李
村
杜
来
杨
東
松
板
林
果
柏
查
柳
树
株
根
格
桂
桃
桑
桥
梁
梅
楼
横
正
武
毛
氏
民
水
永
汉
江
池
沙
沟
河
治
泉
法
波
泰
洋
洛
洞
津
洪
洲
流
浦
海
清
渡
温
港
湖
湾
源
溪
满
滩
漢
潭
灣
火
热
牛
物
特
玄
玉
王
玛
珠
理
瓦
生
田
甲
界
白
百
皇
盘
真
石
矿
社
祖
神
福
秀
秋
科
秦
空
立
站
章
竹
經
红
纳
罗
羅
羊
美
群
義
老
胜
胡
自
良
色
花
苏
苗
若
英
茶
草
荣
莫
莲
華
营
蒙
藏
虎
行
街
西
观
角
語
谷
贡
赛
赤
赵
路
軍
车
边
达
连
通
道
遗
那
郊
郎
郡
部
郭
都
里
野
金
铁
铺
错
镇
長
长
門
门
阳
阿
陈
院
陳
陵
陽
隆
雄
雅
集
雪
青
音
顶
顺
风
香
馬
马
高
鱼
鲁
鹿
麻
黄
黑
龍
龙
##i
##r
##a
##c
##o
##l
##t
##u
##m
##s
##k
##p
##g
##e
##h
##n
##y
##v
##j
##d
##ø
##f
##b
##ی
##ز
##ج
##─
##ð
##x
##æ
##ل
##ر
##ت
##ي
##م
##ة
##き
##し
##w
##z
##0
##8
##1
##а
##н
##џ
##е
##р
##ц
##ش
##و
##6
##9
##3
##q
##5
##л
##и
##د
##ا
##4
##2
##7
##у
##в
##с
##к
##о
##ж
##ь
##ш
##т
##ف
##ن
##б
##я
##м
##ਵ
##ᅵ
##ᆫ
##ᄌ
##ᅦ
##ᄀ
##ᅮ
##υ
##λ
##ι
##α
##γ
##μ
##ν
##η
##г
##д
##غ
##پ
##ك
##ح
##ص
##ы
##ᅩ
##ᆼ
##ᄒ
##ᅪ
##ᄃ
##ک
##چ
##ه
##ρ
##σ
##τ
##ο
##δ
##ς
##´
##ᄉ
##ᆷ
##ᅢ
##ਲ
##ਾ
##ᅥ
##ᅡ
##ß
##ᆯ
##ᄋ
##ᅯ
##ᄆ
##ᅧ
##φ
##ε
##π
##ق
##κ
##ि
##द
##य
##ा
##х
##ᅲ
##ᄂ
##ᆺ
##ب
##°
##ظ
##þ
##−
##ю
##گ
##ە
##ר
##ד
##י
##ת
##ग
##स
##त
##×
##ј
##і
##ч
##ו
##ל
##מ
##ן
##ᄎ
##ᆨ
##ı
##र
##प
##β
##א
##đ
##འ
##ə
##व
##म
##ो
##خ
##ン
##イ
##シ
##ω
##э
##п
##س
##ਪ
##ى
##ʒ
##ᄑ
##ł
##ո
##ղ
##ս
##נ
##ס
##ɛ
##ʁ
##ˈ
##া
##ন
##ক
##ে
##ܬ
##ܘ
##ܝ
##ث
##ա
##դ
##ի
##ض
##ʻ
##ᄇ
##ੀ
##ਆ
##ਰ
##ع
##¨
##ー
##フ
##コ
##ル
##з
##श
##®
##ਦ
##ژ
##ᅳ
##ാ
##₂
##ह
##न
##ط
##ᄅ
##ᄐ
##ᅨ
##ᛚ
##ᚱ
##θ
##リ
##オ
##ス
##ホ
##ッ
##ク
##ラ
##ਨ
##ਿ
##の
##њ
##ք
##½
##ф
##˚
##ŋ
##ێ
##ɪ
##ː
##น
##ร
##ง
##ʔ
##ल
##ʹ
##ਇ
##±
##վ
##ն
##⋅
##ா
##ம
##ப
##ர
##²
##פ
##ე
##ც
##კ
##ვ
##ა
##რ
##ก
##า
##ะ
##ล
##ต
##ห
##ᛁ
##લ
##ף
##ང
##ᅣ
##ᆸ
##ע
##ב
##ג
##ր
##ק
##ি
##প
##র
##ъ
##ᚾ
##ɾ
##³
##ย
##ว
##เ
##ʿ
##ח
##ਤ
##ɑ
##ܪ
##љ
##כ
##ה
##ᅬ
##ʰ
##ტ
##ი
##შ
##ლ
##ਹ
##º
##œ
##ւ
##צ
##ʃ
##り
##պ
##տ
##დ
##მ
##ს
##ト
##ロ
##अ
##क
##ज
##ש
##χ
##ო
##կ
##յ
##լ
##ذ
##อ
##ם
##भ
##ष
##ե
##մ
##ɔ
##¼
##≤
##ξ
##জ
##ত
##ʾ
##ค
##ช
##ส
##ม
##ম
##দ
##ᅱ
##ζ
##ხ
##キ
##ʲ
##ᅭ
##ɒ
##უ
##თ
##च
##ཀ
##ར
##ी
##ਕ
##ქ
##բ
##ө
##ʀ
##マ
##ウ
##ψ
##ჩ
##♯
##ܐ
##շ
##ハ
##タ
##щ
##ء
##გ
##ʉ
##ท
##พ
##រ
##ា
##ड
##ɡ
##ব
##ཤ
##ག
##ས
##ᅴ
##ヒ
##թ
##հ
##ɕ
##ʊ
##ਣ
##ᛋ
##ᛏ
##ᚴ
##ᚢ
##ზ
##ფ
##խ
##স
##ல
##வ
##ி
##ச
##த
##℃
##→
##ნ
##ਜ
##ट
##ᄏ
##ு
##ɨ
##ט
##գ
##ん
##う
##ђ
##ћ
##ז
##ब
##ध
##♭
##ল
##க
##ட
##য
##ᚦ
##ბ
##ʼ
##ܕ
##サ
##პ
##є
##ਖ
##ன
##ア
##か
##ү
##ด
##ھ
##ħ
##ـ
##ण
##ہ
##མ
##ན
##と
##ძ
##ყ
##♥
##ী
##ป
##µ
##ց
##қ
##ɐ
##ә
##≥
##カ
##զ
##∈
##ਗ
##ਮ
##ਸ
##€
##བ
##¹
##ᛅ
##ˌ
##ཁ
##¾
##£
##テ
##წ
##จ
##い
##ۆ
##ռ
##∂
##ƒ
##♠
##บ
##√
##●
##པ
##ལ
##ད
##ਅ
##★
##∇
##ℓ
##ཆ
##≈
##ཕ
##∧
##∞
##en
##er
##ar
##an
##et
##or
##st
ar
##in
##ed
##at
##om
##ad
##il
##al
##el
##ch
##on
##sk
##ra
##ig
den
av
##tt
och
##kt
med
##un
en
in
##and
##ing
##es
##am
for
##re
som
##ol
##te
##ast
##ord
st
##le
##id
##li
og
##ur
##la
til
pa
##is
var
om
##ter
##eter
##og
19
##ver
det
##der
##ri
##ade
##as
li
##ro
##eg
##pp
##ag
##aden
##us
an
##lig
##aste
##av
de
##ning
ing
##ck
##ang
##eder
un
##sn
##all
##it
##kten
##per
##ud
°c
##em
##ak
##bord
han
##ik
##ederbord
##isk
##itt
##are
be
man
##art
##na
##tem
del
tra
under
sk
##ger
er
##att
##od
gen
ut
##inn
##unt
##ot
ett
till
##atur
trakten
##de
##ent
##ru
over
genom
##ler
##uv
##ste
##ber
##ul
##ia
20
##jen
lig
km
##aturen
##os
##ion
##peraturen
runt
##eltem
##eltemperaturen
##uvud
##iv
har
##lim
##snitt
manaden
mm
##land
##ran
of
genomsnitt
nederbord
##ska
##ens
huvud
ligger
##ist
reg
land
##sm
att
##um
finn
sy
sam
ingar
al
##ari
##rev
ble
sla
da
##amil
##ue
nar
##ne
finns
##ør
kom
sp
famil
##sen
fra
##ut
##ktet
meter
##fe
##op
##ilom
##ilometer
##sta
##ov
##ok
per
familjen
besk
kv
hav
##ande
##arter
pro
inga
##rat
stor
##het
##se
##be
##for
##ell
##ene
##maste
##atal
##sa
beskrev
slaktet
underarter
##ost
18
el
delen
havet
beskrevs
##ke
kall
list
mil
nor
life
##atalog
##ust
nord
catalog
catalogue
##van
at
##jon
##ic
listade
##ug
men
landet
kan
##va
##olk
fran
##staden
##ien
##ir
##ta
tor
##ek
##mer
##est
##ss
##yg
##rad
##ep
jan
regn
huvudstaden
##ann
invan
##smed
invanare
##ant
syd
##sp
##und
##ark
vid
arsmed
arsmedeltemperaturen
varmaste
medeltemperaturen
kallaste
200
janu
kvad
kvadrat
ch
##igaste
##kilometer
kvadratkilometer
##limeter
millimeter
komm
##arna
##raste
genomsnittlig
kon
arsn
arsnederbord
torraste
regnigaste
##uli
##yr
##limat
##folk
januari
or
##ala
##ser
juli
pl
opp
sv
##ster
and
ber
##im
##sak
201
##ard
##ader
eller
sin
##ft
ma
##eb
##ett
##ap
kommun
##ab
##vin
##iska
##ling
##angen
##red
tid
upp
ter
##ock
##ind
et
##vast
to
##ort
##ades
##befolk
##00
hog
##ub
##ember
##heten
vast
inn
##giv
##je
##fter
provin
mar
##ax
##skap
##ge
##ere
##ske
##net
##ac
##end
huvudsak
ku
aug
ver
##ær
mot
sj
gr
##ier
august
terr
##ly
##lag
so
##men
th
##ae
omgiv
##ks
##ka
terrangen
##ma
199
rader
pun
provinsen
##ron
##alet
##ation
##gen
narheten
##del
ant
##ikk
ny
##ry
##res
vil
##ick
sa
##man
##lo
##alt
etter
##iske
hogsta
art
le
sig
##nings
vax
der
##yn
lag
augusti
ved
hel
##den
mo
efter
##befolkat
##ikt
punkten
dar
kilometer
re
før
##ende
##son
lang
198
##ningarna
##rig
##rag
##lar
##ket
##hol
##ung
bar
des
##jar
##ionen
##ygg
##ert
##ring
##ningen
##ve
##amn
##sart
##ppen
best
##yl
##ie
##ip
197
ty
##var
oster
ha
##anska
omgivningarna
##ina
hon
##hal
bli
##if
mell
##sh
fram
##ige
berg
##radet
##uni
##les
seg
##ob
##ebru
##ød
##amp
sydost
febru
tva
196
sl
bl
hans
##ake
##entr
##unn
##ken
bor
##oh
vaster
##jer
##ib
juni
##adde
##rit
ap
##asjon
##ong
la
##me
par
vatt
17
##io
forst
ein
##øy
ogsa
##ogra
kar
pol
nordvast
my
##ats
##ruk
##rin
soder
ne
##ian
##ets
te
##vax
##kk
##klimat
februari
fors
am
fil
kl
br
storre
by
##da
##ff
aven
se
fol
gra
##uc
bland
nov
##iser
##ater
nordost
##skog
sep
##ill
hadde
sven
norr
##aten
##ans
dec
sitt
##vis
##enn
##ligen
##org
##oll
##ober
samt
195
##eng
spel
##else
ind
sen
gj
194
fin
##ou
sydvast
##ane
##sb
tre
tv
##iet
##ale
##ott
centr
##rade
blev
##kke
##ah
##ningsom
kun
the
fl
fler
val
##aren
december
mus
hade
bestar
##ligt
septem
andre
september
mang
mars
lake
inte
##ingen
##ulle
193
narmaste
##ire
##ner
kuper
kuperad
##iskt
ad
##halle
##oc
november
fod
mal
klimat
samhalle
##ata
ganska
##ore
folj
ser
mind
192
dag
##lem
sh
far
##leg
##bet
16
15
##wa
191
##ild
##ada
ann
bet
ex
##istor
toppen
centrala
mindre
##ult
##rom
##kte
##ril
##rop
her
##idae
##erna
mon
##rist
okt
tat
sver
##las
bas
##ce
oktober
##onen
##sl
##rik
gles
me
jord
##berg
ikke
##liga
ost
##akt
##alen
##edan
utb
nara
glesbefolkat
he
##itet
andra
##up
fodd
no
van
mat
rep
##ella
co
vaxer
regionen
##iver
##utt
all
sid
kommunen
##ts
##orde
##ten
##opp
kj
mer
##smark
##endrag
on
##ich
kuh
vattendrag
maj
hun
##uk
forsta
##lass
fick
##ha
##sam
##yrk
hand
##elt
platt
talet
##ara
joh
##olog
vis
gu
##rem
##ys
##pel
##riv
bra
##hor
eng
vart
foljande
omradet
##ningar
##entet
april
sm
ge
##ess
beg
##hall
##ull
san
##tart
##ow
første
kal
##øl
ste
##ja
##ris
min
ta
histor
delst
##enter
##des
##yt
##mar
tatbefolkat
hal
sch
led
##kon
stad
190
namn
form
amer
plat
mellom
utg
fly
##elsen
kra
##ret
hem
dette
##cket
##ansk
is
##ass
##tal
bygg
##her
huvudsakligen
tr
are
##ker
##ine
##he
##nas
sel
##vand
##ay
##fta
##fl
rom
dod
##alb
##holm
inter
ab
bu
rikt
##verk
gru
sav
##bar
mest
rik
ag
##ana
##old
##yd
alb
##skapet
fød
sverige
res
##tta
##jaril
##anger
##iss
skulle
##elig
##øn
mycket
##ond
##ister
##omm
##lige
##ift
hv
ord
##allet
car
##ct
omk
sedan
dei
##min
##rinningsom
##bruk
amerik
bo
ock
kor
eg
##eart
##yp
gjen
##fatt
syfta
ol
nag
##mp
eur
##vik
##sklimat
##rak
##ack
##jan
##beid
mellan
##rid
sc
##istri
##ium
##kl
##dag
rad
hen
##hus
##ogram
norra
##els
##par
mor
##ial
liv
ocksa
omkring
fri
##skland
189
storsta
bro
##befolkad
hj
inne
##igt
##hi
10
født
##odra
bak
folk
nog
##kel
##hav
polit
sjo
delt
##osa
forb
12
gar
col
obefolkad
ho
blir
##ubb
sodra
##mark
stra
##gar
utbred
##ral
sør
hov
##iller
riktning
gam
##rukt
denne
##lik
##tter
fjaril
tur
ur
##iker
##bl
##ica
dem
##sv
antalet
delstaten
ned
ph
##ius
bred
aust
##stem
fot
arten
##nar
##sson
##eld
nav
vilket
stock
##ære
##uss
person
##ivers
dess
##iga
kat
##satt
dan
##iod
konst
lov
pr
14
jordbruk
##ograf
distri
##stad
##ula
detta
##vaxter
##rike
##era
##zonen
fa
sydostra
##lighet
##før
prod
##jur
svensk
##ora
klimatzonen
##orn
##vaxtart
lan
univers
ang
##form
##ings
stockholm
band
##ii
natur
enligt
##pl
fjarilsart
grund
##int
##rod
ra
stat
##ren
##tid
13
em
##som
lac
savann
new
188
##sten
dom
stud
anvand
##aving
##by
eit
bes
platser
##ktiv
wil
os
cer
##nom
sal
kanada
tvaving
europ
##oph
##atte
##qu
##ropiskt
annat
##ært
##ym
gre
##rakt
##iz
##dom
##ile
##sj
jordbruksmark
##ola
si
##ensis
11
sta
fikk
tem
bade
part
mark
po
##med
##isjon
lar
ei
##ho
ca
tvavingeart
##sjon
vann
##stand
##nen
usa
##ukt
inom
bel
medlem
##lin
album
##ald
##ite
##ef
##slag
ham
fj
##ga
otta
##ford
##nad
krig
ottawa
nam
sol
lat
##rett
##far
##ida
nu
lu
kyrk
##hand
##elle
##th
utan
slut
ater
god
##øp
dis
##sil
##rum
off
rek
grunn
##stall
oli
finland
##ille
frank
kont
vastra
##led
di
##uder
##ide
gjennom
##ya
##gang
fle
##ativ
##our
as
cre
fem
avrinningsom
vin
##fors
##gan
##konom
hol
gall
##ern
af
000
187
##met
sammen
norsk
son
ostra
bruk
##ator
met
ly
186
##get
##over
sjon
##elen
##ity
svenska
flere
##ph
##ven
su
##au
vest
pres
bi
mel
##lingen
##iner
##ton
##øm
arbet
kvinn
##ec
end
##sf
ans
##rep
##igh
forsk
mag
##ld
##empel
arbeid
barn
plan
con
##atter
##ilt
senare
gjorde
ed
ve
period
na
flera
hos
frem
dra
bok
tro
##veck
##urg
##ote
##rar
kraft
int
stør
##agen
mid
pre
tidig
mange
blant
ga
##bygg
repres
ingen
vikt
norge
tidlig
##hold
vaxt
sn
ry
ort
##anske
ye
##ba
bil
##erade
creek
hvor
##kar
##elser
##ura
##sekt
ald
##kom
sak
##ingar
basen
sar
##partem
##of
##agg
ka
rund
ben
##borg
hus
lite
intern
##ede
sas
krist
kir
##han
ro
omgivande
bredden
ele
medel
tidigare
##cker
dock
do
samma
##ate
##arta
skrev
grupp
ak
##ytt
tropiskt
##pe
##val
slutt
##ena
denna
kand
##mans
##ca
olika
fort
##co
henn
byg
##nes
befolk
##skol
fotb
##klar
##fer
austral
høy
alle
du
hemib
sina
##sing
##erat
count
ital
tog
##oreala
hemiboreala
##ester
john
tek
##ultur
skol
##sy
hoved
red
##etter
insekt
film
kn
engel
bergig
kong
utbredningsom
sag
vara
brasil
lok
##partementet
##oss
organ
ger
##ont
vaxtlighet
##rich
##ighet
mount
##ander
##ban
##ratt
##rift
artens
trad
stort
gav
kol
pal
frankrike
vi
fun
komp
que
fyl
namnet
utbredningsomrade
gener
2010
avrinningsomradet
hennes
store
##ones
gang
##oma
blandskog
##reg
##spel
##ubli
##ham
død
musik
jam
kin
##ongen
ob
kro
##iden
lin
tok
185
##minist
eks
ek
bild
##ey
##ira
byen
##ksjon
##rer
arean
cerro
ac
skog
##ers
fast
##fly
tal
##har
region
manga
syn
tot
##yra
selv
skalb
kommer
im
pop
##ugor
samhall
kam
prof
brit
tallet
30
ov
sjal
bru
administ
25
##mal
klimatet
##bo
##let
enn
##pa
id
2008
##mann
mex
forts
stora
kommune
dal
##pt
##che
senere
##eln
2000
stads
tillsam
sek
kort
tillsammans
##lan
##kter
fred
staden
div
##gr
##flugor
2006
hø
star
kung
##ors
forsam
alla
karl
sand
dessa
start
nation
gran
ko
departementet
2007
verd
##ondon
ban
savannklimat
##band
klubb
##eller
kap
satt
moder
ba
jak
innan
tyskland
tran
vit
blitt
fer
##rang
num
##bia
tidligere
bol
kultur
siden
london
##ace
mu
##lands
riks
noen
tan
tilb
universitet
##ering
flytt
##vet
sine
vir
nya
amp
##kn
2011
stapp
##raden
sub
ekonom
styr
jar
verk
##smarker
##aget
##legg
##ley
egen
##strom
##arden
##ografi
##one
von
representer
grasmarker
ke
helsing
varld
stappklimat
##iva
kallt
filmen
nær
mann
skalbagg
skalbaggsart
carl
exempel
kjent
kop
storb
##ish
##ktor
##ins
2009
annet
være
100
##skar
oppet
oly
##ksam
natt
##ros
kr
##ekk
rundt
##jade
christ
##inger
albumet
##alis
tred
##its
sock
##cher
##ij
2005
skal
can
##za
insektsart
cir
inst
disse
pe
##ritann
##blad
storbritann
##uter
2012
184
amerikansk
inv
deb
uten
##atus
iran
kina
dav
##lott
vatten
##skrig
pers
##aster
##djur
kunne
gallande
lj
ig
forek
norske
##ota
##20
##ons
halv
##ork
program
jap
##rott
##jør
flyg
##ninger
##ops
temper
plass
utt
hver
##ette
##jord
vært
samme
##alp
sydlig
str
buskland
##kur
busklandskap
##esh
vant
port
cal
ale
##lav
##sel
lo
tim
forl
mad
tar
##orna
##ologi
##sland
##rut
slakte
##ident
fatt
stil
foret
ark
##ipp
oper
oslo
21
milit
tri
sommer
distriktet
kant
ru
##orter
##enskap
2004
##istan
sing
##sar
##ationen
ses
je
##cent
kulle
pat
##ila
qu
gul
##raft
##ice
aret
kron
##vag
olymp
##rupp
vag
##anns
##cia
indones
vm
##ition
oken
skap
char
sma
mens
##part
sydvastra
ep
sang
ja
##ix
##olf
wal
vastlig
##hel
omfatt
bri
2016
hall
ung
studer
laget
24
tysk
svamp
##ua
begyn
italien
nordostra
ofte
##spr
alt
administrat
borjade
mod
##ides
##mus
tillhor
gikk
##ellt
okenklimat
helsingfors
##lac
noe
##sd
##ico
lever
##aler
system
##ori
dire
##esp
forekom
tiden
##erte
dj
##esi
if
gun
rio
gor
russ
fisk
##landsklimat
kamp
##ona
øst
##atet
1990
sjalv
leg
il
##øre
##lagt
stracker
span
##iar
##sch
nye
cor
dam
##uvudstaden
##vi
##lassen
mas
lovskog
willi
22
##ika
eta
##och
pri
##ux
##sst
2014
sle
com
england
pass
##sfor
ros
23
ul
##inga
kjen
ofta
indonesien
gift
##tte
arg
sim
##byg
183
jos
##hj
ars
##mat
bur
##odes
utvik
fire
##heran
forsamling
los
##ith
##aka
1980
nagra
samtid
sist
bla
samhallen
jakarta
profess
##ash
ska
stekel
medelhav
##mo
kateg
##ele
stod
tav
teheran
2013
##ach
##bert
##yc
air
popul
##ffe
utveck
##set
karri
januar
helt
##tor
##tes
medan
2015
##utom
park
sprak
nordvastra
stekelart
rod
sil
sten
##ønn
johan
##iken
rh
1970
ovrig
naturlig
persiska
aktiv
organis
##ementet
fag
##ars
gl
##inne
##we
kines
##mel
føl
klad
skj
##jet
gud
##oner
##like
##br
las
full
##vit
siste
##asjonen
hot
forsvar
##hl
##bol
allt
##shuvudstaden
ganger
##vo
vanlig
ekonomiska
##otter
sant
divis
totalt
forfatt
##øk
like
##steklar
city
area
##aga
ev
##rond
##ges
ford
landskapet
vok
fyra
##andet
medelhavsklimat
william
mac
##ioner
slik
1960
##sun
ville
mart
bare
op
##øde
26
28
##heter
kval
##ns
##kes
##lade
##una
##trad
2003
inlandsklimat
##oren
##fall
ast
##aceae
bandet
fall
2002
nok
##ric
europa
##kker
##vern
personer
aren
##illa
##sker
rak
varit
spelade
sov
samman
gro
gick
##jo
27
cirka
internation
lev
island
##asta
mosa
##gard
##iro
neder
bal
rett
##inner
bety
honom
klass
serien
tilbake
##alist
kalla
musikk
##burg
peter
##lam
##esten
##este
##ført
nasjon
soc
##bler
borjan
administrativ
dare
kunde
mai
navnet
deltok
##ucer
tempererat
##fin
##sprung
2001
største
##naden
2018
viktig
bed
nytt
gard
delav
mari
danmark
tekn
kladogram
##ita
##uth
ork
ursprung
ir
kunst
navn
##ilte
##vid
##bb
delavrinningsom
mosaik
bon
##sted
##egron
tredje
stadsegron
##ago
od
verksam
ytter
1999
varier
kur
darefter
skriv
##ynd
##igheter
##yll
ligg
##ias
##lege
##lev
fotball
sted
hela
##undet
##vn
skri
bara
##ies
muse
prin
gruppen
oppr
rel
##rog
##bin
##dal
##sert
2017
plats
##lagg
ander
##uler
bron
vinter
hy
eli
##hov
fore
##jel
##kop
gote
paul
sem
sett
delavrinningsomrade
president
##fil
roman
australien
bid
##ise
vel
grad
##upp
foren
først
innen
##adem
mun
goteborg
klubben
##ben
sø
sær
##roll
hur
glo
##aria
181
##oni
forf
##album
arter
fjell
stand
##arbet
ass
konkur
socken
##sg
forekommer
chile
myr
##ider
##off
tit
paris
mont
innebar
##elige
øy
alger
##kj
kh
##lad
gunung
##oth
arkite
##udd
ratt
slapp
29
##atan
##vatt
igjen
publi
##aland
valg
##rol
##kkje
##okrat
krit
svart
##ama
fal
bj
##bil
##zz
##ure
fanns
##ustri
langs
rock
spind
go
kvar
##si
##ive
inkl
kring
lik
##arbeid
##rika
tom
ib
prakt
kust
bran
monsun
rev
tillegg
kab
##ath
50
##ationer
pse
##onia
hu
svar
ikkje
etabler
sovjet
framst
tak
##uren
##jd
##ceae
kategor
ram
historia
##ksom
johann
grav
regnskog
1992
verden
monsunklimat
bul
##ublik
##cis
bore
31
pan
##oster
##namn
##iens
1998
eld
##ward
rol
tel
##pen
2019
varm
pris
februar
fang
1994
##ølv
langt
bef
georg
elekt
ii
deras
##iko
##fordes
bry
sex
klar
ok
##eph
##kv
sty
hor
##ain
1900
desember
##iel
lind
mich
song
historie
##ktar
##ps
teg
europe
1996
vaxtart
fe
##stra
##uel
nom
ven
pseud
yt
##use
luft
##ress
tex
avg
gal
thom
##djursart
##jarn
bort
ras
##ze
##delen
ist
mak
jo
bre
finnes
west
##cer
##svar
anvands
bay
mitt
vill
##arkt
len
løp
gjort
roll
##drag
henne
pros
##iter
##veg
sasongen
##chen
skip
hele
fransk
mc
unge
pra
bod
##ommun
brukt
##meh
##orer
result
teater
delar
litter
##jerne
alex
##ino
##stil
##erne
##iat
tall
idag
hett
vet
langd
mol
ti
nummer
pet
norrut
##ani
perioden
180
regnskogsklimat
leder
skar
storbritannien
1991
kantonen
countyt
182
eftersom
##gere
general
##igen
lund
ton
##lut
##usjon
ner
##bec
1997
nagot
phil
soderut
##gende
1995
##ea
arab
##itar
##organ
sentr
york
chesh
ons
endast
##helm
##forb
boreala
##serv
vert
delstat
##ios
fotboll
flod
tatt
1993
mott
1950
pos
jarn
mø
rober
meg
menne
##eri
sur
gora
##bel
##yrka
lø
don
##orge
fest
##ruktbar
jur
uppg
##bor
##ko
sverig
ret
##ign
engelsk
lou
omrade
##uksjon
##port
avsl
bos
priv
km²
cheshmeh
uts
##ører
##kta
##ager
1988
we
nederland
redan
rekke
professor
britt
##sc
anna
ky
##iana
county
est
verdens
vol
beste
##ini
##under
dat
##ror
gull
vap
sidan
stift
antal
##erg
spec
##ockey
##que
dol
##arande
##tra
blad
##omy
slag
iuc
ofruktbar
##skri
##heim
samband
##anter
##ppet
##rav
##adi
jon
##handling
spilte
##ensen
bat
grev
colom
ster
iucn
1800
stam
liten
glob
##laget
gi
##dde
saint
aldre
##stein
veg
##elli
cent
##ht
##amot
##bro
##ept
##ney
1971
##af
gangen
##vel
1989
tjan
##landet
##pelare
##inister
ren
mexico
##amer
ungdom
lange
##vest
sna
quebec
##ng
##amen
cl
fre
matte
fr
##iserar
regjer
##hen
##alder
instit
djur
tap
##stre
40
##als
##anda
stre
ulike
dy
ni
##ram
##emp
hektar
##gj
##ria
##styr
sveriges
##iteten
vidare
arene
mur
bib
##ras
post
##seende
try
##bu
via
1984
##cus
osterut
##olit
##ood
brasilien
lam
mater
vasterut
##lis
koh
##len
unders
vik
##age
relig
george
##anden
leng
##lat
vissa
##50
fukt
stø
utd
mic
##asa
##vard
turner
##ox
gamle
##utveck
##sket
amerikanske
bakgr
##ism
guvern
und
erik
##itz
##opter
lak
robert
fyr
maria
##unkt
rec
gt
tyske
bir
arrang
##roducer
1920
##osof
spiller
brun
litt
lt
##til
##heng
moj
større
1987
offent
christian
milli
sista
vad
hum
##uan
##foren
##ole
##sprak
prob
1986
produs
strid
nagon
##kket
rum
##nade
afg
##orden
##az
arkitekt
vic
enda
##yo
topp
1940
##plass
psy
miss
##iskop
##staende
cap
##str
##eta
spar
##ifl
forbund
hast
betyd
tillb
1930
stall
gamla
reser
romer
##ete
guld
##osp
bada
begynte
ten
opprinn
hund
##øst
ansvar
##forande
1972
sym
argent
høg
prem
##eren
fas
ent
deres
døde
##ogn
inkluder
1985
stats
##sport
ovrigt
berlin
slutet
##omen
##uten
##ario
national
riket
effe
1974
##eh
mis
1968
ytterlig
pas
camp
##arktis
varje
##idler
##gor
##ima
##anth
lav
kalt
utgav
500
##rob
indiv
##uer
kyrkan
##ument
##kan
mexiko
##orp
friid
representerte
grek
blei
nil
hard
befolkningen
afghan
##nam
typ
sjuk
alf
colum
upps
rab
overt
jac
slott
##fjord
##alj
1979
betydel
infor
bog
biografi
spor
##ema
##lades
republi
sad
##plan
kategoriserar
##cken
##yttet
internasjon
179
##ode
tru
##ebel
delstatshuvudstaden
vilken
middel
hjem
1976
1982
1983
deretter
##sut
sju
##sby
dok
deltog
ferd
grand
mannisk
##rada
##uch
##bladig
sarsk
spanien
istallet
skil
forv
ide
ring
rich
dyn
kallas
##orea
pi
##ativt
les
##asjoner
dr
fortsatt
jean
david
##isen
distrikt
alder
produkt
1981
afghanistan
tyska
1945
stockholms
befolknings
##elart
##utveckling
1973
darfor
landslag
##verket
1964
pot
sum
bergen
fortsatte
lyck
fart
##isi
fab
fjer
##nader
##ank
##bild
tag
##hjart
##smann
thomas
##eland
##car
laten
filosof
2020
##isering
ror
nattfly
bror
utanfor
##andra
politiker
pla
##huset
##fal
##sminister
skades
job
##inen
stav
motor
norges
1975
1969
magn
super
nat
##inal
innbyg
1967
##vat
##rans
##ellen
kons
##ova
tol
dikt
barr
amb
uk
utgiv
bill
angel
##ski
industri
subt
lud
##ci
rid
fleste
1978
##ense
1977
##skolan
blom
tj
videre
akt
##innare
1952
long
##mos
mye
ovan
##horningar
slaget
hom
hed
nattflyn
kil
fant
60
gir
##ourn
##isten
forn
begge
##opsis
##stan
##rim
samling
landsk
jag
heter
vapen
##fekt
avvatt
utbild
gol
##joner
##icus
eksempel
spindelart
##sett
##hu
##anten
lek
øya
cup
##ruppen
##asit
egyp
bus
delas
hopp
divisionen
derfor
utgitt
handling
##jekt
enk
cast
beskriv
familien
##bart
river
university
##elp
yng
forhold
ish
disk
arbeidet
1962
1965
##iella
run
utseende
rost
bad
kvinnor
##famil
send
aut
uttry
charles
british
dri
universitetet
kry
##hjartbladig
bygget
##delt
plac
##usen
bern
brasilia
##enten
##iti
##ano
pu
sport
periodiskt
##rader
##rot
##skrift
brev
vald
##hoj
imidler
##bok
##uta
##fj
##lit
imp
##ikken
arrond
##fot
imidlertid
arrondiss
##liv
##ball
dermed
##irk
bom
pen
tillverk
##ule
titt
sesongen
insp
folket
##oden
##øen
##fi
mes
nadde
sold
nr
ont
wilhelm
##jarvi
##erad
cm
##ydd
svampart
rob
gif
inf
arm
svært
##bi
##enser
katol
##stroms
reproducer
trol
lamn
##spiller
dann
##ifor
boken
us
##isa
kallar
latin
##hamn
tilh
ljus
spelar
innehall
aller
##ji
seks
strand
cy
sos
kristian
##ystem
skiv
dotter
sat
kabul
franska
direkt
omt
matare
##skriget
befolkningsutveckling
partiet
south
egent
##bru
##fest
uppsala
1966
riksdag
sommar
colombia
##ordning
##oder
##stero
##ente
karakt
##iaceae
##ogs
fuktigt
dansk
##otten
##isert
##øya
fys
##emat
##wn
##unnet
subtropiskt
exp
medverk
tam
##cha
finalen
martin
##ev
##igheten
##iger
##edon
mand
parti
##tak
##ador
nast
madrid
178
spesi
##omyia
##kraft
startet
økonom
vers
indien
barrskog
tradisjon
alli
uppta
traf
bosn
##skaper
hitt
bag
##los
dagens
framfor
arrondissementet
skul
krav
james
just
##ckt
japan
reproducerande
##vert
prote
konf
sent
kustklimat
##opro
##skan
past
hit
fekk
sw
isra
tidleg
dor
studier
dip
war
karriar
##kor
##øver
trom
gust
columbia
vat
annan
##ugh
hill
##وه
fleire
louis
pil
##stid
sluttar
øv
##unta
framgang
provincia
##ange
##mast
forskjel
##vande
motstand
adel
fakt
177
norm
tett
##indlar
slutten
##cka
##itu
##igur
##adels
sønn
oversatt
bud
globalt
##uts
mestadels
mos
mountain
1956
herc
serie
cla
##iri
ontario
##mon
##pper
1963
##grupp
energ
ytan
hyp
amerikanska
fel
løpet
1948
##skraft
gustav
##histor
samtidigt
##ement
##ty
##sman
lys
##vist
##vig
##iy
kirke
400
az
got
##ags
fir
offic
engelska
##bas
santa
beslut
max
wor
lagt
##iste
ungefar
##eck
koud
tab
65
eget
lær
##pan
stem
vilka
mik
side
social
##bur
hjalp
1939
bildades
basta
back
##oj
vattnet
kinesiska
##hr
utgor
argentina
kre
##hund
elva
hert
fried
klassen
hold
skott
hamn
jud
byggdes
blivit
1961
##skil
##skt
sve
##bergs
jer
##rades
forfatter
minst
ze
fredrik
ali
##gt
olympiska
64
##alla
britiske
styrk
ytterligare
omraden
ox
##rov
##cho
lokal
santi
handel
##istisk
gitt
nuv
cro
allman
langhorningar
ou
krigen
##ingene
kart
300
##lden
##lov
menn
franske
savannskog
gitar
##ismen
70
jern
journ
luc
##fol
1958
represent
jes
ordet
opprett
kropp
kyrka
brukes
##usa
ibland
matt
loma
##sid
forbind
##mask
joseph
nuvarande
ped
enkel
1912
trots
alexander
inform
##isse
ker
vas
salt
deler
##jef
versjon
sund
##lund
litteratur
1936
##ions
##cke
radio
##det
hvert
kjøp
ledamot
belg
##oul
wien
kul
##ael
bost
johannes
djup
skrevet
##nevn
fur
særlig
##aggar
sab
##ocko
samf
santiago
førte
slekt
##tern
problem
##yer
stein
1938
rud
israel
tillbaka
henry
hatt
80
innbyggere
museum
##ocker
##staf
##back
##orten
chef
##ague
##stam
ordningen
##hojden
##way
dessutom
es
francis
flyttade
1910
makt
friidrett
not
##do
##agare
um
##ytor
queb
funger
vind
1957
varierad
orig
bou
1941
##ool
bergst
##jor
##sek
fordi
igen
formula
##elles
lab
mulig
vari
##isp
orden
ful
##add
##ritar
app
gym
tjen
##lek
myn
1944
hovud
##ovina
ordforande
##shus
##formen
uppstroms
horn
refer
dog
ran
beratt
studerade
##stritar
slatt
##fart
richard
1959
kanda
##erer
##isjonen
##nelsen
herceg
##olen
##oret
alp
quebrada
leon
ott
darmed
oppdag
smhi
anton
kallade
it
afrika
forskjellige
##yggor
jawa
marocko
##ju
armen
##jarnen
jab
friedrich
sein
spela
##edde
bygd
prins
##ye
farg
black
##spindlar
1918
storbritannia
##iforn
##skola
revol
kunna
##inge
1914
##ado
rabat
mare
huset
hyd
lapp
tvahjartbladig
udde
##ikker
punta
##inst
##føl
1946
##oper
1947
##oka
##gav
ax
##urt
vattenytor
alv
produksjon
##eringen
##oprocent
edward
##gren
##aris
sjoprocent
pap
inled
smith
##jas
henrik
ins
##skole
##cel
cat
eup
ori
mynd
vetenskap
minn
##ito
##inia
##smal
gron
sku
schwe
##anus
raknas
ec
fork
##oker
1928
hercegovina
gem
pin
medelhojden
vars
##komm
##ogen
vaxter
bosnien
riv
ara
tu
##ior
iii
##maren
forfattare
##plats
cam
ryska
##fte
sølv
debuter
##agn
rapp
regel
ledde
gil
league
##lingar
spilt
kas
kast
##ope
bot
eksp
livet
mask
studio
annen
##holl
godt
slapptes
##lipp
fylkes
1924
##arar
##ela
##system
1955
mester
scen
##horde
##hang
##jev
##wan
north
modern
ober
sanger
##øt
1949
parlam
##ight
avs
##bane
##organis
1954
1908
##roc
landets
nett
##ansen
##lom
buk
##out
psyk
ryss
saga
por
antarktis
1942
politisk
##ny
spe
midt
tet
verdenskrig
au
kjente
teng
fylke
##havet
##ose
silver
miljoner
##liote
behov
##oter
sall
central
konta
privat
territ
blod
##edes
gh
##60
##osten
tjanst
##ington
ain
##svaxtart
##ilis
sarskilt
##jung
##farande
bakgrunn
kvalif
##ulus
italia
garden
trond
victor
##ited
resultat
filmer
flesta
australia
cha
utover
punkt
##iere
##likt
bogota
35
akadem
nic
arbetade
moderne
demokrat
biskop
##avax
##fjaril
him
kjem
##førte
arrangert
##ideer
samtidig
neg
##rost
sovjetun
##bat
1919
1933
##edel
1917
1953
forest
gjerne
##øv
kanal
##staur
##klubb
astero
individ
##ierna
##rasjon
##alte
##hop
pav
bab
søn
ot
##oides
fiskart
stjarn
sara
1913
##essen
##fag
bek
ken
orkideer
bifl
##raket
slekten
1932
drev
1937
##aret
##fjarilar
nab
debut
tang
##skj
kraftdjursart
1911
1943
defin
##aljer
کوه
ple
##anen
flor
##øker
master
##oa
songen
anstall
historik
vux
##ckor
dre
dig
##film
øn
samarbeid
##iserte
##ville
mek
skall
saman
holl
programmet
##inus
##ment
stedet
##mester
##vers
district
##cy
##krig
lander
##loss
prest
malmo
##risk
arke
kost
1951
oft
##arer
fortfarande
##ellet
jack
##uba
bestem
##insk
slutade
langre
kri
provinshuvudstaden
1934
alltid
bestod
##cc
1700
kontroll
##fen
asp
foretag
respe
##vei
brook
1929
maur
##enner
##hora
desa
schweiz
bidrag
but
1935
numera
bergstopp
hojd
vist
astron
##ords
##espiller
algeriet
##gangen
hend
##inget
ersatt
avdel
##varg
innehaller
basert
sangen
##jø
nik
##lor
##30
ri
flyttet
avrinningsomraden
bjorn
forklar
mord
borg
orkid
noreg
1927
##ssp
90
kolon
##ni
##nat
varldskriget
dels
lett
hab
division
roy
selskapet
##ampar
gifte
gustaf
##partiet
konstnar
##istiska
##inna
##mor
##ennis
##oen
##roller
1926
varav
##plat
skild
##arken
mala
republiken
kvinner
tunn
##sund
dagen
orkideart
motsvar
##forde
delhi
##rek
angrep
maste
ovriga
1921
familj
##rent
delvis
overs
##zi
niva
##isme
##stend
##edd
test
aker
drep
eu
##spinnare
ishockey
##ulata
tidlegare
pier
avvattnar
##arp
1925
1922
##øs
ball
ident
flodar
restaur
utfor
1906
aff
varmt
##reh
##flyt
##ordes
##rys
##vok
##skip
united
##orf
areal
ole
##mes
dyr
rot
##chus
ske
samarbet
##rus
bodde
1907
student
kompon
slo
brand
biflodes
biflodesordning
behand
jabal
hær
fla
##iidae
ej
wh
1931
forskning
##ologisk
##sal
varlden
kallad
praktfjarilar
nas
##ony
resten
##onger
avslut
##dem
##ital
stab
svampar
grundades
millioner
livskraft
snabb
viser
##gte
driv
##spelen
##zo
##koping
ursprungligen
produc
##aw
inat
symbol
1905
anvandes
journalist
##star
kvart
##løp
32
fron
##iop
dvarg
russland
##wood
portug
latt
meste
saker
##lia
aldrig
arro
irland
exempelvis
iv
brok
falt
##erar
ron
##istiske
sign
##myggor
##ania
fo
michael
hust
1909
##samling
##ilus
1916
##hur
arr
##40
rog
##con
ledet
kej
stal
##sty
##zh
svenske
##illet
##delag
grupper
##fisk
utbredelse
##vend
tradition
nesten
ute
polen
##svaxter
medelt
gab
##mare
heller
##zar
hein
rub
gren
status
poang
##eth
kopp
##ylla
##omradet
##unde
arbeider
kandid
1923
va
dagar
kriget
viss
##pris
mast
stark
rit
fordel
osterrike
##ktive
melod
oftast
skole
##ots
hind
##rikt
skrift
##oda
tron
##mene
liban
##hard
##prod
spelades
finans
gruppe
##ict
gri
##enes
##onst
##fug
intres
freder
domin
airport
medlemmar
seinare
artik
##olia
herr
peak
livskraftig
##xa
##ude
stan
marie
tids
##sberg
bevar
internationella
##raff
likn
eneste
cas
snart
1915
liber
jarnvag
fi
##ugen
konser
##vene
cra
albert
landsby
keiser
relativt
fru
buen
##ike
tilf
##san
medic
diam
##ali
##aker
##elia
sjølv
anders
##kro
liksom
##aly
internasjonale
##gu
##erades
villa
##ution
##jektet
lil
nomin
##holdt
spesielt
##parasit
##onom
45
176
sasom
175
matcher
sovjetunionen
##esse
unn
idrett
brokparasit
belagen
brokparasitsteklar
##ega
jul
##ruktur
##hopp
varen
gammel
##mot
kroppen
##esen
##full
##ærende
##fri
kroat
wadi
brons
pel
kontrakt
##ute
1904
##sky
redakt
tren
erst
amerika
##stod
nem
ukra
wales
##arten
fc
gla
1600
teck
##ølge
offisi
lars
##iff
republik
##skapen
##got
tolk
byr
verksamhet
forand
forlor
lamnade
##korea
leve
harad
prefekt
##hem
##person
##urs
##own
manniskor
##ump
lager
bah
##atum
drag
##skriv
anne
##etten
folke
##eras
##rack
barne
##okk
fu
##une
##rets
gram
##atten
same
##tn
allerede
hjelp
##bj
##win
##itets
skadespelare
egna
##riks
nastan
ansl
tas
log
##akk
haft
world
enkelt
##vil
altern
sida
##isseau
foretaget
lep
##uen
systemat
mitten
##slandet
observ
gas
ill
##jorde
standard
##wer
##fatter
vide
staten
##loppet
ruisseau
##angd
dans
ore
rap
rav
##sked
##emb
bestam
vare
##sida
records
holdt
##wig
##esc
jacob
innenfor
##cip
øster
##allen
spes
avled
borger
##80
##iteter
arb
150
feder
##dar
opprinnelig
bjør
omfattar
1500
##kall
mosk
##hy
mass
##mak
##ringar
##slandor
fartyg
##tet
gje
otto
regist
prag
gjør
170
kos
magnus
##rene
arabiska
blan
visar
nig
utviklet
vek
##stav
mennesker
##10
##ophila
lut
ungar
major
vore
russisk
forsamlingen
adolf
datter
##cht
international
##omrade
##period
##holder
##ival
sankt
das
riksdelen
boh
kors
##ylt
##nene
##illing
tje
##ms
##ktene
yngre
##eleg
##ming
##ernas
##fjorden
forbindelse
##fort
##mens
##forening
rekord
1902
sik
##xamen
slakt
berre
tyn
matemat
avt
drift
##oende
ack
landskommun
gott
yta
lans
prim
grevskapet
fok
##aca
##elv
##ogon
innbygg
hev
dokument
##edal
##ransen
lista
sasong
kungliga
##ament
mør
##oba
anses
militar
##rogram
brittiska
karriere
hovedsak
##bon
37
ah
##blomm
avsnitt
##cks
cru
stader
##omet
begrav
utenfor
skuespiller
skad
##anga
forutom
##rument
avstand
##andre
batt
vanligt
##yld
lille
egypt
lept
dubb
##ttet
##terna
kinesisk
##familien
likevel
etablert
##raf
##col
frit
gatt
##fører
suc
uppgick
ghar
vard
skottland
1903
##bus
you
opprettet
##sjo
strom
##lats
orsak
##zon
##gruppen
##no
unger
##iellt
##itte
undervis
kirken
##aller
daniel
##aea
anda
##lant
gammal
soldater
forbundslandet
galler
champ
1901
##kje
byggnad
##urus
trondheim
##zer
flock
arranger
premiar
##vann
vuxna
publik
desse
semif
djebel
kombin
beteg
mi
comm
ju
##iment
##anse
##eden
##etes
glac
33
##ple
fug
##enden
artvaxter
skill
nev
regis
##21
##lement
##ktion
##jevo
utnevn
##oli
##engt
inspir
bank
king
boliv
##ringer
yr
##bra
poly
##asen
hak
lim
upptackt
##emann
sof
##ush
mj
gjekk
langa
##arie
foran
peng
byn
##mid
##anien
arv
##angel
##ppar
##slandeart
rød
##rikes
##hog
italiensk
##ales
##maskart
japansk
straff
satte
singel
kontin
kongen
##oe
procent
##lof
guvernementet
##muse
##ringen
hogre
støtte
##opa
1890
##chi
##kast
##ivalen
##gje
angeles
regi
femte
cur
hod
##huvud
bast
trich
##iale
kraftig
betrakt
dob
##nades
felles
fores
sjø
skick
uppdrag
annu
aires
##falt
##stads
##urner
sul
##havn
metal
buenos
bosatt
innbyggjar
utvid
point
troll
canada
kalles
##ink
enkelte
rov
funnet
##ologiska
neste
kommuner
##ivil
##mas
##ese
##itiv
fjar
darreh
##sla
laguna
valgt
nap
arbete
##anthus
døm
##reser
sor
##emi
##ista
lagen
tib
##unc
##sø
nan
dep
familie
atta
##otus
mig
dro
##yk
##ærer
##aner
medlemmer
ifølge
kok
insekter
utveckling
gunn
tio
fard
##spe
##okte
ash
##ands
##act
sosial
##emplar
stj
##sma
##oy
##omer
lyckades
##gick
##slaget
##kjen
emb
oscar
##pro
dub
##kester
religi
manus
org
aldri
liknande
uav
##ovis
lika
##ephal
orten
tung
##bre
##emal
sommaren
dv
indel
popular
figur
konge
##nor
##amo
brack
skot
politiska
gast
##imer
kla
omtrent
##stor
##olin
kna
##garden
##sburg
##uttet
##ifter
fokus
innsj
danske
lad
separ
##upen
##forbundet
bob
75
bebygg
sky
politiske
##derna
##vent
##iftet
massa
ryssland
arets
prot
##uda
lappland
##ces
klock
kloster
vitt
kontakt
dominer
jose
##bland
##stilling
hag
##arane
oppt
bevis
hart
respektive
seoul
moh
offentlig
##eten
##syn
##punkt
utvikling
goteborgs
klart
##kare
event
##rick
##ame
##tradde
36
forhall
##ovo
atte
1897
sjalva
match
800
forvalt
drog
##ingo
sveits
artvaxtart
veien
hack
utom
##minister
##ensjon
valk
regjering
brann
landslaget
tillhorde
1898
sentral
bis
engelske
##ften
sarajevo
little
utbredning
befolkning
utdann
lor
handels
isl
##field
tanjung
##ues
kampen
timur
##tera
ris
eldre
opphav
##bara
##sled
territor
hud
##inea
##inder
stopp
dvargstritar
tilhører
landskap
poeng
arroyo
rolle
uppfordes
##øg
##elses
divisjon
spelare
aur
stef
##ningene
set
##ato
fen
##shire
biart
nasjonal
##umenter
##gra
ank
174
##omyc
39
union
##iene
uppe
fon
arhund
ask
thor
betydelse
nordvest
##sspelare
syk
gras
regeringen
kunn
##rens
meir
dim
bibliote
##vant
apnet
sier
##ulerade
jane
lyd
##smannen
##kopings
konsert
regering
##dam
gresk
skriven
##ytte
##yth
##marker
##uell
pod
presenter
funn
pian
skydd
nils
##demokrat
juv
##unda
fli
##ologiske
strat
symp
##veien
libanon
jazz
suks
knut
walker
dur
##serien
lant
dekk
1899
fader
##stol
public
##ids
heinrich
skolan
beveg
slov
##odor
nest
tredj
##sne
tjeck
kore
rem
arme
ansprak
1896
alfred
jakt
situ
##lene
sud
##iang
##enta
##arnas
##ime
##nst
##uma
transport
tour
avl
drott
##dalen
34
foreningen
varandra
160
brom
##botten
grens
vanligvis
levde
web
##aph
ala
171
startade
##horn
skulpt
sesong
spelte
ferdig
##po
##emon
kø
grekland
feng
direkte
##esjon
bord
bit
sentrum
hustru
skand
##eda
svan
lom
##gjen
1895
manader
##ative
titeln
ljung
kirk
europeiska
verket
forsø
leuc
utstall
##ful
sjukdom
moskva
militær
olympisk
##vapen
monte
rollen
##rh
##unden
finska
valde
##inte
tittelen
vak
rym
indian
spelet
##ssk
##list
grande
##vek
##ati
eldste
##rast
pul
##tus
sydney
##lus
ettersom
medverkade
geografi
##øse
bracksteklar
beskri
wa
##osc
ges
##komst
marg
1880
forlag
##asp
last
##etts
##sons
##lie
trop
600
##dt
##sven
britisk
##kir
##mi
traff
vall
tsj
turk
##rust
viet
spraket
college
##anna
##ensam
lanet
olav
roma
##ørte
ingick
inkludert
##fa
tack
musikal
pierre
kompos
aten
bow
bakom
tolv
tyrk
hjal
kle
foddes
utnamn
che
lokale
sommarspelen
linje
tross
eric
material
##ryt
agg
ting
##ppe
statens
flertal
##ques
##70
##rest
tand
gavs
gn
mul
institut
##opus
##rattades
flo
tilldel
kamper
olympiske
ray
vansk
hil
ug
##svis
brukte
jeg
##alus
##ømmer
samfunn
##olon
##pert
##iket
##verd
mult
paverk
##oarna
real
dramat
nytta
##orum
##usten
##ape
##serte
install
##somradet
ganske
tun
musiker
##illo
##avn
##ugg
##marksam
cd
shan
##kam
lid
utbredt
##svampar
mong
##kontor
konstru
fos
sir
##gjorde
meddel
mate
diplom
beteck
former
seier
big
##rien
gjøre
begynnelsen
modell
uppmarksam
169
valet
tilsvar
systemet
cry
##former
##anes
mah
dari
##flyg
grunnlagt
##eds
##mod
##fab
##baggar
##ferd
fjerde
vul
vattendraget
##ui
junior
##pass
queens
nes
##ase
byggnaden
sørvest
fagel
##rip
hang
east
prov
##anning
flockblomm
invig
delta
##tiden
regler
antall
##kyrk
jorden
henhold
##yst
##asin
anvanda
##num
sendt
1893
yo
rut
anvandas
##elder
bev
arbets
##ations
initi
karakter
##ffer
jød
##war
laur
high
38
holm
##ivet
##utter
173
sto
starkt
rac
##albumet
top
##inav
skolen
how
##folj
##atta
##imot
kjend
##eldjur
##ksomhet
live
##mad
samhallet
##bud
fien
kopen
##uf
endte
##ativa
ving
chil
lis
kg
##alderen
##felt
elektron
up
##emot
##ther
margar
##ischer
##sor
##ical
##unnen
##ftet
##rup
##gs
##icola
svarte
bang
kommunal
1889
fotograf
1000
##iph
midten
kard
##tert
venstre
utnevnt
##lopp
vanligen
vand
innbyggjarar
tidningen
1892
##aki
##industri
historien
begre
ackum
spesial
##vagen
##asj
heg
##yllum
emil
##uz
##forbund
##makt
myt
##fra
axel
dager
##skal
betyr
filipp
nere
##board
vor
bart
trupp
1862
latar
##ois
##isc
hvis
vitenskap
kallades
1870
##vir
rosen
omfattande
##inae
strax
funksjon
##idium
##pun
minor
periode
sydkorea
tavling
1894
frukt
kopenhamn
artist
alto
irak
artene
pastor
##ikanska
##deles
opprør
inspel
parlament
##medal
special
##my
illust
tyd
bronse
din
##go
spelat
gemensam
##por
henri
statsminister
minnes
ludwig
spille
##nem
naturreser
adam
origin
##pet
##ison
fjarde
##ome
rest
##oz
komma
handlar
typer
energi
proc
spania
##ctic
naz
tving
lilla
framsta
konstant
##iell
##brid
dynast
##sol
bei
upplag
stig
jakob
india
school
##sbe
165
vei
nob
museet
##reter
mekan
##iserade
olof
##uca
virke
utbildning
parall
##skont
1891
##zhou
##kjent
##gas
togs
sterkt
tildelt
californ
##skatt
mary
ambass
55
##parten
ackumulerade
##sene
styre
viste
fotbollsspelare
simon
##uella
##kant
164
dia
tilkn
green
kommand
lenger
##tnant
##alia
grøn
##zen
foreg
heb
royal
studerte
##mere
##esel
gransen
barat
168
tekst
entiteten
sok
##olo
samtliga
##bak
utform
vaxte
##bod
elisa
dic
betyder
##test
##spass
##apt
lyn
##so
minsk
vita
indre
##aktig
wash
pak
##sbyg
##ifer
anvander
staf
##ary
##ckan
levevis
russiske
islam
##skolen
old
##umb
centrum
station
trøn
corn
stallet
may
dir
##mond
##sborg
##elin
uavheng
##hn
##dagen
##brott
##ryck
##banen
sann
lamp
nova
act
hva
ref
##idea
##ifik
sao
deltag
pek
##senter
##fold
##iets
behandling
##fang
##terade
lopp
##finn
tidigt
ekte
##idens
##ssel
##umet
kans
pter
konkurrer
hosten
##can
42
##lop
anled
##ific
opera
profession
1888
pur
finner
##kning
americ
##saker
oppl
sun
##tere
sjalvstand
stefan
dit
pon
aldsta
##kh
skadespel
1885
##asjer
sentrale
##kre
##splan
##skott
klipp
##siden
skjer
##lys
befinner
erob
##ky
##ava
normalt
felt
idrott
whi
visade
fø
doktor
##vere
bell
sib
##bour
brott
cham
##bit
arn
##spelar
##ørs
tida
##føre
fjord
##ines
##elsene
laga
bestaende
##akh
##ifolia
love
award
finne
##riar
##chy
##unnit
##sw
##icol
noko
forsok
frig
##deling
danska
muslim
religion
bruker
konserv
syl
diameter
##itionen
mit
spansk
brig
##bach
rø
mam
##blom
victoria
steder
##byggnad
bocker
kim
følgende
inneholder
ihop
sed
egne
vagen
chrys
coll
forlorade
graf
vise
##ipes
##skon
##sser
jug
byggnader
120
bergspass
kategori
talets
##edonien
publicer
##holmen
##leder
interv
kontroller
forslag
##haer
cu
syster
agde
##regionen
finst
kommunik
nm
##kamp
hvil
venn
##well
frag
produsert
48
fjellet
flott
##linjen
##nik
rygg
py
##sey
glas
klarte
spring
dist
dop
davarande
##ahl
##chef
kot
##skl
historisk
##mastare
ljud
##rover
ernst
##stant
##ssystem
##ifran
klim
##atene
saval
slike
bostad
suksess
teor
bruke
enbart
egenskaper
dron
utgang
##teck
instrument
moss
atervande
##lande
gjordes
forening
arbetar
forald
166
køben
skipet
##kap
music
forut
1860
dun
##riske
##uelle
nedre
##gaende
text
##mannen
##sforb
ves
hell
malm
dannet
washington
wood
##sack
dø
##omp
romanen
##eres
nun
spred
##acker
harald
167
omrader
viktigaste
troligen
47
carol
##mun
benyttet
utgjorde
pasir
enhet
##osus
##rykk
##hark
1887
gode
bulgar
scott
larare
##spelare
elisabet
##ppa
asteroid
lenge
##ordan
##sat
##delig
effektiv
##ره
##edøm
elv
##inska
giftet
gunnar
##sav
turne
politik
66
rapporter
die
##spart
queensland
temperatur
regnes
##olis
##øren
viktigste
pron
##slatt
##ration
gong
andersson
ski
nød
##rant
##ave
stasjon
49
##arg
hovedsakelig
let
bytte
##atar
introd
##laktet
konse
##huvudort
oc
upptacktes
##nande
version
tillgang
##itter
regiss
white
bris
tha
autom
##iae
41
soci
has
lee
senter
inntil
stadens
mog
cand
glacier
inneh
final
bukit
hap
##but
tusen
melan
isa
jesus
oh
antar
1886
abo
##verka
##adens
##ental
voksne
bolivia
1878
stol
##iret
jurid
dollar
##uva
##lans
##ston
meget
ud
##sutøver
##stiden
eurovis
skrive
solen
trafik
##vær
##olas
##taxa
##ligg
##lagd
##nende
172
##uri
tac
følge
##amin
##forsk
1884
meng
##satte
##byen
overlev
brukar
##ان
eri
faren
forel
acc
clar
okk
##arn
nokre
##inc
##landska
gon
##yet
effekt
lita
herrar
hop
hir
##ingart
omfatter
lit
minne
##oca
radi
wind
debuterade
##gitt
knyttet
afrik
forkort
##attet
rat
44
følger
alltsa
skedde
##emang
##agne
framgangs
ss
komme
design
kav
akten
allra
hotad
kronor
francisco
##chn
chic
##ards
metall
63
hoff
drottning
eurovision
mera
43
ts
hug
stavanger
zag
semifin
europeiske
advok
perman
lengre
##reb
regjeringen
##verksam
##osia
kungen
##repet
##qvist
##ifier
##ningsp
ludvig
smal
##departementet
snabbt
juan
studenter
prix
dyntaxa
turneringen
roller
etn
santo
brittisk
liste
nrk
trøndelag
##ophyllum
##ligheten
kem
administrasjon
jebel
jim
strøm
##iseringen
##stendig
føre
##rankar
oppna
svenskt
##orth
##eps
##ds
##reterare
sjoarna
mist
##anser
selskap
bilder
virg
klas
utloppet
aks
franco
mem
ach
stille
bjornspinnare
##halla
##eldjursart
jamt
orkester
##annsyn
scot
flav
hvordan
##harkrankar
1882
##ressen
pala
forsknings
##ami
##feld
##pas
shah
tekniska
##orus
##ual
sørøst
##museum
antag
varv
romersk
gjer
##vakt
egypten
brown
total
fus
##spar
cel
bolag
bygger
obl
##onym
emp
fotballspiller
##fallande
##ninga
plant
lon
varldens
##menter
gymnas
##sand
flygplan
romerske
hjel
##xi
##sats
fry
##endom
##foret
norska
hjul
produktion
##ics
gronland
lage
shu
arthur
eid
fjorden
raskt
prad
ross
##riska
##oria
##avaxter
fro
munchen
cab
sprid
eksped
asia
gymn
diale
guy
##log
bakgrund
sitter
kritik
72
##amerika
egentliga
fann
mykje
700
cop
ursprungliga
disp
platsen
##ti
beseg
sula
##rarna
stortinget
hann
hverandre
##lic
##yi
##rona
vig
##rackligt
serier
##eme
høyre
steph
##oi
borjar
##atorer
##idia
anth
46
##sattning
forvar
1881
forsv
geograf
mir
##oslav
##enez
janeiro
dens
##ilia
mangfot
erbj
producer
ledare
serv
resul
smak
media
71
dos
data
tapp
ordin
##bad
1879
##somrade
hoga
elven
##ates
sterk
reiste
##inand
western
bildade
moderna
##bruks
budd
kyst
bøker
##risen
pula
miljø
mcc
skane
mente
nordlige
1863
##skje
anger
##anc
bam
medal
52
harry
vietnam
kysten
stilling
prop
hermann
gle
##elius
##mera
tele
pave
naturreservat
had
utsatt
vanster
bind
oss
ال
nod
leker
elever
##føring
vekt
funktion
beroende
##plassen
##skij
osm
##mant
derimot
andreas
malt
1883
chal
struktur
mangd
sap
marevaxter
rein
##stone
overtok
antonio
##sle
kob
california
redus
sus
##mossart
tunnel
dessuten
##vika
steg
phou
line
sannsyn
##rix
tengah
tillfal
representant
formann
##holms
bedre
##ved
##icum
##spunkt
##agog
##urer
slottet
##gatan
prom
##ckte
tør
mynnar
hockey
##chester
hamp
arre
berak
arch
resultatet
arts
##avaxtart
bygga
##yang
bladmossart
harris
epis
##gjort
##uck
dott
prast
69
tapte
##lare
type
show
sporsack
høyeste
##ungen
tavlingen
fiske
##antarktis
sach
saledes
france
##ao
hens
##ido
sker
##stedt
holls
stiftet
brad
##emark
sporsacksvampar
ext
73
ama
koudiat
fylkesvei
##flytt
skandinav
ech
##iji
1200
##øper
51
militære
##ding
lades
##emente
kull
foljd
##rac
##boll
##bebygg
kallor
ør
drept
ferdinand
1865
##ylus
eig
rike
etiop
sr
bass
##jk
trans
cord
##retær
valdes
kaliforn
biller
khan
##omat
ler
nasjonale
rudolf
##ves
1877
pow
##jak
##ory
vilhelm
##ornis
1875
battre
##inske
vere
##zan
arbeten
pere
nøy
##stud
250
inflyt
##inter
amar
##rof
viktige
bør
##lista
dennes
seri
høsten
serra
##rert
sørlige
parad
smaland
qar
fyrste
##umen
marknad
##aksjon
##ipend
blo
heile
nak
##skold
##ampa
contest
pabor
team
##iler
kommersi
icke
jung
dong
##lot
##skriften
strateg
163
kongo
prefekturen
##legget
debuterte
##istrikt
##manland
takt
kalk
##gotland
grekiska
orebro
##isch
esp
tings
omtal
##ов
forh
club
pad
alm
allmanna
##vingene
anvande
uppkall
##nan
stral
syke
erov
grundade
##sens
dersom
myndigheter
##avnet
##biskop
##fora
##iserer
skriver
law
##beck
mongol
titel
gate
67
sec
##latt
eien
##ligheter
##oga
##tein
00
hører
malet
##ares
def
bygge
##otum
##usive
##cin
linjen
avrinningsomradena
kanskje
starten
##itat
##stedet
##elden
doc
josef
62
roda
samlet
stafett
lanser
##kalt
##sidan
center
kapit
katolske
##egaende
gutt
##sag
organisation
tsjekk
brisbane
##spun
57
turist
slog
meller
møtte
pulau
##mund
franz
nominer
##hast
chap
frederik
68
##gara
lib
##brun
##escens
pam
ola
##ension
she
elev
norden
kanalen
##uh
##instit
##iensis
sot
forsøk
miner
marevaxtart
plassert
brdo
makten
øver
##rivil
assoc
##atem
uppf
spen
##etta
##orm
##aneh
##skrifter
drabb
1874
##odon
forste
anal
ene
beirut
ivan
koping
american
helg
klassisk
larvene
##rey
sri
samarbete
##spolit
begrans
##rikk
risk
##otyp
##ningsm
kvarter
##du
tw
##egg
bong
information
spør
seb
##bes
##agna
##elvingar
##riket
##ih
reserv
ønsket
ledning
##wald
petter
kalifornien
##ennene
nep
aud
##ktes
##rollen
inc
betydelig
utstyr
emot
##sforen
sommeren
chang
beat
##uga
1850
bergsked
##ivt
1876
patri
56
lokala
aner
betydning
dend
correg
##dan
ringmaskart
oleander
##eman
##atoriet
pall
lot
kroatien
##idan
##tatt
##skomm
##abad
##dern
85
ungern
marin
riksdagen
utn
##vide
##biner
lago
syv
##rea
individer
##eles
wat
nhl
mennesk
##rata
paret
krimin
orm
direktor
aqu
##sep
øk
stadig
astronom
##ask
emeller
##skaff
skapa
mangfotingart
vanskelig
emellertid
wolf
hodet
##lost
butt
kunstner
utnamndes
##bott
deg
front
##øyene
skillnad
nordøst
juvelvingar
tyder
inklusive
##utning
pradesh
ensam
floden
flagg
nio
siv
balt
abu
##lah
##hets
storm
mats
minister
uppskatt
##iah
element
ecu
##yph
kejs
utkom
civil
za
foreld
københavn
rang
utgors
53
beskriver
barcel
kontor
##amper
##rym
54
##optera
eftertrad
reform
het
sunn
medeltida
gabri
tilldelades
##imus
socialdemokrat
venez
peru
sikker
sonen
##terte
bent
74
hæren
obser
##eli
1871
130
1866
medis
ik
##itten
fav
valgte
infl
##marna
##lip
viking
arkitektur
melodi
##ygt
utsags
##innan
varldsm
##varande
lærer
##ophora
##olax
vinn
avvattnas
##skat
##antus
##borgs
##festivalen
døy
##uras
inrattades
rus
skre
maler
skrivit
##aen
##lu
corrego
##gi
fan
greske
flat
revolusjon
mojligt
exemplar
##omus
##sang
spin
##ardo
##olonth
daremot
melolonth
##bom
socknen
ens
profesjon
nordvastlig
kari
lord
kalmar
darpa
##chia
##esund
##larna
##yx
##19
##jat
##assel
formen
parish
##ogne
unga
stang
foljde
assist
vanliga
italienska
1864
historiska
kungar
sogn
tema
gur
høyde
torn
##ship
prosent
penn
sank
farger
marks
lew
eier
##emer
##alam
serb
motiv
heder
utgjør
##lager
forfattaren
58
slags
mellersta
1868
##omraden
##igg
jones
##setning
fører
konstrukt
##teg
lagre
skop
cle
ytt
rey
finsk
##klass
klok
spelt
pyr
##ioder
isol
dekor
##serna
sagt
##cos
skepp
162
##otes
##sken
1869
original
chicago
makedon
دره
lovfallande
oarna
castle
##iral
trolig
anat
solo
endret
hyl
overfl
phyll
besok
texas
imper
oppdaget
pic
nikola
kandidat
fjader
sakalte
eksister
##namnet
holde
varde
cruz
##urn
depart
costa
##fru
svarta
aterupp
italienske
samuel
town
##ollen
##berget
##ettet
##yla
##agus
parasit
kapell
marken
tills
gruppa
##ods
lenn
verksamheten
##iteen
gom
##js
ela
flag
##slin
sette
konfli
color
atlan
##livet
ovre
##last
##sprogram
tax
skrifter
hundre
##forhall
##svag
pred
tredjep
vanleg
##ieb
##farg
##igan
hemm
slutligen
sammens
tidiga
runde
##kret
historiske
compan
initiativ
seger
1872
##platsen
artiller
59
hipp
1867
golf
##fo
stjer
##menn
sofia
##yrer
##fard
##forsamling
invigdes
gib
para
##dis
1873
telef
napole
time
##vak
##ads
hertig
orn
sadan
##bolaget
##sto
wilson
##arina
##vap
spanska
dagg
utford
flytta
##ello
140
##lemer
heim
johnson
ecuador
##rel
melolonthidae
oppført
sprin
##ledare
159
vokste
##vaxt
johansson
spill
krev
##aterna
deira
##ningens
fjarilar
110
arne
##ows
baker
snar
##fon
styrker
##gjeng
høyere
advokat
lokalt
##oten
blomster
rag
##backen
ribe
one
##ussen
1861
sats
prisen
ager
tenggara
flert
milj
##alo
informasjon
rand
dokt
aleks
portugal
renn
##sbl
##edom
variant
invol
erstattet
alternativ
varian
##avet
peder
dahl
wer
##don
japanska
utmark
##systemet
##asan
mannen
bull
##bc
parlamentet
ce
dekkvingene
driver
lanka
##faren
gat
zo
bin
##adel
starta
young
lengde
vo
priser
normal
fulgte
skjedde
##atisk
##liggande
##ulatus
grat
morro
dubbel
##landsk
permanent
kak
planer
##com
oversikt
enten
billboard
egg
drama
alko
stadion
abra
##chel
varme
##itor
##strand
##andena
##sko
fritt
##yggen
fær
##rekord
vunnet
uppgift
##iku
##bygd
##ums
bonde
artister
tip
##sha
fremst
vac
avvik
tider
inre
halla
finansier
williams
##program
flykt
nilsson
anlagg
edvard
##leis
biograf
##ikal
##bury
skargard
barcelona
##18
alg
oppkalt
planet
##jiang
##stal
##ulen
##osh
##ege
##hvert
middelsst
sasonger
kristne
##ocarp
##valg
##edet
##dad
myndighet
beij
##iansk
##ili
hertug
low
##stat
reklam
arrester
vice
savolax
##vas
##akter
comp
##uper
forsokte
grod
wall
snak
fog
bjørn
gent
##forfatt
guatem
vent
##zirk
##yan
psal
##renn
##umin
pom
maneder
lem
canad
omd
##stallning
universitets
hitler
1848
sjef
##ularis
inget
landsbyen
##nelse
spanske
trett
##iki
kryss
utred
webb
ledd
##hoe
myrten
##vald
dh
sandes
skrevs
feil
historiker
tillkom
skopje
størr
guatemala
ria
parken
water
##xt
1858
dram
erholl
underarten
jacques
##aran
vend
##iland
hob
##stift
##aktor
nusa
vunnit
formel
##mea
folkrak
jobbet
jugoslav
sound
##grad
regnet
berom
##jal
##ellus
forbundet
##omycetes
##konkur
##konst
flyt
kum
##ikan
##di
karn
pronotum
kott
skold
regisser
dhar
neb
##cen
##lok
##agon
korte
##urder
forber
tavlade
menneske
exped
hvite
##illes
fabrik
##bal
##verg
folkm
kontra
tibet
##zab
framtid
antik
fiji
senaste
tillstand
##sjt
flest
linne
gis
##tekn
katal
opprinnelige
##vikt
torel
##rand
undant
##ilien
positiv
tjeckien
fn
##litter
##unst
flygplats
scien
amt
##ctus
oar
##aro
##dera
##bladet
filosofi
##ove
ersattes
mall
flam
palest
##avling
organisasjon
trag
damp
##ytning
societ
##oke
900
eiendom
ansatt
cit
##kas
infanter
ansag
##osoma
##ernes
##ckel
flyttades
##ckning
##bs
##bolag
rug
luther
##ble
##kand
##grens
crypt
musk
1859
nad
##ademien
##wesi
arist
##viken
ay
dokumenter
##inson
fris
uttal
ukraina
sac
##ai
nedan
tempel
tub
##ylor
##skrigen
walter
bapt
chah
##atis
nattslandeart
nordmak
trekk
darlig
filippin
visa
##rane
##issen
projekt
kolle
kommit
bergskedja
##janst
##eler
jesu
extra
oppf
range
eugen
skalbaggar
##asi
skivan
honor
manit
vinner
polis
arbetet
##uden
julius
hellas
arena
kommunist
76
##sporter
offisielle
ther
nordmakedonien
gjenopp
out
blues
nærings
mandat
kinesiske
myror
atom
tai
##skop
grenser
populær
bygde
sekund
##ero
helse
##shov
likhet
beijing
##kann
lei
friidrott
##aldern
million
ogon
##jonen
##ills
##samlingen
##iddel
haug
##ray
frihet
domingo
##run
##eira
##svenskan
gord
prost
nederlanderna
nordland
##acken
##zak
forfattar
dato
human
vass
sulawesi
mw
##ijan
jackson
##snamn
##emus
skriva
ling
bisp
##æren
kroner
økonomiske
pant
hay
seder
jun
##sjtina
##agar
akk
meld
typisk
skola
spindeldjursart
bokstav
økonomisk
fars
kub
korea
finlands
øvre
##skom
reservo
gold
##eton
##oro
##erus
grasart
solgt
##bla
malv
guinea
koudyet
lære
francois
##lex
brach
99
1300
pont
mill
kret
##ktig
magnet
direktør
kvalster
##urd
karaktar
61
##beg
prog
saldes
tilsvarende
##rater
oppdrag
ng
##elis
jr
hammar
døydde
later
nationella
95
##aton
isla
studioalbum
krets
huvudstad
press
plassen
77
grunnleg
pjas
##stolen
##kort
##isere
lands
frivil
kent
153
##opt
innsp
opt
elisabeth
utbygg
plassering
##ephalus
alkohol
piz
krigs
stri
##foreningen
monten
##belt
ytre
##iven
##low
ivar
oblast
foljer
akantus
tig
##arm
estland
##sim
teksten
cyc
mim
##oken
##lanssteklar
trum
nordiska
syrien
madaga
zagreb
lunds
bulu
kli
konc
nasta
##skiftet
##sbygg
##aux
botten
reise
aph
##kvens
bengt
##vens
forret
##onde
khor
##rium
malar
##pre
hotell
bjor
innsjø
vlad
hat
##angden
evangel
##nest
78
1857
##ianus
##amento
##ubile
undersok
##forsvar
ansags
altsa
##ped
##skydd
open
betegnelsen
etablerte
spekt
tilgjeng
bolaget
bomb
matchen
tagit
arbeta
antingen
156
storting
##rah
1400
##onsin
skatt
##steg
madagaskar
##atre
baserad
yrkes
skid
omgivningen
examen
forbatt
modellen
tenn
særleg
uppfatt
sadana
##ophor
1830
company
##tag
sykdom
##ordin
erkl
##esser
sider
frid
philipp
darah
##yrt
drygt
yang
komed
hek
professionell
fril
##oly
ungdoms
vetenskapliga
bilen
hvorav
patraff
lock
finnmark
klima
mork
##alpark
teori
inledde
lob
ruf
betal
hansen
typen
##aman
##offer
beach
exper
##eldig
maskin
tittel
botan
##idi
##ume
##mis
##ologen
semifinalen
innflyt
##altet
vasa
analy
##imeter
bea
##irektor
munn
athen
##sblomm
##ular
##illverk
##kins
fak
selve
scotia
kyrkob
natten
betydande
##imb
møte
##strid
modeller
malare
guvernor
separat
##yre
monteneg
nordisk
tjanstgjorde
morg
##otrich
lux
##hag
enheter
##rins
tyng
byens
##bandet
##bek
helst
mansk
avlade
haw
chlor
deltak
##ites
mottok
##hai
##phia
konkurransen
augu
intresse
kus
anvandning
##kreis
##kvarter
##agua
##sdal
##dyr
1840
nominat
##iør
trebu
cr
##pol
states
virk
##erto
chur
manitoba
##ando
82
kairo
##musik
##kommun
##spelet
sannsynlig
##rock
##oto
dry
88
##fs
bydel
hyper
sierra
##litt
bebyggelsen
søster
precis
sande
daribland
erke
forster
pengar
##iffer
dronning
gy
portugis
##atern
lod
ambet
mort
dyp
##listan
maxim
##nare
viken
##ryp
brist
##rige
slappte
løs
ribeira
##oki
bibliotek
##vey
##amerik
squ
handball
damask
priset
##kraftverk
##figur
pans
jens
brød
utvecklades
hette
plata
redaktør
alvor
##apa
mr
##shopp
occ
konkurrerer
valen
reger
hogt
##zig
skapade
hamburg
stammer
utdannet
inrikt
orgel
talen
##frag
##elva
rekna
verkade
bandets
strang
##onis
snack
pip
wang
##vendig
##juk
lill
##vt
varia
##iation
##abet
##grunn
##iane
singelen
varianter
nedb
vestlige
grensen
rim
nue
trakk
anti
##nis
sakerhet
nominatformen
sloven
fardig
##bildning
theodor
rektor
84
syft
##fiskar
ever
lug
avse
diplomat
zar
gross
etterhvert
filip
##bare
utga
federationen
damaskus
eh
motsvarar
forhandling
##agt
##mil
tank
knapp
##ummer
departamento
##12
152
fored
fattig
##ifisert
german
##bell
conc
##avik
##kont
delarna
##arus
##tar
fylket
##kal
samle
##sval
uppgifter
officiella
1856
79
##vetenskap
stallde
lade
benamn
saken
singeln
1100
politikk
##ipennis
vera
registrer
omgang
##jes
princip
kopte
##lyst
##iba
personlig
utviklingen
supp
sz
isb
pit
kvinnliga
filosofie
valkrets
vii
##su
naværende
medaljer
utmer
##essig
nej
##moss
##ilda
parasitflugor
chi
tjeneste
##smil
card
ellers
##reformen
ført
89
myc
merc
##bul
##egard
konstantin
dirig
antarctic
utøver
##rud
befal
asteroiden
smaharkrankar
##allt
##kong
##endet
skiljer
agu
ull
kvinna
##agu
play
##pool
overfor
##brudd
fragor
group
##verks
##æring
mesterskapet
155
1855
maten
bert
##iserades
##uelt
terror
##isera
holly
##aya
veckor
##resident
avheng
house
klasse
mali
doug
attende
lamna
sic
ment
##ance
stund
florida
buss
napoleon
1852
##usal
##rodukt
bond
utdanning
oppen
sucre
metod
##roph
rose
rene
##inas
##iers
##rande
jernban
kanon
##inde
igenom
skade
##obius
kristiania
beskrivs
##sklubb
myrart
sterke
##imir
skøy
##apest
egentligen
viv
##lyck
taylor
##cupen
suva
herman
sangare
##utvik
minuter
forhallande
##gerne
wol
skreiv
astronomen
##ylon
miljo
##elly
kapp
##atra
oppos
##banan
warren
##aket
dator
##vinsen
kungariket
##edlem
##arius
##ialet
##anj
forbud
rosa
##jordes
organisasjonen
box
fullt
##verksamhet
konfer
scha
mut
reich
##yttes
festival
wik
kristen
tum
statist
disc
kjøpte
termin
noter
tror
##esa
dominikanska
##illi
##fron
kanske
##svall
innled
##arien
roger
##hea
##sjøen
##innen
omfattade
##iot
begrens
kyr
burg
get
philip
##perioden
##riere
herrarnas
medborg
##uld
fremdeles
##ante
##ellene
zealand
##ener
uppratt
høyt
tiz
friidrettsutøver
ifran
from
ena
##ahr
folker
tvingades
##anne
barnet
##natt
gabriel
niger
hoger
##idar
##skor
##endal
esc
with
##spunktet
##gift
##grupper
khal
bark
kyrkja
budapest
dru
rysk
hong
##omi
champion
framtrad
østerrike
grac
apen
ki
trin
kongelige
##strøm
blue
etterføl
tradgard
##ørt
omfattende
hond
ribeirao
86
fack
ytterligere
##resent
##elserna
##jades
premier
bun
gavle
ip
##ury
net
fylumet
dc
##visning
styrke
abd
rymd
forhind
misslyck
igar
##itis
##samma
varfor
forskj
kalen
##ssam
gruppens
##ukket
byer
bygningen
dalarna
##yah
83
uppkallad
osterrik
1851
sekunder
street
polsk
kyrkans
begreppet
kvalsterart
boy
sedermera
valget
leir
klub
moore
forteller
hegy
poet
158
kjønn
romant
atmos
tromsø
##onoma
##arch
forlot
syfte
psych
kvinne
holder
kallat
umea
hovedstaden
jonas
mach
arhundre
kraftigt
##finalen
centimeter
##nus
begrepet
utrikes
lun
svt
midler
cos
greve
hoglandsklimat
korn
utrust
##halv
nederlandsk
##kopp
monark
jarl
viktiga
verkar
monster
posisjon
##utionen
##yrkan
foraldrar
byggde
vurder
##bourne
kompl
sags
shuiku
landst
pent
unntak
ungarn
verdensmester
sager
perth
resa
lakare
eva
kuba
vinteren
organisationen
allierte
fenomen
##alven
elektrisk
basket
snackart
hurt
##naren
vulkan
hemma
1854
tatbebygg
vanligtvis
96
ath
##antha
aer
andrew
zeeland
##klubben
##edia
inner
##uellt
beskrevet
fengsel
lagene
okade
cri
stann
retning
skyld
fac
##anan
offisielt
##ei
sno
##mur
##ovic
##oslov
##adene
##rede
innsjøen
makedonska
larsson
kenya
røde
planter
blek
anim
publikum
##ibliote
##shall
populære
##vnt
portratt
konflikt
flockblommiga
offentlige
fageln
roth
##sere
hjart
jas
##bridge
arabisk
riviere
##aeus
87
manchester
arlig
rhod
inflytande
##avdel
officiellt
plate
##iev
##ار
##row
vorte
sendte
##bana
##akia
154
##mest
##fran
##aco
integ
sort
##skript
sachsen
chen
##yret
##elsens
great
vold
##ynt
konserter
boka
nit
##yen
kenn
##kul
##lever
konstit
##eslut
alber
igarape
##revet
##formis
prøv
##vart
##kkel
overgang
##16
bund
finlandsk
tennis
stylt
ix
manad
hvit
internasjonal
slakten
stadsdelen
will
ortod
##viks
##tain
kullar
1849
trod
##kyrka
pand
##wi
produkter
##mord
##mass
stater
landh
uttrykk
##skade
micro
haller
kannet
sens
##bank
kraftverk
aterfinn
bronsem
##fallen
presidenten
andreplass
country
inndeling
inng
##sfjord
fern
##lea
science
elfen
kyrkog
##wart
##krigen
nel
##ells
1853
grim
upphorde
##maskar
jobb
bildar
bakken
##vants
hevdet
##tjarnen
157
tatbebyggt
##yting
meddelade
passasjer
byrja
fordelt
##uster
##øve
utvidet
sit
did
lie
sman
##sfisk
marit
dømes
##medalj
pavir
##orh
anklag
##17
##pson
amph
otill
##rie
tros
bac
##vad
##forhallandena
##issa
nich
vr
forsøkte
##ranse
##ophagus
##fugl
jama
autonoma
cupen
kapten
kritiker
vinna
coc
koreanska
anlegget
##itioner
piper
kyrkobygg
syr
reguler
##esia
giv
lavart
mistet
foot
avsluttet
sha
forhand
##sna
##yder
tvang
good
mete
teknisk
##zel
rester
fastlandet
##usk
hoh
utført
oppret
interesse
##uela
spelas
rent
stro
##nere
sammanhang
##skild
mørk
cav
digit
kommet
mission
##real
atlant
##usalem
jbel
gamm
naturen
fortell
elit
rank
##snes
generelt
menar
levnad
##endørs
lewis
salde
##sdag
kanadens
##sgatan
##ønt
varierar
98
##eti
##parti
emer
kejsar
songar
##rul
indust
utslatt
##ogae
##lak
anvants
mob
##icornis
##ieg
key
##fabrik
##fallet
bestemt
##baltet
ff
magasin
##iflora
aukt
##arez
##ytter
timmar
##angare
vokal
##fast
militara
##enne
cont
atten
montenegro
ansatte
underfamilien
internet
jamtland
allvar
bulg
skapades
carolina
92
kod
##tek
##ekan
##ence
call
##quist
nick
##øder
studie
mastare
fangelse
bezirk
spillet
banan
##nd
##omrader
reakt
branden
vib
tver
##bajd
kristna
##loc
##etus
##ryd
lop
jerusalem
##medalje
fat
desig
kated
##ukk
##hatt
krim
##ving
##atorium
stasjonen
##alan
ekstra
mottag
##ophilus
urval
academ
linjer
##osi
tyr
##ungeb
##uft
hals
dvs
##dra
##11
jiang
charlott
##dyn
republikken
dublin
tappeh
territori
overgick
væ
avtal
vegen
valdigt
wu
diver
deltagare
##via
##smuse
bure
oversattning
pir
pac
ordfører
omtalt
spelaren
jamfor
##shoppor
97
scenen
day
hjer
fair
##kol
aktivitet
davis
bys
styret
road
##losa
speciellt
##yeong
avdeling
transporter
##jus
##ellan
dvd
ombord
hamil
publicerades
arida
##riken
muller
stabil
liver
jør
##mane
##barn
motsvarande
cec
reserve
amazon
##sbruk
aterfinns
agare
zam
marc
iris
sluttet
##aa
forlang
aktenskap
trebukker
avis
sovjetiske
service
ledelse
gjelder
##bror
perioder
bolig
representerad
##arl
kamer
telemark
forsalj
valle
rig
##yin
aland
ledande
besø
##jekter
##icip
kardinal
forskare
stemmer
undantag
olje
christop
##atak
preget
##ikon
berøm
##atser
quad
barndom
radd
ahl
gly
sult
##ktioner
##ystemet
forbj
vanlige
misjon
problemer
##vall
overra
sli
buddh
musiken
vær
##arder
kaptein
dalen
løy
##spill
##leh
publicerade
representerade
provins
tres
tillat
##ogel
opplev
georgia
tøn
harstam
bestemte
intervju
renover
synd
##ckar
##fartyg
upphov
##alli
ender
himmel
##kysten
##jing
saknar
sarbar
heilt
tokyo
thailand
tir
gett
##anni
sikt
sher
cens
##iserad
##eger
rattigheter
##nevnte
musikken
kastilien
xanth
##ygger
ub
##sin
smitt
ansvaret
##estad
tysklands
ranun
##ission
utnytt
dekker
##landske
gjeve
internationellt
sannol
renner
##enfor
##estan
genet
gilbert
##holde
teatern
stick
affar
detaljer
antennene
hier
##yne
1814
##fik
diskuter
sociala
##15
##filmen
narings
nominert
##icer
kjær
broder
sax
islands
##tering
bereg
93
mine
##rettet
brat
landkreis
omradene
michel
forsvaret
##meter
cher
versjonen
dater
##made
domstol
praks
kjende
demon
cacho
##ikkel
pach
##inis
planen
##idus
##olag
##ssons
heil
palm
##ych
##assa
##kultur
hogst
gad
##rap
honan
##eborg
kjell
lof
##ocera
siah
bayern
bøl
elect
støttet
##shand
##lander
elfenben
baserat
private
##elm
##bottens
##slagen
##unga
##jande
##givare
beror
ces
orienter
undervisning
avslo
orth
tradisjonelle
stadsdel
brother
wild
reformer
klimatforhallandena
upplagan
gum
##aust
klubbens
søra
avskaff
sankmarker
møter
utgrav
##ifera
##ikar
kommunerna
lignende
samfunnet
dokumentar
sebast
##atør
##økene
church
sprang
egentlig
##vare
##jam
paven
olj
honduras
hamilton
fremste
debatt
innført
his
parc
guyana
etiopien
vasteras
maz
##asitet
partier
##arkite
stycken
texten
##agh
fox
amster
monument
kurd
##bruket
annon
##ireg
fadern
##kin
intens
##smakten
forbi
##filmer
amsterdam
forekomm
association
##utan
schiz
##byggnaden
##akes
##viste
##hjem
xi
##pur
genomfordes
foremal
agder
94
##iano
##wick
piano
##edy
##asia
##nt
virginia
hammer
systematik
kjø
puerto
##tz
mener
##kanten
##medlem
representerer
1847
huvudbaltet
handlingen
petersburg
anledning
hk
##vari
flockblommig
##atret
care
manu
metoder
varldsmaster
bagdad
starka
##stj
dum
##ough
##oua
arkitekten
rok
synes
japanske
oued
##ryn
arkiv
kilder
scar
##ki
##ield
##shuset
arsak
##opel
##icia
vrh
bedri
flate
representanter
##uning
officer
funnits
produ
anser
nærheten
##laggning
fortsatta
observer
##alpa
projektet
khorasan
introdus
utok
angrepet
stipend
1838
main
howard
##zy
banen
bjork
plag
##wich
say
##høy
##skad
oppdaga
tronen
anstallda
ow
##orda
motte
1846
oppgav
##leks
jin
vakt
##hoven
levande
prosjektet
referenser
dich
tann
##anta
##valget
gala
liter
##vania
jav
##idd
osterbotten
##ublikken
centre
##nia
##aspis
guer
absol
##produkt
noksa
rapids
##fred
mening
uttryck
##ruz
##løpet
##ttes
korall
glad
gregor
##eby
arbetat
##ction
liverpool
##apar
tala
bøn
tranare
sja
##right
tob
joe
veget
forestall
##uro
##shan
##wang
##inidae
tegnet
fødd
kombiner
##ogloss
melbourne
buttu
røy
plast
##faglar
antas
aar
##hein
jurist
##edalen
torg
fløy
##eve
allmant
order
##elberg
##kelser
bonn
drive
cachoeira
##forfattare
varmland
narmare
##mers
produsent
schmid
prefektur
mira
strav
fakult
skarab
##jinga
##stilt
##urser
høye
##cens
teknik
##yrus
##shavet
utgavs
stru
glav
championship
##chewan
overført
alan
avgjør
damer
##endron
##alisert
##leve
##oven
kinas
##svalet
sard
##uge
##enda
cay
##maktige
##hallen
reservatet
raf
uker
##wall
way
##iten
benam
slav
fing
svav
hastighet
stanley
sydaf
ende
##ovac
brunn
##oft
rica
saskat
##cu
infordes
aik
##malm
##ique
##mater
lokaler
##idion
koppar
civ
komment
ostantarktis
##jene
kris
bortsett
listen
oppd
øyene
ordinarie
vack
overg
##vision
##fød
brid
##ogaster
##schef
##brand
1842
saskatchewan
mans
djib
##klart
sprint
rolf
sammanlagt
tjenest
##forbind
##uy
oversett
tackt
##baijan
bens
mix
zh
##oman
##havare
oskar
##sledamot
moren
dick
partik
begynner
##liggende
anom
trafikk
night
stallning
cell
##ukas
marx
phyt
##zj
cin
##amal
##eks
##itus
gyll
utforde
##spor
##ient
fotballspelar
inspirert
##valet
##øret
##formet
kvalitet
douglas
##abil
mynt
utifran
##spektiv
tegel
inde
##14
cerat
normand
##vinn
##bot
##asje
elizab
danner
fig
##oo
##usjonen
##empet
økonomi
telefon
trip
uru
##dens
##arbeidet
aktivt
tiar
regissert
colonia
internasjonalt
inbord
##ømme
rese
##haf
149
##partement
viol
trykk
##lagen
taiwan
##rare
gula
euc
##stens
rib
kongens
djibout
medeltiden
srp
forsoker
politiskt
pedro
##høg
amnen
tatort
aterigen
hugo
belgia
gods
mojlighet
mess
rust
kraftige
stiftelsen
pahar
clark
leop
vie
##sjuk
huvudort
##amat
partiets
stone
hollywood
1844
brian
katolska
##ungebin
##ellidae
beho
apost
inleddes
hakon
estero
pha
##lers
leda
signer
win
hoj
1845
turnering
##skaps
jordan
kollektiv
cli
strandlinjen
##skilt
favor
##slet
tidsskrift
hurtig
gjennomsnitt
kyrkoh
konger
reste
ink
spra
berget
østlige
##emar
doda
##inata
##entlig
storlek
##gras
##biller
##ittel
snø
##ephala
liknar
vd
frederick
korsblomm
stoff
firma
teolog
offentliga
##omia
diagn
male
politischer
committe
soph
##otis
grun
blind
manager
utvecklingen
##perm
administrativa
reis
elizabeth
##ople
komponist
##jut
##arth
romaner
##geren
kortare
gradvis
society
urban
##handel
skatte
reykj
nordaust
##rons
##fulla
agua
##satta
helik
lansert
konsul
hamnade
##shistor
steve
state
exister
pitt
likt
##ining
##platser
anord
##deb
bakkro
##sex
sade
##meb
##vol
stilte
kult
##onius
##fur
rena
republika
##itud
lakes
##etning
festivalen
##itel
svampdjursart
foreb
moral
syss
definier
bbc
bø
behover
vanner
##sforening
##skusten
##ifol
kamar
institutt
bredt
##svagen
anderson
##ан
oxford
regim
betydligt
shar
##herre
klost
allen
oppnade
crist
curt
ridder
trodde
##syk
##ationerna
##styre
avslutade
football
olsen
berattar
anerkjen
ps
##ls
uppror
expedition
##urneringen
##valt
farge
fraga
beng
cet
sammenlig
tod
motsetning
slogs
##vekt
beskrivning
samla
inngar
objekt
miljon
humor
##orpha
##resp
##sjonen
committee
lata
stu
laste
##ulas
##ratten
verda
ey
1839
befolkad
hjemme
reykjavik
spre
##ianske
##schen
colombo
regional
mytologi
##ourt
oftest
bosatte
personen
belgien
##irus
municip
romerska
avholdt
falk
avhengig
##agan
eleg
vider
aktiva
bock
mika
eksper
##bitare
##skottet
##stalldes
ceram
riacho
srpska
djibouti
uppt
omnamn
##icolor
ødel
forfatteren
ess
reist
halm
##giver
betong
utvecklade
##wal
##anum
sønnen
tredjeplass
##skontrakt
nederlandske
kyrkje
installert
uavhengig
okkup
##13
undersø
bidrog
##aba
zur
unionen
##akon
inneholl
hovedstad
sjukhus
utov
veck
labor
ordenen
##olph
fiskar
klara
##any
tenu
ekt
internationell
intresser
beet
dash
##oser
etterful
dicran
dest
bulb
kontrover
kid
tasman
ranger
betraktas
##rupper
tilknytning
innt
buset
pinyin
##iseras
stjerne
abe
##hara
##ipe
saf
omkom
datab
##vatten
##ische
anstalld
kad
1837
epid
##ularia
##oer
##ordenen
posten
dna
##breen
##furt
##entes
##skin
radet
tidlige
kjøpt
nødvendig
volley
klin
series
breuning
tryck
wel
##vor
halsing
vladimir
##ocke
yttre
europeisk
##jun
now
skon
ordning
teoret
##ifte
imot
radik
preussen
boston
##ksjonen
religiøse
eug
holland
spørsmal
##sakademien
##ophaga
triv
fria
lung
##øyer
head
cant
##char
alta
##ctor
linkoping
##fagel
formod
##ikern
sidor
kulturm
daglig
besatt
##nsyn
cass
colorado
sosiale
øverste
##aville
forholdsvis
##ylind
ayn
omfattning
qal
oka
##draget
namnas
##ego
kel
avhandling
##rere
styrkene
scoret
##essor
shang
opprinnelse
wur
kef
make
##tom
ligan
ambassad
kone
sjette
nyheter
luis
##ningss
fet
fikt
aring
##stadt
##skilda
synner
christopher
##anthes
##rute
##ione
##qi
rovflugor
beford
vinne
##bran
tverr
programmer
abraham
dobbelt
foster
tin
trig
##liste
intel
stjarna
##polit
produksjonen
tong
ingenjor
digital
soner
næring
##reng
engag
studera
pend
rott
sende
sjeld
##uka
montreal
beck
bach
##valdes
ifk
brazz
bulgarien
bott
##osphaer
sikre
##edømmet
##lon
wag
langrenn
mom
skan
grader
##standen
inslag
enhjartbladig
middelsstore
faste
pag
leonard
##opol
##vs
##ygge
##omyza
frist
##kat
##ologien
praksis
regioner
fund
##cta
enter
eksemplar
verne
mull
korta
##jørn
##amb
kronp
tilfeller
kran
##ous
##aric
pedagog
trener
tizi
skapte
omvand
##amnet
regemente
##vans
term
varlds
##hjul
cort
bibel
##lamn
skogen
cross
beatles
tilsk
##avar
upplost
##rorelsen
##fiske
vastergotland
##ocephalus
resultater
folketell
##rill
moham
##sforbund
ich
oav
##inet
##sels
##enia
trakt
##oneura
varierer
##ube
jersey
fjernsyn
wars
lagger
besto
##delige
mike
##irekt
engasj
namngje
##rana
##sbru
guds
commun
ric
##ioc
drom
jatte
##edo
damm
##ingom
##istans
heid
##ahan
skara
##elidae
##skamp
rotter
alberta
schle
operasjon
##kommer
inkluderer
gitarr
##ftea
##23
eriksson
hendelser
visst
brot
fartyget
avsnittet
introducer
stilen
##nens
mant
##ksjoner
##larare
##iction
glavica
volk
##alten
gransar
kvalific
avbild
##ologin
tul
virksomhet
##sekreterare
hyr
obe
sinn
benyttes
bronsemedal
allsvenskan
skyl
administrativt
wi
solgte
trupper
frans
##rukket
bruce
valer
østerrik
bohus
ekteskap
offiser
##urope
anfall
morne
varefter
brazzaville
server
koloni
acanth
vannet
sikkerhet
veldig
##mennene
gymnast
filippinerna
satelli
##hogskolan
##sekretær
arbeide
mørke
bryst
signal
paulo
##bun
##ienter
molek
grense
hovudsak
##dare
eb
##dene
##edag
##lere
that
base
ryggen
laurent
yor
polyp
belon
vem
##hammer
oct
attack
seil
senator
smaningom
elli
leip
pors
flyet
##stasjon
belaget
grans
bygninger
angri
windows
##cla
##ensson
oms
innflytelse
valt
drevet
##irat
medverkat
##valgt
kru
##rosophila
offer
##smedel
skaff
##ocha
##rerade
prince
hest
katarina
besøk
ekv
ekonomi
cyper
dyg
##start
kampene
pakistan
baten
skala
##chis
##lack
##sped
systematisk
gig
##oar
##dre
publisert
nunatak
##mande
uttar
gest
lap
##hm
turn
personal
fange
tanke
utgangspunkt
##skommun
mobil
senior
kerman
##ssenter
##arbetare
fed
andel
schles
##samt
olsson
chris
spets
nieder
##idaceae
graham
aj
baptiste
##jektiv
##uterade
pereval
fantas
extrem
##rina
guang
deleg
formal
fjall
invester
tecken
your
##ск
cob
halften
##smat
tvung
##olus
oppnades
otillrackligt
golden
katolsk
glest
skinn
revs
ryt
##jarne
handler
syftar
mey
myst
batter
avd
##talje
utgivet
jevn
kriminal
##mont
##gers
##dy
##omot
##rakter
protester
utdannelse
dømt
sche
pale
##oun
ansett
invader
asiat
odd
##byc
videregaende
##stoff
##istene
einar
##tur
karlek
##ulf
bour
meteor
##usent
distan
##ocarpus
sop
utgiven
kred
nass
##iao
inneheld
styrelse
kommunens
##ross
##kirke
grunnla
##edyr
pist
tradisjonelt
##result
redaktor
bevart
styltflugor
##gruppe
kiri
##worth
polska
legend
brost
tyrkia
forran
elfenbenskusten
eftertraddes
middelalderen
##lend
fungerar
grensa
partil
##cast
accep
litet
##rong
troms
forvand
##intend
menade
premiarminister
##leik
sond
faller
bath
giov
nedlagt
genombrott
##onne
##fton
fjadermyggor
##betet
ideer
kjer
partner
usas
##aring
##uensis
fynd
revolution
guad
tilgjengelig
tilt
##hald
dikter
##ylan
##produksjon
atmin
valley
##roblem
automat
mt
##imar
sjun
##sblad
##fr
invand
nagonsin
mineral
atminstone
##ivis
125
politiet
##onus
aksep
helsingborg
artiklar
hass
søraust
grashoppor
##occus
ekspedisjon
wen
##nos
chel
vartbitare
##ningst
chin
##serie
##ukta
kurs
##uther
kristiansand
framforallt
##kommande
beord
ekspedisjonen
studerad
ranunkel
xen
##iber
fullstendig
alfabet
goran
tuber
##arda
danna
##syl
##cio
barra
##enga
1841
beina
##okar
adri
##esenter
opptil
muham
##hafaz
oce
was
##kene
auster
yu
##ophylla
dialekt
pansar
pensjon
##emen
miguel
havanna
europam
medlemmene
økt
brant
asien
gordon
framleis
##ytan
##byn
##isar
adela
##espill
tomm
tony
fragan
tidskriften
1843
##oglossum
protestant
##amus
nordamerika
gifta
underhall
bratt
##forfatter
handboll
finan
##krit
tiln
avgor
nyere
##kra
mikro
minutter
rask
katt
peppar
##komp
1820
nordlig
##ree
##rekt
pupp
nepal
rykket
carlos
statt
institutet
ouadi
kvarteret
ulf
donald
nelson
##jt
##odendron
strekker
350
##kov
narvarande
sørover
bane
asa
forde
##mu
##86
##ømmet
bened
tipula
xii
tonn
cerambyc
splitt
##stallningar
ødelag
munt
##aderna
louise
sundsvall
ophi
versionen
##oland
nordover
fallet
##fram
bureau
dets
taung
edu
1815
tillfallen
##fyl
##chang
cover
power
unna
innsats
##skoldloss
##kyrkan
kritikk
position
video
erfar
legge
##vapnet
##mossor
byene
romsdal
ernest
##ysia
##skning
##neum
##hs
##dals
##takt
ile
##spartiet
##eser
geomet
begravd
pyra
##alism
arterna
##hafazat
nø
sallan
kang
##arens
narmast
##yllis
kolleg
##sspinnare
nyg
##nea
brøt
faglar
lara
##okt
##won
uppdel
##prisen
##udi
bedrift
andersen
iron
##linger
81
camer
hes
##roduksjon
broad
aktiviteter
klassiska
##ynch
tjug
##stock
opsjtina
chamber
urin
##ija
fame
##osen
goda
motiver
medalj
belag
tidning
uran
##ordningen
##kron
##dahl
forbered
haj
##haus
fylkesveg
onth
metoden
konver
khar
##hort
cambridge
tattingar
##rier
skulptur
avisen
##ithe
ledende
utp
føder
2021
natura
kyrkoher
traditionella
plante
##ioides
##ches
bandy
even
institute
stationen
spillere
gotland
carp
##liknande
##fir
grunden
##sattes
tillbring
ping
miller
ags
draa
sala
##iende
tillrackligt
mario
maja
##ingham
framat
##pal
##stag
intill
cost
param
larsen
kjelder
folkerep
bysant
externa
stephen
##gaver
nack
danne
##ikere
gjennomført
nedbør
rah
koptes
serge
profesjonell
##lapp
##odi
skape
synlig
populara
##skriver
##anken
##sme
blomm
sorter
loire
dolich
##odia
##styrelsen
cten
mora
faktisk
hampson
nejlik
skargardshavet
05
penger
nevnt
##yle
##skipet
borr
norrkoping
bist
horde
##amoter
sidi
instru
refle
utvikla
##boken
bevarade
veter
##strakt
##lings
##stekn
##ksh
##dr
auguste
##igi
##ovit
fastighet
margaret
##kningen
atervand
hugh
##latsen
nyhet
iso
pastorat
glass
##inos
potatis
##rots
mohafazat
uly
æres
vinkel
diverse
hord
borde
##lane
##eiret
leb
sich
##klare
gunt
hul
##olaget
lavere
hid
passager
##edra
##rener
##etti
beslutade
minas
inborde
bakter
sammenlagt
##kore
akershus
nærmere
##saari
sentralt
tydelig
uppstod
kunskap
henholdsvis
jødiske
tacker
landskamper
##pec
math
doktorg
batal
framgangar
edwards
vatn
kha
sattes
erem
lp
havd
tillhorande
bebyggelse
##oris
antyder
prosjekt
visades
zap
qing
spelen
kvarn
kulturen
##lede
hills
foll
##ellia
massachus
##usch
barnen
benn
patraffats
zard
##beveg
tillamp
rogaland
##ubileum
##plex
##ocer
qa
morris
anis
samarbeidet
oks
##uff
##inella
ekster
onthophagus
massachusetts
##stig
invest
##to
sorg
grus
##itze
olig
##bent
dah
##meister
anges
##fried
##ako
jordbruks
larver
##mir
##bli
##ssjef
fargen
syns
1835
##motor
##ionde
havs
heart
kommunhuvudort
prinsipp
##entyr
oleandervaxter
##ulosa
##gjør
##lika
loj
oppmer
oph
leo
eau
odont
avveck
##organisation
sannsynligvis
amf
pia
kalte
arvid
##sniva
framstaende
##elb
##unds
fonster
queen
09
##edda
vanligaste
##namnda
##rekk
skivbolaget
delades
##ovi
##okker
##delingen
hosp
innte
avtalen
##omon
##konkurransen
##jah
##odrom
herre
skogar
frik
##station
azer
tarn
posit
danmarks
##ørende
1833
charlotte
sjøen
##iza
teleg
folkerepublikken
landhockey
hentet
##øpt
##amar
kristendom
utgave
##manlands
forholdet
##repp
##nummer
##tten
##egen
pennsyl
agnade
halvt
byar
1834
ere
kvinnelige
put
##jde
leipzig
adelaide
lepid
mesterskap
##fugler
##elag
nordkorea
tornet
beethoven
gass
##arig
census
process
1836
##uset
misstan
skilt
##rats
cote
##gran
##ex
##aks
vokser
billene
gw
qol
##opogon
##iserat
##ksomheten
svara
medlemmarna
polisen
##yton
trav
##shog
nobelp
##ocar
bourg
domdes
##mit
erkebiskop
meters
##ssatt
كوه
##مه
oberoende
nay
fossil
##resentant
marcus
normandie
størrelse
samlade
innhold
##ussou
##onto
placerade
konkurs
##vitenskap
virkelig
sigurd
bidro
baron
##hallet
##varig
grunnlag
##stjarn
utstilling
coel
cot
kommunreformen
bard
felix
##festival
temperaturen
##shamn
pyong
##lø
finlandska
cape
utsp
neur
##vara
filmat
##glanssteklar
##ilj
navy
kne
arsen
schw
##alistisk
litauen
nordre
kazak
tillverkades
##skans
##bos
##qa
##sende
##ður
##atning
trygg
hoch
kunnskap
grott
america
##на
upplev
paras
upplostes
hotel
##ourg
##oks
##yu
innspel
lankar
upptrad
lagoa
##king
##abi
lincol
bernard
##ktige
##amm
eksemp
##sattningar
##ebo
morgen
starter
helic
representert
maurice
##statt
##sslaktet
stens
vestfold
##inar
listan
##iculata
staende
bh
##esprak
forbed
##kunst
hellige
##stri
karriaren
offens
1829
predik
siff
hogskolan
treng
dres
##reich
enskilda
grunnet
nodvand
folkrakningen
hull
holstein
##alum
polar
originalt
##viet
karelen
influ
buck
populært
blomst
##line
##nadde
bete
mccart
##smiljo
##igalpa
etym
##skjold
##eus
disney
sekreterare
truleg
paføl
magnitud
##cal
cours
bildas
alpes
pus
smab
petit
party
lucas
metrop
operan
##fli
##ifa
bedom
rorelsen
nut
salg
##vesen
##bei
##hera
programledare
samtida
minim
timer
giovanni
utlandet
##hias
levu
##ender
thel
freden
cheng
progress
lip
vive
podgor
##rogen
montana
##arkitekt
##ikter
gjeven
møre
fysisk
##onotus
ødelagt
dekket
kit
varte
parap
kombinert
tril
nuuk
bk
tull
cub
##ospora
zan
dil
bedrev
bif
utel
##handlingen
220
##klassen
vedtatt
europas
territoriet
##plikt
##house
erit
##anke
tvar
shi
busk
forband
##ulin
block
cong
##ucigalpa
femin
tegucigalpa
nicola
##illinger
arabiske
##sprakiga
##ofon
manniskan
##fas
psalm
marknaden
oro
spi
##vind
##lakare
3000
##plant
bibli
##edere
bekraft
aktive
forr
bodø
podgorica
shet
jorda
##institut
anlegg
sjatte
debutalbum
etapp
marine
##ер
addis
##lasser
habitat
rou
protest
peking
framgangsrika
antallet
borte
anpass
kampan
gotaland
stry
uke
pension
##arv
geolog
1809
ryd
overst
undersøk
margareta
##akadem
tilhørte
trafiker
##icta
gallmyggor
times
rør
forar
draft
begrenset
##ostoma
##jøen
##instrument
nk
eryth
økte
eftertradde
1832
anc
brygger
religiosa
ral
terreng
pt
##inda
anto
vaxjo
luften
elias
##illon
##ialis
bug
##enbar
underlagt
##istens
##æl
christiania
utenrik
sistnevnte
##ovs
anslutning
##malar
hunn
tømmer
omg
keram
minutt
tvaa
kyrkor
tale
sebastian
ombygg
##uki
poj
##ærte
koordin
##somraden
talar
skapt
##ieri
opphavleg
fordon
##reen
konflikten
illin
racing
shel
deltatt
##usjoner
jonsson
##rera
bilar
profil
storstad
##varlden
semifinal
eksempler
forsvars
bidra
tah
##raten
145
##rypare
##astro
demonst
masse
helena
halvparten
##føres
stadium
lyder
kompan
fyll
##jort
intraff
operativ
arrestert
##amas
##indust
hawa
tilhen
ønsker
##norsk
butler
##aken
oreg
rapport
tilknyttet
##okal
nouv
andrades
##befal
hjelpe
##agasin
persson
karrieren
##buk
chaet
apote
##cas
operation
##oco
coch
08
##folket
##still
##ortsvaxter
lane
##rema
tanken
løper
##omataceae
produktionen
fangen
overste
tapt
##ور
##fid
kash
hastar
##floden
##stallande
kurt
##smot
##funn
atlanta
strauss
uvan
slaver
uppmarksamhet
rick
norman
naut
fornlam
kvadratmeter
damernas
born
micros
huvudet
##isterna
nuevo
cum
hamt
##elege
##spros
besegrade
jungfru
##orget
konstnaren
##essa
pyongyang
prist
parker
dak
hundra
##huvudstaden
redusert
kilde
##yon
names
uef
##she
pennsylvania
møn
phys
øvrige
hip
##slig
##cea
jen
##adet
yamo
borja
##onn
mulighet
maleri
oliver
koret
##plet
underjord
verkt
sovjetiska
illustrat
besl
regionhuvudstaden
dynastiet
##musikk
sykehus
lincoln
karin
##aktiv
masterskapet
##odont
abeba
##burgh
##ango
tilbud
sug
norther
bilda
##etenskap
##zia
##zero
##ев
viktigt
skarp
##ussoukro
stim
##ensioner
yamoussoukro
##laren
viktor
organisert
teologi
##ters
hale
##pr
##25
vokalist
igang
##fod
##status
helhet
##day
ritningar
##foretag
tvavingar
lost
dev
homer
mounta
vinst
##astare
##tran
avsked
turkiet
ake
kjerne
##rero
observatoriet
overd
landsbyg
kw
##hof
##gene
innlem
klot
ae
tanger
##ionens
hamar
einaste
##ulu
kommunest
##løs
nielsen
##vatnet
northern
##stander
buff
akra
journal
kommunikasjon
##oidea
##urnering
##frid
##cou
parac
detalj
kommiss
bruken
1818
bladhorningar
sallsyn
heav
grunnlov
capit
lith
hitta
folkem
##smus
##sbo
dow
visse
##centrum
letter
ankom
##delar
heldt
polske
##onica
##føringen
##fjell
experiment
sammenhen
brod
kristus
taket
host
minska
##avt
##organisasjon
##endomen
visat
lh
oberst
ci
arnold
snarare
##distrikt
hant
only
frankrikes
utbildade
avtale
##jin
##rica
bygda
barna
latarna
##iceps
lott
bana
04
##imo
##ighetene
riddar
ian
##steder
allmanhet
karp
byggd
gos
broderna
##blo
avanc
laos
namns
##head
##ivan
figurer
bekre
bæ
##edømme
##mia
tjock
revis
stemme
##studier
##chter
91
##اد
statsrad
##sfjorden
jensen
banks
##stillingen
texter
flick
ohio
banglades
erobret
##melse
mikael
##ekamp
maned
##lyn
fis
crass
fritz
##oler
loven
privata
##elef
omedel
fasc
##ely
oleandervaxtart
lisa
papper
regelb
materiale
patrick
06
##ommen
skiller
milano
tingslag
##tah
midd
peg
skiftet
cano
##kot
##landa
folkets
blomflugor
skotsk
skadespelaren
reservoar
##kow
##yte
##strekk
møl
vendte
##kjør
##ures
johnny
walt
##smod
##provinsen
jenn
boris
##historia
more
torp
aterkom
karlsk
##sjoner
##illingen
bredd
mountains
vog
##bergen
##kors
##hes
hooker
##burn
forslaget
foda
##ashi
thunder
sovjetisk
forsvann
reder
tep
##raget
##tyskland
hors
##asis
folja
##ogi
##ianum
sammenheng
##avlingarna
ilha
studios
down
##resse
parv
##ifrons
flottan
cari
##fel
##ypen
høgaste
azerbajd
##edig
verker
minste
sonder
##mastaren
illinois
orient
yong
nektet
##klin
indiske
groddjursart
##strad
sparris
overtog
brandenburg
borgen
rytt
besokte
songane
gyn
##omys
overens
punct
arligen
mote
statliga
##latser
hennar
materialet
##sfull
##forord
##api
musikkalbum
planlagt
##bilden
assistent
kammar
fullstand
apne
##ouz
bilde
sjost
##arium
forlust
tillhorigheten
gemensamma
jøder
lagga
gardaneh
alexand
atmosf
repar
soldat
tabellen
vagg
##itas
overlevde
147
lax
tettstedet
nybygg
research
##varo
##feldt
##skogen
bryt
fantes
bangladesh
himm
lakem
##imp
innanfor
registrert
##ritt
##fyr
چش
praktisk
antagelig
fortsette
rodrig
liberal
folkmangden
##iso
ekst
elver
stillingen
who
begrepp
##olep
produserte
leva
rin
loch
stilla
##sarbeid
erfaren
eskil
pue
##park
venner
samlingen
lulea
tropp
##emin
vintern
nyland
##lj
meister
##hon
spek
trekke
##ners
##uil
##ffen
##jarder
##tu
sump
vatmarker
hebra
vader
mani
gray
jamfort
producent
##osum
##flode
egenskap
oppstod
reaksjon
dagh
regissor
##iblant
hovudsakleg
marshall
##fjellet
artsrike
benj
overfordes
rhone
ekonomisk
termen
moritz
administrer
quito
##styret
1824
loppet
##recht
##ness
##ahn
##alismen
television
font
##elset
fredriks
sjoar
roh
##orte
miljarder
jordens
sammanslag
rasen
styrelsen
four
##22
oppretta
utvikle
1810
##otria
rhin
##jeneste
bunt
hagen
##okan
grekisk
yngste
kass
##øne
##obia
##slangd
##lang
chia
##linge
##kjem
loren
##skjel
angola
wright
##deren
alice
raka
چشمه
##utz
##historie
gunther
indiska
levert
barb
awards
foss
etc
claude
hydra
utstra
##ici
ostergotland
torelvaxter
##bard
utspelar
##utd
lagstift
utveckla
rorelse
autonom
aw
dirigent
hex
sphaer
##dotter
foruten
forord
##umentet
myrtenvaxter
##orium
##arkar
emig
##fulle
ms
pig
svid
følg
daværende
krom
familjer
studiet
staff
bøkene
lagun
##antes
rif
##ynchus
tekster
munk
dial
##aku
##send
singlar
##usi
landene
monter
##bibliote
##idad
kravde
popularitet
kjennet
bernhard
##mig
urugu
vekst
fiction
delte
##upe
rekkje
representerar
retten
unnga
regerings
hekk
roster
marinen
##rine
vardag
halvgras
utlandska
boll
hordaland
steng
trapp
euro
##quin
endringer
grammat
rosvaxter
leopold
satur
forlaget
framstall
hardt
##ophorus
##west
skanska
middelalder
hydro
dynam
##ussel
##igenom
##immer
1828
sivile
biblioteket
##selskap
askad
tad
##sexamen
skjold
startades
evol
venezuela
non
##elat
##foljande
namligen
sporter
studioalbumet
sarskild
polyn
trær
nevnes
pafølgende
hoppspindlar
##sreg
deriblant
1821
##forma
hannen
svalb
##artist
##ryss
07
cyrt
landerna
administrative
##90
halls
tatorten
gemensamt
stewart
corpor
sparvag
oriental
##idis
##scupen
lawren
##hot
kaw
akademien
##flygplan
vav
grønn
nerv
tomas
lege
tydligt
##sikt
##arb
skrivna
uruguay
##annen
dommer
jup
##mand
##ieu
helikopter
sivil
##grav
totale
##avlingen
rain
masterskap
##oon
atlanter
gale
##vingar
##garder
global
whit
millionar
kontroversi
antatt
jules
manen
vestre
##esterskapet
zhang
##omo
cov
varg
##varen
asm
harstammar
##say
##shem
##ew
dream
werner
148
kaj
schwar
##lakt
innvand
braun
krigsf
##cess
##emoni
ersatte
##aminer
kande
##smalet
##fordel
totala
survey
lillehammer
reiser
abbor
lasi
benjamin
stup
trang
frankfurt
kongres
billed
dart
foregaende
sjelden
kontinuer
yam
##oniidae
antwer
##oce
##gaard
holmen
##orgs
esper
fischer
##ilen
##utbildning
perspektiv
smy
##itsch
jonkopings
eitt
##iktet
snor
gitarrist
administrasjonssenter
##ingenjor
docent
baden
##aj
verdenscupen
tandspinnare
##bladiga
fyrst
involvert
kommunalforbundet
iz
framtradande
lady
##rion
adrar
polyg
slar
##egarden
kompani
##die
##24
##lest
efternamn
##lich
light
##more
##ikeren
kusten
utøvere
##olla
##haug
spesielle
##ortsvaxtart
formaga
fritid
cephal
langst
gerhard
koal
harmon
doro
fell
##ligare
canal
##iren
ida
scene
##ор
teorier
##angar
skelle
nah
##gata
##smy
jeff
##uru
##sunds
beromda
taget
nordiske
opplys
celler
wy
##adelphia
municipal
patt
row
poesi
1831
medicine
hongkong
cien
cac
##kontoret
##iert
##ologer
slappt
følgje
gera
tidens
garn
regent
pals
1812
##sti
##uez
sanka
##pus
##essige
nash
vern
deltar
kanneteck
##hagen
medvet
genomforde
underart
pointe
karlskrona
brem
##alpus
##dorf
##utgav
mitch
240
erich
konig
kala
##sre
utmar
darwin
##varn
hjalmar
flertall
konsekv
##witz
formelt
tsjekkoslov
artikel
##oge
210
glava
gjev
##ird
busker
anga
speg
##linga
##ikkert
##ningsvis
finske
kalle
osak
##lock
##zin
prout
##ses
##amerikanske
230
myrtenvaxtart
blas
tsar
agent
medicin
##entris
##etia
##urat
warsza
anlades
##uller
engager
##skilde
foretrad
gris
hof
cond
tis
##kande
##vint
forble
ult
anthony
##cle
avan
tankt
##manuel
vu
enc
punktet
##jern
bygning
##yga
1825
sannolikt
dent
spil
orange
ansvarlig
nabb
aleksand
##has
pund
##itaine
##bete
huvudorten
##smenn
##berga
##skolor
forny
##skinn
135
sjunde
##skam
kirker
amazonas
varvid
jarnvagen
orch
techn
##moj
1819
##dere
alene
omfattet
##tradte
identifier
##matt
trium
fungerte
drammen
##smeister
##industrin
skov
stjarnor
##omyces
friluft
##ич
konda
bulgariska
vancou
arbeidde
1816
##ils
ic
##stral
gratis
malvavaxter
146
##rell
skotske
bronsemedalje
minnesota
foreldre
ked
delene
vastantarktis
##ways
kazakstan
fatal
gota
134
fk
##owr
##knott
##braken
hjarn
verka
shakes
##hild
##rena
litteraturen
##gus
##isjoner
dylan
reb
##stit
##jaren
innefatt
##zburg
##leiken
##hammar
mongoliet
stannade
undert
grona
robinson
bois
organisationer
augustus
ariz
##ingane
kritisk
##vannet
##hausen
studi
mojligen
svidknott
144
##oller
abb
egendom
klassiske
klockan
##vux
##rukturen
trollslandeart
aventyr
chung
##otte
fullførte
inkluderar
##jaure
##opht
mossdjursart
fond
akta
avlag
##umann
anslot
##istriktet
psychotria
##onien
kraver
bjer
philadelphia
bm
effekten
ansikt
forandringar
##fos
##enz
beseiret
svalbard
kopa
identitet
departement
nys
##foljare
inratt
nis
lufthavn
##ciata
bulbophyllum
farfar
##museet
fjordane
mata
sjalvstandighet
tend
death
langtungebin
resulterade
vancouver
##derkopp
grunnlaget
##medaljen
##givning
##upt
saknas
palats
leiar
##ال
kay
stur
neut
shakespe
kara
flen
alpin
producerades
mangler
indelning
ovanfor
kompet
##iyah
rinner
halvøya
bydelen
torelvaxtart
##oura
cho
oppstar
allmanheten
karet
##eni
medier
##ettix
nyare
sev
knud
birger
trump
ronald
##uti
raj
##vention
##fre
radhus
konkurranse
øyer
karlsson
##ileg
scop
brag
##irasjon
##skepp
sokte
daghi
hymen
##ores
##verande
avdøde
lawrence
academy
##foss
raud
halvgra
paus
vinterspelen
1826
barbara
overrask
cym
##øyane
umiddel
##bag
##rass
borjat
volleyball
hanen
argumenter
##nev
brett
redig
bayer
ukjent
frances
##acion
drap
forg
revolutionen
pict
##talte
pampa
særs
##skytt
rolling
avgjordes
maksim
blekinge
tradde
smaort
##leart
vardera
styres
##tok
insatser
##slor
cypern
hjalpa
theatre
##hra
antwerpen
meyer
cook
slovak
harj
ledamoter
tasmanien
arsj
tekniske
##schild
kriter
eduard
grundlagg
fabric
idrettslag
anstalldes
##øte
varer
halvgrasart
cyp
##anlegg
bestamde
teik
##dommer
io
libert
##sspel
orter
rival
##emia
##rio
akantusvaxter
kotal
exakt
##lunda
kommande
bene
##smedlem
verdi
##omb
finale
klasser
scener
synnerhet
høyr
megas
tubu
friidrottare
tilsyn
oliv
ridge
territorium
##munt
##eset
bronsmed
##orkester
##forsamlingen
puc
phnum
bergs
##atera
socknens
astrag
##icollis
varvades
dahr
potens
##ders
gruva
1827
143
sydafrika
tjenesteg
eus
##anmar
tillag
##lax
##uin
##saga
##eto
##ocy
godkjen
innehade
beraknas
introducerades
tidvis
aquitaine
##opar
##iew
fjellkj
problemet
paborjades
##ilum
##idat
halsingland
first
##niva
grant
##atert
##actylus
cad
vecka
sæ
wald
resp
assy
##sattningen
##ар
halle
insjo
amerikan
bly
##enberg
heliga
##alisme
aber
trev
hjør
##stalld
fungerade
field
mick
##ouri
prøvde
eugene
##anas
soul
##sas
##ол
##sis
##imen
signerte
##ally
##innes
platesel
##fotingar
pick
paverka
mottatt
traditionellt
schmidt
conne
schlechter
ded
lyse
ponta
fragorna
skolor
osta
chor
##umt
innendørs
1808
gill
##oblast
propag
##attslandor
##spro
##leden
adams
##karriar
xin
##iration
##imenter
zu
avgick
##epar
resor
inomhus
kvalifisering
framgangsrik
morgan
gruv
helge
liga
hero
magdalen
##lopare
svavflugor
billy
1823
prosessen
avgorande
kosovo
##orps
hogskola
pok
##ydda
##iodes
##revol
##usta
lover
mg
##igma
##undi
fasta
nationalpark
sadant
##ralen
##roch
bergens
hort
##zjan
shin
##skrivare
##feltet
eide
byggingen
respekt
bahia
griff
toronto
historiskt
akte
force
anvend
trog
carlo
pleur
osmanske
##lid
tore
tillverkade
aleksander
dead
##stro
gatan
myanmar
sølvmedalje
omgangen
svensson
nicholas
kemi
arendal
nederlag
molde
gand
striden
##ulium
christina
mordet
##bærer
must
søndag
bentham
fordes
flaten
uefa
avratt
##mende
manuskript
tommy
##edi
inred
dek
musikvide
##ktorer
hvilket
uh
antogs
buch
hender
kolla
##nica
kamen
tegn
drakt
##storp
personliga
konstruktion
plut
class
legger
inbland
placeras
flyr
##hay
##ipa
ordre
astragalus
##krets
syria
##sakring
##phy
##sstyr
sentralb
##arena
format
verb
indiker
nøyt
##domm
malningar
##visa
studente
##satsen
eksterne
tecknare
jom
forvarv
upptradde
bagh
##ilo
antio
hyll
##andare
kopinghuvudort
kungens
##lubb
rekt
minist
invaldes
verac
##avs
book
papp
bein
virket
kanoner
halde
cun
##melser
##fjall
betra
##svetenskap
grasvaxtart
##opez
byttet
intelle
wester
skytt
skiva
##hult
##odet
tavlingar
##lay
kinsh
obsc
robot
franc
lagets
eigen
etymologi
jor
##formede
tonsatt
dys
samisk
verdskrigen
medaljen
overvak
##ryl
forenade
republikk
scarab
kirurg
bend
fortsatter
staderna
cerambycidae
##skudd
punkter
ishockeyspelare
##staver
hittills
game
opptatt
##yta
gentian
midlertid
malade
grann
##arskontrakt
broren
nasjonalpark
hora
##rund
alc
valja
sichuan
##asc
##jol
sverd
ard
annars
gallde
sallskap
##horax
tradisjonell
blatt
naturliga
baseb
forskere
##ен
stump
##ights
rull
##asaari
##ordforande
##ardi
##mern
tv4
##verkan
drivs
opphold
prøy
##auer
serg
##svik
flora
##itert
##fun
riktig
personlige
##kjer
still
harold
sale
vagar
##ithecia
somme
##redaktor
##personer
##adder
motorer
##inton
##kogel
1822
nfl
##othe
sosi
eventyr
province
decenn
127
kirkes
luk
endring
##skrip
hackar
angermanland
tvunget
bald
skam
##otal
kapellet
##athus
fisker
panama
##fc
##ckta
deles
##inum
deh
##ilde
albanien
##opet
##kelige
piet
endelig
##gangar
varden
##ulum
stortings
lyckas
##punkten
originale
akter
elles
invas
lanserades
##linje
simp
hobart
##virk
boras
veracruz
koch
søkte
haiti
rail
##نگ
nouvelle
##water
kommunale
michigan
latinske
lennart
domsag
rasmus
gonger
avslutt
##gener
skadet
moon
105
mov
##ienne
thur
##industrien
svømmer
eupithecia
115
rosvaxtart
drosophila
ordens
jamaica
corporation
##ktionen
##splats
##essan
doub
microp
gata
kinshasa
##stalla
distrib
sjakk
pavirket
dør
chan
gule
##jov
bearbet
smalt
inbordeskriget
##smet
internett
stjarnbilden
tillbringade
##rif
##opod
sjøl
debutalbumet
bundes
hanna
upprep
uppgar
graden
##familjen
tillverkning
##organisationen
konstmuseum
hjort
kontrollen
clo
drar
befordrades
gjeld
##ulo
conf
prat
gifter
guvernør
forvaltnings
cart
angust
fjernet
jupiter
heat
husflugor
##coides
gan
sf
##steater
##see
kejsaren
kanadensisk
utman
##berger
finnas
rute
1790
cyk
##ants
##eback
##sjø
rune
##hou
atel
##ifta
akantusvaxtart
herbert
producerade
##skrit
stridsv
nivaer
formellt
##halvøya
linux
nært
pum
lamnat
##brakenvaxtart
##pere
kraftverket
glans
##ekonom
##ojtnant
##fullt
##eled
##arra
games
upper
136
teknologi
##ligan
1813
##uke
##forvalt
nomos
ress
halvdel
128
visas
sefid
malvavaxtart
læ
##ielle
placering
bala
##etningen
##syche
motorvag
forandring
mjuk
##miral
##univers
##radande
home
utstyrt
involver
erovrade
##ento
##øyet
studere
trommes
kungs
##edt
varum
lagar
karen
##ruppe
##alistiska
kjærlighet
gors
svøm
lengste
##spillet
raymond
flygvapnet
ragnar
erklærte
utvikler
fredrikstad
sarskilda
berømte
rikets
place
anhang
shir
etterfulgt
tipp
##marken
lengst
tallinn
artikeln
##neumon
forum
testam
minut
salv
kravs
generalma
ghana
##lussteklar
pico
torget
##leken
nos
kraftdjur
##zarbaijan
utstallningar
##sborgs
rothschild
360
filmp
ostazarbaijan
##værende
##indi
##naderna
indisk
dresden
vg
styrt
styrka
klosteret
tvilling
verde
tredjedel
##ogg
microsoft
yuk
##forskning
##ology
sarc
bryter
##posten
birk
rykte
##falz
foresprak
arkebiskop
østfold
studentexamen
##centr
##messig
majoritet
assister
murray
negro
drabbades
##oko
##lisk
ombild
kronprins
##ansett
##oxa
campbell
korallart
##stallningen
flytte
hakan
paso
fruh
kombination
##his
definert
##linjer
tegnes
leeds
smed
fiender
##aparlam
ekologi
##box
ritu
basis
sønner
hevder
##skra
verkstallande
spann
europaparlam
##valla
occit
rhein
lc
##idu
ogat
myndighetene
##smass
eritrea
oppnadde
cirk
textil
mottak
##found
##ypt
##illus
free
buc
##fat
avgrens
##ression
##handler
krok
ovanligt
stjarnan
dark
##atnet
grunnen
##sse
##uret
##estra
utgaven
programleder
falls
fuj
krevde
kjempet
##periode
klo
veier
beholdt
statlig
##cz
##py
ambly
gerais
rette
melast
maskiner
valencia
see
sper
cly
oven
baku
preuss
tyskerne
##adas
begav
##enting
leif
muligens
hebre
kommunene
uppland
comte
##eka
theod
bruks
fut
##lett
returner
høgd
##ssystemet
##osaur
jernbane
##iya
##iseres
106
##ize
domstolen
paminner
##asjonene
arct
forsoka
musikaliska
##rach
##elus
##jara
nærmest
sogne
filmens
brasiliansk
nato
bohmen
jimmy
formodligen
##orien
glaciar
##varden
stap
##erien
##teh
tidningar
asker
ringer
uppfor
cameron
skipa
tynne
forma
prosess
spele
newfound
mengder
elleve
##pis
##pros
stren
revet
borta
infrast
besøkte
##cup
tolkning
##ifolium
belig
uteslut
hvem
anlagt
1801
tilgang
utvand
our
kammer
tønsberg
gha
jamn
##ebok
##legging
utstallning
##sau
##zzo
opptak
sph
mack
##ralt
##anensis
svard
sark
##vensjon
strekk
euphor
##vane
banken
fornlamningar
heng
fugl
pastoratet
clav
##lude
##bred
isen
##fald
vekk
##اه
##arier
satta
paz
##ires
##ylland
mojlig
kani
herred
cooper
##hew
##opteryx
tof
eut
hittades
multip
utsikt
##igny
ana
03
bestall
versioner
heidelberg
##celler
##edonia
merke
restaurang
kristina
##sverk
##flaten
##befolkningen
flekker
##tea
##historisk
koudiet
intellekt
zah
450
mina
uttalte
gosta
faktum
anlaggningen
##egn
##repren
##acia
kreft
keiseren
nou
regul
##vitj
llo
swe
inneholdt
nicar
lilje
##øyd
ratten
frø
wagner
##rador
##bocker
vagn
##irektør
dup
okar
##forhold
dagbladet
eksempelvis
##uo
endem
hunnen
##prest
kiel
bærum
orle
judar
organisasjoner
nicolas
##iras
ansvarig
##oti
rekonst
tanz
##ismens
enkla
arbeiderpartiet
nedenfor
hybrid
##uve
dyre
aktenskapet
##espillet
dalt
radda
flyktet
fral
senast
forvant
sakalt
european
umm
gjent
1817
##eo
##riset
##storfer
ji
nintend
##yds
faktor
##eslag
kvit
##sea
andres
##grund
##terar
##ayer
sater
##roit
konung
kansas
besluttet
kacker
pang
moz
fersk
kontinent
alumin
handelser
##heh
papir
dyrk
##rudd
skisk
skudd
filmografi
borrflugor
newfoundland
cylind
tilfelle
zem
maraton
held
gyeong
##ampton
##iks
skada
huvudrollen
svea
ding
##illar
upplaga
tilst
langror
vistas
konflikter
##epresident
asc
##sbladloss
framt
alternativt
langrorsbladloss
syrsor
kirimoj
tene
##sling
##lackor
##akken
starte
bromsar
manskliga
skivor
##manns
barrage
andalus
doden
utvecklas
forekommande
##kopf
##ulis
##quia
mesteparten
herrgard
analyser
sis
sete
thomson
forhallanden
##jav
selvstendig
volvo
nederlandska
fruhstorfer
dz
##istiskt
solens
mangder
##flott
marmor
elektriske
##aculata
sodertalje
darifran
##oppen
##iscus
konstantinopel
deuts
sekretær
gudst
varmlands
##asjonar
kaffe
##agnet
##fjella
claud
aspe
kompositor
##xia
##hira
action
folketellingen
ml
overgangen
singelli
##cum
substant
macro
øyane
forman
thompson
norte
elef
hunt
lanc
utfard
##sterna
lektor
norrbotten
avrinningsomradets
hospital
##akning
skelleftea
sirk
##sver
skildrar
##hers
kortere
valent
differ
##stader
##pi
1789
voblast
this
##ariidae
##ondo
brede
simulium
aq
ligaen
katedral
skikk
tettsted
##utvikling
torr
sultan
søk
øyg
##ал
zen
kardin
enden
linkopings
romania
medvir
cann
tilltradde
##adan
syftet
kond
forklarade
uttrykket
sate
##ief
strackan
iden
spilles
markerte
##vergne
invald
individuelle
uavhengighet
isted
##etown
skule
delade
fysik
kva
##drift
kapital
##yia
##ibi
evans
misly
gult
##skir
##stab
emma
cala
korg
ratte
xyl
##ygen
##uds
##oide
##tex
flydde
akut
verdensmesterskapet
##ylis
##svenska
juridisk
harrison
broll
medlemskap
bruket
grov
ace
trist
gitarist
oppmerksomhet
demokratisk
klatt
kyrkogard
sistnamnda
lenker
wahl
##akare
sallskapet
kompletter
regionale
styl
tiltak
##include
cuba
##cial
høyrer
##vekst
##ugan
golo
tart
hok
hode
pasi
skift
utflode
flyfot
foredrag
pec
vanns
marked
kommunikation
tyrkiske
tunis
##kshire
stutt
##indel
##ansvar
brachy
##ccion
parlamentar
medborgare
##yper
lena
##angs
cour
##asset
kjenner
##skalk
alaska
utrop
nordostlig
snitt
##emberg
##sdotter
##acan
lagkonkurransen
minskade
forblev
personlighet
partiled
cocker
mile
##cktes
sjong
juris
forklaring
kunnat
##jed
odleart
bowl
bres
dance
schaus
tilbak
camil
parana
lyst
forleng
##arbete
pirat
fungerer
byggas
aluminium
arc
narkot
atskil
korresp
##chin
vincent
hushall
larven
melastomataceae
kah
##ppel
bevil
nept
gaten
zab
##omorpha
##skarriar
##stjarna
presse
beskrivelse
brødrene
ild
##nell
##nede
##ropp
undvika
nationalmuseum
##lius
hovet
mode
beteckningen
tvungen
reh
rast
dottern
##aser
glom
nathan
lec
charlie
alter
##inosa
boys
##cata
aden
beskytt
##ekon
touch
vasterbotten
##ademin
auvergne
robin
lus
doktorgrad
##tida
osv
forbindelser
radios
brutt
##alon
basil
skarabider
enkle
habit
ya
kongressen
tomt
sog
praktiken
bidraget
##ος
bush
##ikum
mjolk
ytterst
##universitet
bop
kanner
etablerade
1807
1806
folkrakning
keith
##role
positivt
gjorts
##foll
utara
hult
cons
bip
naturvard
bevegelsen
magister
georges
syssels
definer
##ku
bulgaria
kamerun
pfalz
##gart
overvint
winter
##litteratur
kiev
chart
semin
qarah
##skul
angiv
##behandling
zurich
##forest
shaw
##elighet
##shovding
##arskap
klare
betala
fogder
duk
ladd
##øyt
##vadron
##sfall
skoler
souss
coron
medisin
mexic
##mesterskapet
##fronten
##xen
fora
manuel
##iton
utvalg
formid
potent
brut
skapar
133
lasa
artar
##iserings
gardar
importer
gogae
opph
orleans
cyn
##astra
##forda
diskografi
##amerikanska
autor
opptrer
magasinet
angaende
##unnelen
##osterreich
avgrans
##arsus
bonus
insjoar
snow
hassel
frivillig
loi
fakultet
dus
##opon
finna
kalde
opprøret
##hattan
##alg
##ocal
distribu
anka
ingeniør
krog
##arbeider
cykel
azerbajdzjan
mud
##oget
sho
ovansidan
tillfalligt
rele
grundlaggande
medarbetare
##snack
leia
larde
ditt
gyl
kis
formuler
fangats
skydda
funktioner
esk
tell
##ichth
traffade
radsomradet
flack
##veis
sork
fødte
salja
bladet
kartlagd
matematik
##uqu
##staten
konstnarer
detroit
ingrid
well
situasjonen
oppfatt
bidrar
natal
newton
aterkommande
##etty
129
##atha
besitt
knytt
halland
##alar
forbunds
flit
##uria
coen
interes
ced
##iaren
animer
namngjeven
tort
privileg
utenlandske
scarabae
aster
ddr
lør
##stuna
##alene
rubus
avslutades
kyrkoherde
ekstrem
##bis
utgangspunktet
sangaren
skor
amnet
placerades
guadal
velge
troligt
takson
##voll
##antis
utstrackning
ingenting
dykare
ljungvaxter
tillfalle
gira
##omradene
skador
dominerande
##ilm
foten
population
##skonst
ande
##visor
gjest
biskopen
utmarkelser
spons
kanna
##onder
##arka
graver
##ografiska
generalmajor
##rapp
##rerte
##arum
##unct
##regiss
##knipp
##esch
kongedømmet
bring
pc
edin
wit
karlstad
relation
stjart
##foni
bagge
kastet
hinder
korde
chann
riksvei
##bladsvaxter
warszawa
##stans
##ovich
##kkes
snylt
##cium
1803
skøyter
##kla
akust
jet
##redakt
1775
introdusert
irsk
undan
##bost
liu
innov
##stø
ez
triang
lopez
diet
mccartney
carter
stykke
mum
##vavar
137
kyrkliga
punk
##traf
litau
olja
take
##ilder
laser
##angdong
paborjade
rt
yunn
##yna
tanker
labrador
ukrainsk
spart
hyg
bokstaver
utgava
anhangare
singap
##entrasjon
slutar
allierade
frost
deut
##forare
##aterade
kryp
sip
whe
livstid
kennedy
ligner
grundare
magall
wolfgang
arbeids
1811
toll
##kton
attra
elementer
##krigstiden
##ка
allan
utvecklat
megaselia
afric
ifrag
undersidan
##agram
deltagit
##olle
##uropa
størst
eun
ode
sydamerika
økende
##opul
bret
fager
senteret
eumen
kvall
paragu
partis
chiapas
vaningar
kyrkobyggnad
nigeria
ozero
klassific
1793
ds
kanaler
korrekt
venst
negativ
##esenteret
overle
sidene
beslot
karib
glim
baserade
poec
styrte
hensyn
dou
##iform
konservative
hvilken
entertain
lens
ruin
yrke
bærer
wir
arkt
meta
utbildnings
kunt
berber
kniv
finger
eksemplarer
spirit
##etisk
myster
behandlas
landsting
garna
##gifter
enorm
smart
planerade
##ips
##sblom
##inspe
kammaren
suk
##aming
beholl
cetoniidae
vende
##halt
meldte
dygn
anmel
rodlistan
utvidg
##rigen
scand
arenan
magallanes
gert
##ekom
nim
##uco
domen
artikler
##republi
konson
behovet
aragon
sham
kjøret
sakrist
##elo
overbe
koln
##eringar
##elet
naturligt
fett
generation
meyrick
meck
138
hersker
oblig
magdalena
##umer
##hastighet
omedelbart
verken
palmer
##lanten
##sik
skille
##ody
greg
diego
utvecklats
provfiske
shanghai
plus
utstallningen
llan
mao
motsatt
260
hawaii
##direktor
tow
expl
filmerna
##ians
jobber
##bryt
amaryllis
sjok
fronten
knappt
occitanien
##bøker
##ebra
##ryter
##area
kann
lejon
huang
##acitet
race
amne
demokratiske
cres
dobbel
utsmy
##reden
appar
##rax
okat
judiska
dukket
graven
vitenskapelige
##vavarspindlar
soka
1792
##priset
##hir
glen
tackvavarspindlar
brothers
##skiner
##sher
becker
nærme
osc
krem
##28
svak
vatmark
undersokningar
entertainment
clad
hansson
##ype
##enhet
bryssel
brygg
utbrott
afro
trommer
trukket
1805
sarp
ammun
oppløst
metropolit
forbruk
##issima
framtida
kvinnen
lattare
ward
haute
##forbindelse
##jab
hander
sup
utv
ordfør
fabrikk
kommersiell
brenn
balkan
lantbruk
##anal
radgiver
yaz
besta
cow
massak
foreslog
jason
##stru
ledningen
nasjoner
gotlands
tanzania
##sr
integr
##medaljer
bask
dendrob
##uman
tidskrift
vannkraftverk
strekningen
##faltet
selvstend
hi
kai
##oloph
arbetare
klubbar
##ll
ili
##bella
##landor
edmund
noll
tillhort
artikkel
quer
flyplass
##phis
gyllen
tavlar
milliarder
okkupasjon
ære
etablere
parallell
tos
##orin
venus
flu
ockup
##chs
mesta
1802
behovde
اب
tradisjonen
##kriget
##ouan
six
##domen
markeds
stuart
##hoff
skjut
##othy
##medaljor
##esis
alesund
kvant
johansen
diskuss
sports
bildat
sanddyn
##gow
##otrop
konserten
kommenter
##resjon
##ymnas
falken
apple
julia
bio
##ctes
##format
stykket
gabon
rutelidae
alvorlig
jay
##side
##rius
revolusjonen
bourgogne
##sja
levnadssatt
lasse
sikret
lennon
##æk
##wor
##arin
##okoll
byggt
diesel
bilden
inriktning
stumpbaggar
aften
##runn
utfordes
konkl
socker
vanlegvis
child
##eltet
gaz
tennesse
dave
##sdistrikt
styrkor
##embran
flyplassen
marknadsfor
skildra
eud
porter
sundet
russell
##drakt
##uj
bebod
##passet
spencer
culi
berattelser
jarnvagsst
anledningen
amarant
litterara
cou
sander
##cell
##radde
halsa
hypot
mund
##tan
##anea
plattform
tilnær
klokken
antoine
aman
##gatt
anst
##lasse
primar
##inspel
forknipp
utpe
##fect
drew
nintendo
gravit
##eir
##fys
frekvens
esf
hc
kec
stalldes
ferr
lørdag
samst
5000
##umi
handlingar
##kons
##inett
139
calli
demokrati
##igo
storsl
##remedlem
fremme
stranden
vinnare
vasil
hindre
forretning
##skjer
##iskan
motorn
lub
naturskydd
distin
eumenidae
##cion
sea
wend
begrep
ubat
##ininga
hellig
##medel
avancerade
daligt
##løy
chat
##ylum
fangst
dale
##emburg
skader
bered
eksamen
##user
katalog
høst
guan
##borger
fjerne
kuk
##saks
report
okad
##rommet
georgien
vidt
megal
##skiold
bunn
##skades
##cernen
mottagande
##skill
pilot
inger
##ionidae
navig
forvaltning
sjukdomar
##27
ellen
harvard
109
verkstad
##kommit
antrop
koll
kelt
##peratur
##vise
jonkoping
tidene
segrar
##rafik
bridge
dug
##zal
avhandlingen
jernbanen
gel
stok
sever
levende
grønland
fabricius
bem
ari
##antik
spissen
britene
skje
nairo
##grev
uppvaxt
titan
##gotlands
stjerner
##onso
godkjent
perm
rulle
proff
rødt
##oraceae
fristaende
betyda
vinrute
driften
inspelningen
era
##26
pard
norrbottens
##skare
push
tier
utrym
huvudroller
zyg
andrea
korsblommiga
zel
stere
spis
##opio
##ygd
breda
##hojd
##atu
frie
##igheterna
tegninger
##yss
##dor
medlemsst
puckel
carn
alfabetet
elmer
konsept
luxemburg
skutt
##sforbundet
snyltrots
losa
oppsto
osterrikiska
##sok
kackerlack
schult
270
##ulla
buntu
##skyld
##opl
latlista
pub
##iman
produserer
chry
jørgen
##ivo
nordlege
oppføl
fremtid
champions
##partiets
foregar
loph
pyg
perifer
sørlege
add
irske
##skab
oppgaver
fremmed
##uenay
varpa
saguenay
medverkar
##astin
spet
##skv
overtatt
samlingar
fysi
oz
##oud
visste
rhynch
##ariga
##retten
odling
saw
kategorin
klostret
arizona
titlar
hua
kep
tilstand
antis
porte
borgerliga
seh
malaren
##alistiske
bostader
hms
##iley
two
guangdong
104
zhe
wid
skots
genomgick
ghowr
ira
intellig
##hver
##enbach
uppstar
forstordes
##aha
villkor
forskjellig
tettstaden
drepte
##ordet
them
onkel
tau
tev
eskilstuna
kackerlacksart
skilda
##ornet
fullført
flertalet
mitchell
126
dendrobium
trask
vagrade
publiserte
karr
speciella
lamnar
kostnad
øke
quin
ideen
tian
merk
##lenburg
driva
onlyinclude
catal
kambod
halvan
skyldes
kund
##imon
found
blanding
##leton
1804
##cula
flug
middelhavet
##uridae
chir
etterpa
##zeh
tidsskriftet
kreis
individerna
borgar
kirg
##staben
premiere
bronsmedalj
ringen
##banken
nasjonals
begransad
avgjørende
lust
##athan
havdade
##bey
rettss
##kvist
kie
##pes
1758
lombard
ektemann
##yler
##bjørn
boe
opna
ube
kronan
babylon
ljungvaxtart
gravid
edgar
utomlands
##rei
okand
tvil
passerar
skadespeler
kurdistan
wikip
fjellene
statsk
##irost
bockerna
planeten
vingesp
fangenskap
hebreiska
forsy
kyrkbyn
balsam
ahmad
aser
##vampar
##yns
##bilis
firmaet
antart
##gru
budde
eag
##uu
##erats
fredag
mississ
##osition
##parken
##ranser
##donald
invent
moln
faktorer
01
komite
fare
##yes
##hiz
representere
hindu
lup
##vingen
##lagda
geografisk
rafael
paraguay
kag
bakkroppen
anomala
coast
##pat
kompli
##atts
##irer
finglanssteklar
politi
##ynene
##stin
asper
nominerades
falun
upptackte
##elk
what
eksisterte
##nie
aboland
enor
betale
##anti
dhaka
##ionerna
hauts
forsvarsmakten
strider
arkeologiske
##avtal
barang
fodelse
republikan
agen
boc
##bba
pedersen
gator
##لا
kommunistiske
ibn
motstandare
isbre
moll
##skrev
watson
##orerna
##uno
##endorf
##teckning
familieg
uppman
rettigheter
kretsar
ata
##ygium
kaz
specif
psil
##junkt
edmond
##incta
mold
##artade
kings
##orra
##punkter
lloyd
eriks
ming
##opal
##endrum
østre
georgetown
tapet
##ulidae
relativ
apning
eleon
yan
##bock
##formann
##uelo
fysikk
dolok
##hamns
chilena
venezia
carlsson
patent
neph
norrøne
forfattade
rammet
gracilis
truet
##jup
##enske
høyester
aux
darigenom
euphorbia
bisk
##mart
slam
claes
nairobi
##snas
fland
vite
enna
##spraket
musikalbum
seieren
##hert
fine
##cao
bird
utval
veckan
##rimin
hedmark
smer
##opis
eies
##algo
overta
kusin
##eliv
magaz
potosi
##ries
fortsetter
##esam
##ittiske
donau
bates
inngikk
aka
gut
hax
nasjonalt
##slan
margin
skihopp
oax
##رد
##okse
morf
svampmyggor
kvinnan
hammarby
skis
mississipp
##hyd
##ettan
ledelsen
ungdomar
##hao
channel
aeg
##nick
kortvingar
cem
endel
##ulon
tennessee
inloppet
anvant
##hals
##ocephala
##sleder
semi
##sette
forsvarets
føde
118
dartill
bue
manliga
##leri
##slut
utrustning
souther
forlate
datama
duss
##amia
##anza
chong
conrad
innbyggerne
##lage
##entrum
advent
kora
livsmiljo
galleri
akademi
##endent
##neby
##ellata
aure
vamp
høgre
behandlar
##ologiskt
##sdalen
finansminister
##amba
begynne
##bakken
paulus
mojligheter
##ubbel
antartica
kind
##vatn
ønske
viii
##stationen
skru
##regler
nicaragua
iss
sjanger
sainte
tilbyr
foreslatt
skien
nynorsk
trea
##bygging
vagbin
venedig
1780
##historiska
##styrk
##chan
##ucerade
soft
henrettet
peper
##fu
militært
##personen
melodifestivalen
##æs
afton
linn
##vinger
variabel
##shogskolan
hits
##reis
betydelsen
girl
tobias
vista
##varer
konkurr
##standet
avgang
diktet
stallen
svein
svans
konsekvens
##ekn
prøver
tidspunkt
##aldt
tammer
forfattere
fulgt
pjasen
dags
##zzi
spredt
eksist
konsentrasjon
##roder
motsatte
skildring
chate
korp
feltet
omnamns
tillverkas
matematikk
konsp
noveller
vitenskapelig
johanna
guden
##rug
jordbruket
rettet
eksisterer
tillatelse
nyslott
sah
tunga
effektivt
succe
##rantz
sovjetunionens
jødisk
sene
##ulatum
antog
pong
ankn
##smyggor
lokomot
##areh
englands
saknade
skyte
utomhus
xiv
##struktur
##alle
seat
##blod
kommend
##lemann
embet
skogs
anerkjent
huvudsakliga
##heid
flyfoto
##itra
##geri
spare
##kkede
##eksped
prøve
juridik
laht
##visar
zhejiang
enheten
lindberg
frat
##cock
omstrid
phylla
preste
produsere
orientering
##lingarna
##øye
##elos
landbruk
##ockeyt
cienaga
nassel
sender
borgmastare
dion
stenen
deltagande
gutta
basketball
##ogner
koncent
tetra
forelas
effekter
##kirken
elektronisk
markedet
tillhorighet
arsenal
##egu
sving
inndelt
nautiske
mønster
forsor
helsingborgs
vattenfall
sammanslagning
franche
oppgave
engagerad
nur
linda
baby
hiro
##lende
uppdraget
kanton
auktor
##jong
eke
init
##asjons
blandning
##qui
patron
argument
##ин
spark
##smuseet
eum
mez
kyl
lønn
pret
##sprodukt
brent
##outh
minskar
vestover
halvon
foregangare
bredere
##bladsvaxtart
hub
##fell
naturlige
##byra
regjeringa
##emusikk
aggress
ll
enst
døden
kvalificerade
ombildades
##jakt
shand
kevin
askadare
puckelflugor
bann
##jente
symfoni
hittas
utfora
280
israelske
regissør
anker
spesiell
wo
norrland
christensen
mecklenburg
##funnet
omfatta
kryd
familier
sodermanland
reka
befri
##work
halmstad
frog
##ilian
neil
sophie
heavy
##iera
vals
perd
foretagets
segern
slalam
nærmeste
oak
##assen
tox
burma
cyan
foljdes
limn
##ند
rorande
nikolaj
jae
##svalget
festning
kyp
endra
riga
##attle
tilhørende
cic
bomull
phae
teorien
suff
##annelse
123
knight
gonz
jugoslavia
vedlike
ulv
overtogs
entrepren
dasht
betraktet
vinde
##stierna
bars
hovedrollen
inspiration
ule
tjanster
bertil
capp
vetenskapsakademien
hebraisk
beh
kross
litterære
utrikesminister
mande
vandring
##asse
sval
paverkar
tjenestegjorde
harp
buksam
##sfj
filmene
##rox
##holt
##aktige
##lines
kalendern
gjennombrudd
konsentr
returnerte
intermed
##komiteen
syntes
kvartsf
hut
1795
tsjekkoslovakia
##ococcus
bombe
kropps
##øtet
clarke
stuttgart
franklin
toy
morka
grunnlegg
veliki
insats
epidendrum
roberts
psykiat
tilsvarer
##bevegelsen
latskrivare
hidalgo
##rygg
vilja
wurtt
obsjtina
sportsutøver
village
hannover
slutspel
arsskiftet
saab
missouri
gjennomførte
##graden
##lach
bestand
hessen
philos
mesa
vinden
gottfried
uppd
bedriv
løv
attent
storharkrankar
krever
##guvern
tammerfors
clement
##ensk
##amatcher
analys
##ecken
##adin
ockuper
harde
hvitt
##elns
phyllach
avsatt
utse
derby
ravin
##iosa
124
summer
buksamlar
##rende
bergman
zheng
##ech
##ophus
radiop
hovratt
grunnlagd
1798
olavs
buksamlarbin
##alu
##entene
##armen
stalla
fries
østover
##vattnet
varianten
trening
gyld
tord
kuopio
enstaka
##olar
dov
lex
hager
##uppet
fjerdeplass
##utbild
intress
##permum
malta
lur
##entrus
touren
skapat
deep
dix
blanco
bowie
##hed
frakt
oppford
djurart
pauli
##ffel
117
jule
##undes
framforde
populart
##etz
##angrep
carex
##lace
harda
##apan
107
lyktes
##napp
grundat
gestalt
oversv
hotellet
belgiske
fans
lette
punt
##ez
flygplatsen
chapman
næringsliv
##klub
mobilt
##onna
territory
langhus
majoriteten
medi
varken
##ieres
klader
fods
##selskapet
hamnen
ritades
hd
karel
##rustning
andalusien
wis
storst
ørken
vedtok
passion
marina
senat
##idaw
memor
immun
##steatern
hedvig
rist
##egal
##itan
begra
##oclad
fiolin
flygplanet
tyngre
edinburgh
southern
aleksandr
rita
##ingarna
##pers
avisa
##icz
##ulia
riktigt
1794
sord
neo
stadsb
utgivelsen
lyng
alk
skaffe
sjukdomen
##punktet
visby
sudan
asb
##belte
eftertradare
maud
oversattare
##lier
most
uansett
##obi
##atoren
svarade
eik
opplag
##acea
##rinn
olden
cockerell
##opsyche
##bukta
papua
emblik
##ledning
karls
djurgard
presenterades
potter
tut
##29
grunnleggende
katedralen
spir
halden
##swick
##bø
##alyp
inspirasjon
figuren
fødsels
##øpet
berattelsen
turneen
##hua
inhem
113
##representant
ljusar
trondhjem
##igu
chem
atervanda
bille
gress
##steman
playst
dragon
varn
utbrudd
##ols
##ichi
cancer
ericsson
##joki
skoldlussteklar
trio
ice
##mets
##nord
innlemmet
wan
##ementer
helen
psykologi
echin
nt
##osex
garcia
igna
sesonger
katalonien
døg
##odyn
sverre
kut
##leker
utlan
festiv
clara
unntatt
benamningen
utspring
equ
kitt
##bring
##ibia
103
##unne
##lekt
kjøl
scel
medalje
antioquia
playstation
ragn
tach
##alpolit
1770
øverst
sack
brudd
##haw
pion
framført
##mex
prøyss
avser
andrade
stalin
fantasy
##uger
anark
##svoll
emile
herald
drikke
##jep
##xaminer
avdelning
synonym
kolonier
##sklubben
kunder
roos
fangar
##stallda
slipp
skat
handelse
endre
ekonomiskt
hardy
ambetsman
yorkshire
anlit
export
gravlagt
fortalte
##verdig
lum
ingaende
tidspunktet
virksomheten
engasjert
##stach
abel
kontrast
##erie
lister
indiana
kjøre
jugoslavien
palestina
##orlunda
##ivi
leh
ostergotlands
gros
spur
muslimer
iber
##estrad
natverk
kontakter
ungerska
##andes
wah
##utton
vackte
##ymer
forbli
deutsche
dete
faltt
##jek
djupt
##bær
anlande
119
umiddelbart
##møre
sykkel
samtlige
##retning
legat
regisserad
ulik
befann
elitserien
medvirket
bemer
tens
tone
proven
inspe
diss
caes
##skyrkan
stord
befatt
kyrkobyggnaden
pis
##pad
##bilar
roland
##programmet
##forsvaret
hør
demokratiska
##unculus
fodda
tabanus
matthew
adrian
##laggningen
belgisk
daggflugor
belonades
embrik
frigjør
bakke
##prefekt
gongen
##illy
ansiktet
hep
tik
ond
##iteruss
##gul
platen
sarah
ekman
blommor
lal
sigism
##havs
drae
svek
stundom
sola
vises
datteren
barangayer
##wah
##rake
regementet
##resser
##faller
##herine
kulturelle
northwest
givit
molekyl
paral
birgitt
320
bevegelse
bohuslan
hovedkvarter
organist
foruts
##idde
##løse
##kken
##slos
##ssy
utgivelser
lakemedel
wurttemberg
feltt
##akar
##asu
##snavn
samferd
##hug
##ampen
resol
rumanien
jerry
##jarneart
connectic
stammar
ritade
garder
salzburg
ocean
naypy
dialog
naypyidaw
voss
merrill
##abel
##ctis
rana
fraser
teat
kjøpe
faderns
erbjuder
##ssven
##ulturen
publiken
identif
forarsak
##rær
hamna
attonde
revid
made
##reger
licent
##irs
##onenter
biler
##borough
oversiden
pagick
##selva
stammen
##jning
underteck
kennet
infrastruktur
katastro
pressen
spilleren
parallellt
vennskap
segel
##roman
kinestrad
ersatta
##ittene
kome
##smuseum
huvudrollerna
eil
##utskottet
##yllus
journalisten
##adar
##angan
##olata
##samisk
burde
skuld
avlid
koudia
ukrainska
okant
xian
undergrunn
overk
daw
brunswick
1799
##bong
##udet
provincial
antenn
derfra
klag
historier
late
kombinasjon
sjølve
privatliv
plater
##allskap
##sev
andy
##retter
fabriken
civila
konstak
galile
dalton
duv
zon
genomfor
sykl
bjorne
##lava
dela
farm
uv
##ididae
støtt
popp
rip
##akers
##romy
stev
utbredningsomradet
mottog
apent
##heit
bevisst
news
betydningen
nina
regionala
wallen
smek
##somt
sangene
##urne
omrada
ostersjon
voks
grønne
erling
interesser
smar
##spris
tyran
gruppene
year
fungera
imperiet
elaph
##fyll
##amt
amm
ait
##lemen
steklar
arden
vild
##owski
##temot
strekkjer
gene
orb
army
collins
burundi
anstallning
##orph
##iness
##lister
eksil
samstundes
geneve
amal
utexaminer
religiøs
kelly
selatan
kiruna
##bilder
##snackor
forp
dele
##shi
styrels
astad
##slutning
##oridae
markert
lorra
##ianska
styra
næ
samlings
sut
tungt
bolagh
keyboard
doh
##ethe
rundmaskart
trummor
misslyckades
oron
krafter
##platt
tycks
gjø
praster
nettverk
fib
##alk
amator
##olet
manniskans
rosterna
leil
##komma
traning
##myr
larvik
vint
##tog
granser
##økken
primær
salvador
march
##aktiga
##scha
fm
##angi
dottrar
wes
##iac
orsaken
trenger
atal
varldsar
reness
isaac
proje
beton
essa
middelsstor
deltakere
forbinder
versjoner
foreningens
etterfølger
##istent
innførte
##opterus
hamnar
kenora
nedgang
hovedt
##iformis
forra
prester
##rogrammet
darav
##lasjon
elektrom
niels
##jem
never
##aktigt
hovudstaden
hvilke
##raea
##light
trykket
skillnaden
##tegnet
tiderna
##iterna
##opteris
dramafilm
instrukt
atgarder
116
sjalvmord
havn
oppland
suver
##levande
guvernement
ntn
##vd
borne
tavla
elektro
pianist
##kandidat
kvalifiseringen
pulch
sture
serp
here
rack
##gir
##xx
mengde
sjunger
##oso
elvis
fastigheten
aphod
bae
kosa
##tel
karolin
##hv
steiner
##klad
bildet
dana
##rør
##court
tarnet
skytter
##beratt
eugenia
kakt
vasterbottens
liberala
utokades
oland
##esisk
slutspelet
##verksamheten
##selen
foreldrene
##weg
legendar
##nek
leds
beteckning
erkann
typh
htt
pann
forstaelse
##fera
amund
fres
klassif
sammensla
##obe
##roma
veta
bibelen
runsten
librett
birkaland
rektang
jemen
tower
beund
opptradte
gjaldt
hornet
##ridae
stilt
##soni
palsen
1776
backen
##yy
reda
nokon
retor
kild
##logs
plots
ortodokse
##yris
hansyn
brow
##vegen
havnet
##icha
grovt
innbygger
##ualitet
##okken
fjellt
clem
vala
valuta
tunnelen
dominerende
yards
##ahu
bakre
mohammad
##ии
astrid
guerrero
##osial
verv
weber
##derne
space
lovisa
paraly
omtales
innledende
750
hunder
fortel
portugisisk
mozart
##iox
parter
agnes
likheter
rudolph
artisten
skaper
mauret
##fødte
kommunala
arkitekter
##vende
##ices
##skogar
##ouch
talas
guangzhou
yukon
##roe
skur
skald
atter
flyter
anslut
raven
hensikt
stern
setter
pargas
##qua
##sidig
naringsliv
sekel
forsaljning
riksdagsledamot
episoder
##roth
konstitution
fundament
##remiar
schon
dallas
tes
##usse
byta
##lekene
kaller
##jansten
houst
demningen
##rella
annex
carpenter
hs
agdes
kvalifiserte
ambassador
bilt
##inensis
pep
##arkiv
bachel
otter
##uw
fotbolls
penins
##viser
trass
benytter
kavaler
##azi
betegnelse
maritime
oaxaca
sung
##gjer
##stran
tripoli
##cheong
automatisk
merket
latinska
success
moter
bitradande
tydlig
ect
residens
huidu
flickor
polk
zimb
##landskap
##able
cole
tecknade
alab
##ichthys
##ems
vinnaren
luxemb
##navn
nationell
christoph
prototyp
overstel
tbil
infekt
orlog
bryta
betydelige
dame
##gel
svag
##apolis
seine
rekru
skjønt
sallsynt
xia
##bein
beleir
achille
manag
##miljø
##kust
fv
flem
oec
pite
##konomi
omradena
gramm
østerrikske
wikipedia
domsaga
miles
##yren
forstor
minsta
regelbundet
stum
pafagel
framtiden
exc
tropper
##officer
vingene
##orr
bokstaven
uvanlig
##stick
kommunistiska
grundad
ledere
alexandria
##artik
frisk
##quel
fugler
jura
##asser
##ovice
admiral
tbilisi
##eleder
forlorat
##avut
1796
gymnasium
##bry
##olan
##istar
godset
##sspindlar
grenar
paradis
havdar
kommunesenteret
sangerska
##raftverk
forhindra
boz
utendørs
##jeh
scler
bytt
court
##uku
kamera
anta
##karriere
viti
##sfiskal
##sem
femt
hallen
beregnet
beteende
krag
nip
##gam
definition
soldaterna
##odden
versa
##visades
talent
##amnen
haag
brud
##kerne
nyttar
hyal
egyptiske
anj
lyon
dn
##terer
##utte
byggts
søndre
##chard
##round
styremedlem
##straf
drevs
begravningsp
databasen
kashmir
ef
tillater
smor
forsamlingar
profesjonelle
forvax
##serne
kaukas
##osom
solna
mojligheten
oldtid
jager
yout
##avis
leddes
gm
##ikh
institution
1797
overlamn
jonathan
færøy
seriens
ryan
gardbruk
crem
dors
##journ
##ogenhet
mp
##isont
expans
undersokning
forfattarskap
fitz
lae
barbar
##sjob
kordes
##oas
##iventris
raff
industrial
jamtlands
singapore
##flo
##anto
##anst
alltmer
datidens
sangerskan
stillehavet
hare
vogn
##reps
batar
##alth
skickade
##krypare
##kkene
armens
drepe
nøyaktig
pung
stadsplan
munster
landskommunen
ranunkelvaxter
##ostern
chri
flytande
##him
##iona
blag
##anor
forflytt
114
##rollene
##gavs
skvadron
kristi
euk
malte
kosm
diff
##itsa
shek
##fullmaktige
borgerkrigen
lojtnant
oval
huvudkontor
kapasitet
zetter
##ilden
utarbet
schleswig
slikt
##fle
torra
##quet
osterrikisk
landhockeyspiller
##bron
innvalgt
tyckte
##achal
nytte
stickmyggor
pes
aviser
##seg
skatter
invasjonen
##sikten
express
beslutet
##igera
datert
stravbladiga
cuc
stevens
vesentlig
patriark
slekter
lærte
rapides
atskilliga
##astad
cathar
opplevde
##agor
##ocerus
joao
##skanal
rekonstru
fint
petrole
eige
##ady
##lagga
##shast
##legge
skjønn
befalhavare
inkorp
resulterte
zer
normann
midlertidig
dul
##cli
##jeld
forsvant
bygging
##byggd
joy
##maskin
terra
lokalisert
stiftelse
oversatte
##savt
nasseldjursart
slem
regeringens
kentuck
passasjerer
kravet
1788
330
omfang
turister
thun
serbia
astana
løpeb
nasa
##ondi
augusta
asmara
libyen
##jeva
varldscupen
bakgrunnen
antarkt
basid
esfahan
bære
elim
##ст
##kek
##splass
aktieb
lettere
ralph
mangel
advis
1791
##akry
upplos
uppfora
nylig
nunavut
##jent
##foring
##illen
##rocer
kjel
lyc
blu
forskjell
kannetecken
behalla
##opoda
friherre
drives
pettersson
##ikten
##sproduksjon
fortro
mannskapet
amerikanskt
justiti
cran
##roa
ifra
pink
##arkivet
kona
##castle
##asien
##varld
karbon
nek
##هر
##lect
cafe
kongelig
##sunionen
prinsessan
uppmarksamm
okkuper
opposition
shelah
julian
ambassadør
##ftt
oppe
vatnet
zimbab
novell
connecticut
##omar
##maktene
nymp
funne
restaurering
rytm
sert
buj
boet
syndrom
genomfora
guilla
present
##trafik
stemmene
episode
nitt
ingeborg
##forsker
##slov
ifragas
##ław
alls
kilo
metro
lese
lagoon
medforde
nedslag
walk
brei
turkiska
lorraine
olle
##sfag
teknikk
broadway
inbj
klor
fjella
rangers
bekreftet
nyligen
ostersund
burk
kringkast
hin
rora
##ønne
108
phoen
kejsare
fysiske
bakkropp
kieffer
tara
hjalpte
traditionell
cordoba
culicoides
della
dodades
ideal
ultra
##illas
##acupen
##fabrikk
varldsmasterskapet
##vuxen
torv
forfol
besokare
omlopp
##jenesten
##laggningar
beau
tobak
intraffade
coh
hew
##orns
vektor
##alleriet
statistik
chungcheong
##amph
coqu
preg
akvar
varierande
brune
malaysia
##gate
provinser
fotballklubb
sjalvstandig
teorin
snorre
kenneth
straks
##oslovak
kaktus
liby
##loch
##neri
cox
##sele
nettopp
syds
befast
hjemmeb
indep
lhasa
velly
wisc
alfa
ljusare
utforda
##ikos
halsen
konkret
inkluderte
##familj
talt
##cat
verdsmeister
forkast
radiost
fren
klaver
##bind
andamal
asyl
krysset
jus
loh
arsjubileum
##smater
##bid
##amatan
omoj
boende
montagne
##ulasjon
lader
##stena
cod
##iche
inneha
fjær
muligheten
rens
##antan
festningen
##jeb
glasgow
antikken
saks
tørr
korsblommig
##strar
##idda
pack
stadsfull
tjeckoslovak
flint
strind
ibsen
advisory
##spitze
begar
temp
bensin
##sfrag
shandong
##ين
##igar
kongsberg
manniska
groß
forkortat
gadda
elegans
utelukk
##lits
stoppet
##ikkelen
gentemot
##sbyggnad
##mour
##emokrat
##deler
losning
mercedes
##hart
##otisk
overen
palindi
illeg
elites
opprettelsen
roten
stoppa
gary
gesner
kecamatan
makedonia
kretsen
fujian
##lein
unik
eksport
denis
##derar
landa
fodan
diamond
atlanterhavet
smale
trinn
sne
##spark
athlet
bust
hundrat
designet
gotalands
bicolor
pare
wick
##iserats
champagne
torped
isot
akademiska
hertugd
prev
pott
harnos
warner
sanskrit
nemlig
enklare
enhver
##mani
##skjut
plect
seint
tatorter
selde
øyeb
fasaden
musikalske
ceder
##zu
##leby
vivlar
gymnastik
##ml
##sler
leks
forcip
berger
##sparken
bekost
##itta
##iermark
symmet
kongeriket
nott
hjert
initiativt
saud
framfordes
##janster
demografi
traditionen
mamma
afrikanska
kopier
haugesund
omgangar
##resultat
bataljon
utexaminerades
##sley
##inert
innsbru
##gau
testamentet
##latta
fara
krat
##skur
1750
forskningen
##kanalen
##olje
landsfiskal
livs
##sdorf
lamb
02
age
##pid
slett
konservativa
chelse
##redende
half
##syra
sumatera
##lagte
selskaper
##brune
fabrikken
muhammad
##andi
utslag
gry
blot
spelarna
##color
##ømet
sjons
arrangeres
vilar
hval
velika
muslimske
utførte
bildandet
##achim
takket
kommando
konsekvenser
interessert
##sje
lyckats
eksperiment
##atory
blanca
##acus
hallands
overtyg
mandag
##sledare
administrasjonssenteret
scopula
skylt
##anteles
bolivar
poecil
ket
##seri
motoren
herrer
plasser
lave
flyttar
##ulert
fotos
conakry
grammy
luxembourg
elvene
##ibel
##riller
cris
boiss
livsmedel
fantast
##yrmex
mota
shen
isid
sukker
tjenester
magazine
sigismund
##ovan
arrangerades
onc
folkhog
##mingham
gara
##zio
##romis
utenriks
presteg
null
uss
##oberg
##sammen
siyah
minnet
duc
##kod
storhet
seriet
dasy
byggnaderna
eck
##asteroide
mojliga
ww
inkop
nilsen
døme
##ophthal
tofsspinnare
##yar
##ilin
allmenn
##somme
tunge
glatt
guadalupe
tus
historikk
rommet
scut
bau
##onent
vilt
estet
aus
ita
uen
##gol
register
tetouan
rup
syz
##atexamen
høve
dannar
klem
##andro
forekomst
vega
tess
opphe
levi
byttes
##shavn
klubber
bær
pga
##paret
styrken
##kampen
habitatet
rakt
##sakt
organiserade
##ogna
1787
arlige
forestandare
lidingo
fienden
tyrkisk
sarpsborg
##qing
micha
sammenlignet
rush
##niska
skel
wei
paralymp
##kunn
##opia
utbrot
svansen
chamberlin
heste
fladder
##onomus
basidies
##bow
hittar
forretnings
##berry
anden
vila
helgen
##thes
modifier
foder
mannlige
reservat
osmanska
naturvardsunionen
besvar
tilhengere
##maler
etableringen
gjøres
konkurrerte
##organisasjonen
mck
mato
kafe
intressen
koncept
sorkh
soren
1772
##sfiskar
##ffar
sørget
berlins
skulpturer
tilsynelat
plur
teke
forlov
traktaten
lasioglossum
##other
##debut
motala
austin
joachim
##ungan
riksvag
confer
mauric
noth
##funkt
##teri
filmregiss
alliansen
individuella
nedanfor
innsbruck
basidiesvampar
##landslag
etniske
dverg
vager
pena
arkeologi
##sforeningen
##gass
##eliaceae
norrønt
steven
##gjande
indelat
##elte
tagg
##dat
##retsen
raz
##ekspedisjonen
taler
inforliv
gap
##isto
motta
brens
fjort
kristine
macrop
reag
horisont
fjern
lansvag
hild
tamil
australske
fasett
##fla
##emet
australian
familiegruppen
##jøre
narliggande
marcel
##riker
nedover
##verdige
##onium
kategorier
trupperna
asteroidgruppen
laus
edderkopp
oversettelse
flandern
bakt
frod
perry
##forsok
forvir
##stang
sjalvbi
buskerud
mobiltelef
houston
hym
kinn
tyg
##kun
##rypt
kunstnere
foreslo
spindlar
lederen
##ukten
verktyg
oste
vegas
jamforelse
##chten
##god
dani
jungfrulin
innebærer
birmingham
skickades
nurn
##ocken
hardanger
##rinsen
marion
three
villan
hudson
uavhengige
ptol
spott
swed
##rakech
##kval
generalguvern
##azar
##لی
laura
invasjon
vanligste
cecilia
##otet
have
usikker
myndigheterna
pens
lic
virker
uganda
folkmangd
bedrifter
minner
##eringer
luftfart
##chet
##attes
notera
carly
forsvara
##rostning
røtter
##bold
##stipend
##vering
franca
homosex
dialekter
bekym
spektral
##belteasteroide
tiger
politikken
standigt
kentucky
spr
##skapasitet
lox
ltd
##familie
##lossa
wisconsin
##aplan
##ograph
know
hagg
##rice
geoff
geir
kirkens
##acris
sibir
spredte
##riaren
##ostom
counc
##horus
steen
rockeb
øvrig
electric
edwin
symptom
##polen
schne
##bildade
##artiller
milan
uppenbar
marrakech
##oldater
laro
puebla
aphodiidae
lest
nin
##sno
##utus
toro
stadsteater
manusforfattare
wad
##ware
manuset
kib
virus
kvarandre
korset
domare
vestsida
##tall
##jeg
stones
utmed
husen
##skrigets
budget
optim
isk
kiss
forrad
##falla
kommissionen
##versjon
kallats
efterhand
forsvarsminister
##material
vang
tankar
konstruksjon
druce
##uls
symfon
osb
tilpas
tillverka
norrkopings
renass
##pta
##stjarnen
prinsesse
huden
##epartem
bella
utdel
##rone
disputerade
øl
##45
##merke
##ladd
tirana
hasten
fisher
institusjon
##rupt
innefattar
1660
##avan
##oshi
##foretaget
pump
##derade
##ridge
##effe
eph
##shah
slide
petersen
opplæring
##bevar
museer
arte
##sdam
møtt
backhopp
pyramid
isak
vastmanland
inspirerad
kriterier
record
avlang
apoll
utdan
orchestra
##hant
sommerfugler
##ruten
ofor
debatten
foreningar
prosa
hangzhou
pask
##mah
sluta
##landsoarna
tric
medicinska
tillforord
##ranter
oppløs
##aq
##wat
##zie
sies
jernbanest
ranunkelvaxtart
utenriksminister
##ikerna
bispedømme
##iata
##sratt
##otea
frol
raske
devil
##entz
ornskold
##uere
##wak
menighet
overstelojtnant
ted
##ulat
racer
yunnan
copa
haus
##ijk
motsats
sandnes
rorelser
riksdagens
nkp
jang
oy
pest
##lesvig
dalig
jury
sveitsiske
schwarz
pabeg
euch
pasta
campo
foundation
oj
##adero
hornstritar
olat
fylt
##øyen
jamte
lia
herm
lojal
##ehamn
innlandet
avlange
##blomflugor
hiphop
youtube
##gh
eksisterende
##oscel
elong
munningen
akkurat
oppover
situationen
tilstede
##sbeslut
politiken
##sfri
skilja
beskytte
##bygningen
##amente
angripe
ivag
##rou
bestammer
##advok
##egang
steel
##sprogrammet
##kos
##reville
thal
##bygget
##rering
moderat
kyrkogarden
##forklar
andorra
redaksjon
kulturer
340
##enburg
##alitet
##opot
airlines
##kok
gjord
##komsten
kunstakadem
koncentr
##ikat
ligga
organismer
##loea
operas
hydrop
soloalbum
discover
ødeleg
##midae
bali
avstanden
margret
##ivisionen
graub
furst
situation
utredning
evenemang
##idene
overv
##vinkel
ratta
sideel
oregon
##lei
##jerna
platy
sekret
opin
soldatene
fish
##istik
motset
ønsk
obligator
hørte
broen
kulturminner
blokk
henning
bonder
sodermanlands
##sfield
petrus
rostratt
bmw
jess
uz
innslag
##sgarden
musikalsk
kje
kortfilm
timmer
legenden
skivbolag
##ligste
##bered
etterkom
steiermark
##loppor
تل
musikere
franskmennene
utgaver
gammalt
pagaende
framover
kram
skilde
serbisk
mb
##iak
karleks
##ssprak
minoritet
yazd
xant
klan
belarus
marius
inforde
mard
tales
##ubbelfotingar
##bidae
kold
##listen
pollen
idaea
intresserad
chelsea
women
##ografisk
kristianstad
##ᅩᆼ
##arene
##ictus
mottes
beordret
gond
handen
##iye
asplen
innbyggjarane
forsøker
perez
##iggins
urinsekt
lukt
socialdemokraterna
aristokrat
##vinna
hovedrollene
forbudt
##ee
##egel
spion
##utgiv
dessutan
kopt
kallavaxter
producera
morgon
spyd
simpson
overflate
##stasjonen
##skov
dennis
##angaren
landskrona
stephan
jel
klat
biologisk
paverkan
arsaken
bretagne
hannene
##oped
korleis
silva
møttes
syzygium
##rummet
difor
kulturella
blodet
benamns
cocc
garnison
##ason
##ksem
veit
zhu
drogs
lede
lagret
conserv
harm
##ocent
australsk
beskriva
##redet
tidskrifter
bruka
verds
1781
flagget
iver
ns
##marke
ulov
seinere
m²
muc
branch
eksplos
##høgskole
ntnu
skug
nora
muhammed
mauretanien
##vold
kveld
##ratter
passet
gradina
pieter
mekanisk
forkortet
##agarna
latskri
bergstrakter
plattmaskart
vitskap
##driv
##nets
avsikt
diagnost
medverkande
botsw
##ла
inrikes
kejsard
hjerte
foljt
serbien
##roy
##lima
##skoler
muren
##ampo
goog
hesper
##umat
##laga
kraftiga
galli
kroppslangd
risiko
engagemang
skin
lute
masterskapen
kallen
arabia
myndigheten
##hardt
konvensjon
##ffet
gjorda
japans
sandefjord
peninsula
fattigdom
##ollo
##ikring
myk
forsker
presenterade
undersøkelser
offisiell
lorenzo
##olp
alam
ungarske
socialdemokratiska
vingespenn
graubunden
##gal
##ير
##unk
lima
##odactylus
##atering
##hiza
benytte
violin
gesneriaceae
hib
søke
elektriska
maken
rond
##bah
utgar
komponert
daggdjur
uppford
##ogramma
peters
fanga
##oplan
gjelden
agaric
stodde
sjalvstandigt
europaparlamentet
##elling
##ytes
resan
svarmare
##fader
##alls
##vidd
##rocessen
absolut
døt
parat
utgivna
professionella
kare
ruth
bildad
fanger
seter
speed
##sselskap
council
marse
betyg
ekteskapet
##perma
##jevitj
byggandet
kandidater
##hugg
landbruks
chop
wallace
##irt
##umbura
tide
jagar
dakota
bic
##fond
##etet
anast
sammant
efterfoljande
haver
##sbron
##sbanen
grosso
##oq
##opung
arkeologiska
vasttyskland
moske
poeten
people
mariehamn
sd
##ront
helm
##riga
constant
##firma
kanad
1760
karol
##domar
aterf
##udad
##klok
kobber
hja
##ligaen
isle
##halvon
##arit
##alm
avfall
sjos
##iphora
##legger
fortet
bremen
arrangør
selskapets
wim
##nde
motet
erstatta
artilleri
tjugo
##vatet
forna
hausten
lower
naturskyddat
auk
radar
louisiana
himala
secret
avviklet
ikon
##skyrka
##ucent
taxonom
skovde
rop
trent
##flu
##teater
##emy
radgivare
igjennom
prosjekter
##icata
fortjen
bruno
ago
militart
cyr
hubb
newcastle
federation
hisp
sept
magnusson
##key
grip
##bie
entre
gau
soker
desto
##lieb
fifa
danse
musikalen
forente
behandlingen
karolinska
pli
øker
##eno
eter
skrack
fusc
kreta
##eie
jordskjel
namnen
administration
##apel
produktiv
avskj
##agi
pseudoc
sjukhuset
tina
mild
vedtak
westf
kommunistpartiet
gigant
sumpmark
##اب
##perna
##entligt
formet
scol
import
affars
##ruc
##sfart
stationer
narvik
##song
slaktingar
nagu
tempo
porto
eventuelt
##emonien
jomfru
##lish
##dekket
verte
tekstil
munch
utmerk
##not
byprefekt
frukter
mississippi
##rykket
boul
etappen
lagervaxter
miljøet
##nadene
forstark
##heus
samarbetet
byrjinga
puppglanssteklar
##hin
alskar
##annon
##hui
caroline
stravbladig
##uis
##lington
emellan
testamente
eleonora
utryd
jordlopare
sagan
##stillinger
##enus
##ogh
noens
avgift
pavirk
omorgan
##rimer
taza
##rollslandor
mk
##horighet
unionens
cemeter
strim
##ossa
borga
musikkvide
##sgruppen
arliga
##agaren
forsvinner
##ned
##enen
femton
delstatens
ugg
##amilien
flex
martine
##bjorn
komplett
##ammar
##rips
forfrem
##zuelo
plynd
##givende
polyc
namnda
##ruppa
business
metode
##asterskapet
islandsk
second
nice
romerne
##rumentet
abborre
##talb
living
konstruert
teoretisk
instrumenter
sess
stanna
##leb
lufta
sakalla
studerat
##iregemente
fusjon
oksygen
##agasinet
storslalam
cemetery
osman
سر
nordsida
andelen
thess
liturg
##steins
sjofart
##produs
beskyttelse
sosialdemokrat
##pha
##oplus
##ypter
market
primært
skulptor
##koreansk
##ик
berattelse
kym
##emma
kjørte
eddie
vander
personar
sibiri
tilltal
desc
sluppet
##ssted
##navnet
nym
lagring
stenar
medisinsk
cath
##gens
arsaker
##uven
jacobsen
pius
##bers
oavsett
positiva
vikten
chefredaktor
pepparvaxter
landmal
single
sjukvard
redusere
##buss
deutsch
licentiat
##oensis
medie
nyckel
##icauda
populationen
utføre
leddjur
round
1783
trigon
kannetecknas
##lef
pakt
generell
kemiska
aub
##sbolaget
comeback
israels
medførte
universal
tunnelban
filippinene
maximilian
##ykke
##ible
monica
kjempe
pafagelsspinnare
##itos
scout
provisor
##abrik
hamm
instift
akademisk
tvers
##rosa
streng
minskat
francesco
mots
lah
fernando
brin
noc
##ulig
kommitte
##festet
skuespill
cornelis
pepparvaxtart
hauk
sektor
religios
imponer
##ripande
##nattslandor
titler
casey
virgin
##nast
forekommit
##amensis
ritt
regement
valjer
marianne
butikk
chengdu
##hjalp
oul
brua
nueva
vuxen
lande
gjenværende
etnisk
cliff
nejlikvaxter
290
malloch
morten
elsa
barry
blivande
##svit
fortid
##odesmus
edel
gorg
##anks
##verden
eux
visepresident
charlo
skribent
assos
isabella
##bibliotek
tonsattare
dmit
silke
lekene
passagerare
botswana
1778
korrespond
hypp
jobben
##hteh
forgjen
varldsp
vivevaxter
nurnberg
unter
parag
##iserande
generellt
verkliga
##brot
avsedd
poh
skett
guard
absor
trott
kansli
##ratus
chu
kortt
clinton
tillverkningen
matematisk
##obergs
##ropus
##lokal
there
suf
##ømte
galla
##karen
##eria
hoffet
ruten
pagar
tillvaxt
opius
bons
1782
##ocarpa
saar
moc
bygges
hindra
forsøks
hou
##ithi
history
passerer
inflytelser
erfaring
##hk
ranunculus
overflaten
theater
exil
##emble
nanjing
grensar
fay
britann
##skomiteen
operativsystem
##romyza
##gil
havne
avrinningsomrade
beni
konservativ
vinneren
1785
rugby
boeing
##ligaste
foretog
defens
utmerkelser
destin
bujumbura
vande
varade
kupp
sjøm
##eledamot
fik
##vass
##jot
arve
hunger
megach
utsedd
backslandeart
benedikt
##lio
burn
hellen
stengt
##acka
willem
tropisk
noensinne
sele
talade
sanda
høgt
claus
##39
marsch
presidentvalet
frekv
riod
##sji
bromma
##steori
##hallare
bromeliaceae
kommandør
gammelt
oil
farbror
bobby
##iphon
ai
rover
winn
##roppen
langsta
statlige
skipene
##stadsregionen
650
fergus
alltfor
frykt
kf
##mitt
##jang
skra
annorlunda
redde
funk
kallavaxtart
##ingens
brodern
wayne
thecla
lambert
##othorax
kvelden
portugisiska
##jia
##tti
ferrari
##viv
##dingen
valdemar
jah
kasakh
lagervaxtart
erklært
##skaren
byane
##finna
atmosfæren
rij
##dikt
##delse
hope
krum
##herr
riddare
##fritt
dynasti
propaganda
underviste
hojer
speciell
nodvandigt
listar
charter
##formes
tekne
rollerna
marta
##alom
trekant
tabell
symboler
prestegjeld
##akim
cauca
vestlandet
fakta
##arerna
grise
scb
gjeste
jødene
trengte
troligtvis
abc
agri
presset
baba
shakespeare
overord
framtradde
dods
sci
oklah
egentlige
1773
zach
officiell
stadsfullmaktige
langvarig
##haller
vient
mueller
##universitetet
##ogo
##ibal
latskriver
utenom
øyne
lepanthes
austerrike
hess
##arke
##seier
ettertid
##rovinsen
invanarna
kommunane
banker
menneskerett
git
##sopp
##igne
ekvator
medverka
etappe
berattade
dud
utah
haouz
##alparken
kvarvarande
gnagare
##lips
oppvar
utgora
dubbelt
gjere
##aleh
regerande
bønder
misten
filt
gjenstand
undersiden
campus
afrikansk
grop
betydde
skiskyting
dact
spridning
##ون
miconia
høgskolen
oxy
pelt
##yndigheten
skandinavia
cert
loew
utbildad
folketel
visuell
fylkeskommun
##estes
staud
luz
##chez
pushtah
westfalen
##non
chass
andras
garanter
luck
triumf
carlyle
samtidige
##igner
##itiska
##akan
tillfang
##enea
chand
meinte
lecan
bakterier
birgitta
##bbspindlar
prinsen
baseball
hogland
taoun
##omma
halva
jiangxi
mangden
ungarna
qolleh
##artiet
##icula
armenien
nivaet
vinger
##uet
avseende
##ettes
##førsel
velger
##unna
spreng
komponer
virt
fiss
##gy
generasjon
stars
lenin
olaf
innspelinga
tillkann
##arias
vilkar
slutta
generall
skjel
petro
bamako
forbattra
ferskvann
dala
seng
avledet
nal
hasan
gow
nahr
##ulering
kartlagt
tsjekkia
opposisjon
soll
adopter
radie
##komite
latinsk
eventuellt
##vapenet
intervj
##østen
hviteruss
vester
selvmord
traffar
enri
##anthera
malvakt
vapnet
mtv
##less
handlade
doptes
innledet
bokfor
rox
trafiken
lorestan
nobel
geografiske
konferens
pittsburg
kov
##chon
##lies
##ious
bryte
sevilla
pich
straling
dicranomyia
jal
overvag
imago
##sporten
sweden
##olophia
nasjonalsosial
ural
songs
##sum
innb
##sstil
##elea
seriem
analyse
lise
##laus
spellemann
touchd
##cheng
##fjellene
pyrene
freg
mannskap
##emeinde
##uar
fenomenet
gim
jing
##rafikk
##fragan
tillforordnad
##osaurus
democ
istan
##vang
ell
innviet
foto
fjard
##orier
mazar
saur
gustafsson
uppfost
undersøkelse
mauricie
##qq
utgjer
java
benamning
taounate
550
rash
##jest
utbildningen
nix
##yrtus
forenkl
rayon
omsorg
nidar
atlanten
##ofag
skillnader
oen
ove
zak
rika
##vokst
snabbare
uteslutande
plum
valp
fangsl
##odip
vertik
##teknik
fristil
kau
##rito
garde
tyskarna
tillverkad
sirkel
maurit
torino
framgar
immig
mason
sikte
##sbergs
##bbe
##skot
##main
##barhet
benz
madh
jarnaldern
ridley
blotta
##resa
mikha
##unge
martins
##cinia
##lica
regiment
beting
meh
bredvid
##eldorf
palp
bosatta
mancha
mein
sjung
kirgiz
##ellaceae
memo
tensift
##abd
##klus
hemmelig
##faktor
foral
maryland
##republiken
boissier
##nats
##bys
##inan
radikal
salam
richards
tavlingarna
fark
kontinental
situasjon
socialt
bant
e6
xer
##dale
##harmon
standarden
munner
vivevaxtart
girault
fogderier
wul
harvey
carmen
centralt
naken
hoce
engler
##block
joel
komposisjon
tant
komiteen
##ichus
kammare
lucia
##rocera
oppnad
##leveland
dramatiker
##kulturen
vientiane
##inden
1786
miami
##alleri
syskon
##version
diap
jenny
petroleum
istanbul
##kalla
atac
samtal
holdes
skolans
##hti
mekaniska
##eselskap
##iguren
##yng
napoli
risken
emanuel
gay
##veld
##andel
omgitt
storby
##icks
domkyrk
grey
hoceima
zac
drak
##unus
##allskapet
syre
blank
relationer
ruter
regg
langfilm
##sbild
##slutt
koz
kvartfinalen
originaltitel
oue
skrid
shad
hunan
starkare
fyn
pioner
##snamnet
##handa
middels
riodinidae
leslie
færøyene
lahtis
memorial
##fund
##sbok
arealet
bukta
##havns
belagna
snick
pyc
##till
seilte
brevet
hantverk
cul
##bryn
spy
centralort
chrysom
cyt
##musiker
rangert
rocky
chahar
varor
kabel
##enson
bransle
##slinje
stortingsrepresentant
discovery
##job
##chsen
inge
slanke
acacia
310
tettstad
torre
##akta
alabama
asen
##ppo
lyft
##ergi
kroatia
helgon
tradte
##ropis
fns
tent
landeve
##skolans
baj
hittats
bevarte
##itlan
nationals
studert
##wen
nei
##regementet
eidsvoll
gli
ohl
tup
twin
vingar
##istes
spad
tryg
##ømt
turnerade
##sbygd
beth
doth
##icht
##opsylla
##oeurope
sasongerna
##gon
byra
potok
komposit
territoriets
tendens
##ingrad
forsakring
page
aceh
qatar
##orelsen
##oux
riktiga
generalsekretær
##uchi
ortodoxa
repert
##slok
organiserte
##malningar
makedonien
1774
##iyan
processen
zimbabwe
underratt
##bruna
rettferd
break
protein
##motorer
skandinavien
cron
crow
tilstrekk
tidpunkt
seattle
justis
portrett
evaku
dansflugor
indelad
jub
##hat
##ipalp
formed
veker
krep
loc
##given
framre
fysiska
butiker
vingen
##antia
monaco
basel
linder
sands
fattige
##batar
hyres
bum
kly
slesvig
##35
##etid
bukt
rekommen
actin
observert
skrivet
verdenscup
begravdes
annexforsamling
dren
##rain
##æringen
interna
return
djurgarden
spillerne
ear
hue
1777
skyldig
cæ
matsum
hudd
sari
globe
psyko
##virksomhet
##plate
reichenbach
forcipomyia
##lara
##aldi
metam
##slinjen
nordmenn
sockenhuvudort
sofla
nd
pine
##vitt
konrad
bryll
kottflugor
##amma
geologi
bygningene
uttrycket
osaka
##esiske
pachy
protokoll
fragment
nub
uniform
##itim
spetsen
uul
##øtt
framstallning
abit
##yndighet
##quez
rheinland
flyger
stangdes
opprette
oran
presley
##moen
1763
ciudad
poc
##ekene
konsthall
##rolle
gymnasiet
portezuelo
xy
##ikkens
artistar
sod
##nitz
##givande
##organisationer
utelukkende
urinsektsart
##innet
abs
rekorden
toppar
grenen
##pu
##skule
##leir
##akch
reed
##born
bladene
hampshire
vanda
##emiddel
##odus
egil
sluttspillet
skulder
politikar
bitt
bolog
svagt
østerriksk
konstakademien
bater
kanten
vaning
1779
lucien
kypros
bryllup
380
oden
##forkort
##ellum
trelle
sars
##verkets
auka
rhe
tilsammen
overlag
samre
senaten
mini
markus
rosenborg
styrelseledamot
##bou
##aru
##sbro
passer
##elekt
uppfattning
sære
##iou
##ukka
palme
##orphus
kvalifisert
pseudony
disip
##othrix
##etcher
gjennomføre
##kommander
ischn
uro
##caceae
##ams
piedra
okkuperte
##ра
forrige
formell
fattiga
##myn
##skost
##deleg
##esor
##onga
##samlingar
interess
kjære
##issus
dramatisk
##kandes
jenter
bakover
fanget
haut
##fotograf
skadade
curtis
orat
##annet
anthur
##asso
##asterskapen
hustrun
cornelius
##kler
wehr
kroatiska
elektromagnet
megachile
underhold
##iuse
vestland
viola
sjalvstandiga
powell
atra
##brev
##odde
##otiska
svend
vatikan
tørre
trafikeras
cue
mok
varldsmasterskapen
plotsligt
##olid
##odespel
##sting
##skyrk
##udde
savo
antisem
##mac
##opf
furu
##iinae
##bing
antip
1680
svenskarna
socknar
##bygde
gjøvik
##olt
indik
alban
tidligste
kejser
funksjoner
lagos
eirik
snabba
produksjonskapasitet
##cki
genren
##skolleg
nationalekonom
spesialiserer
elae
flitigt
inrym
forson
sportsutøvere
##lera
haf
justicia
individuelt
##forskare
pacific
tillagg
suz
kraften
pommern
##botn
##jn
hoppade
rehabil
##gjord
frey
tuberkul
territories
ege
##itive
nede
skapad
inhemska
xiang
malningen
colleg
producerat
pittsburgh
##svard
orsakade
provence
cott
##ел
##enaria
##uns
temperaturer
strangnas
##srad
##havaren
liberale
##edels
##ocen
dagbok
macqu
løse
##ович
##kritiker
temat
barnes
md
minerar
luer
evne
justin
##fus
##ylen
australis
weimar
avdelinger
tropiske
##acional
komplex
posisjonen
utformning
kristendommen
koden
##arian
##vinning
sorts
sparrisvaxter
rektangul
##ssjon
##mannia
dannes
emi
bibliografi
##yat
kanarie
##rinus
##kers
finlandssven
loper
dyb
fritflugor
væp
buffalo
lana
##upert
avrattades
etik
canadisk
minerarflugor
##stjanst
ange
alderen
pitea
##ript
uppna
betre
markant
navnene
uppmarksammade
pistol
##esn
poz
nejlikvaxtart
barber
##uvida
mennesket
kroppens
lettland
rodriguez
torsten
1720
##ouf
solid
angelsaks
aktiver
ht
voj
##iopsis
##sklassen
sommerfugl
regissoren
pappa
universitetets
skilsm
catarina
##slosa
##bergia
personene
godar
aguada
##ometer
flackar
bistand
cus
##anvand
##sakadem
##ringa
forstad
klimaet
morgonen
domsagor
nann
##lora
##uber
manglende
friend
strøk
tjansten
spesialiserte
kjøtt
dusseldorf
sparta
elf
organer
varldskrigets
aedes
##adh
##idius
story
jansson
uppat
hey
talang
kandidatexamen
giuse
halen
##urens
joakim
offentligt
##ulex
sylind
tafil
goras
huruvida
rancho
##saktiv
tillgangliga
##spolitikk
gjeldende
komponenter
raseborg
definieras
spiss
##moz
økonomien
##visade
santos
small
kritisert
teph
##allsvenskan
kvitt
urskil
drapet
intryck
prefect
portugisiske
##orhynchus
hytt
ankomst
perfekt
tyst
##sbolag
aserbajd
marne
tjue
cyat
euploea
tropiska
jol
strategisk
bristol
##amerikansk
##usentals
oklahoma
gob
##eper
##likk
370
##blommiga
##otrichia
sjeldne
regner
sahara
##obium
karos
dikten
##norr
spraken
nære
endelige
darleg
##hallit
schack
101
gracil
sauss
placerad
krefter
afrikanske
##ornas
##idet
##avi
grafiker
##joren
##union
oswald
pyram
holmenk
bear
farens
rytter
moser
playoff
##lau
##etto
arkitekton
occident
julie
biologi
patrul
grieg
tionde
##inho
##forand
maine
beløn
product
##konkurranse
conference
pie
##skiv
##idon
antenner
albin
avdelningen
##vinner
anse
uppmunt
flatt
upphoj
poul
bladbiller
zor
luanda
redovis
normalb
staudinger
tillfangat
konsten
fortplant
ljub
##anterna
##forenings
aktuella
##tysk
habsburg
kontinuerlig
##keh
##eptor
##synet
gymnasie
lingvist
##fragor
anbefal
apanteles
1784
soundtra
beromd
fiktiv
##ittisk
thorn
hermel
juarez
sokn
plateselskapet
##baten
##arica
heltid
upptac
øvelsen
meksik
##azarbaijan
wies
vastazarbaijan
helvet
rex
tilsynelatende
##esta
##etninger
##skede
expert
willis
##ily
alleg
challen
institusjoner
divisjonen
santander
##strafik
##skulpt
##administ
ogonen
##verken
##avlingar
##formaga
acut
##fallende
observatorium
foretradare
witt
dekke
tyrolen
karpfiskar
behovs
varldsrekord
pah
senatet
turnen
vagnar
mjol
størrelsen
lunde
##cs
##zzia
institutionen
bn
hage
##ogryl
sodermalm
blast
##ningsomrade
rummet
##emum
##ittelen
innehalla
larar
##kommen
##flykt
ignat
##gruppa
tillkannag
rhiz
1740
dalmat
sadd
jobbe
fulv
alvsborgs
rapporten
spiser
##irkel
utgje
ogruppen
numer
nionde
syner
andrena
christine
fortsattning
kommersielle
##gitar
artem
huvudbyggnaden
##ovia
gjenstander
aterin
##rotis
skaraborgs
storstadsomrade
nouakch
kanarieoarna
nouakchott
##omme
ulla
hunden
aktuelle
apostol
puck
forsvare
torsdag
##rops
robust
foraldrarna
empire
palatset
dad
utspel
##heimer
oppgrad
sharp
##minster
##kjempet
lindgren
craw
telegraf
minus
verdier
look
##frihet
sympt
spørsmalet
##olab
varmek
hoppet
riksdagsman
teckningar
##pedagog
emery
reaktion
fit
niss
diskrimin
purpur
rur
landshovding
blandet
parkering
panser
hei
sudbury
geografiska
google
##anz
arvet
odlas
trinidad
##epartementet
glem
buken
duck
palma
lavt
gue
omstand
##emo
mellomalderen
##handlare
##boende
tegner
krysser
svømming
cock
##ktorn
##dah
legges
highland
strategi
##strup
##entus
krona
alpint
identisk
arrangerade
##unnel
hunter
##rette
##klam
stamme
antagligen
kogn
##elaget
##ordfører
##osaari
riksantik
##vagn
pseudonym
phillips
columbus
inspelad
pry
##vakten
muslimska
forstand
##ymbol
verkligen
settes
horse
femteplass
sacc
firk
m³
nj
##له
##veier
##stadion
recensioner
teleskop
kanadensiska
earth
##obus
molophilus
bedriver
galt
##bøl
tilpasset
slave
gerd
baal
forluster
tillganglig
definisjon
##uncta
##pos
##veit
malning
fjarilsmyggor
tekniken
dominert
drabbade
gutter
##yana
underhuset
carin
deltagarna
##olepis
aet
gok
##obry
again
keb
krang
chrom
##ulit
kald
beslakt
grensene
pik
trit
breton
fiende
##forkortning
iw
hannar
utlandsk
nordst
##ierne
##illos
##domet
##kvart
typiska
klaus
iowa
bitter
##historiker
gurk
inntekt
rundan
gottlieb
management
giuseppe
##sliv
##edie
motivet
joan
niederosterreich
##mol
morkare
historikeren
##div
anslag
herren
toler
chateau
middag
objektiv
##ksamen
møller
rall
varma
parentes
utgangen
generelle
landskamp
##skontor
nicolai
##hill
devon
spinn
##betal
presentert
##yros
stodja
##yeh
##anos
inta
unesc
nordir
uppfoljare
serbiska
fott
rico
distansen
##iol
konvent
kulturell
entom
negativt
riksradet
renovering
utøv
vestlege
##uppdrag
vistades
aksjon
##uana
utvek
strids
handlinger
uppehall
##øvar
manhattan
komiker
abbey
aga
tyskt
hester
høyden
auf
prefecture
lym
ombud
##ugou
sapp
quint
gravbin
lærar
stalle
foregikk
sarcophaga
veder
##cept
##acidae
natural
bibeln
karakteristisk
forlatt
kristianstads
pelopon
##sserien
ula
##sliga
salomon
priori
undervisningen
hippar
kampanjen
##hak
avsett
##ograd
holmes
kristin
ungarsk
karez
behar
sidorna
kalif
##sarbet
københavns
innspilt
intresserade
utkanten
nybildade
lakt
vanua
presten
nærleiken
##litz
tyngd
charlotta
terje
pojk
kvinnlig
uttalt
drottningen
rant
yes
##dans
##seth
folketeljinga
bøy
formalet
fuktig
##livare
midtøsten
##ilja
vakre
tempelet
positive
##lidae
understod
##alea
quart
byprefekturet
kommitten
høge
auktors
demonstra
eich
lion
betalt
selge
belast
geological
scarabaeoidea
ness
##rs
##idas
ombyggnad
kvalet
folkom
besle
konstnarlig
restaurant
erbjod
dothide
##inalen
##thonius
folkeparti
ovenfor
samlar
proport
hembygd
forsøkt
prinsippet
cleveland
##ping
tillbak
hughes
teken
raknades
forhandlingar
kollega
higgins
##chem
skenbar
arrangerte
##adena
austsida
ahmed
celt
cuch
tana
##iles
drake
##aborg
kunglig
peloponnes
hogtid
gallivare
##ognathus
kjemiske
oum
tiende
korgblommiga
##distriktet
egyptisk
muk
##marg
republikansk
sicilia
konkluder
auktorsforkortning
p3
##igua
jordb
##enterna
luigi
høre
sundby
catherine
##kammer
nordic
sonson
mcg
brødre
pionjar
tatbefolkad
bryn
kjenneteg
inkomst
##tab
sittande
vestkysten
naw
innspillingen
moment
pater
aterforen
syntet
##cykel
snakket
##manna
herb
nationale
utdod
aas
anten
djuret
reid
raw
##utdanning
adolph
kronologisk
religionen
vulk
niende
vedlar
aristot
himmelen
##geb
##atia
##okko
##ynes
reporter
abstrakt
parallelt
daggdjursart
havsytan
##anset
larry
pabegynt
ion
##kka
##gis
##terat
##riet
##rilus
nuaf
filosofen
##maskiner
sart
vord
##yya
##idos
##icka
##yller
rogers
prosti
network
##iep
norfolk
square
##figurer
bernt
##life
turisme
vapenflugor
hilde
bilj
samlingsut
statistikk
sjunga
vanskap
eiendommen
abdul
engagerade
beliggende
prøyssiske
acant
skjær
konsult
meknes
ivrig
kommersiella
fortellingen
eber
moten
sørsida
offiserer
libanonberget
partiledare
##ischen
skull
skrog
brannen
riz
tillt
##icea
##melia
tomten
##ohus
byggnadsm
##storps
##konstrukt
ruta
##asiat
kommunfullmaktige
terry
sanchez
fartøy
armst
psykisk
##fargad
##produktion
##redaktør
##entuna
colin
reflekter
malcol
gruppespillet
##riften
kampar
skjeb
hjemm
tragspinnare
blake
##losis
konstnarliga
ghaz
endemisk
##yter
kvallen
kristoffer
kapacitet
allereie
tamligen
komponisten
avtalet
kontraktet
aragonien
utpekt
tenner
##torn
##atiska
##ffield
##engde
omradets
øystein
hendelsen
1719
##islav
##stilen
arrangement
institutioner
lisens
dhabi
##bant
sees
turen
##juka
erebia
jour
##ichte
##skritt
##ospilus
kaiser
halvor
vanligare
pallid
licens
##jenester
##icin
vaxa
glam
pilg
webbplats
anerkjente
frals
blott
gaster
flykte
halvo
tegne
forholdene
klein
eigne
annonserte
cler
stelis
##artar
##nac
##iris
1650
kristendomen
##espolit
##etere
slavar
seccion
gammar
##sstraff
faktiskt
##stykke
dall
kham
yun
##stene
##boy
canter
volcan
undersida
leiren
viborg
##gud
enlighet
vastmanlands
naturvetenskap
hovedkontor
##skarriere
martha
dmitri
unescos
##imi
vasternorr
centralb
egnet
holt
befint
##massigt
##arrang
##verker
planten
##abo
##ouard
monotyp
##reta
betydnings
ridd
##alyx
##orff
samlades
##eker
turbin
behandlet
cabo
avskaffades
munnen
qas
##hos
framja
tjanste
4000
framgangsrikt
skept
##ronic
forsikt
ramme
medicinsk
strong
meningen
bestemmer
utbygging
technology
##icalis
bandmedlem
estimer
stjarnans
proton
##ledes
sony
partiene
budsj
fortellinger
potatisvaxter
overn
overlever
##dende
operatør
patienter
##avdelning
sannolik
##adia
##idrett
##asy
spelats
interi
##etting
brass
fremt
masters
samferdsel
vell
##spett
apningen
verksted
typiske
##undey
membran
vesen
quarter
armeen
fotografier
analyt
##kommunen
##avu
##eksam
##undna
grove
tjansteman
##git
neoc
goth
qe
fabri
##nemis
nidaros
fost
##pil
##ommer
hjalper
pog
##lod
##rasket
##revis
farlig
brak
tagits
refererer
mangfold
komponerade
anklaget
klubbene
bari
senegal
##slangden
topps
yuan
listas
uttag
1767
vilda
idol
instrumentet
roc
fraktet
utbryt
roter
##servatoriet
møtet
renault
lindley
bordt
atacama
earl
##anthe
utbyte
startar
sekelskiftet
kate
forskar
kongress
pasienter
dotterbolag
fum
woll
eine
jammu
epil
praha
gyllene
##ekar
ornam
##obal
##sveg
muligheter
uddevalla
hjulspindlar
namngjeve
kik
##arme
kanot
resurser
hotade
sydafrik
##sia
blokker
flukt
systemer
##jarnarna
handverk
rhy
sotsji
flytende
##stjarnor
mandeh
guillaume
##55
##ups
##wil
##esson
mussel
##utta
ordnet
inneband
mercury
vurdert
phytose
boca
##planter
hole
jeffer
brooklyn
genetiska
radikale
www
##skala
##esco
##ovskij
rekkeføl
regjerings
lamiinae
cheil
dramatiska
fiendt
palace
kompaniet
landsbygden
kardinaler
oscars
kour
slot
utgjev
generald
jeolla
gibson
##mok
##avstem
##ensp
chr
inndelingen
lance
storbritanniens
indonesia
1771
referanser
ghundey
gyeongsang
geb
##irn
dinosaur
oppnadd
##skrid
avstem
sjog
kino
sparrisvaxtart
ryggrad
##oms
##iljen
plock
beta
grevskap
explo
ose
##padd
lanserte
konkurranser
ishockeyspiller
spektralklass
##sjan
##yri
belle
##brygg
tildel
perfor
cen
skodespel
graph
alminn
administrerende
##ospermum
vaxande
fremfor
baner
fallen
flotta
##akke
##seng
ambassaden
##vaningen
fremført
overenskomm
##oble
fotbal
##weig
gag
idet
tallrike
hardrock
##omphus
cn
jere
padd
##bille
##asjen
kanslor
aldste
freds
floyd
folkhogskola
##beh
##axter
epic
##matning
judisk
kirgizistan
ration
frammande
##sfil
dokumentarfilm
jy
##øyr
##66
##spat
motion
korsar
bayan
festet
fuzhou
matematiker
trach
alba
ljust
double
nid
##lind
##kusten
##legaste
##keley
elektris
butik
løpebiller
##edning
underlag
##ruta
knott
hojden
##pton
##hum
##arant
befinna
##skyting
proces
argentinsk
##øvrig
skadades
sulli
medisinske
##oktor
##fog
##agande
##ifas
##marck
##rediens
amy
naturreservatet
##arkarriar
##ussa
##ikor
bevap
##uto
debuten
colomb
traditioner
ester
adler
grotta
melodin
##skriven
bedriften
celle
teller
lauren
meriter
kompens
##kved
vicente
##burger
kjøpmann
dreiv
snakker
munnar
rw
willy
generalen
taman
mennene
varifran
amiral
adrien
inledningsvis
begravet
five
bystatus
kolonial
##kyrkje
##emedlem
neol
daliga
nationellt
sammanfatt
skrives
klarer
allianse
hedersd
doktors
crom
mec
##rise
persisk
sideelv
bebo
##deh
##icularis
schen
signatur
producerar
jente
mian
##prov
artikkelen
voksen
avdelingen
journalister
saussure
##post
##bygning
##foreningar
1766
slovakia
astronomi
trik
##sdyr
ambul
knapt
##ovica
emmy
budskap
felipe
##løper
##otettix
tidigaste
politim
reddet
skulen
peperomia
christer
##idningen
##icera
##utten
##opptak
rundet
informer
forhallandet
elsker
vidar
grace
phyl
##goring
wiener
##lopning
eub
##elas
##ragen
vardet
##udan
##aneus
sakra
olyck
##offic
forbedret
alma
sandvik
søsken
introducerade
landsfiskalsdistrikt
forøvrig
marco
forstyr
##dagar
##ochilus
ia
wells
stjør
bluff
paralla
##haugen
verdien
libreville
dypt
drum
nadd
upplands
rikard
##rept
kjemisk
medeltid
##ated
enskild
##arbeidere
folketal
borgermester
frivillige
kaukasus
cæsar
forstar
mektig
abbas
noregs
pamp
arna
ogift
berry
honda
##acht
impon
##rostningen
foreslag
ormart
initiativet
##sskinn
pryd
##pot
##iales
craig
kontinentet
hb
eksperimenter
bologna
nuk
##ariet
kvite
svin
##vina
##illan
agaren
davies
kampanj
##ospor
færre
substantiv
spise
##hielm
orientalis
clin
stede
##smessig
##ested
penning
blanke
##unctata
foretatt
forklara
rhododendron
##skaja
orol
alternative
##bisp
skilte
vitja
##uhrer
beaver
##leys
møtes
historikere
##stavlingarna
introduserte
##urahan
##rorelse
sparre
##tyska
eliteserien
deport
##eminister
scap
danser
ulrika
##opyg
gesta
##fjarden
##egler
##opan
##svatnet
fremmet
troppen
deporter
doctor
romantisk
##skand
##ingeniør
##garh
##fuglar
##slaktet
##chal
schul
hemmel
name
hertugen
##eba
garnis
solle
nevner
separata
##flyttning
mullbar
##ðurland
høyesterett
inkom
##afrika
veksel
inspelningar
okkupasjonen
talb
artium
flog
slekta
bonsyr
sikkert
utnem
##estrand
endres
strig
utløp
norway
jakten
##gota
##adalen
ellis
chev
handelsen
labour
autonome
forarsaket
##ijer
##rieren
##smer
##varet
battle
##kirchen
kelurahan
mikhail
uppsattning
##saret
bekant
atlantic
gitarristen
theodore
eisen
odel
##rakte
##iteln
##udo
##osma
hemmet
turin
diosc
runda
virid
gibralt
##oksid
andrej
##ommet
forekomma
##sformer
pekar
nacional
##oniscus
##amarca
##schaft
arig
infe
vaner
##assan
erstatning
albania
undervisade
meddelades
regimet
hanger
samiske
##opo
##orts
reformasjonen
tafilalet
nyck
johnston
dean
oppgitt
##redning
belys
myrdet
kommunestyret
qornet
tekniker
scandinav
##text
##sprang
høgare
wing
##figuren
##onda
tillika
anonym
haakon
navne
anthurium
ged
##kab
##okon
fengslet
døgn
##yas
##udden
bracon
steget
##ofer
##brua
suksessen
dothideomycetes
ate
##iulus
##caena
fastigheter
armenia
##klund
varumark
mental
bess
jokk
##eben
##skapten
##regemente
breen
chalmers
darlige
amatør
programvare
dyker
microc
waters
makta
særskilt
##loven
inspirerade
koma
tykk
##dommen
ellipt
intervjuer
hr
##etil
##alin
skuespilleren
salen
##ismer
##snummer
fransmannen
vanlege
romeo
angsskinn
støtter
phyllanthus
kommentarer
##cliffe
bjur
strukturen
byggda
##issionen
##stallde
intog
filmfestivalen
uttagen
bradford
bøndene
bing
##otho
##ules
##ims
asikter
##ellerna
oklart
##hynchus
##skran
english
araber
valerenga
##aec
statistisk
fisken
erobra
##ayo
##trasket
##huang
antarktisekspedisjonen
matcherna
kend
pile
##nius
##odidae
etablerades
soloartist
##rae
tresteg
farao
fødsel
konged
baz
vetenskaplig
okkupert
##enas
##udier
kongep
skjedd
sweet
fetter
##rhein
##entin
spat
atferd
sjom
antika
##alez
innehar
nigric
favoritt
aa
##forslag
talte
##matidae
##arbetet
kristiansund
contin
antib
gjem
galax
ultim
##sverket
##hode
thi
##mede
istedenfor
iak
##kost
etasje
skansen
illa
anknytning
datorer
delph
atlas
##ugn
motors
gres
##stenen
alvdal
fortroende
ptolema
bik
dogn
regionalt
mulige
bronsaldern
dicty
kontrakten
jum
vrid
china
##loj
talman
mordades
huvuddelen
domkyrka
begransade
phyllachora
biv
kou
inskrip
##garde
bomber
##skansler
evolution
##itiva
##ineata
sprida
trettio
angsskinnbaggar
pud
##vav
##skoter
elin
##prof
skaffet
taksonom
##tas
##skrevet
bokt
skrivs
sexton
philippe
majest
følte
##ignal
##kretsen
stipendium
zhong
##esiska
ingvar
vernet
##talande
beslektet
dw
##problem
øvelser
pacif
satter
##ية
##stret
##varde
ecole
ocampo
finansiering
campan
avstandet
nancy
springfield
imperial
uber
##mud
manip
vilje
##formade
studierna
lagenheter
ichneumon
phor
##eldt
##uktion
krus
komposition
utkast
sjopung
arbeidar
sykdommen
tander
vate
##tepec
##ymus
gardens
typiskt
##ogly
##ulation
oppvekst
nations
ulle
##planen
econom
fartygen
fugle
##verdi
##produkter
bjel
##etis
##ckningen
##byggda
##istanse
regisserades
fullstandigt
##stallet
mane
##odar
sou
kunskaper
##alyptus
##75
##itation
konvention
planeter
jev
verksamheter
mesopot
lillestrøm
##ubileet
gus
##orelse
glenn
instrumental
skik
##ugu
##iern
reyn
##jering
##hani
blood
##afa
byrd
##kans
##offiser
revy
varldsmastare
project
##rorna
vaxel
read
albumets
intresset
utnamnd
cecil
hierark
nutida
omgjort
util
##stern
barrio
marker
forsking
fangelset
diktsamling
oppdager
wied
nacka
trommeslager
jat
terrang
bestandet
blanda
##gary
arroio
vaccin
phoenix
krater
##into
##rennet
kaf
representera
accra
avvecklades
martinez
##arep
utny
kule
alexandre
fysiker
referens
##vendige
##teckningar
anac
##loo
##rikespolit
straum
affarer
etterfulgte
tyskar
boj
veil
datum
##rifol
testa
##ansens
petrov
chefen
skicka
stoppe
##erob
sommerfug
nassau
vs
harror
##rysa
boule
erfarenheter
bish
mia
tillfallet
percy
verkligheten
episoden
sigrid
sterkere
konsonant
karta
##gah
##reds
monroe
hvorfor
australiska
##rerad
legg
rekorder
mycosphaer
uri
##xis
##ekont
vikingat
pay
##riter
baserte
elevene
toget
sveitsisk
##oparmelia
norrlands
##beteck
diana
kronobergs
teknolog
feir
mycet
anita
adresse
##ypha
##undervisning
nazity
bolaghi
both
##ciplin
tingsratt
frilans
malcolm
##malet
australiens
similis
montg
turkmen
##اغ
##skift
schumann
come
##orerades
studieresor
motstander
tvingade
upptrader
upprepade
##urum
provinsene
flicka
bordtennis
nipp
##brede
omhand
##ahar
morfar
personell
inngatt
grunnloven
##wo
langvar
klær
alexandra
verdensrekord
nevada
perkins
greide
høne
fasad
##rekning
utformet
etterkommere
##sete
##ensa
spelets
dalsland
ruiner
falla
veks
tech
office
erioca
pigg
##tj
avr
##otrema
edouard
erstatte
zarago
wain
##ilet
havnen
opphavet
grep
medelhavet
nestleder
hirsut
walis
##ather
##igor
grabrun
##spraklige
brorson
glauc
storstadsomradet
brollop
##arige
kana
tidnings
miniat
##inth
yngsta
ersatts
##ammen
beit
haemat
bros
##likevel
dress
radde
##wait
##quil
knock
brigade
muskel
baptist
lard
##stida
bever
femten
##onyx
arige
##egionen
kjør
konkurrens
##sbeveg
kasta
forelig
##tei
allikevel
##iculatus
vinyl
##ransje
oppløy
##antrop
##undin
caud
hydrogen
sheffield
hedersdoktor
dik
##stell
farre
calgary
svarigheter
##ljung
##stopp
torne
pjaser
vacker
plund
kvinnorna
klarade
brukade
uppmarksammades
konk
sved
##orno
magist
faststalldes
bengtsson
vackra
سی
##jare
samp
##eki
etienne
florens
spesif
betecknar
gwh
##skadespelare
mista
##umont
slass
##forband
monopol
eury
##ophis
forveks
cuka
enighet
##veri
1640
fid
jylland
tusentals
stiller
pablo
berkeley
mathias
##ullen
lyman
ekonomin
ballen
##skiva
kompleks
burton
silvermedaljor
valkanda
ade
jubileum
albuma
forføl
otte
##avia
##ostomus
desert
kongsv
loft
federal
nanchang
jamaic
##vesenet
nashville
yl
##lert
##serier
##forsalj
statsborger
##sband
emirat
arbeidsg
utmarkt
paralympiske
##nabb
reuter
##olds
fotografi
fullbord
produceras
hjemmebane
aro
##givna
straffe
atelje
sie
##ostylis
##splatsen
engasjer
leverte
##kjøp
uavgjort
kalender
venstres
zaragoza
when
##ogy
innebandy
dalb
singer
ersattning
kingston
uppskattas
##journalist
beskjed
calc
##illverkaren
mura
##antet
##imil
herunder
montert
arecaceae
abort
tavast
community
toner
tilsett
harbour
##fordon
tosc
##pin
##lob
granit
ibm
##atz
anvandare
forløper
jiangsu
homof
beskrives
##foljd
prastvig
chelonus
reson
saret
styreleder
østsiden
vadstena
purp
yn
##eris
##rekker
##teatern
langden
fotbollsklubb
hitlers
solleftea
sandy
flagga
##kse
##spis
##ocial
sieg
##itering
enorme
forfremmet
##styrka
##fore
diosp
##onymus
explos
miste
##stapel
folkskol
##haven
luke
lyden
komplek
westminster
polens
hubert
lundberg
utgivare
føderale
qala
##46
##alens
##iani
plasserte
##oreningar
retur
castro
nir
lubeck
##yran
##enthal
smala
solberg
tilbrakte
begynt
øye
trycker
sateri
##fia
##snavnet
##stabil
etapper
##skrivning
forebild
besøkende
malp
duett
pehr
bevara
alberto
omtalas
hemmaplan
3d
avst
forvan
hogkvarter
leic
østlandet
volleyballspiller
aftenposten
loss
##sae
hogra
folkemusikk
arkitekturen
negativa
kommunikationer
##enc
intet
arrangemang
strukturer
kirimojavaxter
trem
angrans
vassdrag
tuberc
gæ
yar
koncernen
langsamt
fletcher
latta
tydliga
anatom
indikerer
##smon
referanse
cirkus
abitibi
##span
trek
brah
platyp
alvorlige
tilskuere
sopran
tilstrekkelig
niv
##institutet
derav
##svir
temisc
arkeolog
##radio
konkurrert
richardson
1769
cut
haga
##36
##nah
atlet
##imore
grafisk
livets
swan
##oset
noverande
bibe
baha
##hiracar
##atorn
##othal
##000
helene
kapittel
##useum
religioner
undervisnings
fulle
forare
##ckare
grunner
satts
persiske
bennett
armstrong
dognin
##isha
##erea
simplex
midtre
samarbetade
leicester
omf
grunder
lagde
bidratt
castell
successivt
cia
sko
##ulina
##osjon
##kehus
##speg
engasjement
nathaniel
fact
##elast
stack
pax
engine
flores
kolonien
1768
underord
vegne
##roblemer
jarnvagar
##rations
sau
besoker
halvk
##klokrypare
gour
stamp
##ruter
karb
##flukt
lasar
##ricus
nederlaget
##kraften
kontrollera
catharina
yok
##isj
templet
##byggnader
vegg
signert
mogleg
xv
##ffa
##tyske
orsakar
##hord
##sporet
##ylidae
##yphus
102
##spelaren
krøn
##sform
anmal
forsvarte
robertson
bey
innom
##hale
nevn
tretten
garm
universum
sakert
psykolog
brandt
gonzalez
1730
valut
pool
##enze
##ados
innspilling
djurgardens
schweiziska
vesle
##satser
hirt
landhockeyt
kyrkorum
lyssn
wings
enige
tillats
##ardia
gravfalt
pattedyr
amundsen
lemp
##vogn
korst
digitala
cyph
##ked
##avirus
sprit
##sbanan
busett
potatisvaxtart
##ismat
##otiske
##smar
##obar
tjente
negative
variet
##steen
##smak
leddet
afc
fiol
remix
laborator
genast
seven
fortalt
leger
standley
##snamnden
morrison
nordsjøen
tradisjoner
bassist
sades
##uris
utskott
ettersp
sagas
forsvarade
officerare
karm
dras
flygflott
##illverkning
affinis
temiscaming
##arriket
##marskalk
staty
quis
##gorit
forvingen
sosialistisk
opptreden
390
ventil
løytnant
gin
familjens
albansk
henan
lokalpolit
takht
hastarna
vans
##venn
enke
managua
##icaud
##cerad
upptackts
bett
##owska
flyga
utfort
bratte
##ws
##ᅡᆫ
shim
allm
##minton
hundar
mh
sommart
tou
than
nærliggende
##oning
##farget
vestsiden
melodien
##front
churchill
existerar
mere
tata
##chu
samsvar
felder
common
regulert
berømt
after
gover
tsa
forvarvade
giro
varder
hantera
chansen
omdøpt
visser
stracka
beno
##valv
rincon
uppdater
kock
##otor
nikolai
##riskt
halft
balett
fots
angriper
jordbav
forsokt
applik
malarskola
##was
##ierade
altar
glid
##yklist
##hil
##bir
fredet
frukten
embed
jons
armer
starr
sporet
##kroppen
hangar
lokomotiv
u23
kommission
##engden
##anders
1762
utmerket
gavleborgs
##resultatet
temiscamingue
gou
løn
niz
ledes
sergej
sans
kondens
##ocentrus
erbjud
miljoer
##departement
svake
##imet
arth
utviklinga
sachs
municipalsam
fia
##oloma
familje
##adera
musikkon
won
beskydd
##spol
ching
moe
upplagor
jesuitt
krepsdyr
omslaget
##itum
aless
##ongo
gjeninn
##skonfer
##ifolius
erfarenhet
xbox
##rale
##allas
##ibo
bestamt
pansarskoldloss
torde
##idy
##opolis
indig
redskap
##enskapen
firman
##itivt
juridiske
unix
##otoma
langsam
saljs
museets
bonnier
nordligaste
korttungebin
breg
kola
pyeong
werg
forteckning
ligge
nordens
##sbana
slappa
##ια
sittende
konstater
pete
lengd
utnevnte
paverkade
##spresident
##coe
jobba
tillverkare
transform
fortjenst
##ил
somers
synkron
##kropp
cove
##ttene
##sselskapet
tillatt
joens
vasternorrlands
odes
##starten
##italet
nyopp
sena
##sbas
planene
britterna
anatomi
dammbyggnad
pojkar
berberis
##versionen
fordelade
ornit
##ssjuk
berge
populationer
falc
forklarar
telen
##kninger
##ychus
##ariensis
heli
##horst
navarra
luftt
week
http
##zsch
avga
##isel
##isset
svenskar
badminton
klockvaxter
##racing
##teras
##sering
coy
sporten
algebra
##omac
##elar
devel
hemliga
parten
porten
utslipp
celeb
stillinger
##agra
laglandet
vinterleker
##riser
##fø
sandberg
venet
ideologi
cold
sion
vick
yak
##rington
fabriks
malerier
styrelseordforande
##mekan
##loe
biel
##rings
fungere
##opera
tilfellet
sjetteplass
kling
ansvarar
influenser
##ating
online
billig
alliert
opphørte
##gilt
##din
mangfald
klubbane
princi
##sworth
algoma
kk
##jala
landes
neapel
amman
##beth
##sving
inviter
cc
grind
##erty
ordfor
folkmusik
1759
malmohus
øynene
teatret
##sbacken
utgjordes
inspelning
middle
norgesmesterskapet
##iyat
restaurert
##veksten
##rytelser
favorit
angransande
##byt
ane
##ostigma
evig
offensiv
##kommanderende
etterret
##ografiske
kvinnene
##vagnar
##gorod
ansluter
mekaniske
dio
##sig
##splassen
rattegang
utsl
maran
distrikter
##stenar
indelta
grønt
ambetet
inforlivades
lol
habenaria
omdisk
burgund
unesco
linde
avgjort
##typer
referere
classic
esen
satan
##ariat
føres
krone
brita
premiaren
beskrive
bronsmedaljor
##ijarvi
saudi
egendomen
rostade
lyset
skaffa
lukas
trot
insign
ehren
##omal
hanar
spjut
agla
##kanna
tretton
wellington
sopp
bredde
konsument
clear
420
stir
##lexa
##aps
slang
ljungby
rotterdam
##ammer
gave
liggande
likasa
utarbeidet
annie
formogenhet
kontakten
programmering
wergeland
opphavlege
innsjøer
##sku
##amisk
gruve
alpane
kostnader
oder
slip
arsproduksjon
verksamma
##fangst
sjangeren
##æn
antyd
krak
bilete
klassiker
bunnen
woman
greven
firenze
signaler
##striper
kambodja
##verv
liang
upptacker
##sheim
aspekter
culex
fimb
dodade
namibia
prepar
##chefen
##ackerlackor
smakackerlackor
handballspiller
laroverk
henta
oransje
kanter
flyttas
verklighet
aston
este
##sbrott
utbygd
brakved
mexikanska
vaga
betraktades
producerad
konseptet
dunc
##ibil
epip
roberto
varnplikt
kongsvinger
hash
##utstallningar
##ohe
byarna
stemte
utforming
##oum
herz
##sløper
ryssarna
jinan
siffror
berodde
toc
##hius
vulkanen
##avdelningen
kidnapp
progressiv
sallsynta
##tuna
##inka
maya
nyc
alldeles
riktade
phyllophaga
tippelig
##48
stikk
##historien
marknads
##isia
##makter
merparten
##husen
identifisert
##ettia
falsk
vaud
grunnlegger
hovedtrener
kof
ramp
##uum
marsh
shay
bildats
virksom
bundesliga
asplenium
oer
##atidae
##agin
##ckande
reisen
kriger
arach
stiger
##bevis
##ansas
rysslands
##rib
kunsten
besattning
parallax
poster
##uks
##sanger
romerriket
liberia
dubbla
ungdomsskole
##hod
samord
verband
intag
chak
##assistent
grunda
forfolj
bemann
eos
mors
pileg
1765
eden
kow
indoeurope
##oppet
railway
ptolemaios
gne
##arbin
oman
##otan
planerna
diospyros
##andaran
olga
aklag
##sgrupp
blackburn
koppling
bisj
cara
kill
buskar
bakgrunden
socialistiska
handelshogskolan
strømmen
forbe
##lake
euryt
##izhou
hormoz
curling
schlesien
mf
forsen
vida
chok
fremskritt
##ariaceae
juridiska
##kretser
##porten
utdannings
bale
##usia
##areal
statligt
germain
##arro
inse
omhandler
thriller
sattet
varierende
variere
##omatidae
##crantz
##iling
samm
##ialer
##isaari
##fargade
sullivan
jot
zet
##33
synet
haz
##ecia
##setninger
galic
fuktiga
fase
kapitel
##etab
##ierung
handelen
##cheon
tillverkar
cesar
pira
##datter
##ishi
saut
barran
lomas
arvika
flekk
svarar
staller
sediment
liss
lagd
board
roche
lutz
karakteristiske
spektrum
resterande
##artad
uppvuxen
jordanien
korrup
lanades
benito
striderna
supporter
teologie
bisjkek
qim
essex
acraea
debatter
krypt
jarnvagsstation
mellanostern
femti
##rocess
nba
##hage
##økonom
savel
brots
fremover
bygnings
operasjoner
samlinger
##loshet
##bebyggelse
konstitusjon
##rød
##oger
##emont
spiral
martyr
undersoka
expeditionen
##ochaeta
flenortsvaxter
henderson
unic
maus
staffan
bact
##how
tree
uteksam
regeringstid
senterpartiet
##ouais
##agrion
mahar
krigets
##foljaren
beredskap
slank
raket
danny
expand
funnit
skulpturen
##løytnant
canterbury
byte
organisk
##vitsj
belgiska
forlan
spont
##ocoris
cirkel
utgivelse
bevarad
1756
pterolophia
##astes
landsvag
slutte
##ykling
dongar
bysantinske
stimuler
aftonbladet
joensuu
binder
zing
##ulære
helige
platina
pear
kerstin
wimbl
nevnte
slit
tagen
##varder
1710
vanligast
varar
skr
hjarta
hastigheten
noir
dessfor
##ciatus
##anah
stott
lazar
osten
bekamp
komedie
##zt
sunnmøre
ansa
teodor
##skoga
sidney
periodisk
dukker
##smaler
levet
taj
grupperna
eriksen
forventet
tjeckoslovakien
samlingsutstallningar
koren
##kloster
sone
salto
stoffet
asiatiska
virkeligheten
sammenhengende
pauc
family
beskyttet
##forskj
##jerg
snur
tekstene
rasmussen
kick
tuc
##stuga
##onidae
orke
##fargen
anatol
sekundar
døtre
nud
##anker
##egr
##ivind
phas
tenkt
##erings
vararep
centralp
farah
baseras
##plata
solidar
upproret
##sholm
somalia
unikt
naring
narvaro
spok
##ovel
okanda
superettan
drabbas
##høyde
falkland
ouest
hormozgan
tari
ystad
praglas
empis
besegrades
nominerad
##shistoria
inntrykk
huddinge
skum
guay
##ophil
teman
wein
rayonu
dib
sunde
greta
handlet
nabaa
teamet
partiklar
dessforinnan
fide
tinn
##osis
klang
folkeg
bredare
seksjon
jarne
bosnia
hittade
bahamas
##adensis
##ße
##osf
skjuta
amfib
landeveiss
##yz
landsfor
berk
albanska
ign
recept
individuell
montgomer
fight
##ول
##ikki
adal
maling
taip
edge
guldmedalj
tetrag
##lum
##nett
##amea
nordsiden
silv
1761
forhindre
euxoa
sg
støy
bolsje
kalenderen
factor
europamesterskapet
harjedalen
unifor
begr
##rattigheter
variert
sockenkyrkan
regulering
specifika
plikt
##etera
mys
brussel
##ouk
himachal
betecknas
mazandaran
##distri
regisserade
pelle
##nok
##rian
##obas
##øyde
##arbeten
avslutas
##atsen
milton
flyv
fleet
satak
styrkorna
wed
##yli
##atel
enz
svang
etterlot
##vidde
rapporterade
vegetasjon
jevnbrede
##uschwitz
##celli
guana
colon
tilbaket
##hems
spellemannprisen
outa
##umn
##seart
marokko
colle
julen
funksjonen
aisen
maskinen
forestallningar
##jylland
oppfattet
tud
rehn
##ipper
impro
##evelt
spesifik
fow
forint
inngang
klov
olympic
resultatene
vingarna
##skampen
aver
sexuella
kontrollerte
kirimojavaxtart
nyslotts
opinion
ventet
nyskap
desper
##iserende
##sbet
skjell
roosevelt
ufc
##uit
sparken
##open
mendo
##mouth
videon
varldspopul
gyp
tiv
##aljen
##aven
borgere
tavlande
playa
samfund
1757
hudik
##ست
##skid
##berland
##ulator
bergarter
##ophyt
ideell
motorvagen
helgeland
fernande
volksw
utfors
harstad
maw
marm
engelbre
spenning
ringerike
llano
utvida
stip
overtal
gjester
onsk
strackning
studiene
paverkas
utmarkelsen
conservation
disiplin
aristoteles
monotypisk
bonsyrseart
nazityskland
pond
##skeppet
##unders
1764
lantbruks
syvende
innholdet
fladdermus
krisen
##sviks
anner
landsm
##varm
syng
hydr
##spolitik
valais
want
##он
turbiner
riksd
christmas
bidragit
skotska
sorgmyggor
visserligen
##kapp
myter
smalb
melodier
invaderte
esenbeck
##øft
##perioder
bruna
visats
raser
lamar
extremt
avanserte
elefant
assosiert
jefferson
##stu
grass
scor
relater
utgivningen
kollap
##ompan
lagsta
mons
vanstra
hald
adolfs
periferie
kiv
dagstid
##uppgifter
frei
oversattningar
dyrket
hunnene
upplys
grundarna
krigens
1755
bulgarsk
auschwitz
tris
##atom
##avlan
kontoret
brukere
skeppet
knudsen
pinn
gravar
gallo
landmalingar
laggs
epig
cbs
brotts
kjernen
##varia
seld
arkivet
malawi
stolt
##aut
##core
profet
ovanlig
voblasten
dere
tic
##ono
##unka
andes
##atset
osttyskland
agath
nedsatt
singles
##planet
warwick
eastern
holger
portland
vanskelige
pyeongchang
kolk
hallas
prel
kjemi
suv
##kob
verste
praktiska
stykker
girls
##rostis
etiopia
pavirkning
chico
austlege
underjordisk
bim
kale
##pip
##ła
liggende
benen
peck
irene
pseudo
heta
yell
##plac
co2
hemlighet
urs
##karl
swart
slovenien
marseille
aserbajdsjan
nac
##ipalpus
tvatt
delstater
latvia
vev
reinhold
pietro
skadespelerska
flyttat
hertigen
infanteriet
xvi
##srett
##bats
spd
angrepp
stenaldern
##rose
als
siger
neop
norrøn
distribut
invitert
mobile
eucalyptus
410
##ophy
vokst
bevare
registrering
aktiebolag
kord
##æle
##alv
##ensburg
nees
brunt
##ivert
lindstrom
avgora
krys
ungersk
clarence
pem
##chor
##forl
johans
solokar
nebb
dietrich
yin
##atlan
drojde
##avei
foreløp
secur
ike
oppnar
motes
intradde
levererades
kotka
gjennomsnittlig
grunne
schneider
matar
roskilde
fjelltopp
dagblad
byggs
anglik
natrium
brooks
biz
yard
##reform
vitry
##skaret
ovanliga
jesper
##senteret
thelypter
tenor
filosofisk
ersattare
##slinjer
##stjarnan
bedrivs
##svitenskap
røk
normer
stannar
oskarshamn
##øket
##ogona
ingrediens
##vaxten
bakvingen
fredsavt
passa
sporad
kommandant
vargspindlar
##jad
##omrada
##itære
spa
nyong
1723
sordari
limon
##utover
##ebus
aggen
112
sarab
representation
etniska
løsning
esperanza
##sstyrelsen
##ле
pasc
likte
happ
forsvarsbeslut
utsag
folkeavstem
curran
akvarell
yas
##omidae
##champ
avvist
medfor
##ogonia
##rotter
##sbanken
##sfly
søraf
avsedda
kroatisk
##arii
grastrad
bakh
kortvarig
rocks
bosetning
producenten
kommunalforord
##atiske
##ilar
staterna
chester
barock
##inering
halvøy
goias
produktioner
rekordet
##sbestem
##mov
##leiar
tidpunkten
faust
snackor
karaktarer
umulig
##kapten
matsumura
cogn
##alter
##sklass
kuwait
sjonk
narkotik
amaryllisvaxter
expansion
kral
tork
trib
brandes
##født
antofag
halso
burits
rhamph
##bourg
##gade
##iset
delagare
##ressa
kvinnors
rhopal
islandska
tiaret
##erier
##asco
lecon
adjektiv
##uaq
##kontroll
macquart
atak
parmel
gangwon
enno
rhyt
skriften
susan
vinrutevaxter
##osch
burns
skarpt
##messige
##49
##astrof
stred
dyktig
##egeiska
##skirken
##element
tildeles
traktor
oresund
uppvisar
##filosof
worms
##skysten
barken
tycker
parsek
trekker
melit
diskval
umb
bone
geist
bryan
##aphis
tsjekkisk
##slar
##aev
nykoping
folketinget
##basis
musselart
antofagasta
gagne
veld
##narna
mektige
##marka
peterson
##gjøre
summa
restauranger
illustrasjon
nixon
right
##ransport
narbel
agna
##middel
klockvaxtart
tvingas
pandanus
xinjiang
skyt
ligamatcher
##shel
formatet
fjarr
sundsvalls
##sjef
fastning
styv
support
outaouais
hudiksvall
##skurs
##smo
nordsamisk
chip
valv
kath
guddomm
##nelser
##omum
somal
##idum
##ningstiden
krystall
jacobus
manuskriptet
forsøkshe
tham
raknar
khuz
instituttet
oversetter
irisvaxter
klotspindlar
sørafrik
giss
##cor
ardis
omset
##entlige
musikt
lakh
##svagnar
kvartsfinal
rann
##sdjur
##onta
fordom
trunc
##ensee
lily
##kontin
qimmat
##egrad
##avagen
familiens
##amoto
industrier
omtale
samfundet
empoas
selvstendighet
vellykket
##rationer
##seksamen
##iering
##ografiskt
##zee
forutsattningar
xanthoparmelia
sogneprest
dittills
føn
qark
##styp
skram
innst
malin
reduc
klassifisert
statsministeren
1648
kansler
baltimore
##avesi
folkpartiet
pect
samanheng
paa
unika
genre
##entral
parar
kjeller
##vandring
carab
vannkraft
fastan
georgiska
mesoch
enic
##emidler
tidlege
##ransjen
toledo
geometri
##isan
erkande
##sachsen
forstør
##sbane
livsstil
partierna
snakke
snyltrotsvaxter
kejserliga
bollen
erot
pays
##øyne
seremoni
faro
bokmal
keisar
##ignon
yi
##muren
beholde
verksem
##romer
øyen
1690
forlenget
fana
rend
##sdatter
antikke
storhetstid
engasjerte
gp
##sner
konen
navngitt
castillo
gitaristen
halt
##lada
kulest
corps
##othisa
energien
avslutning
decennier
ehr
##jos
##frukt
##serter
##obo
vapenet
bestamma
emilio
affarsman
spottstritar
##38
##othea
##ampi
##eltrad
##retta
##hjel
betydninger
medverkan
skandinaviska
sivilis
normalar
uklart
##anol
scient
kunstig
kunstnar
##sgemeinde
eventuell
sykehuset
nøkkel
avla
medium
daglige
kjører
##irah
volym
designer
madhya
##skrav
##avag
garning
utredningen
slovenia
canth
representerat
lindes
auto
gater
##abol
brus
mona
fyller
utdød
##odonta
norweg
##sloven
krakow
samlingsalbum
koster
uken
henger
turnerte
menneskene
eiendommer
ebba
chase
novo
norrtalje
##otti
australisk
vanskeleg
kullkraftverk
rockebandet
sken
1670
gullmedalje
punktert
radikalt
tl
avf
##olja
varu
short
agt
##lunds
saq
neu
##rosia
vaggar
princ
maleriet
##ovitj
covid
##sprojekt
eul
ariga
##edene
##elina
delong
##ekamper
bladen
apollo
treet
kalv
##plater
tiber
bekraftade
juss
sperm
##enska
##asten
desm
lach
objektet
ljusa
wimbledon
tjer
##idig
blader
teologisk
interiør
##sfelt
brug
pearl
orsaka
heilong
##bang
morm
nebra
ferguson
utrot
##farger
konsertalb
foredrar
intensiv
ødelegg
forne
##radets
##singel
bostadshus
##avla
##ikasjon
maiden
konstforening
besøker
tradgarden
satsa
##ocladius
gome
søy
##fakt
##opidae
begatt
henrett
swin
symph
isabel
pseudonymen
stress
halvbror
skapas
leningrad
publicerat
nansen
greps
persia
grobladsvaxter
okande
produsenten
allians
##operan
systematikken
rovdyr
ora
##mm
##fuhrer
##lejon
alph
militaren
##gardar
jard
##odell
##ierad
stenbock
grote
1741
doping
menneskelig
##ophyllaceae
bup
ern
utk
indire
balan
industrien
ressurser
eagle
vedlikehold
pty
termer
##ymmet
##veggen
plateselskap
kaste
##lyste
##forsy
murphy
simpsons
430
hiss
ih
##omorphus
##jerte
betalte
borgerkrig
frogner
sean
##hurst
dekkjer
##emonte
braunsch
tama
##turneringen
##eling
bernad
##samhet
frederic
##47
##orella
##strat
##oton
antiken
##aktive
kaliber
singh
teluk
lagstiftning
##revolusjonen
somerset
##jic
##enee
mead
##talende
krigsforb
virkelige
langdistans
##sprakig
fremtredende
nsd
xu
##togs
##ellom
##oupe
kooper
baluch
orsaker
arhundraden
hamtade
psam
work
##ransar
##ningsomraden
ryong
hubei
rase
##budet
upphav
alekse
euph
##blick
nøytral
amarantvaxter
baalbek
tz
##anlegget
##klock
katrine
madison
tilfeldig
##modell
karnten
index
rederiet
semiothisa
##laten
##skulen
##amu
##radd
passar
originaltittel
karibiske
storhert
sous
invid
halling
nominerade
wak
##the
shakh
radhuset
arbeidere
koreograf
##virkning
ordførar
marknadsforing
hjerne
sif
##gransen
##nu
##iljon
edith
kajan
##iarab
verbandsgemeinde
##anlaggning
##egata
##bera
##ulta
peric
riksrad
bub
chag
utgick
navas
##listene
##entar
##elandslag
flenortsvaxtart
omstridt
volum
ormbun
440
boss
eust
fou
tund
##grans
pause
##spra
##sprin
seire
vintertid
mastergrad
cornwall
nobelprisen
manifest
##lærer
##roskop
utløpet
##ylli
faroarna
##ananar
tint
##oppia
handla
infora
##backslandor
hjelper
ardisia
##long
##eløp
skran
elektric
ormst
atmosfar
tch
tette
##idning
regierung
menigheten
##mansk
leik
karnat
relie
onsdag
judoka
domineras
aksepterte
##ام
##attning
bokser
befolkade
1658
zhou
anerkjennelse
bryggeri
griffith
utrymme
##advokat
850
##bukt
##rota
dab
adlades
handeln
verdif
piemonte
##ging
##onte
##skilte
gibb
invasion
##forvaltningen
iaktt
slim
sill
novgorod
betjen
universitat
naturgass
besoka
ekspans
utstillinger
heilongjiang
braunschweig
fah
tramp
storleik
franken
platon
variera
utgavan
tyl
##dekk
1630
##konfer
ekspert
vokse
klarar
forbundskapten
austerrik
fvt
tester
u21
omslag
gudbrand
##kastning
anlaggning
##anstalt
hønefoss
vararepresentant
##rita
skifte
sour
##ulerte
festnings
moses
dokumentert
assisterande
antarktiske
sporr
aktuell
mørkt
omdiskuter
##splatser
forstas
##vendt
##edalens
kunngjorde
heliconius
cash
##later
arrest
##elde
##terne
##vana
verruc
ordene
universiteter
vardefulla
fes
nør
pim
##jm
##øvet
##iskar
aktiviteten
ibrah
spreds
changsha
varberg
anskaff
gerard
penic
1718
nottingham
##snittet
##sslut
godkann
##arsis
brittiske
##brutt
arrangeras
hemmelige
eis
##rycket
kruk
##alta
interessen
anledninger
crni
kjøretøy
cram
felle
zahr
##varme
##flok
##cheh
trycktes
zepp
nevø
sykdommer
##unes
kvinnelig
bladbaggar
dreier
1751
minimum
qad
yosh
##eier
shur
skjøt
islandske
irlandska
giftermal
fleming
angar
lyrik
pied
erica
lengdehopp
opplysninger
hung
phal
roch
forfal
specifik
observationer
begiven
##kommende
vuxit
burkina
rally
bleph
##imentet
grundserien
vesten
legitim
lofoten
oversvam
cep
hig
##rt
##riaceae
##meria
trente
demo
##bye
salmeb
rhodes
schweizisk
reduserte
akseptert
forlagg
vitamin
celest
##jutant
gia
watt
split
perse
ramen
filosofiska
##bed
##betes
sanna
##efamilien
holst
biologiske
palasset
sønder
opptre
##fossen
shakespeares
verna
arkansas
tegl
petri
academie
ada
sister
##røret
##itia
agar
##skrivna
valpara
uno
##redik
artion
kategorien
moller
depress
##spartner
##utstallning
##lagar
antananar
høv
##iyya
hovudstad
sørøstlige
promen
digitalt
sjopungsart
##fish
##onas
stik
##udna
alten
narke
husets
lastebil
480
##skii
##avdeling
serierna
medelpad
blanc
pompe
selen
interner
##sforet
aksj
##kontrakt
greatest
angivelig
##eyn
samtiden
##vagar
jørg
sammenhenger
saturn
lul
ledaren
boliger
##offisi
pristina
phytoseiidae
vilnius
referert
elegant
jennifer
saudiarab
ao
rorde
##jul
myri
industriell
atervander
##chtenstein
metamorf
antananarivo
galer
hiv
##од
##oriet
##ikens
dagligt
aterstar
løst
##fabriken
##stillstand
athletic
fauna
svenskene
fylker
distriktets
##opteridaceae
gabor
1742
inntekter
mauritius
piel
##onem
##arti
erg
poem
utsett
akademiet
materialer
katalanska
##ymp
stifta
arbetsmark
gullmedaljer
proteiner
##zhong
zappa
besattningen
##iu
##ikov
##resor
##svart
kristall
hendrik
keiserlige
floder
emilia
væske
sue
norgesmester
audi
##branschen
ulykken
a3
utru
##axes
##acu
efterat
##ession
pseudom
fuller
mørkere
pycn
duncan
chim
exklus
scapt
markazi
bela
granada
##angeliet
##ска
##asaki
meiner
medlems
nikolaus
##avista
##avgift
##opota
grave
##sbeg
forbindelsen
##illverkare
allvarliga
uppdelad
gadd
stich
##ages
paran
brahe
folkbok
micho
palit
##ripes
khuzestan
##zza
objekter
##boa
organisator
oblastet
versailles
cil
##skall
stict
sint
##eldans
støv
##operla
betegner
##olycka
pike
##vesi
##irig
##waz
larob
##ledningen
runden
##ckers
jobbar
varldsarv
fernandez
sahl
##aldo
##ucha
akustisk
uteksaminert
##æp
##37
kansla
##alah
existens
kurser
falle
recens
dipl
##ود
skym
larover
##karn
akvari
##økka
menneskelige
##had
##deri
alvar
##utstyr
markerer
##sgrupper
ekstremt
gibraltar
rhinen
manniskorna
forfatterskap
steinkjer
offentliggjort
uppmarksammad
##inform
##olor
augustin
##ronia
parl
innehallet
nicol
nabo
lonn
lanserade
##ied
invanarant
lakaren
##forbundets
##rasset
intermedia
##orib
##itch
totten
hente
utnytter
omring
ante
orkn
parent
##ytarsus
teniet
uttalas
thuringen
gomez
sio
##egren
##ningane
heiter
##ythe
hjalt
##boe
panor
streck
lansstyrelsen
##smiljø
mycetophila
kell
mits
##ørene
studien
betegnet
reservoir
##polo
##skors
brønn
begaran
##ineau
friherr
gamal
dalarnas
feiret
galak
inkluderade
##robot
butikker
cayenne
raskere
valparaiso
hank
oppvokst
kommunistisk
##roner
##iban
heath
biot
edmon
framsteg
##stammer
##farten
massiv
skøytel
##lien
##lou
price
##sforhold
mittfalt
omgrepet
oppvarming
leconte
khallet
##yong
##orne
##loa
1721
save
##ifikat
generaldirektor
zav
trim
airways
fasen
rotund
registrerade
piaui
zin
avviste
##asteh
samiska
korps
vaks
klinisk
verktøy
##ozo
oppstatt
husar
kritiserade
bortgang
heinz
lutherska
zeppelin
##lekten
agn
roer
mcdonald
scelionidae
improvis
nect
madame
drøm
1754
stemmerett
jula
##isin
##sac
lef
framstilt
cald
##karna
##kolon
##85
##istikk
##sbar
studies
##ization
solanum
prega
systems
utgivning
adeln
porsche
##lab
hanner
huvudroll
##abilis
innr
fastningen
storleken
edition
christoffer
ruiz
golv
1748
forhandlinger
tamanrasset
##shot
forbes
insag
kopenhamns
existerade
##sfragor
##avisen
##roret
bahr
antiok
evan
wig
strenge
guanaju
##arat
slutgilt
obli
reserver
operaen
springs
gospel
fix
km2
ledar
##eca
skolek
khwar
sprinten
terminal
##jenko
##bea
slat
kommentar
kildene
sordariomycetes
##umo
oppfinn
##ocamp
##quer
tempor
bloom
pallida
##wing
marcos
sjæl
##genhet
soderberg
herat
##essel
søker
##vattens
forutsatt
##lange
##tat
darutover
londons
hittil
arrow
ront
##يل
omar
trajon
utst
##visningen
##wai
guide
richmond
irisvaxtart
sondag
metropolitan
##astor
##ulara
obscura
periferieininga
ujung
##osisjon
##ckenzie
sendes
##umbria
tyrann
aula
butter
##slo
##direktør
##enskaper
##liber
##asm
brakte
carac
feber
##basen
isolert
stjernen
karna
##qah
upprattades
##halls
##ønster
morelos
tilbød
dryopteridaceae
sakristia
cohen
p1
##embl
landsmannen
hels
anglo
macdonald
alternativa
sylv
elaphoglossum
satakunta
##sond
guenee
##ulauan
ronneby
vassdraget
nana
##skick
forklare
##rodor
forekomsten
tynn
##rofys
grimstad
raden
##99
helga
romart
##hoch
##sarbete
##fiber
byggnads
aurora
ammunisjon
konsm
##market
kristdemokrat
##ochrysa
pels
##bay
cerros
ulster
ulrik
øydelag
serierunde
stortingsmann
oppdatert
##ræ
##rok
##varns
brenne
seni
johnsen
slakting
beveger
kepulauan
uend
##enius
##anu
avant
##rary
sorte
bismarck
publicerad
xiii
svekket
lumb
##feng
##agd
##oporus
haven
##spets
andliga
bero
##orgia
generationen
høgde
##base
mattias
sorters
bian
uoffisi
##kanda
##igare
##ylinder
knuten
peace
protestantiske
##atiens
##handeln
kongene
teateret
produseres
svensktoppen
##eso
##teria
tillfor
antikkens
herak
disciplin
revir
fuglar
owen
regierungsbe
##jana
##brett
gullbas
hoppa
innflytelses
wuhan
absolutt
##biblioteket
befintliga
alands
eger
gog
vale
1620
braut
laran
carden
lotus
ær
##ulosus
spenn
kula
##shu
##lesp
amanda
meigen
bakat
diskusjon
##ammation
trondhjems
swedish
dm
eure
khe
miz
tilby
samlas
##aci
biologiska
varaordfører
bailey
gudom
prosesser
mcd
camping
##mossa
wheeler
montgomery
økning
##idge
villar
lepp
##pelet
folkeset
sura
melk
missno
tavastland
enzym
##يد
manfred
canadiske
satellitt
##mang
##hia
arali
atp
bevegelser
polypod
##konsul
chongqing
##amesterskapet
##riz
utland
komet
##ulic
kommunar
##jarnet
turneringar
stafetten
kunstnerisk
allvarligt
cz
##sic
##ostemma
torres
chun
haugen
ostind
strackte
emner
##apeut
brotherus
abbed
sind
arabemi
1697
ivanovich
##emerke
fagelns
kermanshah
foreligger
trase
beslag
vestlig
##brunn
##steinen
dyar
dominik
sicilien
sosialt
edmonton
tif
##amet
overgav
onskade
luzon
rouge
##iaria
regelmessig
klockstapel
afrikas
divers
wander
##ienten
##agos
##ynastin
##iii
presenterte
##sseremonien
singellistan
flight
maka
boskap
silvest
rhaph
fordraget
##stykket
morgenen
##ingst
utrikespolit
laz
allsvenska
kungad
valgoren
strindberg
hyppig
mendoza
##korn
##ambi
##sstyrk
middelhav
usikkert
##organisasjoner
felttoget
adelen
##craft
##kinson
##omya
##ulifera
coach
guadel
##formad
satiri
therese
anvandningen
greiner
reducer
trajonvaxtart
arhus
##itung
chans
impatiens
normala
1709
omtalte
flaggan
forretningsmann
nade
##oney
baja
ektef
beleiringen
##inalis
##leria
##ftar
sitta
praktiskt
##flyttade
##ioxid
paijan
underg
demning
distans
ssr
preussiska
yuc
##late
##arte
##itla
syri
algorit
markt
herfra
##aniemi
valdres
##følg
hendelsene
kompositioner
forebygg
eksistert
memoarer
riksdaler
##sboken
##quis
forbundets
metallisk
grafik
ensemble
konstruktionen
symfoniorkester
volkswagen
hæ
##senhet
chol
sjøs
dals
gali
nigra
busetnad
democrat
##ет
thra
mellomtiden
##rodusent
eksistens
##oid
##ardig
beslutades
teckning
1743
isteden
amaryllisvaxtart
ibrahim
paijanne
wonder
##lova
said
morkt
oversatts
invigningen
digitale
gregory
kb
kark
ulikt
##jka
##iges
troch
konsentrasjonsle
voll
marino
brukast
dammen
oberth
bourbon
britannia
parmeliaceae
ormstjarneart
solsystemet
regjerende
oxen
trenings
cannes
[...]
