[PAD]
[unused0]
[unused1]
[unused2]
[unused3]
[unused4]
[unused5]
[unused6]
[unused7]
[unused8]
[unused9]
[unused10]
[unused11]
[unused12]
[unused13]
[unused14]
[unused15]
[unused16]
[unused17]
[unused18]
[unused19]
[unused20]
[unused21]
[unused22]
[unused23]
[unused24]
[unused25]
[unused26]
[unused27]
[unused28]
[unused29]
[unused30]
[unused31]
[unused32]
[unused33]
[unused34]
[unused35]
[unused36]
[unused37]
[unused38]
[unused39]
[unused40]
[unused41]
[unused42]
[unused43]
[unused44]
[unused45]
[unused46]
[unused47]
[unused48]
[unused49]
[unused50]
[unused51]
[unused52]
[unused53]
[unused54]
[unused55]
[unused56]
[unused57]
[unused58]
[unused59]
[unused60]
[unused61]
[unused62]
[unused63]
[unused64]
[unused65]
[unused66]
[unused67]
[unused68]
[unused69]
[unused70]
[unused71]
[unused72]
[unused73]
[unused74]
[unused75]
[unused76]
[unused77]
[unused78]
[unused79]
[unused80]
[unused81]
[unused82]
[unused83]
[unused84]
[unused85]
[unused86]
[unused87]
[unused88]
[unused89]
[unused90]
[unused91]
[unused92]
[unused93]
[unused94]
[unused95]
[unused96]
[unused97]
[unused98]
[unused99]
[unused100]
[unused101]
[unused102]
[unused103]
[unused104]
[unused105]
[unused106]
[unused107]
[unused108]
[unused109]
[unused110]
[unused111]
[unused112]
[unused113]
[unused114]
[unused115]
[unused116]
[unused117]
[unused118]
[unused119]
[unused120]
[unused121]
[unused122]
[unused123]
[unused124]
[unused125]
[unused126]
[unused127]
[unused128]
[unused129]
[unused130]
[unused131]
[unused132]
[unused133]
[unused134]
[unused135]
[unused136]
[unused137]
[unused138]
[unused139]
[unused140]
[unused141]
[unused142]
[unused143]
[unused144]
[unused145]
[unused146]
[unused147]
[unused148]
[unused149]
[unused150]
[unused151]
[unused152]
[unused153]
[unused154]
[unused155]
[unused156]
[unused157]
[unused158]
[unused159]
[unused160]
[unused161]
[unused162]
[unused163]
[unused164]
[unused165]
[unused166]
[unused167]
[unused168]
[unused169]
[unused170]
[unused171]
[unused172]
[unused173]
[unused174]
[unused175]
[unused176]
[unused177]
[unused178]
[unused179]
[unused180]
[unused181]
[unused182]
[unused183]
[unused184]
[unused185]
[unused186]
[unused187]
[unused188]
[unused189]
[unused190]
[unused191]
[unused192]
[unused193]
[unused194]
[unused195]
[unused196]
[unused197]
[unused198]
[unused199]
[unused200]
[unused201]
[unused202]
[unused203]
[unused204]
[unused205]
[unused206]
[unused207]
[unused208]
[unused209]
[unused210]
[unused211]
[unused212]
[unused213]
[unused214]
[unused215]
[unused216]
[unused217]
[unused218]
[unused219]
[unused220]
[unused221]
[unused222]
[unused223]
[unused224]
[unused225]
[unused226]
[unused227]
[unused228]
[unused229]
[unused230]
[unused231]
[unused232]
[unused233]
[unused234]
[unused235]
[unused236]
[unused237]
[unused238]
[unused239]
[unused240]
[unused241]
[unused242]
[unused243]
[unused244]
[unused245]
[unused246]
[unused247]
[unused248]
[unused249]
[unused250]
[unused251]
[unused252]
[unused253]
[unused254]
[unused255]
[unused256]
[unused257]
[unused258]
[unused259]
[unused260]
[unused261]
[unused262]
[unused263]
[unused264]
[unused265]
[unused266]
[unused267]
[unused268]
[unused269]
[unused270]
[unused271]
[unused272]
[unused273]
[unused274]
[unused275]
[unused276]
[unused277]
[unused278]
[unused279]
[unused280]
[unused281]
[unused282]
[unused283]
[unused284]
[unused285]
[unused286]
[unused287]
[unused288]
[unused289]
[unused290]
[unused291]
[unused292]
[unused293]
[unused294]
[unused295]
[unused296]
[unused297]
[unused298]
[unused299]
[unused300]
[unused301]
[unused302]
[unused303]
[unused304]
[unused305]
[unused306]
[unused307]
[unused308]
[unused309]
[unused310]
[unused311]
[unused312]
[unused313]
[unused314]
[unused315]
[unused316]
[unused317]
[unused318]
[unused319]
[unused320]
[unused321]
[unused322]
[unused323]
[unused324]
[unused325]
[unused326]
[unused327]
[unused328]
[unused329]
[unused330]
[unused331]
[unused332]
[unused333]
[unused334]
[unused335]
[unused336]
[unused337]
[unused338]
[unused339]
[unused340]
[unused341]
[unused342]
[unused343]
[unused344]
[unused345]
[unused346]
[unused347]
[unused348]
[unused349]
[unused350]
[unused351]
[unused352]
[unused353]
[unused354]
[unused355]
[unused356]
[unused357]
[unused358]
[unused359]
[unused360]
[unused361]
[unused362]
[unused363]
[unused364]
[unused365]
[unused366]
[unused367]
[unused368]
[unused369]
[unused370]
[unused371]
[unused372]
[unused373]
[unused374]
[unused375]
[unused376]
[unused377]
[unused378]
[unused379]
[unused380]
[unused381]
[unused382]
[unused383]
[unused384]
[unused385]
[unused386]
[unused387]
[unused388]
[unused389]
[unused390]
[unused391]
[unused392]
[unused393]
[unused394]
[unused395]
[unused396]
[unused397]
[unused398]
[unused399]
[unused400]
[unused401]
[unused402]
[unused403]
[unused404]
[unused405]
[unused406]
[unused407]
[unused408]
[unused409]
[unused410]
[unused411]
[unused412]
[unused413]
[unused414]
[unused415]
[unused416]
[unused417]
[unused418]
[unused419]
[unused420]
[unused421]
[unused422]
[unused423]
[unused424]
[unused425]
[unused426]
[unused427]
[unused428]
[unused429]
[unused430]
[unused431]
[unused432]
[unused433]
[unused434]
[unused435]
[unused436]
[unused437]
[unused438]
[unused439]
[unused440]
[unused441]
[unused442]
[unused443]
[unused444]
[unused445]
[unused446]
[unused447]
[unused448]
[unused449]
[unused450]
[unused451]
[unused452]
[unused453]
[unused454]
[unused455]
[unused456]
[unused457]
[unused458]
[unused459]
[unused460]
[unused461]
[unused462]
[unused463]
[unused464]
[unused465]
[unused466]
[unused467]
[unused468]
[unused469]
[unused470]
[unused471]
[unused472]
[unused473]
[unused474]
[unused475]
[unused476]
[unused477]
[unused478]
[unused479]
[unused480]
[unused481]
[unused482]
[unused483]
[unused484]
[unused485]
[unused486]
[unused487]
[unused488]
[unused489]
[unused490]
[unused491]
[unused492]
[unused493]
[unused494]
[unused495]
[unused496]
[unused497]
[unused498]
[unused499]
[unused500]
[unused501]
[unused502]
[unused503]
[unused504]
[unused505]
[unused506]
[unused507]
[unused508]
[unused509]
[unused510]
[unused511]
[unused512]
[unused513]
[unused514]
[unused515]
[unused516]
[unused517]
[unused518]
[unused519]
[unused520]
[unused521]
[unused522]
[unused523]
[unused524]
[unused525]
[unused526]
[unused527]
[unused528]
[unused529]
[unused530]
[unused531]
[unused532]
[unused533]
[unused534]
[unused535]
[unused536]
[unused537]
[unused538]
[unused539]
[unused540]
[unused541]
[unused542]
[unused543]
[unused544]
[unused545]
[unused546]
[unused547]
[unused548]
[unused549]
[unused550]
[unused551]
[unused552]
[unused553]
[unused554]
[unused555]
[unused556]
[unused557]
[unused558]
[unused559]
[unused560]
[unused561]
[unused562]
[unused563]
[unused564]
[unused565]
[unused566]
[unused567]
[unused568]
[unused569]
[unused570]
[unused571]
[unused572]
[unused573]
[unused574]
[unused575]
[unused576]
[unused577]
[unused578]
[unused579]
[unused580]
[unused581]
[unused582]
[unused583]
[unused584]
[unused585]
[unused586]
[unused587]
[unused588]
[unused589]
[unused590]
[unused591]
[unused592]
[unused593]
[unused594]
[unused595]
[unused596]
[unused597]
[unused598]
[unused599]
[unused600]
[unused601]
[unused602]
[unused603]
[unused604]
[unused605]
[unused606]
[unused607]
[unused608]
[unused609]
[unused610]
[unused611]
[unused612]
[unused613]
[unused614]
[unused615]
[unused616]
[unused617]
[unused618]
[unused619]
[unused620]
[unused621]
[unused622]
[unused623]
[unused624]
[unused625]
[unused626]
[unused627]
[unused628]
[unused629]
[unused630]
[unused631]
[unused632]
[unused633]
[unused634]
[unused635]
[unused636]
[unused637]
[unused638]
[unused639]
[unused640]
[unused641]
[unused642]
[unused643]
[unused644]
[unused645]
[unused646]
[unused647]
[unused648]
[unused649]
[unused650]
[unused651]
[unused652]
[unused653]
[unused654]
[unused655]
[unused656]
[unused657]
[unused658]
[unused659]
[unused660]
[unused661]
[unused662]
[unused663]
[unused664]
[unused665]
[unused666]
[unused667]
[unused668]
[unused669]
[unused670]
[unused671]
[unused672]
[unused673]
[unused674]
[unused675]
[unused676]
[unused677]
[unused678]
[unused679]
[unused680]
[unused681]
[unused682]
[unused683]
[unused684]
[unused685]
[unused686]
[unused687]
[unused688]
[unused689]
[unused690]
[unused691]
[unused692]
[unused693]
[unused694]
[unused695]
[unused696]
[unused697]
[unused698]
[unused699]
[unused700]
[unused701]
[unused702]
[unused703]
[unused704]
[unused705]
[unused706]
[unused707]
[unused708]
[unused709]
[unused710]
[unused711]
[unused712]
[unused713]
[unused714]
[unused715]
[unused716]
[unused717]
[unused718]
[unused719]
[unused720]
[unused721]
[unused722]
[unused723]
[unused724]
[unused725]
[unused726]
[unused727]
[unused728]
[unused729]
[unused730]
[unused731]
[unused732]
[unused733]
[unused734]
[unused735]
[unused736]
[unused737]
[unused738]
[unused739]
[unused740]
[unused741]
[unused742]
[unused743]
[unused744]
[unused745]
[unused746]
[unused747]
[unused748]
[unused749]
[unused750]
[unused751]
[unused752]
[unused753]
[unused754]
[unused755]
[unused756]
[unused757]
[unused758]
[unused759]
[unused760]
[unused761]
[unused762]
[unused763]
[unused764]
[unused765]
[unused766]
[unused767]
[unused768]
[unused769]
[unused770]
[unused771]
[unused772]
[unused773]
[unused774]
[unused775]
[unused776]
[unused777]
[unused778]
[unused779]
[unused780]
[unused781]
[unused782]
[unused783]
[unused784]
[unused785]
[unused786]
[unused787]
[unused788]
[unused789]
[unused790]
[unused791]
[unused792]
[unused793]
[unused794]
[unused795]
[unused796]
[unused797]
[unused798]
[unused799]
[unused800]
[unused801]
[unused802]
[unused803]
[unused804]
[unused805]
[unused806]
[unused807]
[unused808]
[unused809]
[unused810]
[unused811]
[unused812]
[unused813]
[unused814]
[unused815]
[unused816]
[unused817]
[unused818]
[unused819]
[unused820]
[unused821]
[unused822]
[unused823]
[unused824]
[unused825]
[unused826]
[unused827]
[unused828]
[unused829]
[unused830]
[unused831]
[unused832]
[unused833]
[unused834]
[unused835]
[unused836]
[unused837]
[unused838]
[unused839]
[unused840]
[unused841]
[unused842]
[unused843]
[unused844]
[unused845]
[unused846]
[unused847]
[unused848]
[unused849]
[unused850]
[unused851]
[unused852]
[unused853]
[unused854]
[unused855]
[unused856]
[unused857]
[unused858]
[unused859]
[unused860]
[unused861]
[unused862]
[unused863]
[unused864]
[unused865]
[unused866]
[unused867]
[unused868]
[unused869]
[unused870]
[unused871]
[unused872]
[unused873]
[unused874]
[unused875]
[unused876]
[unused877]
[unused878]
[unused879]
[unused880]
[unused881]
[unused882]
[unused883]
[unused884]
[unused885]
[unused886]
[unused887]
[unused888]
[unused889]
[unused890]
[unused891]
[unused892]
[unused893]
[unused894]
[unused895]
[unused896]
[unused897]
[unused898]
[unused899]
[unused900]
[unused901]
[unused902]
[unused903]
[unused904]
[unused905]
[unused906]
[unused907]
[unused908]
[unused909]
[unused910]
[unused911]
[unused912]
[unused913]
[unused914]
[unused915]
[unused916]
[unused917]
[unused918]
[unused919]
[unused920]
[unused921]
[unused922]
[unused923]
[unused924]
[unused925]
[unused926]
[unused927]
[unused928]
[unused929]
[unused930]
[unused931]
[unused932]
[unused933]
[unused934]
[unused935]
[unused936]
[unused937]
[unused938]
[unused939]
[unused940]
[unused941]
[unused942]
[unused943]
[unused944]
[unused945]
[unused946]
[unused947]
[unused948]
[unused949]
[unused950]
[unused951]
[unused952]
[unused953]
[unused954]
[unused955]
[unused956]
[unused957]
[unused958]
[unused959]
[unused960]
[unused961]
[unused962]
[unused963]
[unused964]
[unused965]
[unused966]
[unused967]
[unused968]
[unused969]
[unused970]
[unused971]
[unused972]
[unused973]
[unused974]
[unused975]
[unused976]
[unused977]
[unused978]
[unused979]
[unused980]
[unused981]
[unused982]
[unused983]
[unused984]
[unused985]
[unused986]
[unused987]
[unused988]
[unused989]
[unused990]
[unused991]
[unused992]
[unused993]
[unused994]
[unused995]
[unused996]
[unused997]
[unused998]
[unused999]
[UNK]
[CLS]
[SEP]
[MASK]
!
"
#
$
%
&
'
(
)
*
+
,
-
.
/
0
1
2
3
4
5
6
7
8
9
:
;
<
=
>
?
@
[
\
]
^
_
`
a
b
c
d
e
f
g
h
i
j
k
l
m
n
o
p
q
r
s
t
u
v
w
x
y
z
{
|
}
~
¡
¢
£
¤
¥
¦
§
¨
©
«
¬
®
¯
°
±
²
³
´
µ
¶
·
¹
º
»
¼
½
¾
¿
×
ß
æ
ð
÷
ø
þ
đ
ħ
ı
ł
œ
ƒ
ə
ɛ
ʹ
ˆ
ˈ
ː
˚
ˮ
ͼ
α
β
γ
δ
ε
ζ
η
θ
ι
κ
λ
μ
ν
ξ
ο
π
ρ
ς
σ
τ
υ
φ
χ
ψ
ω
ϕ
а
б
в
г
д
е
ж
з
и
к
л
м
н
о
п
р
с
т
у
ф
х
ц
ч
ш
щ
ъ
ы
ь
э
ю
я
ђ
є
ѕ
і
ј
љ
њ
ґ
һ
ա
ե
ն
ո
ր
א
ב
ג
ד
ה
ו
ח
ט
י
כ
ל
ם
מ
ן
נ
ס
ע
פ
ק
ר
ש
ת
،
ء
ا
ب
ة
ت
ث
ج
ح
خ
د
ذ
ر
ز
س
ش
ص
ض
ط
ظ
ع
غ
ـ
ف
ق
ك
ل
م
ن
ه
و
ى
ي
پ
چ
ک
گ
ی
ە
क
ग
ज
त
द
न
प
ब
म
य
र
ल
व
स
ह
ा
ि
ी
ो
ক
ত
ন
ব
য
র
ল
া
ি
ে
க
த
ன
ப
ம
ர
வ
ா
ி
ு
ก
ข
ค
ง
จ
ช
ด
ต
ท
น
บ
ป
พ
ม
ย
ร
ล
ว
ส
ห
อ
ะ
า
เ
แ
โ
ไ
ა
ე
ი
ლ
მ
ნ
ო
რ
ს
ᄀ
ᄂ
ᄃ
ᄅ
ᄆ
ᄇ
ᄉ
ᄋ
ᄌ
ᄎ
ᄏ
ᄐ
ᄑ
ᄒ
ᅡ
ᅢ
ᅥ
ᅦ
ᅧ
ᅩ
ᅪ
ᅬ
ᅭ
ᅮ
ᅲ
ᅳ
ᅴ
ᅵ
ᆨ
ᆫ
ᆯ
ᆷ
ᆸ
ᆼ
ᐈ
‐
‑
‒
–
—
‘
’
‚
“
”
„
†
‡
•
…
‰
′
″
‹
›
₨
€
℃
№
™
←
↑
→
↓
⇒
−
√
≈
≤
≥
─
■
□
▪
▫
▲
▶
►
▻
▼
○
●
☀
★
☆
☺
♀
♡
♣
♥
♦
✅
✌
✓
✔
✚
✨
✭
✰
❄
❑
❤
➔
⠀
⭐
ⰰ
、
。
「
」
【
】
あ
い
う
え
お
か
き
く
け
こ
さ
し
す
せ
そ
た
ち
っ
つ
て
と
な
に
の
は
ま
み
め
も
や
よ
ら
り
る
れ
わ
を
ん
ア
ィ
イ
ウ
ェ
エ
オ
カ
キ
ク
ケ
コ
サ
シ
ス
セ
タ
チ
ッ
ツ
テ
ト
ナ
ニ
ネ
ハ
ヒ
フ
ヘ
ホ
マ
ミ
ム
メ
モ
ャ
ュ
ョ
ラ
リ
ル
レ
ロ
ワ
ン
・
ー
䄀
䈀
䌀
䐀
䔀
䜀
䠀
䤀
䬀
䰀
䴀
一
万
三
上
下
不
与
专
世
业
东
个
中
为
主
么
之
乐
九
也
乡
买
了
争
事
二
于
五
亚
交
产
京
人
什
今
他
仙
代
以
们
件
伀
会
传
位
体
何
作
你
使
供
保
信
值
元
光
克
免
入
全
八
公
六
关
其
内
円
册
准
出
刀
分
划
创
利
到
制
前
力
加
务
动
势
動
匀
包
化
北
区
十
华
单
南
博
原
县
及
双
发
取
口
古
可
台
号
司
吀
合
同
名
后
吗
和
品
哪
唀
商
嘀
器
四
回
国
图
在
地
场
址
坛
城
堂
場
外
多
大
天
太
头
奖
女
好
如
姐
娱
婆
子
字
学
安
官
定
宝
实
客
室
家
富
对
小
少
尔
就
尾
展
山
川
州
工
巧
市
布
平
年
广
庄
庆
库
店
度
建
开
式
当
录
彩
影
律
得
微
德
心
必
快
怎
思
性
总
情
意
感
戏
成
我
户
所
手
打
技
投
报
拉
持
挂
指
推
提
播
教
数
文
料
斯
新
方
无
日
时
明
星
是
時
更
最
月
有
服
期
木
本
机
杀
村
来
東
林
枚
果
校
样
格
業
次
正
比
民
氓
水
江
沙
河
法
波
注
活
流
测
海
港
游
湖
源
澳
点
爱
片
版
牌
牛
物
特
狗
玄
王
玩
现
球
理
生
用
田
电
画
界
登
白
百
的
皇
盘
目
盲
直
相
看
県
真
着
知
石
码
社
神
票
福
科
程
空
立
站
第
等
算
管
精
系
红
线
组
经
结
统
网
美
群
老
者
肖
育
能
自
色
花
英
行
街
表
西
要
見
规
视
解
计
记
论
设
诗
财
费
资
赌
赛
赢
走
足
跑
路
身
车
软
载
过
这
进
送
选
通
道
部
都
里
重
金
钱
镇
长
間
门
阳
际
限
院
集
霸
青
面
音
预
食
香
马
高
黄
黑
龙
ﬁ
ﬂ
！
（
）
，
：
ｩ
ｲ
ﾞ
𝐞
🌟
🌸
🎉
🏻
🏼
🏽
👊
👌
👍
👏
💕
💖
💗
💙
💚
💛
💜
💞
💪
🔥
😀
😁
😂
😃
😄
😅
😆
😉
😊
😋
😍
😎
😏
😘
😛
😜
😝
😢
😦
😬
😭
😱
😳
🙁
🙂
🙄
🙈
🙌
🙏
🤔
🤗
🤣
##j
##u
##n
##g
##b
##y
##k
##o
##m
##p
##i
##s
##e
##a
##r
##t
##l
##0
##1
##8
##d
##c
##h
##v
##f
##¤
##6
##о
##ж
##н
##і
##и
##z
##7
##4
##5
##x
##3
##2
##な
##の
##て
##カ
##ッ
##フ
##w
##9
##q
##с
##т
##а
##л
##я
##ц
##ル
##ー
##コ
##チ
##→
##ل
##م
##س
##ي
##ر
##у
##е
##®
##ъ
##м
##ф
##р
##د
##غ
##в
##д
##🏼
##😄
##😀
##👍
##🏻
##ь
##ч
##п
##ε
##λ
##α
##τ
##η
##و
##چ
##ا
##ش
##к
##¨
##æ
##ł
##ی
##´
##ы
##ط
##ა
##ლ
##ნ
##ი
##ე
##い
##ニ
##キ
##ヒ
##か
##²
##™
##と
##つ
##く
##☺
##😢
##ø
##ш
##த
##ப
##ா
##ה
##א
##מ
##י
##נ
##з
##х
##г
##−
##ð
##ب
##ت
##پ
##ᅮ
##ᆫ
##ᄃ
##ᅡ
##ᆼ
##ᄀ
##ミ
##レ
##ホ
##ト
##ハ
##イ
##ス
##😅
##❤
##ρ
##δ
##ι
##π
##ο
##υ
##ア
##ム
##あ
##り
##ら
##そ
##ร
##ะ
##ส
##า
##น
##β
##°
##э
##¬
##ю
##ν
##μ
##σ
##ς
##テ
##ィ
##を
##✨
##♥
##オ
##リ
##シ
##ナ
##サ
##ン
##ق
##ه
##һ
##ك
##ف
##گ
##ز
##ن
##ج
##ة
##อ
##ก
##ว
##ク
##😊
##ե
##ն
##ᅵ
##ᄒ
##ᅢ
##ラ
##に
##б
##ß
##ʹ
##ـ
##🙈
##る
##こ
##す
##さ
##ん
##タ
##み
##も
##ᄌ
##ᄂ
##ᅳ
##れ
##は
##♡
##ย
##ง
##ע
##ו
##ן
##え
##ま
##け
##し
##ع
##℃
##¥
##マ
##×
##κ
##خ
##ᅪ
##ᄆ
##ᅧ
##ј
##ᅥ
##ᄐ
##ে
##ᄋ
##€
##ƒ
##¦
##ロ
##セ
##ı
##た
##😬
##ন
##ি
##ด
##ท
##ห
##โ
##ป
##ไ
##ล
##ャ
##ツ
##θ
##ω
##💕
##ு
##ர
##😍
##ظ
##ک
##œ
##ء
##√
##😁
##ᄎ
##þ
##ო
##บ
##ข
##♀
##ม
##𝐞
##ᆯ
##ᄇ
##ᆨ
##ᄉ
##ᆸ
##ᅩ
##đ
##พ
##ต
##ᄅ
##ᅦ
##ग
##ो
##ज
##ा
##ल
##स
##γ
##ζ
##💛
##ヘ
##😉
##ə
##ி
##ת
##ג
##ר
##χ
##ᆷ
##ᅭ
##ͼ
##½
##แ
##ى
##ˮ
##ि
##ョ
##ネ
##ᅬ
##ち
##お
##よ
##う
##っ
##ґ
##±
##щ
##💙
##ם
##न
##や
##ウ
##め
##メ
##😂
##🤔
##💪
##✔
##🏽
##ە
##き
##©
##य
##द
##ב
##ュ
##せ
##ա
##ո
##ˈ
##³
##🙏
##ს
##ض
##เ
##✌
##र
##µ
##ˆ
##ﬁ
##😳
##є
##🤣
##👌
##क
##வ
##க
##प
##😜
##ק
##ช
##モ
##¢
##ט
##ד
##☀
##😎
##😃
##ס
##म
##פ
##●
##ம
##ன
##ح
##ค
##😝
##რ
##φ
##≤
##👊
##ל
##💖
##া
##ত
##˚
##त
##エ
##º
##💜
##🤗
##য
##ল
##ケ
##ש
##♣
##ব
##↑
##จ
##র
##♦
##ː
##👏
##ी
##ᄏ
##ह
##ब
##⭐
##ص
##ذ
##ח
##љ
##🙌
##😏
##ħ
##£
##¹
##व
##÷
##ր
##ɛ
##ェ
##მ
##ђ
##😆
##⠀
##ᄑ
##🙄
##😘
##😋
##✓
##▲
##▼
##🎉
##ワ
##ক
##ѕ
##ᅴ
##🙂
##ﬂ
##★
##☆
##😭
##🌸
##ξ
##💞
##¼
##ｲ
##🔥
##▪
##¾
##❄
##ث
##њ
##わ
##ψ
##↓
##¯
##💗
##▫
##כ
##🌟
##💚
##■
##ᅲ
##ﾞ
##😱
##ⰰ
##😛
##≥
##○
##□
##≈
##✅
##№
##─
##ｩ
##ϕ
##►
##🙁
##😦
##←
##▶
##▻
##✰
##➔
##✚
##⇒
##✭
##❑
##ar
##er
##an
##en
##or
##et
##tt
##ll
##in
##ag
##st
##om
##ch
och
##ig
##ad
##at
##on
for
ar
##ed
att
##al
##ing
in
en
det
##sk
##el
##ra
pa
##ck
##ill
##and
som
av
sa
##te
med
##na
vi
##kt
var
till
sk
st
##es
jag
har
an
##as
##pp
##ning
##sa
##un
##all
##ter
den
##lig
##ade
##ro
##il
##it
om
de
##id
##ol
##ang
##ver
##am
##ast
##re
##att
##ik
##is
inte
kan
ut
##der
##iv
##em
##ur
##ion
##ot
##ran
bl
ett
man
##are
du
##isk
##ta
##og
##de
kom
##for
all
men
##ande
##ut
##ok
##itt
upp
be
##var
##het
un
##us
##ller
sp
##od
##yck
komm
nar
##ent
##ss
##ak
se
##inn
##ist
##ort
sam
##ens
fran
##ul
eller
##um
ska
##fter
##ska
re
min
han
##la
nag
##igt
##art
bar
##ick
##sta
##ud
##ell
##os
pro
##ation
hel
##ma
under
##ull
##ligt
##op
ha
dar
##ram
##gen
##arna
##va
##im
and
val
##bb
efter
over
##ir
far
fa
vara
sig
gr
##und
kl
##ord
fl
kon
nu
##ans
##yg
##ock
##ant
li
##ff
##erna
fr
ny
##sp
##aste
al
da
##ats
##ft
##ess
stor
ta
##ost
gor
##sl
sj
per
##era
##bet
##dag
20
##ark
##gar
##ga
##els
kommer
##je
bor
mo
##inns
pr
tid
##ger
del
alla
lag
allt
mig
gen
tr
##le
finns
##sam
vill
dag
vid
##ank
pl
##ov
##ikt
ju
##ika
##ic
hon
kr
##ass
##ycket
##da
fram
##ne
sl
##est
##iska
or
##bl
lite
ann
bra
##opp
mycket
kv
vad
ex
##edan
lang
sin
mot
##per
##eck
sv
##liga
bara
hur
ver
##ling
mer
##uk
##son
bil
genom
##ningen
kun
br
##iga
##ligen
aven
beh
##ber
##vand
ock
##kl
##ann
hem
ocksa
vil
##ja
sy
er
##dr
andra
##ott
##jt
hade
##oll
##stall
sag
##eter
sen
##nad
##den
hand
##ka
##ilj
detta
din
##satt
##ker
##ulle
##ningar
sex
##hall
mang
##ack
##org
ol
dig
jo
##yr
arbet
skulle
tra
##ev
##ri
verk
##ek
##ukt
##mar
fin
19
samt
##00
##ala
gar
spel
##alv
blir
ser
ber
##ett
##ekt
##sm
##mer
ch
vis
utan
anvand
##orr
##ia
##ara
th
##alt
mat
satt
##bil
201
nagon
hog
ty
sm
bet
##pl
##av
person
##rad
##ering
manga
on
##aren
res
##ket
sedan
##iskt
nat
##lag
##ug
sven
##man
##som
hj
##ster
svar
fol
##eg
nagot
##ci
reg
ma
##ygg
##pa
##jting
at
van
##ef
tva
tro
so
gora
barn
##upp
##amn
##itet
##jer
##riv
gang
hall
fors
##vis
fort
##br
##asta
oss
gl
fick
##unt
forsta
##ust
tank
##uv
##ier
##ader
bli
##del
helt
sn
sjalv
##men
des
##skap
##ring
idag
##tal
##sn
denna
of
blev
ratt
land
##aden
##ende
##ets
bes
##atis
##jan
##ys
##gi
##lar
##over
##ighet
hitt
##kom
##land
vet
##gang
olika
##verig
hela
##hol
inne
lig
##ote
ni
vag
dem
##nings
sverig
gj
##eras
ga
##ades
dat
liv
mal
kop
##ult
va
sitt
##ress
le
nagra
##orn
##verk
##ien
fil
jobb
##form
##rev
dejting
##ie
##ida
saker
##yn
##yd
##lighet
fun
##kten
##ske
rikt
##if
##eder
maste
int
##ce
gratis
ro
kall
kommun
runt
nya
##bar
##uvud
inn
##oj
##ellan
las
##gr
inom
kra
##ju
varit
forst
te
##str
hjal
##ser
##sb
##nas
##else
di
##holm
frag
##etag
mark
dom
mar
kanske
ja
##amp
tyck
##age
ligger
mellan
huvud
moj
##ken
##tern
##van
akt
igen
hen
kann
##ym
##veck
dessa
##ella
##ater
lan
tran
tv
##dre
##bord
##ont
##ip
##jar
slut
vin
str
god
ater
kor
mann
vilket
sla
bland
##get
kar
##atten
##iva
##aller
veck
sna
ner
par
sverige
innan
stock
form
dr
vald
mitt
##sen
led
annat
fam
##kel
##vet
hal
##pel
hos
##erade
ans
stockholm
##far
fast
vikt
##uren
##tem
##orna
dess
ord
tal
##dukt
##nar
##ata
rad
bade
ka
tag
##utom
##pt
just
stora
bok
##sson
am
18
##ingen
tar
##aka
##fall
foretag
##ow
porr
##ts
##lin
su
##erar
##anska
ur
sina
##sak
basta
##io
fakt
##ratt
fatt
##agen
lar
##se
nog
pol
svenska
##ej
10
familj
kont
behover
skol
##rat
pre
##enter
plats
##skar
°c
ra
##fr
kvinn
##pr
##ytt
varje
jul
we
fall
lin
kunna
##takt
batt
##sh
##jud
ger
tje
mass
best
alltid
samma
eftersom
varl
##be
ingen
stall
el
tre
##igare
##ederbord
##me
##erad
bo
sager
milj
200
##ada
##heten
ant
gick
bro
la
utveck
##arbet
##iken
##dom
fy
##snitt
flera
##ari
##xt
##ionen
##bild
gam
##kon
besk
grund
##orde
eg
kn
##kar
##ha
valdigt
##fatt
##borg
pen
##ativ
the
mannisk
riktigt
mm
dock
##alen
fot
##sc
pass
inga
ge
skriv
##edel
##erat
sok
enligt
star
##perat
latt
tycker
##fil
hans
snabb
vart
hopp
##rekt
plan
tor
bak
namn
lik
##vag
##aget
##mans
##ste
hus
battre
##akt
mina
opp
koll
##formation
##yl
exem
##giv
##led
galler
im
##stem
spe
em
##lagg
##iss
##ellt
produkt
##met
mest
##stand
pris
##bo
tim
##mal
aldr
##fl
varm
verkligen
eu
##hand
sal
ingar
tack
sak
sh
mor
km
bort
##rakt
komma
intress
##ista
##pro
forsok
tror
red
erb
sol
anda
##ioner
##ung
behov
##rum
sid
kort
##sid
trakten
exempel
15
##gram
##alog
##sv
kunde
sad
vide
forb
skall
##ue
kontakt
ag
ok
##skil
svart
##sammans
redan
tidigare
information
blog
kvinnor
ung
##sch
mus
tog
##cent
##blem
tillsammans
sjuk
speci
bilder
deras
gra
ov
aldrig
##ars
tiden
ab
he
ind
egen
kvar
genomsnitt
##mark
##orgon
svensk
enkel
##jekt
tillb
##uari
##ora
manniskor
##ationer
bygg
full
##iten
manaden
ditt
##hus
##eri
ele
ca
##par
##ivit
art
##ob
##peraturen
##samhet
konst
fler
annan
stad
ak
12
lat
##by
##skol
vatten
##ina
##ubb
vast
##berg
by
hitta
##sfor
kost
kro
##las
##rade
##ingar
hjalp
##val
borj
gjort
##tra
nord
dina
darfor
jam
##nes
##ipp
honom
##gifter
ly
##uter
##orer
gjorde
tur
fortsatt
##icka
stod
##sten
tillbaka
##temperaturen
meter
trad
##ings
direkt
##plats
tjan
##andet
beratt
intern
stud
jan
folk
natur
webb
mindre
##elsen
##lem
lever
##olk
familjen
lyck
esc
medel
nor
ganska
hemma
bild
##fe
##kr
storre
kvall
typ
##slag
##iker
ad
##lut
nederbord
ste
##ard
problem
##istor
##ektiv
ofta
traff
syn
mojlighet
##vard
son
##anden
##rar
to
##ydd
rel
##orter
##illa
co
##min
lo
##iver
vax
sar
nytt
##cis
gran
30
lika
##des
##rang
##rack
##ct
##ister
dessutom
##tid
saga
ute
komp
delen
ih
##ana
##ultat
##line
nast
faktiskt
app
##red
list
dagen
haft
fore
landet
besok
film
kanner
infor
##lek
titt
##bland
##idigt
folj
##kv
tjejer
##ers
11
##olog
antal
##rak
##yt
hund
##radet
vack
##stad
##kop
##amma
eng
pres
anvanda
rum
##ometer
krav
precis
dal
##mo
sma
ev
ob
17
gote
prov
##ex
varld
kanns
escort
##ator
ter
part
##esta
enkelt
soci
##lan
##omm
goteborg
styr
rak
##ix
liten
massage
##ationen
innehall
##net
slakt
match
##nat
samhall
mon
##inner
lok
medlem
pengar
cent
online
fel
pu
henne
##assa
##gor
##ilometer
##illar
post
fant
##igaste
lak
##elser
##ekn
##sdag
beslut
##sy
sta
16
##nen
ang
##slut
stort
##nade
inget
kron
sommar
tel
##ember
##ian
##ningarna
##eln
dagar
tha
##int
ytt
##ice
utbild
##asin
##amm
cat
##add
##ind
##ite
kul
##stallet
org
##river
##bart
fre
behand
##unkt
end
kat
##anis
vilken
##inna
samtidigt
langre
porn
aldre
nastan
personer
bi
kopa
varfor
lange
lj
knull
lu
vissa
havet
borjar
##istr
##lingen
resultat
##raf
bel
##vid
kval
istallet
##kor
bruk
alltsa
##ition
start
ham
hoppas
fem
##heter
##aga
kna
program
ror
grupp
blivit
senaste
##jur
hennes
##kommen
##iet
vard
##ips
##lla
ne
eff
ren
kropp
##imat
senare
##sf
vann
via
vidare
##naden
##andra
na
borjade
##konom
jatt
gott
stat
klass
beg
fred
##sattning
langt
annu
ekonom
14
off
tillgang
los
##arter
innebar
sc
##han
##farande
##fekt
##iter
vilka
disk
kand
hy
dra
##sida
##ny
ibland
forl
garna
##sikt
trots
nasta
##tag
histor
tav
forsk
##uss
##ons
euro
fod
100
tekn
##oner
##med
##revs
##alj
##ligare
##end
gamla
extra
igar
sarskil
sista
##rot
##gard
id
##rik
nara
##saker
po
##rott
life
samman
##drag
sjal
betal
##hor
og
ot
syd
haller
regn
kons
fe
gre
januari
13
projekt
visar
ned
dejtingsa
kur
fortfarande
storsta
lagen
papp
ansvar
met
snart
bill
endast
##smedel
matt
bed
##ux
halla
narm
mil
##juder
##staden
verksamhet
bost
pat
glad
##lev
her
dod
slaktet
##als
gu
polit
und
##iddag
##klar
framfor
com
san
hittar
fantast
##gift
kred
is
underarter
beskrevs
##one
rik
jord
norr
##igheter
hor
##iner
sang
ben
##ond
##otell
##ider
##up
bad
catalog
25
lasa
##ies
##ument
ba
maj
flytt
##uta
##fors
farg
##uc
##unn
##ret
do
##drar
ovr
yo
##spel
##ift
finans
topp
listade
bank
risk
catalogue
klar
tot
natt
dating
bef
50
##bara
##ester
erbjud
##ocker
fragor
invan
mis
##ygga
ytter
##of
##nam
ihop
anvander
egent
ganger
##ena
spela
bas
sw
##oter
sitter
tem
ville
pla
kok
hast
##pe
bast
##etter
ener
aug
if
##ivt
blogg
juli
ins
000
flyg
soker
##band
##ins
##jo
helst
procent
cy
00
tyd
##juk
fyra
stark
foren
funkt
forut
##ner
mamma
bol
##sok
mojligt
forv
dan
199
sett
##kan
##agg
##bol
snabbt
##ona
##ea
halv
tills
##ynd
system
##ternativ
kult
mobil
mag
##onen
##spro
fann
hotell
##ong
trev
##cept
publ
minst
##lats
sjalva
sidan
flesta
borja
invanare
aret
sch
tu
varlden
timmar
##ojd
fina
##ograf
##its
##ryck
perfekt
kredit
nov
##alla
##lad
talet
skolan
vant
klart
bestall
egentligen
tom
utt
lam
kap
bada
dec
visa
handlar
musik
viktigt
##dejting
anal
ring
inv
##cess
vanligt
arbete
gillar
morgon
##pen
ho
vecka
inter
ljus
jamfor
utfor
spar
mill
arbets
##alis
oster
dej
##under
enda
skapa
##ert
##oc
jun
egna
bon
##bel
kontro
minuter
gangen
##ander
skriva
##res
host
borde
esk
pos
free
##omen
stra
gav
##sla
huvudstaden
kvad
##nader
##bruk
##lat
funger
moder
##lade
august
##ifran
##bor
ovan
##varande
et
knapp
slapp
foral
kvadrat
mode
##bygg
medan
bred
video
##otter
hals
gatt
lilla
##iz
haha
organis
kraft
soder
kund
##klart
stand
##fin
ide
##raste
go
super
natet
telef
valja
ens
##itu
##bin
as
##ummer
veckan
##imeter
##faren
##samma
##ags
alskar
skar
massa
berg
lagga
pop
brukar
emot
bid
tips
##arer
car
aka
##ium
ing
ac
gener
##uella
casin
malmo
##ph
samarbet
kring
borjan
centr
##uld
fraga
##anda
##ots
##fik
skick
aff
betyd
tjej
##ps
alternativ
spr
utveckling
##nande
but
kyr
sida
##derar
krist
priv
livet
verkar
##reg
##oden
kam
delar
fanns
##ras
rod
serv
manad
lug
lov
natdejting
##eta
varmaste
dejta
##sakring
hogsta
##ler
aren
skog
erbjuder
##lingar
##dera
##ustr
##raft
kallaste
##sin
erot
arsmedel
medeltemperaturen
##anga
gol
##grupp
kronor
##ivet
arsmedeltemperaturen
kopp
tanka
##sidor
##andring
vux
##aa
bostad
bal
##emen
materi
skriver
heller
sveriges
kal
##okus
sall
gud
log
tillfall
sem
genomsnittlig
juni
trott
internet
##ivers
augusti
##annande
ars
stan
bran
millimeter
tryck
webbplats
mog
ry
hot
nej
produkter
##kilometer
passar
kvadratkilometer
fri
##raden
##bud
2018
vem
dam
ku
utanfor
##ity
rapp
dro
kvalitet
sarskilt
dags
##frag
bestam
##unda
insp
##anter
##koping
vardag
##aler
sov
torraste
##rans
##aten
regnigaste
arsn
##vor
huvudsak
arsnederbord
varandra
rost
kultur
##alet
##ore
##ork
test
artik
jon
##anger
text
forra
sing
kanna
kommit
##styr
resp
nak
##full
smak
##usk
skap
##egor
erfaren
fordel
kvinna
##ille
sagt
ata
##vast
##ine
##tack
otro
##hl
install
hjalpa
##film
karl
tanker
tj
vagen
fokus
##ren
##ron
fisk
genomfor
##atta
klock
nam
roligt
ton
omgiv
sakerhet
marknad
##ign
vit
##anc
lord
park
##ald
rekommen
anstall
vanner
##oder
omradet
##ror
24
##strom
##sett
##boll
alls
reger
##splats
univers
ost
skont
##bro
##dat
elever
nation
allman
##oende
##ich
akte
narheten
##ke
utr
prat
unga
upps
foljande
cir
traning
ytterligare
sep
skatt
rader
arbetar
polis
##ankt
##ht
bj
miss
21
##tera
miljo
tagit
##jter
gemen
##bund
sason
##stid
##anta
2017
igenom
veta
##kort
skill
veckor
lek
prakt
tankte
##ppar
##spr
##tre
##fer
##pan
popul
##fol
djur
anvands
annars
##mor
lamn
##staur
kolla
imorgon
last
hav
##emang
##yll
ek
him
40
bestar
sakert
##utt
##samt
finansi
omfatt
22
##ng
##skriv
fint
bek
utbildning
gym
##olut
##emot
usa
##pass
vaster
##ften
favor
framtid
eskort
upplev
kunskap
ungdom
##strukt
##back
me
hander
##ension
##bok
ej
skydd
titta
##arn
satta
##verket
okt
hud
johan
manader
##ish
lyss
event
forsoka
barnen
##ova
vak
##ash
effekt
##batt
registr
##varr
roll
telefon
##rag
kunder
energi
##efolk
spelar
fi
##aster
kol
tillverk
inlagg
febr
fon
posit
inspir
mand
fungerar
anled
tyvarr
rom
##xx
##ab
amer
##atan
##kur
apr
liksom
dit
december
restaur
bakom
innehaller
##sidan
inst
internation
betala
jobbet
funktion
it
fix
oav
##ita
hamn
mars
##tes
stund
##unkten
hej
kamp
indiv
##namn
viss
bud
ansok
##plan
fyll
nedan
##eringen
ko
ifran
uppgifter
mys
septem
##skydd
##skolan
max
##ober
lank
september
abs
##los
kansl
dy
boken
oft
lara
fard
spannande
forhall
yr
ford
inf
skal
februari
traffa
visst
dok
beskriv
##unch
##kla
skad
198
##he
forbatt
hard
##osa
##ven
bedom
##ernas
##skin
november
filmer
undersok
pe
utom
gro
recept
##ry
inkl
##sst
sadan
kommunen
sand
tred
mots
kompl
hogre
##ca
##esb
ph
##ump
##kvall
##skan
my
vanlig
ander
mak
sten
##co
holl
paverk
plac
##efar
presenter
##duc
##jut
##grund
engel
lugn
##assage
dagens
##uell
##ten
##agar
teck
gall
chans
speciellt
kvallen
##gaende
##ota
dejtingsajt
lev
varde
jobba
##syk
back
omk
##ey
glom
avslut
sondag
##agare
##uck
##itar
od
lamp
sim
##vs
klimat
fastighet
sexiga
##arnas
steg
ungefar
knulla
##skatt
oktober
stam
folja
klubb
##star
klader
##uppgifter
hjalper
later
bety
23
##ide
##mat
terrang
##okrat
igang
##vik
lad
forh
2016
driv
alder
fragan
heter
forsoker
mott
sant
valjer
2015
stol
##mt
vatt
##ba
thai
oavsett
situ
##skl
##ure
##itut
##enskap
sport
##ive
##her
forutom
date
##vaxt
material
##inne
##ial
upptack
##ions
##lands
##ica
197
privat
bilden
totalt
##port
cl
fjar
##rift
port
ogon
##oren
lagg
##oo
dju
sil
fortsatta
service
april
drom
ap
forslag
eget
##tar
no
provin
##wa
ovriga
helgen
##ffe
tyckte
casino
span
resa
##satta
personal
fest
sek
##sg
kara
meddel
public
varldens
sker
##ink
omkring
glas
forstar
komment
##ge
bus
snygg
##sav
ram
##smark
blod
skon
kroppen
antalet
forvar
ljud
otroligt
goda
platt
##ib
##fri
oftast
##ystem
##alist
vanliga
kilometer
jav
##skr
##vart
##stol
##enn
prof
stallet
lop
bilen
slutet
jatte
##otek
avtal
2014
aker
##orl
arets
kombin
dare
transp
lans
##otten
lon
60
ass
klockan
nod
ivag
avs
jobbar
cm
universitet
spelare
karlek
lamna
terrangen
##jarn
new
##qu
##deles
miljoner
tak
link
##har
ww
##ugg
forfatt
kostnad
hjart
darmed
##tering
##dde
framst
##eringar
psyk
##staende
sur
arbetet
beror
defin
dejtingsidor
peri
godk
darefter
##book
pappa
filmen
tjanster
middag
smart
tredje
vilja
behandling
deltag
##urn
##rikt
mote
dejtingsajter
digit
##folj
arbeta
samband
wid
alldeles
##yndighet
pal
mod
##skaper
brost
##ko
utman
betyder
##uellt
wh
amerik
massor
kontakta
##samheten
##any
##mi
##ffa
fotboll
swed
behovs
##ukost
##edag
gron
##malt
##iden
effektiv
exempelvis
forsakring
naturligt
niva
dubb
lunch
##ate
anvandas
poang
##skade
dejt
##kta
##skog
kopte
##utveck
##part
stil
##skor
##emal
##sd
forandring
##isa
##skott
##allt
con
##skad
www
platser
rack
gammal
qu
beroende
##ub
thaim
##ith
##llen
punkten
##ild
##so
design
##ula
##isar
face
flick
##iff
ske
forutsatt
skrev
sprak
intressant
uppdrag
daremot
ed
##ferens
fys
aktiv
##sel
fla
mj
joh
kravs
##betal
frukt
namligen
erfarenhet
spring
hora
liknande
nan
196
##ativa
xxx
menar
##sing
##komst
##garden
fas
exp
kande
samhalle
hum
oppna
tio
favorit
tat
antligen
fan
forsvar
##but
thaimassage
sitta
provinsen
##icin
sadana
##jal
uppsala
##repp
kapit
##ern
##yss
vackra
tand
vol
bocker
berattar
##juta
vaxer
##ias
skr
klipp
invest
promen
pot
foretaget
##una
##ham
frukost
lund
helg
##jen
region
laget
historia
amator
kora
lata
trafik
ikvall
##50
prata
##ement
anmal
tankt
fal
##garder
absolut
##cke
##iel
##igen
forvant
uppf
hit
chr
luft
sommaren
bygga
ume
stu
trygg
##slaget
##ikation
vanster
kram
langa
ros
##skapet
kung
syf
##ient
##pres
##klader
##terna
huset
##forande
laser
brott
num
26
hittade
guld
viktig
cirka
toppen
sjukdom
##cka
engelska
28
staden
27
##iat
##po
lagger
chef
oro
interv
regel
##erande
centrala
krit
##itta
klicka
##ativt
valj
##hang
hyr
data
kuk
ensam
##ii
narmaste
fodd
##splan
plus
finnas
avl
ark
mjuk
prin
medlemmar
##ane
##ior
##iteten
hemsida
facebook
skicka
sjalvklart
##kn
##inge
ul
2013
analys
sod
process
kategor
semester
lander
personliga
dans
trak
bla
forek
##komm
videos
allvar
sova
##punkt
klara
sort
foljer
poj
##ike
misst
##rav
##san
##handling
ban
behova
##foretag
##ateg
##efolkat
##ila
yng
dorr
anv
dla
profess
##zny
present
vaxt
bod
##20
##stallning
fredag
##skola
##verka
dis
offent
##anych
##owanych
zalog
##oczny
widoczny
zalogowanych
##skt
##blad
bord
##af
vare
##yld
helsing
##ocka
##ktyg
##utbild
bit
##unnit
konkur
radd
server
##ovis
scen
fir
##ly
vantar
ras
social
foraldrar
bu
samtliga
ore
katt
vinter
byg
framgang
lager
fullt
nojd
fortsatter
uppe
hant
forsalj
##fa
sym
##ton
utred
forklar
teknik
oka
visade
borjat
valkommen
intresse
##sar
erik
forsv
##irl
tidigt
vas
sasom
##ach
enskil
##ktig
finland
##stor
europa
prova
ir
tavling
bat
##huset
tillrack
##ism
##iens
##za
dela
##raff
htt
varen
tradition
daligt
29
##bered
sidor
you
larare
litet
slag
hogt
utifran
restaurang
lagt
fj
stopp
##lare
dejtingsida
##ierna
kalla
tex
##garna
dator
motor
sodra
let
2012
##trad
uppmark
drag
##mant
kontroller
sydost
ont
##stans
fo
dokument
rut
##ssa
sist
##yp
trodde
elekt
tvatt
rec
adr
icke
skillnad
begrans
hart
uttryck
umea
##jor
##janst
arrang
svara
tit
##seende
af
ovrigt
fra
##ban
##teck
namnet
fotograf
##dar
krig
bakgrund
##bli
lordag
sadant
out
dels
underhall
##arbete
norra
nodvand
tus
##vax
omgivningarna
##sart
##vin
cykel
leg
##urs
##ations
beratta
2010
saval
##bes
exper
ret
drog
utmar
individ
villkor
vir
halsa
fores
##use
##filmer
leva
##ningsom
##bur
31
tradgard
ru
allra
tysk
##ligheten
tanke
hoga
insats
fang
##slan
##utr
engag
##etens
kallas
##pol
are
sociala
fro
kraver
ena
fart
##ds
bonus
##cc
samarbete
##vent
forel
skola
anna
solen
##orda
vers
stockholms
utveckla
exakt
##vall
band
dalig
grad
avsnitt
gast
mera
500
##pris
tjanst
tum
salj
##imin
forskning
80
##iviteter
kant
##hem
##xa
ital
##person
sats
vader
nyhet
##hav
varmt
##centr
inled
autom
skapar
bloggen
##orge
jack
hang
kontroll
mej
kott
nakna
mun
ident
got
##aljer
tas
himla
vitt
lind
2011
ekonomiska
##dering
##rummet
brand
reser
mojligheter
cam
##oppet
##kont
rull
viktiga
kandes
torsdag
sann
onskar
trevlig
mogna
seg
stalla
##ycken
70
diskuter
infl
rapporter
onsk
##kes
col
##vara
mannen
strack
berak
produc
hoger
hom
##nytt
extre
##ektive
##ifi
##lam
kart
respektive
cre
lokal
spelet
##delning
kille
hol
utrust
##ight
princi
char
senast
medicin
90
storlek
priser
sund
arg
kaffe
kata
soka
butik
leder
live
##samling
##fs
enbart
gallande
##inder
urspr
profil
##endet
typer
mad
repres
press
##still
erbjuda
forvalt
upple
resten
dotter
194
punkt
trevligt
ax
anslut
skratt
##bon
kak
stress
##dagen
bev
uppgift
anser
##ee
frit
skrivit
mart
mel
bur
nagonsin
uppskatt
##bra
girl
##laggning
##ting
sjo
nordvast
##oret
##ns
ager
skit
##hi
trana
forstas
tillhor
anledning
##kvam
verksamheten
##jon
dryg
plots
lattare
##schen
ah
lana
idrott
salt
sju
sot
lokala
##gj
affar
regeringen
strateg
natten
syft
fly
not
agg
fag
opt
snar
bekvam
anpass
kansla
atgarder
oppet
##ologi
sangen
knappt
##middag
lyckas
ursprung
rid
spelade
gymnas
okar
lagre
##okt
193
##gora
##erades
satter
saknar
fantastiskt
vuxna
vacker
##oms
porrfilm
omraden
framtiden
rent
ersatt
ses
black
drabb
stang
##atet
nr
tw
sjun
ladd
##hal
uppdat
45
##vist
pan
vanta
njuta
sjukt
omrade
arm
##nos
regler
##stav
yngre
reda
fantastisk
##entet
varme
oppen
rapport
gal
tis
##onser
datum
web
osv
testa
borta
vari
integr
hosten
chat
resultatet
byta
gay
samtal
eta
jak
neg
##enting
##skning
##ius
dagarna
##ningsvis
pension
tol
handla
inb
modern
medvet
leverant
onsdag
imp
italien
het
utmarkt
##larna
forekom
karakt
os
orebro
bry
lock
##hamn
bolag
##bolag
sign
team
laga
lakem
cook
ingenting
##lo
serien
##isen
##hov
dist
undrar
blom
centrum
ordforande
sasong
##visning
nordost
inred
vattnet
saklart
standard
vastra
marknaden
anvandning
sub
givet
sluta
##gren
starka
minn
iaf
boll
##ura
##edd
samhallet
avsl
bilar
##klam
##cy
yt
##bilder
##fritt
sat
##igg
spa
kostnader
lagenhet
vita
verktyg
boende
je
##mon
tillrackligt
sno
lyssna
kunnat
foto
tankar
brev
##pet
artikel
##produkt
peter
##varden
##mann
spara
##urer
nack
##ssystem
plotsligt
drar
ordent
##itter
rabatt
##ios
isl
##bundet
priset
##givare
mid
oper
naring
adress
tillstand
##fort
##ogg
##ustri
glob
damer
special
lack
skor
valkom
mangd
period
191
sydvast
fantastiska
##klimat
mail
kompetens
##ors
##inar
##estall
halso
2009
##len
miljon
spen
35
ligga
hamt
andel
europe
framat
rev
valt
antingen
##orlunda
nummer
shopp
##verkan
jur
##skri
##ya
##ungen
vinna
195
narmare
##ben
nyheter
sms
##styrelsen
ihag
##ho
##slapp
mesta
ill
enor
aktiviteter
##uten
##ansk
timme
medarbet
stann
paket
slipp
##gran
ansokan
##istik
strax
konto
naturligtvis
##iella
javla
##lande
##rin
##medel
##ansen
harligt
##slagen
##ola
##ffan
nagonting
site
##ordning
utbud
vall
forening
utnytt
##lor
##gas
minska
taget
grader
##serv
horn
forlor
projektet
vagar
##onom
stre
prote
kommande
enkl
##we
##cep
##spektiv
##ode
##ienter
##ager
makt
kurs
visste
bygger
vuxen
uppfatt
jarn
formod
rym
aut
rolig
cit
tapp
kla
##usive
##ills
matchen
kyl
betyg
klad
admin
vore
erotisk
huvudet
starkt
malet
##ids
jes
##utveckling
##fiken
flytta
##asa
john
passa
##sled
nyck
myndighet
##program
strom
##iot
##edagog
kre
chok
hd
##ve
amb
##iti
blomm
##sakt
etc
tillamp
utgor
vars
forbi
##let
hell
energ
##kat
organisation
programmet
##sex
stick
datorn
##emokrat
sasongen
tving
varier
okej
riksdag
##arta
##uts
ladda
finansiella
forhopp
gard
sum
with
dvs
betydligt
regionen
satte
student
plast
tonar
kast
will
christ
delta
fonster
##ec
harlig
farger
orsak
##dern
ug
carl
yrkes
mask
##stalla
regl
hamta
fitta
lesb
info
triv
bidrag
viktigaste
##lang
redovis
2008
lake
##ktor
smal
vetenskap
##vens
anders
ekonomi
##ube
##foren
dubbel
##bum
jordbruk
##bas
kommunikation
numera
##lov
tanken
sty
marknadsfor
papper
##stone
diskuss
lyckades
automat
korde
byggnad
##inal
##ckar
##adress
##system
##kant
##ifier
tube
antag
snygga
intervju
norge
maten
##mel
tydligt
transport
normalt
gravid
##vika
monster
eftermiddag
vinst
forvan
befolk
##bell
ort
##istan
kostar
##farg
underbart
jamfort
can
smar
kors
##skon
vind
ansikt
up
reklam
modell
entre
##varl
bolaget
avgor
ges
bestalla
mol
frisk
svarta
mandag
rok
polisen
pratar
fixa
##bert
city
##mm
maria
##atch
##sor
anstallda
veg
landst
djup
skiv
##zz
media
tittar
##slos
##ele
skil
##bank
riktig
maskin
##nummer
accep
nil
goog
forhallande
definit
dol
brist
internationella
http
staller
promenad
rygg
##iljo
relig
300
##sr
lage
dusch
##kade
underklader
##spekt
gun
##igh
strand
herr
valde
killar
##les
roliga
etabl
alko
##rip
goras
musk
koper
##lund
##stod
vinn
##iment
sexlek
hojd
cookies
##umenter
morgonen
36
detaljer
gors
atmin
angel
##terar
##rande
##fard
##kopp
underbara
kallt
forr
institut
forbered
visas
bjud
serie
2000
atta
##ologiska
##ningsm
forutsattningar
##ama
drygt
dyg
utover
##perad
fru
porno
##kast
bom
personuppgifter
bilderna
gif
lakare
fored
##ydda
##ligheter
utgang
##amen
annorlunda
##umark
sannol
hyres
vand
kopt
##dater
##sratt
slutade
dyr
##sorg
##ise
litt
##brott
syfte
ialla
skane
langs
##fton
slog
##hel
overt
##ular
buss
ep
gruppen
formodligen
bestamm
##assan
##bi
begar
intresserad
op
studie
inlag
hogst
utrym
ordning
singlar
##roll
##kraft
hallbar
kuperad
##angen
slar
lust
fett
lamnar
rosa
kyrk
noj
grym
politik
##marna
##talet
192
##ansvar
atminstone
fordon
##oga
um
budget
##ilt
populara
helsingborg
##pack
noter
profession
strukt
##hy
journ
##ppen
riktning
anvant
01
alkohol
varden
kem
##spol
##chef
stalle
boka
dest
naken
190
patient
andring
##verksamhet
givetvis
kompis
07
rummet
skott
konstigt
kyrkan
##ase
andre
mg
orkar
##urser
##arens
08
mansk
##leken
forsaljning
leda
choklad
paverkar
bibli
balans
nuvarande
muse
lant
mogen
lista
iallafall
betydelse
##anner
konkurr
studier
##shus
detalj
personlig
formaga
##vatt
skul
tala
##ands
fing
tydligen
gjord
sprang
hantera
siff
lugnt
princip
hort
roda
invand
stjarn
foreningen
syster
##skomm
problemet
##ake
varumark
talar
industri
underbar
##enden
klarar
##natt
sent
ungdomar
##pla
mitten
##ood
rem
flash
kanda
stabil
spra
pengarna
starta
salja
hittat
grav
framt
minns
##kommer
politiska
ersattning
partner
inklusive
##lys
ordentligt
amerikanska
garanter
kin
sjon
##splatsen
##klass
mord
yout
sorter
forbattra
##ction
##inst
regering
utvecklas
sallan
##bran
##jas
tisdag
okad
supp
2007
##tr
aktie
demokrat
saljer
soffan
inkop
huvudsakligen
##press
forum
forsokte
forbund
enkla
singel
brod
hyp
##ira
##ige
funkar
manniska
olyck
magn
tunn
kallade
skam
##ics
allmanna
milf
asikt
gratt
##gt
ref
rock
forelas
uppratt
##stam
sav
glesb
sexleksaker
modeller
torr
don
##handa
ostra
pra
stanna
uppen
mojligheten
##own
tun
styrelsen
sof
##derade
##skont
gett
##ctor
inklu
##istiska
racker
##behor
danmark
##mot
britt
##ment
##pren
mats
ack
##ident
##pat
##gruppen
amnen
##ower
vat
svang
ik
##fragan
tung
##anen
##hort
##entyr
##ugga
anses
##stift
natverk
utvecklingen
varken
valet
kommuner
##skal
##rapp
marken
##igheten
brun
finner
##prov
##ual
funn
nas
orig
gladje
gift
alex
##halla
magen
kallar
##vagen
vaknade
oj
sammanhang
##fan
diag
rattigheter
skyld
utform
##ivare
fyller
##atar
##erings
comm
produktion
##fest
skid
##emat
barnet
losningar
avgift
enhet
konsek
##bu
tyskland
##ific
vackert
losa
##blick
##oss
hotellet
09
kommentar
dack
hann
bjorn
leverans
mysigt
##klubb
lill
popular
sweden
tyst
air
##amin
undant
situation
handling
fredrik
tillvaxt
##ancer
begrepp
platsen
bestamt
##gl
snarare
springa
##god
##kret
##sprogram
##agaren
##hog
mik
offic
##ollar
tekniska
kg
rim
##delar
stig
relativt
motstand
32
ranta
faktum
kamer
lond
stads
vattendrag
total
fung
omedel
skogen
laste
lekt
funktioner
##klara
mork
hoj
2006
tyg
play
##server
bete
resan
inspiration
fukt
utland
##ox
bilj
##svall
inrikt
utsikt
medarbetare
##xor
grill
##deras
mota
##sliv
socker
##maskin
era
fungera
utvar
happ
kill
##phone
mojliga
japan
##barn
silver
##riar
upplevelse
##isten
div
bjuder
glesbefolkat
##llop
sock
takt
paverka
coll
por
sajt
ryss
##bergs
##rop
fardig
##etten
big
letar
nere
framforallt
##istrikt
##elserna
skuld
##akning
frankr
sattet
33
##sked
langd
innov
fack
this
besoka
stycken
aktuella
rekommenderar
stal
lars
aktivitet
gavle
billig
oer
fig
jobbigt
risken
synd
betalar
##ford
hushall
slags
bir
youtube
##ose
personen
kampan
##grad
net
symbol
botten
losning
nav
ip
##gangen
##ickar
behovde
##roende
falt
illa
##mala
##jus
redo
eleverna
##eten
##djur
brud
flickor
##vo
kommentarer
sikt
skatte
##adem
sara
systemet
ideer
##enhet
ringa
##ile
desig
mom
relation
metod
skada
enklare
camp
chansen
undan
kanslor
nyligen
standigt
kontor
fritid
martin
jonkoping
vr
objekt
prim
aventyr
inkomst
##laggande
##du
hinner
london
##edes
intens
andersson
overra
appar
##erier
exkl
##elsens
lyx
harliga
besvar
pedagog
undvika
kuh
##platsen
okat
vasteras
##derna
klan
pack
##skraft
##fred
specif
sallskap
brollop
##bler
optim
definitivt
videor
mic
##otta
central
##dex
master
lim
##hj
koket
##park
##eller
rep
konstnar
jakt
box
hundar
##skrivning
matcher
##oker
##th
your
bevis
pet
smarta
lanet
respekt
##ledare
hunnit
##sjuk
##stalld
##iam
wa
ordet
##huvud
minim
##10
##draget
moderna
lyckats
##aterial
02
forsikt
##pper
sank
pratade
forandra
mjolk
##isch
underl
rakt
vila
lopp
hittills
debatt
grupper
ye
hjarn
ran
05
rund
##edom
##idae
##vers
##ilje
tvungen
vd
one
landsting
189
wik
##derat
chatt
appl
urval
omoj
kanslan
##erats
startade
fyr
vadret
perspektiv
banan
politiker
erotiska
straff
stats
prem
overv
radio
fat
riktiga
grundlaggande
##delningen
##ikat
golv
cr
##sprak
fallet
billigt
trakigt
##skoter
sammanfatt
frankrike
golf
vardags
55
##oda
##betalning
##utbildning
motsvarande
##uff
ott
prior
berattade
##smed
##kam
konferens
##skat
perfekta
mult
##ire
skilj
personalen
##sil
tillfalle
##itekt
##assigt
hed
##vatten
varv
studenter
ingr
##till
ledare
forhoppningsvis
omfattande
listan
syss
##ningst
allmant
real
utomhus
plock
humor
forfattare
hyll
delst
fylla
lys
##rades
mast
##pas
##varo
##iven
ryska
##sats
pul
04
jorden
##adespel
ten
tider
befinner
visat
##takter
vist
matte
##aket
lid
##vakt
flex
utsatt
block
##ette
vanligtvis
##fta
skull
kompletter
##oster
##gav
varma
andras
dild
##lex
kapital
##set
##forsakring
##kord
06
hansyn
mov
##ap
tjock
tyska
album
##falt
##sut
##fisk
##ycke
lakemedel
rot
extremt
anvandare
##gatan
stranden
gas
##iosa
gill
linkoping
75
34
potent
separ
kollade
tidningen
samre
njut
knullar
uppdater
avsug
lamnade
varav
fodels
400
deb
ron
funderar
glada
syftet
webbplatsen
enskilda
##orerna
haret
daliga
renover
hamnar
##stallningar
fika
drift
##mos
tecken
austr
overens
##ytande
bidra
alskade
blommor
parti
seger
slutar
##lak
pus
narvarande
##yggen
national
utbr
metoder
inl
pabor
stral
snabbare
mich
grona
##strack
medier
mening
konser
##jol
patienter
cert
jobbat
nationella
pga
tillgangliga
lagom
der
pam
03
folket
tatb
gemensamma
##omradet
karaktar
##ene
vintern
korrekt
##eratur
fragade
daniel
fork
ifall
betrakt
frakt
major
handa
kontrollera
##skole
##arder
version
sade
##fyll
cont
##mus
##off
##ynt
##stret
heta
##sport
google
sens
##hets
dog
bidrar
austral
tittade
##lades
##ppa
teater
overg
handel
##ange
webbplatser
konsekvens
langtar
pool
est
initi
##lle
sugen
##oteket
vel
slott
rov
##spar
##shand
vm
##kall
snabba
jesus
naturen
domstol
avseende
privata
##hund
utlan
dricka
##df
##janster
snyggt
bestamde
##uer
moter
kanada
tatbefolkat
sky
##shop
tillhanda
foraldr
hak
fet
##maktig
bloggar
langst
erfarenheter
##vaxter
##issa
kina
##ua
2005
##ratten
svenskt
##ivan
driver
fria
##laget
forandringar
forhand
dorren
##fon
billiga
erotik
erbjudanden
##cer
positivt
eventuella
david
dor
normal
garant
##fot
besokare
##losa
##organis
tydlig
##sklimat
##ih
fjaril
arbetsm
kran
lju
rakna
skrift
##uch
##fragor
##valt
foljd
anges
atit
korta
bror
bekraft
varan
revis
akta
##ockey
kunskaper
vanda
forekommer
leta
##andes
skadespel
tjansten
mangder
tuff
oerhort
##lekt
##anten
hande
pil
prest
fakta
##uft
##imul
##kans
kontin
karn
syns
kombination
europeiska
svag
##angd
pek
##ologisk
lapp
sonder
mojlig
puss
lankar
##ros
inc
stolt
##gande
ogonen
potatis
svarar
premi
levande
elektron
dim
##ensioner
nagonstans
tolk
##ome
ringde
##tim
johansson
unika
klubben
##ekan
bransch
omsorg
foret
samling
##ori
avanc
tillganglig
##ningsomrade
##fora
forran
run
##opa
former
hjarta
jud
38
logga
##ep
##ela
uppfy
##peratur
orsa
huden
intro
39
##iland
mormor
##irekt
nodvandigt
traffar
resurser
##intress
beskriver
organisationer
halften
forn
##inen
vik
avstand
##ningens
flashback
york
skjut
bre
##lok
##anvand
hoppa
##klag
##qvist
annons
traffade
hjartat
##kost
bytt
ledande
##skrifter
uppleva
nyckel
badrum
ledam
skaffa
belopp
cer
##out
ent
statistik
godis
grann
intressanta
kommenter
kollektiv
##brit
fullstand
nytta
klassiska
top
kursen
tok
sjukhus
bodde
##gangar
avgifter
smor
mac
saknas
lagenheten
##ugan
raknas
oh
stallen
##aner
##arbetet
uts
texten
egenskaper
rej
lycka
deltagare
kust
afr
##raning
varsta
nio
inlagget
entrepren
##orp
bag
skickas
hun
tall
osaker
##dens
avsugning
motiver
##varlden
##ledning
##kry
##lost
porrfilmer
nerv
postadress
anlagg
show
bb
franska
uppfolj
##burg
##istrat
188
sags
utav
overallt
grat
grov
##strument
happy
sor
grunden
frasch
##ensen
drick
sjukvard
bio
##ema
blanda
sarskilda
skickar
slappa
##viken
artiklar
befint
##sattningen
bedomning
valkomna
okade
resor
struktur
maxim
##duk
beskrivning
beb
mc
65
sociald
sked
funnits
kans
##polit
##umm
##cel
ratta
kil
fantas
##30
##brik
positiv
##fulla
uttal
digitala
positiva
tusen
##pos
aning
alt
planer
forsamling
butiker
sadar
distrikt
klin
##ival
vardering
flykt
onod
civ
##ones
##terade
##sper
37
gemensamt
##agning
motsvar
dj
anledningen
overtyg
arkitekt
betalnings
fuck
svamp
attrakt
sover
##annen
storbrit
##teras
malt
##ionerna
plocka
mala
fordelar
betalning
sval
##start
tillagg
motiv
##mask
mamm
tillfallen
bredvid
storbritann
hunden
##uro
1000
##visa
villa
##namnden
ange
sakra
insatser
desto
anmalan
##lim
prioriter
vagg
hundra
misstank
framtida
termin
effektivt
que
artikeln
utrustning
blad
##beroende
undersokning
relev
undantag
genomfora
fortsatte
kir
##esh
##deringar
##hallen
##yta
##jande
fritt
minskar
tacka
150
##fel
pagar
##forsalj
represent
agare
##sjo
2004
syfta
turk
instrukt
##sle
individer
##vetenskap
tax
bussen
minsta
##olf
produkten
grattis
micro
langivare
expl
##rare
ratten
48
##icy
lul
pin
iphone
passade
thom
##eriet
kommunens
asiat
svt
julkla
hanga
##sven
stack
##pac
##ley
##och
##byggnad
representer
ofor
lukt
dollar
tavlingen
langsikt
pask
##flikt
thailand
##pon
##hag
##aterade
startar
tycka
mobilen
handels
perioden
england
##kommande
flyttade
dum
varor
mas
sel
digital
vaxa
vent
##uf
hanger
##sbe
##tog
allting
hov
fastighets
noll
##edda
paul
even
prog
##bilar
kyck
metall
skydda
mont
##delen
sundsvall
##ah
magnus
domin
glass
somn
forsam
aukt
kurser
offentlig
prag
##foring
pasta
work
##vel
karriar
forman
konsument
##elef
##okoll
prot
##ows
##punkter
inre
naturliga
verkligheten
##fallet
##ums
##entals
##erligen
oppnar
tabell
latar
socialt
alltfor
ryssland
##resa
ledig
nik
aktivt
handen
ig
spelat
##rit
##lagen
mikro
bem
##sprocess
saken
anger
##platser
##yk
speg
##fullt
forklara
kunden
finansiering
##sund
##stiden
rekry
make
##liv
garden
##urt
##varor
##schef
sus
golvet
##alys
##rom
fragar
damm
##haller
slipper
varre
fris
##ict
pers
familje
support
uppmarksam
forestall
##fly
piz
hastar
restauranger
parkering
##tekn
grej
isra
##institut
##bit
ledar
##kra
paris
##ekonom
##givning
marknadsforing
duktig
##olja
jamn
utfora
assist
bestammer
dos
hehe
dildo
elev
fjarde
##skost
##tav
kalmar
vaga
radda
hjul
motet
##irt
inner
stefan
plat
korr
##arm
nom
skra
utok
aktiver
konstrukt
dn
##amal
eventuellt
fargen
skyl
rena
utbildningen
halm
swedish
motion
upplever
marie
omfattar
##orld
rora
storbritannien
##ere
##niva
moten
framsta
##zonen
##histor
aktiva
skador
cup
stimul
aterigen
socialdemokrat
dekor
##ografi
##stat
horde
spanien
##indra
##nades
anslutning
gat
##mande
bett
laten
antar
##ustrin
emma
offentliga
arbetsmark
##oth
snall
avgorande
wind
##yndigheter
bestamma
##sprodukt
organ
mall
##itionen
##grupper
##sal
hotel
##sforen
forand
##stallningen
##ffekt
arbetsplats
forskott
aktier
butiken
kallad
dikt
fundera
hack
##ikationer
jonas
satsa
beslutet
sekt
##agram
##nare
jar
##jansten
sprid
##besok
skand
naturlig
alsk
girls
samla
##sas
shopping
stro
##box
##botten
vander
##juter
##ingarna
felakt
##bal
faller
ledning
##skam
staten
lamnat
##40
stift
##bladet
uppna
##ini
sop
center
rant
sota
registrera
blas
##gick
troll
##11
##ongen
hemm
sammant
situationen
hinna
escorts
##kande
diskutera
lasare
arbetat
love
ingred
##ino
42
stammer
behandlas
karlstad
kines
##spa
mix
tillfallet
noggran
has
##agande
fortroende
automatiskt
lart
##funkt
##yer
##varde
nilsson
tillbehor
##efolkad
ork
avser
##smal
186
##kul
##bat
gaster
tant
balkon
nyss
187
president
exklus
##fir
vapen
atgard
##varm
kompisar
##partiet
unik
sd
forskare
##risk
doft
engagemang
##matt
##stra
hyra
bostader
helhet
sahar
that
amne
ingrediens
bedriv
##ale
kameran
miljarder
##ivande
goteborgs
check
delvis
##slyck
##annonser
##iget
gom
sortiment
bjod
kristna
von
##partem
##rarna
kvinnan
norrkoping
fn
brom
dram
rit
efterat
nyfiken
anim
handelser
sarskild
hi
saledes
##sman
nojda
hemmet
hypotek
mos
##ris
troligen
##osof
informationen
sydostra
mex
ansvarig
grans
boras
arten
##ullar
##aterna
ald
##ugor
##tryck
angest
reakt
sannolikt
sorg
wal
veter
behor
pojk
46
totala
konflikt
lulea
dop
##ladd
skolor
utrymme
dryck
##briken
jurid
##agra
vinner
snack
lokaler
brasil
skiljer
position
eld
planen
##sbol
##lagt
ryggen
cro
49
koncentr
tillsatt
hypotekslan
skillnaden
obefolkad
ky
tomt
champ
ker
hag
trygghet
gi
##ou
##resultat
enlighet
##byte
vaxjo
##upplev
misslyck
ekonomisk
loss
tranar
kris
vanligen
exist
##bla
noga
##vaxtart
sovrum
##omrade
riktlin
set
forstark
relationer
fasta
medborg
gn
gusta
rorelse
kontrakt
obe
gul
kommunal
kristen
ansvarar
servic
##vi
jamt
resul
onskemal
reserv
sexig
driva
finna
omedelbart
##ikte
##maktige
##spart
akadem
presentation
tranings
angaende
##fria
intill
##ogon
##atorer
administrat
island
##aning
##ordningen
slang
lagstift
registrering
##onym
forsokt
##domen
kik
##got
arbetsgiv
##anser
framover
rott
utbildnings
historien
##ward
##illkor
lamnas
##hjal
grejer
##taget
omstand
cafe
fira
bock
forre
kortare
henrik
formed
##cia
traffas
foregaende
uppmarksamhet
rese
forhallanden
##iger
annonser
tonaring
##sattningar
snitt
luften
##verse
##minister
upptacka
styrka
tam
##kval
observer
handlade
##smak
slit
##stud
posted
faststall
thomas
svarare
landets
##ssk
halva
pir
sekunder
myndigheter
##kal
initiativ
99
kasin
pann
si
intresserade
rob
##komma
from
##ese
##tjanst
romant
##boken
toal
cykl
vanligaste
##ortt
line
foll
amnet
original
##ners
##bror
gull
forpack
inser
##icera
trop
##sommar
trapp
44
##nor
evenemang
rejalt
##unk
guide
##asen
lagar
surf
count
##agan
arv
svenskar
fen
##000
axel
ris
2003
linje
pigg
forny
anord
oxa
##rid
yta
narmast
##speri
hin
##imm
litteratur
bostadsratt
hemsidan
##ubl
##iteter
##pi
inbjud
##rost
world
situationer
skoj
spin
inomhus
brett
framgar
mobilt
underlag
##sspel
lax
wil
##savgift
wall
asikter
##por
omojligt
##bring
ox
##umt
belys
inredning
journalist
bott
##lekar
lou
##way
avlon
##urg
skogs
cancer
inform
##orget
lyssnar
skram
utomlands
kamera
gemensam
antagligen
enheter
traningen
delstaten
pyss
##kanna
##garen
innehallet
##ogen
##ima
##skvall
kalen
jer
gifta
##ico
sjalvstand
ii
##jobb
##ney
leverantorer
status
manniskan
##radd
minne
gren
##ttar
##mode
trivs
flicka
instagram
fjall
allmanhet
rengor
##kopings
eva
skapat
dia
##amer
skona
ekonomiskt
dyker
##tiden
##bolaget
halmstad
power
guds
erbjudande
il
visserligen
##ringar
koncept
kyrka
##forbundet
##klad
##ision
##eb
##ero
##mail
jattebra
##ij
uppre
familjer
barns
##ivalen
redig
trevliga
muslim
fattar
##undersok
knappast
medverk
kritik
benen
##12
dialog
##flytt
skade
##rass
bot
hellre
arbetst
##sbrev
anvande
##iell
sec
##fte
##bad
presentera
ovanligt
arab
##inarie
kass
mika
leka
##que
cha
tvart
berom
referens
planerar
tema
overvag
##eala
kandid
planera
obs
utseende
##ffar
tolv
raka
samverkan
##cens
##sken
behandlingen
##mast
reflekt
fagel
nad
klimatzonen
darifran
frihet
emil
olja
inslag
kollar
behalla
slutligen
##con
doda
delas
jobbade
ting
svaret
bif
##utrust
##fart
overen
prost
mkt
byn
klatt
klassen
markt
fond
storst
##lik
basen
dukt
forstaelse
##oma
##enten
foljde
more
lordagen
##landa
lac
##ega
kos
##ingsdag
bandet
olof
ventil
##cus
stannar
##ze
modellen
hamnade
##ialis
exempl
lut
uppstar
troligt
stader
planering
avfall
kraftigt
gram
banken
pepp
##skapen
forlust
poker
instrument
leksaker
gyn
frys
##banan
ledde
linn
teen
kanal
ever
##service
##kontakt
tip
motesplatsen
flertal
ler
tidig
##isera
##hast
billigare
stracker
eskorter
jamfora
##ani
##platt
alternativt
stallning
forsvinner
utmaningar
fora
annon
##spolit
tycks
etik
##ares
neder
##mannen
##spunkt
mur
matemat
##ae
gustav
##formaga
##fam
insekt
fjarilsart
jordbruksmark
intell
lost
tradgarden
traditionella
##ionens
manskliga
upplag
repar
mata
##vide
##jejer
speciella
##rats
##ikal
##beskrivning
fodelsedag
kyckling
##ble
stannade
##liggande
tjana
uppenbar
robert
##fod
mysig
kus
eftermiddagen
##slivet
##omb
oberoende
43
syr
styrelse
war
avloningsdag
elin
forlang
verksamheter
##formed
##itioner
blogga
svarade
##jet
##hr
ansiktet
israel
lott
##do
summa
krimin
##ifiera
iv
fer
paus
glomt
spark
kry
##vark
47
vardagen
##losning
erbjuds
iran
koppla
emellan
betalas
bevilj
tids
##lit
irri
vaxter
kassa
##dal
forlag
still
##partementet
skara
trend
isol
##flykt
grymt
##oten
utbred
hinder
##inska
texter
akten
##iellt
##nast
savann
suc
formiddag
##umer
##ugo
##rikes
processen
tusentals
investering
##ms
blank
##behandling
mjol
cell
flyttar
diam
trang
amerikansk
utstrack
jen
premiar
appen
ica
apple
##skort
speciell
rekord
fysiska
##struktur
larsson
klimatet
##sbygg
hantverk
nick
mell
spelas
ytan
oblig
cool
reag
index
##kod
uppman
west
rekommendera
stav
##iost
2002
missa
##fi
ordinarie
##kro
faktorer
moln
smid
lediga
inspel
sug
verklighet
slippa
order
forest
foremal
turn
##play
bibliotek
inkom
##vinge
##sfull
gymnasie
ken
egendom
##lass
ansl
high
##onn
krydd
##bryt
marker
figur
bestallning
riksdagen
##awa
runda
forsknings
##stru
##iller
gront
pap
##vagn
lyfta
lane
station
##aks
alv
victor
##80
publik
verkade
umgas
##terad
australien
##sna
praktiskt
rida
##uu
civil
upphov
tob
##uth
2001
##pit
foton
stallde
sekund
karin
deltog
plugga
##oper
utgar
180
blond
mr
insag
##rig
bekant
slutsats
hamtade
##ripande
windows
##drade
lyft
belon
lagenheter
tillag
forslaget
##valda
besoker
##log
##uel
aktuell
##oci
eleg
tillsyn
apotek
skulder
##drom
##pot
eskil
livsmedel
##60
##orse
uppm
41
format
transporter
smatt
##bana
##pacitet
tavla
hors
diverse
##aker
veckans
jarnvag
avsloj
viagra
##oppa
##pten
lask
gjordes
##projekt
phil
##jord
flod
bjuda
intraff
spets
dagligen
kod
##sbyg
##unta
stoppa
https
generellt
ottawa
ell
forsak
##gubb
flexi
omgivande
##alitet
rekommenderas
##astro
varmen
##inav
##skill
forskolan
aktorer
##varme
down
##asy
250
borg
##sby
cla
temperatur
typen
ec
karleken
denne
helsingfors
##ence
##ampa
mobler
ikea
diskussion
snur
pod
##fragas
##oja
##sfri
##beratt
avrin
##udd
##nads
kontakter
bubb
torn
uc
##somradet
lamplig
hockey
##avtal
##hals
islam
##skurs
kapitel
tvavinge
tvavingeart
house
##holl
blek
ull
kompon
##sgatan
bakt
##skrav
linda
attack
meddelande
##istisk
##orj
andamal
klassisk
expert
##rog
musiken
##isering
poly
spins
filosof
mu
femin
utlaning
aller
vandring
harda
imorse
gransen
administr
somnade
##passa
komplett
##cken
gustaf
intakter
arsm
motsvarar
traffat
sutt
undervis
##talje
us
sjukdomar
##lista
velat
##ops
synner
ledsen
avst
forbjud
biljetter
utnyttja
##gin
karlsson
##osex
##orten
blick
swing
undervisning
beteende
##emon
##erv
tyng
##ismen
tillfor
organisationen
regelbundet
hammar
elit
kontinuer
##umin
##ks
bered
600
ringer
skoter
starkare
kreativ
hasten
cal
styra
strategi
fokusera
call
64
william
kopen
motte
micha
glomma
59
eric
tidning
##angel
lesbisk
nyar
redakt
##anken
halls
lille
##ekul
sun
handlingar
personligt
##fit
byggnader
andreas
baserat
morse
minut
historiska
##hen
##meddel
green
latta
fynd
losen
faktur
ment
##porr
get
dygn
besked
medfor
##cam
anstr
ball
1990
##uga
kontra
##alisering
undersoka
##mas
eme
lakemed
stadens
vaggen
fredags
til
demon
tang
2019
ago
syssel
sjukskoter
samhalls
tranare
suger
pc
effekter
fott
cum
utstrackning
affarer
nordiska
anvandar
gjorts
andas
djupt
bredden
andelen
afton
lokalt
protokoll
1800
##ew
professor
munnen
tvar
varierar
tunga
farre
##ansvart
##rika
friv
overenskomm
foddes
aterf
besl
favoriter
##forbund
goran
intressen
illustr
##hoj
foretags
##ingo
para
##skop
malin
##opro
juster
genast
pren
svett
uppfor
galla
avses
avtalet
deltar
ovant
##omraden
lena
medveten
sakerstalla
##sprodukter
final
##dra
##vete
skonhet
beskriva
liter
behandlar
##skrift
forresten
garder
roligare
bul
leverantor
52
syftar
recensioner
mojligen
abo
mp
likad
kategorier
bengt
telefonnummer
##yndigheten
##byg
##ationerna
cd
##otet
verkliga
foretagets
omvand
vasent
stada
minnes
kannas
brudar
bang
riktlinjer
avslapp
##spl
internationell
pdf
tatt
springer
##isterna
kaka
foljt
gubb
vibr
fara
ti
larande
movies
mobiltelef
behovet
uppat
skarm
riks
raknar
utslapp
temat
##utrym
##bby
##aldern
isa
hakan
ask
miner
utga
datorer
##varna
##familj
praktiska
aspekt
dramat
rank
##rel
cor
##tet
aga
utredning
##itarr
emeller
anlaggning
##ents
##forvalt
enormt
dygnet
volym
##omp
kategori
emellertid
tuttar
##uppgift
ud
midsommar
##agna
store
kopenhamn
trans
fasc
suttit
koka
##che
kong
kvinnliga
grand
120
plugg
##formen
rest
upplevelser
##skans
ovre
atervand
inkluderar
sanna
lisa
smaning
coach
jac
##hamt
##bs
time
##peri
forvand
ansikte
charl
cas
konsumenter
liber
konstater
handelse
tavlingar
sinn
##information
##fast
innebara
##innande
jamforelse
spraket
twitter
bordet
##holmen
prins
saaa
begrav
strid
befintliga
##js
##skolor
praktik
anpassa
johann
lone
##15
sakerhets
hanna
farmor
kristian
##lever
##ago
##ath
pussy
bestammelser
##skottet
##landet
##bordet
partiet
parad
melod
##itor
akut
hatar
uppmunt
somna
farligt
nomin
arbetsgivare
arkiv
snalla
##arch
lanken
express
uppfattning
framgangs
avrinningsom
##skriget
planerat
reduc
gb
##70
ugnen
##ml
##elle
fordju
trosor
ratts
arenden
mam
legat
##yo
fastigheten
##sprojekt
vardet
body
bilaga
arbetslos
fader
smaningom
lycklig
baten
riv
shemal
##tea
milit
leverera
jos
##insats
##ccin
taket
aterstall
rekommend
praktiken
##wood
samlar
serios
##core
negativa
anhor
stycket
befolkningen
have
##rut
imm
##ologiskt
##sall
likt
duktiga
revolut
paga
levereras
##iserar
##atera
finska
stott
##itim
skett
affars
##bocker
konsult
ke
prenumer
185
holm
besikt
tvartom
##ked
gillade
pall
##syn
bakat
##ffs
forfattaren
hjalpte
hat
forklarar
tillfred
foreslar
himmel
##produkter
##spass
kreditkort
##terat
tillbring
alli
##mak
##stjarn
verka
jamstalld
##somrade
##jarna
##sland
osc
##sniva
95
##ickor
roman
overlag
garanti
##ac
materialet
specifika
frivill
inriktning
mini
##asse
##iox
kollegor
##agarna
placering
formul
eskilst
siffror
smidigt
##skande
varenda
danska
tydliga
fastigheter
kika
ps
85
internationellt
##ribut
bryta
##ringen
##ye
halsen
lordags
eventuell
##elt
grek
##slo
tabl
framme
3d
##ugh
oppnade
kaff
fysisk
resultaten
forandras
##pre
naringsliv
lade
tilldel
persson
angiv
ven
sakta
##ymp
harom
##gu
foredrar
mikael
##ojligheter
moss
diagnos
intryck
drivs
privatperson
personligen
bekym
##roller
##kak
penis
##vd
morka
1900
##issar
argument
skot
##svagen
read
1999
brittiska
smink
tan
##domar
fiske
losenord
hundrat
skri
##18
uppdraget
togs
good
forf
fitt
landsbyg
johanna
fragorna
armen
##ensis
nyhetsbrev
gotland
sorts
vantade
behandla
sexuella
myr
days
lovar
vo
foretagen
bryr
eriksson
fartyg
ert
blandning
produ
ljuset
##roid
landskap
vett
ht
##rov
byggdes
##vikt
brut
##oph
gatan
utvecklar
gla
snon
##ullen
baby
foder
##vok
creek
utmaning
pum
formen
stek
56
word
sondagen
##fla
eskilstuna
lur
hette
drabbas
##slin
kontant
kniv
vunnit
hett
lopande
element
riskerar
sed
kommunala
##ison
trav
gronsaker
##ily
##jam
lita
##wn
##tank
kvitt
slapper
rapporten
minnen
##anmark
hastighet
knappen
ogonblick
##skick
dagis
##eterare
tvingas
insikt
##det
jap
lung
##gg
medelhav
cialis
levererar
stanga
falla
avsluta
hu
norska
buk
paverkas
##pade
storlekar
ri
betydande
54
orden
##sand
##butik
eleven
club
fonder
##rater
##our
##station
verket
bens
pi
overst
##ads
charm
dalarna
##inari
pojkar
tagg
galet
ostersund
infekt
##backen
publiken
##jun
##fald
##job
utmark
uppfyller
paborj
sanningen
hoppade
##ansvarig
utstallning
klanning
##varda
##sted
malm
##ited
##ges
tings
serier
skapade
##iserade
medlemskap
##glas
##skrona
klick
scenen
anstallning
53
schwe
##li
kalas
kvalitets
fur
begransad
##spris
rutiner
gymnasiet
##alten
##verkets
handerna
manniskors
hallet
troja
vikten
##zon
##ces
##egang
##kommit
minuters
webben
spendera
observera
studera
##slosa
smitt
arbetade
##ament
forsvars
bomull
rosen
anmala
tvatta
rich
aldsta
##ally
ifragas
kriget
##radena
##sstil
tekniken
##spelet
vakna
kraven
deltagarna
##itch
andringar
yttre
webblas
byggt
##flod
market
##strand
##ric
recension
##onger
sajten
##kok
solna
erk
##ioxid
vild
slot
forsvann
800
uppgifterna
##ifest
dagliga
branschen
annonsen
##vig
presenteras
##rimin
jordgubb
posten
trycka
barnens
drommar
lett
##inter
badoo
tjejerna
tillat
kommers
rika
beach
vinster
busk
##samtal
hantering
##storp
stilla
informer
beakt
##byggande
##industrin
front
##atter
kladd
bredd
##upplys
forskola
separat
ljung
priserna
##problem
samlat
sprida
veget
hustr
hjarnan
kanon
nett
planet
##elen
beraknas
act
##ute
tillater
##ivitet
##vav
cur
##tas
##beln
socken
fatta
forlorade
##orts
integritet
##branschen
##attan
turist
reha
##best
##dition
oron
granser
##former
prop
ursprungligen
fik
arter
lader
ved
fjarr
brann
farsk
our
reglerna
kim
##16
packa
dott
##ceae
##makt
anton
tvek
feber
##light
##ivna
oppett
skan
##byggd
religion
fotter
forutsattning
mangden
loj
gitarr
bitar
medans
##rem
impon
look
doktor
yoga
home
##ikanska
atmos
sofia
baka
##rod
##24
spanska
##teckning
trett
jattef
orter
betalningsanmark
arliga
frid
konkurrens
beskrivs
##ral
##90
##aret
##material
##lopp
##koppling
teknisk
##kyr
homosex
inbland
nivaer
kryss
oversatt
utlandska
##inspekt
##atur
tropiskt
uppdatera
aktuellt
##stallda
kommiss
hp
##sakerhet
misstag
tunnel
flor
rosta
uppfyll
##dagar
1980
terror
museum
asa
astr
lud
larm
1998
finaste
utbildningar
##skyld
michael
##assiga
sparar
schweiz
##sklass
kvalific
anstalld
sexy
gras
effektiva
##styrelsens
signal
##analys
##skaff
infra
##ibor
##bjud
innehalla
##gol
##uti
ve
##text
marke
testat
mjuka
protein
ideal
heder
medborgare
android
arlig
mage
perman
phot
delakt
bolagets
missbruk
badd
##behov
norden
orolig
kronika
partier
##iera
##ordes
##hantering
##idan
##cm
besokte
hyresg
fril
kommunfull
offer
licens
skinn
impl
##ano
efterfragan
watch
avlopp
dokumenter
identitet
avse
forvantningar
laggs
##eftea
vaxtlighet
foreskrifter
konsekvenser
bearbet
arena
julen
##sbes
knut
julklapp
smuts
iden
petter
##meter
drott
byggnaden
57
militar
uppvarm
##kyl
##ool
##sned
orsaken
bebis
uppfoljning
##21
grepp
stodja
##fraga
sankt
fyllt
##ioder
##forening
spann
##hjul
forvag
sannolik
aud
##produc
sci
skala
invig
tillt
cop
konsert
garderob
utsatta
berlin
kampanj
langsamt
forvarv
spelautom
##hallanden
shemale
vice
gymmet
##usen
sonen
uppehall
##afton
norrland
sexfilm
bog
##arden
##fakt
foreningens
##ningss
##kons
olsson
##fen
##ymer
roster
1970
##morgon
utgangspunkt
sjuka
telefonen
past
brad
alexander
##rigt
smslan
fredagen
underlatta
strump
ess
chil
tillgod
bockerna
##innan
##iness
godkant
hoja
aring
upptrad
hekt
##hlm
sprut
ingredienser
begreppet
livsstil
##priset
titeln
##dan
paverkan
hallbarhet
allmanheten
ked
placera
livs
##sjon
##alism
pag
presenterar
##aland
soll
vaxte
anonym
politisk
ledarskap
##vagar
agera
landskapet
forstod
nic
##utrustning
##ektion
##25
bekvamt
definition
foraldrarna
parall
intresset
sidorna
gammalt
paminner
##aaaa
jakla
##handel
kommunerna
ovanfor
forhindra
regeringens
auktor
##eteck
tenn
ast
ryck
skrack
##bul
##skra
advok
karta
slots
58
vaknar
affaren
##bid
foretrad
dyrt
bjork
gunnar
jeans
indien
tacksam
##punkten
bull
##produktion
##bba
anvandes
avsikt
berattelser
bik
kne
investeringar
trupp
##disk
##usten
moms
##fre
reson
kinesiska
vitamin
yog
samlade
mans
backen
misstankt
kategorin
kud
##anmal
statt
kostnaden
##idens
spons
dricker
samlas
diabet
##itz
oppettider
his
oliv
##ague
##iro
vaccin
vision
berattelse
tera
ovningar
diskrimin
##stillstand
hamna
nybor
spot
tillfreds
dras
##pool
##biliter
alska
##ness
ml
##rycket
##eman
larar
##ize
vakt
##ifiering
varian
##gym
journal
small
personlighet
foreningar
hallen
##okl
tram
specifik
tillganglighet
obligator
##forsaljare
varlds
##uen
pizza
bestaende
maskiner
##gra
klag
##skador
##ancake
marks
##annan
69
##vald
##papper
kvalite
rog
aktenskap
ink
rutin
katastro
bd
bist
forsiktigt
artens
betong
##orth
hemibor
halvar
hemiboreala
blu
##redovis
##edia
ms
suga
insattning
timmars
upptackte
loppet
##kland
##takten
gig
politiskt
ulf
storm
betalt
jenny
adam
innefatt
forekomm
aterupp
tt
##hopp
hungr
medbor
rand
risker
forsen
teor
overlev
installation
bergig
mack
bind
veckorna
distans
##mod
##visningar
##komp
synpunkter
bea
rag
simon
kommentera
forvantas
astad
##ical
symt
##byggda
hundarna
sammanlagt
redovisning
japanska
dress
debut
##com
skickade
bollen
arrangemang
##ylar
byter
volvo
migr
##ary
himlen
galopp
patienten
ansvaret
svensson
oslo
##bost
sticka
rakar
valk
flyttat
uppskattar
legitim
teg
inse
kvarter
luck
onlin
##maskiner
carol
hr
avlag
##hyr
ukra
##14
fonstret
##stolen
sthlm
brister
trag
datab
##vardighet
##ografiska
##hult
stalls
dun
godkand
ledamoter
tjanste
tjanstem
ramen
acceptera
##centrum
byte
uppdatering
rast
samhallen
populart
lansstyrelsen
bjor
enorma
##tals
baserad
valp
narings
restaurangen
strang
bakgrunden
videon
starten
##registr
##flyg
varda
##unskap
titel
##sket
installning
aterv
detsamma
spelarna
skots
rea
forvaltnings
morkt
pratat
bos
asp
forvaring
##banken
bbw
skov
##ffektiv
fortjan
frida
##oped
overgripande
sovit
pagaende
##22
christian
ursakt
##cha
funktionsned
asiatiska
agen
sambo
variera
skapas
##cern
##iklar
##spelare
meddela
enst
vistelse
konvent
arbetsuppgifter
kold
skalb
tidningar
##alternativ
faktura
skiva
ansoka
##soft
suck
okning
vav
report
omfattas
regelbund
king
rollen
jess
##gatt
traditionell
fardiga
korkort
enorm
class
sana
##bt
##igar
fotterna
innovation
tjejen
##stekn
alumin
moment
utbredningsomrade
bron
gilla
##resor
harry
inatt
passion
##varen
versionen
fenomen
vantat
##cir
inflytande
pamin
forbereda
krediter
##konto
##oka
##prak
professionell
sallad
enskild
fanga
konstant
slappte
##systemet
rorelser
##casin
besviken
##tur
allvarligt
missat
statliga
rh
arean
losningen
kasta
ple
league
ida
##dagens
avgora
utredningen
saljs
cle
##ssjuk
game
##kram
udde
klas
##inerande
##uggar
##dorr
##antor
gjorda
ytterst
hardcore
##oty
##cial
white
##mes
##akar
##bott
fulla
finn
minskat
tungt
ze
##kvens
like
##sug
blandskog
##ream
obehag
meny
oversikt
kapacitet
##somraden
##belt
##verktyg
##hydr
antik
upphandling
##stark
avsnittet
tander
killen
vinnare
prom
bis
roy
chatta
femte
51
lyd
meningen
##massigt
navig
184
operation
##ance
livsmed
##stroms
katter
##cell
tempo
##trafik
##istiskt
##skift
samord
rat
group
drack
##foljande
njuter
naz
fullstandigt
##ultur
vaxande
massan
lampligt
italienska
komplic
##igheterna
republ
kallor
erkanna
enheten
samm
godkanner
avkast
aluminium
miljoer
rante
##iserad
##temot
batteri
##dt
nervos
fangelse
##sforetag
##halsa
kulture
skepp
omfattning
##bod
##ous
natter
negativt
minus
enstaka
##egrans
oscar
hop
textil
slak
day
skolans
menyn
forloss
##ides
praktisk
##lock
utspel
##regler
##ski
forvir
krafter
grundades
fardigt
##ican
tidiga
ledningen
delarna
utvecklings
##riska
varldskriget
tillampas
##derande
skank
oskar
##lapp
##´s
inspirerande
ts
##ikan
fruktansvart
kj
##rapport
trist
##rupp
statens
kreditupplys
bay
billigaste
finalen
##fig
##ikern
peppar
deltagande
elva
loser
what
osterrik
##stin
utrikes
division
##alder
sammanfattning
##andan
muskel
utforska
tillgangar
banker
chock
##sborg
afg
globala
rus
fac
efterhand
escortt
informera
leds
forstor
variant
fiber
##ole
garanterat
##stopp
hihi
fyllde
lider
##adels
mottag
global
skedde
stapp
arbetsmiljo
##lander
sjukhuset
operat
skylt
broder
##jd
fysiskt
67
##stil
yttrande
latin
steget
panik
international
dansk
bytte
##atgarder
register
vagbeskrivning
spanning
aterstar
seriosa
##ege
##paket
asyl
sas
retur
forlora
fungerande
erhall
pant
##ytor
##dack
pred
##hn
cra
bemot
belast
##kas
##plikt
##angs
produkterna
business
area
banklan
##speriod
budskap
##mord
grus
vinden
##laren
##ado
jonsson
studien
feb
##evis
sekret
ki
kick
##unge
rop
anmark
forvaltning
kollat
nodvandiga
amnes
skell
larde
unikt
citron
anstrang
livsl
##visar
narhet
##iering
anti
garn
##flugor
##just
slanga
##fo
sken
##regl
torka
##etta
##alar
talat
viktigare
skarmen
bevar
begav
##hard
manniskorna
##orgen
##bandet
utvardering
gemenskap
##sprocessen
sr
##no
how
##ekr
sej
##programmet
66
kombinera
anl
##rollen
kaj
skandinav
avrinningsomradet
troligtvis
##vardet
officiella
mestadels
morfar
aterkommer
identifiera
63
identifier
overdr
lakemedels
aik
##malm
yrke
##ador
##aring
koppar
overhuvud
satsar
ursprungliga
term
##19
snacka
framja
##iew
tele
smaken
slump
##ffer
anvandarna
##asten
##bak
arligt
1997
##attar
kunderna
##di
fota
belysning
##yft
skyddar
utvecklat
spont
styrels
utvalda
utvecklats
grabb
1960
dvd
talets
1500
james
framtrad
bondag
##arken
omstandigheter
pojkvan
##ytan
svarigheter
indones
lantbruk
kampar
tjanar
##pra
##ssystemet
smaka
premium
kortet
##jare
##cen
party
uteslut
##lage
stallt
gallde
##ned
##center
gest
motesplats
sokande
begag
##bildning
sir
##olver
harmon
resen
##lon
##hop
ordna
##tai
##17
expon
undersokningen
lastbil
mull
##bef
centralt
##shem
##lakare
##cing
rester
boksta
cerro
undvik
##ratter
kosta
rav
studio
tech
syskon
anvants
##litt
fungerade
arendet
manus
##ript
usch
##ikapp
##onde
spelen
ersatta
galen
avslutade
##sledare
##tran
traden
varianter
myst
##don
klippa
utflykt
klarade
smyg
##blogg
guid
gilt
1994
flygplats
virus
slapptes
##iko
speed
pump
konstatera
she
abb
##anna
rejal
##sback
##hh
##ippa
malar
##betyg
##chen
##sse
alg
robin
producera
##vil
lot
##yra
##old
nark
balkong
biljett
hogskole
musikal
bildades
lagstiftning
##yst
##ipend
##funktion
skift
##duktion
##ieras
redovisas
varderingar
forvarva
vitlok
gissa
josef
provat
utgiv
forklaring
boj
tillverkad
rengoring
amp
##day
beslutade
##kansla
livsmedels
nils
tviv
##ierade
##esa
forstatt
brot
forbann
rubriken
##hjalp
portug
lyfter
klickar
byxor
##iets
mobila
olje
kommunfullmaktige
pay
ana
avvik
##svenskan
outfit
##esp
##sko
wild
slutat
omsattning
gula
mattias
##kurs
##ikon
##uster
##kna
matematik
##inlagg
##sbo
gt
kristianstad
samarbetet
mick
##sfall
roller
parlam
##landskap
skruv
az
oken
dynam
fokuserar
kropps
formular
##ovan
advent
kriter
##boende
utgifter
##kamera
fylld
tekniker
kampa
sveriged
grekland
##jack
##ordin
nyans
##board
dick
medlemmarna
##stallande
py
##verksamheten
##stal
long
access
##valla
dart
forbattring
begaran
##brad
general
##jej
ledamot
well
lagsta
vanilj
##gorande
##klipp
serveras
lockar
##ampan
lakaren
prestand
varumarken
biblioteket
##agor
##een
misshand
talt
relevant
vager
jakob
vaggar
##cykel
##ulla
skadespelare
pon
blatt
##sajter
beteck
vana
vardera
kostnads
belaget
mangfald
aterforsaljare
##ospel
dl
72
##itten
##13
##slar
debatten
bestod
##hs
##savtal
hangde
bin
fixade
overklag
satts
skivor
cykla
kvinnorna
lasning
majoritet
certifier
normala
##skall
##naren
overl
##betalningar
##side
delade
mem
korv
vande
pojke
jas
##finans
kvant
##visor
seminari
legen
tacker
publiceras
kontaktannonser
lod
action
negativ
##sack
onska
installningar
gum
##handlingar
sodertalje
sha
parf
bondage
koppling
inlogg
konver
ful
jattem
majoriteten
associ
##sbolag
##oli
tart
exemplar
##emed
foretagare
skarp
skyldig
##ki
hogskolan
tillfalligt
stjarnor
arbeten
linne
dubbla
700
arende
transakt
papek
egy
##uvida
sjunga
hyd
##iljon
sydvastra
##splanen
varumarke
systemat
hemskt
sovjet
huruvida
etn
typiskt
##agge
barnets
planerade
arig
##grar
kontinuerligt
##holms
aftonbladet
upplys
krang
##ati
ara
experter
frustr
anteck
skjuta
madde
##slok
tankarna
##smet
##omal
##brist
orgas
alternativet
anfall
uttag
skriven
effekten
uppsk
skillnader
kabel
trum
valuta
rio
handikapp
casinon
diabetes
forutsattningarna
tjugo
sjunger
##essa
kontanter
ogat
ombord
open
email
torg
metoden
dyra
##ief
avdelning
1995
##foreningen
arr
jean
ekonomin
breda
flertalet
specialist
ish
hyfs
allvarliga
repl
prognos
##eland
omdom
##ningsfor
##rich
##onerande
lyser
may
resurs
oand
uppgick
kvart
levde
##stjanst
blott
aterbetalning
diskussioner
##hallet
bh
savannklimat
##eled
68
##ljus
##opt
rullar
##effekt
##beth
##sperson
departementet
sokt
stream
kock
kup
kulle
malen
##emokraterna
##smarker
gentemot
rakade
1996
halvtim
ola
solid
mynt
julia
dagars
abonn
sva
diskret
maken
frig
##datum
##olen
forbruk
##blom
##75
##span
forlat
myndigheten
##agne
liknar
firar
len
grip
##bilitet
pig
marin
hahaha
lenn
sokte
onodigt
uppr
afghan
shop
##uz
skaff
funktionsh
##mn
sydlig
##celler
##bile
krets
##ced
tap
avsk
zo
belagen
individuella
arligen
usb
namna
nordostra
marcus
prast
festival
missade
kastr
arskurs
overhuvudtaget
vaska
markligt
orkade
##mart
punkter
##shamn
ekologisk
heltid
colle
gradde
##ogram
decenn
squ
sorters
##jakt
##position
synnerhet
behag
##iske
professionella
flygplan
##rakning
minnas
##fund
potential
spekt
funktionen
##spe
katalog
flygplatsen
jose
##marken
jamstalldhet
soderut
##rol
narmar
frank
##peut
dahl
halvt
genomfors
socialdemokraterna
##ygien
cyklar
##ax
tipsa
fattig
add
##bri
nationell
undersokningar
origin
bero
##igger
##undersokning
byggnads
##hallare
policy
overenskommelse
hentai
presenterade
placeras
tjeck
smycken
vaxel
microsoft
##otte
flickvan
skelleftea
skatter
88
##oni
lakar
ensamstaende
ahl
kilo
##elar
norrut
julafton
introduc
filer
underteck
##ission
kostnaderna
beslutar
##bec
talade
kommunicera
workshop
##nien
##rafik
brasilien
##alistiska
##stran
##kning
##plat
uppfylla
##uva
dyl
fabrik
##esson
koncern
temperaturen
gur
exklusiva
ljusa
polen
moral
forkn
lararna
formagan
vardagsrum
generation
fixat
permanent
aterkommande
##svik
behall
komfort
##ssons
##skas
##teknik
extrem
##gjort
granskning
mi
##sbok
installera
rens
bredband
kallat
##eka
filter
##unna
tvekan
nude
demokrati
pens
##omat
riktar
pick
##musik
utfors
skin
oftare
brygg
taxi
produktionen
mora
forord
grasmarker
manaderna
tillhorande
bana
filmerna
bekymmer
odling
intensiv
##brod
narvaro
trycker
##mote
##styrka
arbetsdag
183
seb
##sakra
98
##ender
tron
##ington
aja
##teringen
vantan
atervin
flest
friska
mojligheterna
maltid
##havare
storleken
margar
otill
##hallning
ekologiska
##lack
tillslut
menade
trafiken
utstallningen
slakte
nordvastra
62
pian
temper
johannes
jenn
ther
bolags
kh
hastarna
specialis
skalbagg
salde
tagits
lof
street
stunder
##odes
tja
jacob
##kott
##cher
processer
##skolans
dies
79
talas
testade
rekrytering
ons
##elin
sites
overfor
glommer
kontoret
##forandring
likasa
imponerande
mess
frista
##heim
##cos
##olyck
soft
virt
kolhydr
omgaende
swe
human
##srika
74
tomm
redov
##sokt
stappklimat
matlag
73
plagg
plattform
1993
bokning
riket
##usi
jatteg
iii
##gjorde
godkannande
analysera
##umb
muskler
xx
blixt
foralder
privatpersoner
##ocke
fristaende
##rek
bdsm
##omy
##ementet
blyg
##tagna
medborgar
mosa
investera
##rund
kas
##strateg
tantra
skradd
##jot
##marknad
##laggningar
besluts
hanterar
kanaler
havdar
toalett
##ogs
kompens
gna
spelaren
hoppar
old
lyssnade
##obel
dansa
##inister
nederland
skovde
bryter
skalbaggsart
demonstr
ped
finansinstitut
smaland
rehabiliter
hemliga
##skarm
besluta
ovning
olymp
##process
##stan
##namnda
tillverkning
sexual
##atus
##oman
tackar
hogtal
76
lugna
##ils
tomma
##blog
nud
##iler
miljop
bestallde
sjong
kunn
snor
indik
flyga
##atte
ledigt
tull
forknipp
##unds
kvm
tomas
avancerade
##sproblem
forkyl
seriost
bam
blue
uppenbart
aldern
fransk
namnda
##tillverk
ama
bokstav
syri
kusin
##bilden
##upplevelse
nice
leende
##cl
distriktet
regionala
kali
##ratta
book
cast
rektor
forvanad
auto
samrad
##helm
varna
krava
darav
##pert
armar
opin
varierande
vardagsrummet
dyka
dragit
teori
##ooth
bab
sanka
vals
engelsk
glomde
##kte
notera
jazz
##meddelande
servera
pekar
bond
munt
1992
extern
wikip
laggas
parken
mega
##kaka
ungdoms
vetenskapliga
forskole
institutionen
viktor
satsning
##byra
hogskola
##rus
78
##vards
arbetsmarknaden
hundratals
arke
beslutat
flask
kopet
##etts
georg
uppenbarligen
doden
skamt
uppgiften
nedre
vilt
gyll
interna
fu
##gotland
##nan
ljuv
problemen
nodvandig
skota
mekan
hjalpt
hallbart
vans
adult
involver
skivan
olj
europas
formiddagen
elegant
intervjuer
landerna
foten
sondags
elisa
##givande
##porn
##eda
##fram
kruk
bedoma
senior
helena
depress
flykting
##smode
lakt
symtom
examen
sevard
hustru
arbetsgivaren
##sag
##rant
hallas
lesbiska
skratta
turkiet
kampen
makten
##pad
myt
##cancer
trump
radsla
farfar
externa
slappt
##platta
tappar
flit
##fat
##arbeten
robot
kakor
indonesien
bonusar
##stedt
##frihet
1950
##alisera
##maren
pur
katol
ff
kemikal
undra
hill
psykisk
teoret
##kontroll
##staller
birg
radi
light
anne
avslutas
uppdaterad
trip
##terande
cock
oppnas
##jav
tillh
skickat
vastlig
artister
##koll
holland
tryggt
enter
utse
insektsart
##kanten
##vack
tillgangligt
##sajt
victoria
##blomm
##barhet
##okan
baksidan
hmm
slagit
diskriminering
##fang
ovanstaende
destin
##igenom
##isse
spindel
##au
first
##laddning
kassan
dottern
ado
observ
##ify
berattelsen
utbudet
##iem
inuti
citat
forordning
varmland
##rorelsen
manag
camping
##forsvar
fog
gasterna
##iana
salu
##pul
97
foredrag
medicinsk
skugg
psykolog
kandidat
hjalpmedel
albumet
konstruktion
stanger
dipl
infrastruktur
slip
##namnet
anvandningen
parker
utsatts
samarbetar
lampliga
sympt
win
##iser
##enterna
##bag
mins
valfard
##made
smalt
##varon
vardcentr
##vux
avdelningen
##last
redigera
kollega
relevanta
mejl
orka
distribut
##elie
locka
uppgrad
##km
altern
ce
ande
motorn
##tagen
tillverkare
grafik
##ule
agaren
kommunstyrelsen
week
##skare
##umma
langden
behandlingar
##steg
stugan
konstaterar
museet
lt
wo
vilda
vint
united
##hu
##byxor
killarna
##ulette
##supp
anlaggningar
##idrott
fixar
knep
nike
##oler
upptacker
fritids
saa
##rock
klam
##ynda
ytor
onskan
arbetsformed
##ball
lr
meddelanden
sjukvarden
ng
ib
##mare
amanda
river
wi
##makten
hamtar
##skiftet
mums
##leva
skord
ljust
##grans
matta
##stock
dartill
##laggare
##berget
kav
kraftig
kreativa
webcam
anslag
##zy
morg
##lagga
forhandling
slutt
##muse
##ages
##sprogrammet
forverk
beredd
besvik
byggde
betting
tomten
patrik
remiss
##cal
ariga
##sbel
##ni
university
##vas
forlorat
was
adel
globalt
##bygga
uthyr
##stugan
##shuset
gos
radgivning
vig
dorrar
verkstad
bedriva
ling
fm
sticker
che
##listan
avslutar
befolkning
forelasning
110
##nost
wester
drottning
bund
kontaktuppgifter
behorighet
##ysa
handduk
succe
huvudvark
trygga
gbg
motsats
##etiska
medicinska
tranat
anpassade
minor
kaos
tarta
mojliggor
1991
##politik
##anpass
ombud
stralande
900
77
byggs
vanskap
trotta
ond
staende
mia
persiska
butt
##smat
spir
bekvama
mandat
ugn
##laggningen
rytt
framgangsrika
gala
sanger
prick
##isser
falun
mjukt
fit
orsaka
96
biverk
commun
ping
ansag
perioder
dubbelt
forlorar
##istiken
##arp
manliga
forskar
smakar
dagslaget
##iskop
vindkraft
pancake
bosatt
forbud
junior
##afil
forebyggande
bostaden
89
herre
##gb
vagn
nyan
rimligt
detaljplan
advokat
vaken
vardnad
##emar
##spir
finger
tonaringar
##jorn
frien
forvis
langvar
tumbl
##dell
regiss
afrika
ss
djuren
ifk
langsiktigt
proffs
storstad
##sforbund
mater
anledningar
busklandskap
lina
nordic
palit
infora
les
bert
accepterar
klassiker
##ekonomi
sajter
glid
barcel
richard
regnet
graviditet
labor
padd
partners
##smannen
cap
##riga
tappa
stackars
rummen
tittat
upplevt
aw
##ji
apoteket
##umtion
vy
##ilia
ljudet
betraktas
arkitektur
agde
befri
marknads
badrummet
##syra
wow
gh
grunder
put
flaska
ansluta
neutr
underhallning
parter
lova
pier
immun
forsakringsk
##skvallen
receptet
primar
##orjning
forekommande
skilja
games
irland
##faltet
##arten
nedanfor
gluten
medic
##ove
flyger
kundtjanst
konstru
bedrag
besatt
##nats
dokumentation
leker
##alerna
barndom
##ilda
brinner
baseras
bedoms
##work
spok
175
holls
slapps
downlo
dyrare
plag
mt
passande
kanneteck
representanter
alp
sko
prestanda
shoppa
hektar
urin
##profil
##lop
sper
torra
narmsta
kladerna
sakerna
cash
pappers
faglar
##site
bekan
noggrann
samarbeta
##lager
tappat
tv4
skargard
tillverkade
duschen
oversattning
fortjanar
mobiltelefon
84
##agda
garage
kore
##sband
nyborjare
balt
kokos
forber
##ssn
##jod
missar
tilltal
##miljo
miljovan
bell
##oppen
##foretaget
justin
frammande
##ionella
skur
##bre
##omet
tumblr
exam
narkot
kampanjer
export
fatal
tredj
jamna
mysiga
bergen
##ektionen
160
lektion
sjalvklar
##65
george
madrid
historier
nackdelar
##stang
mammas
##lakt
1700
smaker
konkurren
sandra
##junkt
night
ash
borgen
djupare
##resan
erf
vandrar
##zo
tatu
kw
inrednings
borger
##esi
##inspektionen
inland
kvaliteten
##mastare
tour
stuga
##elsef
uttrycka
forelasningar
##skriven
skrattade
skym
genomforande
assa
avancerad
##ights
hogkval
fans
upptackt
berorda
noje
lovskog
mari
programmer
stel
hm
##dam
##hjart
alskling
bekanta
rorande
livets
inkomster
ipad
##ementer
##loss
orange
stamning
redog
appel
skraddars
allerg
politiken
kalender
tagen
overtygad
proje
alger
ambass
disc
##handeln
##ulen
##komsten
##sforening
webblasare
##inkar
middagen
##dalen
uppsats
portratt
lav
##serien
au
minskade
ving
allvarlig
2020
tradgardar
##motor
tillkommer
uppger
##ywood
natverket
afghanistan
hardare
forsvinna
undervisningen
nivan
informations
konsul
kalle
artist
fodda
##veckan
agna
##rukt
racka
unger
vuxit
betraff
mir
##infl
card
nut
mount
##sbord
teamet
plant
lunds
synas
foraldra
arbetsmarknad
norm
rekt
vattent
chanser
kontakten
here
rulla
lotta
anklag
jaja
bow
stravar
sling
##idor
##eds
stipend
bagge
asiatisk
##ding
chefer
omt
##omer
anhoriga
noggrant
##anmalan
herren
##annons
kondom
##tex
##ede
kreditvardighet
funderingar
katten
##lada
head
lokalen
kartan
forsaljningen
##ektorn
##aganden
alm
mammor
interakt
conta
funderat
hamnen
sjukdomen
upph
sexfilmer
who
lats
reste
tapet
kej
varannan
##iled
anlaggningen
##parken
##rorna
oroa
##23
atal
##bbe
fjol
intyg
mandagen
kvadratmeter
torsdagen
##oppar
julklappar
##tio
spelautomater
adressen
gel
tjansteman
farliga
kard
##ulin
aspekter
landstinget
94
domstolen
lila
innefattar
provning
vagnen
##satter
registrerade
startat
spor
##ely
osterrike
moll
fax
bilda
##vert
south
personuppgift
##skrivna
spelades
jacka
fantasi
ordfor
koldioxid
annika
bastu
provade
bestallt
hemifran
##delningar
school
personerna
lennart
##pal
##cernen
ake
tufft
##olid
tend
administration
##rapporter
bransle
arabiska
titlar
buff
##entuna
way
multi
egenskap
##chf
inledning
##skostnader
170
komplex
skydds
bildar
##hd
producerar
scand
ged
semestern
##scen
tappade
##tro
hobby
##inerna
gigant
innanfor
paret
##villkor
regi
any
##ytning
deklar
okenklimat
##eden
entreprenor
140
firade
introduktion
##flode
skrivbord
##fallen
anvandaren
kjol
lyckad
glatt
flakt
##stick
medi
mist
##figur
##promen
mobb
begara
akl
beseg
kull
chile
funktionsnedsattning
namnden
##stjanster
tras
magnet
anpassad
odds
farska
sexuellt
##poang
##varld
drommer
##butiker
##skomp
tavlar
villkoren
hornet
graf
skrap
comments
rapporterar
feder
hamnat
kvallens
tidpunkt
luk
kungs
karol
placerade
jimm
chefen
pals
##heran
medlemsst
psykiat
##etch
##plac
##berga
japansk
##opol
aldrar
amerikan
##hamtning
medvetna
forebygga
##svillkor
noveller
iron
##sons
instruktioner
##sbest
minsann
kommissionen
content
sams
##okument
katastrof
saljare
##lav
brak
hungrig
##anas
gator
specifikt
##osition
fras
maila
##svar
forvantar
snabblan
forflytt
##eng
##test
##traff
avbr
dari
brit
rakningar
skytt
tillverkas
##stuga
bensin
gd
bevara
forsvara
##smiljo
tri
##bilj
halland
##forbruk
saint
wikipedia
genomforas
arbetssatt
insidan
##bek
paketet
celler
flag
unge
glans
stolta
kungen
touch
forbundet
now
prylar
bedomer
orn
varning
lady
anbud
pic
ansprak
inspirerad
##strad
flagg
xd
utstall
##bus
varst
es
##fj
##skommun
##kann
haromdagen
import
alice
north
kiss
ingang
floden
tennis
summer
atmosfar
kompa
lyckligt
website
allih
wifi
aland
sanning
hogkvalit
psy
ystad
forhallandet
must
hjarna
had
##dags
##gjorda
programvara
tjocka
##viker
##atorn
83
##zen
oga
##allen
130
samarbetspart
mkr
tillatet
##ammare
cirk
fargerna
##radets
rensa
xn
hallbara
##shistor
hallit
niklas
lappar
grannar
nationellt
mission
ensamma
##klubben
smidig
vistas
##amnen
overnatt
orsakar
representerar
##nis
telefoner
maskinen
##gjord
absol
##hallande
##fattare
lchf
##borgs
strategier
kungliga
##langt
bildas
argent
uppsta
jessica
##arbetare
teheran
konsum
montering
upplevelsen
##ave
linjer
presentkort
ggr
lampor
samtalet
saft
##amerika
feta
##inci
stamp
tillhandahaller
bokstaver
##redning
alternativa
genomfordes
less
plockade
turen
gruv
86
passager
underlattar
hanteras
flytande
vaskan
forklarade
##sha
foss
##ammation
mosaik
##forhallanden
omgivning
women
forare
kvartalet
verksamhets
databas
baserade
##vit
sjalvfort
underhallande
##fru
nasan
jakarta
gava
##ningssatt
categor
forstora
hass
minskning
mellanrum
inge
road
indiska
about
##sun
##komligt
##ield
tillbaks
after
sexuell
##emi
wel
##prim
barcelona
berattat
dnr
varsin
##baserade
bern
beton
cross
fordr
rantor
tranade
strumpor
utby
pse
skadestand
overgang
mounta
kasino
ikon
bedriver
##pital
kjell
irak
download
lada
rantan
##aria
visby
byggas
javligt
konkurrenskraft
##underlag
insatt
leksak
bibeln
besokt
finansiell
aktiebolag
lagring
framtidens
burk
##ydde
##utbildningen
93
##zer
##elly
dire
beromda
grekiska
##byggnaden
##arina
snick
bun
##cs
barr
##amod
fiskar
##manland
bidr
##utbildningar
##hotell
publicerat
brotts
raknat
gifte
cos
ags
##data
##ffel
pont
spekul
##skrivningar
##garant
somras
hallon
njot
filt
color
hamburg
##sokande
onsdagen
sve
symboler
college
blot
oratt
tunna
##organisation
batar
##krets
grata
dumt
##speg
##brev
##bonus
##ifik
##ipa
##rah
invandrare
##kalla
abonnemang
trakig
forsakringen
digitalt
##cle
kyrkans
blaser
direktiv
studenten
##marknaden
ihjal
tekniskt
honung
leon
ratter
avkastning
##erie
##vetet
##glad
akade
rumpa
sokning
eur
vagrar
expans
##ologin
kid
##tagande
##bottens
##ony
landslag
grovt
bebygg
kallades
lesbian
diesel
##sklader
##etterna
modernt
story
arsredovis
jordgubbar
diet
uk
varat
rud
##iseras
##album
##pump
kreditupplysning
onskade
##bilen
vegas
forank
louis
poolen
##sorganis
##utbud
intellig
dur
antib
##hogskolan
##not
##oe
tanter
mandags
##brid
ovrig
kross
recens
sound
brukade
andrar
insamling
godkanda
etablering
##sem
orsaker
individuellt
laddar
##shav
manniskans
##enser
fusk
##stationen
syl
aktivera
swingers
kroat
kryp
forsiktig
##utvecklingen
##uge
talamod
##ru
##vision
konkret
stekel
##hammar
uni
industr
avdrag
escorter
grev
ingick
tyder
##block
oc
djupa
morkret
##ekreterare
begransat
okanda
ext
roulette
##eld
##edon
premier
missn
vinsten
##oklipp
kanslig
##kreta
bibe
musiker
##imentet
1930
komponenter
minuten
##mera
samverk
lararen
smorg
##vapen
##emedlem
universitetet
friluft
orten
##ito
##asyster
##cted
##ware
##utna
ordningen
markte
1989
klubbar
handelsen
idol
overgrepp
reserver
##ttill
langsam
bygglov
tabellen
nadde
regnskog
blivande
skrivande
ambul
frukosten
arbetsloshet
display
implementer
raddningst
##ituation
skrattar
asien
##ibla
vaggarna
##yper
view
##fal
samtycke
saknade
##byggt
skilda
##angar
##skningen
klarat
foreslag
enk
degen
little
platta
revid
##konst
forfl
##ross
ventilation
framgangsrik
tommy
bransl
applic
damp
##spolicy
##handlingen
##langd
html
##snummer
##tta
##amet
konkreta
handlat
rutan
pite
beloppet
##vat
diskuterar
forrad
passerar
##akade
photos
palest
##itte
mach
doma
panel
##osten
bokat
genomfort
utformning
sis
kostnadsfritt
klev
##itation
sprider
tummarna
belgi
religiosa
##skytt
##halt
pm
genu
ova
##sforsakring
ending
##oa
##cast
rekommendationer
##usion
##lur
lekte
stekelart
##enta
diagram
cykeln
subt
bm
##splatser
analsex
##skval
pastar
kanten
lands
reaktion
ansoker
##forvaltningen
kongress
atl
leif
glasogon
tydligare
producent
hemsidor
toner
palm
kontrollen
##brand
61
styck
konkurs
##onto
tanderna
blekinge
##ated
faktor
##zan
feed
##lange
bestammelserna
rattvis
1920
rita
kasinon
sovrummet
mexiko
projektledare
klaga
explo
##ife
aggress
##spra
integration
non
forvanta
moderaterna
hv
za
##kter
monter
omgivningen
formedla
undrade
halt
solo
##aktor
udda
##33
##byn
science
jung
utnyttjar
rose
##stallt
##dy
aterfinns
minnet
##reserv
renovering
##sarbete
oral
1600
##plattor
##ylt
fula
valkanda
romer
miljopart
orgasm
kostade
offentligt
##uppdrag
##skjut
buck
historik
##ergi
ode
folkets
##jerna
casinot
kvallarna
tiot
nyheterna
nt
##atern
beskatt
avsloja
overleva
##vader
idrotts
betraffande
##vaska
jamtland
kunskapen
margin
luktar
##stein
rymd
##loppet
darpa
bostads
lacker
linnea
avsedd
chic
relaterade
passet
norsk
uppvaxt
##bind
videospel
forne
##idning
viner
komple
forbl
radet
parterna
mental
tester
nm
verklig
komplettera
skadade
##pg
##skada
tillverkar
##sforeningen
##hojd
rakning
russ
miljom
179
helvete
inratt
beaut
iso
rang
beund
##upen
stodjer
bokar
lex
genomsnittet
##cas
varmare
uppdateras
##natur
forsamlingen
utnyttj
82
##stro
##fordon
diameter
meriter
##ionde
cec
anta
kyla
fastan
##itra
##ria
##anvandning
##hur
birgitta
skorna
sekr
allas
problemat
blow
koh
stenar
bedomningen
medelhavsklimat
##splaner
tolkning
##gam
jobbig
##skur
fien
##bidrag
##svatten
##smaterial
jackp
87
##stig
pseud
##fag
fattas
##kontor
##sw
christer
find
lagret
tillforlit
92
##lagda
dimension
kristus
sannolikhet
##syr
##livet
utdelning
individuell
tisdagen
agar
ravaror
1988
ebon
fattiga
come
##check
arbetstid
kreativitet
##adet
stangt
##fron
ansvariga
knack
##su
morr
kvarn
filip
revolution
karlskrona
##ligaste
hjartan
tals
meg
##maskinen
omgang
hyfsat
vagledning
tik
nacka
##bete
lednings
vacka
retro
##astaende
letade
orkide
vackraste
##sbyggnad
##estad
##usa
likadant
##esen
##car
##glom
hallow
##dring
halsar
pyssel
##ete
magasin
##opter
skrammande
roligaste
kolon
91
tillhandahalla
cigar
##varu
videoklipp
die
buller
kvinnors
ankn
torrt
meddelar
skum
verksam
halvtimme
kandis
flickan
marg
inblandade
##frukt
tegel
skoll
tuffa
room
##bilda
gumm
motivation
alltmer
forma
lyr
ganget
##ionell
kansliga
berget
schema
stryk
overraskning
maja
nja
##format
sverigedemokraterna
##skyddet
fordelarna
namns
##visas
rick
sinne
##skiv
servicen
##hattan
analyt
erfarna
isen
stracka
vagade
page
rotter
kolhydrater
redskap
betalningar
lamm
##beck
bistand
pirat
uddevalla
jaha
matcherna
tvang
##mers
trakiga
##front
paminn
biverkningar
##andare
sjalvstandigt
##anning
borlange
vinkel
##scent
forsakringskassan
sparas
principer
vaxthus
management
rust
publicera
soffa
onda
pix
olle
tillata
##spolitik
american
forskningen
cirkel
utbyte
skarpa
##ogn
felaktig
thor
overlat
ohalsa
arsmote
##bron
##dragen
peppark
fittor
##vagnar
lagst
stamningen
vanligare
##design
##cht
slottet
music
ebony
##steklar
konstiga
fornuft
inlandsklimat
mysa
##¤r
##okning
utgors
##perioden
vagarna
prestation
skriker
sommarlov
##kad
##belopp
kontaktar
gardagens
varg
##kvar
dvar
befolknings
mountain
loper
blandat
##otyp
absoluta
stiger
##ipro
skold
begransningar
intim
uppmarksamma
skrivet
bakterier
##vaningen
gris
hygien
forbind
tredjedel
trakass
matlagning
montera
sjutt
penning
##ovning
##sperioden
batter
valdes
matcha
inneholl
##karna
huvudstad
##smassigt
arbetskraft
diskuteras
intakt
fasad
blabar
loner
festen
assistans
##bileum
##viv
harifran
##skold
ovantat
##stalle
uppvarmning
reagerar
flock
examens
historiskt
potentiella
betyda
##djursart
##irektor
klasser
##stjarnor
enskilt
komplement
protest
medvetet
rymmer
kvinnlig
##elia
fotbolls
##akes
##smatch
kommunik
rabattkod
omhand
gotaland
sekretess
nos
##ransa
migrations
##pension
kammar
skrivs
##eve
1987
onan
handlingen
utforas
cv
torget
##ekv
##examen
respons
progress
tempererat
omdome
##innare
corn
##ungna
administrativ
delav
##cipl
poll
militara
meta
##industri
##ifer
##bullar
olag
parag
sagas
forekomma
lopning
hemlighet
bifog
atervanda
refer
skrek
langsiktiga
framsteg
foretradare
stot
##sling
##svin
genomgang
##ords
kravet
kristina
sne
kriminal
balkongen
andrade
spotify
samhallets
spegel
expressen
forvisso
juridiska
iak
armarna
aringen
schemat
dead
jattekul
##halls
bemotande
##pedagog
depression
##bostad
##unga
string
prev
utrustad
garanterar
modul
##ansokan
mamman
engagerade
kvallar
regional
laddning
##samnen
stok
resulterade
hyresgast
landsbygden
drev
##varre
gold
fordelen
partiled
narliggande
latina
justera
husdjur
grasm
gata
##massan
know
##eh
variation
##casino
##renover
smith
veder
##onia
ukraina
kundens
manaders
##etid
stressad
blanc
malade
talang
##esc
forkort
##mass
skjuts
##vc
##sbeslut
1986
##yder
##insatser
kopare
myn
morker
rehabilitering
ekologiskt
utrymmen
testar
resterande
kostnadsfri
allians
##alistisk
m2
designen
pict
daglig
kanel
biograf
##agt
droj
rek
##iar
kum
baren
hogtid
debiter
vul
handled
##marke
##ungit
astadkomma
meet
klokt
partierna
spik
institutet
blomster
##kg
##slost
funnit
deg
tillracklig
bilarna
visning
lis
fortsattning
synlig
pjas
medie
kusten
ada
klient
review
lor
tallrik
##sforvalt
besta
sjunker
viking
##come
shirt
valdtakt
nur
##ierar
##ampor
badkar
##ostnad
aa
years
350
halloween
vintage
paj
forandrats
##penning
lovat
##egron
cirkul
vegetar
vaning
vardagar
spill
elect
size
frost
onskat
slakten
erbjudandet
konstig
rackte
oronen
begransa
##ymen
##vill
uppratthalla
upphovsratt
avveck
linjen
##xy
great
nyfik
otal
bratt
vs
fron
smek
gods
oklart
##istens
##regionen
omedelbar
##hagen
ostergotland
kakel
##ladan
kallare
romantisk
sess
latex
sul
krypa
##ses
slaget
osk
##kostnad
##sre
71
santa
mossa
taggad
halsade
##xis
math
##file
##jolk
blandade
slappna
kitt
kopplade
xnxx
##jacka
pip
##briker
cyk
tarar
fund
ambition
##anlaggning
##ariga
samsung
kundservice
uppskatta
see
##bom
##vest
##ektor
##arl
konsten
nul
taby
sakna
latarna
##ians
faltet
##ovlar
existerar
##innor
piller
webbsida
forfar
##linjen
maz
runtom
##historia
sektor
agerar
##atts
##skontroll
dessvarre
delavrin
maximal
kommuns
esp
vap
skrevs
bruna
lysande
intervall
vingar
m²
##sj
##olin
traditionellt
misstanker
pastor
louise
huvudsakliga
dennes
inledde
1984
meddelade
syda
178
domare
asf
##aken
found
##offer
drabbade
1940
##forslag
lasse
skyldighet
rutt
byra
haftigt
forfall
falken
utgora
stadning
dolda
forhallningssatt
##avstand
monstret
blind
##omi
inneha
imorr
doften
benam
##sdagen
##sklubb
evangel
young
bestaller
markera
##chefen
wiki
omdomen
##ption
##handlare
betalningsanmarkningar
novell
##frika
profiler
stamma
##skiva
slutandan
##quist
kladogram
##register
avslutades
rein
basket
pase
fortro
etablerade
upphor
sjukskoterska
##odde
arbetsformedlingen
overvikt
##video
##tida
narkotika
##splikt
utmarkta
passform
promenader
##45
##innar
##provning
##ves
lanade
##gade
konflikter
rap
torsdags
hollywood
dream
every
fullstandig
kk
##feldt
melodifest
utfard
darigenom
vinet
ll
granne
##derad
tyr
spridning
sakerheten
tillverka
foreslas
industrin
kroppens
##entar
##tell
studi
quiz
##journ
lit
##skorna
stjarna
sf
kopplas
##alken
sevardheter
vantas
vandra
jattes
invester
##lerna
##tips
alfa
parfym
mobl
muslimer
pak
stunden
davarande
nobel
wien
shit
##sbas
##sgran
osterut
nass
5000
food
explos
kyrkor
tenderar
handtag
uppdateringar
ovanpa
varberg
stry
kent
##boy
sax
pend
charles
utvardera
1985
##ystemet
nacken
numret
naglar
summan
##amot
##aminer
stadsegron
##cet
##ime
paras
rider
resonemang
studerade
mek
##panel
##deltag
alle
##ures
garantera
lillebror
##ratts
skidor
flexibel
mira
##byran
rorelsen
poster
syrien
sammans
hemmaplan
natterna
##icia
mottes
tabletter
valkomst
fair
vasa
deltagit
fak
statsminister
pel
maklare
##ople
klagomal
rinner
##ofs
##sstod
##iserat
##angden
##statt
mild
carlsson
##kostnader
##bibli
spad
##plic
uppdel
husen
starker
whisk
kopia
kulturella
uppfod
hittas
flog
generationer
lanka
vinnaren
##ygger
##vackande
sena
bidragit
dejten
kulturen
hogra
360
##ikansk
mastare
ordentlig
royal
overvakning
##kapp
efterlangt
##tvatt
klok
##eso
grod
##skrid
konserv
##objekt
##smojligheter
okand
125
metro
jens
svan
experim
hammarby
herreg
nyckeln
##ityd
apels
##unnen
##cin
##personal
##pengar
rattvisa
fororen
kliva
foda
sjalvfortroende
##foljer
terrass
##massa
fysik
gavs
camilla
##win
foreligger
##gna
##olution
vilar
##skostnad
stodet
##yren
funka
##umpen
antibiot
lades
##stider
vasterut
myndigheterna
vatska
tad
##addra
##hing
indirekt
kapp
underratt
keram
vim
snubb
varu
care
1982
##forvar
klocka
besoket
tiderna
dir
bredare
malvakt
karri
second
aterbetal
elektronisk
##agd
gaming
##samman
vispa
search
tomat
symptom
rattegang
italiensk
##uven
benny
deleg
barnmor
brunett
##stens
##stadiet
importer
blogginlagg
##svikt
##utan
##resultatet
vip
regelbundna
latit
befann
portugal
micke
kenn
latsas
##orier
##inas
##go
##aaa
sjost
fire
rykte
netto
sele
tankas
tankande
avled
duscha
##27
pia
patag
lektioner
sparet
##shot
engang
hemmag
motstandare
pitea
try
bromma
loppis
brons
skulpt
varas
christina
##gs
delavrinningsomrade
skadad
wordpress
##plock
there
indian
journalister
##massage
gradd
bryt
veterinar
teckna
utbildad
sprit
1971
berattig
##cript
scener
##yrkan
officiellt
toppar
ingaende
arbetsplatsen
naringslivet
##gie
filen
snarast
relationen
plockar
naja
bt
blomma
utvecklade
idiot
diskussionen
ront
##koden
roger
laborator
motverka
fisken
trettio
kommersiella
comp
valda
##savgiften
wood
anpassas
manager
dejtingsidan
##sgrupp
kottet
casinospel
fascin
##akare
individen
kontrast
##ville
##inger
koordin
karaktarer
regioner
framgangar
stallas
fragestall
##ør
##fjar
##skran
pettersson
genomsnittliga
##kron
psykiska
exped
opera
utmaningen
return
bomb
planeras
drabbats
kondition
elimin
giss
arbetsplatser
manat
kontot
centimeter
##lings
sovmorgon
##gro
name
##foder
##fas
##ili
kolleg
mobile
stolar
poangen
ersatter
cred
klubbens
publicerade
##ateri
##speci
hindrar
byggd
manlig
nost
hamtat
biskop
##planen
##utor
uppkopp
njur
spray
varnar
skatteverket
##99
1974
fingrar
turister
analyser
kapten
sjalvmord
stotta
##lampa
hostens
hembyg
alliansen
mexico
##jort
elast
beck
politikerna
stabilitet
menings
historisk
jakten
##horn
givit
##ynn
herregud
iordning
utmanande
sill
gabri
ersatts
kyrkog
trakt
##bai
##skningar
##intresse
##grader
##klund
##vind
skanska
##isionen
##etik
fortsattningen
uppgar
please
pad
rabatter
bortom
mandel
gifter
styrning
vaningen
teman
dopp
energin
##oven
##kvist
bonn
##uterade
##kommun
##immer
##anne
surfa
homosexuella
segern
konstnarer
##ankar
office
svarat
vasterbotten
ishockey
tripp
vass
break
hudvard
##serie
##aton
inneband
statistiken
amatorer
utvid
##kamer
resenarer
##rick
aro
##ory
fc
##ischer
tvungna
##kakor
##fett
funderade
femton
framgangsrikt
##steknik
##vardig
##stalls
finlands
sakerligen
kritisk
kit
daribland
dataskydd
nhl
##mad
##onder
##anting
sammanstallning
##sang
##orden
##ines
fjader
brunn
kopplat
anden
lampa
tjug
##modellen
konton
svenskarna
##socker
##period
##dahl
kvalit
series
fotografera
##35
success
stj
##espel
##priser
utspelar
stir
emelie
fb
##smorgon
missfor
##une
##bitar
intensivt
monsun
popularitet
traningspass
blandar
forsaljnings
fods
flyktingar
##tagning
slat
attityd
##smarknaden
##zi
resur
##blas
##salj
##vant
raden
only
race
3000
plug
##yssel
fattade
armband
##ydlig
smala
begransade
inhand
##sminister
pedagogiska
##yle
upply
##oft
intraffar
nederlanderna
##sbolaget
colomb
forbe
dri
slack
##ilja
anvandarnamn
influ
miljok
##nik
avund
##bjorn
kriterier
flyt
levitra
##eger
##arv
delat
##ikel
##mott
genomforts
fangar
belgien
manads
low
akademiker
blondin
dyn
##skriften
trivas
##ship
ersattare
award
coop
inventer
##fet
tyngd
##vap
##26
##snat
givande
##mjuk
##uckit
##inrikt
cons
##vecka
nyttigt
##nastik
forestallningar
fodelsed
kunskaps
narstaende
kollektivavtal
##batten
##hart
experiment
monteras
reportage
delaktighet
irriterad
dran
katarina
ala
langiv
behovas
1975
dokumentar
spell
synes
angeles
chal
maximalt
fingrarna
dropp
##ulara
malgrupp
levt
bonder
tryckt
marock
forfragan
samvete
compan
ming
intag
##prom
klassific
arch
hindra
##°c
spelande
ligg
forbattringar
##samlingen
styrelsens
##77
hojer
fotografering
egypten
pressmeddelande
wash
kramar
studerar
svd
valfri
prel
onani
rubrik
portfolj
gunung
nina
##dit
flyttas
andrat
##reen
lux
##bock
foster
##formular
strikt
##wer
heliga
minskad
##sele
serverar
jonkopings
utreda
lunchen
##traning
##inka
skalet
vaskor
oppnat
inbrott
konceptet
##strar
effektivitet
lanar
##ilar
firma
hyper
krok
engagera
trafikverket
##ampning
trycket
##vagnen
gummi
gps
water
tvingades
provet
utat
##arig
utarbet
1973
branscher
sommarens
grot
disp
offens
bege
vattenfall
def
fardigheter
konsumtion
fyllda
yttersta
flug
##verige
bladdra
##avgift
##essan
jordens
emellanat
varia
##stolar
ray
##chester
utov
arrangeras
utfort
drink
movie
svaren
flott
stapel
vansterpartiet
francis
avslojar
marknader
nojes
utstallningar
mv
efterfrag
lejon
##akim
tanda
publicerades
##stallen
strackan
bristande
askad
inleddes
rol
innovativa
fastnade
cecilia
ngt
##ifikat
hemat
##fattning
gronsak
rostade
tes
omradena
sammanhanget
tillfallig
engagerad
pics
langtan
##29
ataganden
##baserad
##spres
handeln
overforing
intellekt
##sidorna
samsta
beredskap
soldater
spektak
##beller
##sprov
stiftelsen
##ordforande
##vagg
servering
##edi
pt
##skons
##ters
##olo
hult
krak
placerad
##gorelse
elektroniska
##jning
oliver
samuel
##date
allsvenskan
##orns
flackar
gestalt
##valet
forutsatter
verkligt
blodet
1979
demokratiska
koden
franvaro
##dress
matning
enklaste
##ovningar
##illverk
##krit
##pes
turne
kemi
elektronik
repet
saab
arbetslosa
namner
typiska
##ssp
kontaktperson
karnkraft
##visningen
bedrivs
grott
antas
stina
##kare
blandas
forsvarsmakten
generisk
tvill
slap
sortera
##korea
ladan
klassiskt
scha
##vanliga
##ningsl
huvudperson
fordonet
##yrer
##sky
enkat
champagne
territ
kylskap
inspirera
##ree
adoos
avgiften
##givaren
##chi
forsvunnit
1968
##vattnet
sysselsattning
intraffade
kartor
misslyckas
apt
familjemedlem
##ating
rapportera
backar
bekraftelse
angivna
lugnare
uppskattat
stilar
postades
isb
##unskaper
siffrorna
inbjudan
samlag
sjatte
next
kraftiga
##skapande
##yy
blicken
most
forestalla
##ingenjor
imorn
utforande
magiska
##oon
batterier
rele
energik
skotsel
njutning
klanningar
contin
tangent
droger
##given
##umul
receptfritt
hemt
begagnade
publicerad
expand
sekreterare
koks
forbattras
logistik
blast
##rer
korrig
frascha
##lust
feedback
tvaa
##foral
forde
varumarket
##28
##hojden
viet
platserna
nedanstaende
attraktiva
soff
betalat
torde
##69
##ush
slass
nyanser
inverkan
hbt
utbetalning
joakim
mul
hugo
slav
betalningsanmarkning
ohl
jaga
quote
pp
##ropp
##blar
##usch
fortjust
suver
##overket
reflex
tent
olycka
##arerna
saljaren
rysk
representant
arrangerar
##ysning
monsunklimat
kiruna
arsmotet
##edomning
##hlin
husse
forenings
drakt
inat
arvid
belagg
hormon
livslangd
##varan
granska
avsked
spis
classic
bingo
##koder
inleds
news
norrbotten
##svenska
slutsatser
falska
enastaende
kemiska
medium
chips
laskigt
formar
##ckare
naked
login
hiv
postat
##utrymmet
##elever
##kalen
helger
timma
koncernen
sott
annanstans
kroppar
vasentligt
##oplan
hands
tveka
##ites
##fyllda
avslappnad
faster
uppskattade
tolka
##effektiv
##omsorg
koparen
utmana
forfattar
arbetsliv
##skom
ordforanden
automatisk
passerat
##medlem
hatt
anime
jesper
kalk
use
avsedda
pussel
##ст
avslutning
strunt
regerings
kosten
semif
okande
##panna
1976
##illgang
ansikts
##stora
forbattrar
upplagg
ordnar
betydelsen
tobias
utbilda
knappar
tipp
##bis
sexstallningar
tandlak
timmen
valbered
irriterande
##ssnitt
##innen
##sfullt
##konstrukt
bk
drama
valkomnar
##rygg
paradis
byx
##idas
omtal
##vanlig
boendet
kastar
category
grava
##ierad
skapades
markus
marka
##ando
prostitu
insett
utsikten
##etiskt
##vad
##sfest
##idningen
mes
##stamma
stadat
##brada
bokfor
trojor
edward
nedsatt
lasar
aj
albert
homo
creamp
##chat
svin
##ared
tystnad
kerstin
tillvag
behovt
kemikalier
odla
drommen
imponerad
bloggare
key
behovdes
olympiska
normer
##fiske
1972
medverka
##helst
fliken
satsningar
##shavare
##uls
pok
festivalen
kombinerar
henry
hostas
1983
anlita
overvaga
##stamm
forfog
sjunde
##blod
##ов
ade
uv
tvivel
nedladdning
##tankt
citer
krankande
rostfritt
##alia
lasaren
sommark
broderna
vackte
ic
mum
sammank
lyckliga
charlotte
##filmen
sodermalm
tobak
vaxtart
genus
funkade
uppror
bonde
nova
pas
konstaterade
##gat
##71
tranga
bankkonto
tillfalliga
arlanda
arbetare
people
slanger
reaktioner
##finansiering
elisabeth
norde
tros
kollektivtrafik
dna
finare
fos
##him
trenden
poliser
itu
sebast
bikini
##fc
##cho
brostet
utdrag
hil
##skikt
kampanjen
kanslom
felaktigt
forestallningen
konserter
extrema
##atum
##parlam
diagnost
##tz
##jta
##adens
##rakningen
lidande
kannedom
fastnar
sander
mobel
xl
kraftfull
tankbara
stycke
singles
vardepapper
utbetal
##umpar
glod
texas
cart
handboll
institutioner
biten
##dinge
##eli
##skonferens
stilen
forlangning
overskott
1981
##elius
saldes
##formar
boy
rostar
mineral
vardefulla
studerande
prostata
erbjod
narma
##kyrka
##rep
agnar
tin
##ledaren
jobbiga
##jung
##savgifter
##ious
##alismen
##drift
socialstyrelsen
avsevart
substans
research
ungar
dm
##ungar
kylan
filtr
year
protester
djurgarden
##lott
segr
accept
privatlan
kroatien
konferensen
##medicin
dromma
##adi
##ribu
sud
upplevde
frack
##sallad
lagras
##bryn
##forsaljning
ankomst
svull
anmalt
parallellt
kyss
salong
##amatch
##klassen
uppsagning
sho
faktiska
##rent
fallen
kompakt
merc
varierad
anhorig
##nation
##lasning
engl
provar
landskrona
##kol
staffan
fascinerande
anstallnings
jansson
##tain
trojan
##rr
segel
brittisk
kritiska
radik
##plar
oland
##ygen
tarm
##rafta
smartan
sluts
sangar
omvard
entusi
##skepp
anknytning
mn
foraren
##tral
joseph
namnd
lador
##atser
elevernas
neuro
##hm
designer
indel
1978
kalkyl
##vardering
inr
otrolig
columb
##bolagen
graset
jattemycket
##asar
svaga
##genom
##evin
hariga
versioner
telia
##straning
onsdags
borr
helik
ey
ultra
##slov
smeten
##korning
single
##stren
tisdags
foljs
funktionshinder
forbattrad
##rader
liver
upplaga
##jk
tvinga
blowjob
jamnt
##cykl
##iers
##ws
familjens
bussar
sanda
varandras
bokade
smartphone
##hyll
veckors
sakrare
forvaltningen
##lunda
yes
kastade
grejen
mangsid
utfall
produceras
kalifor
operativ
olyckor
ringen
81
drycker
lampan
bespar
##meh
urban
##banor
ingrid
##hurt
dolj
frekvens
styrs
##ple
ljusare
metal
ai
wars
hamtad
nyanlanda
splitt
escorttjej
##foretagen
ks
billan
wer
uppstod
##lans
hip
lyssnat
discipl
japp
##astning
fortryck
lovade
stiga
pist
countyt
innebord
namnde
lun
simma
mona
airport
##bot
dressyr
nedat
odd
exakta
wilhelm
##kedja
nostal
erhalla
##moss
simul
nodvandigtvis
skrib
kompos
foresla
bollar
smhi
druv
##domstolen
uppfattas
paragraf
tingsratt
publish
forse
farten
##synt
##ortering
vark
1969
fjort
##stest
tyngre
forvaras
##fran
##oid
them
matchar
ignor
##anslut
sopp
omvarlden
##hin
ale
korning
harddisk
administrativa
##departementet
tul
tavlor
skept
betank
blodtryck
patent
##vir
##wall
oskyld
upplosning
trader
##videos
ryt
revision
erov
referenser
track
gdpr
bekraftar
sjalen
galleri
bokforing
##indlar
##smast
scb
gon
seni
##helg
tig
##kondition
ster
utova
jagar
ekv
##adel
trekant
halsosam
startades
##oarer
1200
seminarium
vidta
vitaminer
laddas
ungdomarna
##trafiken
tej
attraktiv
kostnadse
relater
1977
##ofog
techn
ebba
##kunn
alf
hex
havs
##vandring
osyn
##akor
overflod
##intresserade
traffades
##wan
arige
amate
mary
psykiskt
##entre
tamligen
viktigast
font
argentina
tillskott
transf
halvlek
speglar
varmer
mediciner
konvers
##pulver
batteriet
proport
##saret
agnet
zon
avn
hamp
komplexa
##lorna
vamp
##pning
##myndigheten
##ways
tillampa
##elset
tillhorde
domen
ansags
betydelsef
welcome
stationen
effekterna
scenar
##sbran
##ienterna
naturvetenskap
otack
##anien
cry
##34
##sformer
forkylning
##alens
prelimin
county
brant
##inarier
streck
skyddas
dc
regnskogsklimat
##alan
##ftt
sortimentet
##uit
porslin
##kladd
##kvalitet
snusk
medfora
godkann
cele
inflytt
tet
flam
forpackning
##ates
skrik
tina
fuktigt
kravande
polska
kakade
taggar
beloning
halsband
lyder
vietnam
quebec
optimal
hiss
##kategor
##ampar
uttalande
kronofog
nyfikna
##sspelare
trail
##tak
kontaktannons
##card
##yter
mim
strider
escorttjejer
medalj
utlandsk
step
infektion
stere
svea
elektriska
reparation
verksamma
herrar
xbox
lyckat
##orf
pojken
##sey
uteslutande
sattas
##list
##edig
colombia
villiga
##golv
##ikor
cc
1967
##forum
dejtar
utoka
arbetslivet
##ugen
undviker
stretch
##smote
gy
kristall
##arrang
##gilt
##ez
frascht
forsakringar
saljas
##ен
visit
##ningsmet
medverkar
forvara
utmatt
fantasy
sistnamnda
##ummet
nykoping
gustafsson
##stre
iuc
kvarts
mb
##isol
flack
vert
swinger
boreala
##alands
anstalla
##skogen
brosch
cyklade
##kult
forhin
##grunder
fungerat
##olar
horsel
flesh
nagorlunda
namnt
alfred
##kit
##iza
kyrko
tendens
syrran
etablera
##spark
##spapper
sjof
other
pilot
##fylld
##ird
froken
##forsorjning
bitt
positioner
##hc
nyfikenhet
jattet
dods
##yds
miljopartiet
##sskydd
##angt
british
fordom
##iversitet
krona
gnall
kommenterar
skiner
arn
##ipul
salen
##klin
##grav
##ogenhet
fullkomligt
##enheter
skadar
oarna
malat
trender
babe
##ycker
##sprinci
##oro
##beloppet
flitigt
direkta
samlingar
skjuter
umgang
##ionellt
beat
english
sports
##iket
rt
uthall
hotels
forskarna
toy
##tter
qual
asian
slangde
soldat
place
bekrafta
revisor
galna
nyg
valbef
forvantat
toler
##fack
mit
zoo
utslag
kylen
##antar
matare
svagt
likhet
##rostning
trelle
stri
oar
clin
somnar
foreslog
lass
illama
flo
##stader
##fra
inbyggd
tillats
europaparlam
foretagande
pressa
##stenar
sarah
##drat
syntet
wahl
##ative
skiten
##frisk
korn
##shanter
nordisk
##jarvi
jimmy
riksb
trotthet
##umen
chill
easy
##fotograf
styrelseled
doman
ingenjor
anpassat
##anke
adhd
livstid
barbara
svalt
skrivna
pappas
mattan
##garda
omgangar
otto
##tanke
vardel
utsidan
##igande
##gan
vastern
gp
prepar
##forskning
##utrymme
ern
##icks
atervander
letat
##iggande
konsekvenserna
ellen
cou
hero
##elett
##organisationer
tass
lampar
komprom
distribution
strander
skyldigheter
leo
ackumul
adolf
tos
##luft
brown
ya
##altet
ral
kind
leveranser
inakt
ponny
tyckt
utesl
beviljas
klack
stop
##ftet
roka
nanting
barnbarn
##zar
##inos
nyttig
invandring
lapparna
sle
rosor
moa
fattat
##house
linus
langsta
ofrukt
##fix
##64
##modeller
##nov
some
naturreserv
##regel
rf
disken
nordens
gissar
inledande
##fiber
kallaren
exklusiv
morkare
signaler
vera
bohus
pappan
datingsidor
disney
namnas
golden
##hastighet
frans
aran
otrogen
##oment
differ
stimulera
bella
lagade
omfatta
leverantoren
##stitut
skapande
snallt
##denafil
skattem
##hamm
uppdaterade
oce
gudom
kandisar
aber
universum
astrid
sambon
regnar
##grens
##spelen
gis
ration
##isterande
polisens
solidar
redovisa
tilltrade
##nack
toaletten
##hts
finansiera
synen
##sberg
sjukgym
popularaste
iucn
##fore
chesh
sildenafil
##napp
axlar
uttrycket
bitter
smabarn
gross
##straff
070
##vakten
smakade
klockor
melodifestivalen
fotot
radgivare
forbjudet
##arium
rorde
uppnatt
##flodet
##iskor
drop
##inkt
##saken
registrerar
anvisningar
##forman
kva
granny
goa
densamma
resulterar
##organisationen
coolt
##stjarna
biologiska
geograf
studenterna
bust
hanvisar
##icitet
##farden
ansokningar
angrar
storningar
##olit
landstings
##present
slaktingar
##utik
skalen
elektr
manifest
ego
tingsratten
rakenskap
swedbank
spenderat
manchester
veterin
begravning
upptagen
##ierat
usd
utk
linkopings
##cion
prenumerera
medlems
arbetstagare
biografi
bosatta
onodiga
##modell
##ampen
##yttan
halvan
judar
stold
age
##hemmet
##nick
visningar
oljan
traditioner
emp
uppsattning
forluster
konstnaren
##endo
##mojligheter
hemska
##berattelse
maltider
liggande
syre
uttrycker
utlaningsprodukter
kapell
want
##bang
gotalands
sasonger
strategiska
skald
samlades
tusan
tupp
receptionen
flexibilitet
cheshmeh
leveran
sprungit
unionen
befintlig
nulaget
##namnd
muff
sommart
innehallsfor
evigt
tillampning
##altar
avslutad
klanningen
obekv
obegrans
vagrade
koncentration
pedagogisk
marktes
prioritera
katolska
##forbud
##uma
tidens
ikapp
##forare
##sbid
ulrika
kaffet
##jalp
imper
##ology
##skaffa
##husen
##sburg
stoder
utebl
hook
##artan
gyllene
motsatt
bevisa
malsattning
riktade
redogor
paminna
vanstra
##aki
imorrn
bolan
1945
inspireras
##ripa
prisvarda
arenan
utbildade
boss
##vern
nufor
etiketter
##annat
flaskor
creampie
avklar
karolinska
cu
##arin
conne
##ktis
lay
kombinationen
fucking
##attack
realt
##ense
kantonen
##fonden
snackar
##row
huddinge
notter
lanserades
stabilt
brinnande
##perspektiv
law
tillbringa
gladjen
##iche
seo
##iop
bru
##unes
kommunstyrelsens
aaa
horlur
##kusten
fonden
##huvudstaden
flat
husk
grundare
tomater
monica
ofruktbar
stoppar
##parten
arne
resmal
##namndens
##arakt
##rest
##dotter
hug
nek
stolen
inlaggen
##spersonal
tysta
sto
pah
##artiklar
efterratt
forste
friidrott
hylla
##adda
maskerad
forg
effektivare
ringar
mort
##tavling
hejda
sittande
##jorta
soph
presenterades
fordelning
dvarg
##slosningar
skolorna
msek
therese
##skontoret
snap
passagerare
andliga
janne
##nivan
##pend
havd
image
kd
##95
skrot
polar
skyltar
torp
##uttag
##strakt
##ljud
luftkondition
utformad
almed
arhund
frals
migran
infordes
papr
##olia
##styrning
##sparken
solsken
fastighetsagare
##korn
nufortiden
naturvards
##butiken
snow
sofie
##artor
##runda
tillvaron
vetenskaplig
oon
gatu
trakasserier
typisk
mottagare
utrustade
##vanor
kryddor
tf
gammel
overraskande
drabbar
hk
##karl
right
##here
anlit
##alven
forbran
hagen
pulver
##minen
packade
##dokument
ross
halsan
##akers
jamlik
hittades
##sperspektiv
hotellrum
tagna
ruta
flyter
judiska
ultim
cola
rann
sony
##vags
##arts
frik
planerna
##sbehandling
##brygg
1962
miljob
avbrott
##goring
arbetsmilj
##smass
smooth
webbsidor
##ups
principen
bubbel
statlig
angelagen
ist
mens
hansson
kanalen
##rorelse
vettigt
borgerliga
enskilde
marina
sebastian
##esultat
smed
facil
jattefin
silikon
harig
kopman
shorts
folks
init
##nara
efternamn
##ientering
gult
landade
##sljus
muslimska
spenderade
##fargade
##hot
point
lee
diar
atskill
saknat
ank
##vare
temperat
benet
havre
##sjuka
kravde
bangkok
##post
fortare
amateur
##bella
##king
pern
satell
##sdotter
cho
##xamen
##lagd
lom
##ervice
utlandet
hagg
##66
proced
uppmanar
nyheten
ledighet
bertil
motes
giv
utvecklades
avslutat
gjut
kafe
vra
hap
likvid
##sforbundet
kompletta
utnyttjas
gardagen
salts
creme
puls
blommorna
bortt
##ssyn
erg
motorcykel
kukar
putt
graviditeten
iaktt
upprikt
trangt
##hett
nit
bass
dugg
passera
##ifte
erbjudas
kretsar
skrid
##olan
##able
sala
##ickan
song
felet
rosten
kalifornien
##umat
##ming
trost
tkr
##skivor
##install
tjeckien
##icer
felaktiga
forblir
teckning
uppskattas
makeup
grannen
##ussen
uppmuntra
brygger
fadern
utskick
##pati
beta
trollhattan
kraften
guy
uppnas
lasta
forandringen
avstandet
producerat
benamn
trappan
agneta
##larare
promenera
saff
kontrollerar
listar
rimlig
hojden
##centralen
rasmus
##utvecklare
behaller
##smassa
tipsar
sollentuna
standig
reproduc
inteck
overlam
sved
karna
kottfar
akademiska
tillvaxten
skylla
##emin
angrepp
##urne
##rafiken
folkhog
regelverk
plank
kostym
style
##skot
##gare
quick
filosofi
druckit
representerade
prover
carina
##forbrukning
##haha
trim
equ
hamtas
kulturer
foregang
marknadens
freesp
##akningen
exot
rekommenderade
olyckan
##sporter
##icus
bytas
exponering
kopiera
knullad
##phy
tugg
tonars
##arklass
##ffarer
knyta
pannan
##agningen
absor
kameror
tradgards
glim
moster
##spot
sb
atervande
##mun
bob
hetaste
nyare
ultral
##dos
onskad
tripad
olivolja
yngsta
##agasin
minoritet
framtradande
fakult
visades
sura
1964
restr
##vardigt
applikationer
inblick
monte
ou
vaknat
garderoben
anat
blackjack
hunger
norrtalje
klist
nasa
systematiskt
gent
medeltida
minister
doll
##brun
##kontoret
konstverk
hangt
bart
lilje
##mets
framsidan
##storlek
skolj
##ombud
agent
##vinkel
##inet
fikade
professionellt
tillvaro
lovande
lindgren
overblick
behorig
djav
##mys
siffra
##utskott
hantverkare
vansinn
##obi
product
##emo
hemmal
##oarna
banor
kreditbetyg
klump
detaljerna
joel
sakerstaller
teorier
ult
##alafil
stadigt
staderna
plockat
shir
agarna
noja
##vitt
landar
frivilligt
sparade
##urgi
##avtalet
ovar
aterkomma
webbkamera
##ovic
##familjer
##sbehov
elsa
upprepade
##olas
regleras
##my
osakra
pea
services
slutsatsen
##slandet
##sbrott
friends
gymnasium
samarbetspartners
klattra
mut
smalta
frysen
upplands
runka
soner
kliver
forfrag
innehav
uppdrags
##sspar
##hon
marocko
##cul
genomtankt
##forandringar
formaner
##lighetens
menas
eftertrad
grova
malning
bidrog
erotic
jattel
##glada
forbereder
fager
community
tab
grymma
fotografier
1965
forflutna
levnad
165
arsen
regelbunden
omgangen
tillverkat
##si
coola
##bev
arsskiftet
##ext
dumma
##hub
tadalafil
byggda
##ky
##studier
insekter
bygget
##agn
langvarig
valpar
grundade
betyget
##rine
dryga
##ania
haver
hassle
tecknade
tjat
##phones
##war
handledning
beredda
aqu
##olidering
betalade
handledare
yrken
hogtalare
tranas
jesu
hipp
myster
sektorn
propag
kortsikt
falkenberg
##atoriska
vardefull
smas
rulle
fragat
##ojda
havda
tripadvisor
antibiotika
mosk
fordons
listor
forsvaret
##imp
grin
republiken
amerika
##ention
##grunden
frekv
##fukt
nisch
dil
##bos
praglas
bacon
sladd
##marker
napp
dofter
feel
avbryt
kosttill
##ecken
vastervik
diplom
hind
fallit
sola
laror
bestallningar
slem
##scy
##uffor
auktion
##match
##promenad
objektiv
dark
branden
inrikes
generella
ribb
ultimata
##app
inger
chili
ligan
##forsok
divisionen
utses
sallskapet
vrid
faste
distribu
behar
academ
apelsin
konserten
msn
andan
efterfoljande
arbetss
psykologi
##44
##etisk
bestams
insatsen
##organ
##intyg
caroline
marginal
##olycka
sjoar
kombineras
ericsson
##fond
cel
tavlade
dolja
##ostern
##registret
misshandel
plattan
finan
vred
planerad
evighet
hair
investerare
byt
biog
uppskattad
margareta
forordningen
krono
synonym
##ymbol
450
stadgar
synliga
##ui
##count
desperat
vinnande
installd
lillasyster
##spo
pock
##entrepren
hacka
kamrat
testet
##spunkten
rasism
besokarna
snus
fatol
jurist
ryn
knullkontakt
foreskriv
##ikerna
krom
nal
registrerat
backa
##85
tillbringade
pensionarer
seder
lonen
rally
godkanna
##odling
fost
quest
hudik
krydda
##chatt
##well
bostadslan
sydafrika
##interv
das
##radande
smula
dokt
skarpt
kakan
styrkor
husets
pinsamt
skagg
##sche
seminarier
berakning
snett
##sklipp
hassel
ljusstyrka
mansklig
##ekon
##field
uppratta
##adar
butikerna
auktoriserad
landa
##elig
aringar
hemsk
interra
arsaldern
##fartyg
sjalvklara
bjuds
##sfon
gem
orkester
matilda
vasby
opposition
bestamd
gin
omslag
##iction
osakerhet
operationen
eh
avlid
##ilen
deltid
vaningar
##ali
branna
##vanligt
##blank
##loshet
precision
##fu
weekend
skadliga
frivillig
akademi
patienterna
##tit
egentliga
print
zlat
javas
anmaler
##adan
radande
forov
innebandy
donald
lekar
jordbruks
lem
planeringen
bn
##rap
samarbeten
paborjas
given
fars
tidpunkten
kvick
claes
turer
##sval
##vol
doc
1952
##festen
genomforde
starkaste
formularet
stans
##slande
##kropp
kommunic
gunilla
existens
raddningstjansten
spels
stadium
avkopp
grundskola
jane
forplikt
detaljerad
framling
kvartal
vagled
##eliga
sammantaget
frysa
delstats
isar
kapa
lab
namnen
tvist
stallningar
offert
washington
bristen
kogn
aningen
motivera
177
polyester
medelalder
kulturell
valbefinnande
##oooo
##ashion
##glasogon
knappa
##forklar
aer
betrakta
##utet
sperma
##px
valen
godaste
sorgligt
cru
kompletterande
##falla
racing
lrf
skaffat
boob
foran
##skalla
bankerna
glidmedel
organisera
##ssas
##junktur
milfs
piano
budgeten
insyn
##ofta
skadan
gatorna
lagligt
hemlig
gynn
forestallning
grundskolan
forlossningen
kink
fastnat
inhem
orm
nato
##arkvall
ostersjon
meningar
reflektera
justering
##losningar
rapportering
genomgaende
kategoriserar
pala
avgrans
##sty
akuta
sanker
##nia
manuellt
langtat
budd
##ders
sos
##unden
lir
##market
landslaget
grater
anlande
surfplatta
skatten
rolf
slicka
spenderar
gradda
##amoter
kalorier
barer
solned
entreprenad
pink
strids
varar
##garanti
stravan
arme
##fonster
##fy
faststalla
reagera
hamburgare
fut
entreprenorer
mordet
langsiktig
##assist
kot
genombrott
##sinformation
klagar
applen
riskera
##uvar
##bris
forkyld
staket
paminnelse
##orm
##farger
gymnastik
skriftlig
tiger
lindberg
forskolor
jaa
kuddar
blommar
##servering
fej
susanne
sensuell
skuggan
valma
hindr
bullar
fiska
nagel
nystart
atkomst
bokslut
djung
svampar
sammantrade
##bestamm
##rens
forratt
stater
spana
uppslag
##slen
fodelse
##fari
##gers
##sanalys
jour
skede
##operat
jones
cyber
jogg
axeln
##linje
stoter
blocket
uppfattar
forumet
1966
riskerna
company
javascript
jim
##eo
bibel
##utbildade
ambulans
intervjun
##skilj
besvara
##tig
fullstandiga
landsbygd
folkhals
scott
yoghurt
raff
##inte
tort
ugg
dagtid
kb
##stamman
tyget
argumenter
teatern
healt
fylls
cover
rekommendation
##antorer
uthyrning
villor
tackt
stom
afrikanska
##idig
agerande
dansade
ef
##gardar
ungern
##anlaggningar
isolering
ores
galden
##krav
registreras
rakat
##kladda
##aktigt
jennifer
bolagen
fetisch
forsakrade
avslutande
##dad
##gad
##bevis
##fodda
ft
jull
midnatt
otillrack
tunt
##itiv
##bunden
##olv
praxis
formagor
inlar
tval
##pers
dance
dodsfall
cirkus
ios
cand
optimalt
reglering
handlaggare
blaste
oversv
deut
mygg
##stadning
tidnings
##museum
##filter
lektionen
rub
intra
ungarna
forlanga
paverkat
tillvara
smaforetag
forvandlas
applicera
vibrator
##idare
##version
##unionen
liverpool
##styp
##tjanster
oste
when
numer
budskapet
lofven
ora
minimera
finsk
motala
civila
separata
freespins
tillkann
##usal
pitt
tinder
illamaende
jorgen
##gre
styrket
odmjuk
east
##bladig
gravida
uppstatt
ranking
homosexuell
##gjordes
lc
##buss
audi
heltack
produktions
mojliggora
verkan
rumpan
forelasare
##less
merit
fish
lss
unna
forvantan
##fargad
##upplevelsen
kastrull
##oba
sands
##iago
tavlings
koncentrera
ogonbryn
fullmaktige
medverkade
soppa
##alistiskt
hydro
spruta
##gnos
energis
krogen
underlaget
##inga
fotade
decennier
lagstiftningen
tillgodose
forverkliga
##wi
romanen
radhus
1939
omtyck
ornskold
##oy
##udden
langtid
konkurrensen
##umret
mellanostern
gratul
livskval
tvattmaskin
oforand
##nord
##sledande
##esome
beaktas
rattighet
internt
##sbacka
##skrig
amazon
lagts
analog
tandvard
inleder
##lappar
intensiva
planbok
kanin
##horningar
interracial
forhor
forstarka
annans
hjalpsam
blickar
##even
meller
otaliga
##edin
passerade
lucia
##86
studierna
forvantade
flexibla
resande
balsam
stapeln
glam
itunes
pizz
grenar
##utslapp
##strategi
sjalvklarhet
##matning
dial
magiskt
brid
brattom
##alle
##seg
##stral
maur
queen
##ра
annonsera
random
snabbaste
##vuxen
##beslut
dax
campus
tackade
##bbar
grilla
bosnien
##agarens
##okande
lockande
elef
##ason
bakifran
##aliseringen
mardrom
skugga
foundation
##ligheterna
kub
##room
dagg
livskraft
stug
bulgar
aterhamtning
signifik
ansoknings
olov
siffran
##kunskap
vardnadshavare
peka
slas
sit
beteenden
sfs
pontus
gamle
##badd
dagbok
champions
frukter
skrika
teorin
##ekyl
rimliga
##vsjo
##bjudanden
skogsbruk
ornskoldsvik
mattnad
etikett
##elagen
utvand
friskt
lidingo
hets
konfigur
grim
likval
charlie
tjuv
##rets
musklerna
lackra
##skalen
##verkar
rattvist
##regn
##ikar
##betet
teknologi
##rediter
ryttare
##bben
beslot
anstrangning
segrar
sundby
syndrom
##opsis
##bien
olik
cylin
bortsett
genre
fasen
php
##redaktor
##landska
ali
##funktioner
farlig
rorels
fried
informerar
##ply
##etent
antyder
thailandska
standiga
socialtjanst
sakrade
salta
tapeter
##vida
hjalpen
##ato
forebild
blaa
kista
flaskan
##ude
##usse
they
rgb
djupet
miljard
kampade
volont
borsen
##dis
oden
rullade
gavor
##grona
domaren
styl
riva
mentalt
tandlakare
kosttillskott
berakna
##ame
hosta
utgangen
dre
uppehallstillstand
chelse
skulden
agenda
uppdaterar
1910
undersoker
##dejt
forsakra
ups
skaldjur
komplicerat
ulla
utmed
skriftligt
kunnig
1961
##36
borgenarer
gladjande
##ikas
##media
besvikelse
##gering
skype
grupperna
kvinno
mannisko
##vaxling
abra
anka
##odor
marian
forklaras
pavag
beter
nicklas
##sfakt
varva
figurer
firas
##tecken
korrekta
angra
lise
bergman
orim
agil
destination
genomskin
telefonsamtal
sjukskoterskor
bakade
true
mottagaren
##sbegrans
copyr
avsta
##sbordet
dubbels
105
elias
take
parlamentet
foraldral
##satts
frisor
##girl
canc
##musk
automatis
stangde
##utskottet
forfogande
did
##spresent
vardagliga
1963
arsredovisning
retor
avkopplande
medfoljer
bildade
ingrepp
sned
krasch
regim
overstiger
spred
##donald
magisk
dorrarna
##ital
ramar
kopplar
tell
##ifikation
drabbades
##anan
##ody
##samhallet
parlor
korsbar
##biljetter
allihopa
helgens
gangvag
direktor
juice
##smuse
##aterialet
registrerad
made
acc
chris
svans
chicago
avstang
talan
vata
tony
karaktaren
urvalet
##eknik
thr
boenden
omses
pryd
##ingsas
hoppats
##slor
incl
avvatt
##visande
superbra
##innehall
jamte
##smetoder
##bestall
##gener
##partner
beskedet
atmosfaren
godnatt
forar
ansluter
comment
##rutan
stovlar
fashion
##ningsomraden
ded
klor
##politiken
modellerna
transaktion
tummen
##etr
turneringen
##slager
##oar
help
##vidd
##ume
##inda
centerpartiet
##nt
pub
kollektion
lokalerna
utsett
eskortt
230
tjansterna
tyger
##manad
klapp
glitter
elf
valmaende
glaset
torkar
harj
##andets
hoppet
##oken
##pase
240
mixa
##ining
##overv
resort
medvetenhet
medborgarna
tjus
##dec
formedlar
viljan
fitness
proff
glitt
##odd
motas
officer
truppen
delstatshuvudstaden
bryssel
vasternorr
lofte
##cyklar
grabbarna
forsiktighet
hyllan
##filer
lg
albin
omvardnad
programmering
##ammer
multip
forsakrings
belastning
barna
rykt
utlov
avgang
##boda
##frist
fp
##givna
hejsan
carolina
##tech
misstankta
##eep
maxi
forfor
anvandbara
varpa
lattillgang
1918
funktionshin
db
portion
##eby
##skoll
iofs
schamp
jpg
atel
publicerar
##synta
fisket
isak
##folk
sco
bjods
##arenden
naval
##illstand
rullstol
attity
hyster
mineraler
cher
gomma
skotte
socialtjansten
ersattnings
##kalas
rorlighet
##floden
ateranvand
##latande
analysen
harad
sammantrades
kevin
kritiken
##narna
inbyggda
underhalla
sparat
rabb
self
sture
##100
model
##alk
brow
hjartans
radets
rakor
aktieagare
innehallsforteckning
bryn
oljor
skogar
ideella
kandidater
skyldiga
##udier
##die
genomgatt
certifierad
paborja
##hack
onskel
doms
##kompis
##sfunkt
##stillfallen
##urell
##processen
placerar
juryn
obligatoriskt
##skul
fleshlight
##forsakringar
reading
##atin
##samhall
##bredd
philip
utformade
studion
aterstalla
sti
##fect
tillatna
svets
signatur
foreslagna
utflykter
pierre
experimenter
##krafter
##aliserade
joss
gil
johnson
dansar
sande
meters
##roppar
santiago
laroplan
##spolitiken
jubileum
bing
lp
pell
juridik
renovera
##iant
##anism
##natet
inkludera
redovisar
juridisk
pelle
##issionen
##deringen
hanvisning
##din
upprepa
allergi
##hamster
tillval
##smot
programledare
ava
220
guiden
distr
minimal
##hz
laddat
##rim
underliggande
fattigdom
jackpott
bekostnad
pape
termer
monet
country
ay
1958
##rec
gubben
fibr
hembygd
##sbi
liban
##skoterska
erkanner
snapp
romantiska
surt
formel
overlevnad
##ryl
ingredienserna
lonsamhet
##manlands
stadsdelen
inspekt
copyright
satsningen
rontgen
kraftfulla
mentor
temp
gung
svalna
##skatten
vanja
bmw
blandningen
utfar
tryckte
oroliga
akvar
kompress
##rekord
hahah
migrationsverket
rykten
##foreningar
sporten
##kultur
petra
gynnar
##sersattning
costa
nora
inlam
##invest
tillgangen
tub
ifragasatta
##gud
skrivas
##empel
forhallandevis
chan
mannens
successivt
fetish
europeisk
sweet
boden
spy
uppfin
skattef
assistent
mattor
karriaren
kombinerat
tits
arstid
1944
inskran
##festival
locket
strukturer
hemlag
hjalmar
kis
beslag
kontrolleras
lotter
periodiskt
biltillverk
aktor
uttalanden
##point
agnes
kanadens
skak
##skontrakt
kristd
litar
gir
##plast
sektion
apparater
markliga
##atra
##skamrater
kallelse
terapi
anordnar
garaget
potter
inspirerade
protokollet
##38
anslutna
institution
turism
##ards
skadat
skl
besiktning
stolthet
kolum
times
##ippi
reservdelar
rike
ernst
##emark
expansion
##varv
ledsagare
snyggare
uppfost
stegen
1917
brunt
bollnas
chip
smalter
##head
pernilla
alb
latest
barrskog
ungefarlig
##undervisning
trappa
framjar
##slutning
rattare
sattes
foot
patri
columbia
oskarshamn
sallsynt
svarighet
opinion
manskligheten
syntes
pornografiska
smet
ds
secur
demokratin
##ttid
obligatoriska
krisen
1956
veron
skjorta
timmarna
indisk
##pin
tight
tata
manen
aterfukt
verksamhetens
anvandbar
kompetensutveckling
gangavstand
##ellack
##eraturen
berodde
onlinek
##monster
##usalem
salv
strommen
##angest
slos
vannerna
bekampa
flyget
oversatta
blues
olamp
pyssla
talen
flickorna
varifran
sasongens
##terings
influen
sparen
hoft
##savtalet
anpassning
##gel
stjarnan
valbehov
dk
ronn
gadd
##ptop
anpassar
valjare
ridning
vagnar
stadsdel
varn
arrangor
##eringarna
lyfte
atervinning
##potatis
##ituationer
flytten
##flix
aster
##flickor
varens
##orren
mind
slam
ergonom
moped
blasa
otur
helen
western
trosk
ersattningen
bf
knat
pom
prester
utvecklad
kabul
##ommun
avbok
##splanering
avsak
intet
scandinav
dikter
fordjupa
porrstjarnor
jattero
personnummer
##asson
##oto
vegetari
kartong
uppfordes
zomb
##farenhet
##udi
antis
huv
alingsas
onlinespel
radion
sjutton
fight
##hord
hydra
deprim
##allar
jerusalem
hsl
spo
samspel
restrikt
granserna
motsatsen
1948
redaktor
yn
adresser
balansen
forhandlingar
trea
forfattarna
sprids
samlad
forbunds
##jorer
elden
##forbundets
##arkiv
sekel
styv
##rice
##can
spetsen
##32
friskvard
helgerna
koping
author
aur
harnos
gm
kvarstar
bekvamligheter
##ifa
tales
tecknad
##sykiat
framstar
trelleborg
lastbilar
##nant
##lador
skjort
flodar
anvandandet
##riper
tranaren
halsning
upphand
fester
fordelas
busty
heart
skritt
territor
tolkas
ursa
##spaket
premiaren
realtid
##tabelt
##но
##sfordelning
gabriel
sjalvstandighet
samfund
ub
utskrift
##unchen
halsningar
huvudman
##produktionen
models
##flyn
##berry
forbannad
sushi
alternativen
##infekt
uppskattning
visp
kartlaggning
avverk
otroliga
sangare
punk
klippt
kikade
##stationer
1957
snabbast
##rull
utvecklare
##itution
laros
fraser
kang
##polis
tillit
laur
vittnes
174
##smyndigheten
##37
subtrop
kritiker
ojam
##godis
fundament
##gymnas
anse
kanter
popp
brook
##rand
fia
gota
snurrar
frim
##hylla
tilltrad
tarna
##sattnings
partiets
prostituerade
##kligen
zlatan
##alag
corp
bengtsson
lyckan
madrass
##brytare
overlamn
drak
##sprakiga
sexualitet
persons
vida
1938
lyxigt
nuru
haf
digitalisering
jok
##ente
lasas
##raget
##ami
titan
cookie
##ctive
asylsokande
gedigen
clos
examin
klippte
naglarna
barbar
filipp
##fallande
forberedelser
manipul
smartphones
bars
tork
ledaren
fox
##цr
##ningsforetag
vaglangd
medelaldern
rosterna
##relaterade
##reglerna
tranny
kungsbacka
skynd
vika
forod
vassa
varmvatten
nattflyn
##saktiviteter
omhander
broms
rattigheterna
##ranta
tycke
synnerligen
kvarteret
##visade
valid
##universitet
gardiner
puts
ovantade
cp
fabriken
##asp
valjs
rig
##forpack
atgarda
mojligtvis
verkstallande
##iknande
ontar
heldag
kronan
ovanliga
insulin
##spriset
flode
##shantering
skiter
vegan
kliniska
##vallen
rikta
##ettan
ontario
besoks
utredningar
dokumentet
orient
enklast
kret
oppning
##desig
utseendet
generera
inde
kle
andam
kriminella
##stag
##stallas
skottland
bilens
varuk
ojamn
florida
drinkar
##mont
arrond
veckas
luci
bisex
ultraljud
lutar
reform
anmalda
##skoga
mellanmal
temperaturer
vandrarhem
750
##srel
##88
hane
arbetsdagar
##andning
##ammas
lanserar
molly
arrangera
##athan
ifragasatt
arrondiss
johnny
##usik
##ledningen
forts
##adder
p4
anlander
otrohet
omega
relax
dylikt
champion
##sbidrag
##vardiga
##admin
papekar
##andringar
forsvarar
##utover
fordela
vetenskapligt
##rester
shl
mottagning
vikar
uppdaterat
sannolikheten
medverkande
marknadsfora
begransas
dogg
##ques
karaktarerna
##iek
dominerande
bluff
##grat
##mjolk
##bjudande
duger
##derades
brack
ringt
korg
vaner
elektrisk
lydnad
klur
invigdes
jackpot
##stars
jagare
oversyn
kinder
wolf
xhamster
valkomnande
##stammar
sammansattning
##kapital
skild
stygg
##verkstad
bjudit
##sbor
lanets
strategiskt
jattest
side
##fyllt
##hamta
##ovar
##starka
moskva
blo
bakgrunds
##galler
##recept
##sjukdom
spindelart
fordro
korten
samst
universitets
##eus
bedomningar
uppkopplad
kopplad
##status
kopas
##ized
olycksfall
handlare
##ktligen
tayl
leksand
##smo
skillnaderna
heja
##torp
kollekt
begransning
pojkarna
1914
brasilia
##forsakringen
##orry
quality
hudiksvall
##plet
##partiets
maklar
##aser
slutliga
##isont
truck
skapad
aptit
##onda
skaka
delades
##fika
smoret
lura
fikt
volk
hotar
handlaggning
befolkningsutveckling
pappret
geografiska
etapp
mottagande
##ningsman
##ningstid
brygga
##festivalen
salda
okningen
permal
mp3
tilldelas
foref
miljopa
enkoping
indikerar
genomforandet
ansluten
kloka
befinna
##varn
nycklar
##shast
kompati
kalendern
kejsar
rattfard
onskas
##ved
ein
##niska
##55
avdel
friheten
##iki
tavlan
lovisa
very
tillstandet
cupen
kf
bie
framkom
##vention
tvingade
annie
instruktion
herc
generos
uttryckt
forhindrar
egypt
atanke
bebisen
badade
utel
papeka
##hed
provas
konstnarliga
samlingen
mare
##oria
##jarnen
aktiviteten
upptacktes
tacos
konung
cyklister
aterga
##hant
segt
kulor
##upplevelser
##boj
litter
##ving
prenumeration
##bric
bluet
samverkans
projektets
reformer
legendar
stallningst
##ful
##litteratur
tempot
##pig
overfora
joe
slogs
alskare
moderat
tvingar
sjonk
##issbruk
certifierade
spanningen
jattefint
konsekvent
nok
##col
agt
alexandra
laxor
krigs
oversta
hybrid
milan
##ido
dildos
uppkommer
meddelas
transfer
##tagit
excel
kritiskt
nackdel
##blast
chelsea
##slista
##agaz
netent
medeltiden
##rix
tvattar
snyggaste
lucas
##skunskap
epis
collection
bebyggelse
sans
grundar
generosa
fritidshem
attrah
1959
##ogra
##ovet
nynas
mcdonald
bly
sate
skynda
##index
two
utkik
grafisk
vaxla
tolkar
whisky
vl
brok
anteckningar
utformas
utbrott
##ornet
medarbetarna
volt
dialekt
oct
##listor
##39
varvet
spelets
pastaenden
##rist
network
stjal
okom
##cont
##elos
##burit
##strump
bestammelsen
reddit
religios
likadan
##miar
klinisk
pand
glaci
glogg
invanarna
cust
miljontals
bagage
beskrev
pluggar
##liknande
##edalen
jonathan
tveksam
kikar
forfolj
omed
cougar
##hjartbladig
##element
robust
inspelning
ideell
pressen
##firma
##edal
phone
##revlig
estland
lagra
naturreservat
skattes
kungalv
kwh
avdelningar
sald
##otes
1400
##uda
fryser
placeringar
sou
kompletteras
forberedd
umgange
##befolk
gruppens
##sstor
##plo
timmer
hakt
##papp
injekt
keramik
scout
##ер
fargade
##skridande
utsags
kostnadseffektiv
upplevs
kloster
cens
wc
tradet
teoretiska
immunforsvar
##leder
spontant
dev
programmen
certifiering
ifraga
##istans
nyhets
##200
lugnet
hemmagjord
nitt
##backa
##benhol
studerat
forete
utdel
grunderna
kvaliten
julgran
adidas
onekligen
rada
aterkall
##strid
##emellan
##ible
globen
##frest
kunders
erkannande
matten
filma
##kortet
fackliga
frivilliga
##uka
ingenstans
pov
fossil
tjur
nyin
kampat
##mjol
katrine
##pter
energieffektiv
fakturor
manatliga
losas
korrid
dold
medfoljande
sjalvkansla
ackligt
miljopaverkan
##ffen
tempel
befal
boxen
ryd
##ysst
pron
vital
regul
atskilliga
utsokt
elvis
primara
##hangare
behaglig
netflix
integrerad
anfor
chalmers
proposition
##ruppen
##forfattare
vanligast
1912
peak
e4
##uman
inflammation
uppstroms
p1
##put
slutgilt
nyaste
spelverksamhet
nig
slatt
sallsynta
tvars
##dejta
##shistoria
##klagar
##ojt
woman
hotellets
vasen
##cat
##67
utgjorde
town
arrondissementet
##usentals
texterna
##vita
lanat
malta
lida
herman
stangd
sadel
dennis
onanerar
zen
evolution
##omsorgen
diskuterade
nanstans
##verker
osann
frolunda
anor
beskrivningen
artion
fartyget
kvantitet
vardegrund
fantasin
impro
patraff
svampart
skrifter
family
mature
##uropa
certifikat
klyft
msk
astronom
##restaur
forsakringsbolag
slickar
amster
##kir
omojlig
snackade
psal
core
mogel
##sbyn
berakningar
agnat
valling
bluetooth
##skrivare
lives
cond
tillverkaren
pasar
##kningar
konkurrenter
oppnades
inledningsvis
angelholm
chi
fakturan
1936
main
zeeland
stigande
siste
foljaktligen
##also
kli
narmade
##oser
fortviv
torkt
1947
domdes
ilska
jatten
investerar
traditionen
hogskol
stimulerande
##ningsbara
revolutionen
##cil
##politiska
bris
strip
grekisk
rusk
brilj
1941
villig
gubbe
kirurg
##ostnader
stangs
1955
ole
raw
subtropiskt
1951
sluttar
photoshop
##lampor
falsk
ngn
strava
##formagan
##avagen
hier
designad
jackan
samtida
baksida
fornyelse
marklig
korset
marten
bita
##rapporten
amsterdam
##medvet
sokmotor
eleganta
helheten
fargton
need
avslag
##utred
nylon
silv
packat
podcast
anmarknings
prestera
befatt
anordnas
specialister
##sknings
karlskoga
vasterbottens
antioxid
##nd
bors
undersokt
bindande
fortroendet
brevet
##rosa
motorer
kungar
irrit
hastigheten
tyreso
raknade
##slet
ted
nagellack
upplagan
##ffaren
veteran
paborjade
abort
##formedling
##blommor
##ologer
continue
deal
than
##ught
julbord
##baserat
kommunikations
nyttiga
##instrument
felix
utbyggnad
nint
deltav
##bloggen
ensamkommande
##garn
##fint
##ologen
kinesisk
dispon
##ores
generationen
oforuts
##prote
##somhelst
kontinuerlig
##shuvud
##89
kommentarerna
hjort
vattens
krog
district
premie
##stamning
##stjarnan
km²
dov
their
##enterade
snurra
##ay
femtio
vov
state
orsakade
asfalt
##master
spet
##overforing
oralsex
skrivare
nordea
##komna
abstrakt
##firm
##rys
##ury
sap
forklaringar
kristine
detaljerade
pent
orat
berus
##chel
union
##kred
baj
##oriter
klassrummet
pun
kronofogden
jocke
buffe
friend
varnamo
svarmor
tararna
skanes
##miljon
arbetsgivar
pafrest
##luck
gle
inkass
##meddelanden
fluff
##rie
##nivaer
vindr
##smodell
vaxlar
##rium
1946
sandviken
##yx
harmed
arens
dromt
tvn
parla
##plattan
##utta
##iii
##amt
##stips
inneburit
##hat
oser
etiska
pahitt
andrats
langivaren
delad
halsing
streaming
morgan
abraham
beman
blota
dammsug
datumet
forpackningen
glo
paborjat
rapporterade
1954
forsor
##endes
formogenhet
fjad
kvalificerade
##spromen
twe
##stom
##positionen
avlagsna
andetag
##itiva
viset
cykling
utrustningen
socialnamnden
##agatan
alster
##foraldrar
##assen
streama
skv
##anth
medelhavet
##ianska
tyckas
radera
fargglada
handlingsplan
schack
fjard
svard
##plagg
reglerar
brodet
toa
forpackningar
parl
clo
kennet
##gron
##order
##bollar
riksdagsled
massvis
##rena
knyt
space
hoppades
##ileg
revisions
##ligan
rattsliga
okomplic
formula
##ty
##itas
tors
gry
##bia
livmo
layout
skruva
farga
##egas
forval
drojer
##slage
definieras
orsakerna
hong
pornhub
praster
115
##spen
kompeten
mentala
##alin
workshops
agnade
rabattkoder
hjalm
kustklimat
obehagligt
kalv
##linge
ronne
besitter
vagde
reproducerande
##strukturen
medelalders
bokens
##kameror
konferenser
##ellen
short
fk
1937
ensamhet
avbryta
1949
avgors
##egu
masterskap
##sledning
forlossning
dottrar
##issen
darutover
framre
logiskt
matningar
header
##arth
doftar
##fflor
botan
palitlig
piss
sudd
filmens
ella
##peppar
illeg
##uble
##sbro
pagick
skams
rymden
uppenbara
infall
avsett
provincia
exklusivt
funktionshindrade
etablerat
lyxig
hytt
spontan
stromm
motsatta
##ampanj
tillika
lopar
##artade
##intill
journalisten
mobiltelefoner
depp
oandligt
ointress
chass
kristi
kajsa
antogs
boter
stadig
overk
efterlev
autent
exemplet
##ornas
forfarande
placerat
helikopter
sif
byggar
forstarkning
riktad
patientens
huvudkontor
droppar
sjalvt
##laden
utrymmet
planboken
obama
sydkorea
wales
##stads
##ults
spack
barnvakt
ober
fd
spam
##verken
sanden
blandad
bearbetning
##grim
massiv
malare
##igan
stabila
yrk
##sfast
kanterna
vannen
##slip
stul
##agerar
stamm
1953
paprika
##fess
sliten
##seln
utmanar
ljungby
operator
job
fastna
kontraktet
hemmalaget
jet
foretagens
justeras
##kyrkan
sexkontakt
viol
hava
bokmark
kokt
##alus
##fro
kopior
vardar
moon
vasentliga
overlagsen
varelser
playstation
except
##aliseras
intrade
bandy
##وه
##skede
control
statistiska
##sfulla
klamma
inleda
soderhamn
styrkan
blankett
soja
turnering
tacket
stekt
md
spegeln
beauty
morgondagens
finish
upptrader
lift
gangna
hugg
konsulter
upprord
sydney
fullgora
169
meditation
france
vulkan
heltackande
jamforas
godare
atgarden
##urella
##atorerna
officiell
infektioner
sinnes
##slas
idrotten
##sjukdomar
##drakt
piggare
##amo
olagligt
israels
insta
amar
pocket
##yser
##mastaren
forvanande
dragkedja
foga
##lines
arrangerade
undertecknad
farbror
datas
lyn
energim
osannol
satan
##anterna
envis
##illo
lojligt
lera
dragon
##tider
##sforhallanden
ambitioner
tillfredsstallande
granssnitt
grey
omvarld
slo
vackt
varvid
prestig
jackson
fornya
samordning
fittan
##ston
##funktionen
##iren
aten
overdrivet
ice
pytt
##68
1907
##mund
laptop
okant
##ovina
##artikel
timmes
vagat
tunnelbanan
arb
mjukare
beskrivningar
likadana
hogkvalitativa
nb
ursakta
vastmanland
##klaga
##ikes
konsumenten
halet
calle
drivkraft
malgruppen
halvaret
stottar
accel
bibliote
lindra
##alom
konsol
slita
duk
sysslar
kommunikationen
skandinavien
dokumentera
forovrigt
varorna
intelligens
huvudmannen
datan
flygbolag
amatorporr
umeas
terminen
morot
femt
##okrater
##wig
clar
hjulen
these
sluten
skickades
nykter
fiender
##ooo
ansvara
sedermera
##mg
utgaende
soligt
skyddade
debuterade
valfarden
##scykel
overraskad
bnp
subjekt
kurserna
avkoppling
hocke
##cium
vanor
merparten
skapats
##ifierad
solskydd
fastighetsmak
##egrip
kvalificerad
linser
fingret
##emester
genomford
faglarna
godmorgon
gangbang
saaaa
forband
statligt
skadas
inredningen
orientering
luther
##ience
pannkakor
##asinon
##ankande
edition
##balans
##skamrat
respon
meddelandet
galaxy
laggning
funktionalitet
innehar
##ope
borsta
surfplattor
kth
##arav
alders
frest
##andel
##lader
marianne
stalldes
pill
##gards
##orre
spisen
##heterna
##innade
drivit
##yssa
handelserna
##to
##cirkel
regissor
rickard
fren
##ego
antagning
tek
insikter
markning
hotade
kommand
entren
altanen
avstangd
##corn
##smon
soul
accessoarer
tuffare
brottet
grafiska
fordomar
##agangs
originalet
sortens
##vanner
savida
vindar
pedagoger
gardar
knas
forbli
sandes
##show
biogas
horor
##fina
kopplingar
hassleholm
ansikten
korru
stimulerar
fotbollsspelare
reception
upplysningar
sorm
##belysning
different
francisco
taylor
##ан
##lingarna
bibehalla
##fragorna
migration
fult
clean
##stemperatur
mario
##undersokningar
##hai
1942
##ysta
utb
##forestall
rengora
##matta
modet
##skillnad
##sparet
slitna
tartan
bakar
forutsag
forna
roret
farje
112
opinions
hotad
pion
hanteringen
##knapp
skelett
mazily
ovningen
1919
oskuld
##egrepp
rymliga
erhaller
storebror
lidkoping
tecknat
##slagna
##immar
lopare
orkat
tavlingarna
aktiveras
rinna
1924
magi
ow
succ
##genskaper
##central
##kand
##deg
vetat
picknick
skriftliga
hua
herceg
brutt
syften
kortfatt
1933
##skarmen
##smyndighet
forhoppning
##redskap
rokning
##bostadshus
##spre
insattnings
naringsamnen
byggts
sagan
formulera
prisvard
drast
stannat
idealisk
##imals
pagatt
harmoni
stories
transaktioner
ivar
brutit
sick
erekt
tillsv
diff
beakta
driven
medgivande
##dorrar
forvirrad
skaffar
standarden
finansieras
beskrivas
uter
stjarnorna
skyddad
##emente
loken
stralar
##shopp
optimera
erika
lyrics
slant
##ovo
ceremon
##intervju
markant
definiera
utslappen
##ols
levnads
inloggning
##ech
vasentlig
ambitionen
pyr
##prat
amat
##varet
wr
##eau
porrbilder
##spelning
reflektion
livradd
kontrovers
##ppe
##ocken
prisk
kava
tove
skiss
stoppade
gode
##jul
##riket
orhang
utbredning
##vagarna
##peuter
avvikelser
dill
ritningar
nagons
zink
plikt
ofver
glider
##detaljer
fragestallningar
varianten
1929
oil
##mats
##skarna
oppenhet
vardcentral
1928
steve
morotter
williams
genererar
fordes
talk
##sbibli
veterinaren
wen
pedagogik
stressa
tidningarna
hemtjanst
##fabrik
##arkitekt
malsattningen
liga
foljas
uteplats
fanny
##skrivningen
overnattning
riksforbund
say
varakt
##linjer
sparande
dirig
torkade
noterade
lundberg
smyck
##familjen
komplikationer
sinnen
##havaren
smorgas
##slopp
existerande
leden
intelligent
systrar
somnat
##uan
##frid
##spack
fynda
honor
eurovision
cream
lugnande
##lamn
##webb
##spension
##lich
byar
paron
mellersta
anar
kallan
##optim
beprov
##ningsbar
ordin
##sstat
##sprocesser
ain
delhi
marx
tidskriften
parkeringen
skrivbordet
foljare
jarnvagen
vardefullt
##schefen
utrustat
rar
skyddet
##ique
gavleborg
haj
bonor
musikaliska
husbil
utford
legitimation
kennel
bladen
a4
##oz
tvaan
bunt
animal
ersattas
##helgen
upptag
laddade
lyxiga
haftig
karnan
fyllas
karlshamn
onodan
oas
raddning
yrkesutbildningar
##parti
lockade
reder
kvinnans
synsatt
lip
sovjetunionen
riksdagens
hurra
##motet
loc
arom
halen
ovanlig
siktar
loggar
cen
case
lix
gemenskapen
kad
##okal
##sombud
katterna
gymnasieskola
fritidshus
##sacken
##akan
mellans
inval
romaner
fickor
minimum
tidskrift
##ekvens
##gryn
##sforslag
mercedes
datings
##peci
sorry
linj
debiteras
somliga
penna
fros
ingef
forklaringen
fargmodellen
koud
##skyl
redaktionen
fargutrymmet
##ctions
berors
hexdec
##ssidan
##fargkoden
##imalsfargkoden
hexdecimalsfargkoden
ypper
##paj
vilhelm
##dekor
1935
##itoris
diagnosen
sunt
##arie
inifran
vardes
elevens
oljem
tradlosa
blodsocker
fotbollen
vanersborg
forenade
hein
motivering
##jant
dotterbolag
orkideer
##kurser
besluten
seniorer
onskningar
avd
##kryss
##innet
raddnings
##ues
karam
framstaende
sommarjobb
##stund
verktyget
##idi
##ometern
hobb
spansk
##akon
brus
##31
brynas
cass
##joy
motionen
##gardens
forvalta
vardenafil
##arg
##paret
##uppe
##avgifter
brollopet
forstarkt
orsakas
punta
pav
##karen
wii
ropade
medverkan
##orrar
medelstora
bankid
olivia
1932
omne
never
rorliga
##omyia
kollektionen
strategisk
lappland
grillade
fonstren
avratt
omstandigheterna
nackdelen
horlurar
sondagar
skargarden
forad
inteckning
demens
lagat
##ydliga
apost
tradar
pow
##songer
##vetter
##klubbar
oandliga
##ersattning
olofsson
##jak
dromde
365
jast
##ituationen
efterlangtade
dessert
account
loma
##uper
##bling
##slokaler
forsorj
1943
sjunka
bosse
4000
tillsvidare
sexshop
pa¥
reinfeldt
stroke
panna
kanslorna
dt
hallning
publicering
levererat
applikation
##ferenser
afrikansk
dimensioner
syra
exploat
representera
formellt
tick
##ives
kompetent
deep
skapet
villan
kreativt
rytm
sasen
##ryss
pluggat
##agangssatt
bergstopp
##giro
share
tretton
konflikten
mjukvara
kunniga
klienter
##eligt
##lika
##erierna
##kers
##sfore
lv
##dringar
ordnade
avskaff
obef
foredra
klassrum
ال
chokladen
##tema
fjarrvarme
payday
##vaggen
fordringar
atom
whe
prinsessan
quot
tillvagagangssatt
apparat
luftkonditionering
##vaggar
ingvar
marmor
understr
tornet
flu
health
penn
##haft
tillhandahalls
##eeee
plantera
regisser
##jat
older
stank
komplicerade
kio
stamman
##nn
##skaren
##sgrad
summor
##benen
##run
1926
##drivna
##ро
koder
active
basic
perfect
picture
levererade
sugna
krister
dejtat
##esser
markta
lararexamen
grind
brf
bah
##ockor
kare
lamnats
##givningen
utgangspunkten
medierna
##issan
vvs
vips
tillrackliga
trottnat
##direkt
dekoration
solglasogon
sliter
##skram
langhorningar
spannmal
trix
1913
friedrich
luta
gradvis
forlaget
tipset
bevaka
rundan
vardcentralen
sunda
passiv
anskaff
allihop
fantasier
forlorad
##aktiga
##elas
diskmaskin
##usta
tandlakaren
##aringen
hanfor
regissoren
overvagande
thank
seminariet
overgar
haninge
##banden
1925
upphets
##ekom
uppmarksammade
rekrytera
beraknad
bloggat
belagna
utskott
living
forfragningar
bent
##onus
##fattande
##smassan
handdukar
##oen
manuell
##ilog
travel
hojdpunkt
volksw
lucka
##iaceae
kombinationer
hercegovina
intraffat
predik
skadespeler
##ough
sher
##jorna
##horighet
logotyp
framfora
manadens
puck
##bostader
zar
expertis
sjalvstandig
basil
dramatiska
pest
deckare
##entets
forstklass
paulus
##mitt
steph
##lyft
huvudrollen
##tor
switch
##savdelningen
domanen
tillaten
elak
stone
rekom
forskollar
monument
granen
alsklingen
##rea
osten
sistone
1911
kapitlet
##nr
kompletterar
magic
utnamn
ludvika
autonom
##plant
tjockt
rasen
##amning
sammanfatta
##roret
lime
klippet
awesome
foras
askadare
bekraftat
##nojd
eko
webshop
symbolen
##utrymmen
##nek
lindstrom
usel
ston
slarv
hyresgaster
savannskog
leken
likheter
algeriet
title
##iful
luftt
ceder
stup
tavlande
saknades
##blin
transpar
##projektet
terapeut
forberett
##kust
rubb
##erg
published
1905
tionde
morgondagen
medverkat
checka
gangs
dander
tidsperiod
##safton
salongen
tillverkades
dataskyddsfor
torbjorn
##sforvaltningen
tilltalande
gladare
vete
trick
rostat
##rogen
omnejd
##yllda
##gladje
nyttja
hold
strangnas
historie
kronisk
hovratten
stadsd
##evision
##sokta
bbc
tillagga
drive
##frukost
buskar
##ifierade
##umman
traningsvark
uppvuxen
url
grannarna
##reglering
##noveller
##flaska
##ilding
dansen
bakverk
##upe
##skansla
##etabl
svalja
omklad
betalningen
respektera
kants
provoc
##elson
mejer
ettan
varldsklass
styrde
##ualitet
address
finansiellt
mk
##lank
lym
birger
ebenhol
virgin
1908
ludvig
ocean
rs
valgor
##pell
##osystem
somnen
bajs
european
1927
##ojor
delagare
varann
##iotalet
##nets
tillfrag
##shov
tai
viktmin
fortydlig
kvalet
lanseras
##exper
##historiska
avtryck
mike
##dans
ekip
tilldelades
veronica
behandlade
1921
dagbladet
forslagen
clara
goss
1909
repor
pensionar
1934
225
1923
##versionen
mycke
##tjejer
##aldo
generell
tjockare
##beteck
partiledare
tackning
release
duss
##avfall
##iano
bakre
stationer
##stur
droja
forsedd
miste
gina
etta
atlant
framtagen
blink
cow
kryper
excell
hojt
fyrkant
machine
neu
bokstavligen
genomga
##budget
##strafik
##paverkan
forhoppningar
##astad
forandrade
folkhogskola
dala
по
##formade
##vaskor
##sgrans
installningen
smutsiga
hojder
##48
akust
direktivet
intrycket
bevakning
canna
storande
aklagaren
##etti
##falle
jatteroligt
##verna
##skod
midjan
##skravande
liam
webbsidan
pumpa
##ssven
epost
obet
##sprang
kottbullar
kylskapet
##okar
##ental
tradlos
##forsta
paverkade
kenneth
hc
uppkall
liseberg
##ventionen
residens
lones
autism
##erien
1931
turkiska
specific
fots
##sammanhang
loste
standarder
attonde
##asing
uppfattningen
hydraul
pastas
salunda
eskorttjejer
kvav
##kallande
graver
##skrivet
oljemassage
ingefara
installationen
##athon
pryl
##osta
maleri
mah
vinyl
facket
onlinekasinon
vykort
klim
penetr
folkbok
##irus
##kannas
stralning
1890
nedgang
halvvags
##pop
haftiga
##inspir
##besvar
##snivan
stugor
massing
##bay
universitetssjuk
anmalningar
presidenten
munchen
naturens
grasmattan
taktik
screen
##institutet
roland
##jade
utem
knuten
stundtals
overlever
erholl
tenta
##yrning
##ommes
kvartsfin
anmarkning
dann
altan
##ogna
fordubb
trio
utgiven
premiarminister
##inflammation
sigt
porten
defens
yrket
##stycke
##aro
##sforeningar
tapets
trosa
##fristiga
delikat
dominerar
##ints
jfr
lantagare
##eling
agility
stord
##bedomning
hul
lojalitet
##gras
trailer
andnings
sits
solidaritet
##ftermiddag
rabar
volymen
obligatorisk
inhemska
stressen
utforda
enkelhet
forhalla
##bility
##iotal
seriet
##bach
kudde
dilem
##ка
lego
gotlands
fav
##glass
##skultur
##elekt
ropar
##xi
##ysk
flir
##vingar
regna
##db
##aliserad
svaraste
##junga
forvantningarna
skip
##ymnas
##folja
exporter
rollspel
genuint
valborg
karakter
##ilus
##kedjan
diamond
atervinnings
nassjo
sea
##cert
##intakter
domar
ester
##ods
1906
##ит
gommer
##stack
orsakat
##dorren
##poj
langta
##ет
gangerna
##provet
utmarkelsen
rikligt
nyckeltal
tokyo
xxl
rabat
postadressen
##spindlar
1300
##kin
heav
##harig
forund
kannetecknas
entusiast
tillsatta
##pasar
slutspel
malningar
organiserade
melan
lukas
flyttades
hbtq
projekten
popcorn
##urb
stenen
illustrationer
husvagn
a¤r
belysa
motstandet
##alans
enz
axlarna
connect
eker
gluk
##publ
vt
inspirerar
emilia
helsingborgs
##samfund
foretrades
havdade
harnosand
akryl
##jong
##has
guider
fordelat
backe
scenario
##riktad
b2
europ
##haus
bestand
happyp
mutt
artionden
##uggor
project
krock
prostitution
nybygg
masten
plattformen
sjog
solens
mirakel
##aktig
helhets
ound
motivet
uppbyggnad
##foto
genren
##stenen
patrick
##iterna
individens
##odag
alltih
jakligt
type
onodig
forstarker
klarna
##klanning
akesson
upphav
hogskolor
##uri
##vaskan
##sinne
pasen
bergstrom
viken
buen
kontors
knullade
kosmet
aktien
beslutande
##motorer
forsvag
mittfalt
##lof
##anns
attraktivt
##skraven
##das
vagor
gigantiska
##83
session
crazy
lyfts
aska
halver
german
sour
tidigast
oroar
bowling
eliminera
##cker
radslan
nin
nordamerika
rejala
nynashamn
##asongen
##vana
kopplingen
##chema
##uktion
##imension
##fjall
##ametrar
solarium
adekv
strategin
ombyggnad
kravas
peder
andamalsen
##sbranschen
valjarna
##slang
##arke
forenkl
skarmar
eviga
##ather
damen
livskvalitet
overvald
##prot
glida
singap
##foljd
##ordnad
##odi
jawa
molekyl
skikt
##revligt
##sasong
brannande
forekomst
avskil
##legg
valparna
user
1916
##zu
##agga
credit
poesi
tulpan
permalanken
prefekt
chang
performan
optimala
slutfora
garantier
intressenter
##urope
borst
##hum
fotografen
mulliga
sikte
##leden
bidraget
135
strim
forvanansvart
thro
##styrelse
plattformar
lamin
mjolken
##rads
karen
uppl
its
ambit
##xen
grillen
allergisk
##gott
hjalte
fjarilar
##von
nintendo
grande
medger
##oprocent
##fokus
nacke
maff
##otterna
##inredning
overtid
prisvart
avhandling
booty
docent
##vaning
##lu
##mis
blonda
harstammar
##driv
##stillverk
tillfora
stroms
wir
ove
##dals
utgivare
delaktiga
ordnas
looking
kommunalt
##stritar
##skij
##ekonomiska
doljer
##pern
##circa
##amentet
##sakerheten
1922
berglund
hb
frist
tillga
##anderatt
##bys
lakan
aktenskapet
adcirca
enkaten
nuet
sido
##storningar
##svalet
armat
evenemanget
##ubben
regeln
##ikatorer
webbas
behoven
1915
forbundets
neutral
entreprenorskap
engagerar
faststalls
semifinal
pie
##orienter
hemlagad
dys
museer
sie
fronten
##ities
smut
##propp
listas
bearbeta
##max
konsistens
forsav
solig
##yggor
##sutsikt
uppmuntrar
##arkivet
legg
arbetslosheten
gudstjanst
vasal
##overskridande
outf
forekommit
kupong
devel
privileg
##kring
punkterna
utforma
styrketraning
stativ
geografi
navigation
##becca
konf
medvetande
odes
loften
##samlingar
hello
verb
posta
arkiver
bitco
##debatt
##izz
hallt
##etty
##guiden
langesen
quebrada
##ningsmannen
derby
valkomstbonus
innehallande
invas
begransar
ackrediter
skanker
##guide
kedja
tjo
mejla
betydelsefull
brevladan
forhandla
forsavitt
cav
hitler
intresserar
vattenytor
##barare
kuken
liberala
##gaser
ordnings
bogota
bortskam
sack
anledningarna
##innes
brandskydd
##imer
tacke
refinansiering
##ningsomradet
singeln
forlusten
145
forenkla
##resen
##effekter
overvak
cour
##marta
##bibliotek
materiella
regionalt
varldar
##forvaltning
insida
##smastare
allen
facit
##titlar
##bletter
givna
rorlig
varierat
##berts
isbn
naturvardsverket
ordnat
skandinaviska
dricksvatten
interior
eder
guvern
##iao
##wh
torktum
##kontakter
##odo
raddade
blood
##edy
kejs
fels
tungan
##faktor
biologisk
##varmen
modersmal
battle
satellit
socialdemokratiska
gillat
##49
tradde
sporter
tabeller
rebecca
stella
##omed
meriterande
frustration
hyllor
also
double
swish
##47
sammanfattningsvis
gulligt
doktorn
##ль
##alsekreterare
disciplin
traktor
spinn
presentationer
pott
tradera
specifikationer
##scha
##illen
intrang
##kursen
uttala
inledningen
reglera
##igad
bip
jamforelser
##fjarilar
happypancake
##anslutning
lakemedlet
binda
##hundra
anonymt
##ikyr
rekommenderat
dekorera
##ollen
##buffe
##exempel
##alas
walk
##lige
forbindelse
cad
kullen
##kins
kond
canada
##planer
fab
ljusst
##inor
cham
##odell
astma
lm
vp
hoppat
arsenal
##hundar
##nandet
tiotal
korsord
strackor
eli
eran
##ray
kommitten
propp
accepterat
byxorna
elektro
##skonst
##teckningar
mvh
smile
101
##ulus
rikedom
vittnar
alvsjo
##sfragor
ragg
varefter
kommentaren
blancolan
##egangen
uppvisar
anvandbart
##faller
##jes
slick
timra
vigsel
##andrag
##jag
matchande
##behand
familjerna
portioner
psykos
gymnasieskolan
vinklar
tvahjartbladig
romerska
namnts
handjob
burkar
citrus
dagstid
frus
giltig
##alo
skildrar
sannerligen
tillampar
pyram
nykom
upprattas
kling
##firmor
##sasongen
masc
##sort
##cykloped
##lasare
graa
faciliteter
valgorande
##smorgonen
vu
regnade
langsammare
samlats
nationalpark
apro
bjorklund
skolverket
player
kinky
ofar
bestallningen
omkladnings
where
level
##sverk
vivan
kondens
allehanda
bista
utsedd
##zing
##okon
varmep
bult
planeten
##iri
anga
trog
pojkv
money
sjoprocent
pk
promenaden
naturskydd
rabarber
tradlost
teckens
kex
##damp
sigtuna
uppland
lew
slappas
##stjansten
hogkvalitativ
slitage
cumshot
siden
##acker
##ralen
hax
##losen
charmiga
konversation
herrgard
kyrkogard
halsok
##klaration
kunga
ambassad
##berattelser
norg
byggande
flee
forbehaller
##brytande
slutresultatet
##vardes
markerade
valgorenhet
bifl
matsal
##smetod
klitoris
behagligt
upphorde
tacksamma
sundbyberg
fortid
mystiska
hjar
lankarna
brottslighet
##ants
##ustrat
badet
automatiska
forandrar
knullfilm
##atisk
tangentbord
visu
click
gulliga
frojd
vrida
anam
partiklar
forsorjning
##viks
emer
trade
julkalen
medelhojden
##olt
igarkvall
incit
avbild
lyckade
149
funktionella
lyckligtvis
krama
##gransen
beautiful
oll
fjallen
hemmafru
##fing
prestationer
ledarna
vits
aggen
lixom
##skontor
dodar
been
samtycker
baddar
boliv
ryan
felicia
##aku
##turer
sportlov
sprutar
hogstadiet
##regeln
sjunkit
pedagogiskt
justiti
##lyst
##appar
leave
uthallighet
jr
attraktion
##evi
gradden
landat
##bloggar
kedjan
##uggen
spott
##spels
representation
magnusson
yl
eye
vanstern
romantik
horison
tillhora
##skyrkan
tidskrifter
osm
tvatten
##escort
##ivaler
upplagget
ryggsack
##sat
photo
##prognos
##savdelning
##rits
troende
incest
binder
##museet
segling
manu
termen
placeringen
inspirationen
volkswagen
##studie
##olley
erkant
##itel
kassaflode
sjalvfallet
handlingarna
kladsel
##bane
requ
boys
foreskrivs
lappen
utkast
cams
clas
court
mete
aust
cann
trasiga
mors
djuret
prevent
anhangare
betalkort
frilans
horisont
avok
hing
radios
stadade
trappor
magaz
bruksan
skiftande
##hallar
##cit
overensstam
##rier
bostadsratter
resultera
magdalen
framstallning
##mid
##moner
##enheten
packning
forefaller
presskonferens
##utstallning
skaraborg
##splatt
snurr
drunk
210
##ansvariga
logo
vinterdack
ljuvligt
forint
false
bakplat
##smin
artiklarna
vinnarna
familjemedlemmar
bryggan
##ramar
halsosamt
##irs
installationer
bc
##sakert
nastintill
ikke
knall
##regat
norrbottens
##massiga
##korg
kids
svep
##henburg
anmalning
flygande
kablar
kvitto
lol
mobbning
##manniskor
gaffel
fiction
##osp
bitradande
tillbak
forteckning
mackor
tren
kravdes
bokningar
##ytta
producenter
sommartid
navigera
##tail
lanserade
##pek
ingemar
##eon
bryts
beger
bokt
inforandet
fiskart
forelasningen
omstallning
ockup
utforts
##ær
utformningen
casual
##skifte
border
##artad
tags
##forskare
overtyga
flow
##uni
historiken
funktionerna
##sservice
##sfrihet
gunn
prioritet
hyl
##hof
asper
malvakten
vallentuna
prioriterar
##oproblem
ogras
misstanks
america
1904
##oppning
hastigt
flagga
mcc
pund
##medalj
##orin
daremellan
sprick
dramatiskt
skanka
##ssprak
steam
##grupperna
koreanska
nedladd
##porten
forem
##ential
creative
formanen
personuppgifts
undantaget
atn
##sbyran
ket
tont
##igas
##sdata
inspelningen
affarside
association
vastkusten
challen
##bage
jad
skallen
meddelat
lusten
##slig
hostter
##intens
##lappen
boost
pommes
repris
blam
ersattes
systembolaget
transparent
##ningsmedel
hemligt
stens
##notter
apps
linde
beige
hangande
lonar
##oke
##yc
expedition
attityder
##juka
##shire
##oskop
harvard
konspir
##halten
skav
kumla
inbjudna
##dig
tox
##etecken
gap
##besked
koptes
ingangen
installerat
forverklig
litterara
sark
boston
antagen
tomte
gothenburg
fortroendevalda
rin
nostalg
studiebesok
reparera
wallen
chatten
##stagande
##stillgangar
##pendent
pastaende
livskraftig
secret
omsattningen
kliniken
##slandor
kreditvardering
gmail
##aterad
molndal
##ittande
eco
gosta
integritetspolicy
betydde
slojd
##otsel
tryckta
forakt
tatort
##iktning
flodet
##dagarna
tillhorighet
queens
bemark
lovet
grammat
aha
##ifta
extreme
lagets
vivanza
upptagna
chefredaktor
magnes
acceler
##itiska
hardrock
inflamm
informerade
juvel
klinik
##anpassade
##raven
skidakning
##lopande
ostermalm
aldrarna
forsoket
hustrun
plattor
famn
redovisnings
##barnen
##esor
avundsjuk
##dating
##paciteten
##sorganisation
beng
##onyma
##asi
smorj
distinkt
mapp
lundgren
rain
overgangen
155
nerat
startsidan
psykoter
sammanhangande
##pann
ultimat
stamnings
satsat
fral
overraskningar
alig
irritation
##usias
ritu
maktiga
##emokrater
##artat
zie
watt
flirt
##bers
etnisk
besparingar
mobiler
##snamnden
elektroniskt
pride
##round
radjur
winter
uppmarksammas
kel
##hou
raa
vank
forbattrade
handbok
liberal
missforstand
parallell
identifierar
##smassiga
behoriga
##spets
hotellen
kungsholmen
verkstall
##valv
##ningsuppgifter
##chus
##erapeut
sula
lyster
instammer
ebenholts
producerade
##otin
niclas
folkm
lonn
potentiellt
utbetalningar
lil
##ped
kraftfullt
forsamlingar
laxa
rune
kommersiell
##oje
jersey
nyarsafton
##63
harris
sprack
varmepump
bromsar
tatuering
##moten
anita
overvaningen
aterspeg
tablett
##gon
elle
barbro
##jup
ct
designade
##olor
haga
arkitekter
garnet
##sfot
##hyllan
##ello
##bringar
kommunicerar
skakade
skipp
minskas
sylt
kvist
##intag
hojs
gord
tidsbegrans
events
tryggare
##maktiges
skriftligen
##itekten
trasig
falk
oskydd
tunnelbana
specialiserade
##sfir
tvingats
fosfor
##fronten
javlar
sokanden
juridiskt
lagenheterna
##icken
lindr
centre
##prins
skruvar
portugis
strong
##asjon
supple
##inalen
plantor
##fotboll
resulterat
cin
##ны
rubriker
uppgorelse
skry
missnojd
p3
forknippas
ivan
##kanslan
inborde
##laning
outlet
utstallare
ramlade
bonusen
desa
formatet
galleries
1880
knana
pim
kommunernas
smartare
kostnadsfria
etiop
apart
improvis
ski
boobs
vittnen
charmig
##protokoll
innovationer
##brunn
bota
obehor
think
testas
pallar
arga
##mix
andning
rackvidd
jensen
oz
pensionars
zoom
konstnarlig
likas
valley
inriktad
skadespelaren
kompensera
fenomenet
omslaget
slu
##tainment
bant
engels
klister
sexbutik
torsten
tankta
trogen
167
rostratt
overtygade
hawa
koras
mallor
revisorer
spand
strapon
##sprincipen
##urd
##eslag
##losningen
reparationer
doppa
varmlands
4k
hust
prasten
##lleri
aktierna
fikat
hemligheter
##malet
ridd
##varmare
utfordes
tillmote
pyjam
fritiden
badar
emitt
andrades
forestaller
vasternorrland
apos
oundvik
##roja
##byggnader
fordelade
balanserad
nytank
lurar
atgarderna
magnesium
sept
vintertid
motverkar
samtid
entusias
sympat
palats
##ref
##isarna
kramig
corpor
folkom
provinshuvud
##smann
aktorerna
##vetenskapliga
litteraturen
##mit
slutfor
##shjalp
advan
skrapa
dirt
philips
gullig
viktminskning
bevarade
##bords
cuck
which
##urus
##produ
utskottet
talare
keb
domina
modo
forbjuda
1100
##golvet
herpes
sofistik
##vaxten
brevid
antisem
hallbarhets
framga
mandagar
##stallelse
jackor
nev
##derats
skinka
valdet
jamlikhet
obegransat
forvaltar
procentenheter
nutid
##anol
alban
saljes
##juren
smask
tillverkningen
tvattat
lanen
tillbygg
##ttrad
##fabriken
humoret
brother
tankes
specialpedagog
##yna
hasse
naringsid
sakkunn
designa
anvandningsomraden
lattnad
portal
gustavsson
##eth
ferr
##konstruktion
otrogna
svanga
##itara
medeltid
##ipe
foralskad
kalcium
skate
hetta
##mur
vg
flerbostadshus
##kakan
produktiv
vagina
hyllning
##overvakning
tl
trust
belg
skvaller
valfritt
##slosning
fortlopande
malaren
catering
libanon
kvave
verksamheterna
stamde
##karakt
skrym
##vattens
nybl
avsikten
terr
sprint
##forstor
upptrada
sades
speltitlar
##bakt
forberedelse
konstruktionen
uppfyllda
##plus
signifikant
##fys
magister
guldet
handskar
fickan
narmre
lantagaren
harald
bergs
fardas
dykt
fangade
fjardedel
tacksamhet
varumarkes
inaktiver
##oklad
trium
framkall
webbshop
##dd
naromradet
beraknat
ullared
grundlag
demen
tillkom
orienter
sic
stimulans
##okningar
##iest
transportera
uppdateringen
lysa
tecknings
##uddar
shoppade
##rostningen
akademin
gips
##jakten
teckningar
##varldens
##typ
reply
skrivelse
sri
panor
avels
maraton
dyk
kurt
##sporten
1899
konsumentkred
kvarvarande
trada
##41
wol
forvaning
##kass
potatisen
lasaret
natural
rovdjur
palitliga
##paus
institu
traningar
##onna
profet
valberedningen
jordan
overlatelse
vek
##skostnaden
##ositionen
absorber
installeras
vartannat
napol
profilen
ogillar
tvattstugan
leveransen
macka
videop
trill
espress
##agon
pud
tillgangligheten
hertig
##olyckor
logoty
carro
iss
mara
skeptisk
uttrak
spelbolag
lakarna
riktas
##resurser
##benet
overvager
tonaren
sensor
kraftdjursart
##kostnaden
katalogen
svenske
byggnaderna
performance
save
lattaste
antika
##ktygen
illustrat
halsduk
kompetenta
bios
overre
##scentrum
tele2
rekre
##sol
hallands
utesluta
upphora
biff
##bull
gurka
tillmotes
kladda
##planering
spol
jattefina
##ostat
##armad
solljus
forsberg
kokar
karnvapen
roven
##fog
feg
reporter
jog
##anka
lagstad
valbe
##betala
sokes
gyllen
vegetarisk
better
virtuella
arvika
##trakt
byggandet
trummor
کوه
antonio
smidigare
illustration
##ycklig
skraddarsydda
forskrack
overensstammer
##flicka
branner
overvaka
registret
forekomsten
##plans
cali
societ
palme
chrome
antog
tempor
##ummi
tral
studiet
uppsjo
examensarbete
uppgradera
promenerade
logn
hygg
klipper
amnena
eslov
anmalnings
middagar
##87
orattvist
enl
upplevas
##61
awards
provinshuvudstaden
dje
ivrig
giltigt
pilgrim
neo
records
trivsel
##ija
nyars
servit
brocc
##isses
omtyckt
##stillfallet
knark
skicklighet
stay
realistisk
funktionell
stangda
##sallskap
medlemsstaterna
singapore
yttrandefrihet
##ified
vattern
uttryckte
##ignal
falkoping
forebilder
##iks
anvandande
kvallstid
pinnar
##forlust
begreppen
helene
iris
dubai
pigga
miam
bohuslan
##rakrat
##styrkan
##bed
##arat
jobben
logik
##urch
miljobalken
kommitte
definitionen
andamalet
oupp
##ollo
valkand
traffen
##sackar
estetiska
##ante
##paras
akvare
mekaniska
krukor
pornstar
variationer
##esterol
anth
frisyr
genomslag
ljuger
almedalen
aterstaende
1901
drojde
##isation
trot
skilsmassa
skvatt
parkera
skyddande
bruten
burken
operativsystem
dee
lustigt
greps
##ordet
##cre
##senhet
kate
skop
medicinen
##irap
lappstift
avvikande
lordagens
personbil
saudi
trig
selma
showen
attribut
##ulan
delux
sagor
##samhalle
##rivill
##omsattning
##ugn
ziehen
svagare
##korgen
laka
utstallnings
godt
jarfalla
halter
fasaden
adobe
##matare
gynna
anordna
canon
undvikas
trass
stilren
magdalena
soliga
besegrade
oforglom
##tube
utomstaende
tratt
##krig
utvecklande
vandrade
taste
java
##ismens
intelligen
utefter
innlegg
##skv
bristfall
##oi
alskad
peru
sunn
##ventil
forandringarna
wonder
helige
reagerade
factor
bedrageri
protected
delars
stekpanna
benj
familjel
##fyllning
kommissionens
##ки
##katalog
##byten
hotet
rymlig
idio
##imo
forned
karr
obegrip
rapporteras
samarbetspartner
##amd
rutor
nye
bann
porriga
dron
riktat
##ningsmetoder
kyrkoher
hf
##gos
chin
##entusi
snacks
utv
##yror
spelning
vansinnigt
moz
utanforskap
stotte
konkurrera
##rey
hemland
##uar
##prise
hungriga
juan
personens
skrivits
arts
much
reservation
uppnar
price
##talande
supporter
##coach
lordagar
dunder
television
forandrat
kontext
sahl
anonyma
kunnande
##smys
uppfattningar
elbil
ritade
chauffor
elisabet
##jall
##feld
koncernens
hundens
klinker
##alisterna
forhallandena
laktos
psykologiska
aklagare
vetenskapen
fortjus
##ransar
enjoy
crist
sik
##igade
kuvert
toppa
valent
universal
marc
betalda
##tom
angen
osakert
gubbar
motsta
##ijer
cord
##zel
eliza
lagens
##emjol
obest
skickats
inreda
mock
bestammelse
##filen
prisklass
##senheten
toda
##gett
hemmamatch
doug
##stodet
fredagar
##steater
private
finansierings
pang
##agel
analyserar
stros
noterar
stigit
slosa
rasande
freder
installt
delaktig
##rorelser
omgiven
apropa
hons
kemisk
forskningsprojekt
##skylt
jult
konfron
trevligare
co2
fjorton
##oh
alskat
mathias
btw
##rada
1902
rokt
##undersokningen
inforande
forklarat
alva
##sorter
rycka
kvalitativ
lyhord
klubbarna
milano
anlaggnings
geomet
intervaller
##hugg
vincent
edit
##skedja
perspektivet
katrineholm
overs
omedelbara
isk
##snas
docka
nort
tvattas
##smyck
webblasaren
industriell
##ape
stota
lotus
christoffer
rodbet
proteiner
jerry
##fav
boverket
massiva
inblandad
destrukt
earth
##ovr
chev
utforde
makal
##anvandare
begart
##radio
smaksatt
joda
arbetsutskott
betonar
betraktar
overlevde
bvc
rekomen
##erapi
halvtid
##sker
skippa
motorfordon
initiativet
##steatern
uppriktig
##etto
##farliga
paborjades
##iak
utgava
##yla
komplicerad
berord
##43
paraply
uf
hl
rorelseresultat
v75
fageln
benjamin
hovratt
australia
skulptur
googla
fs
##arrangemang
utspr
alarm
palestin
basis
diplomat
matas
forbannat
ofull
##skruv
preparat
reviews
christop
##attrakt
fracka
kollektivtrafiken
svanger
acceptans
foresprak
attacker
skaffade
##elefon
kontaktade
tillfredsstalla
spektakulara
##aron
valdsamma
stressade
forhandlingarna
##tagare
pasken
##mens
passat
##anza
uppges
##odagen
##blandning
##gning
bekampning
fotografi
ahlens
engine
arbetsgrupp
kapitalet
##tabel
##traffar
genomforda
##iley
handelsbanken
sammanslag
diamant
filtrera
besvikna
handfull
sysselsatta
##ales
biologi
kladdkaka
##nyck
mingel
rys
jasmin
arbetssokande
##snittet
sponsor
##lers
clips
amal
skicklig
##gotlands
##ansvaret
##cta
buenos
oy
varmdo
svager
entertainment
hyran
sektionen
infors
##dav
##forsorj
uppmarksammar
svettas
##spinnare
mastercard
cannabis
konfirm
tokig
strap
aires
forespra
pans
sytt
##friend
##look
bortglom
zel
blonde
##assans
skattemassiga
##iy
volymer
monopol
##erto
tier
##shel
komponent
##basen
##emala
sjalvrisk
##blo
spion
prix
inflyt
farden
gryta
##stop
##iktion
exklusive
ofrivill
##real
anvis
##attning
marsch
energy
kastas
andrad
besvaras
technology
##smaster
##spartner
elite
##bass
mattlig
kongressen
##beskrivningar
ifragasatter
evel
bega
gef
ronneby
noterat
##iserande
1870
##tte
ekman
miljovanliga
renod
1903
kuba
stryka
visum
undervisa
iakttag
artific
omtanke
##sider
avvattnar
bevitt
vidareutveck
##esis
member
bush
arsju
##ekort
labb
##snygg
ryms
reducera
##svart
farjan
tillkommit
sold
##panelen
prisbel
julkort
luftfukt
atlanten
landskommun
parlamentar
##46
##buren
nods
rall
uppga
##kapit
linux
nelly
anglar
##ices
deleger
strul
hostlov
##zzi
betes
four
prickar
malard
##iffer
##osyn
##bladets
demokratiskt
##standard
##edjur
##juice
slakting
##strumpor
##roda
vilse
container
fortsattningsvis
##phia
tillampliga
skylten
muffins
utrikesminister
##hallaren
##atal
##isteriet
##ovit
##myndighet
granskar
serum
munk
sorgen
vyer
##liet
2030
##mol
##padd
aldreomsorgen
oonskade
##forfatt
##iktigt
##ekont
indexering
oslag
kusiner
depon
microgam
amerikanskt
force
integrera
orkideart
##ssats
educ
kartlagga
##sbud
latthet
konsumenterna
befintligt
isabell
headset
gate
##feren
##slokal
mognad
##ansch
pigment
##amne
##то
lont
##ifikationer
omojliga
julp
kompan
experience
overtrad
##stalt
observationer
myser
##yen
uppfrisk
regionens
stephen
manual
dodade
produktivitet
##nal
kristinehamn
##ires
bjur
##tefter
jobs
forsorja
dalen
driften
##kvarter
andlig
langu
insattningar
henri
krim
avveckling
ahh
utlanings
kenya
osa
hjulet
##smiddag
babys
hits
client
erhallas
##amente
stenhart
chockad
forlangningen
ridit
##spolitiska
fullo
ambassador
hamster
brorsan
brydde
hamm
angiven
inram
dominant
uppfoljare
prist
##iskan
##priserna
##forbrukningen
##slund
sugar
kullar
images
##smodeller
##kombin
utokade
innehavare
salonger
2500
klost
hofter
svenskan
snal
shad
##ansvard
##marnas
inforskaff
incheck
seglar
gryt
danske
##myggor
##videor
kortsiktiga
vegeta
##lid
skansen
elm
schakt
styrande
odlas
bruce
arrangemanget
tights
solar
##seftermiddag
uber
bou
##iper
framkant
kurv
valdig
##esar
##framkallande
inspirerat
foregangare
##alon
ashley
pepparkakor
ogilt
konjunktur
rattegangen
inbjudande
ljuvliga
biod
broar
tvilling
into
angar
sega
joy
##antal
vinsterna
krypt
##42
amortering
kristin
##borste
simning
goth
tillkannag
sims
traffats
danielsson
alltifran
128
##seffekt
betald
krangel
vimmer
##ressen
avancerat
contact
##rana
inta
adopt
likabehandling
motivationen
walker
##okta
rama
##hastar
##overs
##skapten
##iance
klasserna
sjoarna
##fickor
garning
skonare
eksjo
##ells
gigantisk
forlov
tess
miami
frigor
ear
akter
eter
trovardighet
kappa
adekvat
##sloshet
fuktig
1a
kated
##cafe
##casinon
lasarna
relativ
leop
##sbalken
tecknar
kryssning
##streck
gambling
##agnet
begagnad
instruktor
foc
folkt
lattlast
norrlands
finansinspektionen
soffor
anstand
##saft
stadar
spinning
##stecken
##ssatt
vattenkraft
milda
uppfodare
##skand
multipl
biflodes
sjung
biflodesordning
650
lungt
helvetet
fцr
drogs
##strade
##etrad
dansare
desper
trek
ovantad
rumanien
rehab
на
aminos
raser
professional
##apest
riktlinjerna
##graden
packar
doser
##stavling
##riter
logner
lamnades
nominerade
varsel
fysi
fastighetsagaren
arthur
utokad
##sbestamm
##antan
uppgav
forvaltare
omvax
fullbord
praktfjarilar
##srisk
kidnapp
##larnas
industriella
synpunkt
##sbek
##umo
##iseringen
orang
##satte
kronikor
orhangen
##rakningar
mallorca
flexibelt
markerar
hordes
##andena
##fodd
##uum
hjalpsamma
kassor
underskott
##laga
pekade
##stot
##unget
dosen
nisse
mattet
sydamerika
jabal
bagaget
hid
pure
##teckningen
genomgar
muren
pastod
andelar
erhallit
presentationen
##shotell
elektriker
arro
##jekten
fordelningen
fyrtio
mcdonalds
antarktis
vegetarianer
aterhamt
wis
550
milt
##betalda
doktorand
akuten
ersattningar
##icum
##sarv
##reger
pictures
lona
formella
##stena
leveranstid
##porno
rd
##ла
##ateras
skollagen
tvangs
##sformen
##wald
palsen
##inkomsten
primart
bagar
vardgivare
##batar
majs
##slitt
##wich
##faktorer
konservativa
lins
sog
integrerade
budapest
rhod
##huvudet
sjukgymnast
arsta
invanda
organiserad
##redovisning
same
eftertrakt
operationer
kontrollerade
berattigade
isabella
fjarran
databasen
pretty
svarts
hood
##smedlem
monetar
defa
##ssektorn
visionen
incitament
banden
##zak
jasa
vittna
sjalvstandiga
##sco
cs
death
byran
kolesterol
##agenhet
pragel
##bens
sangklader
##pri
insam
tunnelban
slalom
##vret
##igo
abu
##odden
utnyttjande
comeback
beteendet
medborgarskap
marta
sammandrag
gronland
sjalar
##gest
markes
##husets
##olla
born
roker
permanenta
utlopp
nybro
##komlig
##driven
prioriteras
##rotokoll
pull
ludwig
strunta
beaktande
skattebetal
branslen
##key
bedomas
##ialen
nutida
klistra
redovisningen
##konsolidering
arc
##gripande
larmet
tju
sormland
diska
omvandlas
omrostning
##ied
twist
burit
tiv
gadda
##ugna
schampo
allan
stadsdels
fiende
overgick
##utbudet
##udie
svek
shower
tolkningar
##debatten
aberop
grillat
struntar
##ssex
smahus
deger
skandal
##borna
polic
zara
papekade
publicerats
utformat
grillad
luktade
lic
botkyrka
allsvenska
billy
kungens
stampel
##ku
##gorit
forbjudna
ekosystem
##sarbetet
sambandet
sib
##givet
tea
plas
##agget
okomplicerad
##rt
propaganda
hyrbil
andrea
coun
twin
europaparlamentet
##ان
##ompan
granit
##skurser
elaka
featur
styrelseledamot
upplysning
##ли
skickliga
journalistik
##iere
konen
##spraket
paren
pulsen
fokuserade
partnerskap
today
cloud
reflektioner
byrakrat
sisadar
##bill
again
note
storasyster
rabatten
motsvarighet
demokratisk
fotografer
porrsajter
pendel
underskatt
##pens
konsumt
fokuserat
riga
ackumulerade
pinne
avesta
servrar
carin
lattast
upplat
videopoker
oresund
shang
utovar
sittplatser
anderson
snapchat
##husk
##smotet
##ssituation
utrot
##igna
##attor
vaccination
prioriteringar
talanger
suveran
##statistik
blus
virka
##mater
neon
push
toaletter
broad
##hej
skuldkonsolidering
cut
##62
jungfru
sab
tree
visioner
relaterat
zu
onskelista
krafterna
understod
##assistent
pts
##universitetet
##osen
stickade
erfor
guard
forsenad
installda
strav
kamrater
symfon
frustrerande
diagnoser
slacka
flyr
##uvan
cuckold
knacka
panelen
dall
luckan
blund
saffran
##felt
##flaskor
##ams
bandets
solleftea
paven
##strav
faststalld
##shund
nionde
##massig
mugg
wide
strukturerad
huvudpersonen
prisut
raddningstjanst
etablerad
forskriv
ledtrad
overraska
hackar
academy
##borr
festa
drivande
dromm
haven
##oval
##bonat
atelje
lum
##igr
nell
behallare
uppfriskande
knubb
rort
##ries
jennie
dell
omfattade
##gava
forward
daily
tillbringar
##barande
utkom
base
krym
##udde
uttalat
nakenbilder
sparr
bestamda
robb
tugga
hojdare
kalaset
demonstration
##ovare
bakplatspapper
bevaras
inredda
sarbar
transporteras
1897
cafeer
loptid
batterierna
giltighet
bridge
##sben
experimentera
dynamisk
##torn
ukrainska
klassas
tow
##chy
##grunda
##komliga
uppsatta
##befolkningen
skalar
avel
skammas
svansen
externt
slampa
ladies
avvakt
##kre
reducerad
avskrack
##skadade
##buk
why
spanner
##amman
sloven
stars
ideologi
##skallor
brukare
bitcoin
brostcancer
##aggning
involverar
inflation
##chs
klang
vift
cyn
vetlanda
kings
cypern
anslutningar
inloggad
inlosen
forvarvade
aldreomsorg
kansli
smoothie
##numret
##gryta
##aling
bukt
flot
vene
##char
##backs
imponerade
forstaelsen
chefs
vegetabil
semi
strumpbyxor
sjom
komplim
snabbis
ees
komfor
##flyttning
occ
##kontrollen
friluftsliv
hay
hsb
inforskaffa
129
discover
##missbruk
sparka
kompensation
##sbanan
chara
uttalade
amning
ingenjorer
kissa
respekterar
develop
astro
##emor
apparaten
fragetecken
haw
schysst
##unger
visdom
arbetsmiljon
vetemjol
karib
intraffa
##smott
reklamen
ingatt
lounge
jamtlands
riz
vimmerby
avsnitten
matsalen
skramma
##icon
handpenning
polare
hyrde
##tekniker
rekommenderad
martina
toyota
atlas
hvar
##ulor
grasklipp
too
lingon
cost
##varade
franco
malskytt
sandberg
smeknamn
parametrar
akties
uppforande
matar
anette
varade
varderas
storhet
hjaltar
klappar
##kvallen
bunden
##temperatur
obes
tillampningen
grodor
slappts
nash
##instrukt
orgie
studios
andrahand
board
##riken
annonsering
serverades
strukturen
presenterat
soderberg
graven
segla
brutalt
stiftelse
##safe
barnvagn
racer
madele
keps
nob
miljovanligt
##odet
##sdagar
fyllning
##ypal
torsk
##dukter
definierar
lept
##skid
transl
fodelsedagspresent
##svas
##bockerna
320
jum
##karlek
designat
##bagen
kliar
##ect
installningarna
hembesok
fern
utrop
misstanke
brunch
##redakt
##inkomst
overskr
##snur
provtagning
##faglar
beslutsfattare
##на
montage
##hems
##ammar
##sliga
ela
startsida
tfn
##villa
tranger
medlemsstat
pinter
kaffek
##uppen
hampus
smalare
galan
##jandet
inventering
ensamt
utser
##drande
tillbringat
##rota
fallande
versa
mascara
##hatt
faktist
kommersiellt
1860
adren
stipendium
##revis
jordbruket
##sim
stenkast
noteras
marathon
bemota
##icle
##ysch
##fic
jama
local
##koms
komposit
affisch
##biljett
##antalet
generat
##iiii
aldrande
maje
elektric
function
##cr
andy
essa
klot
##boenden
systemen
insatserna
tillvar
hostterminen
biljetterna
systems
lif
portar
tragiskt
##lett
mallar
underjord
hursomhelst
kycklingen
ate
lucky
synvinkel
unic
##starkt
##lossning
##rann
##eler
scan
avslojade
agendan
invigningen
webbhotell
##klan
twi
pornografi
hudens
thorn
##weg
##omon
##uca
schabl
effektivisera
areal
3g
fixas
##ygn
123
##parasit
##sido
nudist
dani
isafall
konvertering
sammanfattar
akademien
blanketten
##skedjan
tillsatser
iz
transform
uppmaning
konkurrenskraftiga
##sock
halvleken
##omin
##aggar
pumpar
sz
sjoberg
##centret
##ilton
forutse
institute
##keby
sverigedemokrat
namndens
##okort
hemvist
lear
samordna
##forbind
##derings
sponsorer
##grann
samtalen
solut
##ficka
folkpartiet
adams
##stycket
trogna
sophie
nans
##ery
staterna
ensem
gly
107
kongo
viv
babb
aventyret
##prover
balte
##iderna
curry
eugen
drastiskt
citr
realistiska
skakar
microgaming
##lagger
eklund
bugg
aterkoppling
tm
109
##snod
godsaker
##bransle
vasterlandska
atgardas
styrke
telefonsex
elevers
##sbesok
ufc
clear
obefint
finlandska
marketing
fortune
##oprogram
nyhetsbrevet
radar
manskligt
kommunikationer
granskningen
bakgrunder
##anor
tryggheten
artisten
director
forrgar
##ramjande
##arknaden
fornybar
herrens
oklar
vest
##illas
104
underligt
begravnings
##manuel
kommentars
fordjupning
forvandla
##bundna
supert
norges
fus
##personalen
ambet
stallda
tillgodos
csn
simp
organisationens
organisationsnummer
forsent
overtygelse
range
##endel
linkedin
frustrerad
legend
tveksamt
krossade
abc
idyll
visats
##isst
ltd
textilier
##glans
schemal
walter
avbetalning
tv3
##pelare
nojer
kakao
starter
logi
##ancy
1895
##antik
brosten
##svis
vidtas
snig
striden
##roman
roberts
appro
unibet
##sfient
sommarlovet
komedi
##edt
framha
lotteri
##elag
modig
2x
ramlar
personuppgifterna
krangligt
##forslaget
##strarna
lakrits
fakturering
##spromenad
##bagar
adop
filmade
elg
implementera
hok
dagsljus
kundernas
##aktiv
understry
##fargen
##operativ
grundat
slutspelet
bostadshus
bifall
##skapa
mikrovag
koldioxidutslapp
samverkar
abd
tipsen
utrednings
##ches
pvc
utsmyck
myter
xvideos
##placering
##personer
##bedom
hastens
kruka
samtala
##broms
##fargat
##ologier
reta
maximera
##aterat
maximala
tut
wadi
turneringar
dad
##tras
##edlar
##icas
installerar
patagligt
##smalet
raket
skumt
bekvamlighet
kristendomen
##pu
spelats
luckor
##lunds
##utman
koppel
##nu
##ilable
##area
##rell
trottnar
kompetenser
valfrihet
flora
##jans
ads
##uuuu
mfl
103
avvikelse
invalid
##reh
alven
honan
sjalvbi
##tapp
##ordnare
##ei
mango
dalarnas
alltihop
saknad
telen
##ulturen
##oxid
utsetts
deprimerad
##pis
##strafiken
kopcentrum
patric
##utiken
spag
##ls
geografiskt
medaljer
vatskan
##stant
bekantskap
##bildningen
dagvatten
chann
graders
##sidrott
##pact
samfall
ipod
bubbla
##yda
uppgang
barb
nicole
norrkopings
##ademien
sexleksak
##jevo
brostvart
hona
##rundan
accepteras
##upt
##sledningen
brokparasit
hvil
task
forskoleklass
brokparasitsteklar
dv
##korna
##sverige
##shog
rekreation
##kart
##slistan
##snor
##idium
##snara
innerligt
christopher
judarna
minuterna
##roit
parfymer
6000
definitioner
angelica
kulturarv
sq
dedik
independent
omb
kurd
##faste
planlosning
segment
hoganas
dialogen
leonard
grytan
##info
slussen
prioriterade
gow
159
##yeur
##born
alma
rikare
fargat
gratisporr
hanvisa
dyraste
##jorda
pingst
ramla
namnder
##iste
jay
nyrenover
riddar
bucks
josefin
viktoria
sangaren
##kapten
vite
volontar
fyrverker
muhamm
##arka
##adas
fraiche
peking
##ssen
darvid
##plugg
omtank
stormen
hoppning
utmarkelser
ljum
##orkester
plaster
rektorn
halsovard
deluxe
code
avskyr
progressiva
##oteknik
minusgrader
##forl
##amnden
epid
##rutiner
hacken
##ovi
##yng
akademisk
faststallande
expandera
invandrar
kalsonger
klimats
safe
pepparkak
wilma
##skriter
valskott
mulet
ylva
underrattelse
##formad
##puts
##areg
##via
large
anlitar
omfor
arbetstagaren
svav
##skolorna
sodermanland
bevak
##foretagare
sjukvards
##read
##entarer
##iljan
knepigt
havregryn
lokalisera
##skoterskor
##edare
domd
flydde
organisations
##fota
kofta
robotar
fyfan
##smodellen
halsingland
figh
andringen
kriterierna
null
malays
##fos
inlett
postnummer
hyresvard
samverka
vaxell
arskurserna
##slott
landstingets
gag
maktig
ovningarna
nastkommande
custom
##atik
storyn
ogonblicket
lurad
##alisten
miles
follow
##skategor
beviljats
inneborden
##chin
verktygen
##ontroller
kalix
michel
##sinstitut
uppbyggd
fling
pressade
##utredning
##lind
##hygien
forvarings
balansera
##ussar
skattskyld
would
bp
intensitet
##ordent
sammanlagda
##ophila
##ariat
skapelse
##forda
##trask
##varigheter
prestigef
fyrhjul
mant
dubbelsang
##itus
intakterna
inlarning
torkat
magazine
filme
ovans
telefoni
alan
roa
overensstamm
allm
foraldrars
artikelnummer
organiska
sparkar
forankring
laguna
102
mariestad
oskyldiga
redaktion
hannah
trangsel
oppositionen
hah
ea
were
reality
avbetalningar
##grepp
tidta
##firande
varnplikt
infort
##pus
jonna
guys
##ground
surfar
omstandighet
horse
skogarna
##hern
saw
arbetstillfallen
spridas
uppt
aterhamta
##acka
ljuga
asido
peng
kristdemokraterna
pb
##vernor
bestallnings
casinos
vardena
spelningar
square
amorter
avis
##nabb
turbo
keep
charter
motiveringen
##friheten
erfarenheten
##skyr
knopp
##angare
##lay
##gors
grubb
nedbryt
##lanning
##vetare
##bilderna
away
mattsson
ficka
okunn
midja
kalenderar
eventet
behandlings
##tunn
medicinskt
hiphop
utokat
bankens
styling
stadsbyggnad
##ningarnas
samiska
stanley
radde
sneakers
##inj
gamers
menu
boot
procedur
bebisar
etniska
campingen
diss
##page
kax
hogskolepoang
##uvor
##otto
##inerades
sahlin
dublin
altar
##emote
mossan
bastad
sirius
##vakta
overtal
##iav
benamning
##ylla
##standet
likasinnade
##veri
vrider
smidiga
bey
siri
rusar
utbildar
vada
then
puerto
tonen
##slon
lanseringen
vavnad
sjalvaste
gripen
##otal
rakenskapsaret
##skravet
himm
##salternativ
centralen
tjocklek
##elli
foraldraled
ns
avgjordes
trupper
##wart
misslyckats
lagrar
angelaget
pinterest
teoretisk
trumm
##grill
vettig
tunnare
demo
flik
bokas
vinnar
##cirkul
medell
ci
uppge
beraknade
redovisade
traningsklader
##blandningen
mottagit
trovardig
kontinu
utgift
vastergotland
taltet
stressigt
##sakerhets
cigaretter
##biff
own
##emann
bure
##rall
raddar
jatteglad
funktionsnedsattningar
forvantans
riksbanken
horas
regelverket
##infektion
horr
nytankande
left
mikrofon
fusion
slutgiltiga
antagande
select
bostadsmarknaden
dejtingsajten
militart
church
nikola
solceller
lauren
retorik
krop
ritat
laddare
heden
justerbar
drojsmal
##ples
##stadda
chap
johans
##aggande
hamnd
deutsch
sjukskriven
utomordent
djungel
##ai
varmande
operativa
##gur
operan
stods
##atiska
##hun
##sbocker
jimmie
ignorera
bemanning
##rollerna
nutr
skolav
upptackts
mindf
tacksamt
female
##trycket
##tekniska
brian
vastt
cet
frn
arbetsmiljoverket
##psi
avgar
##fem
berattigad
uppkommit
##vari
audio
avslappnande
kanot
prinsessa
##isseau
pollen
strind
1898
sao
brinna
talman
tejp
industrier
##open
arist
laddad
influensa
bulgarien
hormoner
ravar
uti
##agasinet
gallivare
##xten
##saljare
semest
##party
##svampar
testamentet
sinnet
bradskande
tvivlar
spadbarn
varldsledande
##leverantor
liby
##amerikanska
prognosen
grundvatten
##ydnad
paminde
arton
##starta
beroring
##bour
##planet
forskollarare
##arma
sadeln
hamilton
forvanade
slov
##bransch
anstallde
edge
##halvaret
styrelseledamoter
onytt
sket
##fagel
upphort
##sbandet
forsvarsmakt
hopplost
##skinn
##falden
##omradena
vaxterna
ohlsson
misslyckades
##smarknad
upprepas
kristoffer
np
byts
firman
tric
lindes
##ansvarda
param
antenn
sensation
haka
exploatering
bedrov
##edonien
partille
##intressen
skribent
funk
koren
ogonlock
pw
mff
forens
halle
motiverad
ruisseau
##instans
sondagens
soren
olen
##olerans
##hallas
antioxidanter
##domstol
runtomkring
instruktionerna
##ningsformaga
##bridge
castle
##illes
##ommer
rss
plockas
bestallas
clem
##baren
fibrer
dejtingapp
svettig
samhallsbyggnad
inkommit
##bladen
plomm
##rabatt
avviker
reflekterar
fruktansvard
##malen
##edo
trilog
resurserna
cider
##mansk
dejtingsidorna
knuff
sater
smat
##skrib
olyckligt
sekvens
tsk
zero
faststallda
paradox
bilhandlare
##silver
elen
mose
svind
malas
overtygande
jattemys
kategorierna
stoppas
##halv
jeff
ljuvlig
firande
storning
debattartikel
elitserien
uppdragsgivare
larom
odlar
avsaknad
bekraftade
synligt
buren
slow
poet
##hro
motesplatser
fotat
vertik
oakt
hittats
forkast
avtag
ordern
##ufforen
hansen
pumpen
vardelos
roj
anstallningen
konstaterat
bestands
berattas
ats
hub
framlingar
partik
omvaxlande
##planter
##badet
trib
##osaur
begrip
saudiara
shirts
torrent
initialt
##passet
onskvart
fact
godkannas
berakningen
impul
hojning
overfors
skapandet
riksdelen
voyeur
triang
##ко
##leby
bonnier
omhandert
bibl
dimma
massera
##nest
elfsborg
1896
varldsc
##skotare
##tella
korall
delegation
nationer
##efa
raps
valjas
heg
sydde
setts
##stu
duga
lansforsakringar
sier
##slangd
kladde
##skona
yah
sundsvalls
verifiera
##agr
##prag
##vinning
humle
ragnar
lukta
##iansk
##jok
framstalla
smult
missupp
arkitekten
forbundskapten
datat
##leksaker
gammaldags
dow
loven
avslutningsvis
helsingor
tapeten
##cup
dealer
hour
krut
vikter
forhaller
babes
lindqvist
anslagstav
##sanpass
available
agande
##smoten
lasningen
cruz
kollaps
##odda
exotiska
idioter
dispens
##sbank
avklarad
gw
startas
heminredning
kanslighet
palace
##torget
##moj
hogtryck
##kamp
forvax
stangning
##espond
##biten
forson
##otion
skamlosa
bokad
socialstyrelsens
strukturerat
utvecklingsarbete
friskare
##sapp
##lonen
mongol
##stiftning
farsta
##ikationen
pornstars
censur
glutenfria
graden
##ilien
generald
tb
##sek
slock
##ankta
ghar
backup
uppstart
tittare
friday
##osh
##serande
studs
angesten
maka
napra
enhetschef
tilldelats
##avling
arkivet
giftiga
forbrukning
formas
putin
sexton
elande
defekt
kontaktsidor
erforder
mossor
evidens
##menyn
paypal
108
twilight
fansen
lettland
indikation
parlament
tjeckiska
118
##sappar
najs
alk
##avdrag
duo
##arena
vilsel
##oge
uppdelad
##ejo
obalans
fetma
falls
##rapportering
rabbit
##sexamen
kudden
aktiverar
preferenser
involverade
##enda
##terapi
omtalade
##istrar
ostergotlands
##sgu
##underlaget
##emanget
ankar
landshov
torsdagar
kragen
##overn
skrubb
imon
##spanning
sfi
flaggan
unionens
##icens
##sugn
kajak
sjofart
##leverantorer
##sbelopp
uppstand
islands
overlagset
klappa
ridhuset
##ekonomin
mangfalden
##direktor
vick
omradets
positionen
##uay
omnamn
klades
tubes
wet
slutna
verksamhetschef
##shoj
rusta
gards
klimatforandring
stallningstagande
logg
##wal
dragning
farskt
damerna
inkluderande
lydelse
anmarkningar
##fynd
male
zur
##brack
oxid
##bubb
byr
orimligt
##konser
injektion
femma
kvalitativa
likna
inrym
bieber
##uller
brita
administrera
forodande
strommar
##inans
darute
bim
##call
bakteri
moraliska
kala
slet
klarhet
##kran
##cio
fou
tajt
tavlat
symtomen
grabbar
insjuk
madeleine
##chis
##iday
jason
seoul
uppsatt
arboga
misstankte
bokstavligt
adrian
horna
makar
##halsan
##ssy
myror
tilltalar
##armen
avvag
sarajevo
laa
tillverknings
skadades
strejk
##orelsen
hala
##hushall
##spray
##renovering
arbetande
datainspektionen
framstalls
speltid
bjuden
paradise
byggnadens
##rok
##paketet
wilson
##ronic
garningsmannen
bilagor
brande
medfort
##filosof
savitt
##skivan
analyseras
dacken
##smedicin
centern
ballong
biter
jogging
scot
hapnads
justeringar
granskas
vlad
things
buy
overraskade
##hallna
bunke
gled
##uden
beredning
korruption
##food
forser
bevap
nattetid
##bolagets
rodd
wor
##pist
##api
rentav
califor
##barnet
automatik
education
eken
amy
uttrakad
styrelseordforande
##pil
##serfarenhet
kantare
pakistan
branschens
hyresgasten
##raknat
##ruta
##tjansten
yrkesverk
varuhus
hir
utvarderas
kommenterade
koksbordet
simmar
##bytet
programvaran
tysklands
strej
update
avkastningen
forvirring
spenderades
sockret
##anvandningen
##uki
mekanisk
##gjut
avrund
tillamplig
##burk
vastvarlden
##presenterade
tvattade
forstort
##rn
motioner
##platserna
aktiviteterna
innovativ
explorer
##ygd
godsel
uppkop
skadespelarna
liberalerna
parten
mindful
tillforlitlig
uppsat
utvil
##princi
avseenden
foresprakar
##eks
##umpa
handikappade
##¤n
##uns
##sanlaggning
greta
##sledaren
terminal
lcd
fyl
##shult
ofatt
fornamn
pjasen
##slever
hambur
stjart
klada
mmm
##jic
##ogenheter
metabol
transporten
upphandlingar
##hust
framtagna
jaklar
repa
besokaren
##ganget
duschat
konet
##sskyld
ck
belyser
##mentet
##slinjen
baste
gustavs
hapnadsvackande
venedig
thunder
aterbetalningar
dubbelrum
##ceph
allafall
dessfor
rebeck
inforas
##ningsgrad
vattentat
sakt
foljdes
detroit
kortfristiga
##skatte
visuella
##inus
farm
bonderna
ogonsk
besoksadress
china
##slinje
##skidor
urvalsgrupp
paper
religioner
##skytte
likvardig
hamtning
gruppsex
omkull
##hos
eddie
brander
pataglig
pamind
parkeringsplats
sexliv
valsign
svante
##kap
##latt
##spartiet
coca
arbetsmarknads
##sattas
kompetensen
volley
##elns
strak
pippi
260
aterin
knan
tjanat
280
utlam
##hara
spenat
muntlig
diskuterat
##agera
##uttryck
bevilja
googles
hott
fullmakt
harfarg
privatliv
hyllade
##kompisar
fv
270
##orterna
stubb
##assig
tvattstuga
terrorism
stjala
anstrangningar
renoveringen
##atisering
trivdes
koloni
klatter
moh
##skrisen
##soffa
trendiga
apa
lansera
##stjejer
miniat
##iserats
##spann
gf
##bespar
intent
fortjanst
kontraster
##tat
trich
maklaren
podden
redogorelse
virke
tortyr
oversattningar
begynn
knapparna
lillan
##sboende
muntliga
##identer
inriktningen
tvas
collected
birth
mekanis
tystnaden
replik
hata
119
matematiska
##forhor
##sprotokoll
zetter
framstall
nd
paverkad
burn
scandic
kompatibel
lonsamt
skutt
fossila
knyter
dopt
motorcyklar
varter
rastlos
underst
barnfamiljer
personbilar
scrap
naket
lukten
##astan
trampa
nybyggda
karis
kavaj
bloggande
dessforinnan
##stedts
mangsidig
##hojning
##injen
##unnet
ungt
beskrivit
seriens
##storps
##laggas
frukten
terrorist
kanslomassigt
##iala
##uppfyll
pelar
##mil
change
busshall
sokord
korthet
rikets
gronomrade
1889
dekorationer
stickad
##hallandet
option
grejerna
tesla
lysek
foreslagit
utmarker
vell
stranderna
##lokal
afro
qa
##lagret
artvaxter
cartoon
ian
valts
golfklubb
onsdagar
publikationer
pyjamas
dirty
jisses
sg
firat
smorja
bankar
elizabeth
fell
fangsl
insikten
##kritik
browser
##dod
gallerier
soppan
theo
varsitt
##osteron
##asong
##sno
konstruktioner
viker
monterade
frankf
dry
dammsu
##sens
passagerar
##sklubben
affarerna
omgivningar
##hamnen
##texter
##ymnasiet
overga
underverk
hills
ledningar
heat
cupc
legendariska
ensid
kliv
##drarna
cyt
##ynta
##farlig
nervost
##icill
##jamt
valutrust
emission
motiverar
guvernementet
ungas
producerad
ansokning
mormors
##lagenheter
kvalls
ortoped
challenge
mailadress
frekvent
##domet
##marg
feminism
undervisar
fororeningar
##sbad
vampyr
hindret
beskattning
cott
taj
konvertera
nk
elektricitet
file
mjolby
##skyltar
puder
skrivandet
mint
smitta
##bab
riven
##attnet
toronto
##rupper
teoretiskt
sommardack
dussin
beord
##dhet
##skillnader
puh
mio
varelse
##yan
patt
latinska
kronoberg
isf
##havet
##choklad
kly
radon
masterskapet
##bergen
tacks
security
168
cf
skrammer
##valitet
balen
##bestand
utokas
##lights
fiff
engstrom
petite
skaft
fastighetsmaklare
##smassage
synkron
##journalen
bark
##ipan
hardvara
##esystem
##varken
affili
##sleden
##arkar
liknade
uppmarksamheten
anmarkningsvart
pokemon
hotmail
##allor
sotnos
lonsam
jury
skriften
sandas
orken
superkul
##partier
foraldrarnas
##kladerna
specialiserat
upptradde
detaljplanen
##fox
tillmotesgaende
maskinerna
##xter
vista
duschar
bitarna
##fiskar
kritisera
miljovanlig
chanserna
lackert
##modern
virtual
aldreboende
overklagande
lyste
genetiska
skars
##infar
narvara
bitti
faktisk
ende
##isi
harbotten
pennor
1850
elbilar
lymf
utgatt
##ronik
forsum
##naring
##stralar
serverade
lindex
arrangoren
##dryck
poss
gentlem
##esex
memor
stadion
invandigt
konsumera
##sedel
avfard
israeliska
##krok
inflyttning
gynek
yttr
meteor
barande
investment
wag
give
m3
svavel
tidskravande
objektet
bebyggelsen
1891
##vaxande
village
nickade
efterfragar
##protein
monterad
dosering
implant
##79
empati
##skortet
sparris
meningslost
yang
##sboken
vindkraftverk
pornos
forbundslandet
kelly
##semester
slovak
bygde
##burst
svangde
##forvaring
kyrkob
intellektuella
exter
sommarspelen
##sdirekt
livmoder
linder
##roprakt
##anstallda
slim
akvarell
hogstad
uppfora
##yrket
forflytta
inbjuder
kiv
##kabel
strackte
##folket
fakulteten
arbetarklass
##undan
##sluck
stigar
byggher
borgar
##parad
##havande
intervjuade
##eme
rudolf
redigering
funder
##skompetens
invid
prima
omvandla
spiral
solcell
##beteende
psykiatri
oddsen
oriental
utfallet
##marknader
djebel
upphandlingen
booli
stog
##sterna
smyger
kaniner
##ricehamn
coffe
xen
utmaningarna
destinationer
casa
##atoren
##anpassad
inbjuden
omrades
slagen
##anlaggningen
##elf
investerings
##aaaaaaaa
sa¥
##svensk
overenskommelsen
gk
##rish
krus
varmde
##forsamling
uppladd
fine
flugor
##jern
krankningar
hanvisas
bortaplan
matsmalt
kronprins
uppmanas
kollektivt
##dyn
xi
farval
diskuterades
meck
##iman
australiens
##slander
rodgrona
utsattas
styrdokument
ansokt
##snivaer
##ografisk
##bav
##chal
begatt
religionen
idrottare
##slingar
##gio
safari
falu
##rill
podd
patriark
arbetskamrater
celebr
tydlighet
bestraff
monark
porto
pе
morgont
niger
##ebo
generations
hyfsad
##xxx
disco
molnen
close
ladu
##kompetens
vrak
##online
ecu
nich
ulricehamn
vern
uppfoljaren
uppmarksammat
forhoppningen
ostr
##py
amazing
modem
aggressiv
skyller
knivar
##okare
fucked
##gicks
sakerheter
##erav
##idakt
tyskarna
valv
bevarande
valbes
masterverk
outlook
inkommande
##rattsliga
nathal
begrunda
benz
##kunder
behandlat
##typer
##atorisk
utredare
finlandssven
dilemma
##mannens
beloningar
moore
kope
##inho
omfattningen
dep
##kroppen
##kling
lardom
##resultaten
oreg
norberg
uppfatta
##lasa
observation
sikta
econom
framlingsfient
fad
interaktion
tomats
dd
enskede
festivaler
fokuserad
##ises
rencont
stadningen
ansvarstagande
##itera
##lus
petrus
erin
##teringar
algorit
##aliserat
avokado
ves
##uthyrning
befar
kvaliteter
sparbank
roja
##spriser
spec
farja
byten
kondomer
betydelsefulla
kabeln
parkerings
tallrikar
prospekt
overskad
##gangarna
##ninge
figuren
dh
1892
avt
sandning
##kedjor
spanningar
evig
habo
medlemmen
##slandeart
potentiell
listat
##fasta
##avdelning
laura
##bry
##gy
stigen
leader
111
roth
utlys
parkeringsplatser
kaross
sprakliga
##hjulet
pai
obehagliga
##alskare
nostalgi
jm
uttryckligen
##ilitet
oring
musen
##inea
##entiella
##akra
erhallits
1888
##tavla
mullig
europeiskt
rugg
inbeg
##stagare
mana
avytt
designers
ingela
##nyheter
##onta
husagare
internets
inneboende
rymma
row
##ningsstod
nordkorea
##soffer
garantin
stationara
hogljud
natrium
grundval
##allsvenskan
sapass
##ti
malmos
morbror
##го
pistol
utlos
langsamma
rumpor
slata
skyddat
##maskart
1862
stl
##skrets
vok
evigheter
kiroprakt
##sanlaggningar
osannolikt
rating
sca
informeras
muntligt
##event
fullspack
ofullstand
lb
knullfilmer
ovarder
kallats
ropa
amerikanske
##sgransen
alto
influenser
##klade
spridda
sexchatt
bjudna
gripande
langder
serierna
badat
114
polismyndigheten
##hyttan
##lant
##ask
##ydate
tolerans
fangels
vattendraget
lopa
##uppdat
engagerat
webbutik
kvantit
kinas
gurk
dokumenteras
dansband
##bekraft
vibrerande
lektionerna
##materialet
##emans
varmek
##inget
##klicka
##inriktad
deklaration
##opia
##filt
##ни
##agre
fysio
satsade
oversvam
##aliserar
leggings
vagorna
##dren
underlatt
##tavlingen
forbjuden
underhalls
genuin
framkommit
nyttan
dens
angivet
peace
##atoriet
##bly
rysslands
tillatelse
ramavtal
oregel
##inis
damms
##ilis
disa
bop
hogupp
##iater
irl
##forhallandena
smultron
##dro
civilingenjor
##izer
lagpris
##oversikt
##ри
##ranad
neurolog
koranen
allmann
offensiv
foljeslag
gok
lavendel
erica
teleg
hyresratter
##foten
##utter
1893
##satet
skim
jol
##eline
falskt
depart
##oljan
attraktioner
hare
appliceras
##esiska
overbel
leasing
administrativt
fordjupad
##producent
dot
bevisat
slapa
kitch
nansin
kostenlos
solnedgangen
margaret
garanterad
hage
scar
skadlig
spricka
##matchen
skadligt
palestina
personals
##delarna
klackar
insattningsbonus
lie
lycksele
##sforing
jatted
optioner
##world
kirurgi
##orisk
resans
psalm
##along
klattrar
pressar
myndighetens
blinkar
##sajten
piper
rp
msb
plata
##kunskaper
offra
##uret
##uver
##installningar
tillfors
anfort
konstitut
yrkande
spl
forskaren
##beteckning
kortfattat
##ichef
forbudet
behandlad
vinerna
pynt
natcasino
##marin
manuset
gaende
makro
forald
1885
basilika
##fortjant
forbinder
##operation
overlycklig
rebecka
##shavaren
fornlam
myste
uppvarmningen
##baggar
petersburg
kramen
konventionella
##vak
nyfodda
forenar
madison
##stull
avgoras
elegans
##formularet
tamp
hogklass
zum
filippinerna
svens
koer
gransar
uppdelat
vadstena
vastmanlands
##ifl
##stiftningen
powered
##craft
##ogonen
##ators
revs
fullfolja
hatten
hemlosa
kommunist
##dem
##uket
##verkande
kakat
displayen
##ursen
smasaker
plog
osynlig
##vos
korttid
finansieringen
rord
agget
pensel
vags
avsugningar
saf
matchmak
periodens
##damm
organisatoriska
fastighetens
registreringen
pricken
supergod
transportstyrelsen
##smiljoer
##bordes
jordbruksverket
##iensis
blockera
##matningar
vaxthuset
##alie
does
hierark
mervardes
framtrader
bruks
sac
##lac
skalig
specialiserad
eq
bruket
##farten
utsprid
##sorganisationer
sagts
excellent
filmin
lararnas
##skarmar
luxem
##premiar
##drad
##erns
dukar
##oderna
socialdemokraternas
infr
depa
states
##enner
revolutioner
aloe
##endem
busa
##emora
butter
##ssekreterare
obehaglig
framtids
beteckning
destill
sensom
vederbor
tisdagar
konventionen
tropiska
benamns
andrew
ps3
stadsbibli
focus
bageri
karlstads
stipendier
stram
osterlen
xp
borje
bankkort
peg
ideellt
##harina
spontana
kabin
hager
ls
lansstyr
allmanhetens
2a
milen
290
halk
##splat
tillstallning
##ione
anmalde
unt
##imir
eftertanke
klippan
rb
handtaget
omsatta
luc
inkluderat
hojde
##hib
##elaterade
dong
##cock
wallin
inkomstskatt
diana
##frekvens
number
h2
kombinerad
slitet
##ukar
tjugof
barnmorskan
##erson
colorado
sammet
grundskole
synder
motiverade
##lagget
puma
diarre
##haw
vackrare
##zza
umgicks
vod
ibra
klickade
[...]
