[PAD]
[unused0]
[unused1]
[unused2]
[unused3]
[unused4]
[unused5]
[unused6]
[unused7]
[unused8]
[unused9]
[unused10]
[unused11]
[unused12]
[unused13]
[unused14]
[unused15]
[unused16]
[unused17]
[unused18]
[unused19]
[unused20]
[unused21]
[unused22]
[unused23]
[unused24]
[unused25]
[unused26]
[unused27]
[unused28]
[unused29]
[unused30]
[unused31]
[unused32]
[unused33]
[unused34]
[unused35]
[unused36]
[unused37]
[unused38]
[unused39]
[unused40]
[unused41]
[unused42]
[unused43]
[unused44]
[unused45]
[unused46]
[unused47]
[unused48]
[unused49]
[unused50]
[unused51]
[unused52]
[unused53]
[unused54]
[unused55]
[unused56]
[unused57]
[unused58]
[unused59]
[unused60]
[unused61]
[unused62]
[unused63]
[unused64]
[unused65]
[unused66]
[unused67]
[unused68]
[unused69]
[unused70]
[unused71]
[unused72]
[unused73]
[unused74]
[unused75]
[unused76]
[unused77]
[unused78]
[unused79]
[unused80]
[unused81]
[unused82]
[unused83]
[unused84]
[unused85]
[unused86]
[unused87]
[unused88]
[unused89]
[unused90]
[unused91]
[unused92]
[unused93]
[unused94]
[unused95]
[unused96]
[unused97]
[unused98]
[unused99]
[unused100]
[unused101]
[unused102]
[unused103]
[unused104]
[unused105]
[unused106]
[unused107]
[unused108]
[unused109]
[unused110]
[unused111]
[unused112]
[unused113]
[unused114]
[unused115]
[unused116]
[unused117]
[unused118]
[unused119]
[unused120]
[unused121]
[unused122]
[unused123]
[unused124]
[unused125]
[unused126]
[unused127]
[unused128]
[unused129]
[unused130]
[unused131]
[unused132]
[unused133]
[unused134]
[unused135]
[unused136]
[unused137]
[unused138]
[unused139]
[unused140]
[unused141]
[unused142]
[unused143]
[unused144]
[unused145]
[unused146]
[unused147]
[unused148]
[unused149]
[unused150]
[unused151]
[unused152]
[unused153]
[unused154]
[unused155]
[unused156]
[unused157]
[unused158]
[unused159]
[unused160]
[unused161]
[unused162]
[unused163]
[unused164]
[unused165]
[unused166]
[unused167]
[unused168]
[unused169]
[unused170]
[unused171]
[unused172]
[unused173]
[unused174]
[unused175]
[unused176]
[unused177]
[unused178]
[unused179]
[unused180]
[unused181]
[unused182]
[unused183]
[unused184]
[unused185]
[unused186]
[unused187]
[unused188]
[unused189]
[unused190]
[unused191]
[unused192]
[unused193]
[unused194]
[unused195]
[unused196]
[unused197]
[unused198]
[unused199]
[unused200]
[unused201]
[unused202]
[unused203]
[unused204]
[unused205]
[unused206]
[unused207]
[unused208]
[unused209]
[unused210]
[unused211]
[unused212]
[unused213]
[unused214]
[unused215]
[unused216]
[unused217]
[unused218]
[unused219]
[unused220]
[unused221]
[unused222]
[unused223]
[unused224]
[unused225]
[unused226]
[unused227]
[unused228]
[unused229]
[unused230]
[unused231]
[unused232]
[unused233]
[unused234]
[unused235]
[unused236]
[unused237]
[unused238]
[unused239]
[unused240]
[unused241]
[unused242]
[unused243]
[unused244]
[unused245]
[unused246]
[unused247]
[unused248]
[unused249]
[unused250]
[unused251]
[unused252]
[unused253]
[unused254]
[unused255]
[unused256]
[unused257]
[unused258]
[unused259]
[unused260]
[unused261]
[unused262]
[unused263]
[unused264]
[unused265]
[unused266]
[unused267]
[unused268]
[unused269]
[unused270]
[unused271]
[unused272]
[unused273]
[unused274]
[unused275]
[unused276]
[unused277]
[unused278]
[unused279]
[unused280]
[unused281]
[unused282]
[unused283]
[unused284]
[unused285]
[unused286]
[unused287]
[unused288]
[unused289]
[unused290]
[unused291]
[unused292]
[unused293]
[unused294]
[unused295]
[unused296]
[unused297]
[unused298]
[unused299]
[unused300]
[unused301]
[unused302]
[unused303]
[unused304]
[unused305]
[unused306]
[unused307]
[unused308]
[unused309]
[unused310]
[unused311]
[unused312]
[unused313]
[unused314]
[unused315]
[unused316]
[unused317]
[unused318]
[unused319]
[unused320]
[unused321]
[unused322]
[unused323]
[unused324]
[unused325]
[unused326]
[unused327]
[unused328]
[unused329]
[unused330]
[unused331]
[unused332]
[unused333]
[unused334]
[unused335]
[unused336]
[unused337]
[unused338]
[unused339]
[unused340]
[unused341]
[unused342]
[unused343]
[unused344]
[unused345]
[unused346]
[unused347]
[unused348]
[unused349]
[unused350]
[unused351]
[unused352]
[unused353]
[unused354]
[unused355]
[unused356]
[unused357]
[unused358]
[unused359]
[unused360]
[unused361]
[unused362]
[unused363]
[unused364]
[unused365]
[unused366]
[unused367]
[unused368]
[unused369]
[unused370]
[unused371]
[unused372]
[unused373]
[unused374]
[unused375]
[unused376]
[unused377]
[unused378]
[unused379]
[unused380]
[unused381]
[unused382]
[unused383]
[unused384]
[unused385]
[unused386]
[unused387]
[unused388]
[unused389]
[unused390]
[unused391]
[unused392]
[unused393]
[unused394]
[unused395]
[unused396]
[unused397]
[unused398]
[unused399]
[unused400]
[unused401]
[unused402]
[unused403]
[unused404]
[unused405]
[unused406]
[unused407]
[unused408]
[unused409]
[unused410]
[unused411]
[unused412]
[unused413]
[unused414]
[unused415]
[unused416]
[unused417]
[unused418]
[unused419]
[unused420]
[unused421]
[unused422]
[unused423]
[unused424]
[unused425]
[unused426]
[unused427]
[unused428]
[unused429]
[unused430]
[unused431]
[unused432]
[unused433]
[unused434]
[unused435]
[unused436]
[unused437]
[unused438]
[unused439]
[unused440]
[unused441]
[unused442]
[unused443]
[unused444]
[unused445]
[unused446]
[unused447]
[unused448]
[unused449]
[unused450]
[unused451]
[unused452]
[unused453]
[unused454]
[unused455]
[unused456]
[unused457]
[unused458]
[unused459]
[unused460]
[unused461]
[unused462]
[unused463]
[unused464]
[unused465]
[unused466]
[unused467]
[unused468]
[unused469]
[unused470]
[unused471]
[unused472]
[unused473]
[unused474]
[unused475]
[unused476]
[unused477]
[unused478]
[unused479]
[unused480]
[unused481]
[unused482]
[unused483]
[unused484]
[unused485]
[unused486]
[unused487]
[unused488]
[unused489]
[unused490]
[unused491]
[unused492]
[unused493]
[unused494]
[unused495]
[unused496]
[unused497]
[unused498]
[unused499]
[unused500]
[unused501]
[unused502]
[unused503]
[unused504]
[unused505]
[unused506]
[unused507]
[unused508]
[unused509]
[unused510]
[unused511]
[unused512]
[unused513]
[unused514]
[unused515]
[unused516]
[unused517]
[unused518]
[unused519]
[unused520]
[unused521]
[unused522]
[unused523]
[unused524]
[unused525]
[unused526]
[unused527]
[unused528]
[unused529]
[unused530]
[unused531]
[unused532]
[unused533]
[unused534]
[unused535]
[unused536]
[unused537]
[unused538]
[unused539]
[unused540]
[unused541]
[unused542]
[unused543]
[unused544]
[unused545]
[unused546]
[unused547]
[unused548]
[unused549]
[unused550]
[unused551]
[unused552]
[unused553]
[unused554]
[unused555]
[unused556]
[unused557]
[unused558]
[unused559]
[unused560]
[unused561]
[unused562]
[unused563]
[unused564]
[unused565]
[unused566]
[unused567]
[unused568]
[unused569]
[unused570]
[unused571]
[unused572]
[unused573]
[unused574]
[unused575]
[unused576]
[unused577]
[unused578]
[unused579]
[unused580]
[unused581]
[unused582]
[unused583]
[unused584]
[unused585]
[unused586]
[unused587]
[unused588]
[unused589]
[unused590]
[unused591]
[unused592]
[unused593]
[unused594]
[unused595]
[unused596]
[unused597]
[unused598]
[unused599]
[unused600]
[unused601]
[unused602]
[unused603]
[unused604]
[unused605]
[unused606]
[unused607]
[unused608]
[unused609]
[unused610]
[unused611]
[unused612]
[unused613]
[unused614]
[unused615]
[unused616]
[unused617]
[unused618]
[unused619]
[unused620]
[unused621]
[unused622]
[unused623]
[unused624]
[unused625]
[unused626]
[unused627]
[unused628]
[unused629]
[unused630]
[unused631]
[unused632]
[unused633]
[unused634]
[unused635]
[unused636]
[unused637]
[unused638]
[unused639]
[unused640]
[unused641]
[unused642]
[unused643]
[unused644]
[unused645]
[unused646]
[unused647]
[unused648]
[unused649]
[unused650]
[unused651]
[unused652]
[unused653]
[unused654]
[unused655]
[unused656]
[unused657]
[unused658]
[unused659]
[unused660]
[unused661]
[unused662]
[unused663]
[unused664]
[unused665]
[unused666]
[unused667]
[unused668]
[unused669]
[unused670]
[unused671]
[unused672]
[unused673]
[unused674]
[unused675]
[unused676]
[unused677]
[unused678]
[unused679]
[unused680]
[unused681]
[unused682]
[unused683]
[unused684]
[unused685]
[unused686]
[unused687]
[unused688]
[unused689]
[unused690]
[unused691]
[unused692]
[unused693]
[unused694]
[unused695]
[unused696]
[unused697]
[unused698]
[unused699]
[unused700]
[unused701]
[unused702]
[unused703]
[unused704]
[unused705]
[unused706]
[unused707]
[unused708]
[unused709]
[unused710]
[unused711]
[unused712]
[unused713]
[unused714]
[unused715]
[unused716]
[unused717]
[unused718]
[unused719]
[unused720]
[unused721]
[unused722]
[unused723]
[unused724]
[unused725]
[unused726]
[unused727]
[unused728]
[unused729]
[unused730]
[unused731]
[unused732]
[unused733]
[unused734]
[unused735]
[unused736]
[unused737]
[unused738]
[unused739]
[unused740]
[unused741]
[unused742]
[unused743]
[unused744]
[unused745]
[unused746]
[unused747]
[unused748]
[unused749]
[unused750]
[unused751]
[unused752]
[unused753]
[unused754]
[unused755]
[unused756]
[unused757]
[unused758]
[unused759]
[unused760]
[unused761]
[unused762]
[unused763]
[unused764]
[unused765]
[unused766]
[unused767]
[unused768]
[unused769]
[unused770]
[unused771]
[unused772]
[unused773]
[unused774]
[unused775]
[unused776]
[unused777]
[unused778]
[unused779]
[unused780]
[unused781]
[unused782]
[unused783]
[unused784]
[unused785]
[unused786]
[unused787]
[unused788]
[unused789]
[unused790]
[unused791]
[unused792]
[unused793]
[unused794]
[unused795]
[unused796]
[unused797]
[unused798]
[unused799]
[unused800]
[unused801]
[unused802]
[unused803]
[unused804]
[unused805]
[unused806]
[unused807]
[unused808]
[unused809]
[unused810]
[unused811]
[unused812]
[unused813]
[unused814]
[unused815]
[unused816]
[unused817]
[unused818]
[unused819]
[unused820]
[unused821]
[unused822]
[unused823]
[unused824]
[unused825]
[unused826]
[unused827]
[unused828]
[unused829]
[unused830]
[unused831]
[unused832]
[unused833]
[unused834]
[unused835]
[unused836]
[unused837]
[unused838]
[unused839]
[unused840]
[unused841]
[unused842]
[unused843]
[unused844]
[unused845]
[unused846]
[unused847]
[unused848]
[unused849]
[unused850]
[unused851]
[unused852]
[unused853]
[unused854]
[unused855]
[unused856]
[unused857]
[unused858]
[unused859]
[unused860]
[unused861]
[unused862]
[unused863]
[unused864]
[unused865]
[unused866]
[unused867]
[unused868]
[unused869]
[unused870]
[unused871]
[unused872]
[unused873]
[unused874]
[unused875]
[unused876]
[unused877]
[unused878]
[unused879]
[unused880]
[unused881]
[unused882]
[unused883]
[unused884]
[unused885]
[unused886]
[unused887]
[unused888]
[unused889]
[unused890]
[unused891]
[unused892]
[unused893]
[unused894]
[unused895]
[unused896]
[unused897]
[unused898]
[unused899]
[unused900]
[unused901]
[unused902]
[unused903]
[unused904]
[unused905]
[unused906]
[unused907]
[unused908]
[unused909]
[unused910]
[unused911]
[unused912]
[unused913]
[unused914]
[unused915]
[unused916]
[unused917]
[unused918]
[unused919]
[unused920]
[unused921]
[unused922]
[unused923]
[unused924]
[unused925]
[unused926]
[unused927]
[unused928]
[unused929]
[unused930]
[unused931]
[unused932]
[unused933]
[unused934]
[unused935]
[unused936]
[unused937]
[unused938]
[unused939]
[unused940]
[unused941]
[unused942]
[unused943]
[unused944]
[unused945]
[unused946]
[unused947]
[unused948]
[unused949]
[unused950]
[unused951]
[unused952]
[unused953]
[unused954]
[unused955]
[unused956]
[unused957]
[unused958]
[unused959]
[unused960]
[unused961]
[unused962]
[unused963]
[unused964]
[unused965]
[unused966]
[unused967]
[unused968]
[unused969]
[unused970]
[unused971]
[unused972]
[unused973]
[unused974]
[unused975]
[unused976]
[unused977]
[unused978]
[unused979]
[unused980]
[unused981]
[unused982]
[unused983]
[unused984]
[unused985]
[unused986]
[unused987]
[unused988]
[unused989]
[unused990]
[unused991]
[unused992]
[unused993]
[unused994]
[unused995]
[unused996]
[unused997]
[unused998]
[unused999]
[UNK]
[CLS]
[SEP]
[MASK]
!
"
#
$
%
&
'
(
)
*
+
,
-
.
/
0
1
2
3
4
5
6
7
8
9
:
;
=
?
@
[
\
]
^
_
`
a
b
c
d
e
f
g
h
i
j
k
l
m
n
o
p
q
r
s
t
u
v
w
x
y
z
{
|
}
~
¡
£
§
¨
«
¬
®
°
±
²
³
´
µ
·
¹
º
»
¼
½
×
ß
æ
ð
ø
þ
đ
ħ
ı
ł
ŋ
œ
ƒ
ɐ
ɑ
ɔ
ə
ɛ
ɡ
ɨ
ɪ
ɾ
ʀ
ʁ
ʃ
ʊ
ʒ
ʔ
ʰ
ʲ
ʹ
ʻ
ʼ
ʾ
ʿ
ˈ
ː
˚
α
β
γ
δ
ε
ζ
η
θ
ι
κ
λ
μ
ν
ξ
ο
π
ρ
ς
σ
τ
υ
φ
χ
ψ
ω
а
б
в
г
д
е
ж
з
и
к
л
м
н
о
п
р
с
т
у
ф
х
ц
ч
ш
щ
ъ
ы
ь
э
ю
я
ђ
є
і
ј
љ
њ
ћ
џ
қ
ү
ә
ө
ա
բ
գ
դ
ե
զ
թ
ի
լ
խ
ծ
կ
հ
ղ
մ
յ
ն
շ
ո
չ
պ
ջ
ռ
ս
վ
տ
ր
ց
ւ
ք
א
ב
ג
ד
ה
ו
ז
ח
ט
י
כ
ל
ם
מ
ן
נ
ס
ע
ף
פ
צ
ק
ר
ש
ת
ء
ا
ب
ة
ت
ث
ج
ح
خ
د
ذ
ر
ز
س
ش
ص
ض
ط
ظ
ع
غ
ـ
ف
ق
ك
ل
م
ن
ه
و
ى
ي
پ
چ
ډ
ژ
ک
گ
ہ
ۆ
ی
ێ
ې
ە
ܐ
ܝ
ܪ
ܬ
क
ग
च
ज
ट
ड
त
द
न
प
ब
म
य
र
ल
व
श
ष
स
ह
ा
ि
ी
ो
গ
জ
দ
ন
ব
ম
র
ল
া
ি
ে
க
ச
ட
த
ன
ப
ம
ர
வ
ா
ி
ு
ാ
ก
ง
ช
ด
ต
ท
น
บ
พ
ม
ย
ร
ล
ว
ส
ห
อ
ะ
า
เ
་
ག
ང
བ
ར
ས
ა
ბ
გ
დ
ე
ვ
ზ
თ
ი
კ
ლ
მ
ნ
ო
პ
რ
ს
ტ
უ
ფ
ქ
ღ
ყ
შ
ჩ
ც
ძ
წ
ჭ
ხ
ჯ
ᄀ
ᄂ
ᄃ
ᄅ
ᄆ
ᄇ
ᄉ
ᄊ
ᄋ
ᄌ
ᄎ
ᄏ
ᄐ
ᄑ
ᄒ
ᅡ
ᅢ
ᅣ
ᅥ
ᅦ
ᅧ
ᅨ
ᅩ
ᅪ
ᅬ
ᅭ
ᅮ
ᅯ
ᅱ
ᅲ
ᅳ
ᅴ
ᅵ
ᆨ
ᆫ
ᆯ
ᆷ
ᆸ
ᆺ
ᆼ
ᚠ
ᚢ
ᚦ
ᚱ
ᚴ
ᚼ
ᚾ
ᛁ
ᛅ
ᛋ
ᛏ
ᛒ
ᛚ
ᛦ
᛫
᛬
‐
‑
–
—
‘
’
‚
“
”
„
†
•
…
‰
′
″
›
₂
€
№
ℝ
ℵ
→
∈
−
√
∞
≈
≤
≥
⋅
─
│
└
├
★
☉
♭
⟨
⟩
い
か
き
し
と
の
り
ん
ア
イ
ウ
オ
カ
キ
ク
コ
サ
シ
ス
タ
ッ
テ
ト
ハ
ヒ
フ
ホ
マ
ラ
リ
ル
レ
ロ
ン
・
ー
一
丁
七
万
三
上
下
世
东
两
中
丰
临
丹
义
之
乌
乐
九
乡
二
云
五
井
亚
京
亭
人
什
仁
仓
仙
代
伊
会
何
佛
依
保
信
候
元
光
克
八
公
六
兰
关
兴
其
内
军
农
凤
切
刘
则
利
前
力
加
勒
包
化
北
区
十
千
华
卓
南
博
卡
卫
厂
原
县
双
发
口
古
台
叶
号
司
合
吉
同
后
吐
向
吴
吾
周
呼
咀
和
哈
唐
喀
嘉
嘎
四
回
团
园
国
图
國
土
圩
地
场
坊
坑
坝
坡
坪
垭
城
埠
基
堂
堆
堡
堰
場
塔
塘
墩
夏
外
多
大
天
太
头
如
子
孔
字
孙
孜
学
宁
安
宋
宗
官
定
宝
宫
家
富
寨
寺
寿
小
尔
尖
尼
尾
居
屯
山
屿
岔
岗
岛
岩
岭
岳
峡
峪
峰
島
川
州
工
巴
市
布
帝
常
干
平
年
广
庄
庆
库
底
店
庙
府
康
建
式
张
当
彝
彦
徐
德
心
恰
成
房
所
扎
托
拉
排
政
敖
文
斗
斯
新
方
族
旗
日
昌
明
星
春
普
景
曲
曹
月
朗
望
朝
木
本
朱
机
李
村
杜
来
杨
東
松
板
林
果
柏
查
柳
树
株
根
格
桂
桃
桐
桑
桥
梁
梅
楼
榆
樟
横
正
武
毛
民
水
永
汉
江
池
汤
沙
沟
河
治
泉
法
泡
波
泥
泰
泽
洋
洛
洞
津
洪
洲
流
浦
浪
海
清
渡
温
港
湖
湾
源
溪
满
滩
潭
澳
灣
火
灵
热
燕
牙
牛
物
特
狮
玉
王
玛
珠
理
琼
瑶
瓦
甘
生
田
甲
甸
界
登
白
百
皇
盖
盘
盛
相
真
石
矿
磨
社
神
福
秀
秋
科
秦
窝
立
站
章
竹
米
索
紫
红
纳
结
罗
羊
美
群
老
联
育
胜
胡
自
良
色
芦
花
苏
苗
英
茅
茶
草
荣
莫
莲
营
萨
董
蒙
蒲
藏
虎
街
西
观
角
解
谷
象
贡
赛
赤
赵
路
车
辛
边
达
进
连
通
道
那
郊
郎
郑
郡
部
郭
都
里
野
金
钦
铁
铜
银
铺
错
镇
长
門
门
阳
阿
陈
院
陵
陶
隆
雄
雅
集
雪
雷
青
面
音
顶
顺
风
香
馬
马
高
鱼
鲁
鸡
鹤
鹿
麦
麻
黄
黑
鼓
龙
##a
##k
##i
##l
##o
##w
##n
##h
##s
##r
##g
##f
##e
##y
##d
##t
##c
##v
##u
##m
##p
##b
##z
##к
##о
##б
##а
##ш
##в
##и
##л
##6
##1
##x
##у
##д
##ж
##я
##q
##j
##9
##5
##3
##η
##ν
##ι
##α
##8
##0
##ش
##ک
##و
##ت
##ی
##т
##е
##ب
##پ
##ن
##æ
##р
##м
##2
##7
##і
##ц
##ь
##ه
##ج
##م
##س
##ا
##ε
##ξ
##ر
##ع
##ي
##4
##ل
##د
##с
##ة
##き
##گ
##°
##г
##п
##ч
##ј
##ɪ
##ʒ
##ø
##ю
##н
##ρ
##ο
##ف
##ᅳ
##ᄅ
##ᅩ
##ᄎ
##ᅮ
##ᆨ
##ᄀ
##ᄃ
##ᅡ
##ᆫ
##چ
##ბ
##რ
##ა
##ი
##მ
##ს
##ᆯ
##ᅵ
##ᅥ
##ᆼ
##ᄋ
##ᄌ
##フ
##ー
##ᅧ
##ᄉ
##ᄆ
##ᅢ
##ᄂ
##υ
##μ
##β
##λ
##σ
##π
##τ
##ς
##ز
##ق
##خ
##ᆷ
##ʀ
##×
##ð
##ط
##─
##ł
##±
##غ
##ᄒ
##з
##ك
##ʲ
##ə
##י
##ן
##´
##ы
##ە
##ᛅ
##ᚾ
##ᛋ
##þ
##ᅬ
##ᄑ
##−
##ژ
##ı
##ล
##ก
##ص
##น
##ว
##ต
##ร
##ح
##ק
##ר
##ו
##ת
##ᅴ
##ß
##ظ
##κ
##δ
##ф
##ვ
##њ
##キ
##ン
##タ
##ル
##ᄏ
##ᅭ
##ᅪ
##ᅣ
##≥
##ლ
##დ
##ე
##ჭ
##ん
##り
##נ
##א
##ס
##レ
##ト
##マ
##イ
##ク
##ロ
##ω
##ɨ
##ض
##ל
##ʰ
##қ
##ה
##ء
##ɑ
##ʃ
##ᅲ
##φ
##र
##ा
##ी
##ב
##љ
##ћ
##გ
##џ
##ն
##ա
##ր
##ʹ
##า
##ะ
##đ
##х
##オ
##コ
##²
##ף
##ɐ
##צ
##մ
##յ
##ᄇ
##ด
##พ
##อ
##ᛁ
##ᚢ
##ᚦ
##ᚱ
##ᚴ
##ᆸ
##χ
##ث
##い
##ᅱ
##γ
##מ
##տ
##ե
##ց
##ի
##ք
##ט
##ע
##র
##ন
##গ
##ო
##ხ
##ტ
##უ
##ท
##ย
##³
##ძ
##ʿ
##ψ
##リ
##ウ
##の
##ᅨ
##ง
##ช
##া
##զ
##բ
##կ
##ღ
##ː
##ɾ
##ᅦ
##ா
##த
##க
##ி
##シ
##э
##ห
##บ
##ח
##ნ
##კ
##ذ
##щ
##ŋ
##ז
##ъ
##ש
##¨
##ᛏ
##ᅯ
##ம
##ス
##ہ
##ˈ
##ɔ
##ッ
##פ
##テ
##ᚠ
##θ
##ד
##ى
##ם
##պ
##ᛦ
##ג
##ᄐ
##ђ
##ჩ
##თ
##เ
##ང
##ি
##क
##ष
##ि
##כ
##व
##ղ
##թ
##հ
##դ
##գ
##ս
##ग
##ल
##ர
##ட
##ʻ
##º
##ह
##ड
##ज
##լ
##ɡ
##し
##ո
##ւ
##ɛ
##ो
##カ
##∞
##ม
##ܐ
##խ
##œ
##ქ
##≈
##ヒ
##ാ
##ʾ
##ম
##জ
##€
##ল
##ラ
##ハ
##₂
##ʊ
##შ
##ზ
##წ
##ყ
##न
##प
##म
##দ
##ჯ
##˚
##ә
##ब
##त
##द
##வ
##ன
##վ
##չ
##ۆ
##ு
##ᛚ
##շ
##ʁ
##ܝ
##ფ
##ծ
##ө
##ێ
##ـ
##ᆺ
##ζ
##य
##ে
##ᛒ
##ܬ
##ག
##ས
##ܪ
##サ
##ջ
##ச
##ப
##ც
##პ
##⋅
##श
##स
##ट
##£
##ส
##→
##є
##ব
##ར
##®
##ア
##ү
##¹
##ホ
##♭
##ې
##ռ
##ʼ
##½
##か
##ħ
##ʔ
##と
##ƒ
##च
##¼
##བ
##ℵ
##★
##ᄊ
##ᚼ
##ډ
##¬
##µ
##∈
##☉
##≤
##√
##en
##er
##ar
##an
ar
##st
##et
##or
##at
##ad
##ed
##in
##om
##ch
##al
##il
##el
och
den
##ra
##ig
##on
##kt
##tt
##sk
med
in
av
##un
##and
##ast
##am
en
##ing
##ord
##em
##es
##li
##eter
##la
##ur
##og
som
om
for
##ol
##art
##re
##ade
st
##aden
##aste
ing
li
##sn
##id
##is
##erb
°c
##der
##ck
var
##kten
##all
##ederb
##ederbord
##ill
##per
##ro
##ver
##av
man
##as
##lig
##ud
19
##ning
##are
##ag
pa
##itt
##us
tra
an
un
##ri
##na
det
##ska
##eg
##unt
gen
##ran
##tem
till
trakten
be
##pp
##atur
genom
##ger
##uv
##ak
del
##ter
##aturen
under
runt
##peraturen
##eltem
##eltemperaturen
##uvud
##att
manaden
de
##inn
##snitt
##lim
mm
km
genomsnitt
nederbord
##it
huvud
##od
lig
##ari
ligger
ingar
ett
over
##ion
##ot
att
##ilj
of
finn
##ber
finns
sla
##sm
reg
##ue
nar
##rev
sy
##amilj
##land
##ilom
##ilometer
familj
land
##sta
##iv
##ktet
familjen
sk
##ent
##ul
han
meter
##ik
##fe
##ia
##os
##ru
inga
besk
da
##arter
##le
##maste
hav
##revs
slaktet
##atal
underarter
##ande
beskrevs
havet
list
##atalog
life
delen
ut
catalog
catalogue
kall
listade
##rat
##ang
##um
##ut
##van
kv
##ost
per
##op
##orra
##ste
landet
##ens
##staden
sam
##ax
##ef
##het
20
har
al
huvudstaden
pro
mil
invan
invanare
##smed
##omm
##olk
regn
fran
##ic
nord
stor
syd
arsmed
arsmedeltemperaturen
medeltemperaturen
kallaste
varmaste
##ust
##adrat
kvadrat
##sen
##gen
##ler
##igaste
##kilometer
kvadratkilometer
##ist
jan
torra
##limeter
millimeter
genomsnittlig
##ta
arsn
arsnederbord
torraste
regnigaste
##arna
##limat
##ug
##ov
##uari
vid
januari
18
sp
kan
##uli
##eb
##for
##ader
##ala
##ien
##ades
##ep
el
juli
##te
##iska
##ark
ost
##de
upp
ch
##vast
##sak
##bef
##befolk
tv
hog
komm
vast
##vin
##sa
ter
so
##giv
##rad
pl
huvudsak
##ell
##ac
men
##ek
##heten
##sp
ku
provin
##fter
ber
##dra
##ann
sj
##yg
##ok
terran
##und
terrangen
omgiv
or
##ember
##ram
rader
sv
##ab
##hall
narheten
kommun
aug
##ats
##ock
nor
pun
august
##ir
##ard
provinsen
hogsta
##amn
##ae
##ap
vax
##im
augusti
##ind
##ick
##befolkat
efter
##ation
punkten
200
br
##opp
##se
##ant
##alet
##isk
sig
##ka
##ningarna
kilometer
at
##nings
dar
##yr
eller
##ub
##sart
##ina
##son
##man
##anska
##ort
omgivningarna
##ling
mar
ma
oster
##ft
hon
##ung
kon
201
sydost
tva
##jar
##est
##ma
##ionen
art
berg
##sam
samhall
ant
##ier
vaster
##atten
##lag
ri
##ott
gl
##skap
##lev
nordvast
##ara
##yck
am
forst
##ron
##ob
cent
tid
##vax
##ebru
##klimat
soder
febru
februari
##00
fl
##ess
storre
##uni
aven
nordost
##ne
vatten
lak
##radet
##lar
##olj
best
sa
bor
##red
##den
dec
##ligen
##erna
bland
th
199
norr
sydvast
mot
##skog
juni
sin
fram
blev
##oh
centr
##yn
##ningsom
##ygg
##oll
##uc
##ningen
december
hade
##ans
narmaste
##ea
##ring
##els
##ligt
##eh
##iskt
vil
lake
##perad
folj
##rin
kuperad
##ib
##da
lang
##ec
##alt
fod
sl
samhalle
##oc
inte
klimat
##oli
##rik
ganska
lag
namn
##amp
##ss
##fl
##drag
gr
topp
##org
##yl
centrala
##ip
##rade
nov
bar
##var
ny
198
##ou
sep
bestar
##eck
la
sven
##sh
tat
197
gles
spel
le
toppen
##bet
glesbefolkat
nara
##rig
mo
ex
##ong
andra
##edan
fodd
ha
vaxer
ap
##aren
##ada
##ober
##wa
par
septem
gra
september
vattendrag
##liga
##onen
kuh
##smark
##ket
ver
##ex
196
fick
##rop
##ata
samt
##ella
##ah
november
##ry
mars
maj
foljande
forsta
platt
regionen
ind
##aten
##if
##tart
17
ann
##lad
##ken
mind
##ruk
##ild
##hor
##rit
mindre
tatbefolkat
##olm
##ett
##ets
##idae
pr
##arl
kommunen
##era
##je
##yt
##ana
on
ty
##ga
hans
huvudsakligen
ad
kom
##ningar
all
plats
okt
sver
jord
fin
talet
sitt
oktober
sverig
##ycket
mon
##ement
dod
##io
195
##ulle
san
hem
syf
##des
fil
sh
ne
##jaril
##ril
mycket
##nas
##ellan
193
##eart
bu
rikt
mal
##vand
191
##men
##sb
delst
##orde
sav
##sl
hel
bas
sedan
194
##rinningsom
ock
##ack
utb
syfta
##ie
##ph
val
##sklimat
##erade
192
##ff
mellan
gu
##igt
bo
co
bra
nag
##awa
norra
ocksa
sen
sod
storsta
##befolkad
des
##satt
stad
##iss
##ass
##ce
april
##alv
nog
##holm
##ym
sjo
##orn
omradet
##bruk
obefolkad
sodra
##jan
##riv
##berg
riktning
mat
##ore
##mar
fjaril
##las
##oj
##iet
##rom
##ow
##agg
##th
sch
mus
antalet
##del
##iga
##verk
di
fler
hen
far
##uk
##stall
##ering
##osa
##ys
ag
16
ott
vilket
ab
ser
15
omk
##alb
sverige
##up
inn
##ten
jordbruk
detta
led
sm
##vaxter
##zonen
sydostra
190
##ian
klimatzonen
##vaxtart
##ster
omkring
##ementet
##jur
##ora
ph
enligt
kl
fjarilsart
##ay
re
##yrk
joh
kal
##oph
##nar
##pel
grund
anvand
savann
##ern
bet
lac
the
tvav
bygg
kanada
tvaving
platser
##ropiskt
bli
annat
stock
vis
##res
delstaten
##rag
van
##kte
ur
##ica
##rist
jordbruksmark
dess
##fatt
##istor
fors
##ult
bro
her
arbet
##ekt
rep
##ean
tvavingeart
stra
##mer
kar
ge
arten
inom
stockholm
##ola
##ich
##ensis
min
er
cer
hand
rik
##istri
bl
ta
bred
ottawa
medel
##lighet
##ium
##itet
##rid
##kon
opp
verk
##skland
slut
##agen
##ser
bef
##yd
nu
##ral
##ula
konst
ater
##vis
##ogram
vastra
kun
avrinningsom
##rak
res
##raf
oli
is
189
ol
##spel
ostra
utbred
##hi
gj
bi
tre
##ytt
##akt
##sv
##pl
##tal
cre
##ha
##ius
##ts
svenska
and
##erik
##ct
##erat
eng
gall
##raft
##part
sc
senare
##min
##ond
##ja
flera
distri
svensk
sjon
##veck
ord
col
mer
##ii
tidig
skulle
##ey
##mark
##app
finland
rad
lan
##olog
vaxt
##qu
##ende
utan
##ei
mor
##yp
##nad
histor
form
natur
creek
##ida
##mans
liv
lov
##som
kyrk
##bar
##ris
##sson
omgivande
##ine
tidigare
basen
samma
dock
##rupp
##samling
tropiskt
##fors
ye
##ift
denna
varl
##ena
sas
bredden
olika
ort
##ater
vi
##ukt
##ull
##nes
hemib
##vers
##lem
##of
##hus
##oreala
hemiboreala
##elart
sina
188
alb
poli
##skapet
kor
##sekt
##eras
##our
bergig
##alen
utbredningsom
##ansk
vaxtlighet
##gang
kat
##sil
##rod
##rakt
##sd
##ograf
##ial
##ren
artens
##rar
dom
kand
vara
##ubb
##och
tem
##han
utbredningsomrade
em
avrinningsomradet
dag
##ford
##andet
##eng
bel
blandskog
fort
ov
##int
tr
##arta
##ura
eur
exem
insekt
lat
##oma
wil
sal
int
inter
depart
arean
##eln
##ers
tog
cerro
bes
hal
##led
skalb
te
medelh
##ach
##ugor
##ingen
tur
aust
skalbagg
forb
manga
mest
##end
mark
se
##ubli
klimatet
new
barn
##erar
musik
utg
id
que
##sammans
##az
sar
eg
186
##rike
tillsammans
stora
##else
ald
##rum
mel
bild
mount
187
##flugor
fri
ak
stads
folk
##arn
dessa
##cker
lar
##rukt
amerik
alla
##yra
##klar
person
savannklimat
kung
##sj
##aria
##rich
sjalv
##ingar
##yc
lite
##amm
12
ang
##ratt
uni
##ald
##enter
14
##va
##atus
##stad
ger
##old
##ones
##net
nya
##djur
##lin
##konom
ac
frank
stapp
ekonom
##ator
##eder
##smarker
po
pol
##iva
grasmarker
10
stappklimat
##ont
varld
kallt
dem
brasil
forsamling
stud
skalbaggsart
departementet
exempel
##erades
got
##ity
af
do
austral
ry
##vi
tor
##ons
oppet
##rott
##ile
##iod
rom
staden
##ge
count
pal
univers
13
insektsart
ob
son
mex
##nen
gar
##ank
##ops
##iz
##erad
befolk
ed
##aga
hels
jak
##jade
polit
dal
gallande
##omb
helsing
##har
##igh
##cent
##minist
##ings
si
ans
innan
as
sock
allt
ingen
namnet
##strom
##co
##ton
##urg
carl
buskland
hj
busklandskap
sydlig
fa
gran
fot
##ace
vann
gun
##stem
##ationen
##kl
slakte
##alis
##orna
##ander
gre
lj
##alp
region
gjorde
ung
##rut
kulle
jam
##ca
met
##ner
mag
oken
gang
##ba
sydvastra
##form
dan
vin
vastlig
kop
nation
pers
vill
flyg
##eph
svamp
nordostra
##tter
borjade
iran
prod
skog
sub
##anis
##arande
tillhor
du
okenklimat
##raden
##ors
##ya
lik
##fall
##ux
stek
queb
con
hos
##eran
##enn
##sland
##iker
##ev
indones
11
usa
##stand
part
##landsklimat
tal
185
gav
cir
##hand
bak
##uder
##ish
##elsen
stracker
##oid
##unn
##ivis
##uvudstaden
europ
karl
lovskog
##he
##lac
##sch
beg
ca
temper
ofta
forek
##eri
##dom
indonesien
##yll
##oss
ko
##gard
tot
von
##ellt
tro
film
##by
delt
teh
##blad
##spr
helsingfors
kraft
##ition
nagra
##ila
samhallen
##veckling
##lands
medelhav
jakarta
frankrike
##hm
##gar
##skar
teheran
nordvastra
stekelart
##pt
gor
ovrig
##ota
akt
persiska
georg
##kar
he
##sf
##vag
john
fem
klad
hus
ben
tav
car
kant
satt
000
vag
##au
##af
##reg
foret
kont
##med
tran
sak
org
##arbet
dj
ekonomiska
##lan
kvinn
sand
##steklar
##odes
hennes
by
##ister
##cher
medelhavsklimat
##eborg
hall
fyra
##aster
##rav
ork
##ban
##yk
##riget
natt
area
##bo
##ide
administ
##aceae
grupp
inlandsklimat
##ua
bok
stat
period
fred
off
##olan
album
##utt
##ins
##ografi
##egor
aren
##bl
varit
fann
divis
spelade
##ita
fast
mad
##cia
##uss
gick
sten
plan
##eten
##lade
ro
inne
kh
##oth
administrat
trad
distriktet
##illa
##ire
honom
##namn
##ork
##iken
sason
medlem
gam
##bygg
borjan
naturlig
ark
mosa
end
rod
##sun
##utom
##boll
##laget
tempererat
forekomm
##ars
sang
dare
##sprung
lin
delav
amp
##kom
rio
##lex
kunde
kladogram
ursprung
sol
bara
flytt
mosaik
delavrinningsom
2000
##egron
sn
inneb
su
stadsegron
##djursart
rh
sag
blir
rak
##anien
verksam
tim
darefter
band
##emi
ru
##za
gul
kro
bil
##ric
milj
##over
intern
hela
##ico
stall
##sten
kategor
sant
prof
bade
egen
las
delavrinningsomrade
australien
2010
sid
184
ner
tan
##uth
##bb
landskapet
syn
forfatt
pre
kin
##pa
##asta
rel
bur
ham
##pper
qu
samman
cor
##alla
##one
##una
##ith
socken
##band
fisk
lu
mac
ital
##ror
gunung
kol
pat
ars
##ret
##iel
##che
kina
##tes
##rand
et
fanns
##erande
cirka
##ativ
##aka
##trad
##istan
##ix
##lass
##olf
spind
##uter
ratt
kap
fore
sim
##ktor
bj
##umb
ska
lo
cal
##otter
##alj
##ioner
kommer
kort
##ighet
god
kust
##ath
internation
monsun
inv
pop
##elm
monsunklimat
arg
##tid
wal
goteborg
omfatt
storb
innebar
##ij
##ritann
##atan
##ationer
chile
skriv
##kor
##kop
soc
##ice
##ultur
moder
pres
##arkt
os
engel
ka
##roduc
deras
num
##hj
##fordes
storbritann
im
air
dav
regnskog
skap
alger
jos
kam
vaxtart
##ros
willi
krist
##jarn
totalt
stod
bore
##lagg
gard
komp
slapp
##ress
##ain
##ez
2006
##ille
##ona
ned
##ley
##ira
red
##aget
25
##anger
anvands
##sfor
##tor
##lav
##yrka
city
##ham
sasongen
forekommer
ros
mang
##fekt
administrativ
historia
lond
hot
##naden
lok
studer
##ceae
##oner
sil
forl
##vo
dra
30
pe
medan
tri
filmen
italien
2008
norrut
countyt
regnskogsklimat
pse
storbritannien
uppg
eftersom
##its
ches
##mus
universitet
##orter
nagot
##mal
##ash
soderut
##riar
##anth
seg
deb
gener
fall
##hl
sex
2007
port
profess
endast
boreala
mann
183
hett
fotboll
ok
il
jarn
london
##bland
dam
amerikansk
pseud
can
ep
gora
##me
##hmeh
tj
vikt
los
##upp
##skil
ba
britt
langd
cheshmeh
tyskland
mitt
cl
flod
redan
##met
kn
kab
publi
mas
park
##ruktbar
##ago
##vatt
william
fun
2009
ra
##ipp
ele
myr
##20
##iko
framst
stort
##mann
ofruktbar
ast
idag
##ane
antal
##ske
kron
##par
##ucn
ps
##rog
##huvudstaden
##sar
varier
iucn
klubb
ons
##eller
aldre
mod
##ymp
##omy
##iella
program
tjan
##ox
##nade
##itar
##onia
mont
2011
##eringen
##ika
tex
##cis
##elser
bal
hur
tit
##adi
##elli
ga
##amot
spec
fatt
kantonen
##vit
hy
varm
ford
jap
##ej
##rift
osterut
##bert
pet
brasilien
utt
##ert
vasterut
##etenskap
mari
sna
djur
vissa
christ
2005
quebec
sing
##ive
republi
hekt
moj
bla
##mo
fag
##ani
prakt
tillb
hektar
com
og
sista
mart
delar
##lut
od
##atet
nagon
skrev
olymp
2016
sma
kultur
koh
##slag
repres
##ke
21
bul
glob
##iserar
2004
pri
##heter
##als
##eta
bon
ander
lund
##forande
1990
bada
forsk
##ela
start
##adespel
guld
##port
##ament
ovrigt
slutet
kr
lind
##bin
if
gamla
lep
utveck
##ras
pass
tar
colomb
organis
##tan
24
inst
2012
varje
ytter
vad
sveriges
slag
##stallet
mexiko
tred
1980
delstats
##hov
grek
kyrkan
ul
personer
##terna
##slut
island
und
##utveckling
##erv
##vern
halv
krig
##ood
##rov
kategoriserar
##yo
lev
mic
##ekn
100
delstatshuvudstaden
plat
vilken
##rupper
foren
forbund
1970
##eum
##igen
fortsatt
mak
2014
deltog
rost
##bund
oper
##oren
england
mannisk
svart
fukt
##bladig
spanien
istallet
##lingen
bety
kallas
##rond
##ho
##igheter
peter
##ps
vit
west
##sning
tyska
##ene
##ikt
##iat
darfor
##ama
##amb
##sg
gal
23
##lades
##ident
##ckt
##ebel
fang
##lis
vatt
##erg
##mat
ho
schw
hoj
##lek
ud
##ema
ek
barr
##asa
##cus
##ligare
1960
##hjart
saint
hu
lyck
popul
dire
samband
##val
##delen
myn
2015
upps
##oni
tel
##lit
tiden
kines
eu
skadespel
spar
##burg
##borg
kur
##chen
##ward
##ilis
me
##innare
##flyn
22
paul
system
##horningar
##ologi
vidare
hol
nattflyn
no
infor
sjuk
subt
##vard
afg
my
##rang
johan
samtid
avvatt
stockholms
##elt
##jon
##ags
##opter
##itut
##ario
##skolan
utbild
##ies
spindelart
gangen
rab
na
alex
divisionen
ror
delas
befolknings
hor
mun
##opsis
johann
##fer
2013
fj
2002
fle
ovan
produc
rum
bat
slutt
##itz
grav
afghan
tag
charl
##amen
kvinnor
roll
##hjartbladig
ref
to
sad
##asit
##her
periodiskt
serien
hjalp
##ker
gron
brasilia
pas
##roc
tall
hast
181
tekn
##que
tillverk
rev
gift
star
2018
reproduc
##rack
26
bog
2003
svampart
##nat
1999
##ordes
mis
##lopp
##spind
styr
laten
afghanistan
lamn
##sprak
##ias
##kn
##andra
##stroms
##helm
prin
innehall
28
bay
##oides
lou
helt
ent
franska
klass
befolkningsutveckling
matare
bruk
##skriget
##ale
arrond
forsvar
##nader
produkt
arrondiss
kring
##iens
##iro
fuktigt
op
ban
mu
phil
subtropiskt
mexico
27
##omyia
erik
plac
kvar
##adem
nom
barrskog
indien
gud
##iaceae
uppta
arkit
##iana
##ommun
##jarvi
##bor
kabul
kallar
ganger
uts
nast
thom
mich
##efar
reproducerande
skiv
##gor
kustklimat
##opro
##sst
##okrat
arrondissementet
ljus
pan
182
gro
karriar
##lat
1900
##lingar
jag
sym
##rika
kval
##وه
sur
rek
##icus
ont
vard
##ogs
bran
##otten
skar
biografi
##spelare
argent
##fil
##adels
jon
##uren
grev
##jo
180
fal
sluttar
paris
mestadels
columb
provincia
utanfor
albumet
ev
ton
##ydd
riksd
danmark
##plats
medverk
##ystem
ytan
##esi
amerikanska
framgang
##ima
##rada
samtidigt
riks
##bild
##bro
##ate
##ria
2001
##ides
kalla
sprak
##spindlar
camp
tredje
##jen
##plan
engelska
##uel
##anda
guvern
uppsala
ras
ungefar
2017
##ino
koud
pra
sarskil
globalt
vilka
national
pi
##unta
bildades
mots
blad
##uan
kinesiska
utgor
##vande
aret
##far
basta
##iy
##skan
brit
vm
colombia
byggdes
typ
blivit
##ole
##ism
##sc
public
##stid
##liv
##anden
olympiska
1998
riket
lans
strand
ly
ytterligare
george
##oa
##spinnare
holl
ontario
##aler
vattnet
##ordning
offic
rober
##ci
langhorningar
##rades
long
sem
nuv
##oder
river
##album
##cha
##gr
mountain
##lats
savannskog
1971
york
##orer
##ini
ass
ersatt
mott
bid
##mast
mc
ou
vic
##stan
ibland
tom
loma
allman
nuvarande
trots
kyrka
madrid
mol
1992
##aris
##gj
29
stand
31
rec
ren
herc
ledamot
bergst
bosn
##ojden
framfor
pris
maria
##elle
arab
##agare
##ryck
1994
don
vers
british
alt
##rol
gt
tillbaka
jur
##kan
##komm
south
ir
bed
go
svar
andre
##ocko
enda
##ios
dessutom
flyttade
##ytor
hamn
chef
##sman
1950
mur
dotter
landsk
santi
frag
pu
varierad
tysk
der
krit
tak
forn
##omen
##arktis
hitt
louis
lever
dis
##ockey
igen
##kter
columbia
sommar
jean
##ritar
uppstroms
ordforande
##ori
ring
teck
inled
studerade
##stritar
sov
oversatt
##iner
lt
beratt
spelar
cap
##istiska
fer
kanda
slott
##lid
##iteten
quebrada
annan
1996
hov
darmed
beskriv
est
santiago
distrikt
smhi
kallade
jawa
##yggor
marocko
##sjon
##edon
gif
full
social
##jarnen
##vid
##ierna
rock
##artyg
##ht
county
rabat
##ocker
##rim
tvahjartbladig
##rus
##ester
az
##skola
sek
##hu
##ign
##pha
1995
heter
beslut
vattenytor
henne
##apen
1991
##inner
##oprocent
pot
##roll
nat
sjoprocent
gruppen
##ador
arkitekt
representer
ordningen
udde
dor
punta
bjorn
roman
raknas
bandet
##jet
jac
medelhojden
bort
strid
bosnien
1997
1993
professor
##jung
vald
forfattare
##forde
kunna
tam
ryska
##ly
ledde
bir
vetenskap
cast
ram
##do
##fin
##rot
nil
eli
slapptes
europa
post
##serv
##ovina
mare
##horde
magn
jab
##ych
bib
robert
herceg
##skraft
tjanst
##jekt
vaxter
nytt
hill
sw
forsok
1930
##mask
gust
klubben
##aland
buk
##osp
miljoner
##usa
##ele
ryss
tack
##out
hed
sarskilt
vall
arter
utveckling
##farande
wilhelm
##blem
##fjaril
flesta
gh
lam
179
kropp
sum
##lo
sall
##ure
lud
##avax
##ument
arbetade
bifl
##bergs
santa
hercegovina
mes
vik
##alus
rid
1988
gustav
50
hyp
##age
utgiv
##lassen
bos
brun
befolkningen
stjarn
2019
##elia
##ideer
fre
ins
ten
bogota
fiskart
1920
teng
##ns
##fjarilar
##orts
grand
##ben
ii
mos
##eiz
kra
charles
exp
back
lapp
##staende
ox
orkideer
1800
##oul
##kel
kraftdjursart
65
aster
##rans
کوه
bad
president
##ivid
##ji
cy
vir
anstall
provinsh
vux
bod
argentina
##ero
omrade
##staf
gem
##osof
ain
bost
##mos
samarbet
vars
via
domin
##hamn
fortfarande
##arp
nig
veck
fried
##isse
slutade
rob
provinshuvudstaden
##fot
langre
##bart
bergstopp
jo
##holl
kir
##ski
arm
norge
sara
##ophor
##inna
wh
1989
numera
skol
1940
hojd
gol
##unda
alf
algeriet
lander
desa
tet
##eld
kul
##br
innehaller
sat
1974
##ney
##varg
individ
km²
rud
priv
##ette
##under
avrinningsomraden
##olut
##gren
orkid
varldskriget
1952
dr
##eira
1987
schweiz
##ots
##go
bud
pos
##sid
1984
ax
##atum
##nal
silver
##anus
konstnar
1986
varav
##ova
republiken
orkideart
##ktion
##ni
##les
ovriga
djup
um
district
neder
##bel
regering
foretag
avvattnar
sel
stift
##grupp
flodar
##ulata
maste
##jer
##ustri
##be
europe
north
##ulus
infl
##hang
##rys
##emat
brev
ven
##ampar
dyn
rit
##hal
matt
hom
poang
biflodes
biflodesordning
##loss
nad
sovjet
bern
##spelen
dol
past
direkt
kallad
praktfjarilar
varlden
dog
snabb
grundades
1979
svampar
egent
##abrik
utgav
##ite
##ernas
rich
64
dvarg
meg
ursprungligen
##uch
##raff
litter
inat
anvandes
skall
hum
alexander
##iti
thomas
1968
##ado
ped
ran
exempelvis
historik
we
latt
1985
pen
motsvar
betyd
sidan
brok
##tern
jabal
##lor
delhi
##myggor
aldrig
##vik
friedrich
##folj
1972
bou
##bil
kej
vol
ej
##ito
bror
ef
1982
##olit
##aggar
##amo
david
behand
##foren
##emiar
fas
livskraft
laget
gym
1983
##lik
##pan
stil
miss
por
ker
ste
max
##ylla
tradition
dip
1976
filosof
krav
osterrike
minn
jud
##oster
arro
ish
kriget
##ige
joseph
bag
pil
##dern
central
##jor
traf
##reh
stark
spelades
##ilus
langt
malmo
1981
gustaf
##inus
1962
luc
##repp
horn
##orten
just
avslut
##igheten
berlin
##ions
tab
##bj
internationella
aktiv
omraden
##uta
studier
sab
kara
##erus
178
1967
##inal
jarnvag
fredrik
wien
##bi
##lack
##koping
##ali
brook
##jas
##ote
sund
##iellt
oft
##use
resp
##rost
livskraftig
##hav
##sked
##parasit
varmt
##rikt
1973
##uz
cha
brokparasit
brokparasitsteklar
belagen
division
bre
hopp
farg
sasom
##50
1977
##ven
matcher
##hop
##ko
modern
1969
leon
henry
##inia
trol
1964
verksamhet
motor
lamnade
##korea
forlor
francis
fel
40
##urs
asteroid
coll
1978
manniskor
inkl
##huset
lab
sju
##river
##vist
1975
oc
##ifoli
##nande
elekt
kons
##lick
liksom
harad
boken
pla
armen
edward
##wan
skadespelare
gras
177
nastan
##iri
##oden
##grund
general
leg
institut
airport
##inge
foretaget
ali
mitten
##fisk
ungdom
eup
gifte
tillfall
egna
##seende
##osten
##isseau
wadi
haft
##tus
1965
ruisseau
saga
##cens
##otek
##vet
cla
##tra
es
##uterade
##blomm
klassen
politiker
medlemmar
fortsatte
ot
##ugh
##sjo
1910
upptackt
mord
##pun
torn
ec
##ng
kopp
##anc
##enos
##arden
arabiska
aut
bek
##stor
nomin
alder
cur
result
1945
visar
gamm
martin
aff
slakt
##ior
riksdelen
##hog
##own
##olen
##ophila
cm
##eles
ansvar
james
##slandet
##ty
eta
ack
cam
##bundet
not
tang
oftast
##inska
##amerik
##ativt
sasong
relig
yta
##atter
teater
##oende
riv
fotbolls
##zz
brittiska
dram
##loppet
ni
smith
##rick
##ense
vas
rest
landskommun
1939
militar
1912
##gick
forutom
vanligt
spela
brack
uppgick
1966
##landska
ti
pav
anda
medic
##ju
sta
dubb
prag
problem
dok
##los
serie
master
orsak
1914
turn
jar
##ano
##acken
##icola
##ogon
##cip
cup
vuxna
skill
ske
flock
ghar
##iidae
djebel
##skrift
byggnad
forsamlingen
##add
asp
rub
artvaxter
1938
500
hard
vel
brand
##car
##oda
ore
suc
fur
##oba
lept
##ynd
ken
##formen
##aph
##slandeart
les
lim
premiar
mast
disk
##angd
##maskart
reserv
kungliga
##huvud
##nades
procent
liten
fly
respekt
##slandor
bru
##ogen
##ific
kanal
war
hogre
anton
forbundslandet
unger
mand
##got
cat
##ush
##orm
spor
ide
langa
##aca
ville
##ague
dans
##osc
glac
skick
uppdrag
##ellen
##iskop
black
##len
1961
##rikes
##aea
gla
vapen
1913
luft
1963
##ifor
bank
skott
cro
kamp
darreh
hack
peak
behov
riksdag
trafik
arbete
##ologiska
##kall
student
##iter
yng
annu
anna
bill
svens
vanlig
##illi
##rem
##cho
##verket
1908
saker
bab
##ennis
trich
inf
lyckades
##yst
##si
1911
grad
regiss
salt
ple
##uva
fard
laguna
byn
fra
##ze
1941
##onom
##anthus
avsnitt
##onst
char
orten
kas
2020
egyp
text
politiska
samling
##etes
1936
guvernementet
unders
lagen
##okte
dagar
tio
##urus
1918
indel
teg
##etter
das
pier
fartyg
##oper
ryssland
ke
ori
1958
1956
victor
lika
hein
langs
liban
klock
litt
territ
##rep
##san
hab
atta
##omat
somm
##we
bosatt
##jevo
##eau
prefekt
johannes
lav
betydel
##arnas
##tradde
viss
##jut
sjalva
kast
nas
artvaxtart
herr
##ifter
jour
bol
forhall
ober
ig
##rip
tillhorde
richard
1957
##yx
app
##iop
1917
flor
rap
forest
##arie
##ael
##lund
##otus
utbredning
gjort
stam
feder
##samhet
tanjung
##tag
##oz
dvargstritar
prote
1948
goteborgs
##ield
##omyc
christian
uppfordes
insp
spelare
##arten
##atern
biart
##hem
super
utom
##ylt
1924
1928
astron
1944
arroyo
norm
bestam
boli
##rh
aires
amb
ansprak
##ruz
tol
regeringen
##shus
anses
##vingar
##pe
buenos
tu
dig
scen
1959
##eland
##ulerade
##eria
skul
university
fjar
tjeck
##eth
##edel
60
vat
lappland
##vig
league
handling
##aw
1907
utover
dels
##ye
1906
industri
begrav
##ringar
skydd
sankt
##illo
formula
##tera
ern
blom
fransk
gast
neg
avled
proc
skolan
gil
##isa
borg
debut
varandra
effekt
pap
galler
dansk
1926
vitt
omfattar
grevskapet
timur
startade
##alm
maur
##cep
##bok
##organis
rol
civ
##urn
1909
nam
grekland
##off
##valt
##olor
##inen
1927
1929
1933
##sla
titeln
##zar
1937
tas
europeiska
stats
utstall
##cke
1955
##rifter
fest
sarajevo
1919
mi
1932
##wig
milit
cas
##kopings
medverkade
it
bracksteklar
##ump
match
##fag
##iforn
##iff
valk
finska
bry
1954
##igur
1947
vinter
##mak
##marker
##derna
##eus
but
1935
1942
funger
##anter
1934
##enten
##ingo
1953
##opa
##stads
##chus
70
##tida
ingick
##unnit
huset
##svampar
respektive
pel
drott
##atis
kri
foddes
fys
##lam
leuc
1925
utnamn
sommarspelen
drag
uppe
rym
artik
batt
kroat
japan
adolf
1905
gavs
gab
wales
##po
##pro
##rattades
##onn
flertal
##dar
1949
##hur
tilldel
1921
run
ljung
##isten
muse
fakt
holm
##ensam
##histor
##smann
##ight
##stein
bast
1943
1946
##garden
bestod
1951
lanet
##bat
sked
##sled
inform
1922
beteck
gott
fru
uppmark
176
avs
anders
##ager
1916
##ti
##arer
sida
driv
1915
fader
nik
vart
1931
##iph
vattendraget
byggnaden
##skaper
##mor
forand
##ivt
bakom
flockblomm
##agn
klar
nav
konk
fagel
##fort
##kv
##inne
anvanda
stj
##baggar
##axa
tving
anvandas
invig
##falt
starkt
##opus
him
offent
##dal
alv
##enser
lange
##yrkan
overt
moh
boh
dari
psyk
##edes
samhallet
jes
nummer
##rien
stader
##mare
kandid
turk
##landet
lager
1923
##sma
##fen
kopen
##svaxter
ki
ret
##anga
bah
museum
tand
antarktis
vanligen
journal
sof
py
partiet
##sidan
##con
ackum
##lia
mala
##orl
dat
skilj
aten
bytt
tidningen
##way
##asp
##unc
##liotek
##ugg
##ui
##uella
brott
handels
ze
##skatt
mik
kallades
##yllum
##skriv
##anten
sydkorea
tavling
##lak
##aj
lant
kopenhamn
strax
iii
seoul
##bas
inspel
meddel
##via
hit
##bra
spelat
drog
##mel
##ulla
##emot
##chi
##ania
liknande
gemensam
##fora
##sport
rav
1904
bot
svan
latar
##ere
tank
##atsen
##oarna
parl
pod
brittisk
rapp
80
parti
besok
dic
##hou
albert
au
nere
dub
##zi
##vagen
##stam
vari
massa
##agar
nadde
##reb
##staur
ju
togs
juv
##dem
ackumulerade
grupper
##olon
henrik
##30
##ink
##terade
fotbollsspelare
bakgrund
ishockey
rund
mj
hert
fores
spelet
ses
##mon
upplag
##stod
kli
##anna
##zo
gransen
otto
samtliga
##rust
vaxte
alto
strom
##svaxtart
entiteten
sold
major
##tiden
ges
idrott
romer
litteratur
eget
##ment
makt
betyder
komma
##orum
stef
##orf
anvander
valet
##inst
##ranger
##ington
cu
gammal
##hr
##rets
belg
walker
sjukdom
bergsp
##sven
1700
tunn
##kort
##teck
##ege
##reter
##iden
stallet
1902
bebygg
falt
##ect
barat
jack
utbildning
##40
radio
hals
sett
175
centrum
tidigt
paverk
##ensen
##hard
nederland
mater
hosten
manader
dagens
##oe
begrepp
punkt
cra
hart
hust
sjalvstand
kontrakt
alli
aldsta
lit
##skapen
tillgang
fyl
hyd
##fest
##cel
demokrat
framsta
lopp
visade
##fj
##uda
territor
betrakt
uk
##wood
bevar
##takt
station
mask
##win
##vant
marie
##vent
til
##ovo
##rarna
##skott
##system
jul
mid
diam
flott
danska
dott
minst
slaget
##sack
##kro
orig
mig
ash
sommaren
300
##rypt
##ademien
##roller
queens
##rodukt
##itionen
1903
##brott
jose
bocker
##flyg
skal
##angen
heinrich
forlorade
##bler
grande
1901
byggnader
profession
lilla
bergspass
minsk
##oceph
karakt
##edd
##gas
vita
##edonien
blod
##60
web
syft
forklar
gren
ihop
energ
talets
##ssk
betydelse
##yi
ole
##arg
##alia
lars
regi
amer
libanon
uppf
kong
##uts
##istisk
davarande
handlar
status
point
##inea
##zon
little
olof
ljud
rot
kost
enbart
shan
agde
atervande
##emal
gjordes
fjarde
bostad
traff
##arat
##ited
##lus
agg
pter
saval
##kes
##no
##avling
kok
bidrag
##ville
##shire
konf
daniel
##mastare
brons
##ifolia
##ygger
valde
pasir
troligen
ordet
restaur
insekter
omfattande
fir
##ipes
larare
nab
stre
##uca
##kh
##ales
special
##let
##laktet
##gruppen
##acker
beng
##itu
##hark
##ره
defin
arbetar
konser
##iere
400
prov
##yph
privat
##gari
beh
##emang
tib
troll
##ega
##huvudort
ja
##sut
popular
upptacktes
##yla
##somradet
pastor
##orus
skepp
gram
vagen
mynd
##iller
sul
frit
landets
##ise
snart
##act
stadens
##arken
kem
sanger
fu
sport
##osus
bukit
##ophora
viktig
##wn
varv
chrys
soci
##ange
##anj
##byggnad
michael
pierre
programmet
##irk
bolag
gitar
##inister
lamp
liber
villa
version
##film
champ
##spar
##anen
test
aur
##isc
##ital
##taxa
##ppar
studio
debuterade
brach
1897
alltid
##ingart
##gu
##omet
alltsa
skedde
stav
hotad
filmer
allra
regel
##ges
isra
intress
dipl
parlament
mera
bit
herrar
kungen
are
##ebygg
dyntaxa
pul
glacier
mek
##80
rov
##idium
1890
170
svenskt
##eli
akten
imp
kronor
##sted
##sund
##amin
fo
##ischer
sjoarna
arv
##reterare
##allen
utloppet
gn
##ape
fron
##ophyllum
eric
##sons
utseende
##ration
##rankar
sydney
bjornspinnare
monte
mass
finalen
##eldjursart
tills
##anes
tour
##harkrankar
bris
queensland
magnus
trum
tyd
90
##bur
framgangs
ludwig
##horn
jebel
hund
egypten
##ands
tolk
##ords
bron
bulgari
syster
forald
##ques
##adens
##makt
##lic
##ifran
snabbt
##ifier
log
jer
brom
varldens
##unk
##bara
aterf
##ativa
##ebo
##komst
funktion
united
##kta
##emb
norska
sec
##avaxter
##riska
hud
35
##aktor
prast
song
##itets
sprid
kna
gronland
refer
drottning
flygplan
rac
##aller
ask
##iell
##usen
##fallande
ursprungliga
tekniska
platsen
1600
##inger
##sattning
motstand
lek
sud
##rym
produktion
##por
##rackligt
foreningen
##ech
##ojt
##gav
##yer
borjar
kot
ledare
chil
cop
dia
jacob
##ان
##emente
##smannen
##gra
mangfot
erbj
ill
delvis
##demokrat
mojlig
sor
1898
##gjorde
##raket
beseg
##asan
egentliga
peng
alp
##full
iv
flick
bildade
bri
alfred
fon
abo
1862
##orden
bev
axel
hoga
forskning
international
##iensis
##erats
##serien
##servator
bei
andersson
##ension
##odor
##lans
pic
##amerika
biskop
moderna
##rogram
regler
para
##10
1899
##reserv
##bane
marevaxter
mangd
##last
intres
1895
oph
eri
##ocent
chal
australia
##mossart
##lop
pula
##ude
##usten
##din
tron
stefan
##bit
phou
##onis
##pris
tengah
undersok
##ois
##chn
roy
mynnar
##ygd
phyll
##avaxtart
berak
flav
bladmossart
resultat
1896
santo
##sbl
tac
cab
##ilia
sporsack
represent
mob
##qvist
beroende
tavlingen
tapp
melan
pin
dim
##antarktis
material
holls
##hy
juvel
sporsacksvampar
pek
foljd
koudiat
margar
##plar
nod
##cy
etabler
hop
nova
kallor
fe
henri
##lost
fabrik
##osition
malm
ach
bygga
bodde
hun
finans
##ryp
##styr
karn
##gande
varen
arbeten
zag
##lande
kil
kaliforn
battre
kommuner
inflyt
##sket
valdes
arranger
mork
##dae
fordel
##21
##lare
##odon
##70
kors
pabor
150
manus
##gangen
##ations
sker
steg
skad
##ule
corn
doktor
prefekturen
##forbundet
yr
lades
grekiska
garden
dikt
brukar
erov
malv
anvande
##eda
##heim
uppkall
lys
grundade
##mot
##aki
##uller
##bach
icke
##iang
stal
kommunal
##skold
##rac
##olo
eld
dokument
allmanna
jamt
##eringar
latin
avrinningsomradena
nils
ank
##rona
##lov
##yet
lands
fus
engelsk
##ylus
shu
vanster
uppskatt
vind
eugen
##mant
##field
forvar
##sel
##sningar
##unde
##sningen
##ismen
va
sao
pulau
1893
melod
##ornis
##uma
blan
lor
##uck
marevaxtart
rib
brdo
##gara
forvalt
##idia
slog
##klubb
nic
##ati
orn
kore
bolivia
dop
skulpt
ech
##atte
strack
ident
drabb
##ode
tung
##star
symb
gle
tings
engag
anth
roda
samarbete
##eby
snack
anal
##stallning
##minister
koping
revolut
##uri
serra
prins
anger
prot
vide
kombin
skriven
scot
sula
##bon
kalifornien
##osia
yngre
dy
##fri
sovjetun
minor
gymn
meller
##erbotten
bergsked
##ansson
1880
landskap
big
ringmaskart
folkm
forste
kroatien
titel
##une
##stol
32
brisbane
##samma
ungern
oleander
##examen
174
##hopp
dur
emeller
mangfotingart
bis
last
hak
##orld
israel
##rego
emellertid
mult
utnamndes
anslut
singel
kejs
1892
polen
fen
ron
juvelvingar
skillnad
##chef
1889
organisation
hag
emb
##ckte
cham
##gatan
lokala
##cer
##snamn
##oter
##emon
orebro
utgj
emot
dist
##idrott
utgors
##ids
##icum
avg
##yang
medeltida
dre
tilldelades
bang
##oca
ext
geografi
shah
vand
amar
kristian
1894
ledning
##aner
eftertrad
##uen
varldsm
utsags
##ampa
orm
bong
##iae
deltag
##arm
avvattnas
##nam
inrattades
skrivit
rut
exper
corrego
job
smaland
mojligt
daremot
final
dator
socknen
##ato
nordvastlig
nio
##olis
##aterna
exemplar
teor
##uer
anne
flygplats
vanliga
italienska
##sex
floden
foljde
##elis
reser
darpa
##varande
##ikanska
##fa
##ili
##likt
lut
unga
stab
naz
##skal
skapa
naturreserv
##medalj
historiska
1891
risk
ukra
##aret
enk
##ningsp
##rument
##atta
##cin
marks
##thidae
ala
tryck
gas
##num
lovfallande
oarna
دره
##enta
inkluder
lago
##90
##gotland
altern
##innan
dend
mellersta
##escens
fyr
melolon
##iske
how
aterupp
inb
lill
forlag
lid
ik
east
ytt
information
verksamheten
fab
lokal
##ycken
myc
##otes
hir
aph
world
stan
160
str
1888
lista
slutligen
##ocarp
tidiga
##manland
##stra
presenter
lop
morg
##larna
##fard
##insk
##oi
##ider
mah
invigdes
nun
svarta
gon
##olax
standard
fjader
mong
1870
hertig
isl
ovre
civil
##ava
bart
spanska
##lagen
##cht
spring
##ve
rog
##kraft
knut
##elen
1885
hermann
##ruktur
projekt
##person
ernst
beirut
##period
melolonthidae
top
niva
##jektet
ambet
will
##antus
minnes
relativt
fjarilar
din
##optera
##vaxt
##adesh
##ih
45
##ept
cord
##aran
ball
king
poly
sist
tenggara
parasit
irland
japanska
##skol
##splan
##ansen
##sor
##tz
##bord
seger
##rob
sr
kans
##foret
heg
171
dagen
##inc
##oy
sakerhet
bytte
fc
skrift
##iah
##agus
portug
##ks
##forsamling
##roph
##samm
##reis
##blom
##elius
##rix
1887
##atik
##umet
##etts
tap
##ny
##nik
##omer
##osoma
cel
marken
juan
uppgift
##andena
##ojtn
##ete
mosk
pradesh
klipp
skop
##uell
diameter
##omma
erk
##ledare
pur
##ston
dryg
##punkt
##festiv
anlagg
nass
stig
mats
inre
##ulatus
records
sasonger
dong
##assa
dagg
##lagt
##iment
livet
western
##ilien
utrikes
forsokte
oscar
indian
##partiet
uttryck
skargard
laur
##sburg
##museum
##abad
giv
pon
parish
##mera
##rader
halla
##dis
##bu
##janst
##yggnad
##tina
myrten
lem
inget
dennes
##usive
kaz
kandidat
hockey
##skild
##ularis
##eff
##list
##hora
##fte
skrevs
##eden
socialdemokrat
arets
marknad
medalj
erholl
##iteter
##atser
##orp
sandes
khan
##inder
tok
leder
##slo
vunnit
skil
skane
morro
##omus
folkrak
dep
cach
bibliotek
##atem
ah
simon
##omycetes
##ares
##stone
##iji
tavlade
##oker
savolax
##sang
skold
kontakt
##platsen
ال
nusa
senaste
hustru
ager
frukt
tidskrift
hamp
lagre
torel
cruz
##back
irak
##omradet
tjeckien
undant
berom
carol
##forening
##onym
webb
kritik
bomb
sign
ersattes
elisa
jung
landslag
##forhall
sann
nhl
direktor
##gaende
organ
dit
75
kvarter
##skon
solen
flyttades
ansag
lad
amph
ky
oar
introduc
1878
##hen
##ryt
##ringen
matemat
wa
##inerna
egenskaper
bord
##log
denne
rudolf
skottland
perioden
nattslandeart
##tjarnen
##skat
173
##ugo
##ines
##aldern
cr
nordmak
skopje
bergskedja
kommit
##iku
sri
1500
kott
real
##ahl
kalmar
##linjen
ug
skalbaggar
skivan
##ungen
vist
norsk
##sbo
chah
##ariket
trupper
##smal
arbetet
nordmakedonien
katol
1886
##rata
utmark
myror
inklusive
skola
kos
##uf
universitetet
##skont
sib
ts
friidrott
##ami
##inte
guy
union
##ew
mit
handel
##ower
fok
nederlanderna
fr
dubbel
begrans
grod
pach
emil
ria
##dam
##sjtina
##ony
spindeldjursart
##iosa
##iver
koudyet
marg
sadan
##bad
vice
##ills
riksdagen
pit
underarten
journalist
graf
kvalster
initi
grasart
##ellus
saldes
bulu
gymnas
uppt
kak
crypt
scho
##visning
##somrade
filipp
##imus
huvudstad
konstrukt
##rafik
politik
belag
vac
nationella
165
inrikt
ela
##eps
dv
pjas
33
1884
##namnet
##flytt
forfattaren
##etta
butt
##orda
##bebygg
foljer
1863
##imb
ogon
##bolaget
##lanssteklar
##ki
##alven
elisabet
skild
sulaw
##skt
syrien
franco
angeles
##stedt
##schef
##mi
##yth
tip
##uga
##fur
ansags
##agne
vet
metal
nasta
##arah
jakt
##verka
##ary
arbeta
antingen
ecu
tagit
gunnar
##oppor
##ften
##angden
##sminister
jorden
##otta
dhar
baserad
omgivningen
manit
kongo
forbatt
kart
bolaget
sadana
##rast
##skydd
uppfatt
##anne
adam
##ruppen
act
bus
ama
glas
domingo
1860
akantus
chap
darah
##dera
##ierra
professionell
staten
dh
festiv
1882
vetenskapliga
inledde
patraff
ferdin
164
befinner
lon
trop
precis
sank
##ee
skand
dos
spin
sulawesi
rosen
bez
inspir
ale
##gs
skid
kolon
nordiska
##ict
konkur
##oria
matchen
kyrkob
##eval
##illverk
betydande
##jav
##amento
bestaende
##ope
forening
mall
malare
antonio
seder
##ask
guvernor
##kap
##ojtnant
ensam
utfor
drygt
tjanstgjorde
##angel
##altet
arch
##fal
tub
sed
viktigaste
set
1879
##hast
avlade
##otrich
adel
karlek
nilsson
mey
bob
mansk
levde
##ates
##varl
##sholm
##sborg
fi
sovjetunionen
##ido
##egang
gom
tatt
##akh
anvandning
victoria
##sblomm
##erberg
makedon
green
pala
you
##familj
straff
daribland
ferdinand
lanka
sofia
tillkom
bell
fiji
inc
tig
hogt
##arus
forekom
helsingborg
abu
naturreservat
##mid
36
lett
slappte
##ocera
##istr
##forfatt
museet
skriva
##igan
francisco
kontroll
utvecklades
##flora
169
mam
isla
botten
americ
##aro
##listan
##ai
rem
##ovis
skapade
ruf
verkade
lunds
168
johansson
thor
##marna
wood
##verksamhet
fardig
ribeira
##ente
akadem
guatem
chi
##uras
1881
sap
gir
guatemala
##inns
sli
chlor
uttal
##sag
prim
federationen
extra
zagreb
franz
nan
pian
ecuador
##efter
##yle
delarna
##risk
motsvarar
avdel
##spelet
##svag
figur
##ces
departamento
uppgifter
officiella
parad
stallde
benamn
nej
37
##isen
perman
singeln
##orth
##so
##osit
fotograf
167
cit
##nare
heb
lec
bygger
##sdjur
kopte
1865
avse
##ojd
kvinnliga
mim
parasitflugor
##bia
##esh
##ppen
mary
##ipennis
manitoba
priset
##bud
##eman
gatt
smaharkrankar
pyr
nominat
nedan
chang
##ods
high
jakob
##sky
ifran
skiljer
torg
##stav
may
comm
##backen
##kontor
fragor
hoger
##ome
##pas
brown
tax
veckor
semif
filosofie
intresse
oh
##wald
lamna
##riaren
kungariket
##svenskan
palm
pam
oppna
ester
##etus
##arina
##slyck
rollen
fokus
##rup
##spekt
forsv
##vikt
##omrade
ib
##omor
valkrets
nominatformen
tob
stang
statens
fog
miljo
igenom
beskrivs
##musik
myrart
rekord
individer
##ilt
##ental
##berget
egentligen
fack
rymd
##ktioner
sangare
##bildning
forhallande
minuter
##obius
serb
##oka
1883
anled
##asen
dir
brad
##yre
##frag
##igheterna
1877
scotia
##moss
hette
musikal
studioalbum
forut
##ues
arn
jaz
sucre
34
dominikanska
roller
nob
##eslut
atl
disp
avstand
tillstand
##bour
##allt
omfattade
bent
herrarnas
utred
try
uppratt
suva
alg
kanske
1874
typer
castle
tvingades
##vetenskap
gur
rygg
##anan
kategori
##essen
1875
##estan
medborg
kim
cyc
hjal
yo
nap
##alan
##opt
ther
ena
forslag
fylumet
hipp
misslyck
##jat
##eiro
ribeirao
osterrik
isa
uppkallad
fla
mill
varfor
##isterna
musiker
tradgard
rysk
etiop
##stift
begreppet
##hund
##skomm
kvalsterart
##feld
sedermera
igar
##talet
angel
gent
hjul
eh
oppen
kyrkans
nue
##uellt
syfte
##ads
kallat
hegy
##usk
##ellet
die
khor
##oto
kraftigt
hoglandsklimat
afrika
##eds
mir
##unnits
viktiga
##fiskar
foraldrar
ving
166
tele
##satta
shuiku
byggde
lakare
sags
##onoma
honor
##isch
bap
gi
teatern
organisationen
snackart
vasa
##well
nr
tiz
##esa
tatbebygg
anim
vanligtvis
##ikation
grac
inneh
je
##ello
jurid
##dad
illust
okade
color
verket
##jak
##isp
##jk
resa
cd
cyk
process
##omp
##itel
makedonska
cyr
hemma
##orh
kvinna
exist
flockblommiga
utform
hammar
##hogskolan
poj
rea
kuba
##yng
fageln
center
virg
femte
1876
stann
syl
inflytande
##idens
politisk
officiellt
##di
##aeus
france
##phus
situ
jamfor
costa
##sgatan
spraket
1869
katal
##kast
up
pengar
japansk
gri
posit
##sand
##ør
knapp
##fr
sac
##etiska
igarape
dun
malar
##konst
slov
observator
riviere
ivan
finlandsk
stadsdelen
##ommen
myt
mem
##strand
motiv
slakten
##otte
##olus
kullar
kontin
##inav
wash
jacques
grans
##enia
stylt
##svall
wall
norrb
kannet
utgjorde
sager
slottet
66
kanneteck
##but
xanth
##ehr
heller
##dag
##eba
##sforen
befolkning
1866
bert
arthur
publik
arme
##aya
uppmarksamm
##vants
##ison
agu
ordin
upphorde
bildar
##iar
acanth
portratt
alk
tatbebyggt
meddelade
linne
##idi
##antha
##hel
##maskar
tun
##lista
finlands
##cos
##onsin
princip
##avs
let
sun
pred
kyrkog
dyk
gross
occ
##farg
otill
120
##agua
comp
##stiden
smak
aqu
alm
##skl
##ctus
##ical
college
##ocha
sammanhang
viol
resten
sir
koreanska
##enz
kapten
##kyrka
##25
##sko
kav
hil
jesus
##regionen
##vall
tros
##inata
sman
##emann
##rof
piz
spelas
hang
dalarna
##ogae
huvudb
lavart
moskva
asteroiden
snar
##vok
##icornis
ross
##sattes
##ardo
hass
autonoma
kanadens
levnad
jbel
##faren
##osh
fars
salde
cont
##ophagus
varierar
kum
mandat
kairo
##elb
kvarn
##ame
gavle
anvants
examen
paret
##onde
scha
che
##ligheten
menar
##bai
##forhallandena
##alo
mali
1868
##brun
##oki
##klass
orth
aukt
zeeland
militara
registr
timmar
skapades
ss
call
##iola
simp
forbind
sz
allvar
mastare
1864
##banan
##jord
71
38
##iljo
svt
bjork
##ار
600
lob
kejsar
vr
##shav
stev
parall
viet
##itis
##nia
##rande
oversattning
rat
award
wind
psych
modell
sonen
godk
fant
astronomen
tappeh
landst
overgick
ambass
hogst
haller
valdigt
deltagare
tum
##ual
autom
radi
##shoppor
damask
instrument
assoc
blomm
tidning
helg
speciellt
strat
pag
blek
##uh
dial
ansl
prop
forlust
##adel
publicerades
##standet
elit
arida
pans
##sek
1871
kristna
##ressen
rapporter
tolv
aterfinns
agare
1867
1858
##fran
39
##arbetare
lock
motsvarande
##acka
skrifter
1872
ay
energi
##cion
##onien
aktenskap
oslo
##sey
##lie
##oken
representerad
forsalj
800
##eton
esp
damaskus
##formis
##eti
ledande
forskare
total
ng
##endet
storlek
sno
hell
##laggning
live
law
freder
perth
klart
forbj
##lidae
hap
##eme
ful
sierra
musiken
##givare
tha
publicerade
representerade
163
lagt
##rium
abra
verkar
vinna
arke
bevis
hond
##efor
fangelse
upphov
##avlingarna
visa
biograf
##ynch
nikola
63
##elin
##asi
yang
##gran
##vinsen
josef
umea
cerat
radd
ved
##zhou
utspel
##jev
##istrikt
chic
1873
kastilien
talen
kus
fro
madaga
brist
##apnet
##rons
saknar
##ophilus
sannoli
arbets
internationellt
verb
##skaff
befal
anfall
vul
tackt
##alpa
##rea
##ogel
serier
##ologisk
warren
bezirk
urval
##rah
##ilja
gabri
sociala
##alli
heder
elev
bea
##handling
kompon
72
##wick
pont
francois
span
had
italiensk
siah
##ackerlack
##attslandor
##eger
##arens
honan
madagaskar
##umen
##yan
##uba
baserat
##rek
hob
zar
larsson
bebyggelsen
##inis
undantag
##lekt
##naren
##apa
##ifer
rag
framtrad
sach
enhet
##pass
romanen
##xi
##ianus
klimatforhallandena
aker
upplagan
1861
resul
55
##stil
##jiang
sankmarker
##rif
##ebin
exped
kommunerna
##upen
1850
fadern
islam
utkom
##bod
##slin
assist
etiopien
##ute
detalj
##epart
jamtland
stycken
strav
nem
texten
permanent
##ase
cle
school
##ustrin
##arch
oz
##oua
dramat
ata
##enden
maxim
genomfordes
kamm
forkort
beror
gruv
##dan
##ose
habit
affar
##iftet
monten
huvudbaltet
alber
torp
flockblommig
##bus
foremal
##board
varldsmaster
hemm
##lander
##ason
systemet
starka
box
fos
##ites
robin
##asc
##oher
73
##mod
zo
pak
##fang
systematik
funnits
ray
lew
hjart
officer
##otyp
oued
lib
##program
fortsatta
syr
cacho
utok
delta
##erto
##itud
##rer
projektet
anstallda
overlev
peru
banan
vrh
referenser
skot
stick
##ppa
narings
glav
##ding
kompl
##stant
##olph
bond
lord
augu
skatt
utrust
arbetat
washington
micro
dollar
tranare
kalk
##sfisk
##yggnaden
forestall
42
trag
##forda
buttu
clark
scott
##uning
##faglar
philipp
reservo
##forsk
sangen
##imeter
##unkt
allmant
narmare
mongoli
##ospha
##bolag
##nytt
##ahr
gill
cens
seb
roth
wolf
utgavs
##lu
spelaren
intill
##stud
vig
harris
fris
##irektor
gods
mog
##ogloss
cav
love
sus
position
bam
teknik
jim
infordes
cand
##zen
svav
vasteras
##oja
esc
48
ostantarktis
benam
samuel
##ics
##du
pand
##skusten
##ray
former
##holms
1859
##syn
vare
edm
white
##forfattare
##station
##ogaster
sydaf
sammanlagt
julius
##arez
cachoeira
flack
##fabrik
172
##sby
forlang
rapids
stallning
##yne
##saker
##otis
250
130
lug
ordinarie
install
kre
line
monteneg
##okt
parc
utforde
khorasan
##mannen
ahl
##fo
##19
utifran
dev
##pur
aland
##kreis
##aspis
range
##itten
temperatur
mottag
advok
140
media
music
brann
##zan
##bes
jatt
win
##skij
kroppen
##anskt
tw
euc
##ottens
forsoker
aterigen
linje
politiskt
medeltiden
##baijan
stip
mojlighet
kod
kontor
ever
##zer
phyt
67
huvudort
##anta
hay
elever
##agog
uppror
haw
forh
##ungebin
inleddes
munchen
##etten
##atar
##omia
##skrifter
##rey
piper
katolska
egendom
##iger
enskil
coc
kj
tai
1000
pahar
osterbotten
korsblomm
ludvig
##sberg
estero
slatt
forsknings
##maktige
sitter
koppar
68
##splats
politischer
offentliga
##ms
reste
gib
##inas
trans
vilhelm
##still
utvecklingen
44
valen
hind
original
##ratten
doda
viv
administrativa
##ifera
##oten
##ovi
serv
##run
##gangar
##losa
##iki
gett
hamnade
bilder
elfen
##arskap
penn
##yah
##chewan
upplost
card
internet
##can
##beck
47
religion
prix
ble
svampdjursart
##pis
##reformen
##elserna
ris
sent
normalt
pension
dekor
behover
lenn
definier
betydligt
smal
69
mut
saskat
rank
styrk
oss
avslutade
element
oppnade
##esia
1857
strandlinjen
chen
##ds
##ecia
elektron
saskatchewan
slogs
mission
anklag
royal
ix
anom
theodor
##ese
motte
kg
sound
balt
beskrivning
befolkad
fjall
pip
nak
##skill
soldater
fraga
kontroller
##skepp
##ocer
lade
qal
##ologin
##fund
romerska
astronom
srp
##byggnaden
komposit
##skade
##liggande
belgien
##bitare
##sporter
vanner
johnson
omnamn
##ocephalus
##outi
utvecklade
##stalldes
varlds
sarbar
vd
riacho
marin
boll
doli
##omraden
##rare
upplev
inneholl
christoph
##icip
utov
lee
ting
##ums
wilson
kvalific
veg
43
internationell
##icer
bom
gord
##wer
anord
##uther
ce
##ovac
colonia
betraktas
za
kvart
konkurr
##rorelsen
stopp
accep
##gras
separat
anstalld
elfenben
##bilis
metall
##svagen
rhod
american
dicran
kamar
guinea
sjukhus
##alism
bulb
agua
states
tru
vent
##skottet
lakes
has
avanc
maz
##endron
atten
##don
##juk
republika
djib
schiz
##sjuk
##ellidae
##smat
breuning
##ulea
##skor
##oro
miljon
sade
tegel
kommiss
gat
lyc
41
omfattning
hann
namnas
varmland
##cu
##icolor
##amat
trett
karaktar
fyll
yttre
##arius
opera
honduras
##inidae
##aderna
##unga
aktiva
ligan
gad
##ows
rovflugor
##fartyg
##iserade
moore
##delar
damm
##stj
##aktig
srpska
antag
ling
sidor
##istik
##itta
berattar
##arder
##ophaga
##ocarpus
betal
bulgarien
tizi
fien
press
##iba
turneringen
vinn
event
##lot
pent
##festivalen
enhjartbladig
stjarna
inslag
centimeter
##gi
monster
jazz
##anthes
aik
sot
fria
##nem
kle
drev
djibouti
ery
##itte
##omyza
##apest
orden
##havare
##gan
##produkt
colombo
dc
integ
mcc
##ypt
1848
##kin
budapest
synner
sekt
##ript
koncent
##organisation
gitarr
##mun
beskriver
bin
##asin
noter
artist
##js
lagger
1856
##schen
##perm
##agh
town
##fart
areal
##shov
regemente
guyana
##sy
##unkel
renover
drift
wik
##oneura
landslaget
1852
petter
frihet
out
fartyget
jug
glavica
bow
##ografiska
##aville
tenu
dahl
gransar
##nis
pir
##my
##larare
nedre
1830
##latsen
beford
extrem
##icol
botan
##idion
makten
##jades
##ingom
kaf
##ista
varefter
prog
strang
puck
tids
##col
kenya
filippinerna
##wi
bark
##rill
##uld
##vatten
##stre
jones
golf
##cern
##agu
belon
46
57
##lamn
ekonomi
##epec
##spart
lom
##valet
##onius
##avdel
bock
behandling
smaningom
belaget
iris
spekt
morne
ingenjor
##dz
tecken
##vav
ens
##rollen
##alk
baker
medverkat
us
##sida
##quist
##ando
design
zh
papper
1855
ara
leda
montenegro
##aneh
wang
club
reform
norden
kloster
##to
brazz
utnytt
##shamn
##rosophila
quad
satte
bengt
mort
interv
ayn
##ademi
levande
haj
cyper
get
klara
##inella
yrkes
korall
boul
spets
halften
##oslav
oppnades
otillrackligt
pha
glest
manad
##rage
pereval
beach
syftar
##sakademien
korta
revs
##ridge
utgivet
len
studera
##unden
linkoping
omvand
vietnam
foll
gilbert
bac
eriksson
74
##dare
##skiftet
##ellia
##alum
kunskap
krets
kla
##emen
brazzaville
bergen
initiativ
##eur
takt
##malar
##lok
##ssatt
utgiven
amnen
##eca
styltflugor
##ularia
redaktor
forran
saledes
##issa
##umenter
elfenbenskusten
##kam
eftertraddes
camb
konstant
##forbund
fungerar
reservatet
kerman
##mes
menade
universitets
##iers
cay
trip
1200
genombrott
mach
fjadermyggor
##rock
litet
##hol
historien
grott
##idan
##lj
##nus
metod
##smus
##stolen
atmin
##oun
olyck
##lakt
sok
atminstone
nagonsin
110
walter
dash
afrik
trav
grashoppor
williams
##war
vartbitare
51
separ
invand
##ivet
49
##qa
framforallt
##institut
##uten
studerad
##svik
psalm
ranunkel
##kamp
##real
##rina
skan
##talje
tyck
700
pansar
##char
dro
##sbruk
brost
attack
skon
olsson
underhall
mull
aterkomm
fynd
onth
##uy
polska
asien
##ytan
##olep
addis
##aric
folket
studenter
##amal
herb
fragan
##tex
tidskriften
ces
jun
vant
1840
hamt
reyk
handboll
##yllis
tibet
avgor
good
##rest
artister
transport
influ
ler
muslim
##phia
ouadi
potatis
narvarande
##arbete
##oglossum
gyll
##osi
##ftea
mannen
dry
##idaceae
##oga
##su
tipula
peppar
##fi
stol
##occus
styrelse
versionen
bagdad
kent
##gjordes
##grupper
vack
etn
tillfallen
##skoldloss
harry
00
wi
jr
stro
kef
nationalp
##ave
##ssystem
harstam
nordamerika
stral
##azat
##ов
barcel
kortare
nit
##holmen
broder
arterna
1851
oka
##shavet
mekan
narmast
##ylon
##kins
##imir
taung
faglar
magnitud
uppdel
vlad
##aco
ifk
lilj
##ophylla
##mis
struktur
##sprogram
varia
opsjtina
klassiska
sallan
##kul
##ingham
alternativ
##aman
storm
##samt
##hoven
formod
##strack
konstru
antik
kel
##sal
##stallningar
skriver
halm
tattingar
ordning
##onus
branden
overst
52
##landsk
##cen
puerto
traditionella
bull
##alten
##iev
municip
##wang
stationen
##ubbar
avsnittet
formel
tillbring
schle
##vika
fern
##iets
tillrackligt
##amus
osm
##hort
say
draa
goda
emer
##bru
##vision
##nos
objekt
philip
rosa
##hallen
kommers
##ioides
rein
framat
koptes
uttar
team
fiskar
kard
grunden
##aba
1853
rand
##laren
##rel
populara
ags
anser
##inda
alberta
56
externa
skandinav
ip
##bla
care
##test
##ards
##lage
texas
##olitik
fan
##ikan
abd
skargardshavet
pad
bevarade
lepid
musk
##andes
##ylor
kyrkoher
##uro
hampson
##edia
aud
greve
one
raf
oliv
atervand
vib
mohaf
did
muller
mohafazat
farger
##dyn
halsing
romersk
lantbruk
hundra
##stag
##rana
beslutade
fing
62
sax
inborde
##indra
##cess
##akter
oskar
##olas
##bell
guer
uppstod
pastorat
fored
##akning
tacker
##arda
eryth
85
fastighet
vastergotland
lara
lata
planet
cten
malet
tillhorande
visades
framgangar
forde
##vide
tasman
soner
rug
sattes
vem
##fton
patraffats
institutet
##nor
##lip
arist
tillamp
shel
##platser
##javik
kvarteret
hyr
##ydde
54
reykjavik
##odendron
reich
fn
##smedel
##ulosa
telef
##atra
##atorer
tredj
nich
##lah
schmid
flykt
diplomat
squ
gyn
spelen
origin
kommunhuvudort
gold
liknar
1854
##chis
##uppg
barnen
oleandervaxter
borr
##ocar
svag
bohus
varde
##ocal
jav
dyg
sidi
anges
debutalbum
##vari
konserv
##malm
##namnda
onthophagus
arkitektur
53
##mossor
##edda
skivbolaget
delades
bidrog
frig
zard
vanligaste
brig
##skop
brot
republik
##ume
ff
##rerade
##osum
##18
##sna
natura
##abet
revolution
sammans
resultatet
ow
##erbo
andreas
prem
##prak
junior
pedro
fart
agnade
analys
##ortsvaxter
##hatt
##rots
1849
##lagga
punct
##varlden
berget
##vas
nordkorea
pt
##egel
tatort
varian
minne
sef
##kyrkan
##bandet
medlemmarna
##nea
forts
domdes
tala
avsl
rattigheter
كوه
##bank
societ
horde
materi
##jam
water
##hallet
placerade
##ahan
oberoende
allsvenskan
##oleon
kazak
chicago
rig
tyr
borger
##smiljo
##fullmaktige
##edom
samlade
##stjarn
##get
foregang
lil
kommunreformen
helic
hyper
gruppens
##ehamn
##eni
162
later
finlandska
##urer
besatt
polyp
##rib
havs
##industri
polisen
estland
##agge
##aborg
##oris
tillverkades
cours
finansier
##مه
gest
##eplats
##stens
siff
upplostes
hoh
mine
##vapen
##yld
##sattningar
##sslaktet
##entyr
provins
lankar
##lakare
##ylind
##ici
jonas
##eris
rott
ve
##agna
listan
##smakten
##ouz
karriaren
rok
##ove
##nens
##ussou
olj
##tis
sundsvall
folkrakningen
##inist
landkreis
havd
sond
nodvand
kanalen
##sin
##neum
modeller
dich
amazon
fysik
##rats
sekreterare
bildas
##iculata
##bom
##saari
cant
levu
58
havanna
chel
bedom
tunnel
rorelsen
programledare
##yna
gunt
pac
##litt
##ourt
eau
##sdag
cell
##oco
gabriel
mans
tof
##ilm
##igalpa
mossdjur
##viken
##ospora
enskilda
klost
##hn
maja
##sprakiga
##sledamot
##folk
##skrig
##bury
norrkoping
##ede
##elsens
156
##pet
syss
block
advokat
operan
lod
reserve
steph
##etia
beet
##iland
qol
bandets
bapti
specif
ich
##ship
frid
manniskan
##oo
bekraft
draft
coel
disc
##opogon
eva
odont
##knande
artiklar
jackson
##iot
##idus
##fon
alkoh
framgangsrika
##astare
eurovis
##ucigalpa
tegucigalpa
##stal
intervju
nep
pant
kyrkor
gallmyggor
lagoa
##yeong
##ogne
nejlik
anslutning
frederick
##onotus
ola
wol
##tering
eftertradde
bete
##erby
rica
##pol
##hets
##ough
##meter
##orerna
melodi
gull
fonster
##ube
##sklubb
vive
tvaa
##priset
kry
##bourne
religiosa
##mass
fac
anat
##enbar
avtal
##rypare
##ory
##yia
nuuk
##cc
cet
chur
skogar
modellen
rang
gum
nay
intraff
sallskap
lasi
refor
khal
##ostoma
kapell
##agan
##shuset
hogskolan
##manlands
epid
##cept
##inalen
storstad
bath
##ike
andrades
komed
atlant
crist
eleg
inval
##ialis
##forord
ahm
##systemet
experiment
uppmarksamhet
census
vinst
produktionen
tennis
mora
##ique
overste
fav
svara
hotell
hastar
##stallande
fornlam
##ophorus
viken
damernas
trig
##ako
huvudet
besegrade
##zia
elisabeth
data
budd
saf
##omataceae
kari
##byn
centre
konstnaren
podgor
lokalt
krimin
abb
##eo
anis
imper
baptiste
young
hyll
##irat
77
##ussen
laurent
kran
##ivan
chaet
sovjetiska
regionhuvudstaden
miner
bott
lith
barcelona
##skad
neur
##rema
persson
##smedalj
##umin
bureau
masterskapet
xyl
##server
##ekten
##spro
1400
plag
podgorica
##icta
##pen
yamo
##won
##inar
##effer
1847
tvavingar
viktigt
ritningar
slav
##odia
##ssel
turkiet
marc
low
natten
##industrin
kurd
##odrom
##yrus
dolich
##ionde
##ular
eurovision
make
bilda
avsked
##verg
##elidae
##floden
##ussoukro
yamoussoukro
opt
adela
show
luk
bladhorningar
##ulin
159
sallsyn
monument
cot
1846
symbol
mell
##landor
##varn
##oloph
tjock
hitta
##arth
vaxjo
##icia
##styrelsen
borja
garn
azerb
ves
##11
##iceps
##ekonom
parken
fet
##vald
##qi
florida
utbildade
rim
nes
visat
##somraden
digit
carolina
latarna
##edra
serg
fordon
rhe
##omys
byggd
allmanhet
begravd
76
janeiro
cec
hyl
##ilton
##emia
masterskap
sph
##illeri
tror
##ornet
framstaende
##fly
##sdotter
jama
lita
ceph
##worth
qar
texter
broderna
##vart
##skytt
abs
omedel
offentlig
##amar
scien
infanter
oleandervaxtart
##sblad
invest
mr
##uela
##rap
slags
lux
rena
thel
planer
skadespelaren
blomflugor
##flode
##ifrons
linjen
koll
gotland
##ningens
tingslag
privata
vie
nuevo
expl
##livet
now
hant
##ells
##ationerna
bonn
vagg
forband
oran
hugo
foda
oct
##itus
loire
forhand
bund
trupp
boy
namns
##haer
pyong
stens
##ople
minska
##ortsvaxtart
folja
dublin
azerbaj
minister
titt
##foreningen
russ
1300
fallet
##ball
groddjursart
spansk
overtog
besokte
nut
skjut
##imen
hes
azerbajdz
forvarv
herman
sparris
arligen
filip
karelen
elva
flottan
fair
grat
##ime
##ور
##cken
statliga
margareta
bourg
tillhorigheten
snarare
##oman
##roch
efterfolj
fullstand
gemensamma
gardaneh
##svalet
##oce
friher
param
##tekn
laga
##bba
##fod
lakem
##skontrakt
forber
lagga
xen
rene
bilen
چش
formen
##astin
forel
gitarrist
cano
prist
luis
andrew
folkmangden
##karriar
##tah
tong
##rach
auguste
##tyskland
##lager
##vann
stadsdel
##zab
1838
aventyr
##stock
vintern
##ligaste
##olia
ilha
##ashi
syns
153
##mastaren
producent
##ingarna
stanley
##yggen
jamfort
skytt
schlech
##bal
nel
avskaff
nyheter
peking
overfordes
hors
wu
##wall
##flott
enkel
hong
mynt
tryckt
polis
loppet
miljarder
ekonomisk
sammanslag
##ekv
kammar
##usch
ess
##uper
abeba
alek
venez
seri
doug
grekisk
##otria
##slangd
##rekt
gris
dagh
##bilden
##iation
##iler
##regemente
expedition
چشمه
##ammad
##aton
domstol
akra
termin
petit
##yder
taylor
indiska
olig
##12
torelvaxter
beethoven
tin
##nan
##yllus
hamilton
##edo
she
hid
valt
arkeb
lagstift
utveckla
##asia
##oke
##see
sjoar
##omo
##iser
crass
merc
myrtenvaxter
styrelsen
forf
viktor
trin
guad
lis
aer
##ibliotek
samtida
alpes
transporter
##zal
ci
olympisk
adelaide
##stat
reklam
net
nyck
##cta
sande
##inga
enkelt
kapit
pyongyang
##irus
gutt
##ospor
##rater
ernest
representerar
conc
##sforbund
utspelar
##epartementet
smitt
edwards
sha
old
reh
sic
##oud
utlandska
##ologen
jiang
##unds
produkter
khar
dest
framstall
halvgras
taiwan
rosvaxter
cort
##row
##bror
howard
mix
##snings
1844
##tain
##igenom
miguel
tul
##kov
##oland
startades
sty
##utsch
burg
wild
undervis
##ekreterare
##ianum
namligen
askad
talar
hoppspindlar
dirig
salv
konfer
roster
##onica
##ilum
svid
sarskild
zap
##krig
##ianska
peg
landerna
strateg
##ocy
tatorten
##lyst
arkitekten
gemensamt
varianter
sprang
##arra
kris
##اد
tyng
##bana
jonsson
##liknande
##uden
155
tydligt
observer
skrivna
##atak
##iten
##ioder
##litter
##centrum
##arspindlar
rah
##utbildning
##ves
##bind
oce
##iral
##varo
##bryt
##sexamen
harstammar
tull
hamburg
##iflora
term
sparvag
bilar
vav
alexand
michel
regissor
##avlingen
ersatte
konfli
nick
##elus
##ous
##atre
##obia
colorado
##igare
##ury
personal
totala
parac
kass
##ionens
##istiskt
stilla
##ingenjor
variant
karlsk
95
##itze
##lang
##ocke
isol
##omyces
kande
tandspinnare
cost
bedriv
framtradande
59
with
##prin
docent
spe
efternamn
##berga
##inensis
supp
##emar
kommunalforbundet
series
egypt
##bladiga
quito
skanska
fril
vatmarker
parlamentet
##zig
tankt
formaga
lap
klot
carp
cin
jin
sjatte
arena
urin
gymnast
arvid
##rekord
##igg
adrar
konvent
##hoe
beromda
##icollis
##rero
effektiv
katarina
##lay
sjost
cyrt
trach
slappt
marknaden
##flygplan
##yta
##figur
##ogn
##shand
##borgs
##iffer
leonard
brod
78
champion
nin
genomforde
guldmedalj
##erner
##oniidae
doro
##imp
hjarn
rent
hier
lokaler
artikel
##shan
butler
##alpus
##ranth
##rador
taget
langst
goran
##yes
blue
tric
cru
myrtenvaxtart
##enberg
##iac
##kas
lewis
vader
allen
strauss
lh
prout
anlades
halls
cote
mul
##kal
kang
##kat
nyland
host
lost
neb
oro
normand
nabb
edu
reb
##inde
utmar
kusten
sannolikt
melbourne
scop
foretrad
posten
front
lung
huvudorten
kritiker
##foretag
grov
##sha
manch
sphaer
##jed
kob
varvid
jarnvagen
his
erfaren
prom
##rivill
still
order
driver
bulgariska
cob
konda
##ligheter
##fjall
glava
bunt
lip
##iano
kalen
rose
malvavaxter
##hag
stjarnor
##fiske
premiarminister
900
##ikern
vastantarktis
##owr
1842
cass
##ynchus
##rera
##smass
##17
innef
contest
compan
rotter
skara
kazakstan
kad
hoch
##knott
tornet
holland
prefektur
stannade
mongoliet
turne
cher
##yu
karol
leva
hat
##odi
organisationer
154
##gh
tonsatt
flagg
mojligen
##anser
svidknott
158
trollslandeart
sloven
inkluderar
mossdjursart
silv
patri
anslot
sjun
klockan
chia
whit
##bladet
ile
##hes
psychotria
cien
pals
157
forbundet
lulea
hamm
bulbophyllum
vert
sjalvstandighet
kraver
langtungebin
##hai
paulo
utvid
resulterade
##ped
inratt
kenn
##dens
saknas
##mur
hex
producerades
fol
dvd
metoder
torelvaxtart
bk
dru
solo
bana
spen
indelning
wat
##bol
mika
allmanheten
flest
##ettix
##oft
##osphaer
tep
cour
rinner
##kong
ostergotland
##jarne
daghi
ping
sokte
##fast
##aker
grann
soph
##uset
##okar
vinterspelen
jugoslav
dialekt
88
identifier
torr
##kyrk
##bc
billboard
##orj
##angs
sanka
##ordin
borjat
katt
##ydda
cypern
sala
##ciata
avgjordes
revolutionen
##lon
vardera
orter
84
##ouch
##reich
hooker
phys
grona
camer
##bis
wur
beskrev
minas
byt
kemi
##omi
step
##rier
tasmanien
davis
hjalpa
##bygd
ledamo
halvgra
forandringar
##ils
anstalldes
##braken
bestamde
stein
grundlagg
halvgrasart
cri
barb
akantusvaxter
insatser
pitt
vak
sorg
palats
exakt
##arkar
1845
kotal
rorelse
friidrottare
tubu
synnerhet
kopa
landsting
phnum
portugal
varvades
socknens
##rion
evangel
kontra
lof
##sdistrikt
##igi
beraknas
innehade
introducerades
sydafrika
tuber
paborjades
chamber
huvudkontor
group
1839
akta
ukraina
##16
vecka
sjong
ulf
leh
##yte
ull
varldsc
cul
commun
insjo
avlag
pointe
flen
astrag
fungerade
gotaland
bronsmedalj
##cks
dob
eskil
##ffe
##eback
tradde
traditionellt
fragorna
##kont
hymen
##sunds
jonkopings
xi
erem
heliga
iso
schlechter
pampa
avgick
skolor
##strad
termen
##fotingar
svavflugor
##elo
kommande
nouv
##iebo
ambl
inomhus
##lopare
operation
avgorande
##ummer
82
predik
##skans
neut
##skrivare
##iao
##sakring
##oche
##rie
##otal
##leh
##iyah
##15
##aterial
karlskrona
##sattningen
##svetenskap
berb
##aa
##odox
resor
tillverkade
historiskt
inred
anderson
##smot
##stalld
filosofi
karlsson
tillverkning
dent
mant
orgel
osta
##iration
chat
pall
avratt
regional
fox
##any
fordes
montana
kansl
nos
antogs
musikvide
nationalpark
stri
##ance
##historia
##ikk
dikter
komplex
##ladd
sadant
placeras
inbland
##grav
lun
pue
hittills
##ocephala
89
prince
ked
personliga
deg
utd
dahr
medicin
##alon
bergs
basket
skelle
malningar
##ulium
flam
##ango
upptradde
tecknare
dil
kopinghuvudort
placering
varg
invaldes
akte
gatan
house
aterkom
akademien
omtal
kamer
kull
##verkan
astragalus
##attar
grasvaxtart
buss
##skolor
kungens
dart
tavlingar
glad
##andare
linn
lisa
1100
##amentet
79
##ordforande
varn
pleur
ponta
rytt
glen
stater
beat
##etti
gregor
fasta
staderna
ishockeyspelare
bebyggelse
grip
macro
##oblast
##reger
skj
##satte
##reta
fortsatter
recens
##illon
beck
##okal
##elsef
valja
stipend
malade
gallde
naturliga
smaort
ophi
annars
dz
##ardi
rektor
##punkten
bentham
tres
##essa
turner
hk
orkester
medicine
hanen
forenade
##pat
tider
framgangsrik
abbor
drivs
##rycket
mira
##itter
##redaktor
plant
vladimir
gentian
sefid
##ovit
152
##asaari
silvermedalj
konstitut
hackar
zan
##bs
albanien
canada
wen
californ
ric
lanserades
cari
##hammar
lyckas
limn
teolog
83
gaz
yong
domsag
sebast
##erska
##kur
##lers
flygv
rosvaxtart
##rica
flytta
hogskola
arkebiskop
##نگ
##ego
broth
##ovs
aj
forord
forsvann
lucas
gunther
##skilj
tillat
municipal
halsingland
##uensis
inner
##wal
bearbet
skogs
inbordeskriget
##slaget
stjarnbilden
decenn
tillbringade
##ال
stadsb
##actylus
##vara
enheter
##foring
unionen
uppgar
elli
##kol
ansi
sekunder
befordrades
ronn
kongress
fabric
drosophila
redakt
valle
konstruktion
##ligan
sarc
husflugor
##oura
hyb
kejsaren
kanadensisk
maurice
akantusvaxtart
producerade
##yga
##reds
nomos
vo
##zel
formellt
bagh
hub
##igma
coch
lamnat
##viks
99
luther
konsert
##landa
lagun
parv
bandy
qa
splitt
villkor
sonder
trod
##ithecia
malvavaxtart
gula
##organisationen
konstak
reservoar
leb
skiva
visas
frederik
motorvag
##stjanst
roger
gy
kala
oreg
cheng
erovrade
dick
mata
##saga
##atera
sjunde
##slott
megas
kit
skots
##radande
leop
hastighet
nieder
86
##omon
varum
day
##ymer
##deb
hora
nerv
asc
nobel
##fried
artikeln
##lussteklar
kravs
kraftdjur
##neumon
ostazar
teori
utstallningar
ostazarbaijan
##kogel
anhang
konstmuseum
##naderna
##14
sachsen
##stalla
chung
sarskilda
##uge
finnas
dna
jobb
##vans
angust
eupithecia
foresprak
cym
##shistor
gors
dum
mez
put
drabbades
##ogra
regioner
ombild
gota
edvard
rin
muh
kombination
##idis
##rass
##rane
rhone
passager
kvadratmeter
##eka
studentexamen
portugis
sats
##anensis
korallart
kommunikation
trog
poet
romant
kid
naturen
montreal
gordon
helst
puc
underl
##rafiken
ekologi
87
frivill
##py
shi
kravde
representant
##ikal
ral
wag
##rong
##garder
obsc
raj
association
enc
##ento
verkstallande
angermanland
ogat
bois
##alder
##right
def
##vania
##elset
anledning
##ake
syst
blekinge
avveck
gruva
holly
antio
sah
nordisk
ovanligt
sich
##mord
forr
utstallning
##terar
##alens
intens
##produc
##ylis
##iodes
##brakenvaxtart
poll
observatoriet
cac
##familjen
tv4
historisk
ute
hobart
##stallningen
laos
gru
kinsh
krim
neph
melast
head
brid
kaw
##uti
science
##abi
debatt
romaner
##ка
aq
karin
kamen
pus
##essan
chor
province
synd
forsoka
tysklands
formodligen
##leken
gig
uppfor
##ygden
##halla
fruh
eumen
##odont
riddar
stjarnan
cons
great
##sbygd
1834
moss
stur
thailand
uteslut
##akes
fish
##tend
##yds
human
##perioden
##gift
nassel
asa
anc
fornlamningar
##ionerna
borta
##samheten
tidningar
pastoratet
kinshasa
1841
automat
##vill
anto
paminner
##raget
1843
hittades
hunt
vest
kirim
##elflugor
styrka
kani
nybygg
boras
satta
ekv
cong
##ble
versioner
ake
koudiet
viking
anlaggningen
##uka
##provinsen
##oidea
fak
##coides
##usta
##quin
rhin
##olla
vagar
racing
kram
##iso
naturvard
harald
guang
busk
musikaliska
##lich
##soni
invas
##ningsvis
##sverk
arrang
alc
##undi
##dahl
gray
aktenskapet
kuk
ansvarig
##yche
stump
demonst
judar
##hult
senast
kollekt
avhand
klassisk
##sok
##uki
carlos
##schild
##anns
##ouk
svans
occit
##esta
1835
utbildnings
##ikon
bestall
##rops
##indi
##medel
##ysia
borrflugor
##opet
##ubile
bif
kackerlack
##isering
##stach
##ieri
omgangen
felix
company
abraham
utman
oriental
sorter
##entris
bosatte
huvudrollen
alan
##acruz
langror
upplaga
##sforening
fattig
##sbladloss
##slagen
##uppdrag
erit
senator
klubbens
langrorsbladloss
kirimoj
sup
syrsor
##elns
bromsar
likt
skivor
radda
key
forekommande
utvecklas
vistas
##yli
brunn
manskliga
##annande
bour
mangder
nederlandska
svensson
##iza
fruhstor
rus
okar
##smet
forhallanden
petersburg
##tur
darifran
virginia
sump
##vad
arkiv
barrage
herrgard
gifta
##ifolium
##sborgs
odle
fral
utfard
##ression
##shovding
avrinningsomradets
##opteryx
loph
veracruz
doden
ovanfor
##enus
arct
norman
##ulu
kub
brant
##strackning
1837
##mers
##forsvar
overg
textil
svard
simulium
##skning
vagn
##orget
helena
vap
tilltradde
forklarade
##edig
anpass
spil
syftet
frans
strackan
##lect
napoleon
##ovic
nunatak
staf
invald
monark
mjuk
konflikt
##dor
##aculata
##onte
avbild
##omorpha
##asjon
asm
##hot
even
##jah
##اه
tah
delade
turnering
overens
kyrkogard
douglas
television
##rakter
##verse
hebre
akut
bjor
euph
##dals
overb
##ktyg
##ree
sistnamnda
klatt
euphor
##idea
##elsson
levnadssatt
flat
banglades
foreb
bangladesh
utflode
##opod
##arsus
##ija
rain
##rug
sodertalje
sher
academ
div
buck
##inum
##sea
personen
##buk
##amt
birg
medborgare
azerbajdzjan
##skarriar
homer
borde
##rund
##ione
##inosa
##west
broll
minskade
plast
sate
##iled
minut
kaj
##yon
sinn
zur
##vux
forblev
##illus
odleart
sagt
kunnat
administrativt
handelser
sater
utsatt
tanger
byggas
fullt
elect
##areh
hushall
fat
undvika
restaurang
iden
##onne
beteckningen
paso
golo
voblast
thunder
lage
mete
dottern
aw
melastomataceae
220
street
mjolk
##oser
upprep
liby
enter
##itekt
##bran
##esch
cupen
folkrakning
##iber
schaus
esper
##hof
church
praktiken
1829
##oti
open
etablerade
##antes
northern
##svenska
nouvelle
##haus
##13
##storp
##wart
paral
gio
vakt
kha
gjorts
hydra
sallskapet
lomb
undervisning
konung
##strid
##arum
##ophth
##spektiv
lennart
##ommar
96
trask
##eholm
urban
furst
##ariska
utara
##elsel
komposition
reduc
rothschild
pia
pec
gogae
##aring
ratten
qarah
##edral
grim
##tran
##anas
varden
angola
canal
##amerikanska
insjoar
##urser
font
linkopings
sens
tus
##øn
trapp
way
koch
partier
##atts
boston
pico
monter
stap
blas
loch
##iane
jurist
dygn
louise
fatal
ovansidan
##ycke
tillfalligt
medarbetare
forvant
fangats
cli
birk
grundlaggande
radsomradet
traffade
skydda
larde
##lapp
salja
1833
##str
##foll
##amas
funktioner
odling
##artade
triv
##mande
flydde
tokyo
tir
familjer
antas
capit
konstnarer
aterkommande
##arkitekt
ungar
semifinal
##raken
##uff
souss
charlotte
avslutades
sangaren
mario
##iscus
placerades
uppm
lasa
mess
##emus
fruhstorfer
clav
flit
##mas
##eto
mening
habitat
sork
deh
utstrackning
troligt
ljungvaxter
dykare
##dat
tillfalle
##inos
skador
##kvarter
##ao
amerikanske
nationalmuseum
bibli
##quia
utmarkelser
kanner
98
##acia
kirk
hoff
varmlands
##krit
stjart
dokumentar
lot
##mit
##bladsvaxter
bedrev
nordostlig
loi
##rox
volk
##jaure
road
skelleftea
wer
##antis
##itaine
##uft
parap
##idu
##akare
##knipp
hovet
boris
utp
cylind
##kopf
##mont
##innbaggar
jarnvagsst
##okan
kyrkliga
konserter
paborjade
cond
undan
anhangare
fikt
upper
eduard
slutar
krigs
allierade
norrbotten
championship
grundare
##opel
bala
utvecklat
megaselia
##lom
##regementet
lax
##sol
iz
##ður
deltagit
undersidan
framt
german
nicola
##adas
##ulum
turist
snylt
kyrkobyggnad
lub
##cata
vaningar
kah
##pal
asiat
dys
sydamerika
klassific
tillag
##rute
##cka
##ariidae
baserade
negro
##studier
ic
spi
beslot
umm
##ugan
##organ
kompositor
##tar
four
rodrig
myndigheter
##oclad
kyrkoherde
vanns
##filmer
cephal
schles
behandlas
absolut
territoriet
##amper
planerade
kvall
kontro
partiets
avsloj
pow
andalus
rubus
beholl
preuss
bahia
##takter
##vakt
ster
##alton
betala
rodlistan
korde
##iansk
cetoniidae
kanna
kristend
##inspel
##azi
partik
fjard
1809
1820
gosta
jesu
paz
##eno
elias
zem
population
##ky
##frid
arenan
naturligt
labor
omedelbart
mt
##has
##ikter
##anmar
##arium
adri
utvecklats
##gavs
festival
provfiske
garna
##dorf
polyg
ozero
trodde
##uru
filmerna
utstallningen
magnet
munk
kammaren
occitanien
disn
utvidg
bem
forman
##esp
##sim
meyrick
kompletter
##eler
vasterbotten
##oen
klin
magall
##bocker
##upe
skada
##acitet
knappt
judiska
kjell
##vavarspindlar
##angare
tackvavarspindlar
krak
ombord
filmografi
humor
ideer
tort
##ters
okat
##ktes
skov
jungfr
lc
acc
damer
bryssel
##ococcus
barndom
nelson
gyeong
chin
utbrott
svea
comte
dendrob
hjalmar
anka
offer
moln
amaryllis
##ologiskt
lattare
aquitaine
cross
##elberg
##ather
##azar
orient
undersokningar
kunt
##angar
poec
##eet
utgang
##ichth
terror
##ан
foreslog
##cas
##avtal
sve
##onto
gis
tempel
##unct
bens
##ehand
rust
##emin
forega
fara
jersey
tad
##cio
tillhort
##iste
tusen
musikalbum
tavlar
misst
##etisk
hander
kritis
ockup
##skjut
##leden
relation
behovde
palest
92
andel
definition
mina
magallanes
bildat
potent
helik
##edy
server
olja
##plet
##ygen
minist
benn
myanmar
rutelidae
sekund
##uj
##forare
##yss
##roth
grader
##ission
amnet
inriktning
stumpbaggar
dow
utfordes
radet
fenomen
byggt
##ingue
lyder
marknadsfor
deutsch
##ibi
maskin
styrkor
begav
noll
forbi
roh
##opl
diskuss
##umann
oblast
cocker
93
##kriget
1832
##horax
oliver
arbetare
gera
210
##yton
bonde
natverk
forknipp
store
guds
##fram
stalldes
##estad
##retsen
hul
##anum
litterara
##vergne
##issima
observ
vinnare
bagge
##visa
ungdoms
illustrat
motorn
eumenidae
##faltet
bun
##cial
##yser
##apt
berattelser
avancerade
daligt
loren
jordan
##ence
naturskydd
##fru
prost
time
normal
okad
foregaende
mack
georgien
datab
##enskap
##chang
mottagande
ladd
cirk
##ukten
##stjan
koncern
cycl
1836
##ocerus
priser
mote
gha
##oon
handlingen
upph
bryt
gotlands
segrar
##asis
##ellerna
clad
drak
shin
##igu
uppvaxt
kommunens
##filmen
##pool
vattenfall
##agon
losa
uppland
utrym
betyda
inspelningen
partiled
fry
hills
windows
fritt
esf
huvudroller
culi
margaret
vinrute
korsblommiga
overk
gel
kec
##enne
##eon
osak
fristaende
tofs
##etown
##ouan
snyltrots
pry
marit
osterrikiska
infekt
##fs
insats
bh
##slos
latlista
chiapas
##omar
singlar
bernard
##ient
##stuna
##rio
##jara
buntu
ez
##imo
ledningen
islands
##republi
auvergne
emp
##orit
##ifik
uran
##ropis
##akien
atskill
##istans
kategorin
normandie
##oux
christina
##ellata
bostader
borgerliga
genomgick
uppstar
forstordes
hort
##radde
apotek
kackerlacksart
##ches
ledamoter
97
rolf
seh
##uqu
landh
claude
dendrobium
94
pyram
shar
flertalet
ult
##valla
insk
varpa
speciella
vagrade
##stadt
##blo
lamnar
schwar
##uenay
saguenay
semi
soka
skilda
drom
matematik
arhund
wahl
##stationen
##ipe
individerna
glaciar
tis
##ackor
barnet
##ems
rhynch
stephen
##iton
begransad
##resident
havdade
amarant
desig
bayern
##abil
bach
ljungvaxtart
ghowr
stiftelsen
enkla
mikael
from
##teri
leip
vardef
utomlands
##ved
passerar
kristina
okand
bockerna
hebreiska
falls
kyrkbyn
##ningsplats
marshall
myst
dods
230
giovan
scenen
lagar
##lagda
mou
orange
pang
zah
sop
bokstav
donald
finglanssteklar
##adan
kora
nominerades
vulkan
61
nou
##ovich
moritz
##aterade
upptackte
##syl
raka
##ener
wars
typen
##result
mesta
bruce
service
اب
##day
karr
##fagel
motstandare
anomala
##raten
##86
carlsson
nicholas
uppman
braun
aboland
##ratts
joe
bruket
joa
sik
##anor
calli
misstan
ortodox
schmidt
zel
cry
oxford
##teckning
antyder
##igny
staff
blues
morris
forfattade
dolok
##adder
##illes
darigenom
map
##ygium
nack
##igera
forstark
varumark
##kod
##anner
gracilis
##skriften
bilden
robot
sjukdomar
norges
diskuter
##atorn
##phis
tach
kinesisk
xii
lamb
##ordningen
##bul
##ychus
veckan
xin
##smyggor
##arskontrakt
svampmyggor
##ffer
##endrum
conf
ryd
kortvingar
konstantin
jamn
##snas
diagn
pedagog
##ulis
inloppet
##area
anvant
moral
kvinnan
manliga
##lanta
verde
##regler
tomas
dartill
gira
##pert
brian
elmer
norte
dokumenter
alkohol
foral
livsmiljo
##ylum
artilleri
##ubbel
bop
brandenburg
kronan
dasht
ced
##dagen
##given
magister
kristen
##varden
mojligheter
eun
yuk
##anal
##dy
micros
primar
##found
peper
nah
wid
##fel
##inae
cho
vagbin
fora
##isi
350
##stekn
samfund
##oko
darwin
enst
juridik
birger
##ilda
forsvarsmakten
betydelsen
chilena
fig
##ileg
1815
doc
##erings
korn
amazonas
fastlandet
kretsar
miller
tillverkas
etapp
omnamns
gator
fabricius
pjasen
visst
##aket
##uelo
##tab
##teh
behandlar
amerika
borgmastare
korg
##ulatum
tvungen
##oppen
antog
bass
saknade
##byggd
medverkar
ankn
huvudsakliga
149
yam
state
foster
shir
delstat
##رد
llan
mud
ard
##acan
falk
newfound
##amer
phylla
jen
##uridae
gifter
##alle
##rocess
##recht
eritrea
##skare
##artica
##steater
deltagande
##furt
##etto
enkl
##iven
tillhorighet
##medlem
main
baku
valley
fischer
forflytt
ungdomar
engagerad
hollywood
noj
tow
kommend
karp
cienaga
##ely
##upt
trang
klostret
lyn
sammanslagning
solens
uppdraget
cameron
paras
utomhus
##mia
raz
##lever
##bladsvaxtart
foregangare
jenn
hugh
halvon
bush
##historiska
kvalificerade
ombildades
meters
pros
jonkoping
##wit
##ionidae
puckelflugor
mom
utfora
##utz
tvar
blandning
hittas
askadare
vii
premier
guadal
yaz
##uu
##ming
##klubben
##tog
##hiz
akademi
illin
##sall
##arte
##kann
##steatern
vor
##uco
planen
kell
parana
##bost
lea
##bek
smed
##boken
##umt
chan
nyslott
betong
foretagets
foljdes
segern
skulptur
##idad
labrador
fossil
##ls
##rud
klubbar
likhet
starten
##zabeth
cyn
antartica
dokt
##jin
pennsyl
bourgogne
storst
##samlar
historiker
venedig
cub
##opio
protest
elizabeth
overtogs
##gotlands
stabil
240
telefon
newfoundland
prat
hip
minskar
tjanster
rorande
chir
##arbetet
motiver
coron
etc
bars
##ettan
phae
kalendern
kvartsf
marcus
##eve
amster
kronprin
epidendrum
##opis
1824
potosi
kusin
##ving
stadsplan
microp
bug
##okk
heli
latskrivare
obsjtina
1818
hatt
##ores
gan
studie
dak
eth
##ariga
intel
rond
storharkrankar
##visor
dhaka
##ografiskt
fritz
##nica
##amatcher
kru
marx
sey
halsa
amsterdam
phyllach
buksamlar
ub
society
nyckel
##stamm
segel
cun
##lax
##ieu
##falz
kapp
buksamlarbin
##samlingen
skogen
samlings
atel
psal
inspiration
anst
majoritet
##astra
sorkh
enstaka
stalla
##ienter
bredd
brut
karlstad
##yb
##ер
linj
alta
##joki
regement
folkets
skapar
plata
skapat
##driv
forvand
djurart
framforde
cres
eskilstuna
##لا
faltt
##kommit
ghana
grundat
populart
nico
handlingar
flygplatsen
1828
ambetsman
##opol
morka
ritades
ae
hin
vu
##ulidae
polsk
andalusien
varken
breda
fed
##linge
vilja
##alu
arnold
unge
framtid
thomson
forandring
flygplanet
manchester
malt
harda
generation
##flod
##idaw
##laggningen
##sstyr
aar
##polit
riktigt
1810
##ein
##chell
typh
giovanni
eud
##pi
oversattare
ericsson
##tha
bist
##wich
##sakt
europas
svarade
presidenten
eftertradare
euphorbia
iron
huvudperson
erich
norrland
overv
emblik
fods
##opsyche
presenterades
##aku
frankrikes
##wana
##cyk
lejon
gerais
ian
sis
##istriktet
stenen
night
##overk
skaff
lp
##kant
##ند
##ovice
frik
synlig
ljusar
##osterreich
atervanda
rhein
harjed
frakt
##mand
stenb
munt
##anerna
signal
##estrad
##permum
uru
inhem
skoldlussteklar
cockerell
symp
berattelsen
##komma
aktivt
##steman
##incta
psil
##pus
succe
##sken
samlingar
halland
golden
katalonien
##fald
reka
tox
chim
hamnen
landskamper
veliki
##22
##lima
benamningen
aga
avb
suff
81
##enbach
##ppe
##skyrkan
svenske
echin
##manuel
nyhet
cosm
upptrad
framtida
##bergen
##edi
avser
sug
helsingborgs
balet
##fera
hauts
georgetown
foot
sip
anlit
##pers
##osex
ekonomiskt
cyan
avdelning
##jt
oax
##hs
##him
plus
wo
##asien
ingaende
hawa
intressen
jugoslavien
skyld
##examin
##gers
underjord
##xamen
styl
ivar
##ische
vinde
ungerska
sakrist
##orlunda
vackte
sack
titlar
hantverk
anlande
##sdagen
patrick
##emburg
spet
regisserad
pom
##cal
##alisering
kyrkobyggnaden
jae
kay
befann
werner
##alem
ath
fodda
jules
symboli
daggflugor
belonades
scel
holstein
##olution
bernhard
zab
tidens
apost
kraftig
torget
strider
ravin
demokratiska
nicar
drae
tabanus
##stral
##ommern
haiti
##serie
##ouri
dynast
##dalena
##yper
aring
blommor
regementet
genomfor
nym
givit
##gora
##zh
fantas
our
##opal
##sforbundet
reformer
sord
##non
arne
##yns
sichuan
hult
starta
only
drakt
seat
##vampar
##haller
imm
drew
##jarneart
tomm
##line
##emer
elaph
cambridge
ritade
##fect
1819
embrik
norrbottens
ana
triang
luxemburg
yt
##plant
faderns
naypy
naypyidaw
tou
wel
##utskottet
mile
rumanien
forsaljning
##utbild
publiken
##olin
dah
sjal
erbjuder
adels
mikro
carex
##algo
##officer
pagick
underteck
metoden
gardar
passion
gabon
kinestrad
ockuper
europap
vitry
huvudrollerna
##kunn
raym
2021
kommunik
##acion
##arena
##hjul
ersatta
lust
sard
halvan
koudia
valencia
##bruket
ukrainska
balsam
mordet
massachus
okant
##itas
##aktiga
##uil
##orea
kunst
inrikes
##vert
broad
nairo
##ystemet
massachusetts
tanken
zhang
##water
satelli
##iskan
klader
1831
##oridae
##osaur
osc
civila
antioquia
##vir
##derade
##phy
filmatis
fabriken
##arin
gestalt
ink
kanon
parallellt
gutta
utbredningsomradet
mottog
##vat
##stig
medeltid
verkstad
sanddyn
##iox
forhindra
rick
##esen
regionala
avgrans
utrustning
edmond
##effekt
##snackor
##atalj
franche
yu
arsen
thec
suk
##etis
##olata
intermed
steklar
1825
export
anstallning
push
##halle
##komp
elitserien
traning
gala
##ross
##gjort
pyg
##enius
tunga
deleg
baron
karakter
harold
##rena
shaw
underart
rundmaskart
bolagh
meck
zyg
misslyckades
##ratal
trummor
##verna
claes
##handel
praster
lawren
jerus
amt
##ochrom
rosterna
dvs
tycks
ding
quer
kompan
##unculus
mec
##burn
vasterb
amator
##seg
granser
selatan
andrade
utgrav
krafter
orsaken
trea
manniskans
1814
leopold
##fron
licent
##visar
konkurs
sham
dottrar
##till
##cast
buff
slutspel
cyp
avlid
varldsar
oav
freden
frekv
legend
zam
##fu
##direktor
##atz
darav
hammarby
##23
christopher
qing
##jaren
##lagd
losning
##skonst
kuopio
koncept
tiderna
hansson
carlo
afton
##agel
utexamin
atgarder
fusc
skillnaden
##ilo
republikan
kenora
##logs
##inth
paven
moll
brett
nev
sjalvmord
magdalena
faller
polyn
illinois
fastigheten
bakter
##aktigt
##stierna
125
undersokning
utokades
myndighet
slutspelet
1826
annex
##ocken
finsk
nis
pfalz
digital
pard
wats
leo
indust
##witz
aka
medlemsst
vetenskapsakademien
runsten
lena
ment
##rygg
volvo
##stallda
##aniens
##cz
nairobi
##amik
##eyer
kurdistan
##arier
megal
lopez
##kommer
beteckning
##illy
uppfolj
neo
pennsylvania
befatt
speg
kosa
europaparl
##isterande
##stran
plots
minim
##ognat
smek
liberala
##chin
hitler
##ragas
liberal
sjunger
kommunala
palsen
alice
merrill
stu
asper
##zeh
##hogskola
##romy
##barn
##etz
dup
hansyn
##icha
##sledare
stup
buch
fritid
mande
reda
rast
carn
venezuela
eus
forra
boj
##park
philadel
1823
riksdagsledamot
##aborgs
##sia
kis
provincial
cykel
veta
##fas
conne
hidalgo
vista
pallid
lae
grundad
nur
peder
##rask
fodelse
bened
disney
tril
naringsliv
fungera
territory
gos
##kvist
finna
latinska
huidu
hamnar
##elos
cook
##sle
ratts
leipzig
tecknade
bitradande
borgen
medvet
overstel
sallsynt
##api
blanco
robinson
pargas
blomster
igang
roch
nationell
semifinalen
baden
eut
molek
omradena
tydlig
libert
domsaga
beton
1816
##feldt
forstor
gong
pion
sult
hyal
sjukdomen
##24
##tez
tony
minsta
##kultur
##urnering
flickor
drevs
morgan
atal
ida
talas
backen
grenar
forlorat
sangerska
hax
##angan
##ridae
havdar
himm
cad
barbara
1812
ridge
pong
fakult
ariz
##ktar
##skadespel
##opul
lincol
territori
soldaterna
##raea
halmstad
ode
##kust
##oslov
visby
synt
byggts
nathan
bates
regelbundet
flygvapnet
ditt
##ogi
forvax
##amnen
djurgard
diverse
math
linjer
mojligheten
pick
##yrm
leddes
hakan
##ackerlackor
gyllen
overlamn
piano
licentiat
myrm
floder
wir
kordes
must
forny
driva
sangerskan
tavla
skickade
paverkar
##krypare
liter
eugenia
sekel
##strackt
hild
rikets
ranunkelvaxter
pes
##cula
##oret
oron
alltmer
konsekv
##yris
bip
##ostern
##resp
hof
##ogl
bruns
row
##osei
toronto
tomt
##egu
langhus
tolkning
##udet
perd
vardag
kompani
lojtnant
osterrikisk
wagner
tyckte
##blod
utarbet
ostergotlands
landskommunen
aphod
stickmyggor
trott
baz
beslutet
##anza
stravbladiga
##ienne
tillagg
duk
##ichthys
noth
oavs
##orin
##olja
aktiviteter
atskilliga
veget
tenn
##ær
##iventris
agdes
birkaland
##zin
chris
##ants
danske
befalhavare
lakemedel
falken
armens
ereb
##usi
##opteris
nasseldjursart
##jal
metrop
##acea
panama
##ogg
cart
amne
bestamm
landsfisk
regeringens
rapides
kep
expans
liver
graham
##opterus
##zburg
basid
kurt
ambassador
varldscupen
libyen
haute
##fragan
atmos
quin
betydelsef
uppfora
##ekar
##dt
regent
book
scler
pum
fargen
145
polyc
##cheong
##ogenhet
video
amerikanskt
kannetecken
bind
tyske
behalla
stallen
bys
flug
licens
##vey
##jup
##derar
##slosa
forsamlingar
##fekten
##visades
tronen
##ryn
##entals
##useet
##halt
##urd
##olyck
viti
danmarks
laborator
samla
dominerande
esfahan
wald
rese
shelah
eul
prinsessan
aber
kill
##jus
kommunistiska
wright
genomfora
ifragas
jordens
statistik
##tu
inbj
bengts
tens
medforde
turkiska
kyr
##otet
ronald
##low
nyligen
mund
##terades
smart
##laggningar
kejsare
kvalitet
jor
##vs
##temot
##entes
dodades
forslaget
traditionell
##ocarpa
##flottilj
flyt
radik
##achal
institute
curt
varldsmasterskapet
ji
omlopp
stru
opposition
beteende
##leg
hjalpte
besokare
begran
##iction
intraffade
ect
augustus
steve
culicoides
befast
becker
syds
euro
micha
tjeckoslov
teorin
bertil
sark
zon
##jes
stone
utforda
ljusare
tammer
kieffer
alternativt
eph
##allax
anti
that
kosovo
##oensis
1827
##ropus
andamal
comb
bryta
wes
success
pist
omoj
egenskap
mesa
cala
attonde
ostersjon
america
veter
griff
korsblommig
##amatan
##ctic
bau
##bag
adolph
##best
##fir
##sbru
your
##jande
##atiska
konsul
raymond
hod
hyg
lindberg
##rester
finan
eugene
forkortat
cram
##aks
sky
teknisk
sjalvstandig
forbindelse
kakt
gentemot
alls
1790
##ruv
##olleg
palindi
forfolj
##jian
skala
##ctis
medi
fodan
kecamatan
sit
##ku
##eid
manniska
klas
##skogar
##sunionen
radhus
tallinn
##lika
play
meh
gand
##former
vild
befri
nip
theod
##klara
mike
vivlar
##ев
livstid
rasen
guerrero
##ekan
aman
##ulo
tatorter
traditionen
framfordes
buj
afrikanska
utexaminerades
cem
##nin
forcip
luften
bicolor
perioder
coqu
teleg
##ektor
##amph
stadsk
1822
##offer
koordin
konservativa
##smyck
##umi
##givna
mei
##adet
landsfiskal
spelarna
##chia
##eliaceae
sjons
plect
ist
##uno
repar
bildandet
akademiska
lyckats
mauret
atom
benj
anledningen
gesner
##amba
##iera
oaxaca
bard
styra
##anteles
##repren
pettersson
##iphon
malaren
northwest
overtyg
bohmen
forbered
kontrovers
lovisa
shet
##ithi
nicolas
trom
##teras
arrangerades
scopula
sumatera
pulch
tammerfors
##sser
juris
achille
##kamm
socker
nyg
##kron
avst
##akon
##leri
##ragor
tjugo
byggnaderna
inkop
moter
siyah
mojliga
lincoln
tofsspinnare
fund
kw
aux
##هر
arag
chungcheong
##set
vilar
##inton
boiss
lagoon
##ple
##stjarnen
fries
rudolph
##kropp
##bjorn
##yrmex
dalton
hansen
##cou
microc
stafett
nepal
clem
##hallare
organiserade
duv
rora
asmara
forestandare
##grad
dela
##opoda
##niska
##elles
##marken
elegans
poecil
##ird
basidies
##avut
montagne
sebastian
aeg
##dotter
##mund
##iley
fladder
##levande
orienter
##sfiskar
##iebolag
rull
##immer
ekman
1821
naturvardsunionen
osmanska
yunn
##rax
cancer
##onomus
svansen
tod
##ulon
afric
tobias
##karl
onc
mani
##75
##iteln
sev
modifier
inforliv
teat
tetouan
##uds
vals
grant
lasioglossum
1808
basidiesvampar
##slatt
##nats
##fat
bjorneborg
individuella
##akry
brunswick
rakt
##omya
##iew
parker
05
##ionella
ahmad
##fred
##perma
syz
leeds
hend
solna
kirurg
indelat
##torn
##zj
##spitze
forfattarskap
kann
sval
distribut
murray
rt
##45
hug
born
cover
pich
tbilis
narliggande
katoli
conakry
asteroidgruppen
trupperna
##anthera
litteraturen
bett
lup
##leby
thur
byta
arc
sainte
multip
taket
sjalvbi
spindlar
philadelphia
##rella
verktyg
##egen
##iyya
##angi
alter
skickades
nivaer
##more
fortro
rack
arts
affars
mota
format
##rostning
##myn
inkor
festivalen
##hugg
omgangar
eum
##ivi
##dle
hembygd
##burgh
kriter
cuc
preussen
myndigheterna
domstolen
folkmangd
melodifestivalen
91
##stans
##uve
kristus
1758
angaende
dotterbo
zhe
ari
standigt
bergman
orkest
notera
anthony
ohio
##pad
forvaltnings
jamforelse
dirigent
hi
was
domare
suz
##lach
##ifa
kulturen
stephan
hc
##alitet
##plikt
manusforfattare
nunavut
brygg
serp
##ulia
aphodiidae
esk
##sas
##ebra
##qui
eleon
arb
tvill
sodermanland
360
skivbolag
kallats
shang
varldskrig
homosex
jamtlands
ryggen
warn
komment
##oso
efterhand
nicaragua
kaktus
tillverka
uppenbar
druce
renass
disputerade
##smod
##sjob
power
utmed
1817
innefattar
hedvig
dani
##losning
ward
##falla
byr
##batar
antoine
##ubileum
skildrar
buddh
gymnastik
##fader
punt
brygger
gorg
##ilen
inspirerad
fogder
mab
##udi
originalt
hardy
kommissionen
perspektiv
backhopp
velika
##egal
##mah
##gol
##ungan
##landsoarna
husen
pep
##jour
ranunkelvaxtart
novell
lawrence
##rips
tillforord
premi
sluta
##forsok
foreningar
##odyn
skel
wul
hosp
ferr
bohuslan
##ktionen
##igo
dead
harnos
##acris
burundi
mauric
kind
chamberlin
##iye
medicinska
meyer
overstelojtnant
ryt
##ин
pafag
skrack
##vattnet
hornstritar
astana
143
##lossa
dasy
##لی
##chard
dalig
krog
teorier
##omum
smalt
krok
situationen
astad
##isar
sigism
filmens
##asu
##ssven
1775
fiction
byar
skylt
##hausen
ivag
bestammer
aleksand
blanca
##apan
scener
##evaxter
##tryck
varme
seriet
cum
##ymen
##itor
evenemang
##sbygg
boz
loj
jamte
tyg
hanna
helhet
olat
##iras
##illas
ofor
olle
ml
##lock
##olver
frances
260
mohammad
nederlandsk
##forvalt
besvar
##alismen
zhejiang
##ingel
macroc
hasten
litauen
rall
##deh
vager
##mond
gara
whe
norrkopings
kyrkogarden
##stick
##atu
lox
##ubbelfotingar
oland
##junkt
inforde
##inget
##ivisionen
europam
##opon
##ache
intresserad
##85
kiruna
##nick
igna
jamaica
##lant
agaric
##rou
militart
dres
##kir
##sniva
##ruc
allan
mottes
materialet
##verken
producera
kallavaxter
##otea
kungs
paverkan
jas
wallen
##givning
guan
benjamin
pub
kulturella
benamns
urinsekt
##stin
herre
##sne
##hir
##ол
##lagare
1813
drogs
##rocessen
vasterbottens
تل
##vel
pack
##bildade
lidingo
minnesota
mick
##ор
fangar
tyder
schult
mauretanien
ai
bergstrakter
plattmaskart
bygget
lansvag
kampen
##avdelning
syzygium
hits
ligga
milano
isid
##sform
##esund
foljt
idaea
kejsard
##dalen
##iona
##shog
boet
kapital
##klart
##rustning
friherre
##skyrka
beskriva
kroppslangd
serbien
heart
kraftiga
masterskapen
kyl
##glanssteklar
motsats
avsikt
engagemang
nept
##matt
ratta
tjug
bald
##fre
elong
##head
gradina
mej
gottfried
vackra
##rupt
tidskrifter
katedral
presenterade
yukon
##natt
##enskomm
geomet
gjorda
hok
krom
daggdjur
gata
ischn
cocc
mys
uef
##hant
uppford
stodde
bonder
svarmare
##alvon
arsskiftet
professionella
##elseled
bask
##arerna
##fallet
##instrument
utgivna
sjalvstandigt
gesneriaceae
##odinidae
byggandet
chapman
##anica
##egard
##olt
betyg
georges
elektriska
##vuxen
efterfoljande
sunn
situation
forna
sammant
blind
belarus
##house
asplen
forsvara
pauli
vasttyskland
##eaux
pung
bres
##sbeslut
bildad
##hara
##ар
liverpool
zen
jagar
##unna
##egg
##okoll
##loea
arkeologiska
moc
framtiden
##landslag
guadalupe
marmor
naturskyddat
ili
viola
##blomflugor
antar
resan
slide
pena
##bong
fotbollsklubb
kamerun
yazd
##emberg
radgivare
##ypter
syssels
##aq
queen
sprin
emig
skarp
jerusalem
harp
motala
blot
##inett
tbilisi
##uster
##opung
amm
fasc
stewart
byggnadsm
utrikesminister
##rovinsen
lasse
ait
begar
##arbeten
##hagen
##dr
##lida
nyare
##marke
fame
##rius
##itiv
marrak
namnen
##platt
146
reaktion
buc
soker
##version
aden
lott
caes
rorelser
progress
auktor
ule
##vitj
vanska
##die
sf
##eben
slaktingar
herbert
##ief
alle
taxonom
##ebe
##qua
justiti
awards
##rosa
lagervaxter
sjos
puppg
samarbetet
puppglanssteklar
artiller
##ondo
stravbladig
diss
pend
##onium
jordlopare
kansli
bbc
lus
hongkong
six
##rollslandor
stilen
saab
hallands
falun
vandring
dw
tos
##entligt
##spolit
verka
dies
lef
##akar
dark
##arig
arliga
emellan
pafagels
##agarna
lei
femin
polk
##beratt
tart
##aplan
tanz
clar
namnda
##ogramma
abborre
##oberg
tema
##asterskapet
sjukhuset
figurer
franske
stranden
kirg
xanthop
mineral
sumpmark
pig
##perna
tyskt
studerat
stanna
theatre
dyr
##reville
proff
politiken
popularitet
skulptor
party
##bryn
##roduktion
##ornas
##uropa
alskar
##ips
##umbura
tje
##iphora
marrakech
##inet
chong
handelse
gjord
huang
epis
##angdong
lader
oj
##aser
tilltal
meta
pepparvaxter
##tillverk
chefredaktor
1789
oavsett
papp
sluts
kurs
##ен
##eim
leddjur
populationen
positiva
kannetecknas
sjukvard
socialdemokratiska
taza
kemiska
##bah
##oler
##ochl
semin
champions
pafagelsspinnare
era
##ᅩᆼ
##bilar
lhasa
##rell
saw
##lige
##riga
minskat
##tea
country
riksdagens
nash
##departementet
overgang
instift
johanna
##hattan
emma
kristall
pepparvaxtart
oul
سر
butik
stenar
uttry
jens
wah
thal
forekommit
rekry
vuxen
##flykt
trist
##ين
hovratt
##ness
##odesmus
adams
nagu
emile
laser
##utveck
vikten
nejlikvaxter
##odactylus
swed
datum
##hteh
muc
stim
##ayer
djupt
alfabet
io
##kot
valjer
stamm
spann
kashm
passagerare
##verksamheten
##hias
acut
##box
malloch
##uez
utsmyck
##hjalp
berattelse
pave
mb
inkomst
vivevaxter
skett
blivande
verkliga
lane
##ologer
hotel
generellt
1793
religios
##kopp
tonsattare
##estes
rekt
tillverkningen
pare
arden
##utton
270
keith
rist
avsedd
##innes
kommitte
baseb
riksvag
opius
##ogr
##roder
##agram
reservat
tunnelban
##icauda
koloni
##iya
pale
femton
dann
death
marsch
trigon
puebla
avrinningsomrade
##oq
##utan
karel
##ols
stadsteater
techn
##produktion
bend
hammer
backslandeart
bari
varade
inflytels
##ikh
utsedd
spridning
foretog
tillvaxt
glans
koret
talade
forvaltning
##elea
##olob
##span
mamma
football
##ext
##nets
##adero
##uku
##fulla
styrelseled
kallavaxtart
mck
tagg
zheng
##romyza
alltfor
riddare
##yri
vastmanland
langsta
cathar
brotts
##ratus
brodern
##lenburg
portugisiska
##long
##raga
annorlunda
##tendent
foder
lagervaxtart
##ochth
thun
1801
##sholmen
byttes
##felt
speciell
scout
bromeliaceae
rollerna
nodvandigt
##iermark
inrym
##nummer
thecla
konver
troligtvis
##kra
officiell
##orhynchus
gadda
##lude
##stena
framtradde
ago
utse
haouz
##stjarna
skovde
##berger
farj
##hiza
lepanthes
rapport
09
ornskold
kommunist
agent
studi
thomp
non
##chs
invanarna
franc
forster
cooper
kristi
##yror
kvarvarande
gnagare
ugg
oec
bered
regerande
##slan
berattade
see
loew
##pid
megach
##ripande
bolivar
down
##icata
mariehamn
majoriteten
##ulpt
##oppet
##risen
utgora
##bibliotek
shakes
utbildad
dix
habitatet
eux
##asca
ranunculus
kred
plut
helikopter
pushtah
##univers
scb
tillfang
##deltag
miconia
rafael
medaljer
forlaget
##terat
##bbspindlar
dubbelt
fam
##kore
##nord
##ulins
flex
##cinia
##obi
taoun
ungarna
mangden
campbell
tirana
qolleh
lektor
##aha
##central
08
diet
avhandling
beord
##horighet
1792
armenien
carpenter
bujumbura
##kommun
##ampo
vancou
villan
tec
spir
spencer
avseende
tillkann
sibiri
forbattra
sodermanlands
more
##sratt
##eres
##owski
mytologi
##antan
kosm
trium
##roa
##shah
##klock
varierande
traffar
socialdemokraterna
eventuellt
tripoli
oms
handlade
doptes
##festival
##ongen
trafiken
dicranomyia
kaffe
##ictus
ostersund
##sdorf
147
##itiska
##havet
lorestan
lady
alph
utgar
hydrop
vapnet
ornskoldsvik
pann
shakespe
styre
gerhard
##olepis
##amensis
tsar
skor
##ize
michigan
ansvaret
biblioteket
tillforordnad
kym
tilli
listar
radie
##uin
papua
positiv
mauricie
##alom
##ily
##staben
##varde
##rummet
135
##olophia
frankfurt
utbildningen
uppfost
smor
##include
taounate
tut
striden
benamning
piet
atlanta
skillnader
##ulen
##onslandor
snabbare
uteslutande
maken
##essor
laroverk
poesi
tillverkad
evans
##agerar
skade
omkom
vient
byggnads
ein
exil
andras
rike
tyskarna
tetra
tess
omt
##ymnas
jarnaldern
hassel
06
##work
hogland
##yther
first
onlyinclude
##hun
julia
144
bosatta
karolinska
boissier
##yrtus
mato
scand
bidra
##sbolaget
##enson
magasin
sanda
entre
tavlingarna
tensift
##valv
##mani
##riket
bredvid
enklare
##wak
vivevaxtart
inflytelserik
##imar
portez
satur
studios
staud
##republiken
kirgiz
##ал
##arist
svin
##ender
motet
farm
boksta
cordoba
##etiskt
ande
kammare
girault
adress
clara
vande
##اب
##skri
paverka
##uman
lyft
skinn
##quel
natal
pis
##acus
marina
blotta
hojer
sigismund
##ouf
lanc
dryck
smar
strim
skolans
socialt
kristianstad
##jun
##steg
utlan
senior
vancouver
chri
1806
syskon
##givande
sjung
stadsfullmaktige
##stadsregionen
cod
##ariaceae
relationer
hoce
beni
hundratal
##embran
belagna
##handa
fiske
starkare
iss
diskografi
hoceima
slar
##stro
soul
1802
skilja
##opia
##apel
game
originaltitel
##elef
##andi
vila
##spartiet
landshovding
##byggda
walt
##ellaceae
hittats
fiender
##com
medier
##icana
1803
bilj
helgon
ya
turnerade
risken
##rapp
anj
##ansvar
gustafsson
sasongerna
##kak
##ositionen
bali
annexforsamling
zu
atlanten
##etik
riktiga
rostratt
##uens
##say
centralt
##ibia
makedonien
california
stran
dater
1805
dansflugor
indelad
varor
kapellet
processen
ortodoxa
hd
##hals
##drakt
lex
##ights
agen
arj
fut
mist
rekommen
bransle
fysiska
pakistan
carlyle
cauca
##ididae
tidpunkt
landskrona
skandinavien
banks
karen
vincent
##ammar
village
spott
##annen
begravdes
forcipomyia
doth
forsakring
libr
##shem
sockenhuvudort
##hti
butiker
sofla
kottflugor
nahr
##samlingar
uttrycket
ragnar
vientiane
pseudoc
hyres
konferens
spetsen
mg
##armen
##skanal
stangdes
mecklenburg
dact
bamako
04
hagg
##ries
underratt
##indel
burk
liu
##entin
coen
##block
##smuseum
portezuelo
bic
##cell
##ruktion
wikip
tes
staende
tommy
urinsektsart
##rank
##amnet
##visningen
##bruna
##flick
##opsylla
##malningar
##organisationer
joao
##hra
lorra
framstallning
##resa
formed
akter
##otiska
raven
teologi
styrelseledamot
cann
utdel
snick
manuel
##ires
mueller
gymnasium
svagt
senaten
stadsd
uppfattning
##icula
##anti
uul
##ochilus
timmer
potok
##aly
##byggnader
hybrid
boc
snow
vinnaren
entertain
##meister
rayon
kashmir
intryck
argument
faktum
##ners
##prov
##jde
samre
serge
##othrix
kond
##parten
rita
##smuseet
framre
campo
bm
pyc
##asterskapen
loh
pok
sle
fattiga
legat
kroatiska
sjalvstandiga
skadade
spiro
steiermark
samlingsalbum
kola
bromma
trafikeras
##ير
varldsmasterskapen
langfilm
hustrun
chahar
##26
##arv
departement
generalma
plotsligt
##89
paragu
socknar
petrus
tamb
##akch
##betet
guangdong
farbror
##hew
zetter
##ahu
##ofon
flitigt
anknyt
kund
##enaria
svenskarna
mekaniska
kut
##fars
llo
aceh
nationalekonom
##imi
##obergs
konsthall
hoppade
jang
##neri
280
##agor
kronprins
megachile
anthur
skapad
##jd
malningen
producerat
tankar
tillganglig
hs
##iseras
##agaren
orsakade
dul
##avdelningen
##bella
##archia
kreis
snabba
inkorpor
mancha
march
wolfgang
inhemska
##imer
minerar
godar
variabel
fogderier
rika
toro
1811
entertainment
##vor
italiens
sparrisvaxter
##akers
aterin
##uvida
fritflugor
lum
sci
##emeinde
##alyp
avrattades
georgia
femt
synonym
pojk
minerarflugor
porter
tren
etym
bons
uppna
fraser
uppmarksammade
spektral
##rerad
##cock
overlag
nejlikvaxtart
celler
fiss
##anvand
microsoft
##zy
##83
##anst
##sbyggnad
acacia
##pes
justicia
regissoren
chrom
actin
##ون
nationals
##regiss
eb
plur
flackar
##veten
assistent
het
chann
##samhalle
loper
aguada
kult
##nt
domsagor
varldskrigets
race
##alg
##remiar
tjansten
huruvida
kandidatexamen
lettland
exkl
monst
##thus
tord
uppat
goras
corpor
elae
definieras
duss
jeff
kanarie
##ichus
expand
tillgangliga
sari
sorts
##otettix
batar
piedra
##roit
skrid
home
shor
##vinna
larar
fysi
konstakademien
territoriets
kalle
orb
grus
hornet
offentligt
tropiska
sacc
fulv
##lier
valv
knight
##blommiga
identitet
jason
fork
placerad
nueva
##lings
bret
noggran
kejser
##lipp
presidentvalet
vingar
heid
##angers
reichenbach
flytande
drar
##skin
##andid
tillt
kortt
euploea
##adera
utformning
sjom
##ipa
tillfangat
uz
zi
utrop
aktuella
baj
uppmunt
##forkort
fortplant
apanteles
muss
beromd
bamb
##otrichia
##azarbaijan
oen
vastazarbaijan
##sdom
bokfor
##universitet
hib
##arpa
##jarna
konflikten
##ckar
136
foretradare
##esor
##plat
avdelningen
tyrolen
karpfiskar
aedes
##gart
##svard
ogonen
hittar
carter
##odip
behovs
tafil
vagnar
##sforeningen
##sbron
konsten
teph
dikten
innehalla
##nell
##allis
tillkannag
arren
##alleri
##icz
freds
kinas
vatmark
##umer
##abd
##unge
shek
##amia
strids
##jeh
huvudbyggnaden
ogruppen
varldsrekord
storstadsomrade
kanarieoarna
skrivet
##oplus
motorer
##ocnem
roberts
foraldrarna
berberis
watson
eleonora
klan
##rotis
##iggins
heil
riksdagsman
##forskare
andrena
halvt
teckningar
wy
##wat
##27
##artist
shand
centralort
territories
overvag
##estall
odlas
entrepren
guilla
raseborg
riodinidae
##fun
##ич
geografiska
##eville
patent
##orph
##storps
arrangerade
light
jansson
framgar
##sbild
##enterade
toy
antagligen
##ensa
rummet
inspelad
##itsa
maleri
stund
spraken
##komsten
omstand
aterforen
##yllda
kanadensiska
##ogna
ingrid
manen
basil
134
molophilus
muslimska
recensioner
forum
forluster
karez
forsvars
meteor
utgangsp
##narna
fjarilsmyggor
scut
livsmedel
johnny
tekniken
webbplats
##enc
beslakt
mjol
drabbade
deltagarna
schon
halvo
alvsborgs
malning
tyst
typiska
cyph
nigeria
rancho
hapl
verkligen
##foretaget
##varld
##shi
institutionen
rundan
detaljer
atac
##forkortning
protestant
purpur
nouakch
nouakchott
cic
##ichi
##ology
bird
dresden
1804
morkare
ambassad
rou
daw
leif
##asongen
tredjedel
cov
einar
wad
skaraborgs
champagne
##sbygden
##athea
##heterna
cue
kniv
sho
nielsen
finger
rup
##jab
##edal
##rant
arth
##obry
forsvaret
serbiska
uppfoljare
dana
##omidae
haver
flyttar
stodja
##estra
lower
nim
proven
jane
blatt
##bron
##itos
flora
vistades
auktors
spek
uppehall
strangnas
oue
samlingen
##ofag
sut
##riset
burma
gravbin
sarcophaga
##hastighet
oum
##osaari
orch
1807
grosso
##udad
##quet
sagan
sidorna
intresserade
nybildade
two
rhiz
bibeln
ita
##amma
talang
##sfj
hangzhou
cran
luer
walk
kvinnlig
times
adrian
understod
ll
pest
liga
utlandsk
kvalet
schack
farfar
kampanj
erbjod
birgitta
##idningen
finner
dothide
oden
##aena
ombyggnad
##urneringen
casey
nann
##issus
turnen
drottningen
solan
##sklass
##ministern
raknades
##skra
skenbar
boende
##iserad
intellig
##togs
##anken
perez
chart
folkom
galax
konstnarlig
riga
moon
andrea
##eberg
##emma
##iman
scol
pieter
korgblommiga
kommitten
grammat
palatset
himmels
##skole
##astro
auktorsforkortning
##itlan
gymnasiet
##inatus
##uo
##orps
##rasket
##asciata
tatbefolkad
privatliv
hogtid
kansas
utdod
vanua
sonson
fylke
##skalk
##skolans
konig
kunglig
deltar
offens
##bos
##lera
branch
ridley
##inalis
##ulat
sympt
vedlar
dragon
daggdjursart
havsytan
cecilia
tyngd
##ophthal
trev
##terad
nuaf
##hao
angrepp
bundes
proport
hero
##samman
matsum
kik
##ados
distin
konflikter
oth
djuret
vapenflugor
zac
privileg
avhandlingen
pionjar
07
slem
demokratisk
sudbury
engagerade
propag
##iformis
##cle
##ardia
kommersiella
bum
lur
##evaxtart
libanonberget
partiledare
apoll
sharp
substant
pitea
lorraine
lloyd
hiro
halva
gale
oy
##avlingar
koal
##mannia
himmel
##ismens
samlingsut
gracil
jup
lal
overenskomm
mazar
##laga
profil
kontinuer
##napp
##haw
stalle
tillbak
tanke
utredning
tragspinnare
trid
##gal
meknes
osk
##erta
##sminist
##lein
##losis
##ockeyt
aragonien
tamligen
clarke
thompson
sjunga
##rysa
stadium
cos
kvallen
institutioner
samtal
kapacitet
kostnad
hasan
sauss
sweden
##ospilus
jarl
##efors
vanligare
elef
emery
paraguay
kings
##edalen
stelis
##goring
misstank
##lof
vaxa
late
partner
rattegang
kontraktet
gotalands
##strakt
kanaler
kontakter
leds
hjort
1780
faktiskt
field
enlighet
befint
seccion
##skiv
samlades
sittande
1794
##undey
##gul
##tom
forela
vilda
##shast
##rilus
133
konstnarliga
avskaffades
roj
foreningens
vanda
##rett
##reras
naturvetenskap
##tyska
framja
dynam
hep
xia
djurgarden
##programmet
##inho
##ymn
stjarnans
mitchell
##stjart
potatisvaxter
paga
##fc
torsten
tjanste
##emum
spelats
australis
hua
##ains
##yz
opin
##sbolag
bots
guangzhou
cox
erebia
##29
genomg
tjansteman
unionens
bella
##xt
##aec
##chet
##ilian
parat
bevilj
representanter
##usia
##iyan
komponerade
##ulara
punk
ingenj
medicinsk
hjalper
hut
rhyt
tagits
cuch
sannolik
##sjukdom
##slangden
academy
seine
cheil
##iata
##yler
450
##ieres
fjort
dotterbolag
jamm
##arka
budget
report
idi
gammalt
connectic
kambod
##onger
avtalet
##emis
hjulspindlar
##له
playst
eil
##aru
upphoj
mandeh
##yros
utbyte
hotade
drama
kristianstads
jungfru
##producent
##made
stadion
sekelskiftet
wend
genetiska
##sele
##ierade
##anism
luanda
lucien
##oraceae
##ommer
graph
fotos
utk
##horus
domen
oxy
niger
tanzania
ghundey
##kroppen
##trafik
kommunfullmaktige
storbritanniens
1798
##zawa
##orelsen
bedriver
sparrisvaxtart
##arkarriar
hv
soll
##chan
indik
##abe
hermel
##jarnarna
##oniscus
##motor
playstation
upply
##anthe
##banken
friluft
kold
stern
##rann
##otoma
##sau
lah
gymnasie
sill
omval
palp
baba
fire
omgang
detroit
vaxande
ohl
skift
##ourg
##rens
##vint
atra
flem
genren
##vaningen
koz
charlotta
framgangsrikt
##donald
tek
kirgizistan
##lava
##icalis
##fordel
##handlare
ytterst
galla
vala
##itj
judisk
morgon
plock
##ways
aldste
ljust
wan
##isera
##edag
##yren
##ytes
befinna
hojden
gw
##uria
##arisk
##ebok
##wah
skadades
diego
salzburg
##ffar
pasta
tell
listas
##ohus
##afilm
##kusten
##politik
##okaler
krigsf
spektralklass
varifran
upplands
frammande
traditioner
melodin
yan
kanot
patienter
kristin
bevap
##stjarnor
poc
##aktiv
##punkter
vaccin
##bak
##oupe
helen
daliga
inledningsvis
sydafrik
##kors
##skaren
pappa
##ugou
chop
##endens
producerar
porc
alam
sammanfatt
##bav
sakra
work
radios
##servatoriet
kanslor
##odde
conrad
operativ
tidigaste
##hielm
flotta
##atisk
resurser
nationellt
mov
##abo
centralb
##ssjon
essa
arec
luck
forhallandet
introducerade
landsfiskalsdistrikt
fujian
##nattslandor
##midae
##rostningen
peperomia
meriter
bibel
##lopning
dream
strind
dors
equ
oste
schwarz
akvar
ormart
##sholms
hedersd
enskild
ogift
langvar
singelli
##ction
foreslag
bebod
pern
mountains
angssk
problemet
agaren
sovjetisk
gyllene
redig
viborg
urugu
oak
mode
##oreningar
##onidae
ellen
##spor
sjok
##ampton
kvant
##87
dalsland
jungfrulins
staudinger
naw
##allsvenskan
##areg
##ovica
lindley
dus
##sat
##zsch
##stavlingarna
lakt
##urahan
roos
franklin
vanskap
stuart
##rorelse
cemeter
##hold
##quart
missn
pund
##ephalus
inspelningar
separata
mullbar
##strafik
radiop
canad
hydro
bonsyr
##spraket
kortfilm
##ocl
occident
##dah
sjofart
blag
uppsattning
skrivs
kelurahan
statsminister
gravid
groß
vardet
doktors
krat
##inspekt
spons
trelle
cemetery
calv
wester
bekant
gitarristen
##cli
spindel
320
sander
##arett
##skamp
##itim
orol
sodermalm
##ledning
forekomma
meddelades
undervisade
##court
##viv
overs
harmon
europeisk
gow
##yana
naring
##ospermum
tafilalet
fett
jay
##olar
seriens
uttag
anmal
##arica
##othy
##moz
graven
faktorer
gaster
levi
##idius
lana
##skapten
tillika
kiev
pirat
handelsen
qornet
##acidae
##ecium
dothideomycetes
reder
skull
##museet
uppd
##faller
dramatiska
brollop
jorg
desc
##bergia
effekter
utbryt
##afrika
frukter
anthurium
##attle
vinkel
fastigheter
territorium
inspirerade
atacama
fib
xiv
##adar
fransmannen
intog
folkhogskola
larjung
anknytning
vega
zer
##84
tidnings
lagos
byggda
uttagen
russell
avbro
madh
juarez
phyllanthus
memo
libreville
##oktor
delph
##dragen
##rito
asikter
nionde
oklart
tionde
matcherna
godset
##matning
etablerades
##icera
##aneus
taman
hawaii
kolla
##trasket
lonn
##agasin
##icularis
##ammed
##eza
vastmanlands
laste
##gota
##ecta
drick
##attning
##ikor
vetenskaplig
torre
garcia
jordbruket
##ophus
pekar
datorer
##entuna
##ulina
martins
bronsaldern
##iemi
chand
jez
nek
##itra
huvuddelen
banken
mordades
begransade
phyllachora
penning
duc
vander
pakt
edgar
##format
sprida
angsskinnbaggar
cus
##spelaren
##ippi
##hallit
copa
ration
channel
uruguay
utvand
##norr
ichneumon
fuz
jel
stutt
##rantz
bezz
trettio
##lea
##ugu
##olid
##ernes
##ochaeta
##arh
##skoter
avstandet
##oplan
vaxel
abit
##forbind
##versionen
studierna
##skogen
jal
sjopung
engler
kour
aleksandr
##yen
volcan
fartygen
arrester
##opyg
regisserades
hedersdoktor
##odidae
1795
fullstandigt
##edlem
avvik
##itsch
##stallde
kunder
##ineata
typiskt
##oppia
importer
norrlands
amiral
##itch
intelle
varldsmastare
##ompan
##irt
utnamnd
intresset
class
fangelset
kampan
uefa
kunskaper
cornelis
jeolla
##litteratur
##ehandling
##gil
##padd
shen
1776
roland
fond
rester
##ordet
besta
involver
utsikt
paradox
avvecklades
nutida
mok
won
##esis
cafe
##armelia
dyker
03
ende
##berry
##rinus
interi
invent
underb
bapt
##rorna
hanger
dance
chefen
skicka
gurk
nikolaj
##nj
##ilin
harror
komplic
tillfallet
testament
ryggrad
billy
australiska
frey
mycosphaer
generalmajor
fres
##ilder
##splatsen
stoppa
##vol
plum
##onso
##juka
soldat
gyeongsang
frost
wick
##ratter
australiens
##material
##para
##eriet
##unus
diosc
##sdeb
chengdu
aub
gut
##mets
norske
bolaghi
stry
antika
verkligheten
batter
ocampo
vikingat
bestandet
klor
##snamnet
arroio
studieresor
tvingade
upptrader
upprepade
agnes
corporation
##sens
flog
dicty
infanteri
pagar
##ipend
varldsp
orientalis
##qq
talman
satter
paradis
tander
##emo
forklara
barang
santander
affarer
pron
haut
domkyrka
doub
pask
orle
1796
expert
##oloma
##haneh
##okrypare
medelhavet
positivt
storstadsomradet
##teckningar
cabo
##regering
poh
##yeh
personlighet
administration
ersatts
erioca
ninten
kennedy
arizona
bysant
##ðurland
init
spelets
##yac
##opo
folkmusik
rele
jimmy
forhandlingar
##det
##utus
nigric
dala
##smynd
##sac
heav
##zak
ersattning
##visade
kolonis
isaac
interna
similis
pjaser
kardinal
##befolkningen
andorra
svarigheter
yngsta
klarade
##stader
lagets
##skadespelare
##athan
terrang
1791
uppmarksammades
##teknik
nintendo
##styp
##ataljon
sjog
kvinnorna
faststalldes
brukade
##gon
##mok
##اغ
##andez
##sgruppen
##livare
betecknar
well
##amarca
##ocentrus
memor
renovering
##respond
sess
winn
##otrema
cert
ekonomin
bonus
valkanda
cuka
rheinland
eub
fark
##ск
##sner
gallivare
ciudad
mard
##icin
chem
farre
mycet
##ante
platyp
produceras
ideal
nymph
wikipedia
cron
##epe
boplats
anast
##herre
revir
fasad
journalisten
utmarkt
##hak
anden
trygg
fullbord
wurtt
##jia
##artik
stere
uppskattas
mian
##avi
finlandssven
139
fans
pell
pott
witt
oscars
referens
gult
kitt
سی
##ostylis
##opan
anvandare
action
feng
lyd
sea
this
##issionen
vaning
##sblom
chelonus
##othorax
flicka
##snamnden
vacker
##forsalj
linda
paulus
##sparken
illa
1788
hindra
krag
##esiska
langden
doh
tant
##ciplin
##ocladius
arecaceae
##elas
##akim
desm
utgivare
valg
##ymus
weber
missouri
kriterier
##vesi
##udden
spad
folkskol
hubb
##iculatus
intag
kristendomen
fum
##uis
hemmaplan
##atlan
bracon
fager
omtalas
##alande
##stapel
barrio
forebild
rach
ansiktet
kirimojavaxter
##sw
skald
hogra
kopt
fallen
##slaktet
kommunikationer
gros
##epa
campyl
stammar
historie
negativa
tydliga
ceder
##forsamlingen
koncernen
330
##gah
##adena
hogkvarter
catarina
bidraget
##66
angrans
zurich
##ogo
temisc
arrangemang
tusentals
##iopsis
##lieb
yorkshire
jattek
##iracar
fortsattning
wor
##uris
vasternorr
granit
lindgren
##matidae
forskar
##udd
##ollen
satts
290
cape
dognin
florens
manager
samarbetade
elektrisk
impon
voj
forare
successivt
bjur
representera
jammu
anta
skur
##regement
##foreningar
##stillstand
boca
hue
##uana
##artz
boskap
##vagn
latta
infrast
sateri
##ognathus
hern
##arc
likheter
besoker
phor
##yong
129
##klokrypare
warszawa
botswana
temiscam
##olim
##innande
slot
##sval
##tagande
omd
varma
haemat
prastvig
personlig
klag
statlig
fk
landsbygden
##arant
##orelse
knott
##esson
regul
chu
demon
orsakar
ghaz
pyramid
hari
moz
helge
schweiziska
konkurrens
##ljung
##beh
sakert
##karen
##orre
kyrkorum
pilg
##text
tillats
julian
marsh
caud
dramafilm
berk
gravfalt
aktivitet
potatisvaxtart
##ogh
##agi
##slor
##lidium
digitala
ombud
##ossa
silvermedaljor
##ophis
ocean
##lett
##vaning
eucalyp
abitibi
genast
##afa
forsvarade
edwin
standley
stipendium
pari
##dingen
diosp
phoen
studiet
european
inspelning
##skv
##ulans
##deles
eck
hastarna
uddevalla
tabellen
familjens
elsa
fodels
smala
bevara
officerare
##etens
##ibo
1787
##urope
##nabb
1799
##verkets
niederosterreich
forsam
horis
##mour
elf
##ografisk
connecticut
##bid
##omphus
##alar
volym
erbjud
lyssn
hertigdom
rhododendron
hinder
fasaden
existerar
forvarvade
##enda
hantera
forsokt
rykte
flagga
higgins
##avu
schul
##acht
##grens
styv
##stillverk
##undin
munster
moser
stracka
##massigt
ambly
most
prev
##een
punkter
jordbav
universum
prefect
singap
##ningsplatsen
##pre
utfort
runda
##xa
indiana
seric
poz
flygflottilj
gou
##yat
##ebius
chansen
byggs
turin
##formade
##oderma
claud
lombard
marta
##ellow
##icka
##osaurus
stuttgart
karta
##bev
##attes
linder
1770
##kved
forsorj
residens
afro
swan
pacif
temiscamingue
##innen
brow
miljoer
diff
muk
shandong
frist
staty
beskydd
solle
upplagor
##oje
disco
morgonen
pansarskoldloss
##orpha
##obal
slam
jarnvagar
bestamt
bostadshus
##fargad
yout
##ovia
saljs
korttungebin
walla
##oshi
soderhamn
##ocon
visuell
bio
remi
nordligaste
paverkade
dispon
schleswig
koppling
trond
##ostomus
tillverkare
wied
kryss
##sbergs
parallax
ulrika
fm
##ritt
nordir
britterna
takht
dammbyggnad
gratis
##shistoria
niv
qala
##spets
fordelade
malarskola
##institutet
erfarenhet
##nom
arsj
forteckning
##hjal
populationer
wurttemberg
pah
buen
klockvaxter
hirt
pojkar
##osom
##ockt
utskott
salvador
##ulation
dagbladet
##loppor
jensen
jokk
harvard
flyger
spirit
accra
340
styrelseordforande
sades
forekomst
##ullen
generals
upptackts
aus
tara
##ijarvi
##imm
bely
sands
1797
mercedes
##kara
##ralt
##ocoris
##ffel
ansvarar
sovjetunionens
cris
slappa
beatles
##statt
behar
borga
agri
dall
goli
##ylland
hemliga
albin
euryt
campan
##bow
princi
##handlingarna
angransande
##gilt
neapel
skuld
algoma
parter
##ulera
galleri
ansluter
lorenzo
glauc
utgjordes
indelta
negativ
ambetet
inforlivades
ond
flyga
fronten
##oum
##uw
aterb
luz
##rogen
habenaria
vord
sture
##roma
##uncta
nazity
bronsmedaljor
htt
conserv
rostade
egendomen
premiaren
##oller
127
oblig
##chez
rekonst
restauranger
##axter
chass
borne
##alvakt
chalmers
##efl
blanc
##garh
clement
lute
kolonier
tretton
##partiets
tuberc
##itiva
englands
korrekt
##yphus
hytt
##dinge
##pher
schne
likasa
##bundna
##kanna
kanoner
##sfabrik
myndigheten
##dack
lyman
##mu
##inan
perry
##halls
verksamma
edin
regeringstid
affinis
simplex
kontrollera
explos
statt
producerad
upptacker
prefecture
uv
##enterna
tennes
smakackerlackor
rop
laz
flyttas
brakved
mexikanska
betraktades
brachy
culex
kambodja
lym
ted
##alc
forlan
dodade
##ukas
besattning
##bered
##gener
137
siste
intellekt
polym
sagas
ryssarna
ignat
fortroende
##emokrat
verklighet
##hire
byarna
##ifolius
siffror
sallsynta
balett
##andy
varder
varnplikt
pc
##umn
riktade
sikt
malmohus
##erligen
##iggande
amf
##hui
mp
##chel
##manna
graub
##assan
merparten
koln
kropps
phyllophaga
saussure
orleans
clin
##beg
bildats
ula
##tat
##pta
oversv
##sbro
rysslands
gramm
xer
##sbrott
carmen
assy
##udan
karls
unter
child
nacka
skat
##ssons
joakim
##skam
##oljaren
##irs
##iyat
barangayer
##latt
##sbana
grafiker
##omal
##stab
##kommande
dubbla
rincon
catal
magaz
planerna
sommart
tunis
influenser
##hin
alldeles
lucia
kristiania
overlevde
beth
gunn
esen
##anthor
##svagn
market
bakgrunden
karnkraft
managua
willis
##bilder
keb
##ikerna
##iern
##ypta
korsar
##acher
gert
express
##sekreterare
vokal
##ondi
joy
gottlieb
streck
juridiska
hanar
constant
statligt
fuktiga
venus
sattet
kronobergs
harvey
herm
##bunden
brorson
antenn
forklaring
anac
##odus
spjut
##ocial
bish
wei
##orium
uppvuxen
jordanien
lanades
##yoff
tillverkar
socialistiska
striderna
##sallskap
nub
##sspelare
##illos
noveller
##sbanan
grunda
charlie
##forklar
##fordon
ponn
##etag
##antia
mellanostern
hesper
crem
falla
torde
##varm
graubunden
tik
berodde
oswald
undersoka
kryd
flenortsvaxter
pors
##omyrmex
bengtsson
hormoz
##chem
skugg
saud
##ouais
##hua
##ices
glom
##varder
##ettia
##ulturen
vadstena
pehr
##illaria
##ipalp
hemmet
rox
belgiska
##fragor
marcel
krigets
joens
bevarad
dongar
simpson
favorit
funnit
##skiva
##astes
##ival
formogenhet
##onymen
fisher
atelje
rhamph
310
institution
expeditionen
etymologi
##35
indig
adrien
##paret
##rocera
vanligast
jarnvagsstation
dactyl
diospyros
fangenskap
##sstyrelsen
tagen
##iskar
ribb
pterolophia
jiangxi
asplenium
onsk
##uke
nedanfor
##track
##ehav
sena
nora
centralp
urskilj
svenskar
aktiebolag
ulla
berlins
aet
gap
peck
##operla
tjeckoslovakien
samlingsutstallningar
earl
laht
virid
robust
forklarar
teologie
asiatiska
dessfor
##ricus
baten
rash
##ogona
helige
ange
nominerad
##osen
hold
qim
##eki
baseras
1772
maskiner
upproret
##abel
##vernor
drabbas
petrov
rasmus
bekamp
besegrades
solleftea
emanuel
langsamt
##sbacken
##ribent
rayonu
tyl
narvaro
empis
praglas
dessforinnan
##igua
acraea
##personer
##omin
##itioner
krem
hittade
nabaa
##kritiker
jet
strig
##ssekreterare
indep
bredare
##kons
##ogonia
##rations
albanska
okanda
skilde
moten
##ephala
##stenar
handelshogskolan
kentuck
##ptus
hormozgan
##zu
##eke
##rattigheter
sockenkyrkan
grupperna
skjuta
dek
borgar
tavast
effekten
betecknas
specifika
##agrion
hospital
lima
avslutas
behovet
lemp
dittills
##styrka
saut
soderberg
regisserade
distans
styrkorna
hø
##utstallningar
##opf
playoff
rapporterade
vass
##iost
who
##forband
##ipalpus
##rogrammet
stationer
##aculatus
##roman
allians
##qing
##osci
shur
forestallningar
euxoa
differ
nina
##infl
antis
katolsk
edmund
nyc
##quez
grafik
lomas
kirimojavaxtart
##kok
##tuna
hallas
bakre
forfattar
sexuella
curtis
vingarna
##resultat
jupiter
fren
##chon
lance
##rupperna
##omatidae
beaver
varldspopul
aisen
jah
denis
##obates
tavlande
balans
canth
derb
##spolitik
motorvagen
nyslotts
outa
twin
##skid
##agda
##seart
##ansflugor
paverkas
utmarkelsen
bonsyrseart
cole
teman
vicente
strackning
asb
##iren
##ciatus
##ancer
fladdermus
##dras
##beteck
agla
dagstid
games
##stenen
leslie
sorgmyggor
##uven
proj
bidragit
skotska
bact
tup
visats
##formaga
extremt
skin
sydkore
visserligen
psykiat
hessen
##otor
sexton
esenbeck
##ostigma
lagsta
##other
flottilj
magnusson
##uppgifter
##jang
pauc
grundarna
oversattningar
utgivningen
##anlaggning
laggs
vanstra
alumin
videon
padd
##stationer
##andaran
parag
round
baluch
##offic
##celler
##egangen
verksamheter
typhl
##hart
##god
arach
##struktur
##dex
##flack
##tas
sjob
##quil
##vagnar
ovanlig
##foljande
voblasten
fland
pens
##hia
forint
osttyskland
shakh
felder
kock
osb
zach
sparre
##ualitet
djurgardens
##smassa
alfa
bisjk
##skeppet
oer
##enen
##varv
pilot
fjord
gravar
otte
evolution
kelly
##28
##ᅡᆫ
##udo
sved
##iche
protester
slovenien
rant
praktiska
global
tekniker
uganda
enri
##snapp
##sfragor
skadespelerska
hertigen
hec
tarn
##lubb
diplom
ehren
chak
stenaldern
##unctata
##ophyt
flyttat
mississ
tobak
ardis
##onensis
105
arkitekter
avgora
winter
toppar
innov
##lexa
apple
##astad
motes
benen
##huang
##øl
##ethus
##atidae
slavar
##erns
intradde
##klund
levererades
##rostis
demokrati
##fjarden
verband
cig
##stuga
##alea
rij
skeppet
##uskript
augusta
bisjkek
syre
sept
drojde
##uber
harm
ovanliga
skulpturer
yunnan
fuzhou
zing
hemlighet
lundberg
ersattare
##havaren
aspekt
bedrivs
##sav
##ynn
1781
##aphis
sordari
rangers
##ilar
marne
ljungby
vargspindlar
##skomp
##istes
##vaxten
euch
##olutionen
lins
##orr
aggen
115
komponen
stannar
etniska
##ijk
utsag
kennet
joensuu
##pin
##ders
##owska
grastrad
##orns
dras
producenten
avsedda
ungersk
kommunalforord
fott
tsa
toc
staterna
lakemed
croc
##arias
tidpunkten
sjonk
titan
produktioner
rekordet
thelypter
amaryllisvaxter
fost
vamp
##iales
domkyrk
fanga
free
##uns
foruts
##innor
burits
##eterna
delagare
utford
snackor
##oidae
##nah
bruna
palma
frol
exc
islandska
##stjarnan
vinrutevaxter
kach
xiang
##amea
##rimin
sken
dhabi
##kapten
parsek
empo
testa
bekost
##egeiska
##regissor
uppvisar
konstitution
##iak
##tla
phth
musselart
nyong
halft
forsvarsbeslut
##ademin
gharb
delstatens
medfor
narbel
soundtrack
##yllac
llano
ceremon
matthew
klockvaxtart
tvingas
enz
barock
macquart
sarah
##splatser
ligamatcher
##oporus
lambert
konsult
bae
kvinnors
fastning
##svagnar
mazandaran
gay
##varen
##irekt
fjarr
##smatch
tycker
outaouais
##hk
hannar
distribu
irisvaxter
klotspindlar
cumb
utfors
##rationer
orlog
matsumura
pagaende
nd
##obe
raknar
##sgrupp
xanthoparmelia
pycn
eucalyptus
qimmat
aluminium
jat
spok
##speg
##anto
##hems
eag
##rok
ljub
heta
##onna
pseudo
gm
##start
parmel
duck
resterande
forutsattningar
##unka
georgiska
cen
tvang
solid
fastan
rail
##hoff
peters
recept
satak
pandanus
kriminal
snyltrotsvaxter
kvartsfinal
forrad
force
staller
sultan
guana
smalb
partierna
erkande
advent
##sprojekt
cog
plattform
epic
mesoch
##kans
##omme
upphav
firman
testamentet
##adensis
noc
##othisa
bestamma
doll
qas
paj
##utgav
miles
##ichte
trem
spottstritar
flint
austin
ridd
flyter
affarsman
europaparlamentet
agna
##ovitj
##terande
##atset
rip
qark
medverkan
kejserliga
flag
gour
##kandid
jonathan
representerat
fimb
unika
sou
##amps
garning
kontrollen
erfarenheter
##vens
##roi
##ouard
monica
lagstiftning
cirkus
fyn
zor
##niva
##ylan
indisk
rhopal
fli
##ول
##orib
chok
australisk
varar
##oped
##vina
senat
typisk
ston
##acupen
bretagne
##adin
##skj
svang
##the
medlemskap
desto
fonst
plund
##ningsomrade
bekraftade
handen
##odera
gach
##efal
##tackt
##skoga
ljusa
##illia
ariga
##ady
##ination
##icien
besitt
hudik
batalj
pik
brud
barran
foretags
##sprakig
##scyk
##staten
##atia
overvint
andy
delong
utrot
smab
ender
pseudonymen
foredrar
decennier
dud
kinn
strum
skapas
publicerat
valdemar
sundsvalls
esperanza
##onser
grobladsvaxter
1785
##alleriet
okande
##sgemeinde
militaren
vaggar
liss
varu
coy
tork
##racing
initiativt
harrison
bridge
##sja
spred
##ierad
tradgarden
talb
narkot
konstforening
curran
orsaka
alaska
antrop
etik
bonnier
cn
engels
greps
##atha
industrin
1782
enic
##icks
##ychia
christer
orsaker
anlaggning
hamtade
research
##grev
##ules
##ugn
##rukturen
snitt
amarantvaxter
ged
hey
jess
kling
##asm
arhundraden
ket
graden
southern
hunan
semiothisa
antofag
arbetslos
epip
nominerade
himachal
redaktion
wis
avgang
tillater
franskt
palmer
immun
vegas
ey
##rida
invader
##rala
antiken
agt
herald
nazityskland
nix
##parti
utgick
##arsis
##torp
teluk
kerstin
ormb
expansion
wain
##ssland
##varor
invid
flenortsvaxtart
nyn
cow
gangwon
##skrivna
kotka
skandinaviska
kau
stamp
forsaljnings
kov
vint
##erier
##skrit
konsp
nees
faroarna
trunc
antofagasta
dmit
ere
##etcher
harled
nye
trio
infora
ardisia
##geri
ordens
##hani
knock
felipe
biskopen
leconte
raket
##64
##uls
melit
pool
befolkade
domineras
pamp
##cat
##onta
three
adlades
utrymme
aftonbladet
vasternorrlands
verbandsgemeinde
lamm
##brev
##anterna
brots
tronfolj
bollen
manag
vattenkraft
##ylli
altar
besoka
gavleborgs
ralph
##adh
sahl
otter
hallen
utgavan
trit
grass
highland
grotta
mum
chev
1750
##ups
handeln
forbundskapten
catharina
##anz
##florum
livsmed
##ørn
##65
##orella
konson
##sbyggnaden
rocky
zarago
spark
salam
partis
burn
##enee
sporr
karaktarer
skotsk
garnison
kiss
##ussa
storhet
spreds
vardefulla
##kos
##sker
enheten
##olds
arrangeras
##akan
##utover
verruc
##ayo
templet
nott
##tsch
hundar
klack
glyc
brittiske
##urum
##ariensis
##oula
bladbaggar
##omorphus
trycktes
##cliffe
pommern
sale
myster
irlandska
lumb
yun
##utstallning
nasa
spat
##irost
fusion
marknadsforing
staffan
##jol
bladen
hjarta
bidrar
vuxit
aggress
phytosei
ching
##ampi
unes
vida
buken
grundserien
schweizisk
##anjing
##odonta
observationer
kentucky
##parken
heliconius
nathaniel
##eltrad
##lau
slat
sanchez
##isaari
korset
kymmen
01
##hay
chans
tetrag
jura
dack
zaragoza
dn
##teria
filosofiska
deutsche
tennessee
kiel
##syra
##leb
fernando
foredrag
gob
gorn
##skyrk
##otan
##bera
##ront
utgivning
rehn
sjopungsart
##ست
artion
astrid
martine
expon
3000
hudiksvall
forlagg
uppfin
serierna
belagg
ryong
oskarshamn
##arnan
380
honda
katrin
polyst
bero
abel
ledaren
##ype
dalmat
##problem
halso
phytoseiidae
lard
##udna
della
##marg
##ologie
alab
rorde
vinner
verd
andres
hjalt
riksradet
skelett
samlar
##apolis
reuter
aterstar
atervander
court
##enk
##arivo
huddinge
crni
katalanska
mamm
bleph
jum
stich
##opota
utbrot
besattningen
##ية
shay
bayan
navas
##ophyllaceae
iakt
##enting
utlandet
ornith
##mov
##urne
buskar
brita
exklus
inger
perfekt
symph
kevin
flores
federal
##olycka
##ww
##yrer
uppdelad
gagn
tian
##ians
##itation
370
elim
##lyn
inkom
##obas
isot
scapt
##vattens
nanchang
allvarliga
##smatcher
harjedalen
anor
##borough
ouest
goni
stack
superettan
strikt
mend
natural
lagenheter
arbetsmark
folkbok
playa
observatorium
##was
##alensis
##agt
##ittata
kajan
##operan
arvika
bomull
##skur
##skii
bear
gok
dens
##idum
khuz
kapitel
found
jenny
hist
yak
##ulta
##albek
markazi
larob
##ombe
generald
uppmarksammad
saq
##opteridaceae
lanserade
vintertid
##alidae
invanarant
lakaren
manniskorna
innehallet
##elbana
tyngre
tvatt
##iris
artisten
alternat
##ytarsus
##ochrysa
operas
teniet
utgava
uttalas
##kalla
kansla
troch
syndrom
rektang
mycetophila
##gat
##osis
tvung
lakh
thorn
paran
gravit
##gardar
entom
teckning
bant
sd
##asteh
anark
kopenhamns
inkluderade
##onymus
##jakt
stars
peric
chico
vaner
redovis
##itan
spl
efterat
##ocamp
pressen
1786
tingsratt
provence
dran
nipp
utslag
coast
mittfalt
bruno
varldsarv
khallet
##fargade
registrerade
stict
strong
kuch
blott
ryan
begaran
baalbek
adolfs
##skov
##abilis
##resor
##evo
castan
fay
##sher
kritiserade
##ked
##fack
##mater
tata
haus
muhammad
ormst
katalog
adeln
malp
porto
lindstrom
##hed
##onda
liggande
kalfjall
huvudroll
fastningen
fangsl
fragment
rur
##yas
##estris
##scha
existerade
##berna
insag
1783
scelionidae
##amu
storleken
himala
##spis
tay
ystad
##avan
##axes
guay
slutgilt
republikansk
##rasset
##tti
##vikens
lutherska
sordariomycetes
##wo
##spark
1680
sarab
stiftelse
representation
protokoll
dion
##alin
##liss
lic
kai
tiger
##nitz
darutover
##sonia
amn
##vidd
summa
tram
trajon
haf
base
sundby
kongressen
maximilian
irisvaxtart
speed
zahr
gonzal
##rs
##anah
##etera
##olet
##elet
agath
##almi
kenneth
upprattades
brak
publicerad
kritisk
trent
tamanrasset
guenee
johans
craw
elaphoglossum
##agd
konsm
optim
yl
praktisk
fjad
##sakerhet
grop
##adow
samiska
##estads
carin
elektric
bim
lack
haag
schumann
carri
federation
##esjon
ingenting
##spels
morm
klasser
1760
sakristia
##status
amal
made
njur
##xen
norrtalje
polar
##formation
kross
##rosia
dryopteridaceae
rodriguez
ujung
##vagar
alvdal
##37
##emark
volley
intermedia
##omast
minus
andliga
jinan
ferg
antanan
generationen
myri
befintliga
popp
tillfor
abstrakt
gudom
oversatte
##historisk
jacobus
solanum
arali
dennis
samlas
scaph
pallida
rhaph
fitz
##aliska
overfor
sorters
antananarivo
langsam
##jevitj
1773
##enas
##itla
foljes
##ulauan
##barhet
youtube
##88
##eriana
patag
forbunds
##yar
##oge
##ongo
##ahar
biologiska
salto
dinosaur
existens
strackte
##handeln
##ijer
##hrer
organist
##sspindlar
const
tales
arabemi
fagelns
brotherus
kepulauan
generaldirektor
rys
ingvar
##ammation
bakat
dyar
allvarligt
##hat
##idning
##ronia
##ynastin
onskade
##isser
dags
endem
ivanovich
pryd
pud
##life
##ostemma
cerros
girl
singellistan
bakt
forsen
allsvenska
##uaq
lansstyrelsen
##ohe
##ningsomraden
fordraget
1778
valgoren
tch
##inter
avf
unik
attrakt
klockstapel
##lips
utah
houst
disciplin
tetram
konservativ
sicilien
dib
hagen
underlag
perkins
anvandningen
kungad
planeten
silva
trajonvaxtart
##jarnet
saur
medverkande
1779
keyboard
##emont
##acu
##samfund
beno
normala
##ioxid
##avista
##ophil
##aliserades
undersida
##forskning
flaggan
roma
##ulosus
hale
edouard
preussiska
muslimer
##ssystemet
morkt
utgangspunkt
gus
##zelius
##rodor
folkpartiet
konstruktionen
kompositioner
##riskt
##39
medverka
##perto
##osperma
ammun
praktiskt
##riaceae
malta
amaryllisvaxtart
##cum
##onyx
##otidae
##sprodukt
faro
##roret
beslutades
museer
miy
##angu
oversatts
##slandskap
invigningen
grenen
ferrari
ormstjarneart
##atiens
##samhallet
radde
year
##konstnar
##ograph
guillaume
reid
temperaturen
baha
##smassigt
sart
##gow
grundandet
tillfalliga
musikvideo
##antik
boys
krabbspindlar
orat
##plac
##ulifera
keramik
pecina
##hyd
detsamma
nykoping
heltid
jere
##foni
##brand
missade
kral
##andro
##ebus
federala
trump
##ław
sports
##forand
##valda
tetran
##slinjen
snyltrotsvaxtart
parmeliaceae
khuzestan
tl
spridda
forlangning
##strup
bij
cler
jub
loc
pect
gene
##alah
##hachis
##aza
obli
asyl
konsument
fardigstalldes
livsmedels
tillkomst
provisor
news
gradvis
gigant
smeknamnet
fotosfar
ming
vans
marse
piel
##jare
##edt
forbli
rhyac
impatiens
mae
nt
filt
lagenhet
egyptiska
karna
yar
##isternas
##orkester
restaurering
enorm
##innehav
##obl
##ophy
gamle
ljuset
konstruerade
surkh
alternativa
ramen
##teatern
rattigheterna
brandes
##furst
##steknik
bren
##ochiton
forbud
kurser
databasen
##lob
##yak
##erd
banor
oberth
bokstaver
##tj
foreg
scar
hannover
##gade
##avesi
##oui
sche
##asht
##hardt
bitt
ciner
##34
##emoni
##axis
ellis
julianska
uppkom
mendo
glesbefolkad
hemsida
rotund
geneve
prosa
##orgia
svarare
what
fysisk
vinrutevaxtart
##cheng
effektivt
hjarnan
paij
gjut
kristdemokrat
restes
ringen
sob
charaxes
reservoir
obscura
##imilis
schm
medelpad
inkorporerades
sind
inforandet
##forenings
karnvapen
nal
##husen
##overket
kermanshah
zak
sitta
marion
meigen
castillo
hardrock
idrottare
pict
ibn
invasion
qarat
##ود
##spat
breton
isortsvaxter
siden
epil
micho
bransch
baby
skym
khwar
cresson
nid
##yran
eury
present
##varda
legitim
1719
vrch
satakunta
pine
resultaten
triumf
alands
nest
vell
woll
##avar
beau
##leria
##main
forskningen
gali
goog
ullskoldloss
both
lilli
##kis
bryn
malin
fardiga
rymmer
forbjods
cayenne
##sprogrammet
nj
##adenia
##ypus
austro
mexik
splittrades
avlidit
trakt
spart
isak
##rab
##elseb
monotyp
racer
frekvens
dik
idrotts
fes
vattenflugor
valpara
sparbank
mossl
kinestradsvaxter
##foli
##othrips
tanete
##eknik
statsrad
frod
versa
hewit
variera
slagit
##mut
##iness
upplosning
forsags
sever
statsk
eupro
plagi
pristina
kommunalforordningar
arabemiraten
##fta
##sei
riksb
halom
estniska
dov
##peratur
##rationen
##ibe
##linjer
syntes
generationer
klarar
nojes
kag
##uph
##igne
scheff
musikvideon
##branschen
lombardiet
##gitar
##ла
##obar
samfundet
conservation
##igor
spaniens
##ichneumon
kategorier
##uppdraget
ortnamn
emblikavaxter
hms
##avlan
tillands
sigurd
##ifikation
fardigt
benamnd
mccart
segrade
koalition
ront
wisc
forenta
stred
attent
timme
##malare
##atoma
formul
mobilt
guanaju
hess
johnston
utredningen
ronneby
##usn
##asma
##spoli
summer
willem
nordirland
nud
##jm
varvet
##itat
##ostema
##fabriken
women
townsen
##ouia
second
empoasca
##fus
##yter
lia
terara
plattbuk
##skrivning
avsevart
lahtis
plattbuksspindlar
##ckten
##xx
##spett
framford
barbar
omradets
sydligaste
beskrivits
insign
cuchilla
##skolleg
manuskript
##ectes
teologiska
anlaggningar
##svetenskapsakademien
zingiber
zimb
##elar
##ehor
illustrator
mesochorus
##ensch
calc
imb
japans
yrke
##ogast
sandeltrad
roddare
felaktigt
reglerna
laurentides
##lystet
##ophthalmus
wak
##irn
morelos
nicosia
reformationen
giftermal
balsamin
##kott
##yft
nordamerikanska
markus
maurit
sondag
narbelagna
vattent
polypod
hou
##kun
##lind
##hojd
##ssjuk
kustart
erkannande
kontinenten
##sministern
clev
farah
jy
##aterad
besegra
sort
##شت
ingeborg
poeten
friherr
perdita
anfoll
petro
##lust
##sporten
sjor
dave
starrar
auriv
intressant
trumm
olden
ulrik
hittat
ejido
kemisk
paijanne
silj
##chsen
##eford
slump
##formad
debatten
##kommen
karaktaren
##odromus
madhya
valparaiso
sper
##his
amman
taw
spekul
bisk
laura
oblystet
hallet
1777
cyrtandra
ruth
##hon
##ellum
##sfar
sagverk
##fullt
opinion
forsvarsbeslutet
enicospilus
know
##maskin
##oscelis
alfabetet
mild
##ycus
##uchi
hunger
kommersiell
derby
##lio
dallas
tillhora
forfattarna
oblastet
inflytelserika
##يل
##etaceae
skamt
misshand
swin
##impla
occidentalis
centralprovinsen
ded
##cla
##raz
styck
torlar
behandlade
##robot
uppgiften
nasselvaxter
slakting
debutalbumet
cren
##byt
##ures
alma
forsedd
rakning
##smask
ashme
numer
drum
##gy
varberg
laglandet
umb
pyrene
soloalbum
##acional
satellit
lazar
relief
assisterande
inleds
accepterade
750
##egren
##utla
##apper
curv
konkurren
nanjing
##iserat
sumak
dominerade
erbjuda
sibirien
olav
در
pay
##vind
planerades
styrman
inledande
natverket
##mossa
hiphop
##wen
anmark
##entus
brem
tidvis
scab
hollandska
loppart
damp
ebba
##jerna
chry
forstarkt
oversattes
lamplig
erica
violin
##sverket
##alerna
uppr
add
coryn
selen
noterades
principer
euth
##entz
spy
namner
minuten
passerade
upptrada
magazine
gyp
##orak
##asco
##janster
utvecklad
forsaljningen
sprint
##omerus
##illata
maran
lagret
greta
kollektivt
ramb
##adia
##ilan
beund
tredjeplats
tillandsia
pim
##jov
##ebrand
rif
##lines
like
steven
##veri
elin
konsthogskolan
prasten
bradford
halmstads
##regeringen
vindevaxter
ornskoldsviks
sanna
koren
aspid
edinburgh
dalen
pump
avga
uppnad
ormos
##amne
amnes
albumets
snokar
robusta
kilstritar
forvaras
thaum
ockupation
paus
##umont
dagı
torne
landsbygd
##satts
folke
bulud
styrs
hampshire
mk
nect
neil
cirkul
ahmar
sperm
##bou
##into
virus
anordnades
varldspopulationen
##fororeningar
formos
gront
1763
##kammaren
dug
##erie
regg
##musiker
misstag
penins
forvaxlas
dress
##itrium
slojd
blast
utvecklar
lamar
arsenal
agaricomycetes
gonzalez
less
##fv
##onga
agar
##ofer
omfatta
arkitektkontor
masters
pachyc
jokkmok
rey
tjeckiska
guanajuato
jokkmokks
vilj
##ulic
planerat
grobladsvaxtart
behova
hydraena
maritime
cath
##نه
##ogyne
tillf
##ivitet
##ocrypt
sylv
berger
##frihet
##blomsvaxter
##elka
calypt
##ylax
processer
forlangdes
##odynerus
##ropp
clinton
hackning
infrastruktur
oresund
##resse
traffa
utnyttja
dou
##sic
##atti
etienne
microd
##eldansflugor
puckeldansflugor
kristendom
##riz
detekt
##banor
landslagskarriar
##imon
varianten
##tack
agrotis
1660
pianist
forsvinner
systrar
gred
forvan
##roy
narke
sandy
##fjord
mobler
begransat
michoacan
##byra
##ecker
periodisk
andrej
civilis
avses
himlen
##ery
##nac
laran
upptackten
fantasy
gadd
tuc
##lab
landsvag
##ctor
besokt
##endorf
penic
motsvarighet
stromsunds
crique
emblikavaxtart
dynastidae
sprit
ritad
##ocnemis
##oles
chabet
##ipan
vallmov
begravningsplatsen
massan
wallace
martinez
eff
##crantz
##pera
##light
utlopp
##bete
smarta
andersen
blomst
1767
##gransen
provinserna
##iala
elat
look
nigra
lonch
koncentration
neutral
gentianavaxter
##arkivet
##rama
villor
eos
tier
antwer
utslagen
horisont
ingang
verho
##asso
nationer
innebandy
armeniska
ansikte
passionsblom
ardenne
eber
##ransen
beier
##ioch
lovflugor
##enge
avgran
roc
symptom
carden
eust
##ischen
harkomst
aller
mason
lyx
glim
##rota
##usse
uppforde
##varns
befalet
salunda
sars
##byggt
smalands
tradgardar
maka
muren
etta
1774
slaktskap
riau
##ml
##hius
frisk
##handlaren
pseudot
tomten
tiotal
faltet
zimbab
chr
nedflytt
##leyi
rollfigur
moluck
nato
sachs
eleverna
small
##pelare
##garde
tavastland
crat
##arcos
##bladloppor
pseudop
hudson
swedish
##hundra
##atare
##ossen
##aps
aktiver
bonderna
maryland
##ygaster
svager
galli
svensktoppen
overklag
wisconsin
kalv
pond
kopman
oversatta
dialog
##osphaeria
kiri
tradet
aurivilli
kiv
##agang
##lei
##stallt
##linje
platyc
##kanalen
hjuldjursart
gigan
##kval
##otti
lyon
lyrik
reinhold
tvilling
ghazni
trondheim
stum
##sprid
hender
hotellet
globala
armad
##blick
##atiskt
##naceae
spelad
onskan
horse
golv
##projekt
##يد
##snat
gerd
rymden
municipality
telegraf
skatte
##lej
##icaud
blomsterflugor
baptist
kow
regim
hanseende
romarna
murar
isabella
theodore
dmitri
##vagg
##gau
formagan
korea
##itsup
prototyp
klein
karib
fullstandig
verser
ordfor
innanfor
noterade
##ferens
hubner
ulaan
ormbunk
chip
handelserna
natet
##hild
##allskapet
##rita
##richia
knuten
haga
xyst
arlig
##odrosophila
motion
kolonin
##journal
morf
niklas
##oserica
wayne
mlb
##shogskolan
##uit
##skinnbaggar
##obolus
##sunder
richards
bryter
emilio
sevilla
##kare
##ential
honorna
bergslag
atmosfar
zav
##emy
genre
oromia
##ssidan
109
##irah
symtom
pied
fakulteten
warner
##hill
##grans
deep
produkten
duon
tidningens
loss
##erskan
##ungsb
##skiold
styltmalar
forestallningen
bibliografi
gag
qaz
##rerades
##able
##ocala
verkat
sura
##gaard
singer
kulsp
tilltalsnamn
rau
##klassen
franca
nyar
##ffen
taf
petersen
fix
##alda
marker
ignatz
nitt
bluff
bahr
eventuella
utsatts
sistan
uno
senegal
datorspel
frivilliga
bakterier
mississippi
nec
odel
##iol
ledar
oxen
##fotograf
tibast
baluchistan
hewitson
pola
##dagar
##ardig
generall
generalgu
changsha
fanrik
pittsburg
akvarell
##ophytum
kryp
pras
truppen
##avagen
male
moderklubb
brittiskt
rolling
underlatta
mtv
##odiplosis
euproctis
##egia
##odling
parar
never
arvidsja
neop
euk
##qah
##arkiv
##nig
##eso
forg
##indien
athl
##onting
sympl
medaljen
slovakien
##slinje
dramatiker
amarantvaxtart
kejsardomet
ashmead
cich
graver
yttersta
djupa
avsluta
premiarvisades
nasselvaxtart
##skarm
krigsfor
sparet
##sparet
depress
skonhet
flyktingar
diskussion
orang
stott
##icky
##ibel
marianne
ryttare
betydelsefulla
cather
##illan
rhyacophila
##inac
delad
shl
##ocharis
tabell
brigad
##funktion
nac
##orma
##exia
##olagen
coryd
gravsattes
ringa
##kraftor
utmarkte
eug
bratt
kritiska
distant
fina
##ariet
##lef
teodor
##raven
trim
semnan
1784
##cykel
##itum
half
garet
vinster
pati
##toria
kravdes
babylon
##maktig
hipparcos
frivillig
zemmour
##rima
retor
viejo
spilosoma
powell
fjorton
skord
##ekade
##iret
balkan
draftades
tich
##sdal
halle
klubbkarriar
revid
qaasu
anstrang
memorial
pog
##bult
##rae
rhen
timb
mcg
##zee
malvakt
alexandre
glenea
##stachya
vardefull
##aridae
haren
vilt
forbattrade
begarde
engelb
qafa
agh
gary
ansokan
turneringar
##osporium
overtal
##aev
tratt
latit
byte
djuren
arrow
celest
sto
aphan
akust
##ruktioner
##randen
sandebud
finansminister
qaasuitsup
medveten
##astor
milan
##obium
utbyggnad
##alva
##ulah
autonom
##iscidae
varumarket
viii
##oglossa
pablo
##rub
diplomatiska
oregon
ammunition
##fell
##یر
##inaler
dialekter
gin
rosta
forbindelser
byra
kolk
pem
##ams
stell
stallforet
isidro
satsa
kampade
1766
tunnelbana
uss
wells
mantal
1720
santos
skrivas
ulv
renassans
kajanaland
verhoeff
##enthal
##sbok
losningar
tekniskt
camponotus
goias
engelsksprakiga
konstantinopel
isen
tower
##ierre
luigi
390
##ccion
##chy
pax
illi
##gjord
tacka
rytm
fuller
##enger
artem
##edilum
##sslut
styrde
hypotes
bodens
nederlag
##ادي
sophie
##67
##동
##jansten
confer
benito
hedrar
behandlades
gilan
##sangare
stenbock
##elina
soft
morph
direkta
##ranter
bergstrom
##strands
kommission
wies
##klad
##eteck
##utstallningen
##desmus
ruiz
mein
ness
pomp
##isia
sprick
##oxylon
mids
hope
qarku
##ografin
langdskid
dasych
##hastar
fantast
kidnapp
##ebro
moller
flykting
invasionen
esl
##iderna
##ulan
kvick
##coe
gibb
skaffa
enderlein
##opidae
##ressa
mini
utovade
cyl
##elj
##ffa
comeback
coh
araneus
##itidae
castell
kasern
kopparbergs
fid
##pack
konstverk
newton
dramaten
navarra
omojligt
##astrum
omarbet
maine
nagonting
##ulac
tvungna
gond
##aros
##athus
##opera
naken
wiedemann
##andan
narvar
1740
kalix
visste
karlstads
karlskoga
gardens
tjanade
kompaniet
thunberg
hundratals
##four
andraplats
##plen
##stjansten
##attade
##skriven
primara
olyckan
fattigdom
gyl
iber
pelt
##49
minuta
brasiliansk
stralning
membran
densamma
##astaren
##tac
promen
betes
funktionen
lycksele
furste
##etum
deng
paket
lutz
caroline
komplexa
bestammelser
mjuka
jerry
trinidad
chateau
stupade
brat
glass
isk
##nius
##sslandor
garm
indonesiska
##lunds
tris
lagkapten
celeb
medborgarskap
lauren
boden
bottenhavet
moluckerna
##strafiken
pays
##ipha
moderforsamling
##historiskt
forandras
kunth
##ochthonius
paktika
cut
mold
##smak
##ytus
rhabd
drepan
##kastning
monotypisk
fow
##distans
parent
naturreservatet
oceanen
huvudserien
##smastare
##imbo
bremen
valent
halsen
universal
bayer
##ochromis
cara
hull
kf
##skurs
##roj
skansen
alven
bestand
##gardet
kolonial
specifik
tann
##terus
framste
geran
community
chironomus
malpigh
kash
oand
lise
##ygge
kungl
##aliserade
hyph
ovansida
1771
kandiderade
tent
##pu
hemman
klov
##byran
##racklig
liberia
generalsekreterare
##بل
##isha
narhet
blandade
neob
isortsvaxtart
mattias
praglades
glab
richardson
kavalleri
didym
percy
cesar
تنگ
skatter
##ulf
kallan
adler
stridsvagn
huden
singapore
##ии
##reck
cerc
lank
##iense
virgin
michail
##fyll
index
statistiska
planerad
foli
##rosen
##osticta
##ensp
##jarnor
houston
zamb
palestina
vindevaxtart
##مر
beta
salda
tanka
sammansattning
##vention
uppfattas
##istus
foljs
turism
hyla
studioalbumet
gue
pelle
##erin
##lish
##ismat
##itlar
##ottis
aterkomst
biob
##odesmidae
fordjup
ahmed
##iebolaget
brothers
shekasteh
bess
##slar
##47
##enska
steyer
##spris
dolichopus
guldmedaljor
sommartid
hemlig
##cheon
##ezirk
##rotoma
jarnvags
middle
##aci
##maire
argy
tjern
##eldorf
kingston
lille
zhu
##hwa
orgeln
colleg
##ancy
automatiskt
trak
anch
##smedlem
alba
sandor
cyathea
navig
##brottet
##ono
biel
halvar
skriften
efterfoljare
omstandigheter
inventarier
eurytoma
rush
macrop
calyc
phaonia
underjordiska
pittsburgh
##oms
##skrid
##ingrad
dei
imperiet
mendoza
##mang
##aeidae
iowa
kend
##rerat
##uvan
kup
##assist
tropid
bmw
##rn
##odius
##acanthus
flo
guadel
##olabis
##aldi
industrier
sudan
specifikt
lagstiftande
eich
##arien
isle
##forslag
rotation
hopl
tryckta
abborr
metropolit
xanthor
aro
##anthemum
##chefen
pojke
frilans
jerevan
nurn
odes
##لو
##ulos
##open
vasil
ellipt
hiss
##ingt
##oppa
avgift
bollnas
prastvigdes
obligator
bub
##dikt
##akia
##umo
import
kartor
sjostjarneart
hande
sg
##emane
##iuse
##achim
biltillverk
campt
tolkas
brostet
##stachys
kk
##hong
##fli
##omed
##imum
islamiska
kinestradsvaxtart
tolima
utses
ceara
kyrkorummet
02
esch
fight
##ик
kontrast
herrlandslag
forhallandevis
raddnings
renault
##fynd
##lington
##horst
schen
schum
livnar
tanker
arsjubileum
dad
##avia
langhorn
##ecus
##lemma
symfoni
blodet
dimension
cock
kreta
##skick
##arke
##rings
##ifilm
forsamlingskyrka
##baatar
radiost
##inspelningar
nana
##umba
##ingsas
gilt
hassle
oil
##adeh
##opyga
uppsta
dalarnas
##hjartbladiga
forntida
bolagets
jobbar
##pot
##chal
##ratta
begravning
rutt
##vitt
##oras
enare
antib
konstater
saljer
##skede
ht
khus
##acty
##ongia
##market
kou
samord
##sae
##issing
tau
calam
proteaceae
mittfaltare
##ping
##etidae
##agatan
spara
##icki
product
skickas
##blomsvaxtart
lissa
pygm
aurivillius
nir
##uata
##lits
##idas
landarea
##entliga
herat
ljusdals
650
legenden
medlemsstater
##uggor
ormar
##byggdes
varldsmasterskap
bamiyan
##laq
spath
bly
dame
petri
##slapp
heidelberg
cinn
pinn
##raren
##roe
##estand
##opsidae
##zzo
forknippas
##utbildningen
melitaea
java
##fys
##uger
inuti
liang
##ikens
##musiken
indelas
ice
sutt
##nara
##arit
rattegangen
exporter
lastbil
supple
nok
varbergs
andelen
sandberg
kulturm
datidens
reaktioner
##otiomycetes
##wyl
##dale
##vana
aloe
##ugga
##ocrat
pheid
mandatperiod
utgravningar
##laz
forsak
##ovare
sparen
clath
krona
louisiana
lily
##arct
##iernas
dagbok
fangst
gibson
kyrkoherden
##oue
##skas
helina
##queta
individuellt
flykten
sammanhangande
utovare
framstalls
nations
makens
ferrug
skyddade
cornelius
vinden
regerade
svalt
##apus
atrich
marcos
marius
skicklig
faktor
macrom
swamp
antwerpen
biot
maculata
gentianavaxtart
skyldig
spirostre
ddr
##agnet
##ikum
chelse
konen
##yller
salomon
erovrades
diagnost
valais
fals
##arak
langhuset
sasongens
rune
manifest
giuse
##36
lamningar
##entlig
athy
mahar
namndes
klubbarna
galicien
miquel
francesco
nuk
p3
##isca
skrov
##ekon
##ifta
idol
mangfald
##hammars
forelasningar
##neh
neu
##sband
##elmat
ishan
dubrov
landhockeyt
dioscorea
bik
medio
prel
blood
##ochus
studion
ludvika
stjarnorna
gabor
drivande
tunneln
springfield
principen
##fodda
rhamphomyia
volleyboll
mia
perfor
pseudos
westwood
brunner
##ripes
rackte
rogers
##skande
##arif
overrask
##heta
##ekamp
larsen
platy
falc
grandis
kompositoren
##dynastin
kalat
innehallande
campus
##cernen
sydshet
wheeler
##universitetet
##ра
als
##ceus
##sviken
talare
brunne
drake
rann
##osm
sydshetlandsoarna
cil
cott
##halvon
flank
foten
forlov
vistelse
##lamnade
obscur
##orne
##urt
##yrhachis
khwa
##ychidae
mobil
##skytte
##krigstiden
remix
tuna
##sis
##mari
##icitet
##ochia
emilia
ljudet
inskript
##ochlora
smorbult
geografiskt
cary
pizzo
##ogryllus
##jad
osten
svaga
saari
##etscher
henning
eddie
fakta
tunna
mobiltelef
luth
##hallning
##fallen
utsander
blommorna
framtradanden
cliff
ockuperade
ms
mav
omges
##opora
prota
chac
##spec
oronen
marinen
artnamn
thess
svarar
وادي
##iserades
##ossor
gomez
genomgatt
jad
ramp
zeb
overgangen
uppvarm
efterfragan
synliga
ritat
affaren
veder
overlakare
microph
##tranare
##irostris
kth
wing
##lys
skram
skanes
##eko
counc
taby
symboler
inblandade
fotter
voda
karang
karnat
##ineura
konsekvenser
evert
siv
##oton
utes
simmare
songs
taxon
burkina
##mol
##egatan
homoneura
jobbade
misstankt
townsend
bram
gah
harri
##ebod
##vask
homal
fiktiva
##cad
##xia
##71
##ст
##aras
##skall
ong
japonica
forestaller
cuv
este
vastkust
texterna
osaka
kush
samu
neoc
sidney
proton
fleming
cundin
mash
passar
opist
vetenskapligt
allium
maple
flandern
dasychira
dill
rex
##smar
##ayi
##forsorj
##historiker
##baserade
piaui
smalbin
syri
fredrikshamn
kalksten
overvagande
vrid
##ware
##gad
##산
##inha
##deval
omgiven
korp
patient
gastrik
psykologi
cochrane
blo
uppgav
oftare
brandt
##ljus
oberthur
hager
pou
glatt
##ivision
joachim
##ocarpaceae
orkestern
foran
overgar
##sbacka
fordom
hoffmann
##asten
space
ostersunds
taj
quint
kulturer
batu
bruks
vicep
pengarna
www
fletcher
geoff
turister
sony
##matare
fabriker
buenavista
##taget
steng
##ims
##kajarvi
adi
##iani
hook
malawi
arbetsgivare
oversikt
lotta
##culus
##ifs
divers
betta
riksrad
gnoph
fotografier
artionden
ficus
##drift
##tagna
touren
##ilio
spion
reperto
tilldelats
kostade
etablera
stevens
strobil
hunter
##inck
##forsakring
##ledaren
pseudonym
claus
toner
##smo
##oboth
lyong
##grashoppor
m²
##otrop
tviv
nykopings
blume
##uktion
slappts
mcd
suv
##omis
##oning
deklar
landsfor
vasterlandska
israeliska
overlevande
tjur
##sprin
##skapare
##fordraget
acroc
lundgren
sundet
sjuka
hwang
inser
##illhorighet
orgry
innebara
google
dri
ora
alingsas
temat
inneha
##oniaceae
place
boxning
aure
gli
vaste
##elige
harstamm
villman
##skommitten
kark
niss
avsattes
##ogarden
##radd
barra
oklah
kvarstod
giuseppe
ust
vore
##ulax
forbinder
porslin
forfader
ockupationen
dakota
radikala
hertigdomet
yosh
pleb
##weig
lycaena
##ocalyx
buffalo
tore
##asj
tapets
oros
tillskriv
provinser
##redik
neon
jiangsu
foresprakade
dander
inh
##redning
forsvag
foto
##sfag
masdeval
pipran
kb
##krets
lion
existerande
farfars
hjalm
subst
##eltis
##rocerus
palmas
##cs
marknads
fortplantning
masdevallia
kruk
##gus
##stark
dab
borl
xest
##46
bokt
subc
karlshamn
patrik
kompens
fah
yin
##avtalet
daik
kanton
reporter
skogsb
##gjorda
renoverades
scandinav
##sspel
##omalus
norfolk
history
passagerar
avsett
##leton
##itia
vidstrackt
hemlandet
djav
##egan
herz
##ledamot
styrdes
fraccion
valkretsen
squam
bedriva
sos
samp
palo
##arsia
hamnd
crow
##brahim
finansiella
frisim
##ipendium
##igra
##eburg
motsatte
slo
lach
##resande
olov
homs
moment
broadway
##sslutet
cuk
markt
musikalen
manuset
kommersiellt
kes
##omot
inskriften
##ripa
novo
husets
raw
akademiens
schefflera
##eslaktet
##hallar
##intresse
roslag
faste
##ppel
rykten
guvernoren
fornam
befattning
##skost
##lica
##udier
utsattes
torngrashoppor
heilong
utbrytning
vys
xbox
##hil
##galan
attlingar
urs
reson
119
khak
peterson
fordelar
huvudkontoret
hung
##yad
##estjarna
palme
negra
phytomyza
komponenter
##bidae
korrupt
tallet
collins
alpin
cristobal
##stranare
runtom
##opius
sigfrid
slutat
holmes
uppskattade
partiklar
kord
undervisningen
nordafrika
##ysan
##oxid
secret
##pedagog
zahrat
elongata
beordrade
claren
vits
##alta
dac
samhallets
hemland
kyrklig
kyrkligt
columbus
elektro
mytologin
hexatoma
##orensis
##ryas
sermer
banden
chloroc
torpet
pleuroth
barend
betraff
handla
rakna
##iyeh
boulenger
##osphaeriaceae
##hults
betydelsefull
eran
##ylen
forbran
stadsrattigheter
tenuis
##uquen
justitiem
dusseldorf
uch
harskare
##ophanes
##svas
scap
##otheca
rodbrun
budskap
##ethes
ssr
guadeloupe
radar
##rene
insularis
faso
spannmal
strindberg
##ел
somn
1650
utbildades
symmet
forandrades
##kontrakt
##osma
barnes
trana
innehar
myrlej
framsteg
besegrat
cald
##uia
##emora
##erback
obtus
tjana
blanchard
alexandria
##viker
heltal
kopia
pleospor
nacional
boe
##ophle
barns
philos
oxid
uttalade
forvarvades
fairmaire
distribution
##revolutionen
tvart
maraton
acron
##sfull
bransl
##finalen
dansare
##krafter
alabama
vran
inverkan
utstallnings
inriktad
simpsons
zhong
##castle
council
tari
##stot
chub
saone
vaningen
##arnsvampar
##ergi
limon
utnamnde
synnerligen
harjedalens
glo
parab
interior
ringmaskar
##maskiner
expressen
##punct
flockar
fokuserar
juridisk
bussar
##smetoder
suppleant
vate
##eliga
omph
forfl
maq
parque
kooper
maculi
presenteras
harnosands
##atin
##ellina
saff
bailey
christensen
bekampa
behovdes
nipissing
stot
##spic
sevard
grote
capp
ensamma
leks
##karna
##enburg
##rista
##teryx
##sprocess
borst
filmdeb
alberto
gyeonggi
jyvask
ormbunkeart
wings
inoffic
##uron
stress
1640
morker
patienten
karnataka
##øy
sous
rios
##ynt
##ibal
baja
fullfolj
##arpus
varieg
politikern
philippe
antikens
intensiv
bokstaven
engelskt
cundinamarca
eben
ski
uppslag
hypoc
regerings
steget
gonomyia
theridion
litau
oulad
yx
##adura
limen
kuus
rodnik
uppges
minnen
myrlejonslandor
##ally
hemic
emirat
rouge
nassau
smanattslandor
lukt
obet
forv
##reform
register
skans
vision
studentkar
##ceps
karnan
experim
psalmer
##fronten
mura
vier
##icella
saken
##oproctus
##streck
hipparcosuppdraget
##inii
konv
adliga
grey
patron
chaouia
foreslogs
##flottan
uttryckte
kymmenedalen
gers
rico
tint
utkamp
##ungs
rovdjur
lecan
##anstalt
##not
##33
mao
uniform
signatur
palae
stilleben
lempke
orgryte
daikondi
heilongjiang
valut
juryn
ansluta
talbot
##jag
there
##stalle
synth
placera
aterfanns
irlandsk
situationer
utprag
fundament
##sammanhang
byg
##ktorn
trap
kandahar
##hein
sjukskoter
jagare
flickan
pacific
##zman
##opes
alvar
##reng
##inskt
hamra
##planen
mobel
nobelpriset
smorbultsfiskar
bing
nivan
gry
nykter
shim
eparchia
litterar
museets
harnosand
##ppo
ofull
regier
oruro
tranas
sadd
beratta
tungvikt
mansklig
hindu
oed
enorma
##avla
##leys
leden
trib
phoenix
##divisionen
##skador
nordvastprovinsen
vattenbryn
visor
broar
##ofta
turbin
##ussar
epit
klassiker
forsvarets
avsag
alpina
##ropsis
eisen
##shot
komiker
statist
relationen
ouardig
name
dongri
huvudpersonen
schultz
mozart
##distrikt
fortjanst
##ertig
ptych
dubrovnik
douk
##nandet
##ام
##stugan
skam
##alvens
heim
silene
prion
stenbrack
jyvaskyla
firas
tz
##chne
##ranch
foretrades
hyps
nurnberg
spinn
valjs
kalim
##amerikansk
swinhoe
gp
mta
andringar
forvaltas
boulemane
konsekvens
uzbek
##adis
avveckling
skrot
##uto
omgivning
britton
##modern
network
frolunda
##unnen
forete
miljop
record
devils
ouardigha
qay
wehr
##isj
acrop
parallaxmatning
chelsea
sermerso
jern
overlat
saar
##yces
greg
nytta
skoldpadd
ulaanbaatar
yuc
##atel
omorganis
##bers
phnom
phillips
beskrivas
foretagsledare
pelopon
mahunka
catherine
sermersooq
##berlin
ledd
rhodes
business
utrustade
komedi
##medlemmarna
management
zimbabwe
sø
##fria
##vod
amir
flu
##olje
##ryd
abbas
##aktion
undre
manniskors
fornnord
belgrad
paraiso
vilhelmina
support
olag
##sflugor
##ilu
samhalls
##obel
krus
lamnades
landskommuner
tilldelas
superb
arresterades
nang
tigh
##eros
kommand
##ringarna
joel
astronomiska
clarence
tutt
##lots
##bbar
##gend
motsatt
quart
kafe
stensote
platypalpus
citer
utnam
sjoman
kommuns
atlas
khen
resterna
hemmamatcher
mekanisk
townes
##hantverk
##utia
galile
##albumet
diskrimin
lagtavlingen
zaer
silvest
##iracarus
##ostylus
##marck
reyn
foretagen
arbetsgiv
pilgrim
nixon
pleurothallis
bolog
##rt
##cancer
##anov
spru
uppstatt
107
evaku
##kab
lipar
forstar
aterstaende
seattle
kolv
bortgang
tamil
hoppflugor
##iarab
temperaturer
##vadron
hendrik
polypodiaceae
goss
jard
##hah
##bre
##udiere
utsatta
sauc
relativ
fyrk
##igade
berth
barry
malc
##sbaggar
##atoria
impl
porph
forkortning
vaggarna
engelbrekt
##alag
taz
metro
##ymb
kraven
strept
upprattade
anklagades
##astning
phas
aktier
pear
vardags
roberto
halt
##urit
forverk
pseudom
hubert
falu
##ophoridae
belagringen
forfog
arbor
##sbas
phaner
dagarna
gava
gruppspelet
skapandet
aequ
saudiarab
symploc
peloponnes
##bys
kula
##ibar
vera
##geon
fredrika
hamta
parkering
herrgarden
##chemilla
bactrocera
generallojtnant
##bats
##на
##opolis
meningen
kaledonien
stallt
##sstil
jarv
foregangaren
symboliser
spindeldjur
##lake
##smon
##opot
agap
galan
kritiken
bevarat
publikationer
##jma
##unneln
passera
forsvunnit
uppfort
bux
aterham
redog
hojder
leucania
holmberg
kimito
intervjuer
nicolaus
##ifte
##ffin
oxyt
toledo
astadkomma
bale
inflytt
shanghai
grind
formynd
mynning
holger
wein
negativt
bensin
puts
##enga
##annon
argumenter
birm
motsvarade
lokalerna
kollektiv
homosexuella
##eis
##ysiska
metaph
lasarett
prepar
kroppens
banker
szep
forhind
##uropeiska
410
nationen
##otaceae
utru
antip
grill
##ctes
ordnade
smalare
##medlemmar
vicepresident
##elu
##roppar
narm
##hallande
rockbandet
vetenskaps
belgisk
anatoli
bitar
uppen
##ypen
musikern
musikhogskolan
benz
begravningsplats
##ljud
eken
underhuset
arbetskraft
break
grodor
shakespeare
##less
##nation
##veg
##upa
forsor
planeras
galen
jalis
##etalum
lie
nordens
stalin
vetlanda
##cl
behandlingen
hoppa
latinets
mongol
installerades
tillampas
kongressledamot
ih
tina
##ehe
##ouar
##reso
germain
caer
variation
slidevaxter
slutliga
##yttan
##eyi
ovanpa
wed
##ejus
upptack
##bevar
dynastin
municipalsamhalle
e4
bors
byggmastare
protein
datorn
oversvam
lakar
stadsm
schroder
trycket
##klam
##fritt
##helea
hjartat
lynch
magg
##otarsus
##alac
schist
##uktu
prinsen
vitter
uppfoljaren
upptogs
##hynchus
##rerar
##gl
henan
skotte
civilingenjor
elegant
libretto
tierra
##onas
##embl
##iljon
##iks
##oble
personligt
dorrar
svealand
ultim
overenskommelse
foundation
cichlidae
vattenbrynsbaggar
qez
##82
basisten
schel
##otaenia
bestamd
kontinent
allm
koket
givet
tradgards
haematopota
##urat
provid
##spann
lagman
formella
guldet
riksdagsvalet
fetbladsvaxter
artilleriregemente
clemens
##angaren
haem
1769
##produkter
konvention
hubei
##osjon
##ostig
hona
romeo
ljusfororeningar
ate
##aen
##از
##likationer
camar
##resultatet
baseboll
fergus
ira
tillkommit
##ingenj
torped
tass
##xis
indica
##ieux
publiceras
henderson
cirkel
flottans
landskapsmal
bradysia
yog
##81
basel
melander
prest
##undersok
alderdom
gesch
kaktusvaxter
vod
forebygg
##forestall
##imension
grunder
absor
universitetets
analyt
nikolai
fiktiv
اباد
mental
sling
##ebach
##sboken
linux
##ferensen
panor
slotts
centralorten
traffades
toh
##styre
##onicus
##ellii
manaders
craig
akademin
##folket
ihjal
##icul
normalar
##ematang
keram
##arps
##elekt
##ysc
agor
passa
karaktarist
agera
republikanska
##oire
##gron
##cini
##emedlem
chase
ampel
##byte
tankte
gardarna
jury
avslutat
lavar
industriella
xinjiang
lissabon
crin
forort
story
amy
deltavlingen
inbordeskrig
cleveland
arig
##skommun
##rice
##osch
##ophrys
medborgar
isb
vog
##penn
##etic
intendent
els
moose
erland
timber
sabz
borlange
birmingham
##song
citron
overleva
ixora
heavy
xanthorhoe
##omena
##alina
##astrof
sour
##othoe
ladug
nationalparken
norðurland
topografiskt
avbry
tapetserar
pematang
ufc
yp
##eco
##manni
pheidole
fell
overfamiljen
chun
##athia
1762
alliansen
chrysop
erovra
adelsman
hemmaarena
psalmen
porcelli
##rall
##koms
publicerats
erbjods
dalb
xv
##bott
##asy
##attningar
##oviensis
##seri
tappade
biv
##ogorgia
##teringen
altart
##ommend
vaxten
##svatten
metac
individen
namibia
sporrstritar
stensotevaxtart
hadd
##elund
miniat
belle
larv
blake
moselle
dominerar
armst
lysandra
bennett
upphojdes
forkast
##egoj
sjunk
##ulaceae
stjarten
kandidater
anklagade
instiftades
##99
##ological
personligen
kirby
minnet
salts
skadad
filippo
vend
##tio
##egi
##horne
monaco
dagliga
nedat
550
##yma
##allskap
milt
shey
burns
evan
oder
stem
##ulart
forbes
divisioner
avhandlingar
regierungsb
##athe
havsb
##onton
sweet
skydds
fysiskt
mekanis
matematiker
godkandes
upplevde
gloss
##ifas
utvecklings
forestallande
ignacio
kristinehamn
##atica
##inson
##avet
##aken
##odiscus
grise
grundlag
goet
##emble
drabbats
osakert
steyermark
fifa
##55
havskanal
##utrym
##kah
speltid
ledarskap
sieg
talk
##sproblem
pingst
motiveringen
tana
anlagga
##utu
olik
villene
##male
azul
premiarministern
trollhattan
doktorsexamen
##enzie
elektronisk
peninsula
puk
salen
vaga
##arii
split
malen
##hii
##litz
##oleuc
##celer
overbefal
illustrationer
##iran
##asch
##rones
##nev
##ashq
naq
ansvarade
kommendor
##schaft
cz
##iques
##hae
##anat
engstrom
funk
syftade
##onympha
##skansler
##bostad
##arro
brahe
bela
##vetare
##sleden
##omradena
landhockey
taxonomi
koldioxid
foretradesvis
jing
##pil
##onema
slagen
organismer
oversattningen
volymer
trummisen
skruv
reag
personerna
burni
anfallet
beredskap
##olana
bevatt
##seus
forbundets
penh
oklahoma
##ilden
anlade
macha
##estam
laf
basist
abc
##ammare
justit
interioren
racerforare
##illidae
forhandlingarna
stycke
harbin
##epal
orph
helvet
lednings
kyrko
friend
##sfri
symfon
1768
turkmen
##forhallanden
limenitis
uri
tillstandet
cheh
##imin
toment
##skontor
##schefen
fernandez
vitryska
koli
nancy
##cea
anoph
##icea
##sachsen
##intress
khas
firade
inspirerat
boplatser
##rington
##ouine
veronica
torres
uppgrader
langdhopp
gudstjanst
ersattas
postumt
intressanta
diap
karnten
stadsdistriktet
jow
##she
living
astrof
tecknad
1759
inrattade
kawm
##rering
##undet
##apten
barber
andhra
krasch
##slinjer
utvidgades
chimarra
bethune
##unungan
##rescens
##endent
##evitj
heyd
brachyc
##unkler
zapata
rubusar
sakristian
chama
##eho
hyster
appar
##olepta
sera
skagg
##eya
##rasse
##ogenes
debuten
jakten
permanenta
getingar
identifiera
430
jons
##mata
agios
abda
oxalis
eden
##elma
forre
anpas
##betes
slovenska
chongqing
regierungsbezirk
##ylia
manhattan
tillfoll
aleg
kabinett
lindqvist
elementar
sackspinnare
danielsson
arachn
moldav
shef
biroll
historikern
undersokt
##alam
##skulpt
##utrustning
##takten
verkan
brevis
pedra
haradshovding
bedoms
##kunnig
420
tyrann
aba
resande
mors
1761
##sem
arkt
##skot
ather
##jarv
##ichum
##ineus
italia
tackade
tjej
tect
onda
taen
##visningar
startat
rosten
stridsvagnar
bahamas
driften
omloppsbana
avbrots
szeplig
##oub
lagts
majest
##verkningar
repet
aterskap
svenskan
brasilianska
slappas
okning
underjordisk
pira
wimb
##asser
rech
egg
startar
##otsel
miami
komplett
##ymnasiet
zingiberaceae
forflut
koster
##rei
##agra
##attack
resen
habsburg
nabat
bristande
bung
##vinn
##44
arige
spik
##ocus
bouc
theater
tals
aphis
handbollsspelare
exakta
##stjanster
http
pien
pup
##hum
##yman
##etra
##inette
kallare
grun
##jutant
dang
##utes
caen
organisera
##amiento
registrerades
##shovdingen
pegunungan
wirth
##srorelsen
##oralis
##efj
alskade
placerar
uppratthalla
jamaic
varumarke
cyt
fira
manz
hanarna
##vinkel
luftvarn
falkenbergs
kne
##ogomphus
##ocra
vaxtdelar
planering
praia
casc
##qaa
diskussioner
cib
##atella
##skinn
them
##ious
innsbru
read
luzon
skarm
cykl
judarna
##snamnd
jør
##pora
##alter
dodar
buyu
utgavor
stammen
1756
lysande
allvarlig
ankomst
##lekar
##genom
##ampor
kyrkorna
dagars
117
##utta
##anthaceae
skadespelerskan
tetrast
cykli
progreso
underhallning
muskel
katrineholm
##nophila
##orff
termer
marco
radcliffe
montg
##forvaltningen
kud
##jou
##olaimus
golvet
springs
##orhina
inblandning
kampanjen
giro
##iterna
##aror
##astus
somers
##isan
musa
ledarna
##hira
livets
larry
burton
##gorande
holmgren
ornament
videvaxter
botaniska
luke
crawford
samverkan
bakf
martens
##hurst
fackel
biografen
yok
forvir
##illera
mahm
##yggnader
##rikanska
1710
bibeh
ecole
kongelige
dera
sue
daph
##iering
phot
marke
argoviensis
guden
##chaet
rocks
iw
##dans
##asiat
bey
sporten
sydostasien
thyr
akac
virt
lubeck
eagle
cinnam
aou
zod
amata
seglade
depression
humb
mish
atgard
hemer
lacs
merit
##aliserad
vink
##angerska
tjuv
##estershire
tavlings
hydr
##ocybe
pez
ruv
spegel
ats
##achi
robertson
##keley
etapper
##inosus
##rodes
elm
ador
branche
1757
nikolaus
##assistent
##janska
ochth
ortens
flygande
lugn
amanuens
langhornsslandor
khwajah
##np
##udel
agnet
granskning
aktie
rhip
brooklyn
folkt
dokumentarfilm
##oribates
kriv
teb
##glas
manner
##imba
##hane
redskap
tacks
samarbetat
##motiv
uppforandet
doukala
boss
##had
##aby
laggas
arbetarna
##svamp
##endomet
makarna
forekomsten
##hawks
nath
##kvarn
##alland
kungar
rakade
1765
arvde
ambassaden
##itara
platan
skapats
ranunkler
inblandad
estan
geb
##inrikt
forstora
smil
segment
justin
dansband
aphel
nicolai
valgorenhet
gubb
##pip
##omod
##ostad
kraften
bilarna
##ezzia
people
trumpet
hughes
##das
chab
berry
kraftverk
heat
hoja
brevet
crotal
sulli
teleskop
choklad
##oment
##icans
sjoberg
polens
101
socialdemokratisk
dixon
slemmaskar
dyra
kata
p1
##cor
##racon
##rath
##undo
##marskalk
klubblag
operor
ign
inspektor
uppskattad
##sbruket
five
##ikten
darvid
tyskar
gevar
kyrkby
##sstraff
##oderus
fysiker
forlagd
dubbelstjarna
antisem
spyflugor
##syk
##raim
foref
##seud
cola
konstfack
impro
bedrevs
##trask
vandrar
botaniker
inredning
floderna
##ikala
sporter
grabrun
sankta
##fakt
##ovaca
##alapa
cheb
1730
borealis
rekommend
##loe
religionen
kourou
wimbled
hering
##eft
elfte
maus
##ynes
mald
##rivna
##alisera
##styrelse
bordten
oavgjort
hisp
##yab
##erc
##staterna
anonym
platygaster
tolkningar
##laddning
shaykh
cune
##ocen
desert
sexuell
bestamdes
gef
##jn
##ambetet
mara
acude
sparas
barg
shire
##oneurus
omsorg
doktorsav
##lum
##inien
##ninge
lech
karleken
prick
ishocke
modernare
##huvuden
animerade
urupp
##ulator
hogstad
mexicana
placerat
reinhard
##ranthes
avslojade
uttryckt
tsch
##bang
tereb
gallm
##lema
willy
elatostema
cement
ekor
##axtart
##sbe
valdeltag
rept
biop
raa
gemen
slip
psalmbok
tic
vaz
##posten
styrkan
unicolor
##apo
##uteri
weimar
##niaux
sektion
europamasterskapet
earth
##gogae
##ovskij
ryske
skadespelarna
gudar
utmarkelse
1695
lakemedels
malcolm
cip
kelt
uber
##jud
natrium
tillfallig
1751
nabben
sondagen
uleaborg
eilema
anopheles
##fos
##edad
##omac
##aming
variet
kopior
albumen
joan
infektion
##yggesteklar
gallmyggesteklar
kof
rul
##jel
##omella
##igona
##issimus
orsakas
byns
jesper
avgransas
##sasongen
##vida
hangar
macle
blackburn
gomph
##rifol
devon
trivial
quercus
europaparlament
bjorneborgs
rijeka
##onot
huvudbyggnad
##ariae
thes
##yles
##ichar
linden
gudda
dorr
skriftliga
promover
vojvod
u21
##inot
##omass
##rediens
##svapen
losningen
brachyp
teoretisk
tennisspelare
mycosphaerellaceae
bysantinska
oga
ubat
##wand
liri
genomgaende
chant
laros
framstalla
vatska
##ascum
safed
crambidae
villeneuve
##passa
##enes
##nay
erg
korrespond
bilderna
upptacka
harads
viktigare
commune
emigrerade
##flickslandor
ryggradslosa
derbidae
mauritius
lart
##ned
##unes
formad
##othecium
forsvarare
avslutad
hacknings
byggnadens
liturg
forklaras
##emonte
utformade
pandan
fienden
ihag
nba
pix
toll
##lona
##rai
albrekt
innehavare
corral
ambete
tunnelbanest
canadon
##اس
##ος
##atura
##rosp
##ysis
missbruk
journalister
trummis
aberg
panth
psamm
arrest
forleden
##smakt
landskamp
forklarades
timmars
canton
volksw
falttag
innsbruck
lest
nk
##singel
##mil
##round
##ejo
extremadura
neptis
nabatiye
mw
uh
##svan
##emens
##rado
blandas
utbilda
valbevar
diaz
katedralen
##frey
##awah
anvandandet
horm
##istexamen
##astraceae
folkomrostning
alvdalens
alster
##ronic
##sbar
##haj
colon
garde
pardosa
##element
helig
desv
##quis
barnbarn
darrehsi
##hrens
iriska
##lakte
anseende
riktig
##resent
traden
filmregissor
rovan
noir
1741
##brytande
certifier
hym
hunnit
md
ringar
wern
yuz
نهر
##rano
##attnet
##otr
sauv
oppnar
colin
husby
rupert
israels
tuberkul
mua
yas
##hos
##orrh
##olle
delat
valda
##aktiva
##hail
organiserad
appel
tillgangar
flickvan
oregel
felt
##sskolan
##landskt
canadi
1755
sakerhets
afrikansk
##amanca
banten
dunc
##uar
##iguren
##ftar
osu
gauld
dramatik
acceptera
nordic
##antor
##yridae
tvaan
hems
##ijon
vecklare
##grunden
variationer
fetbladsvaxtart
aa
mh
##brist
##ᅧᆫ
medea
##rote
##sjost
kaukas
kompakt
mottagare
kib
##jul
varsta
##uler
##ustin
uppflytt
oppning
alexandra
posht
tillgangligt
foresprakare
aterforenades
440
nordk
##ellatus
mellanrum
geologiska
##marks
1764
skilsmassa
clear
lordag
hyllning
boyaca
hood
wolo
##snittet
##sped
byter
kransblomm
myrmec
bundesliga
fia
سف
##jka
##odium
online
begick
fredag
arenden
canc
##amoto
sekret
orientering
dura
hb
tiv
##vere
synes
##ocetus
kaprifol
ulric
toalet
akademisk
uppmanade
hing
kagel
vok
تپ
forson
##versa
##itung
##itao
##match
rubrik
kurdiska
plural
tapetserarbin
tuk
watt
anag
##epis
valuta
vaggen
hockeyallsvenskan
mocamb
ada
fylla
qur
##oriet
avlopp
lich
samlat
##ohistor
bout
kate
levt
eksjo
uppsatser
coquill
dasyhelea
byggnadsminne
burmeister
heders
aurora
seco
cardenas
gastrikland
bologna
watten
##oming
karsch
numret
marten
capensis
euphyia
entreprenor
dalmatien
##born
##befal
starkaste
problemen
igir
kostnader
miz
zir
skoter
spelningar
domar
reflekt
piemonte
djupare
append
eastern
oljemal
coquimbo
lera
##yin
forem
##opros
##eform
janne
kalc
106
eliza
valkand
pachy
marginal
malaysia
skepps
artistnamnet
cove
esh
nunn
sick
solm
##alba
demo
##onslaktet
anthrax
brollopet
forsamlingarna
heinz
bezzi
klim
##mens
##ockerna
##yrkor
##blatt
svante
kostnaden
positioner
enzym
fraccionamiento
baste
reng
##ovan
##orata
sybra
##istern
##sond
##sdam
104
##hemmet
arbetsmarknad
perc
##steck
terry
##atorerna
lennon
domsagas
electric
##onor
##vering
##ygia
parry
atergick
forsoken
oberosterreich
statsvetenskap
##forbundets
##ompanj
keng
##ometer
fodos
aston
caesar
kontinuerligt
sollentuna
tosc
yv
##skada
##odel
##ophry
salta
tonar
##fotboll
brooks
ao
##oya
##grodor
##laus
olje
kredit
gravitation
##duv
##usan
##shar
populark
##prof
glasgow
cou
##perioder
##indiska
##aholm
indirekt
scre
##ighton
##lyft
fargerna
blotdjursart
utlanad
arjep
##gifter
mma
leotiomycetes
helmand
historier
dals
linde
davies
bolivi
forutsatt
gripen
##yllacris
3d
leta
##mitt
##edemokrat
##ungar
filmfestivalen
fasciata
##ocarya
utseendet
siph
##ttjarnen
synen
said
verken
grundaren
##rattor
ansetts
specialiserade
uppgifterna
operativsystem
foljeslagare
schumacher
xian
medhjalp
graz
##oldater
sammansatt
##adougou
week
konsek
forhallandena
skulpturen
jalisco
krut
yal
##sø
##ostemon
##kai
##esti
montes
126
conn
ramon
diplaz
frederic
sheffield
hr
oranger
##fra
##onimo
anap
phryn
##hiro
akvari
skaft
dimashq
verbascum
pueblo
flatidae
جبل
attems
uppbyggnad
soli
anvandaren
sandbin
passade
avlagsna
conference
anspel
##sev
organisationens
schneider
zw
##rull
##eser
##imil
shark
oppositionen
carac
sammanslut
jarnek
arvt
uppfattningen
##kandidat
dylan
eyst
##illar
chav
##obo
grace
dome
duzee
madag
myeon
##ughton
liljeval
krediter
kimitoon
canadiens
##bred
##chium
##elatus
aless
atfolj
api
1670
behandla
modernt
rossi
nodvandiga
siphon
##fark
uppsattningar
granada
regionalt
tjanstgoring
varsin
mega
saltsjob
indelade
lantbrukare
raden
forma
##sere
svensksprakiga
##eves
planerar
##fjorden
tumba
square
siffrorna
niedersachsen
birdlife
rontgen
boktryck
##sett
##trollslandor
##stycken
avslo
anab
mai
frimur
oblong
ouag
##tagit
sacchar
muhammed
anpassade
uppnadde
diplazium
##oway
##ygga
medelst
korsningen
samarbeta
polygala
##fuhrer
##alas
inta
konrad
sverigedemokrat
konsthantverk
##stadion
sexuellt
forenings
longip
juristexamen
##ormstjarnor
1742
robineau
olivier
polypedilum
vitryssland
##gam
regimen
rioja
guern
##anke
metta
samarbetar
##cipen
uppkallat
cordillera
matematiken
manskligheten
benamndes
explo
utfardade
wallenberg
omtyc
ebb
kolm
گرد
avsak
pau
##ojligheter
taq
medlems
parallell
##ographa
##feng
##qiao
genus
taeni
tavlat
godt
massak
castro
1697
roadracing
bistand
overlamnade
betraffande
avslojar
##shuvud
schwein
##kanten
##garn
##yv
##lii
##lies
manip
sigill
glod
##olitan
blu
dagblad
##stallas
storhetstid
oud
qab
##lius
vasterviks
leic
grundande
desvoid
rovaniemi
lent
prata
yus
##bot
##jorn
##issen
##mane
sert
portland
programmen
##hous
##jektiv
forutsattning
omslag
overgavs
##heit
##uppfatt
tage
##sutstallningen
##motorer
forlangde
rekommender
proportion
elektricitet
akacior
##cheh
marm
kabel
tillverkat
murphy
konserten
animerad
ptil
figuren
slidevaxtart
aspekter
talt
##nice
##adda
dao
utova
vastindien
baserades
lovtrad
##latar
catocala
grovt
szepligeti
##iles
sydegeiska
elden
hogskol
badakh
page
##catus
##olatus
##agin
saimen
reed
##vakten
akti
hoya
semat
ideell
flygvap
##kirchen
desvoidy
hare
##alken
anpassa
##annat
slang
##rums
mexic
prestig
airlines
skildring
olycka
hssen
diana
##ochroa
torv
chrarda
aran
##forme
bobby
nationalsocial
guni
##odin
##sbeg
##quen
newcastle
talat
smeknamn
lamarck
malpighiaceae
peloponnesos
cana
krypt
##고
##odo
boa
handerna
europav
nomada
inriktade
aristokrat
konceptet
vanta
##rorelser
draken
gammel
diamond
forbjod
dekoration
lina
tomb
tolf
##ialet
##stycke
##olamp
anita
##riata
pret
abyss
kalan
erhallit
modersmal
bryum
bevarats
illustrerade
fuch
##mez
overta
chas
berkeley
sigrid
tham
raknat
muhl
pulver
mojliggor
hakon
foga
sannolikhet
wrang
##omas
ingemar
hanvisning
##steori
salu
vittnes
vinnande
pigment
##sljus
obad
##gary
carbon
##iriska
ogonblick
skankte
wolff
substantiv
roche
skribent
alten
marl
##lagaren
##ahavs
dodas
##asterskap
standarden
fornm
elektrom
frukten
kilogram
grafiska
forbjudet
fastighets
arhundradet
armstrong
wimbledon
cret
ingmar
gladi
103
sophia
zal
halic
sandningar
##ktorer
speci
martha
grammy
utokade
kreuz
omvandlades
##inx
kanadas
english
saljas
ocotea
bostads
mahren
arauc
thuringen
kogn
داغ
##center
##adjar
stanis
ingangen
##ages
attacker
nordliga
aprost
##ophylax
sonerna
ansikt
ursprunget
##sgraden
vapenhus
spira
##ningsomradet
hemstad
sjalvbet
##ович
strobilanthes
frut
fros
gland
mug
##rain
##ogena
##ellaria
atnj
ungdjur
##oscopus
##makterna
istan
##nil
##tens
##oros
franvaro
##atsu
folkrepubliken
avslutande
labour
romantiska
geck
tillatet
##waz
jamstalld
##ogenys
nybyggda
##pia
##skrav
##udt
ankar
anlander
dean
attond
franken
forsberg
##aternas
kungah
relaterade
gao
specialist
tackta
inrikesminister
##effekter
zin
##cte
somalia
skota
orlov
sapp
##endom
##yphantes
lantbruks
##vasendet
baghlan
baseball
hf
##ryckt
strak
aterut
angest
liknade
croton
atrichopogon
faster
jok
##gerna
sanct
jordbruks
hallning
donau
betydde
matematiska
upplevelser
vinnarna
morrison
larjunge
testamente
mello
##ین
tempor
##auer
sandas
irena
dasineura
lecanor
anordnas
cruc
representanthuset
rydberg
dokumenterade
badakhshan
slit
becc
##samiska
gupta
brasiliensis
valdsamma
uppdelat
nutid
arvidsjaurs
##raska
kvarken
guard
operationer
hajji
fenomenet
pob
##umma
vilnius
guelb
revis
##sdepartementet
steen
prinsessa
##fix
##job
##urensis
aldern
##alth
valfard
##sfil
##chenko
philodendron
kopplas
pragel
stambanan
##ademiens
originalet
##analys
arboga
domkyrko
aen
##jic
ingatt
utat
chara
acer
##burger
purp
colorada
edmonton
revolutionara
tjocka
versailles
utforande
##serier
fortet
faust
ursprungs
kvarlev
longipes
patraffades
mongoliska
kontrollerade
foralskad
##sjukdomar
eklund
xiph
##otisk
konstaterade
markerade
friese
beteckna
kilo
reserver
nassjo
betalade
hohhot
binder
cima
starter
##entomon
glomer
calgary
stammer
proteiner
cesjma
wuhan
narkotik
leksands
##fara
perp
##imidae
amanda
smid
tech
palomar
##litis
gudde
##enosia
battle
bevak
ogonflugor
upphovsman
anisodes
insignis
justitieminister
bygd
mens
##malet
##ikomm
asikt
madame
munch
berattas
teoretiska
finansiering
proffs
##olobus
memoarer
porsche
ouagadougou
bian
qor
sung
##eyn
alchemilla
novellen
rej
salamanca
platnick
##jenattslandor
ryssjenattslandor
kopplade
droger
hirs
emiliano
universitetsbibliotek
##charge
pottiaceae
emiratet
##skyi
##otepec
revision
summan
##flygning
morkbrun
vaud
given
##hundar
invandrare
anatomi
komedifilm
bearbetning
slutsatsen
skinkar
##snattslandor
##riter
maiden
ledda
##tals
albumlistan
grevinnan
gynn
gatorna
tilltrade
classic
project
lyg
##boj
##elop
avfall
gloria
1690
straz
poul
etappen
skickar
1743
bonniers
deger
forod
##oven
##givet
malades
##stallare
olga
salix
goth
##sforvalt
udden
mcdonald
danskarna
1754
wallin
municipio
gaborone
wattenwyl
##hna
##anlaggningar
##ocor
paraph
gua
##ragan
obes
##vaggen
macros
kemist
rymdstationen
zanjan
danau
metropolitana
foranled
saudiarabien
bitter
fulla
vs
vick
##inje
##intendent
stones
slass
china
##eham
polyrhachis
##centrus
vasen
hilara
schaffer
hedersledamot
mirabilis
gover
xvi
##stang
##inratt
forli
##ivo
peruv
1630
dagligen
gunilla
grepp
guldog
satir
strander
istanbul
vich
##kk
##rhein
##yuan
##ypha
stir
provinsi
glam
benved
hyde
##otrichum
serveras
hildebrand
##kow
##gata
##bing
##stru
nordstrom
##ocyther
demografi
porten
lundell
##sledningen
jobba
ventil
modellerna
redigerade
bordtennis
vl
arens
##seius
delavrinningsomradet
socialist
anfallare
##smusik
kollaps
guldogonslandor
lour
##adir
inforande
##ningsm
tvahjartbladiga
diels
rhag
selag
1658
bristol
patt
##skort
##000
exek
##meier
azur
uppskattats
obadiah
arte
forss
stok
##ody
sigtuna
forstorde
nystrom
stadsdistrikt
avancerad
aprostocetus
core
vorp
stuck
##angensis
##oplist
harbour
berglund
##essus
brass
doma
##evangel
stalls
##utvecklingen
telek
publicera
##stidning
##ospila
mangfotingar
amphip
schlesien
celestin
##77
##lecta
alperna
roms
##evich
forlora
slovak
grottor
##opleura
puccin
fou
faw
flygning
rosario
munnen
avvikande
enrico
mits
##pjas
##elan
##iculatum
cold
vinyl
tecknings
viridis
roten
garnis
seyy
araliavaxtart
hylaeus
aul
##entia
##ochir
unikt
sido
kompetens
paverkad
chiqu
avdelningar
rankades
##ievich
olaus
pristim
somerset
##orte
utvarder
platta
flygpl
kvinno
suver
observerats
##bostader
hinter
##politiska
pyrenees
after
##bage
##enidae
##sace
##irig
##assor
##izhou
praktik
framgangarna
lithobius
brutit
cogniaux
##tagen
##idos
forstaelse
stadsdelar
standiga
jarfalla
klockor
restaurangen
ericson
mobilis
dopt
misslyckade
elektroniska
eriocaulon
##ljunga
fide
jeffer
##ssa
lovade
revol
danskt
hirsut
saarijarvi
cs
absid
riksdaler
varnamo
ush
##styrkan
##otia
annons
##upaten
blyg
bakkropp
##erty
gustavs
steel
klippor
##otricha
nevada
griffith
ia
osh
foraren
sphen
##forlust
forsikt
##ografen
kabupaten
konsumt
dimens
rankade
grisebach
##avuori
tunisien
bann
##ysen
kvist
bernad
apor
##wait
agn
##handlingar
gory
aktorer
ltd
ivrig
1746
fiende
lerr
anatom
braunsch
##liber
##skaja
##rigaden
jamna
religioner
statssekreterare
1648
konferensen
fowler
##anfall
##udia
##itivt
riz
coach
##ofera
concep
komprom
christoffer
olofsson
cylinder
utrustad
##elig
haven
namngavs
nagy
##ourea
##ochlor
##ative
semester
bracke
etablerat
celastraceae
stephens
meijer
sion
armar
##igia
landsvagen
##oku
ceremoni
comics
arrangerar
musikalisk
academie
##dron
##trafiken
##omgangen
harms
##redningen
coni
moderns
microt
rostock
pteridaceae
raddade
tillatna
overgrepp
ytor
##agos
papa
sanktes
ponte
##yreus
protestantiska
liljevalchs
nach
oklar
##cott
##etaget
norrmalm
riktad
edition
arkitekterna
fredriks
forlorar
mordad
gastspel
uppratta
jennifer
##qat
##ribut
##delarna
snabbaste
##peditionen
greda
selaginella
nus
side
##lops
##nisk
##gest
##skod
forbruk
kallorna
uppdat
austur
##aliseras
generalen
inledningen
econom
auf
espi
yi
##32
##union
manfred
##ruta
efternamnet
floren
radande
radikal
trot
macroph
glasbruk
hohen
africana
improvis
flygvapnets
##sklassen
intakt
tv3
sjalland
glenn
##varu
##atorium
revy
greven
yngste
forlaga
jarnvagsstationen
sors
##ил
prox
salong
femma
tavlor
##amaa
##sgrupper
bladmossor
beslutar
##styrelsens
therese
astronomerna
asta
##rillo
##وز
forstas
globe
satyrus
essen
giord
contin
##smetod
tillkannagav
drin
ifall
arft
##odis
##acanth
##rididae
acceler
balan
vicegu
motorcykel
peperom
sjogren
pug
yah
##kla
##bay
##иц
arstid
##elium
unic
##ansas
arbetark
lampliga
kvarnen
astronomi
gregory
wig
##wala
exteri
magna
loft
bortsett
fursten
1748
knappast
chopard
anmarknings
kek
sila
##ikov
##ruktor
##ashtra
gais
kohl
stromm
jamforas
rapporterades
sjalvbiografi
pietro
##fvud
myll
##tob
tillhanda
##senhet
chester
##spet
mathias
##aliseringen
##boy
monticola
##here
rundbladloppor
belagring
ardabil
zamora
falkenberg
jorgen
nationalekonomi
miljopart
##onc
kraftigare
##sfartyg
comps
selma
##flodet
combret
jungfrulinsvaxter
braunschweig
gans
##ات
##ilon
##ogin
livs
lampligt
margin
pitch
cyperus
gregorianska
trelleborg
liaoning
symboliserar
adoretus
pink
klang
riksforbund
price
krigsslutet
pastod
inkluderas
aristot
hei
##ikat
##ovar
##ovning
namnsdag
gerard
##orkest
engelsmannen
fordrag
kirch
billigare
initiativet
oforand
bretonon
##seln
##mad
##alistiska
##onum
##smalt
professur
tarap
religiost
skulptoren
morpho
vorpommern
utbrots
musc
hallit
portrat
grova
hojdhopp
mordade
##backa
komponerad
konventionen
robotar
kalimantan
satan
tral
ames
lasare
prep
debatter
ghost
philippi
anlitades
polystichum
tula
woman
##langd
huvudtranare
laut
##ymo
##gorit
vetenskapen
flygplanen
1747
givits
patraffas
bjorkman
oxenstierna
crotalaria
bien
##gast
##он
forhopp
##sned
##snummer
slaver
##vaxling
##occ
parning
formatet
pseudoph
odlor
skede
sahara
shakespeares
maharashtra
ups
##31
chou
##show
calder
hercostomus
bryan
dragit
logotyp
pitca
motivet
psykiska
melodier
videvaxtart
##sjukhus
##icaria
##acantha
##romia
##uyeh
##jamt
molekyler
gne
ikon
kogae
pga
##hojden
##fog
##landia
punjab
##slund
abort
fuente
dm
esta
leng
##grop
aron
##onder
stanga
##islav
parva
##stallen
phan
blogg
aktuell
flyttats
##istansen
kroppar
midd
1734
overvak
cili
zhen
##zd
##ktjarnen
decharge
utvalda
lepp
katastro
rodd
tenderar
yngve
palace
hierark
forsvarsmaktens
montgomer
peperomior
nice
sie
omar
##udal
##arion
schloss
geer
albansk
anderna
lyfta
arkebiskopen
mosslummer
تپه
osman
osaker
delic
cerop
domb
##izi
kortvar
studerar
sumat
1709
regleras
kejsarens
morton
##fodd
yongan
invanarantalet
cels
##pann
##ckel
planeter
ultra
inspekt
lukas
dworak
nyb
1721
odlade
skivkontrakt
estlands
tamer
##olitiska
mauritz
##palatset
farl
irid
tars
##vala
##zt
##ullia
##istis
hauk
raut
##iosus
##avaara
hawk
sjalvbetit
dworakowska
gug
osv
##xor
forgift
##ulna
terra
motstandet
poster
trophy
utnyttjas
cis
ramm
##xe
##orca
##atl
fororter
storstadsregionen
##lasare
lindes
westf
utarbetade
farkosten
hac
##ojarvi
adjunkt
##isso
bros
madele
khosh
sangar
illus
styret
skyddat
algebra
##strommen
##oblatta
ohaus
nationale
tarm
fusca
extrema
springer
hala
##ipus
shak
rykt
1752
antarct
##uum
##arov
##liche
##steorin
haz
bosattning
begransas
hadena
##landskap
namnand
novi
gemenskap
army
porta
betrakta
##ositioner
mocambique
bick
rath
##inf
##chu
##idor
##vera
than
laj
tayg
olsen
gudarna
magnif
suffolk
calais
volkswagen
tamm
##roda
darya
##ahn
scal
##ontia
##skars
kantbrakenvaxtart
udda
arkitekturen
bortom
##undervisning
##sskild
strukturer
initiativtagare
tuberkulos
##اش
##ری
##emet
genomfors
##uey
spont
tvangs
toppade
buz
##ledet
torsby
tranade
hotet
hirsch
atlantic
elaeocarpus
bingham
##myror
##ontal
vaxell
eftermid
##icaulis
link
##ection
evangelisk
##iu
milli
efterlamnade
##obus
boter
tree
teuch
barnbok
angar
capital
azte
resulterar
##skivor
aska
dhora
nm
pli
##myr
##roskop
have
chall
efterleden
petr
lycka
druv
lattvikt
##illverkning
raddning
konstruerades
##orylas
iph
solit
husar
##porten
botry
1753
thorell
forelas
barbro
neuquen
regionens
branta
dispar
##loo
miranda
intraffar
##idula
elvis
##uben
annie
bjørn
rockgruppen
##adores
pyrg
esm
zink
##tim
avsk
##opi
thy
mona
muir
skarpa
##ignon
arkitekton
golestan
vasby
minoritets
annekt
utformningen
##rur
##tade
arri
uppskjut
##antrop
flyr
##oceras
katastrof
##onycha
beslaktade
assyriska
harstammade
lass
##illac
lif
nordst
##rine
annika
guide
taube
medlemmen
levererade
fullstandiga
defens
pajala
riley
##huv
platserna
gruppspel
hedemora
essex
papyrus
kartan
spanning
vantar
##ryggan
pickard
##kammare
hash
khe
pf
zum
##andar
##drakten
##sjuka
macdonald
pedicularis
filosofen
vasilj
dietrich
stina
##illea
terre
spelarkarriar
filial
bravo
radsla
##quer
##sektionen
skogsbygd
lenin
satsade
marshalloarna
##frekv
cern
hugg
ica
##sad
##bring
storningar
orterna
vernon
pole
tranga
forlades
falska
stabilis
patriark
austurland
cc
krys
nemat
##aver
glypta
finsp
1620
##versioner
organiserades
duncan
##dos
##acula
##sonering
motsatta
##malning
stamfader
betraktar
multi
kommentarer
aim
sør
##este
##arab
##ordia
lisson
kalleh
##icty
##ropha
djel
skulder
hitch
khaneh
linjerna
roosev
coquillett
feld
jubileum
##strang
##onden
uppforda
villi
neville
##ledningen
luf
##ogenheter
astrona
festuca
##modell
sans
##natur
##rash
ommat
##actus
talrika
vitaktig
##idiaceae
paula
kanten
chich
eftermale
vattenpol
distrikten
##veckan
formell
ljusk
carab
##eltak
glid
##aloa
insamling
avbrott
overdriv
phal
kungsbacka
raknade
hole
auto
titelrollen
extremiteter
vantade
timbuktu
##baz
##elagen
##epid
##ocampa
studien
fotografi
cauc
fornborg
kvartsfinalen
jungfrulinsvaxtart
##process
##æl
##eker
##lins
nationernas
##evac
##alesis
##hattis
##inspelning
##graden
##brid
uteb
flens
nykom
larver
doft
##eriella
sattas
prestand
rattvisa
universiteten
ramos
skolorna
informationen
spektrum
strategi
benvedsvaxtart
bemann
juk
varelser
##odina
##ohn
moran
melin
124
magiska
duett
koper
trift
casas
##foreningens
citat
indikerar
omvaldes
460
##opla
kanter
chhattis
delstaterna
##isset
phrag
forsedda
##ussi
##aljer
draudt
beskrivit
matti
waw
##hla
##tila
##orid
sanningen
korv
forsvarsomrade
belagt
elimin
tjar
yao
##amet
##esc
pero
##icism
##ffaren
phen
statyn
tungt
phaen
punctata
indigofera
##sing
##itarsis
##shel
malningarna
andlig
troja
##mastar
bruins
jeronimo
mycalesis
bottenvaningen
granserna
intilliggande
gertrud
##sfaglar
480
nadi
potter
##buch
arcu
nordsjon
salmon
##stedts
nephrotoma
upptradande
dukt
ibrahim
##sign
##eptor
##sprocessen
##enau
ansokte
tanytarsus
##planet
##phaer
identisk
flash
##fartyget
dodsfall
ying
slalom
laroverket
passage
brez
ungdomsforbund
hackspett
fardas
stavning
corner
bozorg
arbetsloshet
chhattisgarh
hellen
##rura
##stead
##efin
eftert
##ningssystem
##intla
116
gronsaker
##sidor
haradet
hjalte
hultsf
kannedom
gebel
uvar
##yensis
##radio
lagring
bouv
##ceum
styrande
fullangd
diapher
hasse
##muller
julie
musikt
seven
tranings
definitionen
owen
##لاغ
laurence
cah
##mir
##onychus
##odexia
##estus
##ehov
adopter
astur
idrottsforening
uppfod
uppfyll
intellektuella
kalcium
470
pru
##رم
lagst
##svara
sonic
vinsten
##sforfatt
mandag
effektiva
jamnt
mullbarsvaxter
##skjold
##jae
meng
osterrikes
rikaste
##tysk
militark
sapotaceae
boxare
cia
##vins
buena
diast
##sfield
kamera
nedgang
professorn
tetrac
##ebook
1718
susan
factor
##lystis
flames
##roxim
overvintrar
tolfte
tux
##anol
lieb
beqaa
##annas
timra
lundstrom
##olophus
##skollegium
prestigef
ekar
##tavling
##straff
installning
##termin
##umman
##lerna
##kaus
##ubel
blandad
##shu
##rotter
##toni
clus
kulturhistoriska
trident
esbo
gari
overgav
chock
vastervik
dodsstraff
schaf
reyes
histori
102
hamna
funna
ackompanj
angelagen
serpent
##atula
apicalis
##icht
assam
kladd
##matchen
donerade
##losningen
bemb
wet
##omera
##ishi
##ishan
##imper
acrol
dalgang
such
potat
bolb
##skommitte
##speriod
arna
##chester
##forstor
##hallus
honung
musikgrupp
stilett
minoritet
##familjer
auktion
investeringar
technology
##lunda
forhor
uppsatt
uppkommer
blixt
##ycter
greene
madison
segling
##inervis
kaktusvaxtart
sheykh
riva
##atea
fornamn
##ovec
##aray
hendel
##mins
garanter
kategoriseras
rattvis
motta
##omeridae
overgripande
dusona
jorge
vaj
##allia
omvax
omrostning
##ningham
##minster
sega
rect
parishen
1675
concepcion
lotus
##gula
##ylidae
##allo
deux
taip
turt
iles
gravhog
altaret
folkmun
##jamte
cinc
##wu
##raria
##horasan
##slokaler
##staller
cordon
bekraftades
infanteriet
tortyr
pipranke
lydde
##amiska
ingrediens
##otin
mahal
parvi
ture
kungalv
rhomb
##yoarna
irwin
##personal
candel
kommunistpartiet
ning
sean
##kens
avesta
##rimer
perm
motverka
short
wiener
amaz
forvantas
silvestri
##inta
omrostningen
atp
##thal
##engren
barnens
bildande
skrivits
kamrat
eleph
peaks
fiol
gully
fyrkant
yuzhong
lada
##gud
##dubbelfotingar
##asjarvi
coenosia
melichar
alltjamt
pavis
1745
organiska
hippol
valenc
lorenz
omslaget
##rania
##octen
grym
donation
##ozo
##sekonom
anordnade
##lara
##rensis
allende
monc
##hipp
flygel
arkansas
fagels
murcia
mastaren
ricardo
redaktionen
kragglanssteklar
##regementets
igor
qe
##keh
##klipp
##akra
overhuvud
mayo
agarna
oppnas
formeln
markgrev
kungligt
##elmo
priori
mikhail
##grupperna
variabler
coenonympha
biopremiar
westfalen
##agromyza
dell
regina
##iron
##pina
##jans
##verktyg
perrier
glypt
##ynski
fodde
delstater
##romus
meridion
belize
hypot
hartman
karaktaris
beraknades
parterna
##lap
##smans
##ulariidae
samsta
amalia
##slogs
skogsbruk
lamnas
tetranychidae
ulricehamn
frem
kontakten
slots
excent
##ahua
poliser
intervall
reflex
agerade
centerpartiet
elektronik
rajast
lanaudiere
pour
##cil
##ulco
milton
##skogs
gress
emm
ove
114
epok
kaptenen
rugby
avvecklas
cotes
ilex
vries
##uq
##bomb
##olica
barnard
musikstil
palmar
nedsatt
forlusten
programm
rumanska
##emataceae
weiss
webbplatsen
pristimantis
##95
##chos
##ovsky
neom
engine
gardner
uppfyller
##splaner
violvaxter
femtio
rurale
kustartilleri
erot
sif
wight
yek
##anea
gletscher
nyhets
leech
malat
##sert
kungsholmen
pendeltag
##blommor
militard
massor
1644
nebraska
##opetalum
bryggeri
##inspektor
##ipalpis
forsorja
letter
stel
storh
bokens
pojken
boeing
galileo
metaphycus
sune
##ocyc
##ryss
cool
intrade
##beslakt
sergej
noggrann
wacht
zimmer
forfal
calig
alfons
vasentligt
skottar
hartmann
utrikesdepartementet
godkannande
kodra
##kategor
boisduv
systrarna
nashville
family
trelleborgs
jattekackerlackor
sullivan
##khan
##xas
##adu
sluten
personalen
garonne
flygbolag
constan
come
characidae
##hasten
betalning
##ranthus
patricia
##forbindelse
##etala
##edlar
forse
underg
chae
##visnings
baillon
heden
##brunn
borgmastaren
signaler
##sserien
keh
vella
tidningarna
schl
karleby
collect
take
elix
dvargsteklar
jeanne
##nu
##inz
##oly
stram
sincla
##ocol
morfar
intogs
allah
pseudob
pontus
servic
hispan
eudorylas
nottingham
##evangeliet
forelasare
fej
##wil
##strim
##asar
tillsattes
sanskrit
kvinnans
moderat
stodjer
##sforetag
##uosa
sjoss
befall
##aldo
krokoms
systems
oxyp
##sjoan
##jutning
##monument
studenterna
sevardheter
dorn
esb
gim
##inat
overra
##taine
vastvarlden
##rede
turc
pascoe
1645
clubiona
##ekonomi
antoinette
statskupp
miniatyr
qer
##ikte
##allas
utmarker
uppforande
##eksam
svet
onych
platina
potam
regisserat
##kost
##lif
##icon
##exp
carm
collin
konstitutionen
absoluta
lisp
oversta
##beth
##ropogon
##ifi
verksamt
operationen
##kallade
##argia
copelatus
uppskattades
##blomster
helikopt
rally
rekonstru
fynden
geh
##fia
##iset
hoseyn
klassas
swartz
##likation
bibliotekarie
kassel
phyllachoraceae
##حم
urt
tranaren
louv
martius
raser
fornuft
1733
cremat
##sagaren
1723
marge
##obyl
##obezzia
saj
##utte
##cismen
huber
1634
kritiserats
auktoriteter
fact
exam
eure
##schi
starr
fyller
diktsamlingen
knutsson
golfklubb
fangslades
##ilinea
##roides
##bern
prova
##ymmet
##natha
warwick
strackor
undantaget
mullvad
dryopteris
krims
librett
nordkhorasan
gate
kampar
trik
##ambo
##erbar
##sonii
parodi
gulakt
##oider
refererar
gruvan
##skillnad
aterkommer
##fan
##од
slap
beskick
##ubi
##svill
domd
sagitt
vidareutveck
kostym
ornit
aterkomsten
bevattning
##ahavsregionen
##idar
##icke
maw
##esthes
kladda
forsvarsminister
##chaeta
langtjarnen
##forfattaren
dahlberg
nickel
gurkvaxter
vimm
yon
##nalen
##ranschen
skra
godfrey
moderaterna
niels
setts
pictur
soloartist
##arne
##adium
narbeslakt
studenten
##opeza
mantidae
##aregionen
maranhao
crematogaster
##artad
##idningar
##spitz
kupp
##florus
##oldt
fasader
approxim
dopf
arkeolog
prosop
koordinaterna
utkanten
brakvedsvaxter
joc
nuc
niz
otal
##core
insam
guine
ogill
firmin
kavalleriet
dahlgren
vikingatiden
mour
riktar
rodahavsregionen
florid
bevarande
middag
uppskattningsvis
tingslaget
skildras
##optila
kollega
muaskar
##fond
##onii
##osan
##eboda
coul
inledning
bols
aterupptogs
inbordes
##omysis
byten
##gitarr
kulsprut
overraskande
##heh
##bata
##ید
##ilius
##ikapp
##okning
need
repris
##sektion
romar
pseudon
stjarnbild
tigre
vrv
##oia
brag
markerar
bure
kronikor
galium
symbolis
erkanner
bevisa
reportage
qesh
##riller
##ilab
##skand
sommer
elb
bildning
konfeder
blanche
cyclop
f1
fug
spitze
##adern
boer
vasas
kastade
privatpersoner
inspirerades
madeleine
forward
underst
soj
tvaarskontrakt
wallich
utbildningar
##htar
meddelande
hunden
##opelma
pieni
nand
qatar
##mac
##ught
dagligt
rockband
getingart
ade
##cre
##unen
genomfort
##slang
boot
bostadsomrade
illeg
arrangera
##produktionen
skjuter
##ocryptus
ochthebius
hyra
##iq
##anch
forandra
##sprang
##ther
trout
roddt
petrol
hastigheten
##brook
tamar
lillan
cyg
right
tipp
yale
train
##istra
##ningssatt
then
motors
kato
hotas
disksvampar
reticulata
nazistiska
tapah
##backslandor
havsspind
atmosfaren
rackvidd
offensiv
##arrang
chiri
augustin
smugg
professors
snapp
rapporten
wyoming
qalaat
diapheromeridae
vimmerby
havsspindelart
ceb
yuan
##gin
##akk
##steins
harsy
hamadan
patryck
bjod
noel
recension
ramire
paverkat
parlamentsvalet
forvaltningen
##ooue
##omoea
laev
inkomster
genrer
slas
##adah
shannon
valkom
cooke
klump
regionerna
##trada
kvalspel
##jenko
mastarna
psykologiska
flava
registrering
forbindelseb
klaus
undertecknade
bokforlag
##او
paepal
underfamiljen
harader
centrale
happ
geologi
konstforenings
edith
##aceus
tavaste
kulturellt
skaffade
viceguvernor
harsyrev
freg
misk
##bant
avt
##fei
alsace
##imore
solokar
##sforhall
reproducerar
type
krakow
ordforanden
tamerlan
eis
tama
##varie
##udin
##foremal
uppkomst
##owicz
##hania
sagor
halvbror
##aphes
eventuell
sphec
qazvin
kuli
##unas
##olensis
##otyper
matas
##klotet
triangel
ogooue
rorels
fallit
##prise
genomforas
zetterstedt
qezel
omvaxlande
##38
##innet
##smith
##oset
kommund
norskt
matlag
vagnen
fangs
##benen
inspelningarna
broms
leafs
dateras
privilegier
slutgiltiga
tavastehus
pid
##lib
skept
##obot
koma
campos
##sidig
megap
groddjur
katoliker
##ска
##omantis
uppbyggd
dios
ljusn
riksdags
deriv
castor
samlingarna
copt
##انی
fyllt
materiel
neutron
fjardedel
##agasinet
jessica
rajasthan
gash
##puts
arhus
##rew
##ueva
stravan
##meria
ers
fisken
spiror
kick
kasta
lol
##yos
##oscia
sokt
koranen
intelligens
breg
pana
pey
zang
##gp
##jeg
##etal
##hetis
martini
framgangen
beslutat
pastas
##ensee
hardare
berakningar
chorebus
bryts
ignaz
geckood
##arag
pren
stadshus
verklig
##vardet
avsnitten
yttrande
randall
pusilla
##smodell
endemisk
biobio
performan
bia
kesh
##fish
##eling
##skel
##soma
##othea
rauno
##rovia
utomjord
stavat
klippa
##iverna
skildrade
stangde
siffran
##ifikat
propaganda
fik
##gui
##vallen
##ilep
##osteg
lagg
smithi
larling
vetenskapsak
uppmarksam
##splanen
sunne
godkande
landstig
boisduval
paepalanthus
infaller
avila
##iserande
##leura
##ankar
##ricola
moderata
jarnalder
##rogaster
##mouth
glaci
doctor
pett
sell
##wara
##president
##bridge
##orio
##edals
##elii
##eplatsen
brent
fodelsen
atervant
andam
##marknaden
flygbas
##sfast
office
##hamns
bekann
ansvariga
popularaste
##kammar
kontroversiella
tryp
vana
##nationen
##hman
##inationer
aby
##skarð
##ystis
flask
todd
allehanda
suttit
fiat
tuv
##yard
enkoping
varna
anse
conv
kraftfull
##bertia
kulturhistoriskt
rudbeck
##huggare
tetramorium
cix
pie
pei
##skilja
##itata
##ationens
sinensis
indiens
agnat
massmed
##stidens
framfora
plaine
##makare
ornata
medvetet
##spolitiken
بر
##bagge
ell
neos
clype
whisk
fabod
cayo
discover
tt
##uik
##uya
##andras
##formar
##betyg
iranska
mech
renod
##kallades
undersokte
uppdelade
bourbon
framtrader
cunningham
tjeckoslovak
##snappare
##ogu
berm
borough
malung
brahm
##isslaktet
##thy
larven
##harmon
planina
rujm
velut
artistnamn
falttaget
##mekan
##behandling
##jong
cheval
##sgransen
candido
tittar
linsley
hudiksvalls
tvivel
glouc
dopfunt
fisch
##jeb
iner
peril
##lagar
utbygg
erhalla
##ours
128
##itution
batman
forandrats
schoen
forestallning
candida
pubescens
##smaskiner
myd
tillvar
deport
##okument
grab
bredmun
seym
matte
morda
ossian
mullbarsvaxtart
petrovich
bredmunsflugor
##geb
##erov
##riper
##otum
##efer
chis
##ieras
karak
varmblod
fargade
staur
##mynt
unescos
geschichte
roddtavlingarna
puli
##weg
##atom
##amed
##aven
sjov
##rone
##entera
roz
gardie
naringslivet
##lokal
##storget
assa
##klader
parten
tavlan
vetenskapsman
##smatchen
bekostnad
##illard
##berland
sakkunnig
##ellis
myz
##kommitten
betydelser
tjeckisk
fungerande
erkand
##smotet
cannes
vanersborg
kostermans
##efiskar
##oci
nyupp
sanning
biologi
balogh
##iyang
takah
valdsam
botkyrka
diktsamling
1744
senators
belysning
biltillverkaren
kretsen
tern
##ectus
snorre
munkar
hamnat
betraktade
engelskans
##spartner
ephraim
[...]
