[PAD]
[unused0]
[unused1]
[unused2]
[unused3]
[unused4]
[unused5]
[unused6]
[unused7]
[unused8]
[unused9]
[unused10]
[unused11]
[unused12]
[unused13]
[unused14]
[unused15]
[unused16]
[unused17]
[unused18]
[unused19]
[unused20]
[unused21]
[unused22]
[unused23]
[unused24]
[unused25]
[unused26]
[unused27]
[unused28]
[unused29]
[unused30]
[unused31]
[unused32]
[unused33]
[unused34]
[unused35]
[unused36]
[unused37]
[unused38]
[unused39]
[unused40]
[unused41]
[unused42]
[unused43]
[unused44]
[unused45]
[unused46]
[unused47]
[unused48]
[unused49]
[unused50]
[unused51]
[unused52]
[unused53]
[unused54]
[unused55]
[unused56]
[unused57]
[unused58]
[unused59]
[unused60]
[unused61]
[unused62]
[unused63]
[unused64]
[unused65]
[unused66]
[unused67]
[unused68]
[unused69]
[unused70]
[unused71]
[unused72]
[unused73]
[unused74]
[unused75]
[unused76]
[unused77]
[unused78]
[unused79]
[unused80]
[unused81]
[unused82]
[unused83]
[unused84]
[unused85]
[unused86]
[unused87]
[unused88]
[unused89]
[unused90]
[unused91]
[unused92]
[unused93]
[unused94]
[unused95]
[unused96]
[unused97]
[unused98]
[unused99]
[unused100]
[unused101]
[unused102]
[unused103]
[unused104]
[unused105]
[unused106]
[unused107]
[unused108]
[unused109]
[unused110]
[unused111]
[unused112]
[unused113]
[unused114]
[unused115]
[unused116]
[unused117]
[unused118]
[unused119]
[unused120]
[unused121]
[unused122]
[unused123]
[unused124]
[unused125]
[unused126]
[unused127]
[unused128]
[unused129]
[unused130]
[unused131]
[unused132]
[unused133]
[unused134]
[unused135]
[unused136]
[unused137]
[unused138]
[unused139]
[unused140]
[unused141]
[unused142]
[unused143]
[unused144]
[unused145]
[unused146]
[unused147]
[unused148]
[unused149]
[unused150]
[unused151]
[unused152]
[unused153]
[unused154]
[unused155]
[unused156]
[unused157]
[unused158]
[unused159]
[unused160]
[unused161]
[unused162]
[unused163]
[unused164]
[unused165]
[unused166]
[unused167]
[unused168]
[unused169]
[unused170]
[unused171]
[unused172]
[unused173]
[unused174]
[unused175]
[unused176]
[unused177]
[unused178]
[unused179]
[unused180]
[unused181]
[unused182]
[unused183]
[unused184]
[unused185]
[unused186]
[unused187]
[unused188]
[unused189]
[unused190]
[unused191]
[unused192]
[unused193]
[unused194]
[unused195]
[unused196]
[unused197]
[unused198]
[unused199]
[unused200]
[unused201]
[unused202]
[unused203]
[unused204]
[unused205]
[unused206]
[unused207]
[unused208]
[unused209]
[unused210]
[unused211]
[unused212]
[unused213]
[unused214]
[unused215]
[unused216]
[unused217]
[unused218]
[unused219]
[unused220]
[unused221]
[unused222]
[unused223]
[unused224]
[unused225]
[unused226]
[unused227]
[unused228]
[unused229]
[unused230]
[unused231]
[unused232]
[unused233]
[unused234]
[unused235]
[unused236]
[unused237]
[unused238]
[unused239]
[unused240]
[unused241]
[unused242]
[unused243]
[unused244]
[unused245]
[unused246]
[unused247]
[unused248]
[unused249]
[unused250]
[unused251]
[unused252]
[unused253]
[unused254]
[unused255]
[unused256]
[unused257]
[unused258]
[unused259]
[unused260]
[unused261]
[unused262]
[unused263]
[unused264]
[unused265]
[unused266]
[unused267]
[unused268]
[unused269]
[unused270]
[unused271]
[unused272]
[unused273]
[unused274]
[unused275]
[unused276]
[unused277]
[unused278]
[unused279]
[unused280]
[unused281]
[unused282]
[unused283]
[unused284]
[unused285]
[unused286]
[unused287]
[unused288]
[unused289]
[unused290]
[unused291]
[unused292]
[unused293]
[unused294]
[unused295]
[unused296]
[unused297]
[unused298]
[unused299]
[unused300]
[unused301]
[unused302]
[unused303]
[unused304]
[unused305]
[unused306]
[unused307]
[unused308]
[unused309]
[unused310]
[unused311]
[unused312]
[unused313]
[unused314]
[unused315]
[unused316]
[unused317]
[unused318]
[unused319]
[unused320]
[unused321]
[unused322]
[unused323]
[unused324]
[unused325]
[unused326]
[unused327]
[unused328]
[unused329]
[unused330]
[unused331]
[unused332]
[unused333]
[unused334]
[unused335]
[unused336]
[unused337]
[unused338]
[unused339]
[unused340]
[unused341]
[unused342]
[unused343]
[unused344]
[unused345]
[unused346]
[unused347]
[unused348]
[unused349]
[unused350]
[unused351]
[unused352]
[unused353]
[unused354]
[unused355]
[unused356]
[unused357]
[unused358]
[unused359]
[unused360]
[unused361]
[unused362]
[unused363]
[unused364]
[unused365]
[unused366]
[unused367]
[unused368]
[unused369]
[unused370]
[unused371]
[unused372]
[unused373]
[unused374]
[unused375]
[unused376]
[unused377]
[unused378]
[unused379]
[unused380]
[unused381]
[unused382]
[unused383]
[unused384]
[unused385]
[unused386]
[unused387]
[unused388]
[unused389]
[unused390]
[unused391]
[unused392]
[unused393]
[unused394]
[unused395]
[unused396]
[unused397]
[unused398]
[unused399]
[unused400]
[unused401]
[unused402]
[unused403]
[unused404]
[unused405]
[unused406]
[unused407]
[unused408]
[unused409]
[unused410]
[unused411]
[unused412]
[unused413]
[unused414]
[unused415]
[unused416]
[unused417]
[unused418]
[unused419]
[unused420]
[unused421]
[unused422]
[unused423]
[unused424]
[unused425]
[unused426]
[unused427]
[unused428]
[unused429]
[unused430]
[unused431]
[unused432]
[unused433]
[unused434]
[unused435]
[unused436]
[unused437]
[unused438]
[unused439]
[unused440]
[unused441]
[unused442]
[unused443]
[unused444]
[unused445]
[unused446]
[unused447]
[unused448]
[unused449]
[unused450]
[unused451]
[unused452]
[unused453]
[unused454]
[unused455]
[unused456]
[unused457]
[unused458]
[unused459]
[unused460]
[unused461]
[unused462]
[unused463]
[unused464]
[unused465]
[unused466]
[unused467]
[unused468]
[unused469]
[unused470]
[unused471]
[unused472]
[unused473]
[unused474]
[unused475]
[unused476]
[unused477]
[unused478]
[unused479]
[unused480]
[unused481]
[unused482]
[unused483]
[unused484]
[unused485]
[unused486]
[unused487]
[unused488]
[unused489]
[unused490]
[unused491]
[unused492]
[unused493]
[unused494]
[unused495]
[unused496]
[unused497]
[unused498]
[unused499]
[unused500]
[unused501]
[unused502]
[unused503]
[unused504]
[unused505]
[unused506]
[unused507]
[unused508]
[unused509]
[unused510]
[unused511]
[unused512]
[unused513]
[unused514]
[unused515]
[unused516]
[unused517]
[unused518]
[unused519]
[unused520]
[unused521]
[unused522]
[unused523]
[unused524]
[unused525]
[unused526]
[unused527]
[unused528]
[unused529]
[unused530]
[unused531]
[unused532]
[unused533]
[unused534]
[unused535]
[unused536]
[unused537]
[unused538]
[unused539]
[unused540]
[unused541]
[unused542]
[unused543]
[unused544]
[unused545]
[unused546]
[unused547]
[unused548]
[unused549]
[unused550]
[unused551]
[unused552]
[unused553]
[unused554]
[unused555]
[unused556]
[unused557]
[unused558]
[unused559]
[unused560]
[unused561]
[unused562]
[unused563]
[unused564]
[unused565]
[unused566]
[unused567]
[unused568]
[unused569]
[unused570]
[unused571]
[unused572]
[unused573]
[unused574]
[unused575]
[unused576]
[unused577]
[unused578]
[unused579]
[unused580]
[unused581]
[unused582]
[unused583]
[unused584]
[unused585]
[unused586]
[unused587]
[unused588]
[unused589]
[unused590]
[unused591]
[unused592]
[unused593]
[unused594]
[unused595]
[unused596]
[unused597]
[unused598]
[unused599]
[unused600]
[unused601]
[unused602]
[unused603]
[unused604]
[unused605]
[unused606]
[unused607]
[unused608]
[unused609]
[unused610]
[unused611]
[unused612]
[unused613]
[unused614]
[unused615]
[unused616]
[unused617]
[unused618]
[unused619]
[unused620]
[unused621]
[unused622]
[unused623]
[unused624]
[unused625]
[unused626]
[unused627]
[unused628]
[unused629]
[unused630]
[unused631]
[unused632]
[unused633]
[unused634]
[unused635]
[unused636]
[unused637]
[unused638]
[unused639]
[unused640]
[unused641]
[unused642]
[unused643]
[unused644]
[unused645]
[unused646]
[unused647]
[unused648]
[unused649]
[unused650]
[unused651]
[unused652]
[unused653]
[unused654]
[unused655]
[unused656]
[unused657]
[unused658]
[unused659]
[unused660]
[unused661]
[unused662]
[unused663]
[unused664]
[unused665]
[unused666]
[unused667]
[unused668]
[unused669]
[unused670]
[unused671]
[unused672]
[unused673]
[unused674]
[unused675]
[unused676]
[unused677]
[unused678]
[unused679]
[unused680]
[unused681]
[unused682]
[unused683]
[unused684]
[unused685]
[unused686]
[unused687]
[unused688]
[unused689]
[unused690]
[unused691]
[unused692]
[unused693]
[unused694]
[unused695]
[unused696]
[unused697]
[unused698]
[unused699]
[unused700]
[unused701]
[unused702]
[unused703]
[unused704]
[unused705]
[unused706]
[unused707]
[unused708]
[unused709]
[unused710]
[unused711]
[unused712]
[unused713]
[unused714]
[unused715]
[unused716]
[unused717]
[unused718]
[unused719]
[unused720]
[unused721]
[unused722]
[unused723]
[unused724]
[unused725]
[unused726]
[unused727]
[unused728]
[unused729]
[unused730]
[unused731]
[unused732]
[unused733]
[unused734]
[unused735]
[unused736]
[unused737]
[unused738]
[unused739]
[unused740]
[unused741]
[unused742]
[unused743]
[unused744]
[unused745]
[unused746]
[unused747]
[unused748]
[unused749]
[unused750]
[unused751]
[unused752]
[unused753]
[unused754]
[unused755]
[unused756]
[unused757]
[unused758]
[unused759]
[unused760]
[unused761]
[unused762]
[unused763]
[unused764]
[unused765]
[unused766]
[unused767]
[unused768]
[unused769]
[unused770]
[unused771]
[unused772]
[unused773]
[unused774]
[unused775]
[unused776]
[unused777]
[unused778]
[unused779]
[unused780]
[unused781]
[unused782]
[unused783]
[unused784]
[unused785]
[unused786]
[unused787]
[unused788]
[unused789]
[unused790]
[unused791]
[unused792]
[unused793]
[unused794]
[unused795]
[unused796]
[unused797]
[unused798]
[unused799]
[unused800]
[unused801]
[unused802]
[unused803]
[unused804]
[unused805]
[unused806]
[unused807]
[unused808]
[unused809]
[unused810]
[unused811]
[unused812]
[unused813]
[unused814]
[unused815]
[unused816]
[unused817]
[unused818]
[unused819]
[unused820]
[unused821]
[unused822]
[unused823]
[unused824]
[unused825]
[unused826]
[unused827]
[unused828]
[unused829]
[unused830]
[unused831]
[unused832]
[unused833]
[unused834]
[unused835]
[unused836]
[unused837]
[unused838]
[unused839]
[unused840]
[unused841]
[unused842]
[unused843]
[unused844]
[unused845]
[unused846]
[unused847]
[unused848]
[unused849]
[unused850]
[unused851]
[unused852]
[unused853]
[unused854]
[unused855]
[unused856]
[unused857]
[unused858]
[unused859]
[unused860]
[unused861]
[unused862]
[unused863]
[unused864]
[unused865]
[unused866]
[unused867]
[unused868]
[unused869]
[unused870]
[unused871]
[unused872]
[unused873]
[unused874]
[unused875]
[unused876]
[unused877]
[unused878]
[unused879]
[unused880]
[unused881]
[unused882]
[unused883]
[unused884]
[unused885]
[unused886]
[unused887]
[unused888]
[unused889]
[unused890]
[unused891]
[unused892]
[unused893]
[unused894]
[unused895]
[unused896]
[unused897]
[unused898]
[unused899]
[unused900]
[unused901]
[unused902]
[unused903]
[unused904]
[unused905]
[unused906]
[unused907]
[unused908]
[unused909]
[unused910]
[unused911]
[unused912]
[unused913]
[unused914]
[unused915]
[unused916]
[unused917]
[unused918]
[unused919]
[unused920]
[unused921]
[unused922]
[unused923]
[unused924]
[unused925]
[unused926]
[unused927]
[unused928]
[unused929]
[unused930]
[unused931]
[unused932]
[unused933]
[unused934]
[unused935]
[unused936]
[unused937]
[unused938]
[unused939]
[unused940]
[unused941]
[unused942]
[unused943]
[unused944]
[unused945]
[unused946]
[unused947]
[unused948]
[unused949]
[unused950]
[unused951]
[unused952]
[unused953]
[unused954]
[unused955]
[unused956]
[unused957]
[unused958]
[unused959]
[unused960]
[unused961]
[unused962]
[unused963]
[unused964]
[unused965]
[unused966]
[unused967]
[unused968]
[unused969]
[unused970]
[unused971]
[unused972]
[unused973]
[unused974]
[unused975]
[unused976]
[unused977]
[unused978]
[unused979]
[unused980]
[unused981]
[unused982]
[unused983]
[unused984]
[unused985]
[unused986]
[unused987]
[unused988]
[unused989]
[unused990]
[unused991]
[unused992]
[unused993]
[unused994]
[unused995]
[unused996]
[unused997]
[unused998]
[unused999]
[UNK]
[CLS]
[SEP]
[MASK]
!
"
#
$
%
&
'
(
)
*
+
,
-
.
/
0
1
2
3
4
5
6
7
8
9
:
;
<
=
>
?
@
[
\
]
^
_
`
a
b
c
d
e
f
g
h
i
j
k
l
m
n
o
p
q
r
s
t
u
v
w
x
y
z
{
|
}
~
¡
¢
£
¤
¥
¦
§
¨
©
ª
«
¬
®
°
±
²
³
´
µ
¶
·
¸
¹
º
»
¼
½
¾
¿
×
ß
æ
ð
÷
ø
þ
đ
ı
ł
ŋ
œ
ƒ
ɑ
ə
ɛ
ˆ
ˇ
ˈ
ː
˚
˜
α
β
γ
δ
ε
ζ
η
θ
ι
κ
λ
μ
ν
ξ
ο
π
ρ
ς
σ
τ
υ
φ
χ
ψ
ω
а
б
в
г
д
е
ж
з
и
к
л
м
н
о
п
р
с
т
у
ф
х
ц
ч
ш
щ
ъ
ы
ь
э
ю
я
ѕ
і
ј
ґ
ա
א
ב
ג
ד
ה
ו
ז
ח
ט
י
כ
ל
ם
מ
ן
נ
ס
ע
פ
צ
ק
ר
ש
ת
،
ء
ا
ب
ة
ت
ث
ج
ح
خ
د
ذ
ر
ز
س
ش
ص
ض
ط
ظ
ع
غ
ـ
ف
ق
ك
ل
م
ن
ه
و
ى
ي
ٱ
پ
ک
گ
ہ
ی
क
त
द
न
प
म
य
र
ल
व
स
ह
ा
ि
ी
ক
ত
ন
ব
ম
য
র
ল
স
া
ি
ে
க
த
ி
ం
క
గ
చ
డ
త
ద
న
ప
మ
ర
ల
వ
స
ు
ก
ค
ง
ช
ด
ต
ท
น
บ
ป
พ
ม
ย
ร
ล
ว
ส
ห
อ
ะ
า
฿
เ
แ
ไ
ა
ე
ი
მ
ო
რ
ს
ღ
ᄀ
ᄂ
ᄃ
ᄅ
ᄆ
ᄇ
ᄉ
ᄋ
ᄌ
ᄎ
ᄏ
ᄐ
ᄑ
ᄒ
ᅡ
ᅢ
ᅥ
ᅦ
ᅧ
ᅩ
ᅪ
ᅬ
ᅭ
ᅮ
ᅲ
ᅳ
ᅴ
ᅵ
ᆨ
ᆫ
ᆯ
ᆷ
ᆸ
ᆻ
ᆼ
‐
‑
‒
–
—
―
‘
’
‚
“
”
„
†
•
…
‰
′
″
‹
›
※
⁄
₂
₨
₪
€
℃
℉
™
←
↑
→
↓
⇒
−
∙
√
≈
≤
≥
⋅
─
━
├
╕
■
□
▪
▫
▶
▷
►
▻
◆
○
●
◦
☀
★
☆
☺
♀
♂
♡
♢
♣
♥
♦
✅
✌
✓
✔
✚
✨
❄
❤
❾
➜
➢
➧
⠀
⭐
、
。
《
》
「
」
【
】
あ
い
う
え
お
か
き
く
け
こ
さ
し
す
せ
そ
た
ち
っ
つ
て
と
な
に
の
は
ひ
へ
ま
み
め
も
や
よ
ら
り
る
れ
ろ
わ
を
ん
ア
ィ
イ
ウ
ェ
エ
オ
カ
キ
ク
ケ
コ
サ
シ
ス
セ
ソ
タ
チ
ッ
ツ
テ
ト
ナ
ニ
ヌ
ネ
ノ
ハ
ヒ
フ
ヘ
ホ
マ
ミ
ム
メ
モ
ャ
ュ
ョ
ラ
リ
ル
レ
ロ
ワ
ン
・
ー
一
七
万
三
上
下
不
与
世
业
东
两
个
中
为
主
么
之
乐
九
也
买
了
事
二
于
五
些
交
产
京
人
今
他
仙
代
以
们
件
任
企
会
传
位
体
何
作
你
使
供
保
信
做
像
元
先
光
免
入
全
八
公
六
关
其
具
典
内
円
准
凤
出
分
创
利
到
制
前
力
加
务
动
動
包
化
北
区
十
半
单
南
历
原
县
及
双
发
取
受
口
句
可
台
史
号
司
各
合
同
名
后
和
品
商
啊
啥
器
四
回
因
国
图
圓
在
地
场
址
坛
型
城
基
堂
報
場
士
外
多
大
天
太
头
奇
奖
女
好
如
姐
婆
子
字
学
安
官
定
宝
实
客
室
家
容
密
富
对
将
小
少
就
尾
展
山
川
州
工
市
布
师
常
平
年
广
库
店
府
度
建
开
式
当
录
彩
影
很
律
後
得
心
必
忙
快
思
性
总
情
想
意
感
成
我
所
手
技
报
持
挂
指
接
提
播
政
救
教
数
文
料
新
方
无
日
时
明
星
是
時
更
書
曾
最
月
有
服
期
木
本
机
杀
村
来
東
果
校
格
業
機
次
正
比
民
氓
气
気
水
求
江
法
波
注
活
流
海
温
港
源
澳
点
無
然
片
版
牌
牛
物
特
狗
玄
率
王
玩
现
球
理
生
用
田
电
町
画
界
発
白
百
的
目
直
相
看
県
真
着
知
石
码
示
社
神
禁
福
科
程
空
立
站
童
第
等
算
管
精
系
红
线
经
结
绝
网
美
老
者
而
肖
能
自
色
花
英
蓝
行
表
装
西
要
見
规
解
言
語
计
记
论
设
诗
说
财
费
资
赌
赛
起
跑
路
身
车
过
运
近
这
进
送
选
透
通
道
選
部
都
酶
里
重
野
量
金
钱
铁
错
長
长
開
間
门
间
阳
限
院
集
電
面
音
食
香
马
高
黄
龙
ﬀ
ﬁ
ﬂ
！
（
）
，
：
？
ﾆ
ﾊ
ﾟ
￼
🍁
🎉
🏻
🏼
👌
👍
👏
👨
👩
💕
💙
💛
💪
💲
😀
😁
😂
😃
😄
😅
😆
😉
😊
😍
😎
😘
😛
😜
😦
🙁
🙂
🙄
🙈
🙌
🙏
🤔
🤗
🤩
##d
##k
##j
##æ
##r
##e
##m
##i
##a
##g
##n
##l
##o
##s
##t
##p
##¬
##b
##ø
##f
##c
##x
##v
##h
##u
##y
##0
##q
##z
##w
##6
##2
##5
##4
##е
##п
##л
##о
##х
##ا
##ت
##1
##ł
##а
##с
##ん
##な
##あ
##る
##3
##9
##´
##н
##8
##タ
##ウ
##ン
##ロ
##ー
##ト
##ホ
##を
##ク
##リ
##ッ
##し
##て
##у
##я
##р
##э
##ч
##и
##к
##ь
##т
##в
##д
##м
##б
##ж
##з
##7
##ν
##τ
##ι
##σ
##ο
##χ
##η
##г
##™
##®
##ц
##ы
##ᅵ
##ᄒ
##ᅡ
##₂
##よ
##う
##す
##ᅥ
##ᆫ
##ᄇ
##ᅮ
##ᆨ
##ᄃ
##ᅢ
##خ
##ي
##ر
##¸
##♥
##へ
##っ
##コ
##シ
##ェ
##ル
##ı
##¥
##れ
##こ
##と
##は
##い
##か
##も
##☺
##¨
##כ
##ת
##ב
##の
##ว
##ป
##ร
##ะ
##เ
##ท
##ш
##ა
##რ
##ი
##ن
##و
##م
##き
##サ
##ヒ
##ス
##ф
##ј
##ю
##え
##ケ
##ラ
##カ
##ノ
##ᆯ
##ᄎ
##ᆷ
##ᄋ
##ᅳ
##ᆼ
##ъ
##³
##ツ
##イ
##ナ
##ハ
##セ
##フ
##キ
##ق
##ف
##ه
##ل
##ح
##ة
##ض
##ח
##י
##°
##ら
##ネ
##υ
##ε
##ρ
##ƒ
##😊
##щ
##ك
##ز
##ب
##π
##د
##♂
##і
##ᄀ
##ᅩ
##ᄉ
##ᄅ
##ワ
##œ
##μ
##κ
##α
##●
##ˇ
##น
##อ
##👍
##💪
##ع
##±
##−
##ð
##テ
##½
##ᅦ
##ᄏ
##²
##గ
##ల
##స
##త
##న
##س
##ی
##ґ
##オ
##ヘ
##🏼
##ﬂ
##φ
##ω
##€
##ก
##ต
##า
##ไ
##ม
##ค
##ย
##ง
##แ
##ล
##ด
##ア
##❤
##º
##θ
##ς
##ר
##נ
##ס
##ק
##ה
##ک
##ط
##ء
##ミ
##マ
##γ
##け
##ま
##ᄆ
##✨
##ע
##ו
##ל
##ם
##♦
##ি
##ত
##র
##©
##ج
##ى
##ش
##ᅧ
##ᅭ
##せ
##く
##エ
##ᅪ
##ィ
##ে
##া
##ব
##ন
##ห
##に
##り
##た
##þ
##ᄌ
##ᆸ
##¤
##チ
##ص
##˚
##×
##ŋ
##😉
##や
##ɑ
##ː
##த
##ᆻ
##わ
##ﬁ
##ß
##¦
##λ
##ం
##చ
##ు
##క
##ద
##ζ
##ा
##म
##😎
##צ
##→
##¾
##ャ
##お
##😄
##÷
##ュ
##ـ
##स
##ि
##त
##ी
##😘
##ᅴ
##¹
##💕
##つ
##モ
##😂
##ᅲ
##ذ
##מ
##ہ
##א
##め
##▷
##ర
##ప
##ש
##δ
##◦
##ə
##✌
##פ
##य
##र
##వ
##ן
##ე
##მ
##ს
##ѕ
##ա
##ז
##ᄂ
##⁄
##レ
##♡
##न
##व
##क
##đ
##ろ
##ニ
##ム
##ד
##ª
##ひ
##そ
##メ
##ო
##ﾆ
##ョ
##ظ
##さ
##🙂
##డ
##🎉
##🏻
##☆
##پ
##🤩
##ᄐ
##ɛ
##ט
##ξ
##¢
##ٱ
##み
##ল
##😍
##💛
##😀
##บ
##ち
##🙈
##द
##ヌ
##พ
##☀
##😅
##❄
##─
##💙
##★
##ி
##⠀
##←
##ᄑ
##⋅
##ส
##ช
##µ
##మ
##β
##≈
##प
##😃
##¼
##স
##য
##♀
##ソ
##گ
##ﬀ
##க
##ल
##😁
##≤
##℃
##غ
##👏
##ג
##ˆ
##ह
##ث
##🙌
##🤔
##♣
##🙄
##➜
##￼
##⇒
##£
##ψ
##🙏
##🍁
##ˈ
##ᅬ
##►
##⭐
##∙
##👌
##😜
##━
##😛
##↓
##👩
##▶
##ম
##□
##▻
##💲
##🤗
##ﾊ
##ﾟ
##˜
##✔
##ক
##≥
##├
##╕
##✅
##😆
##○
##■
##◆
##ღ
##√
##✓
##👨
##▫
##↑
##฿
##♢
##❾
##🙁
##₪
##✚
##▪
##er
##en
##et
##or
##in
##ar
##an
##el
##il
og
##st
##om
##ed
for
##ing
##ig
##re
##le
##tt
##sk
det
##on
##al
til
##eg
##kk
er
##te
##ra
en
av
pa
##es
som
##id
##nn
##is
st
##de
med
##kt
##pp
##ene
##ør
##at
##ol
##as
##ver
##ag
##ler
sk
sa
##li
at
ut
har
de
vi
##ne
##nd
##ent
##jon
##se
##lig
##ri
##ru
##kke
##ere
##ett
den
om
##and
##ro
var
##ste
opp
gj
##ke
##it
##ning
##ge
men
##sa
ar
ikke
##ær
inn
no
fra
al
##mm
##ur
##ad
##ks
kan
et
##un
##isk
##tter
jeg
in
hv
##je
##for
sp
##us
##ikk
##ul
##het
du
##iv
##ik
be
man
##ap
##ter
##ens
nor
##ende
ble
##der
kom
##ang
##ot
##att
##asjon
el
##be
kj
##am
##gg
seg
##ker
##enn
bli
##itt
pro
##od
##elig
##ss
hel
etter
an
vil
##ist
##est
se
over
##øy
##ert
20
eller
##ære
##ak
bar
##ok
##eng
##av
tr
##ell
bru
##mer
dette
der
ved
ma
##inn
ogsa
##sen
kon
før
han
##ort
##ling
ny
##lo
##ut
##ir
##ser
##art
skal
##sp
##ft
##beid
re
fa
sel
##ud
##old
sam
and
##øre
##ier
##ske
##nder
##ant
##øp
##unn
##yr
##ve
##skap
##elt
##else
noen
mer
##gen
tid
##os
##eld
da
##ord
##all
##ff
sy
være
##ann
dag
##iske
kl
##gj
min
kv
##øl
andre
dat
ha
alle
##var
##adde
##legg
na
##end
##ov
nar
komm
##ært
noe
hadde
##og
201
under
##und
pl
##ob
samm
selv
##ennom
her
god
##ale
blir
##ger
le
nett
##hold
##ktig
##um
##ine
gjennom
to
##ers
sø
##jer
##sm
##enter
by
##im
##em
sli
denne
##sl
##erd
far
##ass
my
reg
bl
##lere
##itet
##lige
mot
arbeid
##tte
##rø
stor
##iser
##alt
bil
ann
ba
gru
##ksjon
##ingen
sid
##rem
##vik
ta
##ly
or
##jel
##tid
si
høy
##sker
##rad
##inger
##ster
mange
##vis
##alg
li
enn
##ek
dating
uten
##elle
##eder
lag
sl
##ry
hun
deg
bare
mu
##opp
fort
19
##del
##før
##00
##ber
##net
##mp
ek
##ede
del
fin
kunn
vært
gjøre
##ans
hvor
##rat
##ød
mye
hva
##ie
litt
##ess
meg
beg
tilb
norge
pros
##dr
inter
##ige
un
hver
bruk
##res
kont
##ater
##per
##yl
ser
##ket
sv
##akt
##ab
##form
##ic
flere
dis
gjør
##ult
##ill
##si
##eb
mø
##ken
##inner
##ien
##kl
vid
mar
gang
##øk
fikk
##dag
sammen
##utt
bet
ap
oss
leg
sm
##ings
res
##he
ve
##red
##erson
##lighet
alt
##jø
frem
##omm
##hand
slik
##yn
##kker
sin
##ette
forsk
vel
##ninger
gar
kjøp
ga
##stil
##du
##ighet
##ost
##arbeid
første
tre
sex
verd
land
##ellom
grunn
føl
bade
disse
##kter
viktig
ra
nye
##pe
ne
##ia
##ets
mellom
##ktiv
##ner
##dre
##ull
##mmer
eg
##na
kr
siden
hand
##jene
rett
##if
##enger
beste
ned
la
kunne
##ningen
##elsen
##gang
mil
person
os
##ub
ly
igj
vir
jo
##lem
bed
utvik
##kj
øn
enk
##by
##elser
lø
##ordan
nær
pr
##sten
##ion
##land
##ch
##rett
##som
dem
ty
##ial
hvordan
van
##pt
##ente
igjen
##pl
helt
ber
pol
lang
##rift
kommer
##ust
annet
##ode
liv
##lag
forb
fors
hele
##ener
##riv
##ulle
din
per
mal
stør
##op
godt
##ire
##ast
##isjon
200
hjel
norsk
oslo
norske
##tak
##ret
job
##rav
##nes
form
fol
##rev
gi
mat
kommun
##den
##ran
gir
##ake
##els
##etter
store
##ille
like
##iver
hvis
rund
##satt
##kket
he
vis
par
##ga
##formasjon
sier
bruker
##rol
blant
##oner
##jekt
barn
of
mo
spes
tidlig
##gan
##eldig
##jem
##lev
løp
nok
##atur
kri
all
vare
##kon
ad
samme
les
gl
stat
##erne
##like
fri
kun
rundt
ch
##asjoner
bes
##ug
18
##mme
br
##ip
polit
##edet
plan
blitt
ev
##let
##føl
nord
##sid
produ
ind
##ytt
informasjon
red
sj
##sb
mest
##elige
##over
fil
siste
10
skulle
hen
veldig
##atte
tek
##set
fly
sine
##orn
tilbake
##ikker
##fil
mor
stud
##amp
##rer
##ole
##are
##ges
tillegg
##svar
##di
##aler
##ativ
fatt
forhold
finn
lig
menne
ønsker
##ffe
sn
##eller
##ring
finne
##dom
##olog
##alen
grat
ord
kn
ingen
tar
##sy
ten
star
sitt
su
innen
tur
hov
videre
##hol
dere
##alitet
##la
ste
##ind
##ark
styr
##gra
##sel
derfor
gikk
##nings
tjene
##este
##ppen
mulig
hos
hol
delt
##iet
bruke
bør
##slag
ant
##kte
end
##sta
egen
mid
##pper
valg
##ele
##valg
gratis
hoved
møte
bedre
##styr
##ister
##gru
fun
##eter
##ksom
fot
ver
des
intern
ekse
##nad
##usjon
##pro
##handling
##min
spør
##bru
on
fag
##anse
##stem
samt
##ten
##pet
prosjekt
bra
bak
##skje
venn
gener
mann
rad
lever
##ard
mulighet
eksemp
tidligere
ulike
##føre
##ha
##oks
##kken
organ
eks
kanskje
##sjon
##hus
##ører
##iller
fram
kvinner
off
skj
sol
##les
nav
##heten
tro
porn
kar
##ond
##far
try
ri
##entlig
mens
prø
##rag
viser
helse
15
sen
led
##anske
menn
sør
##mid
gode
te
best
vur
fyl
##elen
ting
##entet
##unkt
##asjonen
##raf
##ma
##gjør
full
##elder
lu
byg
folk
##yd
aktiv
nytt
##istor
##iner
fle
##søk
klo
søker
##skapet
##vend
kjø
stø
tv
##ise
##smal
##gi
ei
##esten
kontakt
ti
12
fe
fj
besk
vin
lok
utvikling
inst
##une
spesi
bygg
##raft
fordi
##ren
ung
dam
##under
pres
lov
fl
pris
the
##ppe
##olig
sett
##men
##stilling
##me
gjen
jenter
##ultur
bid
fakt
beh
natur
bok
samarbeid
jobb
aller
##stand
##ck
##ester
lær
hans
ville
##fri
##funn
barne
ol
##ib
##ført
eu
skri
eng
innlegg
lik
svært
unn
##vn
tatt
først
##heng
ofte
fant
hvil
komme
vann
result
start
klar
rom
dersom
utd
sent
pre
mate
spill
prob
po
##amil
hø
kjøpe
eksempel
stort
finnes
##ynn
mus
plass
lett
part
##anger
##ven
##jør
ben
17
kjent
##sj
inv
fr
ro
oppd
##vir
hal
blo
mark
bilder
gjelder
##satte
endr
skap
##radet
kli
forskjel
##par
##stre
hje
mindre
##ian
hjelp
##ys
int
##kelig
##kes
slutt
sik
##olen
##inne
##ate
##orte
##det
as
kultur
histor
di
11
##vel
øy
hvert
annen
arbeids
vide
##rakt
mennesker
kre
nød
##kur
spørsmal
vart
rese
##sikt
organis
tilf
##agra
tekn
ele
matte
verden
##asser
løpet
deres
forv
##ide
inne
##ont
##pa
##iva
##asje
famil
vurder
##ite
##konom
økonom
##bygg
gam
kommune
##verk
16
##io
pass
ja
##gre
større
2017
##med
ansvar
nettst
##ign
utfor
trenger
begynn
vet
fre
gre
tok
##tek
##tidig
skjer
tall
syn
art
##skelig
##stad
##asse
ban
enkelt
hus
##utter
svar
##rasjon
alltid
porno
krav
kort
prosent
##øs
skole
stil
##erer
##org
##atter
søk
tem
brukes
ju
##ikken
14
gjort
ferd
dri
sc
##rens
finner
##iten
30
##kning
##dri
side
ster
ute
lo
krist
behov
sos
##oll
sje
##fe
sann
##sn
##tem
##itu
##sdag
løs
dra
enkel
##vet
##enge
resept
##roll
samfunn
mener
sna
##led
##sket
kjær
##mmet
##rader
mass
progra
##bo
kal
ligger
ca
voks
dø
th
##gav
bo
ham
am
tiden
fast
kvalitet
kamp
viagra
##syn
##sett
kunnskap
kro
milli
ekst
post
dy
sær
utt
aldri
##sf
##isert
effe
hot
tren
norges
13
sikker
ka
##assen
kjære
spesielt
##ka
##jen
##mt
langt
felle
##heter
bas
video
fortsatt
##lys
kjærlighet
fred
##øker
opplev
vanskelig
hy
hold
nasjon
##igheter
##age
neste
satt
##reg
sette
avt
sma
trad
##yttet
laget
##spl
sh
##gende
lan
veg
syke
##tes
hap
syk
##ensjon
##ct
leder
sted
regist
is
##fter
kor
kir
miljø
fø
rus
samtidig
sak
øv
##fer
flo
##ilt
hjem
hav
erfar
vanlig
co
##ong
##dus
jan
følge
##pres
ganger
##veg
##ubb
##anning
mod
##ksjoner
##dd
##udd
hatt
ter
forskjellige
##olle
euro
mang
tror
##off
stand
##spro
tor
ret
##line
##ive
##uler
##rak
lite
##okum
produksjon
legge
##revet
##agt
##grunn
tan
##aten
oppt
grad
##ce
heller
##berg
##isering
ungdom
arene
fleste
mater
allerede
indust
gamle
rekke
virkelig
##midler
dine
met
akt
##ingene
##enner
sta
ett
konkur
brukt
##mann
hu
dager
##elef
app
##entene
pos
blogg
##bef
##atet
##uder
##tet
##spunkt
##ina
##ice
bry
gjerne
kunst
##gjeng
bolig
behandling
liten
##meld
##okus
ditt
fød
senere
##bar
ab
##føring
kveld
fem
nr
199
dermed
dire
aktivitet
##ering
nødvend
##ay
mob
kur
online
ko
##up
rapp
000
fire
##kv
##følg
sty
arbeidet
so
100
2016
ener
forn
sommer
problem
##sfor
feil
undersøk
kap
internasjon
bort
##ball
gitt
##ager
dar
##rykk
besøk
rask
kroner
riktig
##mark
vest
kost
##ksomhet
sing
nærm
tru
utvalg
utfordr
pub
##vert
##orde
##rig
##syk
likevel
lav
##ron
##ral
##enes
fjer
skjø
tiltak
betyr
dagen
##lær
kat
##kom
send
25
etab
betyd
livet
minst
##ferd
##iale
##ses
fokus
nesten
felles
kjør
tjenester
##bil
avsl
lar
rel
tilgjeng
##ktor
dokum
tran
##bl
største
##gt
holde
##ris
lagt
##erte
system
##ow
antall
##lik
inkl
##ennes
##ori
bel
##oden
ris
lenge
##sh
##orter
##ivers
##mmel
damer
##sam
ekte
##sv
##gge
ganske
##fall
hjelpe
faktisk
2015
foreld
regjer
økt
##get
deler
##rukt
personer
##drett
tilbud
anbef
omf
kraft
##komm
##sd
##agen
godkj
##likt
ob
henne
industri
kompet
##holder
stad
forskning
##ade
mott
lin
##mmen
##sport
massasje
##vid
innhold
##sette
akk
##fører
##uelle
spille
grø
va
priv
pri
slike
enda
begge
redus
it
begyn
jun
##tre
##følge
##ane
funn
stre
##bruk
fer
medle
tot
##rist
##sø
bor
##heim
##rige
##jell
kart
bidra
##iene
ekstra
kontroll
ses
##ennende
selskap
ansatte
ein
lønn
event
##yld
##andre
ge
gud
jord
##ue
50
aret
søke
situ
bud
joh
##ftet
##rit
tra
##rum
univers
00
enkelte
kvinne
pop
but
spiller
##lagt
ry
##ialis
me
##vere
##gar
##ansen
øst
seks
lage
egne
stra
bek
imidler
komp
hens
drift
##afil
imidlertid
serv
##sc
funksjon
støtte
disk
leng
bilde
##eren
altsa
##atene
oppf
data
gjorde
prosjektet
tim
pasi
##kar
##isere
salg
oppr
medlem
##iden
##ttet
verdens
særlig
##lene
saken
lev
##jekter
##alte
kil
##bud
em
omradet
kvinn
##orer
synes
meld
stedet
##utvik
elekt
bergen
##urat
eldre
forslag
topp
lære
##ummer
produs
unge
egentlig
##ile
##part
##side
foret
dan
film
anal
halv
cialis
timer
elev
strø
##liv
##rene
##adet
##lingen
##kene
##elefon
bur
alder
lese
høyere
dess
sikkerhet
aut
str
mine
##ningene
##mal
navn
##esp
##ats
##ips
vekt
utenfor
imp
gjenopp
innt
sikre
repres
ho
2014
##ologi
eiend
dyr
vise
##skudd
##ærer
id
mai
##fin
kons
##fol
bygge
utdanning
kje
millioner
landet
barneh
oper
legger
venner
akkurat
peri
##ino
musikk
##løp
dom
vei
nødvendig
##lert
tallet
risik
dre
søknad
##bet
ide
##sted
##elses
region
##spill
##ikt
forsta
prof
darlig
##van
bestil
##elsene
tap
interess
anlegg
spennende
hennes
nak
interes
tilgjengelig
barna
22
inkluder
tak
apen
##one
dig
##star
##ons
mitt
innenfor
utgang
##va
##tern
død
21
fisk
com
klubb
sep
marked
opple
##dt
idrett
hverandre
fantast
ifølge
penger
sver
forteller
psyk
erot
popul
vær
hund
##otek
hjer
rø
##anter
kjønn
pra
okt
##deling
omt
tradisjon
##ps
##minist
##oen
spil
##sjett
fran
insp
##urt
født
teg
klart
byen
eget
forut
hvilke
startet
niva
gatt
instit
##linger
ak
utstyr
##oler
hør
amer
##ation
##gaver
gu
uke
##kkes
##ider
prøve
bakgrunn
lille
bu
##ital
aug
delta
##vil
##holde
eneste
##po
2013
##giver
##giv
haper
kompetanse
ul
utrol
deretter
opplys
opprett
##indelse
##usen
skolen
il
poeng
luft
##kkel
test
24
##ator
posit
fav
veien
maten
forsvar
##rik
hotell
design
skjønn
##hengig
##ograf
##aller
ferdig
##entlige
mag
nærings
##arer
funnet
foto
yo
liker
##atisk
##int
dagens
ven
##ht
##yt
skriver
hvem
##dig
##vær
hvorfor
go
tema
møter
begynte
##ym
lokal
##ktet
##dal
##isin
##fl
høyre
følger
jobber
forbindelse
##lemer
fo
tred
jul
##orten
høyt
forf
knyttet
##ikasjon
kam
gjøres
mel
velge
##ytte
##rade
apr
mon
ag
40
via
##delig
slag
drø
trening
utvikle
hjemme
skrive
tø
##ore
##rert
utrolig
effektiv
fjell
altern
kjøre
fest
telefon
maned
##rar
##anser
date
trond
rette
oppgav
##rifter
us
##føres
##ative
medlemmer
##fra
fall
jente
##kret
uans
##ete
ark
tør
alv
skape
avgjør
usa
##anen
holder
takk
natt
##vern
minutter
klokker
følgende
fordel
fjor
##skin
##alet
2018
hj
nov
2012
kommunen
uansett
je
behand
administ
##rere
cas
forkl
ars
lenger
skjed
kommet
##øte
sil
im
mynd
amerik
begynner
dokument
eier
bla
##iljø
ang
pavir
##ksis
##siden
universitet
##lø
##ja
##ader
ing
direkte
##urer
##uelt
esk
##vin
##ca
stadig
fint
##ies
tenke
##jord
service
selskapet
arr
##essur
feb
stav
nem
val
gra
vold
aks
##ommet
##sst
forel
juni
beveg
gjenopprett
sla
chat
##skrift
voksne
23
spe
##plass
pe
transport
krig
grav
reise
rest
program
##kn
forbru
lør
fotball
##but
bedrift
sto
##rom
##rateg
internett
kjemp
##partem
opplær
##ktige
ressur
reis
##isten
##rafikk
alvor
kjenner
bred
##fritt
spesial
basert
##pass
uker
nettsteder
detal
##fag
kjente
##fold
gutt
##ommen
##gift
foran
fas
utgangspunkt
do
regn
##menn
konkurran
##ktøy
konse
sku
barnet
apne
oppdag
tilgang
viktigste
handler
krit
inns
sand
sky
sport
lys
kry
moder
oppdrag
eksp
tu
regel
oversikt
##verket
##bin
##hør
vedtak
politiet
esc
vedt
vak
ren
grønn
##setter
web
##ikkert
bi
prøv
midt
##uar
##sider
##snitt
##loven
grunnlag
sykehus
tips
finans
arets
tilbyr
eiendom
198
energi
##organ
prakt
##avn
øke
##onser
inneb
skje
generisk
##nt
stille
##eres
mis
##arbeidet
sønd
kund
att
lokale
##ink
##ksjonen
##dere
##kkje
bod
2011
vinter
flott
represent
present
##ivt
##uten
retning
ex
##ppet
##olit
sjø
##kningen
##mat
##vne
single
naturlig
##dene
##pen
profil
##ba
arbeider
##sland
##løs
##use
##denafil
sist
registrer
##uss
fine
##landet
mand
##unt
steder
oppmer
bjør
sykdom
legg
##sav
ref
gr
lørdag
ikkje
##enten
stopp
sverige
pu
##bu
##ppene
engas
##iste
##skaper
masse
##sli
offentlige
sosiale
hom
erfaring
##ata
##essig
##kont
##anlegg
fornøy
ep
tha
##ju
##bart
praksis
##ativt
##vnt
##saker
omrader
##omme
##sak
##gjøre
##stend
##fo
##utvalg
innlegget
##inst
sannsyn
bestille
gjennomført
##ega
slett
skrevet
komment
##co
##jef
foren
##ebo
inneholder
sprak
prosjekter
tom
viktige
kroppen
##bok
høre
medisin
##urn
hend
utviklet
tredje
##ike
januar
fac
##ment
fys
trom
gammel
fores
##oret
skog
trondheim
##man
raskt
brann
forbed
funger
ønsket
pot
sve
offentlig
bø
log
norw
styret
mobil
lyst
bon
sal
foreldre
##ity
##kten
setter
nøy
##iere
sven
##kvens
##visjon
##ress
folke
problemer
are
##her
san
lyd
viste
##kraft
##ingsm
2010
glad
velger
jobbe
daglig
##ktene
##br
blod
trø
##uell
##skole
samlet
sko
klær
familie
sikkert
muligheter
##ium
endringer
##pros
klokke
##vem
##za
nemlig
##ves
vite
##ppa
eskorte
till
fry
billig
##utvikling
##uttet
morgen
sterk
holdt
##ild
##visning
vit
##stene
##enne
kostnad
føre
tri
##ho
tross
budsjett
vant
##ifter
muligheten
økonomi
virksomhet
nærmere
bildet
yn
produkter
enten
facebo
##king
##akter
##ongen
bal
##ssy
gro
##mte
##nen
26
##lit
dist
bevis
pal
gav
##øren
føler
fremtid
real
tun
septem
besø
##person
publ
vek
motor
internasjonale
##ns
ytter
dro
rek
september
dei
##gitt
døde
new
mars
endelig
organisasjon
##iserte
ur
kjæreste
##sler
stri
##da
##skolen
##stid
trykk
ellers
28
##abil
##atert
lærer
valgt
snart
stavanger
prin
sider
historie
august
27
##partementet
regjeringen
krever
skyld
høst
sønn
##følgelig
197
sammenlig
tilsvar
rød
##mmene
vurdering
##kjent
gul
bib
band
strateg
april
helst
ski
##kant
bat
forskjell
opprinn
forsik
passer
##ighetene
mør
hvilken
##ruktur
brukere
fantastisk
maneder
selvfølgelig
##ember
sar
kval
##istikk
facebook
##stru
##agn
##ald
##ansk
engel
##vember
opptatt
størr
kommunikasjon
60
privat
burde
##elag
hverdag
artikk
forhand
norm
kurs
##ober
##jema
konf
november
ident
forsøk
felt
##produ
hin
turen
nasjonal
søndag
vers
kombin
tydelig
styrke
sosial
brans
yr
fu
super
datingside
trygg
jer
##bund
neg
kirke
klass
##veien
##ko
meter
##ytter
ru
defin
gjeld
2009
##tert
fro
dele
ku
dato
uav
##mmes
##akere
resultater
invit
##str
nettopp
##ban
hev
##ase
car
##grep
##ologisk
tusen
fiske
europa
arbeidsm
vist
prøver
bestar
standard
reseptfritt
klare
tett
juli
bilen
hum
bygget
begrens
unnga
olje
ky
kampen
malet
avtale
befol
sitter
kong
dame
midler
##esjon
##iss
medier
hjelper
ass
plasser
fig
desember
team
fart
##øv
##kjøp
kunder
spillet
fredag
tysk
prem
##jed
und
nettet
##fjord
##vare
resten
ph
tjeneste
uk
##vand
fylkes
veil
leve
##bare
##orit
hud
##bel
##lov
verktøy
##late
ledd
grens
bro
skikk
pensjon
venstre
oktober
##spe
meget
russ
##middel
løsninger
##sorg
opplæring
rele
legges
merke
interv
##siktig
brø
##plan
time
naken
##ellen
forrige
##igheten
bereg
fører
fi
##kkelig
familien
##range
leverand
navnet
forsø
sammenheng
ford
##somt
henhold
selve
##isen
##aling
bøker
kolle
##sg
virksom
gjennomsnitt
29
##setning
christ
##nere
planlegg
slutten
kateg
tilby
hygg
oppfølg
lettere
##odet
utviklingen
nt
mannen
oppgaver
##vann
free
##kka
##uer
alene
##iør
øk
ene
##leie
trafikk
##plassen
##usjoner
##enning
##hver
##lin
saks
ring
##ringer
eit
kropp
kob
totalt
bord
##aks
proses
tenker
saker
elektron
kjem
jakt
elevene
gangen
##rivil
press
snø
opplysninger
nø
autom
innbygg
##foren
##dat
betale
##iz
sat
##nær
##bas
innte
##sse
vurdere
##behandling
sentrum
krev
##egn
organisasjoner
snakke
tekst
hensyn
bidrar
sende
nettstedet
vedlike
##sol
##50
##ith
innov
stol
fungerer
2008
innebærer
##verre
profesjon
##eleg
##uts
klarer
sign
fylke
##allen
##varer
##ama
##ielle
gruppe
rev
elsker
##fort
##aland
formid
##inget
vari
sexy
##mma
forvalt
sendt
høsten
nei
kos
##fte
##deles
meng
omfatt
##irk
stein
##varet
##ikere
pap
resultat
skjul
##sty
##livet
##isjonen
perioden
inkludert
##yttes
196
indiv
høye
heldig
nyheter
markeds
flotte
drikke
personlig
##enting
omsorg
strøm
bank
vok
deil
##splan
ska
##aret
overra
gull
kjæresten
##utd
virke
besl
ves
fornøyd
##styret
##verd
versjon
svart
##leder
langs
betydning
elever
##felt
punkt
forfatter
interesse
øker
pat
escort
##aget
utvid
##forhold
##vnte
##slin
##eland
godkjent
perfe
analy
##ensen
risiko
##ena
##era
gis
etabler
virker
stoff
##urnal
frivil
##spros
brukte
sannsynlig
resta
febru
dr
starter
grunnlegg
km
bære
februar
qu
##itra
##kjør
type
##øse
##enterer
##radene
##edag
kjøkken
deb
##enta
butikk
31
tilfeller
opphold
##nende
##jenester
##iker
forl
høyde
formal
rapporter
typer
lengre
smak
terr
moderne
gjeng
##enfor
dessuten
##venn
jf
##itte
lun
##ph
tab
##gene
oppfyl
##gifter
##organis
bus
partner
tvil
fir
oppdater
jule
##fly
##rives
##oder
invester
194
##enet
utfordringer
##stat
##stein
thai
rolle
##likk
##eby
lager
##aker
tol
##forsk
avhengig
samfunnet
mennesk
energ
huset
aktiviteter
arrange
publik
##mu
##stillinger
##ifte
sjekke
konsekvens
sesong
markedet
jes
##melding
relig
restaur
##len
##stet
bekre
varme
boken
##20
spillere
##ekte
endre
##apotek
lavere
nasjonale
##mar
forh
nettapotek
ir
gjennomføre
##rent
##skl
integ
sjeld
begynne
skatt
private
filmen
apnet
spise
##sut
opt
##mb
hvit
sti
reguler
opplever
redusere
bloggen
anled
uttrykk
alternativ
utover
rut
##rike
sjekk
ori
registrert
##rapp
##bladet
starte
ønske
##gn
fortsette
programmet
sterke
fortelle
refer
blom
##istisk
##tering
sig
2007
lange
##isme
oppleve
osv
##pris
tilsvarende
sagt
##plikt
glede
slags
stilling
##iserer
##ros
##xx
enkle
populære
##met
##ktør
##fest
økonomisk
##asen
sch
priorit
##ish
skikkelig
##ittel
##huset
##ska
##ligere
##ote
dessverre
potens
sukker
80
hi
tal
##sagt
europe
##egaende
vedlikehold
generelt
etablert
bestemt
fal
skade
##til
##oritter
oppst
sle
arrang
##mon
resultatet
muse
ful
sentral
spor
nrk
greit
##øtet
##vek
inntil
enhver
ke
boka
forskrift
##hjel
ødel
teknologi
distri
kontrol
##kort
undersøkelse
overfor
##hvert
##ins
rør
can
70
hei
oppfølging
##skomm
yngre
##synet
glo
##uft
levitra
farge
fyr
perfekt
fritid
berg
##kkene
enklere
##hav
avvik
kjøper
##gangen
##forbund
øvrige
tas
##førte
farger
homo
##vant
jobben
tver
meste
skol
##mor
casino
favoritter
##ynd
hensikt
##rale
##gere
økonomiske
straff
bildene
ansvarlig
##usjonen
kommunene
##ah
sw
##eri
bestemm
##øst
slo
slikt
studenter
##ales
##srett
##imot
##emid
##vok
utsatt
individ
##mannen
gutter
##isjoner
sterkt
eksister
overt
innvand
rim
kjøpt
material
seier
foresl
dob
##dde
akse
mart
engelsk
##runn
skjedde
utgjør
malt
rob
##ix
##arder
driver
mic
hopp
##vist
##onn
riks
journal
studie
valgte
student
aker
##fyl
møtet
rapport
treff
konkurranse
##lende
##mod
heter
##stendig
##apen
vekst
inspir
##gaende
varen
forber
##full
politiske
vg
jobbet
fortsetter
##rid
hjerte
skrift
klikk
##of
styre
##jenesten
situasjonen
##øyt
##rense
##engt
mandag
##fordr
pc
grunnleggende
##bygging
voksen
not
grupper
regjering
##ørene
absol
##stoff
ed
goog
danmark
##imal
vanlige
videoer
kalt
##iell
nettsted
kvalif
##veis
unna
torsdag
jern
port
##iteten
##ften
fullt
vanligvis
figur
regler
øyeb
oppna
forret
##ologiske
hyggelig
##leg
##irasjon
##iter
forholdet
datter
##serv
retningslin
ekteskap
##ølv
oppdatert
##asjons
aner
##drag
lands
vakre
##asjonene
##ork
vinner
35
tilsyn
gøy
omrade
tilpass
nevnt
##eliv
gift
spesif
disp
bom
utø
avgjørende
cm
ivaret
digit
milit
selvsagt
utform
##spart
match
undert
##ania
##aen
prote
bedrifter
ingenting
handling
2006
##aring
skrev
##undersøk
varm
ettersom
##stemer
##unde
vedtatt
##kost
klubben
mist
sang
ytterligere
##ssel
##legge
sek
195
##kast
klasse
arbeidsgiver
utført
500
periode
makt
norway
arsm
sesongen
##sken
produkt
endring
##ange
eli
##ure
##utvalget
spørsmalet
##ogn
kategor
betydelig
kjører
intervju
sunn
parker
amerikanske
##itter
##riks
erfaringer
invol
##onom
senter
sykkel
utn
utdan
eval
##ved
fla
##ose
##stemet
90
varer
prinsi
##kerne
klarte
##gave
skip
##atten
##app
##ident
konkl
prest
tilkn
kvelden
sommeren
maskin
##rep
vind
hodet
underhold
##ians
lege
normalt
##etøy
skaper
pen
derimot
reiser
gleder
##stander
rygg
isra
##delingen
nordmenn
detalj
attra
tilrett
tir
ni
konkret
filmer
##strø
røy
con
##ime
bre
stjer
##oren
##klær
##somme
##ple
##sopp
kol
##ssk
elem
##qu
trener
flyttet
benyttes
ras
##laget
##punkt
slu
tann
##edning
toppen
opplevelse
##istiske
cl
##resse
opps
høyeste
administrasjon
##inister
klima
bland
feng
leil
##stø
##vs
kna
kjøtt
##alder
sant
prisen
vilkar
politisk
borte
historien
skil
##utning
sildenafil
regnskap
brit
seri
bist
kjærligheten
##sle
ment
##ørt
##aktig
fysisk
##merket
##beh
tillit
yt
respe
tanke
##ønn
##ssen
deilig
omtrent
vider
glob
##engene
satte
tilstre
innsats
tidspunkt
ww
bef
utenland
sørge
##skont
##avt
##kal
ital
##oritt
møtte
pluts
spar
onsdag
jon
gjenoppretting
##dem
ill
apner
tromsø
##iks
##instit
wh
gruppen
mangler
forsknings
kjempe
karakter
oppgave
snakker
##annet
aktuelle
tilfred
tyskland
absolutt
husk
bekym
45
##saken
musk
sim
stund
google
##ms
rep
overv
##stemm
forsikring
treng
beskriv
##tteratur
systemet
ressurser
nylig
##polit
##gram
amb
male
siv
tj
##skri
spr
forvent
##holdt
##adal
2005
retten
kommuner
digital
tilt
asi
##slaget
tel
selger
utsli
statens
sentrale
rommet
##ansvar
publikum
##parten
opply
interessant
uken
gard
uavhengig
merk
frank
##gatt
##atør
trinn
##stillingen
avtalen
##nummer
menneske
##byg
strand
kontaktann
høg
kjenn
plutselig
hard
pasienter
just
##atelse
##alene
##ana
motiv
læring
191
benytte
##omradet
##ansert
you
utvikler
foreby
hundre
relativt
dagbladet
hardt
##uter
videregaende
nyhet
##ettet
endret
ekstrem
verdt
resultatene
fang
##iler
møtt
anbefaler
##onse
##handel
pasient
bestemte
##cc
vente
2000
mening
løsning
viten
politi
heldigvis
priser
##asjer
innom
##urder
##andid
##ollen
umiddel
##iger
##tekn
##prosjekt
interiør
inspirasjon
##ash
rik
russiske
fremst
sja
temper
haug
presse
egg
beskjed
tirsdag
##kjente
pan
##okrat
##mo
enhet
##butikk
suks
##kommen
sit
##ight
stemmer
anne
bevisst
beskri
sitte
venter
live
##erv
situasjon
www
with
bunn
lignende
##gte
omfattende
vises
merket
middel
refle
yrkes
middag
##departementet
trekke
nordland
aust
oven
##ben
imot
##irca
glass
##ias
kreft
##skj
jesus
lek
##prø
politikk
##rings
ansikt
problemet
hente
besøke
lei
nedenfor
tilskudd
mamma
fotograf
##ham
møt
papir
interesser
##lever
set
##skriv
jur
medarbeid
##ikkerhet
rettigheter
kron
nummer
praktisk
fremover
john
gran
ole
supp
##stri
unntak
##kring
eventuelt
helg
tadal
rapporten
bjørn
##ach
nærheten
##allet
tadalafil
##plasser
personlige
kristians
folket
arg
gli
arbeidspl
##oter
faglig
alb
##ines
oppdaget
utgangspunktet
skad
forstaelse
bad
##ffet
ii
oppmerksomhet
favoritt
##skiner
adc
uh
##des
serien
nyte
gjeldende
##dating
kle
jentene
inform
innovasjon
##attet
nes
##byen
ledelse
##redning
##lede
adcirca
tenkt
seng
smer
øver
maks
spesielle
vinne
##ls
delen
stortinget
kop
dagene
effekt
##opplys
##eler
lat
vennskap
apent
##ante
informasjonen
##bord
nettverk
we
vert
slatt
cam
eksempler
##ktive
ferie
##olf
tw
##essige
erotiske
##selen
verdi
prosessen
mote
stab
spørre
##ski
hjemmes
kraftig
begynnelsen
homofil
hentet
spilte
nev
##øn
fremdeles
løse
##ikler
annonser
wor
alvorlig
tids
kompl
kjenne
bidrag
helhet
israel
##als
fylkeskomm
sur
193
nat
modell
foreldrene
##jeneste
vol
vardenafil
fett
jap
neder
##iteter
##sto
leser
##omrader
##standen
36
hil
samle
velkommen
##ande
redusert
vitenskap
sjef
##former
symp
fug
vannet
arbeide
undersøkelsen
af
300
innholdet
##høy
##unst
##mmelig
identif
##ars
odd
desig
temperatur
##uren
interessert
varier
##aksjon
##messig
##mester
afri
forsker
studier
tilp
prosess
##samling
dial
##kkende
avdeling
ungdoms
beløp
kryss
vent
##øya
##smessig
kontin
status
nakne
##entering
tilstrekkelig
sens
sov
føle
hotellet
fantastiske
drive
##th
##iti
rimelig
ale
størrelse
##sord
##ærende
nettsiden
kast
##anten
skjedd
##vei
sats
##pr
sub
internasjonal
##ac
tog
foreg
teknisk
kristne
vivan
bibli
vivanza
trolig
##hjelp
##stud
total
media
##ledes
mc
ukjent
tegn
digitale
planen
gjennomføring
barnehage
uly
div
staten
hed
##tere
forest
foreløp
intro
atte
##iseres
russland
##niva
stiller
oppmerksom
arkiv
##svis
##tom
salt
virksomheten
trenings
enna
hjert
##abel
##ming
biler
##kommende
eksisterende
##likter
org
##klam
nil
flest
enor
stress
fremme
hvite
kirken
tenkte
forand
hor
revisjon
fredrik
artikkelen
arkite
##atiske
master
brev
son
##apt
kontrakt
omfatter
internasjonalt
fritt
hører
##settes
oppe
planer
up
au
lesb
len
pil
##sminister
undersø
forbruker
trønd
fjerne
starten
##rans
løy
forum
vindu
plast
klin
##edagog
tjenesten
kunde
col
skjema
andel
01
konser
server
##ørs
##yen
##bed
ryd
mente
spilt
sektor
mill
handle
rekru
president
dokumentasjon
bill
##kob
kjøretøy
##shus
forbud
spis
##fun
positive
32
verk
##ika
evalu
##ors
møn
##skriften
tanker
kamera
flytte
anledning
kred
opprettet
svenske
myndigheter
##nevnte
indre
gjer
skuesp
##iat
benytter
##ank
##delt
##tok
##informasjon
##gruppen
former
2004
ara
igjennom
oppfordr
##tten
guds
##ktoratet
##urte
forbund
##sko
funksjoner
ordin
kjøpte
gri
trøndelag
##ung
##zz
apning
##asitet
##inter
##dommen
ansatt
skader
tale
##its
##natt
##aut
publisert
##agelig
ok
##ick
svarte
##fot
general
rog
##brudd
mm
jevn
##staende
##borg
øvrig
##budet
befolkningen
typ
skul
utarbeid
selskaper
evne
skyldes
##iering
##rekk
kommentar
##revisjon
##risk
tekniske
##utstyr
nettsider
skjønnhet
etc
verdier
forplikt
uttry
konsent
##ita
##iteen
levere
automatisk
grunnen
settes
forbedre
laste
##produksjon
smart
samsvar
##etten
##stedet
##son
##ssp
pengene
33
##gjort
vm
gjest
arranger
alko
undervisning
##henger
##mot
falt
dav
universitetet
tenk
##unkter
spania
ramme
institutt
##ørende
arrangem
gjennomføres
cont
##istene
overrask
skriv
illust
##ior
erik
komfort
##ica
økte
detaljer
frisk
diagn
##savt
suksess
ordet
##ada
gravid
lond
frukt
organisasjonen
##miljø
mi
##økene
posisjon
alkohol
trene
prim
sendes
##elefoner
revol
bio
kvart
##skom
arlig
fare
##fa
##mas
umu
christian
kul
ventet
gjent
##ommene
##ics
##ikal
##aking
ball
##bane
utvalget
trygt
flykt
fru
anner
velg
tilhør
nasjonalt
utlandet
olav
retningslinjer
førte
dikt
##æren
##kor
reklam
hovedsak
##bruks
profess
##sbe
solid
mad
titt
##stin
##histor
ki
xxx
##yttelse
htt
begrunn
helgen
spra
##oven
09
aktører
lis
konstru
##vekst
vedlegg
##utdanning
nm
##inga
##edrag
batter
##aket
kristian
underholdning
litteratur
kjend
hau
lover
##beg
##formen
##verks
##riske
##yrk
##sstil
minim
grader
bruken
##fart
løpe
##ich
fær
røde
omgang
##enterte
ør
bærekraft
##band
##veks
gass
endte
##samfunn
##ordin
tilretteleg
utføre
forny
synd
snakket
##mming
dialog
lurt
driv
##ction
##struktur
##iens
utsikt
ledere
listen
##sson
##uen
##ningsm
rent
redd
undersøkelser
aktive
offis
musli
reng
skoler
##nem
vesentlig
øyn
innkjøp
deltok
etterhvert
skatte
tider
##abet
plu
institusjon
hit
advok
bygger
økning
london
leie
forbered
annerledes
cook
krigen
veier
benyttet
behovet
##fjell
umiddelbart
steg
melding
opprinnelig
sentr
vell
lars
tilpasset
runde
lest
begrenset
##skv
faste
ført
kandid
trodde
rot
drept
##ape
##ual
kapittel
eld
ple
trekk
invest
##ffer
ær
stod
##bry
ufor
foreløpig
34
##rettet
demokrat
nu
ansvaret
wil
##arked
190
nyttig
pet
visste
kra
valget
sender
etterpa
kjørte
##føringen
festiv
##gruppe
dyre
krimin
psykisk
klokken
nettdating
##aser
orig
inntekt
##kamp
barnehagen
##grupper
datama
samarbeidet
sosi
##urs
gave
aktivt
net
bransje
##hund
##lan
synlig
kamper
##angen
understre
situasjoner
entre
kne
vekk
positiv
opplevelser
struktur
##ometer
##ius
##nader
##etil
forelig
positivt
tilfelle
relasjoner
konst
##vide
landets
don
eid
oppbe
artikkel
eventuelle
sort
##omrade
planlagt
angrep
næring
vapen
motstand
cup
avis
ekster
butikken
opprette
2003
##akelse
##ssjef
omkring
##ekom
milliarder
øynene
##ura
last
nødvendige
knut
sjelden
pus
##yrer
relevant
##psjon
engasjem
camp
informasjonskap
minste
kontor
erotisk
england
forvente
liste
tradisjonelle
materiale
symptom
samling
bonus
##enteret
erotikk
kontaktannonser
munn
støtter
kunstner
##skapene
flert
##egg
##stede
minne
marker
umulig
mangel
gal
lykkes
mult
forsiktig
bakken
mol
##nor
gled
##antene
lokalt
fortalte
datingsider
teknolog
park
##oc
##haug
behandlet
bydel
##stav
##grepet
kg
naturen
##grader
konfer
vond
##sels
##lege
grund
næringsliv
##ligheter
##ulere
følelser
kalles
##rening
##middag
fremm
utslipp
##inge
##post
##bred
analyse
resp
##arn
##slige
studentene
opptak
##ellet
##indu
##lemmer
økende
##ekan
syns
begynt
europeiske
underveis
tyske
##belt
##ykke
oppstar
radio
argum
sikt
godkjenning
tilnær
##gging
respekt
##ringen
mottatt
dvs
bodde
kristiansand
selge
forskjellig
##annes
leverer
religion
opplevd
##folk
demon
karri
##inke
##sreg
origin
idag
begre
##jet
formann
##gir
##sessen
##havn
##sleder
rettet
fortell
##inder
kilde
##ellene
handverk
utbet
sjel
vurdert
##sbru
##verdi
##sled
##skog
##steder
bygd
nest
innbyggere
amatør
forsv
stem
forstar
##terer
isl
etablere
engasj
kurset
svensk
veiledning
##ott
##ertif
##kkert
vedkommende
bol
sju
initi
192
inkluderer
boks
foredrag
##forening
##skrav
manglende
agder
johan
hørt
forsøker
innspill
plassert
##sniva
stemme
kvinnen
egnet
firma
gen
fremtiden
hevder
solgt
gjens
leke
avfall
motiver
slekt
logistikk
pape
støy
stim
martin
##innet
glem
mester
reiseliv
hvilket
##legging
styrem
##mus
smar
nærmeste
nytte
kjed
snakk
list
myk
landbruk
direktør
pul
akershus
skru
##endørs
##gjer
avsluttet
##enen
dommer
symb
bytte
melde
##ese
inntrykk
##skil
##hl
banen
08
loven
##ynt
skar
##bilder
##handler
utdannings
kategorier
##ua
sannsynligvis
anmeld
norweg
skjønner
##mper
levert
##pene
sentralt
formalet
handel
spesiell
butikker
mangfold
omradene
viss
helset
##virksomhet
lærere
konto
##tiden
##ton
##han
##kninger
korre
innb
ske
sakalte
##ld
##fi
undervis
huske
##ingsmid
##sad
fleks
##30
ledende
hverdagen
ovenfor
kampan
ideer
moro
utel
##habil
ferdigheter
taler
##anal
##klubb
arne
##kap
dekke
189
dør
thom
##gger
nøyaktig
##irektoratet
innstilling
##stilt
legemid
skriftlig
enheter
eventyr
##slig
nydelig
jenta
##edes
husker
produsert
pavirke
eksper
raskere
blomster
ligge
forhandling
##esel
37
faller
400
##sar
mistet
statsb
oppstart
platt
##spektiv
sag
install
konsert
svø
stabil
turer
personopplys
##meldinger
##ida
mik
kommunens
##kre
##ennelse
fril
sms
##sarbeid
sold
lurer
færre
##uksjon
##vent
stats
##ctor
tide
egenskaper
brukerne
petter
løsningen
opptil
debatt
penis
fullstendig
##spolit
##løsning
##sti
##virkning
følg
kravene
spre
følte
kommentarer
##annen
kirk
arsaken
matt
##osisjon
##sik
anders
forst
tit
##spør
velferd
##spil
##jøring
trans
sof
beskrivelse
kreditt
programmer
frig
##kking
album
oppgjør
##akte
fleksib
38
arena
##ll
kjøpes
##vante
ettermiddag
slipper
nabo
frankrike
sølv
utgitt
hell
vo
areal
nam
##aner
##hel
hjemmel
operasjon
terror
##terte
norwegian
forvaltning
lab
arbeidsta
nøye
typen
maler
##arm
##sprosjekt
farlig
##ta
fab
minner
ledet
pedagog
##oteket
drammen
partene
utmerket
hurt
parkering
##nu
1000
repar
forslaget
2001
##øver
preget
enige
##løse
##ander
##nene
frykt
svare
kostnader
skille
rol
islam
innh
stal
nærmest
##fisk
konsekvenser
normal
passe
##møte
ip
myndighetene
slar
romant
##imensjon
mulige
iv
planlegging
fungere
tilstede
forbi
grenser
ytre
metoder
asyl
rab
fitte
##rende
##press
hyl
omgiv
delvis
kina
tillatelse
olsen
oppgaven
huden
##strøm
deltakere
nede
##aliteten
pga
ekskl
forskere
fylle
kaller
trav
2002
møtes
forventet
bredt
##bon
##illa
kyst
vondt
hindre
ntb
##industri
representerer
arkitekt
markedsføring
nettbutikk
75
arbeidst
hd
melder
paul
rolig
tvang
senior
sterkere
merker
personen
trekker
herlig
opprettholde
erst
garden
hode
turist
presentere
##isse
verken
myndighet
##ielt
kjørt
##sil
stikk
utarbeidet
lanser
##nok
##nett
##oper
flytt
betaling
##kkelen
##enhet
##10
pavirker
leverandør
professor
hjemm
##che
##gaven
skaffe
kombinasjon
hjul
fan
konflikt
faren
tilgjengelige
entrep
linje
##edskap
39
hull
frp
ac
##rel
skjerm
uttal
spare
utenlandske
aksept
gjennomgang
beskrevet
##vendig
tilfeldig
fantas
##ging
##unnet
giftet
dobbelt
##pan
fjern
besøkende
##skrig
galt
anvend
##bur
skilt
bedriften
##anner
grunner
##setninger
lid
koselig
sikrer
aringen
vinteren
peder
feltet
lot
diskusjon
midten
dans
enig
##itering
kundene
epis
dus
play
##settelse
##banen
sav
kristen
dyp
dit
singel
levende
baby
brudd
tvers
##etning
entrepren
innled
tilknyt
##indel
##bes
foreninger
##mmende
##fulle
##komst
garant
leter
innrø
##inen
overnatt
terreng
##able
##ativer
##hjem
virksomheter
ander
##duksjon
mobilt
strategi
##bruket
vurderes
188
visst
frist
deltar
artikler
kø
fjerde
kunden
pappa
uka
##verdig
vurderer
##feltet
##rest
tilbudet
samfunns
##oo
sammens
cat
baten
gate
##være
engasjement
##kontroll
##nr
kommunale
dog
jød
##kjø
dokumenter
historier
bistand
##kser
##øpt
hagen
fler
def
kapasitet
rekrutter
herunder
østfold
show
##skjer
55
air
##sser
morsomt
syv
medarbeidere
reglene
##vest
velly
##iseringen
##løpet
##makt
utgifter
wik
serie
bir
turner
lyn
administrat
##tatt
##rapport
storb
praktiske
medlemmene
jør
##jo
takket
if
##bevis
konkurransen
##ligheten
milf
relevante
handtere
troms
##sene
kreve
flink
forsøke
motta
##ament
korte
kaffe
isol
##ubber
fysiske
miljøet
diver
minimum
##drer
bodø
feir
sambo
prøvde
observ
kreves
oblig
gje
##grammet
sammenlignet
##setting
matemat
##we
bri
sykehuset
behandlingen
york
##amin
nettside
lykke
fordeler
##au
##dommer
##port
religi
støtt
deltakerne
faglige
hendelser
skre
hjør
##foret
frivillig
##øter
cookies
utføres
fengsel
halvparten
##vesen
##annelse
arm
instru
##sje
##liggende
frivillige
skand
fylkeskommun
øl
hjertet
##opplev
marit
departementet
lind
museum
##ktivt
statistikk
##lement
produksjonen
##oritet
stasjon
intens
modeller
velvære
##df
##mpe
forklar
##sund
frokost
tabell
byer
nom
overfl
##prob
belast
dekker
kunnskaps
##stol
##eleder
kontra
fulgt
##lend
##gard
##behov
registrering
forster
juster
skiller
bokstav
kontroller
##urens
ulov
naturlige
henger
hag
tilstand
beskriver
##she
rutiner
##kere
ledelsen
##own
##skjema
informasjonskapsler
kilder
sosialt
##vekt
omfang
##atning
##eier
##minn
##ensasjon
kas
##rud
verne
unike
##peri
##ketøy
mønster
likte
island
størst
spiser
alex
samtale
sliter
eksa
kontinuer
produktene
##egru
ram
48
##bøker
innskudd
sene
overgang
retur
rike
op
kriter
##yre
##ikke
generelle
vat
utvidet
altfor
##oppgaver
syntes
vennlig
grønne
deltag
##igere
char
søknaden
hotel
bær
hansen
kritikk
storbrit
##har
42
##sent
produktet
##ismen
##bær
kapital
ballen
klim
##orene
fulgte
##ube
betal
##jøen
##kobling
teater
##jørn
frihet
##øye
triv
effektivt
plassen
##slet
hovedsa
øya
forskjellen
##vidt
doll
##anke
dekket
konkrete
##rafikken
anna
indik
løper
##kel
storbritann
##autom
lad
##gjøring
kvinnene
##edal
grunnlaget
hytt
ent
møteplassen
garder
06
##hi
tingene
byr
stede
representanter
kravet
05
foreligger
negative
##elighet
##ving
slippe
barnehag
befinner
treffe
arbeidsmiljø
ødeleg
##uddet
visse
likestilling
fortj
konsept
##rop
##emark
##arden
##boks
smerte
vill
avde
arbeidstaker
bevil
anlegget
##skraft
sykdommer
forklarer
trend
jac
øyebli
elektronikk
mas
rettferd
svarer
##idrett
arbeidsmarked
aksjon
selskapets
##ksen
behandle
foregar
##etting
##oft
avstand
betalt
oppgrader
thomas
utstilling
opplysningene
vansk
bøkene
pluss
##sløs
inge
vokser
øyeblikk
bøl
##ule
##opplær
engang
flyt
teksten
avgift
mail
fylt
overord
##aren
boliger
##løst
krevende
kjemisk
##inde
danske
##vakt
klat
150
bos
antallet
##partiet
kilometer
afrika
arrangert
out
47
##vensjon
massage
evaluering
anon
##rus
hovedsakelig
landene
agent
nevne
##aktiv
site
##nne
daglige
##arene
legen
besøker
pupper
forklare
bob
ton
sertif
profesjonelle
bedt
##akk
##tr
leverandører
initiativ
##akon
paris
systemer
##fød
escorte
##produs
alvorlige
##wer
hemmelig
##ep
aud
44
mos
pause
rart
##skol
##mos
tyrk
havet
finnmark
##yp
##aa
anbefales
trygge
lavt
##petanse
uv
##ain
rene
friluft
fjellet
aften
##nede
gjester
##bol
avtaler
adresse
regne
meldinger
natten
skapt
utfordring
øyne
dreier
##ational
##leser
##skilt
temaet
##dyr
tanken
menneskene
187
austral
stral
kone
fond
kvaliteten
veter
##rim
søte
kines
arter
lette
oppbevar
##flyt
naværende
utforske
##dø
metode
hurtig
borger
leveres
fortsatte
opprinnelige
##kjøring
haret
regionen
undersøke
garanter
city
forestil
dyn
mengder
advokat
dens
skjermen
your
beslut
seil
##tokoll
registrere
human
##ood
marg
##last
aksep
##rimin
yout
diverse
jub
##ya
ordfører
spillerne
##rede
##iel
tverr
oppover
##inet
02
riksrevisjon
stoppe
black
forlag
deltakelse
tilknytning
tildelt
##yk
demonst
koster
##speri
kompon
erstat
186
ulik
##lagte
##angel
milj
søt
drar
##rut
mulighetene
forar
tjenestene
##ogen
sykeple
##alender
bygges
##bler
prøvd
elektronisk
utenom
nevnte
orientering
spurte
##ley
sæ
##navn
ult
obser
rehabil
sove
##yse
leir
##liste
##ec
##ingsmiddel
innsikt
##likevel
##udsjett
samarbeidspart
oftest
##ørte
avkl
##minister
##itenskap
##ona
kontinuerlig
klage
bag
##asjen
##personer
esp
hast
oppgitt
forholdene
##skyld
rogaland
##ilde
forskjeller
partiet
fordelt
involvert
risikoen
##osof
konkurrans
avgjøre
henvend
kjer
kritisk
lave
reser
presentert
info
hjemmet
mac
thor
hest
comm
føles
gunn
ntnu
logg
grense
slit
optim
aka
italia
andelen
stolt
sjansen
wind
karl
##utte
vilje
fylkesmannen
perf
beskytte
##stra
storbritannia
fellesskap
servic
##avgift
inngar
##førsel
reiste
bryll
pasienten
kommende
##grens
regnet
kate
strid
##inene
svak
##sesjon
regionale
##hengige
##skrifter
mørke
bestemmer
vurderinger
britiske
lært
designet
igang
bandet
tekster
mikro
##sprogram
modellen
tyn
utenriks
farmas
##blo
##verktøy
lam
barnevern
hyd
##grad
##lek
interessante
##egj
bransjen
buss
speed
samliv
lunsj
##frastruktur
skuespiller
forekom
fredrikstad
gamm
gifte
menneskerett
folkeh
appen
jurid
framtid
likt
##su
reag
07
beredskap
ekstremt
scan
##ykker
vakt
##bytte
avdel
utelu
inspirert
fisker
ukra
front
kvinnelige
klokka
##barn
restaurant
aksje
eldste
generell
##hører
##urdering
kore
studiet
foss
følelse
stift
##nus
utro
plikt
instrum
utse
##ford
##inert
##hr
brukeren
41
testet
##kam
medisinsk
kastet
innsat
##still
##ktoren
perfekte
lim
regnes
opphav
##aksjoner
##iment
sørger
##øt
bursdag
##viser
trygghet
##esund
motsetning
dimensjon
fen
historiske
stig
rammer
usikker
riktige
gjennomsnittlig
grep
malg
##anda
peter
flag
rulle
##byra
definit
skogen
##delige
tørr
arrangement
vestfold
line
##sinn
##inav
darlige
symbol
seksjon
03
medfører
mom
fjord
beregnet
oppn
mont
kosthold
world
ola
dollar
##skip
redde
kreativ
prosed
engros
semin
46
big
tonn
##apir
hoteller
##jul
allmenn
sivil
innført
mg
verdenskrig
##ulering
famili
virk
##ions
43
apenbart
divisjon
##øpet
sover
sidene
elementer
snar
bakgrunnen
##elet
##erende
##kan
familier
##stall
sjekket
forventninger
engasjer
kant
øye
##ulerer
##ioder
##isp
##ikerne
anses
konge
institusjoner
anbefale
##vennlig
##legget
dekk
##start
##attes
tallene
mak
ryggen
regulering
million
##atere
sirk
hunder
sies
gutta
grundig
ivareta
##sky
fn
sykdommen
bestemmelser
##eloven
imponer
datamaskin
shopp
minutt
samler
karriere
maria
nedover
perm
tusenvis
##stekn
prop
begrepet
##somhet
##ionen
##igh
overgrep
besøkte
arab
analys
maling
##film
identitet
haha
hunden
smil
bestemme
statsminister
##add
muslim
søvn
##edd
vedr
bit
skogbruk
mr
johannes
null
trump
levering
gyld
fortalt
bortsett
ess
vag
marie
vaks
glade
##sloven
##ttene
personopplysninger
##vernet
representant
styring
motivasjon
forurens
produsere
ekspert
allikevel
biotekn
##ari
##espør
##ilsynet
##skuddet
iph
passasjer
opplevde
fak
forsøkt
nærmer
sum
tant
bæ
innføring
revid
##istan
aksjer
##stjenester
vand
##iland
##sevne
innkal
##agram
rav
kok
##alinger
ektef
lengde
##drift
##okk
gevin
opplyser
klassen
##barhet
##ansene
##elde
fabri
##fs
##ype
##wa
##rering
##val
##dagen
atferd
1990
verre
apotek
pi
oppdrett
##vo
optimal
spørsmalene
orden
plag
hender
bibliotek
pakke
##kretær
##stiltak
bass
flertall
mekan
kommunestyret
04
##ds
##merk
ender
ende
kommersi
militær
mun
teste
sus
nødvendigvis
##elling
youtube
forhap
gay
fy
utgave
løfte
ordningen
600
##følgende
##presjon
por
døgn
varmt
##vi
øvre
profiler
forhin
posten
##posten
harald
##forbundet
misten
prost
farmasøyt
prosesser
##uk
etterspør
65
##sprak
effekten
##present
one
statt
##isteret
##brans
180
mottar
forvaltnings
##merker
oppfordrer
fjernet
##holm
utfører
mengde
hjemmeside
sites
organisering
befolkning
spred
##uta
handels
##personell
tend
cal
##stiden
innga
hovedstad
viktigere
fravær
regi
##result
##retning
styrker
##bi
lansert
##ella
vellykket
akadem
inf
takt
david
##omen
##sre
næringsmiddel
behandles
inngatt
populært
stoppet
##elset
kjerne
jens
##ktighet
tenn
##pping
stilte
##hal
kjøkkenet
infrastruktur
eksklus
rust
##mmede
programvare
##ria
seksuelle
kors
1999
sinn
matematikk
##biler
ner
kult
forbe
bind
grov
sekunder
svaret
##valt
bordet
molde
##egnet
nys
##ows
##ze
utforming
totale
##ansvarlig
bestilling
gulv
##skoler
sjanse
stillinger
alli
analyser
##skost
nært
følelsen
##ato
fartøy
fransk
japan
kull
konsul
##api
grupp
magen
##givning
##wn
betrakt
leker
holdes
dn
##inerer
drømmer
evt
betaler
andreas
franske
alternativer
vars
drevet
assist
arbeidslivet
this
##ordning
møteplass
sem
imm
colle
pale
bruks
foreslar
##spiller
##svalg
##pix
slutte
telemark
samtlige
noens
morsom
utbygging
likhet
ros
undertøy
radgiver
##rommet
forholde
arsmøtet
rock
mv
##ute
pum
hytte
utvalgte
dømt
utøver
##ited
fattig
##basert
klassisk
pak
##øg
yog
bot
tøff
leag
liksom
tilpasse
##send
##job
perspektiv
##forn
vanskelige
unik
personal
##ii
oppvar
##rasjoner
gle
nettleser
spenning
morten
global
arlige
##renn
##ating
##veksling
##arbeider
inde
prosjektleder
##ola
overraskende
sapass
engasjert
utfordrende
oppsummer
virket
faktum
bærekraftig
andres
##vise
sne
##rerende
##ace
vakker
eksamen
##sfri
ikt
canada
##poeng
##enser
apple
##leve
effektive
politikere
medie
varierer
sendte
##ilitet
##isser
datab
iphone
##lad
##behør
sikret
##aterte
##foreningen
telefoni
involver
scanpix
##splikt
rosa
fakta
beholde
tempo
49
separ
parti
las
været
##sidene
##ora
historisk
##cy
##siktige
organisert
musikken
adre
##abri
##ilder
presentasjon
hensikten
rødt
nøkkel
fornuft
##arch
##datter
##skar
##litt
jam
##rur
væ
anska
league
aktuelt
##bø
tillate
døpt
##pas
##kende
samarbeide
##tekter
##hop
##ppel
##irektør
lane
regner
grønnsaker
forfatteren
hels
##ely
materialer
malene
##foretak
ærlig
##kr
psykiske
inntekter
mobile
bevegelse
##ukt
virkeligheten
##smid
avløp
##inerte
##40
fakult
vegne
fersk
riksrevisjonens
##omradene
##odene
oppdage
foreta
overrasket
agentur
##smøte
##ggen
trengte
retter
forsvaret
##yer
##saktiv
##edlemmer
bekl
lund
##edia
verste
skudd
52
sluttet
##holdes
##organisasjon
metall
bryst
ran
dep
vaske
fulle
samtykke
##aden
halvt
konsesjon
handlinger
##alb
bb
##ssystem
##sig
vegg
kjennet
hapet
los
engroshandel
samhandling
farmasøytisk
gjestene
##tur
faktorer
arsaker
slette
filosof
ideen
slapp
tøy
scene
kongen
##sdal
spen
has
##økonom
##illet
vanskeligere
stu
høres
resul
tone
klasser
rum
kab
bygninger
tungt
oppført
yng
##vold
betong
##aken
malgru
finansiering
##beveg
gradvis
##ave
##ittet
##ye
##æring
nb
nødt
støv
##spillet
##forskning
infe
##bør
##iko
tenar
spesialist
##inerende
http
planlegge
spilleautom
frø
##tekt
skadet
##ggende
cre
##brett
##utere
sakalt
trist
prisene
##chel
##samlingen
taket
miste
1800
klager
##fjorden
brutt
##veier
formen
krf
##iert
##skon
plate
karet
søster
andersen
begrav
##cke
tyder
typisk
##faglig
kaste
##messige
gaver
misjon
koble
finan
instal
systematisk
utvide
darligere
reduksjon
##blad
lyse
skinn
##dige
homofile
plassering
tester
##fond
tung
presset
studer
tilbakemeldinger
nødnummer
vidt
more
blad
profesjonell
##cel
twitter
sving
premier
samtaler
utendørs
##alderen
##system
golf
sistnevnte
løpende
##planen
utnytte
busker
amerikansk
foretatt
stillingen
bane
fing
##mosf
bærer
bekreftet
##delen
grensen
muskel
##aktør
utfør
rente
##ransport
snu
arhund
##edlem
sund
forventer
bioteknologisk
##com
søkte
##rinn
rammet
##vitt
mes
tida
inngang
##xt
henge
debatten
vokse
##inske
handball
midlertidig
het
innflyt
deleg
forkant
book
tillatt
##lant
##way
sønnen
skyl
anti
jorden
##ico
vib
##ini
sandnes
moren
muligens
balanse
skred
industi
kjøle
##fre
detaljvarer
##hammer
statlige
solberg
anerkj
laks
max
populær
forhapentlig
haugesund
sande
hob
bebo
##vene
øvelser
ulovlig
sola
symptomer
papeker
svein
noensinne
back
etablering
forretnings
videreutvik
##stasjon
nysgjer
##gress
passord
biv
teamet
hall
studi
deles
prat
stilt
lagre
from
##undersøkelse
atmosf
meldt
dukker
##vanlig
barnehager
##vart
99
windows
definitivt
bidratt
lete
ventil
##gd
plikter
trukket
##taket
##user
parad
##ksjonene
beskyttelse
innvil
ubeh
eiendommen
utbygg
studien
##sendt
danse
ukene
##cial
##offer
ps
fat
skifte
temaer
leger
basis
fokusere
forretning
##istri
##rykket
teknikk
hedmark
india
cor
rand
jensen
##sakene
##fug
##vd
hamar
maneden
helga
##ally
frust
##onger
##hu
##ørr
link
bratt
##bing
forbundet
søkemot
##cam
perioder
eventuell
arsmøte
that
##splass
etn
##visor
revolusjon
tilbehør
fasc
love
poker
reaksjon
##spar
ull
kontrollere
innvandrere
##mater
investeringer
##støtte
##car
tiltre
ast
ødelagt
ungdommer
##lesund
forening
import
studio
italien
virkning
##vilkar
herre
tils
kvartal
oppgavene
51
##igen
diskutere
henholdsvis
mister
fastsatt
øyeblikket
vinn
##hengighet
nettverket
kortere
knappen
forsøkte
##ala
tube
munt
lesbisk
vedtaket
kommunal
epost
##atikk
##rerte
peker
##lyst
medlemskap
oppdatere
humor
##ance
hvitt
søknader
##lir
arv
lesere
skam
hjelpemid
##fakt
belig
følges
brun
offisielle
##endal
##resten
##filmer
ifra
parørende
foretre
omtalt
planlegger
nordiske
ungd
ansett
lovlig
##festiv
latter
knulle
800
ansiktet
##mynd
rid
høgskolen
cru
mur
##vask
maksim
bj
amerika
framover
skandinav
instagram
pent
forleng
kjøring
tunn
##pert
##prisen
raske
storm
bønn
selvstendig
tilhører
jak
##risen
bryllup
ask
næringslivet
thailand
avslutt
##iness
motsatt
arbeidsplasser
##sbas
##skader
diskrimin
##prosjektet
lagene
pleier
##egard
##lf
##onsen
inneholde
brasil
tapt
flyktninger
trengs
verdif
##idig
alders
smab
##kurs
larsen
kategori
##ssenter
##førings
tilhørende
registrerte
##hild
beskrive
##bal
##rister
satse
russisk
alesund
isted
bryte
unød
geograf
##sikring
##rette
kjønnsle
1998
sanger
komite
blogger
ringer
##sforsk
##onert
kristin
##ingelser
kjennskap
vunnet
hage
borg
hord
annons
oppvekst
still
heg
##ipl
fork
##innen
nederland
bygnings
##ela
alf
morsomme
##legger
akutt
inc
leste
1997
##gde
##okol
komplett
magas
reklame
##isiner
sakene
kose
flat
opplevelsen
identifisere
##orier
intel
ler
##systemet
##styre
kolon
eøs
volum
skjel
tankene
lede
utfordringene
barnets
##bak
bærum
presenterer
etablerte
dansk
stilles
introdus
barns
byens
jakten
##ryt
ib
endres
##ffen
dru
nedre
##ric
##kommer
##ipend
##splanen
##sperson
##18
vask
2019
tunge
arbeidstakere
tore
vass
##moen
maskiner
same
##inere
happ
materialet
spurt
##rerer
##regn
brønn
prosjektene
rehabilitering
##yper
##bransjen
utøvere
kollega
56
##ova
cir
##nsberg
##program
omtale
##politikk
ug
##olje
invitert
rekord
down
##entert
pdf
parter
kalle
high
satser
utseende
ule
forespør
agg
##teres
minn
##maskin
berø
##abelt
est
finland
trakk
friske
potensielle
##sliv
endringene
##sjef
stoffer
tittelen
strekker
syd
sikte
romer
dyktige
kjendiser
forebygge
##opplæring
##pensjon
eksempelvis
søkere
sikkerhets
applik
##sprosessen
##kultur
høyest
##illere
spraket
kjedelig
henrik
##ssitu
##knings
##fatt
##rasjonen
beslutning
neppe
dron
alderen
##selskap
##stur
fremmed
seksuell
cent
##sku
bost
kjell
erstatning
staende
dypt
geir
hørte
stopper
arrangementer
##sdatter
##reng
lærings
scenen
termin
fremfor
ingred
knapt
forsvarlig
robert
##beskriv
tilfellet
kret
nedsatt
hvorvidt
teknologien
##dring
graf
rollen
##kkede
sjøen
co2
read
forutsetninger
forhapentligvis
fanget
sammenligne
uen
enheten
##bildet
##stilbud
understreker
guide
jevnt
##kkere
skyte
hjernen
54
oppdatering
hem
dynam
klikke
moral
militære
##dret
swing
straks
##ware
utdannet
oppleves
67
##ssyke
galler
heng
dyb
jacob
foretak
##uller
stren
finalen
##vind
##sstill
##eten
tønsberg
hendene
bygde
generasjon
##strid
kommunisere
studere
sunt
fund
girls
oppfatning
utstyrt
guttene
apps
iran
klubber
##itar
veget
##omet
teori
oft
micros
##verdige
fakultet
medføre
veggen
##chat
miner
##lar
jø
##opper
landskap
overskudd
##gget
support
##vesenet
##øvrig
##atorer
øre
utred
utgiv
telefonen
##ullet
utgift
##our
stakk
nyeste
top
utbred
##bilde
##dra
helsepersonell
##organisasjoner
grunnet
hon
59
microsoft
##perioden
sorter
##gikk
185
regjeringens
rune
forutsetning
bakter
adgang
forarsa
regelverket
senest
##oer
##ktes
53
blu
west
depresjon
##deler
katt
lagring
##24
dekor
tilbakemelding
oppfylle
nære
støttet
konvensjon
oppm
ger
stengt
##klar
bygning
lyset
##arkedet
slutter
##edy
##lie
##uro
##bat
##cks
##14
fyller
ære
##busjon
##akse
foreslatt
##ikon
pedersen
selskapene
##ness
##jøre
klassiske
rh
australia
plante
forøvrig
dukket
##imer
##vinning
fullført
høring
##søker
naturligvis
##sberg
banken
##istikken
grønt
tjener
holdninger
øverste
øverst
##kurran
etterl
egner
eleven
sjølv
##innhold
1980
landbruks
beina
##avnet
oppskrift
fange
brem
kule
later
bygging
himmel
tilfredsstil
mere
oppdrags
tilknyttet
asker
veileder
anonym
##oppen
intensjon
bachel
handlet
videos
polen
##ssystemet
##foss
imponerende
250
maj
vig
hydro
##penger
buskerud
personvern
##helset
##lands
hordaland
bein
byttet
hoppe
##elagt
parall
langsiktig
##kle
##oppgjør
##produkter
leilighet
penge
pavirket
produserer
##legges
##sor
inviterer
oppfylt
alternative
ordentlig
58
funksjonen
nils
##hen
forsvinner
planter
korn
livsstil
dild
che
døg
globale
arbeidsliv
kartlegging
menighet
##unget
forelsket
signal
##tra
bevege
enorme
##ulert
angrepet
glemme
terje
foster
##ikasjoner
styrket
regelverk
besøkt
hitt
champ
##sla
##ekont
##kir
##klass
aktiver
netto
endrer
radi
##gas
kontakte
jevnlig
smerter
slappe
krefter
magnus
aftenposten
tradisjonell
hørings
korrekt
vedrørende
kalender
kvinners
roman
bens
helhetlig
johansen
##raden
##krav
57
flinke
blikk
##engde
tinder
##stolen
ec
##prosjekter
metoden
bryter
beliggen
holm
begrep
viking
##savtale
prom
let
koste
85
formidle
##appar
relasjon
##ney
elite
riktignok
lytte
garantert
investering
##eltet
##spr
##butikken
lokaler
reist
engelske
sjokol
##verden
kjønns
komb
##flate
##ism
varsel
##smessige
produsenter
grand
annonse
##anna
boligen
##skontroll
ingrediens
##markedet
faget
emp
##ble
##avtale
##oth
vilkarene
skolene
nivaet
##bit
anbefalt
drev
##bjørn
forventes
tiar
fornøyde
eksplo
95
pin
##udere
mig
##ement
dispensasjon
deltaker
riv
##ystem
garn
gulvet
glemt
62
ordinære
landslag
koordin
##sex
##dalen
trykke
gren
lillehammer
vend
barnd
hytta
tilgjengelighet
1900
##iken
kino
himm
beveger
##ordningen
behandler
kaldt
kari
##ati
størrelsen
##fullt
stock
versjonen
kundes
gn
##ialet
carl
samboer
https
bater
irri
palit
samarbeider
toal
hehe
stk
luks
personlighet
nh
anskaff
##reise
smartt
paske
##oda
##ilbud
##haver
##isa
##industrien
religiøse
##15
innk
##slatt
rig
brød
##sanlegg
referanse
##sikkerhet
##eth
ott
laveste
##klæring
destin
1970
##atører
arrangementet
##sborg
business
##spor
villig
utløp
hf
##havet
utfyl
##setningen
stjerne
##unnskap
havnet
##12
forstyr
vr
##mmens
fris
##selskapet
##sprosjekter
##elsens
sovjet
svanger
hr
##lister
gjennomførte
statsbudsjett
cd
apnes
vitne
tilfredsstill
koll
visjon
elektriske
phil
omsetning
liggende
trær
##matisk
stiftet
##cas
##sesser
eiere
##nda
##drene
utvikles
partnere
64
overlev
##atch
##legen
problemene
##astro
eksist
ali
##merke
vokste
##eper
##kapital
reaksjoner
##sper
rosen
vakkert
##ary
solen
##kreft
##ssik
søkt
##baserte
##arter
gress
nivaer
bror
dal
styrings
66
##oris
finansier
stralende
jar
funksjonshe
barnas
morgenen
ønsk
##værende
kombinert
junior
college
##ampen
skritt
tynn
##hau
##kvalitet
bestand
medisiner
##enteres
medisinske
##anserte
##stille
produsent
pasientene
besluttet
##cker
120
nyttar
innbyggerne
##følelse
døren
united
konkluder
##gruppa
times
kostnadene
cro
reduserer
trives
quiz
intervjuet
gleden
##leverand
reisen
enstemm
overnatting
veks
foreningen
##ommer
søkes
integrert
kunnskapen
mørk
iverks
sakte
sees
nyere
hypp
maskinen
3d
##ira
løst
##partement
##kta
billige
bul
gjelde
##krig
overføring
util
fargen
hilsen
##mord
fødsel
##stoffer
belønn
mennesket
andro
##osen
rute
soldater
shopping
kreative
endel
syl
behagelig
tillitsvalg
kilo
##varen
etasje
gutten
##vende
##itusjon
bekje
hape
rens
##wood
forskerne
##orm
angst
strikke
sykl
hittil
senteret
jordbær
abon
##abeth
##ano
##boka
hevdet
preg
fase
wikip
es
##ards
tiltakene
mengden
samarbeidspartnere
snitt
begrense
tilbys
konklusjon
singler
flyplassen
##mund
entreprenør
variasjon
##jenter
sykepleier
##odd
rester
tapte
##pal
##vika
styrer
feste
##aksjonen
skapte
gas
forberedt
##ervice
##institusjoner
spesifikke
##elin
administrasjonen
forbudt
handtering
##iven
sjanser
##ddet
##rot
drives
sec
opprør
avholdt
oppsta
alminn
kalk
møre
##feil
##spra
introduksjon
##hv
bredde
spiste
utdannelse
##park
gry
fullmakt
passet
kapit
utstillingen
kim
omgivelser
plattform
individuelle
##listen
falle
folkehelse
geb
##øyd
power
psykolog
isa
skra
##aldt
hjemmelaget
kafe
petro
##rør
regional
okk
tilpas
klem
avtalt
variere
jack
eriks
intellig
obligator
tyrkia
offer
avdelingen
utarbeide
##pot
billett
speil
effekter
oks
flørt
myr
innflytelse
##oil
nyt
##ypt
sandefjord
postad
bringe
piz
fns
##egler
nordisk
kla
beløpet
styrets
pyn
flyet
sanne
##nev
##somrader
deilige
munnen
driften
bety
stolte
##alp
rabatt
transa
varslet
##arkiv
1996
##virke
##16
##stider
avisen
rengjøring
sekund
liden
kysten
##elat
utstyret
dekning
184
moss
oftere
gammelt
døgnet
streng
gjennomsiktig
stemning
tilrettelegging
tob
vokst
fylkeskommune
bygningen
##date
mari
snap
##meter
restauranter
club
fortjener
øster
##bill
##senter
harde
ungene
##uligheter
##frie
hensiktsmessig
troll
kampene
jazz
wikipedia
##sens
verdien
smør
stykke
##fang
takke
pamelding
utry
##trykk
atom
oppgir
drap
pilot
bekrefter
rapportering
gunnar
##iff
reduseres
mobilen
evner
tidspunktet
##ringe
##bestemm
kjeller
avv
selges
traff
forsvant
distribusjon
##burg
act
past
##øyer
will
innsatsen
##irkninger
##vannet
spilles
elver
##gu
betydningen
##nevnt
phot
rec
diskuter
##lass
fed
kyl
oppdragsgiver
museet
forbruk
heim
interne
utlend
primært
forresten
plant
politid
shem
aspe
representert
meninger
##ystemet
##øyte
1995
skolens
tiltaket
helge
nark
elektroniske
ambas
uts
avgjørelse
kjendis
forhindre
sexle
mnd
baks
perman
rekruttering
eksterne
war
ressurs
asia
gjenstander
uend
##do
##nte
##osjon
sogn
prinsippet
fekk
badet
victor
enstemmig
ringe
servert
selvtil
kontakter
700
##gjorde
virkelighet
fel
storting
tillater
protokoll
##itiv
bunnen
tendens
wal
sveits
personell
element
may
##problemer
forlate
kode
evnen
##veil
telen
agen
fremtidige
##falt
##faring
debut
forbedring
berlin
##stjer
vegvesen
##undersøkelsen
flytter
kirur
##norsk
##byr
videoen
##sforhold
foretrekker
happy
tøffe
##selskaper
##ianter
negativ
##umin
leiligheten
sykehjem
camping
stortings
tilnærming
internt
dannet
gjennomfører
gjenstar
##mi
romsdal
elektrisk
##orge
radmann
innføre
generalfor
##ografi
##styring
krem
##seth
navig
lisens
dramat
##kunst
noveller
formidling
##smater
offent
virkelige
##esterett
budsjettet
von
utfordringen
liber
aff
kald
sult
##funksjon
samlinger
##dringer
afg
##back
overalt
oppdraget
kjekt
tradisjoner
kopi
149
hyggelige
gruppene
maltid
##ky
bun
overført
hellige
##yting
lønns
definert
noko
97
orgas
oppfyller
##menne
##interes
##æl
samlede
gunst
sannheten
melk
arrest
bivirkninger
radmannen
regelmessig
høyesterett
jernbane
android
pkt
##uth
##iserings
nevnes
katol
cum
ins
##ineres
bibel
aring
old
journalist
kandidater
##muse
mov
tørre
sarp
bosatt
tilfredsstillende
international
##ualitet
langvar
##parti
##resjon
skutt
##ipp
salgs
spons
samferd
saledes
fet
nektet
forklaring
ordene
manedene
kameraet
ytelse
##skop
arsak
kvalitetssik
hvile
tilsier
festival
frie
innvandrer
##veksten
acc
mennene
tilsl
viet
2020
rektor
##andel
karakt
innledning
##samfunnet
##ani
skjær
dildo
stry
diam
webcam
##pes
##pte
havn
statoil
##bert
##bro
##besk
kulturelle
swingers
underlagt
##lovens
##ekn
##que
word
trafikken
datas
usikkerhet
##11
lidenskap
apenhet
##ful
##rete
møbler
gjenkj
skjemaet
uvanlig
informere
skuff
##smod
gy
##forsta
forbruks
formannskapet
kriterier
ah
helseforetak
sexleketøy
mobbing
himmelen
fordeling
arrangeres
evig
undersøkt
##run
##kampen
advar
deltatt
ruter
kjærester
##data
eksport
vestlige
tenaring
##ibli
##smed
oppvarming
1994
##onering
##ical
idrettslag
havne
hvorav
samleie
rettferdig
skiftet
##ara
ekteskapet
asiatiske
pafølgende
##sats
barnevernet
ukjente
handen
##fir
musikal
##vig
##lingene
syria
##hallen
avhenger
byene
uøn
sopp
ssb
personalet
spareb
sjokolade
##ids
ot
nakenbilder
make
sjøl
gruppa
protein
ettertid
erkj
rein
gram
##forsvar
##hy
scoret
utgangen
##aton
##bor
bibelen
utredning
fremgang
##uri
billetter
##otika
sper
##avisen
hms
##stjenesten
solgte
rak
tradisjonelt
##bot
od
forskriften
køben
##forvalt
havner
##utdan
gjaldt
definisjon
##voll
utbytte
oppskriften
erfarne
##versjon
etterkant
finger
veiled
opplæringen
home
##af
arbeiderpartiet
##mail
##vag
retts
##reis
legemidler
kva
vri
##ums
forutsetter
delte
##ool
forfatt
automat
treffer
mørket
##sbrev
vik
timen
##leks
##brø
stoffet
etiske
redaktør
##cup
##con
gjengen
bis
gig
inni
mannlige
hushold
utgaven
unnskyld
sjafør
elsket
##vard
appar
mottok
hobby
poly
helses
spillene
##iskap
sor
aktørene
##apeut
tykk
nilsen
sammenhenger
##strand
prinsipper
samles
##sforbund
##agene
oppland
lykkelig
hendelsen
øvelse
hakon
negativt
scor
##odt
sliten
jakob
relatert
larvik
sarpsborg
klubbens
##brev
##ras
dels
bussen
##uch
##garden
teoret
##famil
lærte
tingrett
##jent
velges
##smann
##my
##undersøkelser
##armer
##load
elis
merkelig
##stilsynet
egypt
femte
bryr
lengst
skilsm
##abler
gjø
fos
københavn
lukket
nic
bang
delene
##stikk
sørg
##aga
##klart
##innlegg
tax
skuffet
##ts
##smøtet
mottak
hundrevis
snill
argument
derfra
strategisk
labor
skien
##esen
##ath
##ommere
##eldige
søket
sjakk
tilsynelat
kunstnere
drifts
tabellen
trykket
regiss
##onen
##60
##sammen
konkurranser
elske
69
hek
langrenn
vurderingen
##ugh
ferdige
##cer
kalde
##forslag
##etid
røyk
roy
konstant
sed
##bakken
##ktivitet
mottaker
forebyggende
bekreft
behøver
##rul
antar
grill
fokuserer
kanal
anbefalinger
klipp
heldige
flor
1500
##fallet
nedgang
henvendelser
forpliktelser
talt
dug
konsekvensene
beliggenhet
##stasjonen
nik
fyll
skipet
ødelegge
likes
##kro
irak
##elever
##vegen
##løpende
paret
tech
##følger
fylket
tilsynelatende
tlf
lista
problemstillinger
strøk
kontoret
##befol
##amet
oppkobling
##box
##strateg
cap
72
##sprob
##kommun
runder
##sløp
##næring
variert
##gjøres
sammenlik
##etningen
##skade
##tm
datteren
tilsvarer
ker
micha
grei
vennene
infl
kategorien
medal
sekret
gjenstand
##represent
fysi
math
1960
##mmere
##betaling
##making
avanserte
nettbrett
63
blanding
blind
emil
##kkelt
elva
bonde
apningen
sittende
oppnad
hammer
arbeidstid
kond
dokumentert
utal
##arbeidere
interessen
norden
tildeling
overh
arbeidsplass
tegne
##bunn
##jesel
##sretten
journalister
utk
##arar
veterin
fattige
ankom
vanligste
styres
##enga
tittel
oppnadd
##ting
einar
##mmeb
cirka
##ux
friluftsliv
cy
baker
kunnskaper
##ktere
##nam
##anset
poenget
møtested
legit
treningen
hverken
vitamin
møl
spist
ledige
lesbiske
avansert
partier
størrelser
keeper
billigere
group
høytt
jubile
##ition
svake
banker
68
##rapporter
##spolitikk
##fødte
##forum
##ations
##historie
mess
avslutter
lagret
avdelinger
manager
meir
analyt
fad
yoga
sære
##seier
bidro
rov
intet
kamer
tilsynet
eta
hat
##13
##finans
que
forberede
dokumentere
##ws
tegnet
bekymret
ivar
gjentatte
bachelor
strikk
høyden
trekkes
##ci
kristus
ankl
sørget
godkjente
arbeidsoppgaver
angitt
iii
##gjørelse
##dato
vassdrag
elektro
##smidler
forbindel
tolv
hjerne
avsnitt
fremgar
tvunget
##gjennom
palestin
##orteføl
##ønster
##somradet
##anlegget
bjer
university
innrømme
willi
nydelige
konkurr
radet
poster
gjennomgatt
##miljøet
levde
count
fremstar
vedtok
bestemmelsen
hekte
had
##stjeneste
reserv
danner
##itive
spilleren
takknem
fullføre
##forskriften
##søkonom
mem
kutt
hovedstaden
oppdager
gratulerer
lande
aktiviteten
dop
fortid
hellig
saksbehandling
##irm
berre
##utviklingen
##frihet
lene
grunnlagt
humør
utle
hastighet
##ages
spekter
omstend
generasjoner
##møtet
urin
stadion
fortløpende
183
##samt
filter
noksa
##vnen
terra
valer
holdning
uro
##formid
muntlig
alp
##sprogrammet
##go
##avtalen
##hard
##brukere
vere
utelukkende
rydde
konferansen
##analyse
##25
jose
lederen
pad
usas
tomt
videreutvikle
premie
fortsett
pleie
##sperioden
##søkere
meldingen
##gis
modern
særskilt
##pos
kenn
##pleie
##ents
jula
forvir
arrangerer
installasjon
døden
##21
korrig
petrole
venninne
danne
lade
ekstraordin
##jes
virkemidler
have
ye
##ravær
verdiskap
##tein
planene
##sutvikling
bakke
##opt
ama
sammenhengen
stipend
innbygger
liter
##anne
anerkjente
istedenfor
fore
tariff
##vat
works
##bus
##jern
emner
tegnes
##øyet
hjalp
spa
kona
##punkter
kartet
##fast
77
1992
shemale
mestring
spent
sengen
##ulen
##skritt
flyktning
kredittkort
falske
##spunkter
konsentrasjon
1993
##fen
lure
coach
livs
arkitektur
brett
##ome
##splasser
utformet
ingeniør
diabet
seriøst
pig
toget
open
artig
alta
eide
##lam
base
##valget
##pool
klassif
oversett
skjen
nabol
hang
##aritet
flagg
opphe
ragn
innsyn
legemiddel
##parken
smaker
regnskaps
garanti
##boken
lomm
skjult
varianter
##edyr
tomm
profilen
hellas
forferd
##somrade
dører
##tekst
##ssels
##prøve
ønskelig
run
ranger
##amer
standarder
roller
komiteen
kontrollutvalget
unntatt
overvak
motsatte
intim
implem
økningen
##core
overordnet
skjulte
foretaket
kjøl
bedriftene
##øyene
distrikt
testen
innslag
##oppgave
forskrifter
##vitenskap
sog
##bygd
blogge
hunde
##spes
dagers
innle
north
utøv
skrives
tredjepart
foreles
overtok
##komne
kritiske
dets
stimulere
##oline
oppbevaring
##organisasjonen
kartlegge
samspill
festivalen
høydepunkt
stemp
dataene
jonas
##vennlige
kortet
##lipp
##bruker
skjønte
motoren
arendal
innblikk
telenor
individuell
fargene
arrangere
##cm
##egjør
pers
##musikk
dir
detaljert
levet
diagnost
##essen
william
sjefen
marine
gjennomføringen
##banken
##sbrudd
konver
hjerter
veksten
##aende
##hjul
eidsv
sykler
##gaard
uttalelse
dusj
scen
##hn
##utsli
teknikker
undervisningen
salget
##skift
avgjørelsen
##ila
##ødre
tømmer
good
bevare
styreleder
glatt
tank
administrative
nestleder
sau
instrukt
hende
tag
opplegg
faktura
uri
##80
angel
luften
##forbruk
døra
mobiltelefon
nyttige
##eled
trenere
fungerte
nederst
ks
##føringer
##deren
strenge
lit
espen
fantes
ille
ped
##komiteen
##dy
##fravær
konfirm
mage
pameld
arbeidskraft
pavirkning
pepper
nærhet
akseptere
innkalling
kin
aviser
oppskrifter
dødsf
savnet
##ttere
designer
fødsels
ida
bergens
kristend
fuktighet
ens
brand
nedlast
plukket
##begynn
##dager
##angrep
albumet
samisk
snøen
##pli
##ota
løft
##butikker
##tting
##grunnlag
##sbruk
damene
respons
moden
mykje
tekstil
jæ
alternativet
loj
stockholm
eus
##idens
seieren
statlig
##uminium
vitenskapelig
klø
slipp
##savgift
michael
##marks
biblioteket
scener
oppsig
valuta
##iljøet
daniel
beslutninger
##skrevet
overbe
##regel
gitar
fisken
modne
lou
trakt
##alisering
gjeste
look
blei
nedbør
grøn
##ikeren
temp
##ferie
omgivelsene
selvmord
stole
drag
reagerer
juridisk
mobiltelefoner
ud
skjøt
##chester
overflate
matchmaking
emne
strømmen
ts
diskusjoner
##anny
muslimske
kompetansen
##enden
oly
svikt
gyldig
lesing
bodd
romantisk
estet
forfall
ordning
##urd
##oser
##¸ˇ
ost
bestaende
##vapen
stedene
refusjon
retningslinjene
statistisk
uttak
##kontakt
kvad
sterkeste
aw
##areal
undervisnings
##sfag
##inasjon
toll
##sjekk
smarte
genet
kinesiske
##egen
##prøver
sannsynlighet
halvor
rich
immun
menyen
kniv
linjer
##19
ordinær
##kat
etikk
avslutte
kutte
dekkes
utleie
##kompetanse
fremhe
innvandring
##alere
pizza
midlene
plassere
##bordet
faktiske
temperaturen
##ordet
##æringen
angi
syssels
krise
tenner
betydelige
##stendige
##ces
timers
erstattet
entus
apper
filer
vinduer
##urser
revidert
tantra
knall
tiltaks
omhandler
##ots
feire
økologisk
politidistri
1991
shop
ze
spilleautomater
##løk
forskningen
dyrt
##reen
potet
##bia
tape
skjeb
latin
forhandlinger
vinduet
179
satsing
##skvalitet
herren
##øtte
##cher
##entre
lofot
jorda
tus
avl
enorm
elisabeth
ferien
gold
##utert
troen
materiell
attraktive
evangel
olymp
registrerer
ond
vog
dobbel
inntak
##smet
leketøy
##ulator
##bibli
referat
##haugen
datert
pøl
fremste
##chen
fremmer
##ekort
##usa
bestilt
cra
lagres
kundeservice
green
gym
permanent
##rand
##edel
tapet
aluminium
ns
avgang
sjekker
##play
##egrens
original
oppløsning
turn
avslutning
##virksom
tour
helsed
gjenspe
samtid
##elding
##ulasjon
fisket
suver
vinden
sofaen
kake
##fu
enighet
roma
passende
kontrollen
kjempet
opplyst
##feranse
##sverk
ukraina
##foreld
prioriter
iver
administrerende
forelsk
oppholdet
##problem
ded
langtid
bevegelser
hester
##ack
gule
eksperter
hær
naz
ferske
kolleger
aur
##olusjon
tillitsvalgte
jfr
##eløs
##undet
afghan
get
pedagogisk
kru
ambisjoner
kombinere
##spital
halden
operasjoner
##yo
late
##holt
jørgen
##imellom
##egang
femin
##værelse
##saktiviteter
##rater
konflikter
personene
unikt
##esenter
partiene
##sstud
prioritere
oppgi
##syke
stranden
meldte
turister
oppsett
innendørs
kontrakten
##odden
sivile
vinneren
basseng
ordre
kasino
##17
forfattere
finale
##bøl
##skostnader
##helsetjenesten
truet
inger
nas
oppsummering
revisor
gjøvik
##sfjord
##cing
oppførsel
##yren
cli
harmon
meny
##yme
episode
##elte
urett
drama
menings
jernban
kriminalitet
nevner
##sting
herlige
1950
fristen
kanaler
betegn
##eist
##erten
uheldig
tydeligvis
##vikt
anbud
dyrene
øyet
liver
sorg
soft
investere
foruten
bevissthet
stjerner
tilstanden
##insi
datamaskiner
forhandler
blomst
linn
farlige
nato
selvtillit
spek
##givende
sun
verksted
wa
##jev
utvidelse
datoen
lidelser
bekymring
##instituttet
portug
utroskap
muslimer
skjønne
inspirere
strategier
firmaet
##programmet
lister
glipp
##aka
luksus
hjemmeb
##oppdrag
73
sinte
##gri
yrke
lyder
godkjennes
##fabri
kongsberg
##orgrad
illustrasjon
stiler
##bolig
dommen
frakt
kollektiv
74
sykefravær
stiv
gravide
endelige
oversikten
skredder
teller
analysere
dugnad
##ump
##srad
innimellom
katal
apenbar
fingrene
bilene
forstatt
kommunes
##alle
opplærings
savner
leiligheter
katastro
##vekkende
greier
emosjon
iverksette
angri
menneskelige
lut
klinisk
begrunnelse
anm
##høyde
harstad
forsvare
politiets
innsiden
##edø
repub
pors
##las
heft
avkast
lillestrøm
tilrettelagt
##lund
##prosessen
atmosfære
##ftes
##fru
omd
##strekk
##¸ˇ¸ˇ
utsted
action
fødselen
sikkerheten
julen
##splaner
fron
lyden
stammer
borett
overordnede
anim
kommand
differ
artister
kren
##egnes
##skogen
utbed
graviditet
bestemmelsene
smarttelefoner
okkup
eksisterer
##jeld
lærerne
##iskop
utgjøre
nif
engasjere
kjøttet
butikkene
##grammer
##engen
parken
inkludere
stiftelsen
##sal
demokrati
##ulære
økonomien
##mmelige
##lic
skept
girl
assos
talent
##000
begrensninger
statsbudsjettet
##dokum
oppdateringer
miljøer
konserter
ektefelle
##verdier
forpliktet
bevar
europeisk
alexander
evaluer
odds
brut
kirkens
##størr
frid
flate
foresatte
manag
prosjektering
download
##innene
##anere
##leis
varsling
##sma
skift
stev
diabetes
utsikten
rang
konstruksjon
vilt
foretas
villa
##brand
margin
søppel
universitetssyke
dype
##ict
##esn
utveksling
fou
tørke
##anken
obje
##preg
##opplevelse
##ipro
revolusjonen
plager
antatt
kvalifisert
##slene
siktet
konseptet
fit
søsken
innhente
sjeldne
##alla
bista
omfattet
svømme
eksperiment
disipl
dokt
##sprosess
hjelpemidler
##eden
koblet
sone
##skr
tv2
begeist
trang
##avis
##konstru
##bank
##seffe
avgrens
kylling
berømte
heve
##gavene
taus
knytte
register
##revende
løftet
##spunktet
ansvarlige
##ssyn
forbedret
ube
minoritet
##pat
##serien
rekker
heid
##kanten
filmene
##nement
mini
major
normale
##fasen
nina
festet
fylte
korea
ombudet
øyvind
medvirkning
format
gjensidig
##terende
straffe
##mf
sluppet
belg
anerkjent
trent
bestill
88
eva
##shistor
tilfreds
##22
forbrukere
trag
torg
lagmann
house
forutsig
greie
plukke
##roller
serier
juridiske
samtalen
##isi
bevilg
##sselskap
##snes
fornuftig
##ørsmal
utdanningen
##rator
##mis
varighet
##kveld
76
dramatisk
##aktige
##pon
flertallet
oppslag
ambul
##øtek
vitenskapelige
uttrykket
##vol
ektem
##ansere
tilrettelegge
kjøpet
smake
##arige
##ymer
psykiat
teen
forholdsvis
seriøse
james
tildel
møttes
afrik
stam
79
##endring
##zon
##oph
belys
nit
sug
##egner
##behandler
tysker
98
report
market
opprinnelse
hundene
##casino
veit
##orien
drømme
budskap
vie
##tektene
enormt
matvarer
overgangen
drøm
kaff
forlot
vennligst
day
idet
nadd
drakt
manchester
innsamling
asfalt
pens
varmen
elg
faktor
bam
svindel
domstol
lil
##bra
funksjonalitet
punkter
##faglige
##cus
bestiller
strikket
overføres
ingrid
dipl
##relser
rasjon
skilsmisse
kvitt
miljøp
##priser
##spris
lufthavn
forsink
trak
rense
##fjellet
##sprosesser
##rukket
flytende
##bygget
tryg
klærne
##ax
##ago
brukernavn
flyplass
eriksen
tvert
chil
liverpool
brenner
presenteres
mex
##ahl
##ianne
steng
koord
refleksjon
nybegynn
desto
imponert
fjernes
pakket
##sset
##handtering
endt
vegger
##speriode
artist
seriøs
permisjon
ulykker
formannskap
bosted
høyst
beklager
gps
king
##vinner
spekt
aas
vitner
##undervisning
interesserte
redaksjon
diesel
tidsskrift
reddet
operasjonen
1989
landskapet
##stisk
##firma
oli
ef
##sesongen
gjød
trykker
##fiske
##elles
grave
fleire
##ous
datamaskinen
dypere
##seks
varsler
rettes
restauranten
pla
uttrykke
##gruppene
fordelene
##kontor
overføre
politikken
##endringer
anledninger
yngste
##skurs
sannhet
##levering
nerv
prev
##uset
barber
spansk
##onder
justis
linken
organisere
##zen
imøtek
abo
antas
glas
##sprosjektet
ken
eirik
avsk
##engden
asylsøkere
mesteparten
##ettig
venst
##sem
##ame
##skiftet
tele
synet
montering
long
pagrepet
##grø
industrien
besøket
investerings
palegg
progn
bearbeid
synlige
bygda
kvadrat
##esøk
##jening
sykkelen
fangst
harry
spredt
ungdommene
anser
lagde
78
protest
verdifull
asa
forandret
##grunnlaget
byra
##sbet
arbeidsplassen
workshop
brøt
fuck
dyktig
konsernet
voksende
øystein
ms
jesu
##arets
##partementets
##skifte
skatter
tegneser
natta
pressemelding
##ience
##uli
politikerne
##eløp
drivstoff
oppi
furu
##ralen
##smynd
##farge
##ferien
innspil
kombinasjonen
lages
##sos
##orden
##skede
clo
begj
##skjerm
unødvendig
redegjør
jøder
føres
##splassen
skr
skremmende
##driv
hindrer
pavist
videok
advent
##hagen
##stemt
##cia
handlingen
dahl
forutsatt
buk
##eiere
objekt
aktuell
traf
bronse
##ij
svalb
eieren
finansielle
høyres
##ox
høytid
sjanger
##mes
eierskap
vore
fagfolk
metod
prioritert
##ettene
dags
endringen
##reiser
##skamp
talmod
##aktivitet
damp
##savis
radgivning
##papir
##gata
##agas
nettsidene
##urit
##elva
##treff
partneren
61
##veit
##jeller
lovet
##vendt
beskrives
##ifi
observert
oppfattet
mette
fornybar
grafikk
##sdagen
digitalt
strengt
seinere
etterforsk
street
school
ekstern
beskytter
flyr
kjøres
sykle
oppdaterte
##lubb
smitte
##jert
oversatt
langsiktige
sammenligning
##mel
fremmet
##vurdering
##ula
diplom
eig
erstatte
malrettet
##fokus
kaster
komplisert
slitt
ringte
##wh
##savtalen
##forsikring
gjenta
##øvere
dukke
uttalte
##billetter
hur
##obe
##lest
innse
##grav
legitim
begravet
inngrep
##otiske
kulturer
peke
##ighets
haugen
##kjøtt
fløy
kjetil
##smenn
hinder
cop
foreslas
grunnskole
informer
inspe
sjeldent
she
eiendomsm
øyen
koke
##høg
##bad
komplek
86
##oten
presid
##retter
stykker
reparasjon
slite
punktet
ane
batt
sangen
1940
kontakten
##bul
##sikter
##ods
kontaktet
flu
bekjent
##alls
##sbehandling
##ee
varig
kjole
##bb
dokumentet
kontaktannonse
##interesser
##forsker
nve
##kje
ivaretatt
myke
kyr
watch
deling
what
rengjør
følelses
pene
telefoner
kvar
sjekking
attraksjoner
##az
sele
forandring
stasjonen
virus
revet
pasta
nøyt
palagt
rutine
##ners
inspirerende
##drende
##iserende
arhundre
##inket
##iliteter
omfanget
frode
##ington
bake
lyng
hekt
definere
inse
informert
inner
mellomrom
96
tverrfaglig
installert
82
research
##formal
##saks
cla
takle
##estad
tis
ombord
uavhengige
økes
originale
gardermoen
diagnose
##økt
postadresse
senga
fattigdom
fiber
##stasjoner
svi
nettbutikken
svalbard
vekten
##ones
mediene
sparer
jevne
oppmerksomheten
knapp
polar
agenda
stang
##handlet
avgjørelser
##maling
##sarbeidet
severd
##produksjonen
betalings
lakse
horn
##usk
utsettes
komfortabel
##idar
institusjonen
ipad
spanske
samvitt
brede
kommersielle
betra
177
karen
avdekket
vesentlige
nærliggende
angrer
skjev
foten
##celler
billed
eie
arn
##klassen
innvilget
trusler
stikke
henter
renhold
trett
##orger
##so
vidar
forsy
verktøyet
##rund
engasjerte
vaknet
isb
bringer
eik
##regist
kris
celle
avgifter
bøy
virt
montert
folketry
##slutning
ub
enden
rakk
kreativitet
viktigheten
løfter
fokuset
##low
plak
støtten
premium
##itten
glimt
regulert
kirker
oppgradering
funksjonshemmede
forebygging
primær
##spillere
georg
utkast
utmerk
sminke
logge
dok
tast
##fare
plus
##ebok
planlagte
hanne
dybde
rede
##elaget
##yser
læreren
versjoner
truffet
drømmen
vende
lurte
##forsy
langvarig
dj
miljøvennlig
##kler
##profil
seksuelt
menneskelig
tette
bif
invitere
antagelig
seksualitet
opplysning
orgasme
flash
aktør
innover
utallige
sjansene
##vete
brennende
typiske
forsøket
##itor
snapchat
##cont
tum
put
anmeldelser
redning
hovedmal
skit
1700
skum
korru
ever
##sykdom
forskjellene
overleve
klatre
apoteket
##endt
gebyr
rat
avslag
spissen
statistikken
uttalt
leverte
filip
elevenes
170
head
sok
arild
angaende
##sforen
eksklusive
##sutvalget
##sprodu
##ikkel
funksjonene
frekvens
leses
##amper
reell
løpere
kalte
##forholdet
trivsel
asiatisk
rose
detaljerte
muskler
afghanistan
universiteter
nho
our
kjønnslepper
misly
kommentere
##kart
##imet
effektivitet
vikar
rop
gjennomga
skuespillere
kh
obs
mannlig
implement
distribu
etisk
##ynet
cali
tenaringer
bladet
bryster
befolknings
sitater
trenge
life
##kons
##orno
overflaten
victoria
fortrinn
tilbudt
triks
84
##oli
overtid
##espill
utkikk
lise
resepsjon
dnb
##sselskapet
##ado
##stillatelse
kontant
##inering
fik
europas
##sbasert
uføre
escorts
ligget
##faget
keiser
antak
logo
organer
##fla
bakover
jæv
diskusjonen
jødiske
semester
call
##ned
friidrett
isen
##yst
##institusjon
##ikop
skjære
kid
##fylt
signaler
nordic
dun
tilbringe
stemningen
skif
was
desper
forlagets
melod
livssyn
dørene
kontrollert
ledig
møtene
plasseres
fleksibilitet
bekjempe
##board
sjo
fremmede
filen
innstillinger
kontoen
mattilsynet
##iblant
skjønt
##muligheter
maksimal
grus
feiret
pur
malsett
##hot
utsette
ethvert
##nadene
##aturen
1945
add
prosedyrer
tennene
barndom
nettverks
offisielt
makten
krets
diskutert
nis
##estil
##egne
##paret
amm
pst
kraftige
baserer
##23
kampanjen
sha
ulikt
##sektoren
kommisjonen
enslige
hvertfall
arke
##aktive
beskytt
drepe
øve
disposisjon
fylkeskommunen
bensin
omtaler
belastning
ild
omfatte
##irekte
110
nordre
siri
betingelser
anton
kampanje
seminar
##ssikkerhet
##act
lengden
how
rommene
vap
uni
førsteklass
##dretter
irrit
##bevegelsen
uttale
kropps
##stiller
bd
spredning
levetid
##avdelingen
tip
drikker
##hall
##brid
##virksomheten
krim
sparebank
stjør
##lid
etterretning
return
emnet
ankomst
gumm
##minner
900
forval
##gle
arbeidsled
justere
politim
rolf
medarbeider
jenn
##rollen
filt
175
##tta
bønder
bredere
##komite
julet
##fet
##no
timene
##asiteten
særdeles
snur
##akten
gaten
gol
bestatt
87
regionalt
oppnar
samiske
takker
ypper
lenke
ulykken
vestlandet
##edato
##umet
telt
##kortet
dronning
verket
nekter
bm
markert
nyhets
passasjerer
##itasjon
##kode
##annonser
blodet
hesten
nyhetsbrev
bene
forstand
who
##spekt
squ
omstilling
game
kunsten
halvar
flaske
peng
medi
sas
tøft
##sete
##lywood
samlingen
hill
kare
stj
overst
karbon
kollektivt
##kkelige
##fr
##utslipp
offens
##ining
##skene
øyene
varam
deriblant
##oke
pod
narvik
konkurrere
##befolkningen
cel
fineste
varene
##klæringen
##fatter
varierte
nettleseren
##ooth
ihvert
##ledere
##edde
ressursene
minus
##rog
hust
beskyttet
sten
taushet
halsen
innvendig
forumet
arrestert
vul
##skur
mørkt
asp
##klo
obligatorisk
rammen
strategiske
lie
tydelige
##kontoret
organisasjonene
hormon
##agraf
span
utførelse
grim
93
##ndal
pagaende
konsulent
mjø
89
megler
##ti
forandre
tillat
roll
hilde
intervjuer
dress
ike
stas
kristiansund
helsedirektoratet
##sykkel
##sling
frykter
center
besta
ihvertfall
innovative
utforsk
stjørdal
uform
##egnede
integrering
##mpet
##ssenteret
##plate
universell
innby
kompens
gjennomsnittet
fascinerende
brevet
potensial
pav
etterspørsel
indirekte
forespørsel
oksy
pynt
halvdel
##hyd
tradisjonen
marianne
svarene
fylles
##forvaltning
omega
##anu
##ungen
##utdanningen
##endrag
##ory
hevde
##naden
fjorarets
bedø
##fyr
klubbene
krysset
##fig
samlivsbrudd
first
bik
##festet
politidistrikt
sikring
glid
ork
##ican
cle
yte
vern
utbredt
marius
##ison
boksen
##elem
slaget
stemmerett
##deb
ic
ravarer
tang
##lok
sykt
##ssystemer
infeksjon
operativ
kjemper
britisk
avisa
adam
travel
californ
utgiftene
ikon
fremtidig
testing
prate
individer
##ortert
##salg
ligg
vannkraft
md
##sjetter
oppsø
bring
medhold
##hje
lenker
take
japanske
pant
standarden
##ordninger
##interv
##ktivet
83
erver
leverandøren
palitelig
lofoten
laser
##sordningen
fugler
wi
konferanse
maksimalt
tipp
##omer
barri
følelsene
uriktige
gh
##bbe
tilpasses
forarsaket
##sutstyr
##vidde
fans
##planer
japansk
##spensjon
tjenest
##opptak
178
kai
statsborger
non
spot
minnet
veggene
games
tilfredsstille
jav
universitetssykehus
vs
inten
konkurransedy
##vises
deltagere
forbehold
varierende
##km
reelle
state
stabilitet
##dder
trodd
##medisin
signert
hp
##jente
##ami
reisende
dratt
avvist
management
middels
71
tsjekk
##ivind
##skjær
##rapporten
sammensla
##ty
anledningen
melke
nadde
visning
hytter
avslut
biter
##light
##ights
avsluttes
pust
##etta
##ikre
##stilte
posted
svel
pastand
østlandet
pian
##lia
##vurder
##manning
##lønn
blokker
adressen
forekommer
news
##skomiteen
sjokk
sup
##eremon
arsakene
fm
hæ
erkl
fattet
installere
løses
##ografiske
inneby
etableres
##besøk
dna
massevis
føttene
##støt
budskapet
##festivalen
utstillinger
##marked
betales
eksped
##liten
oppmunt
liknende
oscar
##sidig
rekkefølge
risikov
isolasjon
##ror
doser
jag
##onere
løk
nynorsk
helsen
##rukturer
sir
informasjons
beholder
160
##ding
nyter
##bedrift
saman
##sgrens
ingredienser
gjennomgaende
overbevis
forhandlingene
##edager
##budsjett
##fred
##ulær
##lings
pas
trussel
voldtekt
##nettet
miljøvern
repet
kjemikal
reflekter
##møter
cu
1988
##meldingen
##øvelse
##pri
##sløsninger
armer
##smiljø
offsh
3000
toalett
litter
##avtaler
##lyn
lod
##sskjema
eies
tryggere
##administ
##klet
cv
pakken
##iend
##akken
kompleks
kjemiske
johnsen
begreper
oppfattes
##vedtak
vev
minnes
avdekke
styrt
fysioter
utenlandsk
fanger
##anker
age
bh
##gner
førsteklasses
særlige
rub
akseptert
sfo
reflektere
merverdi
realisere
brenn
føde
94
##sordning
saft
kabel
dap
opera
øyer
hjulpet
fenomen
hemmelige
eierne
globalt
kvinnelig
##radets
utfordre
oppfatter
fremskritt
farg
ligner
fugl
formiddag
villige
##ima
##gate
bbw
luftfart
kristiansen
##ssøk
##endes
office
sjømat
bekrefte
romanen
hoppet
overraskelse
folker
biskop
fjerning
nap
puste
kristine
internet
skjule
##assasje
tilsett
fenom
mva
##akes
armen
handlingsplan
indikerer
##hyl
barcel
observasjon
verdip
kjøret
latt
##leir
frat
##dage
telle
##planlegg
##skultur
idretts
light
italienske
eidsvoll
doktorgrad
flørte
##litter
etterful
landsby
stolten
about
aksepterer
prestasjon
wash
stoler
##orium
##armerende
kristoffer
tørket
overvaking
observasjoner
##nivaet
elven
##renes
referer
##litteratur
ort
pikk
##ordane
##jelp
ultral
regning
sammendrag
opptrer
føringer
unngar
forek
tilhørighet
presenterte
##vendige
tidlige
individuelt
##pum
gatene
##kas
nyskap
polske
aktivitetene
skreddersy
##visningen
##ikopter
leken
##mmelse
aggress
##frem
fabrikk
ubehag
detaljene
sporet
##menter
nøkkelen
fjerner
dødsfall
heste
##konkurran
##500
fiks
notat
ullev
dedik
vera
opphavsrett
laborator
brenne
##protokoll
fester
sans
california
tabl
kinesisk
ventilasjon
##oversikt
1600
gunstig
zo
cur
##opphold
fjordane
komponenter
stoltenberg
foregikk
##ansatte
fres
lider
instrumenter
hiv
posisjoner
##site
ivrig
onde
kaptein
##riksen
drøft
yd
##svitenskap
kriminelle
forferdelig
saud
rem
george
##likasjoner
samferdsel
pornofilmer
mandat
vegen
publisering
cub
ubehagelig
bekken
##spartiet
room
synge
fundament
##vinn
antib
##feransen
livets
egenkapital
##geren
dyrere
anta
ron
rapportert
party
rase
##ript
##forfatter
tegninger
##ssent
##skriter
israelske
medvir
##øysund
kjapt
##emal
brygg
konserv
ytrings
byggher
##kjøl
1985
##etaten
176
##dren
white
##kna
amund
##prosess
1920
blandet
##sbil
avsløre
symptomene
lastet
##flaten
indian
##book
tegning
fellesskapet
studiene
diskriminering
veterinær
##sekretær
provin
løypa
næringen
##jar
venstres
##renning
tersk
##opol
avh
kaker
##steknologi
##lis
##sspørsmal
cit
gjekk
redig
bakterier
##hast
servere
vennlige
porsjon
stian
92
stikker
score
email
tine
##forbruket
menneskerettigheter
regnskapet
##otisk
mors
flom
##aming
steink
batteri
avhengige
stord
folks
konserten
filosofi
abort
##stemning
##skort
utsiden
forelskelse
##savdelingen
##dres
mexico
kring
##klubben
venne
kvalifiserte
##cket
##ommens
class
anerkjennelse
beregning
elverum
drepte
kompetans
##gs
##unge
terrenget
road
minutters
##aku
rally
##ransjen
##flo
grunnskolen
afp
tod
##kne
heilt
fagmiljø
fremtidens
bnr
##mott
##sapp
protok
prester
fjær
salen
kulturen
samord
uttalelser
##uste
kvant
um
mestre
coug
##oster
betalte
anvendelse
erna
bransjer
knytter
vestre
##utgifter
forne
skry
styremedlem
##ai
bestemor
even
##gden
##mate
traden
kostnads
##klasse
farten
pakker
heis
130
lud
##verker
##styrke
verdig
ign
##hs
##ologien
##marka
cec
1930
verdiene
solide
avhengighet
avhør
produseres
familiem
smith
børs
strekk
herfra
##bre
ungdomsskole
instrument
donald
##gjenger
##lu
lita
##ikasjonen
menes
husdyr
risikerer
gid
##været
væske
dol
signer
hjørnet
nedt
ambisjon
##øyter
oppdateres
flytting
##por
##setningene
autor
lunge
røtter
sakk
pressen
##los
rhf
malinger
mistanke
forvaltningen
##ifin
attraktiv
ving
##ariske
##elønn
varte
datingt
arbeidsgivere
##una
datoer
nøtter
##strakt
##design
##ema
##filmen
##atib
forp
sørøst
##ikket
vedtekter
løsningene
##foreldre
bytt
##urg
stortingets
biologisk
markeder
##visninger
aa
lens
linker
fugle
host
prestasjoner
##ifisert
fortvil
sjette
strekke
##født
inntektene
turneringen
biologiske
virkemiddel
spreng
adop
ce
##hrine
jom
straffes
fryktelig
nysgjerrig
budd
1986
tilnærmet
##fas
forretningsm
cruise
angiv
valerenga
barcelona
leiet
##østen
bekreftelse
fremdrift
140
snarere
katolske
spart
dumt
ideelle
chic
smitt
nad
sannsynligheten
jess
apningstider
##omi
arrangør
lovens
resulterte
nordover
prinsipp
jent
1987
skala
drøyt
kf
uthold
##gin
##øyen
presidenten
##artikler
jubileum
5000
##assering
##beskrivelse
institusjonene
somal
viktigst
renn
##mg
manglet
nords
konklusjonen
dvd
##funksjoner
helene
verdipapir
modellene
##ressurser
elimin
beting
ekstreme
hjørne
stabilt
sviger
hæren
konflikten
traum
kompatib
hop
bekymringer
oksygen
##stig
##venner
tau
spesialisert
oppfat
frigjøre
##maker
##atoren
glemmer
undertegnede
cast
sverre
350
temaene
forandringer
etterfulgt
##oni
samvittighet
techn
##systemer
##itz
##oto
##icy
##reden
utslag
##organisasjonene
arrangerte
opptre
berørte
lønner
sjal
##aria
##raten
oppmøte
klimag
fusjon
##bered
utskrift
overta
lengste
##vers
beach
metal
##øpe
gavekort
utbetaling
ink
##politikken
national
##kester
inneholdt
vietnam
ofre
kronisk
lastebil
##slø
kanten
krevde
forløp
opererer
dec
gata
vokal
pagar
rasmus
livmor
##forholdene
mødre
medlems
tørt
ubet
vgs
##bs
spesifikt
utgjorde
jammen
oppuss
fornær
personale
oh
utnyttelse
manu
flinkere
eas
arkt
kandidat
##ikat
univer
oppsikt
forsiden
music
##sbed
smaken
stue
irland
##skad
realistisk
lekk
arsregn
xx
guid
øvelsen
dry
hallo
##altern
grove
##fugl
##ærne
gun
steget
##armen
katter
##hov
tyngre
##gjen
sunne
kartlegg
stua
deltid
##ures
sextreff
##stopp
stige
treet
##ville
##status
bundet
##snivaet
trer
merknader
vester
##registeret
estim
restri
studenten
##arena
svangerskap
iso
semifin
elbil
fjorden
##annede
forlatt
kaos
oppkjøp
legend
abonnement
stater
hensynet
sintef
heile
forblir
hjemmesiden
commun
##vang
##fta
##sign
##navnet
lytter
##ther
grensene
##bøkene
installasjoner
aar
ruten
short
legevakt
bestilte
variasjoner
##utvalgets
##bakgrunn
avkastning
uio
##ioner
svend
oppgjøret
armene
mt
renter
sho
gjenopprette
silje
utfl
inkluderende
##smak
##lærer
formidler
##stiske
trøtt
ørret
kvalitets
##jønn
knyttes
tilfellene
##nø
opplegget
petroleum
##staver
fukt
flybilletter
kampanjer
utnevnt
##slar
porsgrunn
##ny
menigheten
lufta
##ndene
jud
toler
overn
komplekse
egil
forbedringer
##bod
##pakke
skarp
kopp
eksam
mek
lukt
vedlagt
teknologiske
kostet
cecil
livskvalitet
inviterte
allerg
moderat
##elys
spont
stemte
trenden
##skir
males
##kamer
tynne
fastsettes
innebære
##frist
rap
##ient
##jenestene
løv
teat
song
##coin
##utfordr
##stab
smal
eleg
ari
trine
##ferdig
domin
tekstene
##dan
bondage
tell
juryen
##avdeling
statsrad
kaja
##store
innlo
page
jødene
spenn
fair
##jeg
ikea
seo
veiene
naboer
essens
bomull
##ology
##partner
##stinget
forestillingen
tipping
database
##fle
roger
sørlandet
gater
koser
dagsord
bdsm
heidi
##entrep
##onsult
##smuligheter
##wi
nyheten
overbevist
tilnærm
modul
bena
tilsendt
utan
gyl
funksjonsevne
##vilt
##srom
american
##estaende
involverte
##ksp
penn
matri
alminnelig
kuk
landbruket
##cs
hollywood
fortellinger
oppfordret
tunnel
valp
brygge
diagnosen
stiger
kursen
kles
malsetting
gevinst
ivaretar
hug
installer
strekningen
forkynn
høyder
beregne
manip
mask
eneb
##sfull
egenskapene
helgeland
##sand
##how
hemmelighet
ryddet
separat
rosenborg
##iltak
utlø
virksomhetens
rettighetene
lidelse
avgjøres
offshore
##stilles
##veggen
##gje
##pende
halve
tidene
krang
##dis
forsvars
##øper
opphør
##punktet
##ram
union
##ship
potensielt
utland
##varme
sarbare
sjarmerende
##cast
flatt
nettcasino
markere
eiendeler
##skompetanse
night
ovennevnte
forklart
subst
##feranser
redigere
sentralbyra
iron
utvil
midlertid
referanser
utsatte
uforplikt
klit
bull
kroppens
syndrom
utveks
angir
avsla
##opplysninger
avd
foretar
forbruket
krydder
eksplosjon
body
##inker
erob
landslaget
tilpasning
belysning
anbefaling
##finn
##styrets
nettavisen
##vald
##smo
vesten
enkeltpersoner
svind
slettet
kopiere
søkemotor
steiner
kogn
##ords
slet
para
justin
narkotika
elegant
redskap
lederne
usikre
sammensatt
lady
flørting
adm
ere
##ero
forega
##real
taper
##forslaget
hare
##strene
domstolen
sammenhengende
kjennetegn
celler
touch
##sbolig
forbrukslan
##ail
##rogen
gjengjeld
##æk
resterende
auto
##sklubb
mesterskap
kanalen
bow
##usalem
fokusert
##rekke
formelt
htm
radmannens
baksiden
tante
soverom
dalen
##70
##skriver
##gro
fantasier
##bryt
bestillinger
nike
##elærer
babyen
fordelen
overnattings
##ople
##reres
datat
summen
registreres
ettermiddagen
sports
løser
innvirkning
brosj
kliniske
##kunnskap
blande
meningen
##kommet
jordbruks
gripe
seter
anbefalte
py
undersøker
comp
bing
##lett
stevne
##jan
##stua
pakistan
fortjent
eiendommer
##sutgifter
skilte
aldre
jerusalem
##ktorat
##spraksis
arabiske
rana
mektig
garasje
##ssituasjon
konsult
##annelsen
blatt
##handlinger
fleksibel
##berget
bokmal
##bruken
##blikk
rednings
gresk
kraftverk
gjem
prostitu
døds
styremøte
mannskap
møtedato
samvær
klinikk
magne
oppa
##jakt
1200
stjel
utfordrer
hvitløk
nærme
omfattes
syr
objekter
tettere
zaland
farget
topper
must
orient
innrømmer
beboere
høyskole
##eliste
flyttes
theres
##ou
##ated
redegj
##relaterte
tyskerne
##ender
kjempeg
tig
bevegelsen
seni
tat
erg
##giene
tiltrekke
spir
##90
musikere
forbrukerne
falsk
oppfører
realitet
##øster
oljen
samfunnsøkonom
##sformer
gigant
##situ
##ystemer
fasiliteter
grunder
##hor
##skart
##skjel
satel
matlag
saksbehandler
representere
##skinn
malgruppen
foresla
analysen
ellen
ya
week
##bygda
camilla
reduserte
e6
novelle
##mennene
##varende
rammene
porteføl
forsinket
##funksjonen
sigurd
blue
moh
pels
blød
overhodet
bydelen
##36
formelle
steinar
##ipe
korrupsjon
stien
omsorgs
##kjørt
daværende
kundens
##ift
##verdien
brystet
inngangen
aksjonen
forestillinger
bidragsy
levd
sakkynd
overvekt
dominerende
lier
##itch
hyper
##ject
##iører
arve
##rek
storby
trønder
blikket
problemstilling
foregaende
dritt
synliggjøre
berit
humanit
komfortabelt
adferd
##isitet
enkleste
føtter
skulder
##festival
nominert
tenkelige
sint
kvalifisering
løping
sinne
ordinært
##repet
##istens
##ckey
bay
ih
alarm
forklarte
next
isk
##urene
antakelig
synspunkter
##bere
tex
##sikker
##mene
##revne
washington
rare
arsverk
##fyll
glemte
river
forbindelser
filipp
##holdere
trivelig
richard
##erto
rikelig
gevinster
##egning
servering
kondom
magnet
##ieren
bankene
fli
##rang
introdusert
##kalt
##hamm
trender
##retninger
innred
utenriksminister
sjang
binde
zalando
##klin
mental
følgelig
oppsøke
brannen
spøk
iverk
desse
realiteten
støt
medik
nude
overkant
knull
omdø
etterspørselen
##iklene
leif
kloster
tilbudene
tenarings
karakterer
sprer
oppstatt
gust
hann
##misjon
##atering
bjar
##not
##forstaelse
##osisjonen
madrid
mamm
##ssprak
hyppig
##apet
enestaende
meet
1984
##holmen
applikasjoner
smiler
besto
##skveld
deltagelse
##jeden
alternativt
framfor
lunde
ml
plattformen
##umer
rengjøre
##funnet
##skilte
##valgte
aksjesel
scand
##løsninger
##samarbeid
elektris
oversettelse
møteplasser
vurderte
##ji
teoretisk
fins
##egrunn
teorien
paradise
studiepoeng
##jort
spore
utbetalt
##egarden
regioner
attraktivt
rekruttere
##sykdommer
##esi
elend
smykker
videreutdanning
impul
##hengere
utvilsomt
anse
edvard
kontrast
tastatur
##vog
brødrene
access
eb
tort
figuren
koden
##effe
##sproblemer
##ason
##arig
telefonnummer
helseforetakene
##list
fikse
##mest
skinner
kriteriene
##vogn
##attra
utøve
mosk
##lete
rettferdighet
holmen
velkjente
##direktør
bond
veder
plagg
##ario
senke
smert
##savtaler
##edagen
##merter
forlater
kriminal
kvele
rud
oppsto
tolke
##bun
returner
##slo
skapet
øvelsene
stanse
kronpr
##statt
manif
bedriftens
forventningene
beregnes
hod
radhus
##ansvaret
##ulin
tilstander
skapes
kulturminner
karbo
alternativene
internkontroll
læringsm
##sstat
vogn
doping
merc
bebygg
bonuser
milliard
gjerd
geografisk
##lima
røros
krone
hauge
magasinet
ending
ruller
normer
elementene
forsvarets
##søy
idretten
##sap
harete
##gitte
levanger
oslos
østerrike
##sber
tilsku
svangerskapet
##esign
erfaringene
bn
##umm
feri
bern
postboks
berørt
##levelse
klikker
aspekter
##mh
ordnet
term
pase
oppsigelse
fortelling
helikopter
bly
##usive
##bruddet
budsjetter
figurer
leserne
rapportere
##zy
beregninger
ss
##fett
sekretær
sara
religiøs
rapporterer
care
tes
##andelen
fargerike
eksempl
##fordeling
avslørt
hoff
avslapp
oppføring
##veiene
finansiert
sammenlign
reform
optimalt
wild
forhandlere
##75
funker
kvalitetssikring
debu
##bygning
##svik
##øring
mattet
indiske
tidenes
greske
landsmøtet
robust
nyhetene
##fotball
##sorgen
##pter
blodtrykk
underlag
ambassad
bruksom
funnene
pedagogiske
##sfond
vasker
skoene
##espiller
##direktoratet
lokall
##ssyk
reagere
##verdenen
borgere
aksjene
vedtar
oppnas
##faren
klient
utslippene
slott
konsum
##pad
##alens
##andres
##spot
besøks
argent
bard
storeb
tobakk
##periode
frigjør
ulv
infeksjoner
kompensasjon
klippe
barnehagene
festen
angar
astrid
ernæring
nokre
pettersen
kongsv
prot
tannlege
sidan
##størrelse
user
##ular
wall
##fal
dater
utarbeides
##cle
##versi
spin
mp
vene
foreslo
amp
now
arsen
kunstig
antibi
svekket
eksperim
ios
contin
kjønnsleppene
sf
observer
spark
digitalisering
beund
ungdommen
imellom
##opplevelsen
skriftlige
kopier
174
presentasjonen
##sbudsjett
nade
town
dokumentar
##forskjell
##kamera
kontorer
##retten
##agte
invitasjon
people
ax
##aps
elleve
flukt
kompis
runden
##mmek
summer
##ikant
hals
sertifisert
ambassa
##stegn
samarbeidspartner
gong
visstnok
søkeren
pussy
takknemlig
hopper
##vit
sorte
pier
##egrupper
orientert
romantiske
##stro
##ologer
merverdiavgift
spas
pt
hater
brid
dama
fv
utskift
##farlig
produsenten
ordne
tilhenger
søndre
temmelig
found
sykling
transp
fuktig
spektak
ultim
publisere
rykket
retninger
##esult
##work
search
synon
tull
erling
opposisjon
1917
oppford
umiddelbar
breiv
##spesif
##engder
##kalling
fau
kortene
maneders
uklart
##synlig
##ytta
forvand
##out
reder
hendelse
##ledet
##sforskning
##byggingen
sofie
tjenestem
##demokrat
##oller
cafe
patri
turnering
obama
høgskole
feilen
programvaren
##oksid
sykepleiere
##sdalen
forsøks
unger
teppe
planlegges
##issen
turne
##iew
doc
symboler
##reft
innstilt
ledes
affære
samfunnets
universitets
medium
sørover
cell
##oppgaven
berge
rive
##rup
##assene
##brød
##hd
fordøy
tyr
key
bredband
tjenestet
lokalene
midtøsten
isolert
81
stilen
leks
krysser
leseren
fradrag
drøfte
kjemi
legene
##sja
##ologen
passerer
mona
pinne
##løy
bemanning
direktoratet
hovedperson
respektive
saret
##rine
##feksjon
forfatterne
italiensk
understreke
##pedagog
signif
hul
##lish
##vev
women
##oma
##yrene
klitoris
multi
##splikten
forholder
blow
##sadvok
spenningen
uf
stasjoner
bell
##skan
arkiver
az
##bla
antrekk
##helm
fylker
##vender
##egnelse
nedlasting
autent
##gne
finansiere
investorer
kontrakter
kollegaer
##sutøvere
jacobsen
tju
##ftt
frister
tilfredshet
disc
services
jomfru
elektrisitet
##yttere
motivasjonen
svakere
young
frivillighet
helser
##selskapene
1979
avholdes
energien
forbeholder
##kron
implementering
idi
##studio
malte
ambisi
intelle
##skipet
bt
##inor
##meldt
temperaturer
utvendig
wood
##veig
midlertidige
##slok
##medal
tolkning
generalforsamling
tilstedeværelse
##døde
utnyttet
patent
æren
gror
utbyggingen
hege
pp
hval
planet
kvaliteter
desverre
regelen
omtales
bevegelses
##blom
relaterte
etnisk
severdigheter
motivere
mønsteret
beslag
arbeidsmarkedet
piller
forurensning
##elov
hverandres
ey
##forstyr
casual
supert
##forsvaret
statsraden
bin
##helse
ulykke
sittet
##sklasse
knud
utførte
framtiden
skandinavia
jor
##ues
verst
pun
##ballasje
oppbevares
##maskiner
verif
omstendigheter
europ
tros
##kaker
##ivende
smatt
profesjonelt
skadelig
nasjoner
##fli
kombinerer
forbudet
overtatt
generalsekretær
smøre
utlan
ove
maraton
##garde
##stedene
arealer
fraktet
hovud
agoda
mene
##point
trakassering
prioriteringer
1982
oppfordres
html
ingeb
##allene
dose
##porno
beat
##sregler
##skjemaet
##avet
##ingeniør
dømme
ødelegger
generalforsamlingen
##kra
hakk
##ktøren
stilig
kjøleskapet
varsle
spon
rv
##smannen
hovedt
##rolog
uforpliktende
##teren
minimal
tomme
sjen
hotellets
tjent
##akene
skadd
inngaende
tjue
##æs
navnene
fleksible
##idert
##sprø
istedet
oppvask
1978
munch
##veri
retro
demokratiske
manuelt
1975
manus
##spersoner
fondet
plater
fysikk
##ksomme
fur
oppretter
##finansiering
vender
bekymre
vara
##handelen
kritikken
uønsket
dramatiske
sr
glam
gil
radik
mog
##svil
respond
meters
##trekk
overveld
here
støre
demonstrasjon
m2
##biter
zoo
presisjon
##ariatet
##oppgjøret
helsetil
##savisen
soph
lukke
##lates
mineral
1981
enhetene
##yke
campus
kobber
linjen
##radgiver
hevet
##klare
nordvest
vedta
num
kvalit
way
deltagerne
gunder
uttaler
##hopp
fremt
##stilskudd
behandlings
##ombud
balansen
ivrige
##mmelt
##udde
##næringen
prinsippene
did
##mband
content
henta
##field
##ween
case
compan
variant
definerer
1983
karbohyd
##følelsen
period
##tilskudd
##fornøyd
##elv
halvorsen
##arane
meldes
mønstre
spesifikk
forarsake
see
##glass
##arv
fabrikken
##ledelse
pred
hodep
argumenter
parallelt
avstanden
##lament
##ulette
uskyld
prostitusjon
programleder
brønnøysund
##regler
slakt
wo
##asseng
valgene
garde
betraktelig
strategien
##sporet
konkurs
territ
nedlagt
sul
kilden
lant
##skolene
##institutt
kveldens
##39
##erings
begrunnet
brutto
fjellene
lanserte
regissør
##prem
mount
pose
##omt
tilkobling
entusia
##ki
konsern
##stimer
eksponering
##bevisst
##sr
svakt
spinn
##linje
hitler
ignor
opprettholdes
pavirkes
##rakte
undersøkelsene
1972
##krem
##behovet
kunnet
korresp
alexand
photos
komprom
løren
##sfun
kongsvinger
innbet
tilfeldige
utfordret
skjørt
gras
poteter
##ista
color
##egruppe
yrker
brent
luther
veiv
##journal
grimstad
91
innlagt
israels
julem
stresset
avslører
dagsorden
##sey
blokk
work
krysse
punktene
##ence
iht
trekant
##kastet
skulpt
anmeldelse
fortere
lanet
##skommun
cost
borettslag
prog
##rethe
forsvinne
tam
##sforvalt
##iklin
balkon
rekkevidde
solo
##eds
uendelig
levekar
ufør
veld
gledet
##utten
##uld
fordø
##ivenhet
##leger
##sdirektør
##asj
pynte
avdøde
spy
konfig
##ussen
arbeidere
drapet
musklene
linda
navigasjon
sovjetun
cross
verdifulle
##krets
pir
urim
behandlinger
fordyp
stere
##forbud
bokstaver
broren
overvake
cart
##øyde
nettstedene
##egenskaper
habil
klagen
søknadsfri
helsevern
ukens
skisk
fastsette
##sveien
##iret
##sing
##service
kunstnerisk
idrettslaget
integrasjon
mellomtiden
him
historiene
behovene
##anerne
forsikrings
vibrator
##rap
kjennes
henvisning
stemmen
kjæ
godkjenne
skaden
synger
##zeg
oppri
innstillingen
##tilbud
vakreste
##olk
avgjort
filme
prioritet
inder
##pul
blader
bust
##yret
##orientert
kasser
opprykk
prøvet
torbjørn
vedtas
dommeren
##strategi
##zer
foretaks
sud
hjort
anvendes
uønskede
grovt
##pill
anker
varmere
byrak
##belast
##kirke
ukes
vandre
bokstavelig
indisk
forstaelsen
##sat
find
arenaer
kvikk
musikalske
katten
rader
##mønster
simon
kjernen
overl
##oppna
##atikken
##ialer
passiv
eksklusivt
ansattes
underliggende
##politiske
eksistens
sammensetning
##stens
middelalder
##hetene
skaffet
poser
intensitet
fib
evaku
silikon
setninger
##issene
snor
elect
##kse
etterforskning
##say
opplyste
ryt
proff
impro
demens
##forløp
##onia
south
##cis
##sesse
gris
skott
kontaktinformasjon
imper
skeptisk
øyeblikkelig
bisp
abra
lavest
chelse
fell
##sbilde
bryn
utm
utøverne
johns
terapi
trafikksikkerhet
utarbeidelse
sykkelt
pensjonist
virksomhetene
overve
##ential
egenskap
##angfold
##strekning
stikkord
##kysten
##væ
fordeles
ragnhild
apos
kirurg
hog
finansk
ivaretas
##handle
##formidling
##iender
veteran
##rolle
fager
##vering
skifter
utholdenhet
fristende
oppfinn
##ped
##vokst
lokalisert
1968
oppførte
ik
aringer
hero
leon
bygningsm
tildeles
##forsøk
##drivende
sein
##studier
##sløse
taxi
prepar
oljer
basket
uventet
begatt
hypo
fagene
feber
##onny
berører
##energi
tenkning
kod
##setaten
konsentrere
lor
lagrer
##møre
##ronten
mild
netter
valpene
hentes
høne
##boksen
sikres
valut
##lemmene
nsb
barnes
bytter
##idene
##sskatt
galleri
verdiskaping
print
nekte
valent
romantikk
##hon
redaksjonen
transaksjoner
rt
tilsatt
julaften
##leverandør
profet
##enheten
##register
##bai
bygningsloven
beite
hook
olavs
gramm
gratt
billigste
pastander
videreføre
##pol
gaende
##ross
regulere
potensiale
vint
nud
marte
jørg
##bekk
episoder
indeks
##parker
garanterer
hospital
##pset
fantasi
plata
##økonomi
bente
##fallende
ringen
snille
forventning
##sbok
irriterende
batterier
movies
sprint
##ags
grunnloven
##strening
##pps
evolusjon
partnerskap
##oped
arkivdel
myster
tilbrakte
misbruk
##skere
##rich
bug
møteprotokoll
arbeidsforhold
nl
##aminer
portugal
bystyret
reguleringsplan
quest
##vindu
##ilen
lyktes
125
hammerfest
angeles
dommere
forvalter
overens
conne
360
##samlinger
##spørsmal
##nar
##ansje
spi
satsingen
##ested
##arealer
arbeidstilsynet
wordpress
##fylte
rod
godtgjørelse
kosmet
##ølen
##endet
ox
erfarings
##rust
spesialisthelsetjenesten
smile
##apparatet
main
utsagn
tilhengere
##olin
motstander
posisjonen
##materiale
etableringen
prioritering
smabarn
østre
tet
##uf
motivert
rumpa
endrings
sis
kjapp
utformingen
prestis
pasientens
ytelser
ego
##overføring
chris
foredrags
##ærene
##folket
##vedt
sørvest
vip
##boy
plat
selvstendige
økologiske
kuttet
dyret
avgarde
avviser
kjemikalier
stygge
vate
allierte
##ramme
noreg
gluten
organisator
fastlege
gjøremal
kub
##forsyning
gd
##99
brude
##oney
sponsor
tarer
##radisjon
##kjøringen
##uke
##ulerte
eivind
1976
brat
balansert
##ommun
prosjektets
hallen
mature
protester
kvote
gledelig
##øve
##ument
##oman
##rettede
##fristen
slettes
utviklingshe
##førere
loc
frustrasjon
rull
deltak
forankring
egenhand
føltes
##plater
##søkte
administrere
vakne
1973
igar
intellekt
nj
lønnsomhet
volvo
takst
marin
tilfeld
kommunalt
lokalsamfunn
##ariat
gods
lojalitet
paulus
vegas
##sprodukter
##skikk
flis
##sfest
ext
næ
vekke
innleggene
smaks
##museum
##styrt
sysselsetting
##iets
##maler
uttrykker
##px
paført
##dende
prosedyre
##ifra
differens
gifter
visa
underholdende
begrunnelsen
##frid
##ropp
##søkt
ulemper
##resultater
##skilde
##savdeling
##gr
skjebne
##attest
paragraf
frost
##øtene
intelligens
tennis
##driver
kole
elin
kommisjon
abc
louis
familiens
mosjon
ialle
q500
renner
beboerne
kontro
##bling
##entrepren
##gel
##senteret
anslag
##spark
##minne
##nemnda
display
potensialet
fortiden
sams
##kjenning
friend
beskjeden
godtar
bekost
bredden
disponer
eksemplarer
ritu
charlo
næringsutvikling
menneskets
opprettes
##hull
brukervennlig
##opplevelser
kommunenes
kraften
realfag
kanter
##26
ambulanse
##skal
##sgrense
##agelse
intu
ukers
tilkob
snudde
robot
skips
raser
##etet
rykte
orker
##sida
pip
utvides
##veiledning
##myk
strengere
ji
mort
merking
skjermer
##geir
##gradere
frykten
energik
fylkene
##gren
lakk
vedlikeholde
forestilling
fiender
##ruter
forver
geografiske
bent
asb
##vner
##kvaliteten
innlandet
##opplegg
skyt
opsjon
karin
rikt
massiv
most
velkomst
kongens
kryssord
##ulerende
stanset
etik
grunnene
leiren
skummelt
tyngde
gnr
##prest
stenge
view
##kake
bevart
elast
tilbak
##ebra
##stuen
##irektorat
kick
mangelen
casinoet
hylle
heltid
##snett
næringsdrivende
mynt
sønner
casio
protokollen
##runde
##afor
##setnings
betegnelsen
science
##inntekter
cash
them
leier
speider
skytter
oppussing
##iar
##feller
riket
bestod
iallefall
oppfølger
havard
valdres
win
skjell
utfall
opph
##88
##ify
##landing
nese
##sukker
ulleval
##brukt
##apparat
forsterket
##atia
##cts
iverksatt
stranda
##alingen
##valgt
##gebyr
omvendt
danser
mvh
therese
skolearet
monica
##glede
monster
beholdt
henning
gult
kjøpere
snow
ordninger
skriving
dum
planleggingen
slitasje
lilla
##teri
spesialister
be2
used
tommy
rist
sunnere
sea
patale
bølger
landsbyen
utviklings
##kjær
stjernen
##etninger
uavhengighet
##evne
hjelpemiddel
##ritet
##lav
regulerer
cover
sokkel
verv
##video
panel
talet
##idige
bekjente
mesterskapet
##spa
tvinge
tron
gjennomslag
strømp
##bygningen
##odell
horten
setning
##feld
tilskuddet
elv
vas
##egninger
##ward
skitt
byggingen
##feste
kryp
popularitet
studerer
##aas
voldsomt
tenkes
vekker
innledende
booking
##sia
gransk
konkluderer
bmw
distriktet
ovnen
vinnere
skran
husene
kvalifikasjoner
##zo
##nest
hardanger
problematisk
maren
##blogg
omtalte
sjele
skot
bitcoin
vegard
##ads
venninner
ingeborg
lastes
trøst
innledet
vekter
hardere
satset
##ordfører
##studenter
magisk
rimelige
anita
oppfor
cecilie
utest
latene
##alth
veide
chelsea
##dekkende
trig
##leverandører
##fat
ungdomsskolen
jean
middelalderen
offisiell
gangene
absor
##35
##ensis
utsend
share
spring
universet
forsvarer
innsjø
skjenke
##illene
##oppgavene
##ulykker
keram
godta
halvveis
batteriet
ukrainske
##faktorer
##oro
demokratisk
##ubile
samarbeids
programmene
##værelsen
revisjonen
parkerings
##ст
fagomrader
##prisene
regjerings
julie
utviklere
trase
helsetjenester
russe
eksamens
##esh
nøytral
usikkert
ytterste
##keren
plaget
forarsaker
rettslig
##win
mindrearige
wiki
krok
note
titler
nan
innad
nakken
vasket
##regulering
mach
psykologi
maltider
1974
##smøter
##blr
punktum
betraktning
osl
##plet
baserte
##yder
belgia
##isol
forvaltningsrevisjon
##rute
vegetar
batene
teorier
country
ekstraordinært
helle
knust
##kandid
opparbeidet
hybrid
huse
##krit
oppgradere
pics
forankret
##oe
##ily
politiker
dimensjoner
greide
##sbestemm
bloggere
dynamisk
cann
##cken
urol
box
konkurrenter
##spektiver
sizeg
tarm
myn
##abol
hendelsene
oppnev
videreutvikling
gens
##wor
papeke
arbeidsmiljøloven
bøndene
montere
1967
tumblr
godkjenner
nysgjerr
premiere
rencont
##botn
##atens
jævla
bert
innsp
høstens
eksternt
##verksted
kjøpesenter
##egori
##sgrad
hjertes
torsk
oppfyll
##linjen
advarsel
faser
feiring
utlys
##vester
project
gabri
wer
bankk
menneskers
chi
sverd
steinkjer
1977
##sprinsi
colom
hart
suge
mektige
avslappet
##oget
prøvene
ettert
hardcore
##produsenter
brus
overs
handa
##øvelser
##27
advarer
##kasse
debatter
##lager
sørlige
alminnelige
##uropp
hjertelig
prix
##malet
plo
grafisk
##ingent
##rakter
royal
flitt
##28
glim
##eta
##plu
formell
utbetales
atmosfæren
avklart
hjemmesider
grønland
papp
abonn
##elast
foreslatte
audi
oste
vansker
arkitekter
##smateriell
hjelpen
topps
bernt
innser
klimap
##begrens
damen
klok
##hjemmet
singles
publikasjoner
##ulv
##innsats
zealand
omsider
tove
chattes
midnatt
avklare
##skriving
armband
bevist
sammenlagt
sizegenet
##ruten
seminaret
emma
toppidrett
utrolige
særegen
##spli
moe
tantrisk
lt
slas
##sbilder
##neren
know
forplikter
##reff
redegjørelse
rammes
tidvis
##sterol
produsentene
lesbian
retor
##vak
kjempefin
medførte
orienterte
##ganger
##bk
teknikken
kjøretøyet
##resultatet
illustrasjoner
konklusjoner
fremkommer
brak
pend
nordlige
##test
##ising
forsikre
##vandring
##bandet
mall
slottet
freder
silke
hovedregel
skur
kjøleskap
fortellingen
kjelleren
leds
cougar
sot
##opro
bygningene
unnl
stabile
sammenliknet
overtak
afrikanske
hk
##artet
engasjerer
bbc
voss
sjekkes
amazon
##aktiver
kjøperen
gjennomsnittlige
##elly
ideal
ultralyd
folkene
blogging
##sordninger
sørland
befant
##esnitt
##uel
løken
##ping
samfunnsfag
sape
1969
##bein
kall
##ferdigheter
nasjonalpark
beher
modus
urban
##museet
offentlighet
progress
sitron
hydrogen
identifisert
forutsettes
##resultat
jenny
##eldingen
formet
##heimen
pasken
chatte
visuelle
sprang
##endene
tydeligere
justert
defineres
moskva
innhentet
oppføre
svinger
møterom
skrekk
masser
natid
sete
dys
##aldrende
eple
radgivere
##well
landsmøte
oppstod
verb
premisser
suppler
pabeg
paminn
##riket
destinasjoner
##jens
##vaner
magiske
website
##otik
##stykket
social
prioriterte
##ares
samtykker
##fler
innredning
utgaver
##byraet
utdrag
kunstneriske
rammeb
plassene
arsber
##ieffe
dusjen
his
overdre
forstaelig
registeret
##uters
kristiania
sizegenetics
##fk
##ен
##analyser
abraham
samlingene
usb
sensor
bryne
instruksjoner
some
lagmannsretten
glans
enke
nordøst
abs
forstas
forbryt
##utvikler
hjemmebane
ine
analytics
##spolitikken
jakke
hager
utad
##stemte
index
fremgangsm
forbrukeren
##tema
##edom
hukomm
møteinn
avreise
teknologier
seremon
##ummen
##uttal
##handlere
##onto
mete
##iro
apost
##mping
diale
inkludering
gjennombrudd
innføres
faen
flyselskaper
mangfoldet
pedagogikk
helsetjenesten
graden
##ifer
katalog
korleis
dur
stolen
diett
gidder
blues
##hoo
mæ
##modell
skarpe
##kall
snarest
anskaffelser
matlaging
##ressen
##alende
minister
mht
##stu
fryse
##plant
gjenbruk
sukk
salat
##god
software
##kla
kjoler
##fondet
styremedlemmer
kaka
oppslutning
tabletter
jog
ng
##settet
mich
lovende
##orget
sykehusene
prioriteres
hunn
##elter
albert
andsverk
helvete
søl
##staten
##isont
studert
videreføres
miss
##celle
oppgis
vitaminer
pileg
kunnskapsdepartementet
final
blond
##statter
forme
smale
stjalet
støttes
##skunnskap
ferdighet
komfortable
##odeller
myt
forsto
lukter
##alingene
besvar
auksjon
##ombudet
equ
utsl
understreket
##teknikk
##aliteter
parlament
uber
##bevil
blogginnlegg
##sion
grunnlov
arbeidene
toy
skype
manns
karrieren
##instrum
kapasiteten
jordbruk
ettersp
likvid
##ctic
forslagene
##reist
lønne
kup
##sappar
ansettelse
gjenspeiler
kjede
baren
hodepine
sprø
elve
##unnskaper
vinkel
oljef
##reisende
##dekning
##optimal
stemmene
forekomst
honning
##pu
oversk
venez
luke
konferanser
sarbar
kanon
sesonger
bekostning
utfyllende
bratte
sigrid
poliklin
magasin
søm
fut
ytterst
alderspensjon
##norge
tilslutt
##ng
pensum
##ografisk
##sform
presentasjoner
##stidspunktet
fatte
passert
##vegg
belyse
skygge
innpa
##avfall
feirer
##sledere
##løsningen
renten
sektoren
lommebok
arten
plantene
utdelt
grete
løype
hip
##sprisen
indikator
fren
kjolen
##bibliotek
kolesterol
##verner
##spo
hjørner
##ssituasjonen
beslutningen
barent
##rise
##iset
##kers
great
##entar
##vos
nervøs
##skor
##ndalen
sammenslaing
enter
morg
##eling
beaut
inngikk
##avvik
nybygg
saga
nitt
fotografering
##juster
uenig
dyrke
malgruppe
sped
hjemmek
fenomenet
skjorte
destinasjon
##ofil
kapp
##ningsloven
møbel
##feir
##ødig
filmet
oppnevnt
følt
bedring
bombe
jury
vedtektene
##elo
bølge
##reduksjon
vanvitt
regimet
forsterke
##fø
kroatia
##givningen
##elsess
##rah
privatpersoner
skuldrene
1814
bitter
operatør
turistattra
##amentet
strukturer
førerkort
fb
##skons
sitat
erstatter
mut
##sjubile
kristi
kirkegard
militært
##apning
##opplæringen
sole
anstr
kass
##masse
hanna
beskyld
amatører
##felles
referans
##stokk
boble
##sproblem
##skatt
meier
##tenkt
minuttene
nff
unnskyldning
reisemal
balt
##yring
##ningsvis
mandal
kirurgi
exc
##arbeide
##45
vederlag
søtt
erotic
##fon
særskilte
##tender
##imen
##adiske
forekomme
duft
sjarm
assosi
flater
syvende
wide
systemene
reading
aksel
kyss
essential
##medvirkning
##shjelp
rediger
proteiner
dete
##urert
adel
caroline
miljød
pist
eti
##redelse
forfly
kontekst
respekter
mj
ansette
obos
instruktør
livsl
elise
kursene
panikk
blan
merkes
kyrk
##illing
listhaug
annonsert
bindende
stortingsrepresent
bistar
kompliserte
blank
publish
produktivitet
angivelig
tvist
rønt
##slivet
karlsen
lørenskog
##sammens
##jekk
##deg
kontaktperson
orienter
oppfordre
##cking
stupe
frogner
kosttilskudd
##agne
sanksjoner
klippet
##kul
utprø
##asset
##dekk
supplement
fk
tredjed
##lista
lux
nybegynnere
viru
rar
##stendighet
##stoler
kombinasjoner
forandrer
moment
##viste
perspektiver
linjene
innstillingene
english
uje
ensom
##sbransjen
##lamentet
##dert
beskrivelser
##gjød
resepsjonen
panne
tilfredsstiller
cer
integritet
svakheter
metodene
dyrket
dor
##tjenesten
##sonen
any
##iseringer
tidleg
there
stine
##ogra
rammebet
##anti
treffes
musikalsk
##svurdering
nerve
naturfag
##planlegging
etniske
samspillet
champions
1948
forsvunnet
cr
brown
##eks
byrad
bitt
##olley
manuell
##utikk
kit
portrett
##økning
##pton
cho
pusten
##mperatur
autoris
##iket
kommunikasjonen
##redende
lovverk
sovjetunionen
utsp
##endør
stakkars
bjerke
##ovasjon
høyttaler
utøvende
produksjons
mangelfull
handterer
episoden
annonsen
lake
filipinske
anke
registrerings
selveste
plattformer
sortering
effektene
røyke
policy
##teringen
##konto
coop
extra
champion
##avstand
##ranter
førstegang
ødelegg
barer
##ynte
brakt
superh
##vari
follo
##bater
lærling
skattem
tav
##foreninger
mineraler
laga
justeringer
adresser
evaluere
fagforbundet
obligatoriske
##finalen
mell
##fari
bore
reager
##brutt
##regning
##rikk
ft
##29
express
etasjer
##grupp
servit
nn
pakl
fasen
##bedrifter
organisasjonens
samsung
heder
##entil
selgeren
gjentar
##vans
##65
aksjen
##syre
##verdighet
##sesong
underskudd
##ов
innsend
linni
##umper
##ival
fiskeri
aleks
##snummer
##givelse
miks
##ido
virgin
fung
##innholdet
trange
##edalen
rullestol
brygger
organiserte
##iling
##irer
vink
kjønnsorgan
blodsukker
##skravet
høf
leverandørene
kulde
ll
fon
nrks
1971
##sch
nakke
##inal
mentale
##saktivitet
##stal
stykket
##meldingene
instituttet
skatteetaten
roser
avsatt
legem
##olene
ørken
lagets
klag
kledd
dov
nora
##bunnen
##fronten
andelig
##kenes
##pleier
apenbare
rencontre
resirk
henry
lovgivning
fyren
##ingsmidler
foreldrenes
arbeiderparti
##bakke
debuterte
søy
soverommet
naturvitenskap
kongelige
##faktor
ultimate
sjaføren
##teret
##steknikk
##dist
gjenværende
##raff
##imeter
##ious
opplyse
innek
tilgangen
uenighet
lopp
lob
adult
kvadratmeter
##bakk
hektisk
oppfordring
sound
datingsidene
forestille
##listene
utvalgets
konkluderte
##skontor
dokumenteres
fordelingen
overvakning
##serie
definisjonen
##arkivet
radhuset
rytter
risikere
rema
kompetanseutvikling
fritak
omlag
brukerens
kler
smittet
##lighetene
baner
publiserte
##card
utmerkede
lokket
die
##rekket
##semin
1965
sony
datak
##uble
offentliggjort
plasseringen
byrakrat
veie
laster
søkemotorer
frit
##mektig
bestemmelse
##kok
bassenget
naboen
utviklingsarbeid
heftig
stier
food
drøye
ryddig
moen
##ialt
horisont
##lanter
soldatene
##onde
fryser
læreplan
##sforening
koff
masker
tilleggs
ørene
##heving
sortere
##srike
prevensjon
##ssekretær
water
##fsen
sekken
ypperlig
fossil
##cil
styrkes
casinoer
styrketrening
oliven
bærbare
##forestil
dale
helsehjelp
##politisk
etappe
søks
motorsykkel
omdømme
tingen
expl
konsentrert
puls
pavente
konstruksjoner
##hage
##ilbudet
kandidaten
verdal
##arkite
scott
##gener
##virkninger
skadene
skandinaviske
blowjob
##eles
##cript
søkeord
stuen
framtida
##pak
turneringer
##bom
##hre
innsatte
videreføring
idyl
ød
##ismer
nation
karm
frisør
patt
##sterd
sekretariatet
oransje
forutsetningene
##skjør
perform
##best
kvitter
##rester
meditasjon
gb
leveranse
##artner
##ires
##skontoret
finske
slitne
lur
vakner
flaks
grepet
journalistikk
advokater
kandidatene
singap
førde
european
busser
hert
nc
##aster
##install
gjødsel
manifest
##skende
gustav
gjere
oversiktlig
lønnsom
##klaring
organisk
studerte
lokk
krog
tent
##estrand
desperat
##hem
spesifikasjoner
næringer
fots
næringsstoffer
pic
anvende
hovedfokus
lovverket
lekre
trader
liga
oppholder
fylkesmann
pølser
kvarter
ungarn
##raket
##delinger
gjenvinning
leid
tarn
palestinske
dedikert
tynt
nordsjøen
høyskoler
utstrekning
reuters
gaven
true
cos
finansiell
##reme
forbli
##kirken
skottland
flir
##unes
underlivet
reguleres
kommersiell
mekanisk
styrken
representasjon
looking
hustru
markedsførings
piano
kvitte
gaming
justeres
evalueringen
romania
beit
breivik
bremse
offentligheten
brukervenn
omsetningen
mastergrad
mannskapet
økter
bush
##bror
##mentet
##gass
company
##handlingen
kobling
nielsen
passere
femti
arealet
only
xbox
modif
##info
skrem
##snavn
møteinnkalling
##konferanse
histori
nuru
##amenter
oppgradert
ct
asbjørn
##grunnen
vonde
jr
innsa
presten
turene
skjeden
entreprenørskap
prosentpoeng
stygg
bevise
kommunestyre
utrede
hyp
##spraklige
tilsyns
1964
erklæring
spiss
lanserer
coaching
##sammenheng
##ettiget
virkninger
prinsip
##reder
resulterer
røre
visual
##samtaler
overtar
rocke
garantere
nomin
stadium
stortingsm
dannes
fagskole
snudd
##svekkende
funksjonelle
##farger
vanskeligheter
##intervju
##posisjon
diskuterer
finere
tatover
flittig
andrea
vektt
prostituerte
need
lørdagen
vegetasjon
init
progresjon
wilhelm
##ørret
##vatnet
##fry
reparere
fengsels
##biblioteket
helsevesenet
tert
##risiko
visdom
##rie
papekt
vad
##kvent
ulemp
kulturell
konsulenter
prins
lokalet
vatt
antyd
influen
##fit
after
nab
skryte
innføringen
gjerningsm
johanne
aldersgruppen
andelige
##kede
suksessen
oppnadde
latterlig
forby
rullet
ideell
ferdigstilt
undersøkte
supporter
oppvokst
palo
wen
dk
presis
rødgrø
udi
vibe
ønskes
russer
##selva
rolige
fornærm
##agnet
relativ
##ife
notater
motivet
lodd
tilbyder
hønefoss
søknadsskjema
##bran
kommuneplan
##upet
opplag
bader
##bygger
ydmyk
steke
minor
instruksjon
jogge
##apro
##ivelse
intervensjon
ingeniører
henvendelse
##optimalisering
antik
edu
pia
##ommelig
##familien
##lunde
statsministeren
##atar
bløt
##øtt
##sakt
seb
andelse
##komme
utløpet
papiret
foreningens
konkurrentene
allsidig
securit
##magas
skule
ligaen
##anuensis
utpe
hygiene
etablerer
utnytter
##omsorg
tilliten
radon
public
handelshøy
##rive
##sjen
kalorier
nesen
texas
settet
liby
gange
##trykket
portal
tegneserie
gale
begiven
autonom
drammens
php
middagen
forskudd
velgere
solbr
##pose
verktøyene
avisene
engasjerende
trur
ordføreren
##fugler
alpin
swe
##forb
rangering
essentials
sigar
kunstneren
##see
suger
gjengitt
aksjeselskap
##inntekt
godkjen
tilskuere
varamedlemmer
point
utløser
utfallet
spins
papekte
1963
mykt
arsenal
##esc
##svø
cupen
mrd
nort
##egruppen
uopp
##nering
##sjø
saklig
cathrine
romerike
##web
sammenligner
opprettholder
begeistret
##shistorie
assoc
fetts
beskj
gjett
rio
forberedelser
##osa
opprettelse
folkem
easy
##ensyn
framgang
##asa
adhd
talenter
##klikk
derved
heftet
utvider
glasset
irritert
sure
knapper
##hm
folkevalgte
solveig
##ible
saudi
self
blinde
juletre
nettbutikker
shi
rønn
avviklet
foreløpige
klassene
lee
4000
kjæled
uis
want
##parter
designere
rustet
puss
##count
begrenser
forbereder
model
cellene
##kry
grande
gt
##ios
kobles
konger
teoretiske
##osten
fjø
jobbes
preferanser
bluet
lønnsomt
tykke
moralsk
baller
haakon
##sian
grunneier
##rød
assistent
truer
##insk
brannvesenet
##læring
reserve
passerte
problemstillingen
bokser
450
##avir
straffer
ling
muliggjør
##delser
søndagen
qual
tiltalte
trail
tilføre
##arnet
vinduene
reparasjoner
##pop
heretter
slektninger
otto
vindkraft
skjold
arige
##plast
førsteam
mestrings
liberal
fott
gjenkjenne
##krigen
##smetoder
mia
mary
hengt
blekk
tepper
blog
oppbygging
føder
mett
##nas
forlo
lyser
lysere
mormor
misforsta
møller
pafyll
sangene
trapp
aqu
##fj
laur
markerer
##krevende
##ffel
eskort
serverer
##ssiden
utstedt
sjenert
stro
kvinnens
valper
beskrivelsen
nærmet
##elivet
kondisjon
##bøy
else
alexandra
fansen
justering
##seter
barnehagens
friskt
tilsammen
onkel
monteres
kalenderen
##akerne
yahoo
singapore
gap
hjelpsomme
##¸ˇ¸ˇ¸ˇ¸ˇ
syklister
formue
lykken
intensiv
##sløsning
briller
smug
entreprenøren
involverer
wester
innsk
dagtid
optimale
excel
##33
blab
røyking
1905
##æra
##bbel
##osh
miljøvennlige
lase
##smot
byutvikling
erklær
tidende
fungert
dirig
adopsjon
ratt
##ommende
tiarene
værende
gundersen
nou
uakt
trysil
##dtr
parkeringsplass
overskriften
##undert
ups
apnings
##illi
hilse
vernet
talte
trygve
diff
##rigt
uheldige
satsning
undertrykk
urimelig
##stabil
utbrudd
signatur
sprøyte
bagasje
##kli
##seiend
christiania
animal
##inson
##ritt
samet
pumpe
##mmenes
screen
##hai
##ways
krypt
charles
mellomstore
treningsø
plug
sparket
##skilder
##konvensjon
røntgen
##bt
1966
synder
sesongens
##station
elegan
prosessene
##ssjefen
birk
##uka
visuell
##midlene
fetish
##jobb
isteden
##maskinen
slanke
##ivaet
dreie
##beløp
inntekts
stramme
##usikk
implementere
leveranser
vares
##dress
vaner
vaken
ulovlige
##hodet
sofa
økos
betjene
flekker
klimaet
miljøk
stast
##ird
mum
pom
##sledelse
##skomite
spray
##agere
##can
karbohydrater
##oppnaelse
styrte
anmod
dispens
samfunnsansvar
##lova
##entral
##lesere
sportslig
bjarne
stell
jordan
svine
##sprogrammer
borti
angre
stimulerer
##shop
##baner
stabelen
initiativet
etterforskningen
blas
reagerte
kompakt
kontroversi
oppfyllelse
##jøtt
bærekraftige
samferdsels
##uttrykk
maritime
servicen
sprekker
overlever
opprettelsen
usann
##strinn
mentalt
##atnet
klimagass
fis
##row
##stilbudet
hjemlandet
##etabler
videoklipp
use
vintage
##fiber
taller
ballett
bluetooth
observere
##regionen
rykter
logger
##idem
##sgod
krøl
sensitiv
overd
sløy
navne
bog
friheten
lærlinger
preges
##bilen
foredraget
komplikasjoner
mekaniske
ropte
oppsiktsvekkende
##stue
fornyet
museer
utlendings
læringsmiljø
##spotens
##behandlingen
motstandere
fortau
partil
shar
sekretariat
##søster
dream
svul
palest
##ution
sydd
fremsta
capp
utgivelsen
##wan
1942
stolthet
krystall
francis
kirkenes
nsf
mildt
gres
nyopp
medlemsland
kompetansemal
kristendommen
ufatt
ekspl
##unger
skadelige
helbred
politist
glimrende
kirkes
hint
fitness
##via
##førselen
boot
anmeldt
eiker
##ianske
1944
eksistert
dc
spørreskjema
bridge
definisjoner
sd
gat
steph
##idrag
redakt
rs
##sang
stens
orkester
statsborgerskap
##standard
rettslige
pusse
##enheter
utv
rug
uttrykt
løgn
flyte
wow
scoring
##leng
herrer
familiene
entreprenører
tin
rasen
forklaringer
talmodighet
samhold
ingrediensene
##edie
prinsesse
terapeut
potensiell
lisa
foundation
##platt
##kil
tilsk
forpliktelse
skjelett
##etoder
flyktet
arbeidsvilkar
handteres
ross
antibiotika
oral
solidaritet
vage
wid
behold
koselige
praha
spekul
##rutiner
prøven
fremstilling
barndommen
vandring
innebar
##seksjon
engine
than
uhell
henriksen
france
nobel
honor
##uge
##egist
##kja
løpt
astma
space
##ced
tiltalt
charlotte
blaser
julegave
ytringsfrihet
helgene
code
iks
steen
nærmiljøet
fjernsyn
##utbytte
krisen
drikk
jot
senge
mix
##ingar
##filer
flasker
søsteren
santa
løyper
##olusjonen
1400
##stan
opplagt
##fram
##omma
sjømann
##aktiviteter
bekj
law
swinger
myndighetenes
showet
menstru
milan
svenskene
##poser
orientere
standpunkt
community
avslappende
##ykket
1946
##hastighet
mistenker
##esongen
sektorer
barnebarn
namsos
raskest
##skrevende
eiendomsmegler
sida
sykk
reality
##elementer
anslatt
atter
logisk
romerske
litterære
antid
unngas
##ymt
##ikanske
health
svendsen
##ardi
##adisk
brukernes
ludvig
pund
randi
rukket
##departementets
##stest
ektefeller
gudd
snakkes
##løft
sertifisering
omegn
spesialt
pleide
##agon
clint
gel
vekket
pensjons
skin
##yttede
oppstarten
##boliger
##edt
konkurrerer
sandberg
##itere
øret
##ressurs
navigere
dessert
lom
verdensmester
avdelingene
uførepensjon
##gressen
blandt
velkjent
##ae
##eløpet
avve
pornost
koordinator
##bestemmelser
appet
##stykke
edd
mobilitet
reflekterer
databasen
styrking
tilfeldigvis
opptreden
inspeksjon
jessheim
sophie
##ml
dokumentene
pabegynt
korps
mørkere
##vegger
sandvika
year
broder
halloween
lukkede
cert
oppkalt
##varsel
##sterke
sameier
teknologisk
produserte
##alie
utpa
troende
##historien
other
##mottak
igangsatt
begrepene
##korn
##skjell
konservative
eksperimentere
kven
iversen
##frekvens
##34
lekker
angripe
##tjenester
christensen
optimalisere
goose
##uttene
##faste
firmaer
arch
propag
helsefag
strukturert
roar
rygge
annonsering
##sdrift
revis
handelen
antyder
applikasjon
oppgang
##utningen
##otter
hauk
##jerner
irritasjon
##ragende
diktet
førsteamanuensis
stru
rettighet
allergi
##elagte
##lon
##hing
michel
kabler
##dahl
##sforskjell
utviklerne
bulgar
##baten
slass
oppfølgingen
lanseringen
##etekt
##sopphold
##endo
garnet
1910
utredningen
erklært
kav
devel
husket
driftsutgifter
pastar
hotellene
graver
rapporterte
varmepum
høl
oil
##tall
vedvarende
##idet
##imp
##plager
##cept
lederskap
klasserommet
deaktiver
forsør
entusias
essay
overle
##kolle
##trafikk
valgkampen
bryllupet
anlagt
brukermedvirkning
redu
simp
forklaringen
gab
nordmann
høytrykk
operere
feltene
ovn
jordskjel
spisest
pulver
##ifa
vurderings
hurra
##anes
bestefar
boy
massive
regionene
kjersti
diameter
barentsh
##uper
svømming
begivenhet
##styrken
departementets
investert
omgangen
##illen
fengslet
arabisk
bosetting
##skonkurran
aer
oppdretter
##arbeidene
##lade
fastsetter
cc
pyntet
##relse
ans
spillets
forbedrer
gammeld
aktivere
##svann
spion
brødre
bønner
##semb
##fan
kildene
##operasjoner
##øft
vestlig
nytelse
sap
erlend
genser
##turer
##alog
##ulykke
##ileg
##sentre
forsiktighet
##versjonen
##ku
strømmer
etiop
sørensen
tunnelen
etater
begrensede
kontinu
##unnelen
##sfort
tegner
cannab
artiklene
roe
lp
##typer
sæd
industrielle
brune
avskjed
beveget
relevans
involvere
##ello
ibsen
jackpot
##pra
##olitikk
julegaver
ray
vellykkede
well
##fing
rekken
tilhørte
stjernene
##arin
avvise
interra
varetekt
hydra
##spsyk
karakterene
idrettsh
micro
formel
enkeltes
utseendet
##ertil
alg
elling
herreg
##bers
##rydd
renover
##stift
ordens
sivilis
kommunere
nikola
##elisten
2030
##zi
##egget
lapp
##rin
solheim
poet
blink
##teksten
##ury
markerte
##ра
title
opptrad
##ekst
hypote
spørreundersøkelse
##kland
guiden
##fy
##foto
photo
lovbrudd
truck
##agede
verdik
##husene
ekv
senterpartiet
avdelings
##oy
jordbruket
##givere
transform
klis
dypet
ala
pict
engst
ektemann
fadder
sammensatte
artene
french
anden
##smat
kjekk
energieffe
assistanse
spotify
nokon
kans
akust
urter
kjennetegnes
bann
dumme
beruset
trygde
##snittet
skyldig
atle
##irt
berger
innførte
utlendinger
ulykkes
utvinning
##sstrateg
engasjementet
integrere
playstation
fremragende
matche
##levende
cand
##gien
##ennelsen
##sdagens
jørgensen
nysgjerrighet
##filt
fylkeskommunene
kostholdet
fortol
##ktede
##flix
##ekj
105
ryktene
returnere
hengende
senket
##sløy
centimeter
bim
wifi
dl
strender
savidt
cookie
maritim
oppfatninger
e18
##kassen
snus
suverent
##sin
##ando
1100
fordypning
platen
##forstatt
margar
halling
norgesmester
chattesider
uib
grate
energis
cyber
ande
olde
reelt
spirit
toner
utløse
forsikringen
motorer
doble
1947
kvalifikasjon
slikke
styrkene
forenkle
drop
seminarer
ideelt
refererer
dokumentasjonen
arabia
##kraften
bestsel
forord
##slønn
##ional
røyken
##ilet
##cted
fryktet
utforme
##prinsi
stan
padriver
ase
pm
saint
skøyte
##bygde
styrescore
forgjenger
tt
utenfra
olympiske
##hospital
forlengelse
vesteralen
pekte
dile
##bie
atlant
notodden
##unet
kunstverk
##asi
røk
arbeidsgruppe
skagen
kammer
inje
flyter
egge
##espillere
card
kommenterer
russian
gitte
##osisjoner
dogging
lm
amundsen
kreftene
erstattes
pay
arevis
##apeuter
fremskrittspartiet
forkjøl
drakk
arrekke
##uleres
##prøven
##col
fylkeskommuner
fungerende
ernær
##rygg
vidare
naboland
stenger
tilpasser
hindringer
audun
##pend
stoffene
##esex
kran
støvs
inklusive
ultra
høyttalere
glu
intense
##jerne
apparatet
dikter
stall
##yndighetene
selvstendighet
lokalsamfunnet
parallell
##soppgjør
enebolig
avg
gambling
tommer
gjerning
image
##statistikk
restriksjoner
help
frafall
hjemmefra
xl
##opher
##vansker
##lyser
teppet
stønad
menneskes
sprakk
##rente
marer
omgitt
frelse
idrettsforbund
##vint
##hø
brua
syre
brekke
##høgskolen
innenriks
radighet
kum
strukturen
insekter
##order
emb
asian
niger
##kjønn
godteri
##unden
overveldende
fullførte
innkl
##utredning
utenlands
style
smakte
##aya
lekser
christine
kidna
##fase
##37
tjente
messe
prp
##entt
##ellingen
##friheten
##interesserte
vagina
##elær
##icks
##fotograf
kommentarfeltet
konstruert
##stoffet
varige
yter
oversetter
##sselskaper
menneskerettighet
##eknikk
joda
##veren
oppriktig
ukentlig
derav
personverner
##giftene
oppmerksomme
##sdelt
utlig
simen
tilegne
seksjonen
norrø
##innede
bingo
##elli
mose
johnn
1962
##skirken
##terne
boligene
gad
treg
##plassering
##farget
##panel
chicago
barentshavet
psykiatri
##zar
##eli
network
blase
##sfjorden
væp
feks
##øbler
kokos
turistattraksjoner
##taks
smelte
onani
sco
spenner
bruddet
energy
belønning
beslutnings
cust
trente
vannt
165
##nsjef
come
kupp
adress
koordinering
##iges
underkant
trærne
##stren
gjær
generasjonen
##elyset
lill
avbry
molek
innehar
##agg
visum
lotter
kritisert
##ønstre
skis
tyrkiske
stigende
bite
##ittene
220
kvalifisere
##alternativ
byradet
herrens
##sdata
##ivet
tingretten
dv
besle
koder
folkehøg
ombygging
rasisme
konkurransedyktige
##ulent
prosjektledelse
løsnings
obligasjon
folketrygden
pik
skolem
forsterker
epo
herr
finsk
garsdagens
fuglene
bart
##sfjell
oppbevare
dykk
##mør
##assist
##smalet
funksjonell
jernbanen
##fremmende
meteor
vanil
representerte
feilaktig
ingebrigt
##sløst
they
motvirke
jordmor
inntrykket
malsettingen
exper
mistenkt
ektemannen
bensinst
disiplin
drøftet
komplette
mannens
matcher
##støy
synker
##ministeren
sirkel
halvtime
redegjøre
visit
mit
##bels
##skapasitet
##godt
##reglene
magn
lensmann
##edisin
forlenget
##lat
##oss
atlanter
estetiske
ensomhet
noenlunde
rusmiddel
##sdokum
kio
vre
karmøy
starta
klyn
farer
order
olsdatter
testene
frag
netflix
mir
##cent
utforsker
trapper
ræ
168
tradte
soner
##styrer
elef
begynnelse
##rt
romaner
indikasjon
##egling
knullet
##myndighet
framtidige
dilemma
angriper
ilds
formidlet
tolkes
hyller
innkalt
diskuteres
belegg
sjekketriks
preger
florida
thaim
amin
##kop
marokk
retningen
anleggene
splitt
##skjæring
##mmy
tjen
oppholdstillatelse
##interess
##verv
prioriterer
jørn
samboere
refleksjoner
nordens
klimaendringer
tiltrekker
vektlegger
##hunder
oct
nærvær
##verdiene
##rimer
biom
terrasse
##round
unntaket
blonde
##landskap
stokke
dah
syssel
##esam
destru
postet
konstitu
oppdal
hovedsaklig
text
##yldig
forenklet
1918
##riter
sporten
169
nix
selvom
nyskapende
##stek
ice
##stemp
jernbaneverket
varemerker
##programmer
nemnda
##ates
vg2
dab
166
tempoet
##bjør
operat
straling
##betennelse
font
mcc
holt
##egjen
nærmiljø
kontinent
konfirmasjon
##oben
little
benj
##løkka
presser
steve
torp
smarttelefon
ig
konsernsjef
##sløpet
tyde
kalsi
inviteres
information
programmering
kontanter
musik
kommentarene
##runden
altinn
systematiske
wars
##forstyrrelser
pbl
tarnet
##sdato
1958
jarle
##ovo
bevisstheten
##sgrensen
oppdaterer
ferdes
forhands
##elskap
##ettes
##preget
gutte
vedlagte
lokalbefolkningen
##sperspektiv
##moner
puter
tøffere
kjeder
kombineres
dnt
jus
granny
serveres
knep
##ibet
##italen
ferier
sogne
utgivelser
##ainer
##skjø
##sides
titan
##hotell
##ssvikt
##ssalen
følgere
##elege
kategoriene
utgivelse
##modellen
brettet
perler
benken
1939
##ksene
##sbaserte
kapitlet
hub
attende
dagligvar
reserver
separate
##skostnadene
##srettet
diskriminerings
videres
kreativt
buddh
kard
liban
fortel
brig
yrkesfag
eksemplar
##spirasjon
extender
##mmers
##hets
luftt
distanse
tjenestepensjon
trafik
nd
##log
førstehjelp
##iana
##esdal
apningstid
##ali
##ennene
innst
fam
elektri
##pre
senger
støp
arbeidsgruppen
##kroppen
vrang
##gelse
flyreiser
kated
utsol
selvfølge
gjerde
lanseres
corn
##srud
seneste
##sdtr
strale
##200
patrul
##oon
##ovn
marketing
##skat
oversendt
##itallet
sammenlignes
##frø
perle
musiker
overflater
1300
elbiler
fiskere
##vass
##eslag
boob
akademisk
trendy
medalje
kjølvannet
##oskop
marx
##house
made
##inna
seint
##kjeder
forlenge
skist
astron
anskaffelse
herpes
##umen
1941
anonyme
rusmidler
logikk
stir
pornografiske
bjørk
plasserer
samrad
skuespilleren
utnytt
##irektoratets
##jenta
foreligge
115
videreført
akkred
publiseres
hovedkontor
sart
forekomsten
##avgiften
sommerferien
nepal
##adem
meister
avviks
petroleums
##rakten
##ledning
geomet
tiger
bnp
porten
tillates
janne
cuba
sjener
sykepleie
golden
pastanden
skolestart
holdbarhet
personopplysningene
fagfelt
guider
latina
mads
inneværende
##amen
klargjøre
innbrudd
tørker
gjentatt
slippes
avlast
sjelen
hjertesvikt
travelt
eksklusiv
johnny
viken
fornyelse
##jentene
750
utstrakt
ankommer
instanser
##sadresse
vindus
ekteparet
langsomt
karakteren
lagmannsrett
##sned
kvelder
troverdig
butt
binder
##leggelse
##sfakt
##operasjon
innsig
medført
##atret
overla
gangs
bevisste
fritiden
spel
##urne
synn
trude
reservasjon
cannabis
glød
basen
bjel
støvler
##cupen
bjørg
josef
sogndal
nedgangen
klimat
##komp
nøyaktige
##aste
##følgen
litteraturen
skjuler
##kjøretøy
klagene
##base
##serfaring
spraklige
##stallene
bruksan
scanpixvis
folketrygd
##kvar
interkommun
##sun
##cky
syntet
ate
forfølg
beman
##skrets
une
vinje
##infeksjon
chatt
fasade
stryke
##piller
gjenskap
anklaget
##redaktør
##mak
lott
innspillingen
##kostnader
rabatter
brystkreft
tidsskriftet
overbevise
bend
veilede
##strømmen
##iater
lekkert
##antik
femten
##utveksling
##konsent
skor
skav
seire
##cess
tromm
lansering
psykologisk
frittstaende
smilte
##sterdam
##visende
marcus
##boende
##instru
kostnadseffe
ogs
##kommere
garderobe
dead
##rygd
mega
hjelpet
terning
##partnere
gjensidige
##skred
gudbrand
faktorene
emballasje
savn
roi
ventetid
##smyndighet
bispedø
##rate
##tiltak
##skriterier
interracial
kartlagt
elites
bibliote
seksual
##arrange
sarbarhet
broen
##klene
kostnaden
berøre
oec
gaza
desidert
flør
rovvilt
##mennesker
##album
geo
name
##skravene
digger
røm
mirak
prostata
fakultetet
kontrollerer
amsterdam
overskuddet
resort
sikter
##gjengelig
risikovurdering
kvinnes
##handlingene
##teknologi
joe
##vilje
testoster
konsekvent
##flytting
##arten
sjangeren
ebon
søkeresult
bonden
arig
operasjonsleder
##prat
##holdig
autoritet
erkjenner
fronten
right
ilden
koblinger
##lementet
autorisasjon
coll
belte
giske
klør
hekle
visma
svik
##unne
innta
erfaringen
forbrukerradet
sulten
##urch
syklet
radikal
begjær
innlogging
##verand
vareb
grønnsakene
fylkestinget
county
##gerende
##cha
##løshet
treneren
##ftene
gruner
ledelses
dubai
behag
nidar
svimmel
kulturminne
1890
##ligste
##ups
skilles
internasjonalisering
hak
frekke
skyter
kronprin
##konferansen
ullen
bevilget
reale
deltager
basketball
##ific
empi
##untre
hestene
utøya
travle
innvilges
maloppnaelse
mats
løpene
lærerutdanning
høringsuttal
makeup
rovdyr
jeger
kommuniserer
##omsorgen
fordele
treningsøkt
##sspill
ronny
opphører
blast
imponere
##kg
trop
kroniske
valgkomiteen
renne
tinn
likesinnede
befaring
kokk
slitsomt
ringerike
klaget
plas
produksjoner
ronald
##dagens
potter
laten
daily
anat
##ssted
arnt
parf
tidsrom
operert
lena
utvist
##iki
slave
omorgan
continue
tøyen
cry
emosjonelle
1961
provinsen
føreren
klienter
hørsel
##lovak
forlaget
##arisk
nivaene
helen
##hur
utdanne
illustrert
avklaring
toleranse
##spilling
raskeste
forberedelse
vandrer
vendte
enova
leo
fartøyet
torv
lovpal
menneskerettighetene
tribun
##sministeren
##revd
festivaler
skisser
##room
etterfølgende
rib
bestevenn
##ansvarlige
møteleder
##retningen
lokallag
kaken
uavgjort
hof
drøbak
iss
##uleringer
praksisen
risk
##mad
mathias
arbeides
kjennetegner
pv
marka
##temp
kredit
stillhet
skill
rekk
byggverk
1914
bladene
overlevde
plantet
tradløse
vg1
vedtatte
nybegynner
##ordinator
datatilsynet
handic
tilbakemeldingene
zoosk
##jab
sakens
rekre
evangeliet
velsign
ebony
bestillingen
##farlige
putin
##skala
tipsene
1956
1952
traktor
argentina
kalsium
høyskolen
northug
##hin
1949
subsid
akvar
stasjonære
##wc
##rob
lib
fredelig
##beløpet
when
trol
##fabrikk
lasse
monte
valgkamp
1913
opphevet
inntatt
##etiden
grenland
listene
svette
hjelm
anvendt
##slaks
liberale
sked
##cht
##selv
synkron
brud
1943
##balanse
idretter
##hei
paramet
jones
fotografier
syltet
vektlegges
##brettet
nyanser
seksjoner
skjør
mobbet
sortland
##mangfold
svekke
tekstiler
##jor
søken
disney
forenk
bruksomrader
##itas
godkjennelse
ekspedisjon
tallerken
##just
universitetene
hihi
##unisjon
rast
##sykler
##sutøver
##enskom
reind
##styper
genetisk
sekvens
##draget
##urope
strømmet
##endringene
##regelen
skitne
skuffende
fliser
bakt
besvart
iverksettes
##iation
##uv
eliteserien
krom
akutte
skrivende
rogn
##myndighetene
naturens
fingre
integrerte
pornofilm
industriell
christopher
##motor
innerst
sesjon
innrømmet
dempe
tranny
førstnevnte
nitrogen
paras
tomten
kurt
folkehelseinstituttet
itunes
kenneth
lysten
analysert
hjulene
rapporteres
administrativ
listet
nick
##fargen
domstolene
skrib
øving
hass
##ebær
følelsesmessig
##gjeld
inneklima
lagd
forkort
hey
lydsporet
copyr
##bestand
nag
##slys
bilag
relasjonen
##ingles
eiendomsskatt
samtalene
##skapen
ytelsen
omvisning
radene
fagpersoner
primære
opplæringsloven
##put
klarere
##olo
materielle
leiebil
olaf
pek
##rikt
##sreformen
skys
drøy
vanvittig
##vey
forveien
havna
andreplass
benytt
prøves
speilet
imøtekomme
##vilkarene
innholds
flagget
mul
##sek
lokke
##soppgaver
underviser
##egaard
mind
sivert
torget
##debatten
kompetente
kløver
innbydende
##kamper
banks
direktiv
kulturhus
opptaks
muskul
barbar
poengene
soc
forskningsradet
akv
##adresse
partiets
##ummert
skyting
journalisten
smertene
##mur
kriger
aldring
eur
##cd
naf
sporene
ildsjel
##uks
##ypen
##badet
##ility
##jektet
fedre
##smedisin
legendariske
konsekvensen
interaksjon
britt
##spraket
stjele
hhv
viner
##craft
##ilo
sikrere
oppsummert
tos
##sbøker
smartere
##inntrykk
##utdannede
adobe
##giving
##styrem
vaksine
barrierer
##felle
fordommer
##fors
biod
grieg
tilber
fornye
leire
kjølig
importer
ventes
øks
slam
##stykker
robuste
##valitet
##aki
fortrinnsvis
familiemedlemmer
undersøkes
sjuke
##historier
##beskyttelse
##ulasjonen
ansettelses
transaksjon
eric
institu
diakon
tredjeparts
kjæledyr
##nis
suveren
##saften
1957
##blas
benjamin
##ktt
jødisk
syriske
beskrev
##orienterte
nysgjerrige
spillem
gjennomsnitts
triana
race
flokk
##idere
gor
##historisk
##spress
martine
##hampton
knutsen
usd
##smarkedet
straffen
prosedyren
utdeling
ash
omkom
unges
troverdighet
jacks
##rets
##но
klæ
##sbes
zu
kenya
jotun
sank
##forsknings
innv
##unner
drener
stores
kortvar
##nner
vekttap
##ettingen
landing
omg
mord
utgrav
jane
oppmuntre
sokker
casin
utnyttes
gjerninger
arsregnskapet
bemerket
##ione
vesen
kajakk
livene
konfidens
scenario
##sselen
slekten
miljødirektoratet
stive
##urering
direktivet
tabeller
##gens
##imene
organiserer
nk
etternavn
undervise
tredjeparter
verdsatt
##egu
##ters
fristet
##ssykdommer
bekk
##ykdommer
akademiske
dæ
opposisjonen
myter
heart
henvender
messen
##hammed
foot
haf
pisk
grev
nova
gulbrand
merkevarer
forsinkelser
livred
##spartner
tilrettelegger
innbyr
bevaring
markus
pakist
fremstilt
fordype
copyright
##levelser
##eleverand
virkningen
jæren
fortrol
besvare
##koder
##vanlige
fotografer
verter
230
avvikling
gyte
mislig
volley
##elister
##edlemmene
dykker
sensorer
atomvapen
##ramid
taushetsplikt
statkraft
skik
søkerne
##ruk
organiseringen
##sproduksjon
knekke
##rapportering
##dokument
##usia
festning
##benken
voldtatt
kontrollerte
johannessen
filippinene
improvis
##forbin
##bredden
dovre
##festen
git
their
titalls
##skjermen
uit
##bestemmelse
instruktører
loft
dødelig
nixon
rif
##fos
eros
flykte
veiledere
##familier
ia
rundskriv
streik
##orgen
utbedring
arsberetning
got
psy
##ippe
##nek
kikke
skrudd
arsrapport
visjonen
##srapport
##skrit
syner
nyre
##iansk
##fattende
dommerne
rettighets
##rapping
##olt
nal
hakket
gjennomgar
subje
handlekur
##sbildet
##spesial
religioner
langvarige
##utstilling
##kombin
snekker
##svilkar
##espes
hevn
##stjernen
lus
protot
betydde
##konstruksjoner
cappelen
##trening
oppvarm
##leden
rangert
johnson
velgerne
##ands
bakgrunner
bekjemp
avgi
6000
##stap
##ydig
tilbaket
skiltet
kuleste
fingeren
doktor
sensitive
stero
hullet
mast
fylling
tipper
##norske
##penge
##spillene
random
administrasjons
blac
finansieres
tesla
nabolaget
brens
queen
skadde
ferdighetene
medarbeiderne
medlemmet
forbilde
##kningene
saus
dialogen
inngas
stasted
##sendringer
renovasjon
##verktøyet
##vatn
##hytta
##stor
blomstene
##key
dani
kjekke
passasjerene
rammebetingelser
amming
##farkt
gene
##cu
##gjengere
innlevering
mim
skremme
katastrofe
frakte
moske
hastigheten
korrekte
fremtredende
wet
idrettsutøvere
forhandle
##luft
blander
forutsigbarhet
gravd
pauser
roald
embet
operative
konvertering
##batter
lytt
chrom
lidenskapelig
innholdsfort
lykkelige
cola
##fungerende
viljen
oljesel
##nytt
##atab
gjenkjenn
lamp
ambassaden
brukervennlighet
framdrift
##svink
madra
vesle
erstatnings
transporter
tilført
slank
snøs
robin
##don
iall
mediet
indones
##likken
sponsorer
##vogner
urettferdig
ulempe
##nik
pask
autorisert
##splatt
vits
røyker
fantasy
adri
adkomst
reidar
jeans
mike
hanssen
gamlebyen
offiser
##32
##ienes
byttes
##sover
oppsøker
knute
colum
db
forprosjekt
##utleie
avtalene
##studiet
cond
##ito
surfe
konkurransedyktig
framstar
##ock
mold
##okse
knudsen
rørt
##vekten
økonomiplan
samsvarer
forvaltningsloven
intensjoner
##jong
##aksept
insulin
tilslutning
brystene
maskinene
colombia
##iga
ofrene
troppen
konvensjonen
##hion
##sbegrens
moralske
idrettsanlegg
regulerings
##spolitiske
opplevelsene
privileg
##shem
##rener
klam
1919
hjernes
years
##etty
bilens
bebyggelse
sebast
kikk
##ratt
avslørte
aske
innsam
##klubber
rømme
sortiment
parkeringsplassen
1880
signifikant
kvm
kunstgress
betingelsene
jet
##apper
planten
blaste
samordning
fullm
##kollen
sovnet
lastebiler
generere
medaljer
forvalte
plen
arrangøren
undertegnet
iallfall
betinget
berget
studentenes
tidkrevende
kobler
rikeste
mdg
skjønnlitteratur
egentlige
usedvanlig
bue
tomat
ideene
realistiske
##urin
malm
likeg
dow
uklar
##ador
norde
handhe
underlig
vurderingene
integrer
rapportene
hovedutvalg
reindrift
##sturer
tviler
kontrolleres
##atorium
tidsrommet
##veileder
kunngjør
##aby
rommer
fastsatte
##ierte
spli
algorit
control
rødgrønne
malingen
##igan
brussel
følsom
kostymer
stevnet
nint
##splant
respektere
hair
avsluttende
movie
ekstraordinære
husholdning
kjærlig
defens
wenche
##skapende
fedme
ryn
finansdepartementet
##strikk
##dekket
##44
migrasjon
intervall
naturopp
kollisjon
kompatibilitet
raste
dreide
##ivene
vane
ulf
markedets
okkupasjon
develop
paradoks
forespørsler
##malt
psykos
##rell
##ature
anette
##illes
jung
installasjonen
palitelige
cons
##ni
##somradene
##jakke
##lagene
annenhver
teltet
lettet
henri
##administrasjon
eksplis
samarbeidsavtale
##ierne
treninger
hole
tilbyd
kad
##ograph
##sirk
##anje
##antikk
##egisteret
neida
knip
vestby
wien
##inken
##delsen
skylden
fastlegen
hong
##salen
manen
markering
1954
##myndigheten
gem
##ils
arbeidstakeren
ness
##bri
##sdyr
forsyning
pick
##terings
tolker
1953
arkivet
absolutte
likviditet
kompetansesenter
kriser
east
##bring
lørdagens
arnes
##ulf
saksliste
tvilling
##modeller
##voks
skjemaer
##spenger
brad
innfri
skyggen
1959
libya
konvert
clinton
240
milde
stabæk
ragnar
##roen
efter
betraktet
visninger
involvering
leting
voldsom
tilbød
##head
tradløs
geit
##logg
##barna
##sløftet
stallen
læringsutbytte
idylli
puster
##hockey
##kose
arts
jim
##sum
bifile
fikset
##sbedrift
seog
enger
hotels
##sforvaltning
##elskapet
søstrene
reaksjonene
hm
##elas
##jerte
banan
aldersgrupper
##iction
logget
##plassene
utsolgt
contact
arsjubile
flaten
borettslaget
imøtekommende
nkk
kyrkje
frel
britene
portefølje
facebooks
siktede
##urderinger
tsjekkia
avslutningen
tidssk
straffet
econom
askim
mindret
emilie
oppholdt
leppene
##chi
paføre
##utikker
sammensl
flerkultur
instruksjonene
datam
skipper
##arg
sexdating
kvit
forpliktende
naturmangfold
##smiljøer
##pub
stup
delmal
valgkomite
gjemt
ambassadør
##gjødsel
opptaket
heime
fyldig
##skolelærer
postene
##senhet
##kledde
nek
enz
##illatelse
klinikken
##cean
danset
hofte
vibeke
farvann
konstruksjonen
##lip
hasj
søren
ønskede
splitter
##ending
smap
sondre
tilsette
##marken
organiseres
konkurransegrunn
toppet
leksikon
##ego
hindret
tortur
##ulvet
##prosent
terskel
forsa
##stell
genu
##cho
brow
velfungerende
arbeidstakerne
distribuert
intenst
deks
##atta
##100
##ume
bukser
hareide
mugg
##kjærlighet
vang
##drø
utsett
trumps
1936
krager
gerd
vor
##alk
url
wales
##edek
omstrid
finansierings
##stjerne
##aus
sept
skrivebord
tøm
trøbbel
likestillings
fored
reformer
middelhavet
koret
reservere
medvirke
fryd
##firmaet
reformen
biog
fraværende
##hurt
hevdes
costa
pry
##look
tempel
ekspans
epler
tipset
##riser
##ulært
baret
eventyret
administrativt
seoghør
klatret
skjevheter
virginia
akseler
nummeret
muntlige
melodi
øde
##ordre
##sband
menns
luc
thea
##kalender
maske
arbeiderne
rollespill
raff
solned
regjeringa
gall
##mangel
provos
minib
skrivebordet
islamske
bunad
##smott
fars
landegrens
mah
pensjonister
##barne
##yle
websiden
kongressen
##stemmelse
forstod
beij
digg
inntre
snacks
bobil
bestilles
1955
##konkurranse
skjegg
flex
folkets
palestina
hete
kikket
##ovner
kjærlighetens
skatten
gebyrer
aksjoner
##ummere
betydnings
##smakt
tilpasninger
##buss
##planter
illustrerer
stemt
gartner
parap
##fd
betennelse
dataspill
fora
garasjen
telem
ører
merkevare
erklærte
##anden
joseph
##risten
alfa
soul
bøye
eksponer
vager
##espillet
venstresiden
##irektøren
krenk
mystiske
distribut
tispe
elitesingles
gest
scorer
restene
useri
ket
##38
spente
leietaker
##pi
nordlys
orde
mong
stans
racing
spontan
berolig
##xxx
##hospitalet
figurene
mangfoldig
##forbered
planomradet
##fav
##ront
daa
appetitt
gruve
jaja
1938
lue
knappe
vinnerne
skeps
forskningsprosjekt
fasit
##formasjonen
ekskluder
##sstøtte
lydspor
refleks
bild
tilfører
##snæringen
satsings
nib
two
toyota
søksmal
illeg
magaz
##apningen
parlamentet
natural
satellitt
saaa
spraklig
herred
varemerke
##avtrykk
tilrad
søknadene
anleggs
benk
tverrfaglige
valen
tilstrekkelige
handverks
fashion
##skampen
chall
gunstige
##sklær
naked
smooth
##øe
##66
cab
samfunnsvitenskap
lime
##bekken
milep
##hjelpen
##relatert
underleverandører
stereot
##iren
marc
malingene
hovedpersonen
morro
turk
##sjoner
hemmeligheter
##iles
church
avgrenset
definerte
oversen
##varene
##alget
##blant
forskjellsbehandling
paminnelse
notert
handverkere
ullensaker
##indik
##andeler
##strup
skjorter
karoline
rush
uover
##sfisk
##styres
kjøretur
nøk
viruset
vipps
amor
dominerer
##radrag
lukker
taktikk
superhost
bast
framtidig
helsesøster
chili
mb
distriktene
##hjert
analsex
rutinene
##etilbud
motiverende
overstiger
ventilasjons
##etthet
skillet
##engas
##aturer
sanntid
likel
##inett
nyfødte
tabu
finnmarks
##bevegelse
koordinere
##mekan
intelligent
menigheter
brukeropplevelse
##løses
entusiasme
egnede
borgerlige
##viken
kopper
gratu
##ydende
kve
##ер
##elia
stram
berøring
knuse
helger
gravde
grensa
kontinuitet
stafett
##skriftene
investerer
intensjonen
spesialiserte
spesifisert
bursdags
utveksle
uaksept
alfred
educ
aga
lenken
demokratiet
uttalelsen
republik
psykologiske
ærlige
kamerat
##pg
skamløs
maleri
snev
##savgiften
##roner
farvel
forklares
jøde
drikkevann
ammunisjon
##sadminist
panelet
bittel
##ны
forela
finish
investeringene
konsentrasjonen
##æter
##stret
juice
roper
semifinalen
polsk
østland
peters
##sendring
høykvalitet
brant
kommunikasjons
merknad
tretti
avst
##øpere
luk
mentor
##trener
strake
fulltid
mottakere
obligasjoner
kretser
trim
pølse
##smuse
roulette
spesialisering
damli
rimeligere
innkallingen
veik
arsmelding
fantasien
##47
pusset
interiøret
institute
shang
##sbedrifter
##hemmede
skiver
sale
##sias
##ituasjonen
tres
ynd
safe
face
##barnet
høgskoler
klasserom
feed
lungene
carlsen
aggressiv
isaksen
klassifisert
##ateriale
designe
##portalen
##mont
##edi
toten
ober
dev
momenter
underlaget
##riere
##inntak
ai
##psi
innvend
##bestilling
narkotik
##styrker
folkemusikk
##arning
##uleringen
##to
forbinder
oppdateringen
løyp
forhindrer
smerten
domene
##ydelig
riksrevisjonen
kvantit
humanitære
nøt
undertry
muslimsk
makter
forutsetningen
saa
malsetning
##ration
havnen
##avik
##pete
oppfylles
blid
kolleksjonen
ungar
bestanden
##ogene
keep
bakte
vidunder
rau
1850
365
søknadsfrist
ekk
frigjøring
niss
duket
leilighetene
mareritt
eger
##uma
##bind
banket
odel
utru
terskelen
block
skolegang
lex
bjørne
selgere
soldat
check
never
##prosesser
frar
militæret
##sbak
introdusere
kk
døtre
##følging
herman
fornærmede
mikk
##maten
margrethe
avbrutt
##blader
fosterhjem
##lestad
begrensning
sunnmøre
pumper
skaret
fremheve
##reisen
hviler
##ssektoren
frøken
hvaler
##estasjon
##formene
garderoben
##ilding
kontingent
##samen
folkeav
##ismens
eksotiske
low
##bergs
borgen
flyplasser
botan
betraktes
##ifisering
uendret
vamp
apart
##55
##leggingen
##amera
evige
gross
mais
frustrert
sponset
##villig
yrket
##geland
1912
gjemme
sveitsiske
##ни
avsp
ordbok
kallen
oliv
dagsavisen
##rukne
tina
##appen
tvinger
appels
gjentas
##kjemp
lillesøster
avgiften
etnisitet
kvam
special
naboene
##bell
noah
##odokse
kjeden
forelder
##holdelse
##skt
##otere
lekte
greia
overskrifter
tannlegen
##ray
##lerud
hardd
innebygd
##air
inkluderte
brytes
aksjekapital
ambisiøse
##radio
##staden
tetthet
iblant
##iktig
spredte
anstreng
bie
fengselet
beijing
##øyting
nederlandske
lata
krigs
stempel
##filter
appla
ruud
sensur
inntaket
pike
diagnoser
dt
seile
hier
kunngjøring
markedsføre
gresset
dapen
##verter
misn
force
festes
##eda
chatter
utviklingsland
coun
sjafører
bestemmes
kjedelige
##skunst
anime
fatter
amerikanerne
double
##lender
apparater
##pakken
skumle
shell
fiende
amerikanere
##vakten
hentai
##stemann
##rimert
##ttid
orket
slav
##smodell
energim
allmennheten
##rs
omlegging
kronikk
##fartøy
grafiske
harddisk
asss
fitt
##retting
filene
oppdages
##skaffe
tusener
grunerløkka
blackj
##runnlag
lamper
ue
utby
statene
fastsla
hovedstyret
resultere
panor
ake
helsefremmende
begrenses
##stype
##hend
forlov
##idas
##asso
##snø
stekt
drinker
tradløst
gjerdet
hist
##punktene
markant
##spartiene
kompetanseheving
tegneserier
fratse
ferden
##institusjonene
sammenf
utenriksdepartementet
nice
bab
sissel
101
nerves
frelses
rekreasjon
##cin
##arealet
diskret
elevens
utbredelse
##spoeng
##edin
##veld
erfare
kompetent
##elovens
##praksis
##transport
dark
##ituasjon
##støtt
technology
##ryl
lukk
nederlag
barbering
stanser
overholde
utvalgt
1865
etterlatte
kartleggingen
assosiasjoner
givende
##slund
nevrolog
sosialhjelp
kevin
kloke
aus
##pus
erfaren
##hjelps
frokosten
##sinformasjon
performance
tl
samhandle
##ebyra
rammeverk
##splanlegg
voldelige
mika
##røy
høstet
pausen
##finger
guy
misfornøyd
humøret
hugo
seere
realisert
bikini
fles
oppveksten
letter
ppt
intervj
utsteder
fagbrev
spilleautomat
nidaros
bacon
forbeholdt
vike
enkeltvedtak
##ctions
eliminere
toppløs
guardi
fauske
bomb
dominert
rbk
##format
fotballen
##feldt
published
ketil
##rengende
its
alger
##havere
streaming
##retsen
##greg
stange
ubegrens
##foretaket
uføret
##givers
##uu
##kjole
aldersgrense
artisten
rasmussen
kognitiv
arsregnskap
lysb
forvirret
##ege
##lab
ledninger
meldingene
tidlegare
##osene
##stemningen
##øtter
lanek
sonen
vaskes
partikler
##ingsmuligheter
kennel
##hh
russlands
organisatoriske
uunn
spur
lyttet
symbolet
pratet
##ynam
forstyrrelser
##sboliger
##delag
spesialpedagog
##leren
prestere
##pasi
naust
presist
##kapasitet
fortjeneste
testosteron
##ро
thaimassasje
##fro
ayl
##lært
organiske
bagasjen
series
portalen
barner
fs
tyveri
melhus
innkalles
voll
utendør
wol
##fossen
blackjack
##erklæring
baseres
voldsomme
statnett
kalv
1911
ride
tunet
##sforum
##prise
utmatt
reservert
rettssaken
utvel
innehaver
andreassen
barbere
grunnlegger
kretsen
juks
mercedes
##day
quality
ear
##øsninger
gullet
genetiske
analysene
sovjetiske
sviktet
torger
volden
##pynt
parkeringsplasser
hack
vinen
ergonom
landsdekkende
kompensere
##istre
##aterer
overfør
##sstruktur
##eløse
skjem
##orth
kristendom
##væp
oppsl
handbok
rotter
##dommene
erke
beck
##obil
stek
syne
##enda
overraskelser
sengetøy
investor
innfall
feder
ufrivil
##ipt
etterforsker
identisk
revolusjoner
hegg
henn
##arth
1870
##strakte
##alisert
ekspertise
logoen
skedsmo
snøsco
##yy
##infarkt
vektlagt
registreringen
handicap
hipp
za
utvidelsen
##linjer
spennings
sakkyndige
skøyter
forbren
ordner
spesialundervisning
russerne
ufattelig
##prof
plasserte
##fylling
##serende
##tekster
spektakulære
##hum
##invester
mane
##gjerd
nordstrand
fjeld
kirsten
plakater
##eglene
fremhever
vett
##ppes
oversette
synlighet
ubru
produktiv
morgendagens
ritt
nøyaktighet
bød
##steori
##stransport
uforgle
aleksander
stiftelse
bjørns
droppe
biff
##kostninger
oppløst
rekkefølgen
2500
paraply
forskningset
spasert
ettertrakt
usynlig
##oppsett
##høye
influensa
deigen
lukten
aktivert
##utfordringer
nasjonen
##hud
kollektive
##hest
nost
mp3
transportsentre
signere
pint
scient
næringsvirksomhet
twe
##orps
inventar
##region
##skrive
veron
ferge
lovene
alfabet
smule
opplevelses
utformes
##imentet
marina
uttrykte
push
kus
##cen
etaten
sjøfart
akseptabelt
##oksen
menneskeheten
insister
turnus
sjeler
manøv
netthandel
##skolens
ltd
nederste
oppholde
##lopp
politif
grøt
søndager
gjeninn
slaver
##sbevis
gon
##kjen
helter
popular
##passet
blabær
##adene
antioksid
skans
ferskvann
##fortjent
makro
ade
born
##elid
snik
1860
skisse
historikk
inhabil
resultert
bedret
##brann
utløst
##sche
preste
roligere
klatring
realesc
##hatt
##cellene
herm
##ommelige
108
brutalt
jem
story
##skillig
##fund
factor
rope
aggreg
ernærings
##alin
##yrket
vandret
##arkitekt
krak
##gutt
gjennomfør
demonstrasjoner
sri
##ondet
monopol
##kontrollen
families
anbefalingene
forful
##ades
volda
##nia
##master
##fem
##elinjen
ettersyn
statsbygg
bangkok
oppstand
igle
##lyd
##sving
biologi
##basis
regime
kw
sauer
##sforsikring
fox
virtuelle
velded
glatte
betalingsm
bron
##støtten
rattet
##igner
##fabrikken
medisinen
matproduksjon
metabol
takler
glitter
peders
hjemland
transpar
malerier
maje
puppene
hosp
titte
arctic
blandingen
plikten
ferdsel
cow
##rika
##pakker
sveriges
samband
bosatte
tastaturet
dubl
balansere
velsig
mygg
iris
sjokker
cher
harmoni
please
etterkommere
##samarbeidet
etterlater
veilederen
##regnet
varanger
interessenter
##77
tolket
##forskjeller
ridder
etterspurt
radgivende
meks
lansere
jev
##48
forskningsrad
##iprodu
menstruasjon
tilbakebet
kulturelt
cloud
peru
##iety
##høyden
forsamling
skro
##sdager
##dratt
visuelt
##tech
##ktert
opprettholdt
barneverntjenesten
##lukt
sinnet
##skreft
stop
nøytr
djev
##bang
##fradrag
kwh
pse
##string
blokkere
frøya
overlevelse
##fangst
tarene
##ekompetanse
oppsummerer
##sparken
duoen
size
##ebu
##jenest
##sfordeling
utarbeider
trykkende
pusle
rehabiliter
##jefen
##kkelse
##statning
##ebygging
varens
alm
unorm
informerer
##satsen
erklæringen
bakfra
woman
##dater
##dagene
kveldene
##ssituasjoner
pli
smell
sportslige
objektiv
fotografere
noter
##dog
spam
##brua
boligmarkedet
finanstilsynet
place
slanger
romslig
strever
account
paradis
##priorit
##fellesskap
ht
##dokumenter
arbeidsoppgavene
##sfasen
bekjentskap
jager
##uken
annonserte
skuespill
stigning
##budsjettet
arstid
mynter
visjoner
statssekretær
vinyl
coc
ekspertene
fronter
avvisning
redskaper
minoriteter
##esett
indikatorer
german
bayer
popp
utbetalinger
rumpe
empati
##eledere
##ovic
avtales
informerte
endrede
hjemmelag
##entusia
fastslar
##sdy
urbane
tilbringer
erfart
##lyste
besteforeldre
##freds
sudan
##steam
partners
tic
reson
fjes
1801
nintendo
eksemplene
skipene
##øret
skjerf
##intens
##kjøttet
which
dekkene
overføringer
blanke
rusmis
straffeloven
lampe
maksimum
begivenheter
##hil
milano
aksjonær
kja
hindu
myhre
blogget
##ykdom
dreper
publiserer
tiltrukket
tai
##radisjoner
kokt
booket
inspirerer
core
fold
blø
skjønnheten
##korps
skremt
been
##ibos
avvikle
##stjenestene
snittet
simpelt
forsiktige
metaller
pameldings
helgens
serverings
spises
smalt
##ield
smas
fritidsaktiviteter
effektivisering
break
dybden
##ams
##ylor
fish
1951
morsommere
planeten
##lines
foredragsholder
stasjonene
skiene
##rettigheter
##marker
talsmann
kommersielt
malgrupper
tredjeplass
uvis
airport
gim
lød
rate
cock
mottakeren
morges
##ettigede
implementert
mystisk
bokmerk
kirka
rend
helhetlige
##yter
skandinavisk
belønnet
fylkesmannens
##temperatur
forson
##boe
british
griper
befrukt
planleggings
flyktningene
merkene
##garanti
animasjon
rytme
tropp
porter
##olet
elsk
brunt
outlook
thro
konkludere
papirer
feiringen
bearbeide
sebastian
minske
nettlesere
malsettinger
##fyrt
lyt
praktisere
overraske
fosse
wat
slot
lokalisering
tony
##stallet
##stokken
sare
orion
container
negler
lillebror
kjøkk
døv
##sstyret
##itivt
tving
##iktet
stokk
nigeria
kapell
innholdsfortegnelse
tidsskrifter
rul
regninger
systems
reperto
kvern
##hab
##ет
automatiske
1933
##sikre
williams
jordens
privatliv
1916
##grip
##ursen
prer
greg
trangt
utskifting
slim
dykke
belastningen
repetisjon
penet
generasjons
##mappe
tømme
reserved
byggherre
irene
nv
##utions
manedlig
vanilje
tilbydere
tiaret
##omot
sei
##ledelsen
farmen
##lien
layo
##debatt
erverv
##reserv
mango
albu
oslofjorden
sirkulasjon
dim
knærne
referert
1907
korrigert
teleg
##ки
draper
avtalte
##forbundets
pagatt
##smodellen
oecd
innlever
oppfatte
toalettet
##geb
hoder
kragerø
##sterk
finanskrisen
motstanden
øyek
java
sluttbruker
##spent
likeverdig
##gjennomsnittet
jackson
##icle
sut
##passende
synspunkt
anerkjenne
##veiled
zen
##asjene
##perspektiv
aser
hent
drifte
##ederlag
katrine
rasende
agendaen
medikamenter
##alerne
##onderer
lagkamer
##utgaven
fattes
verdenskj
boliglan
profitt
minnene
##ree
husmann
oppfølgings
tredjedel
innskren
##vild
##samtale
turt
##sbasis
##ка
rena
trio
rf
undersøkelses
review
innklagede
##lage
utdanningsinstitusjoner
##31
tilsetting
##beredskap
passform
kommentert
brakte
poesi
karakteristiske
konferans
also
bankens
fifa
nygard
datainn
sight
##eledelse
pon
smykke
babyer
volumet
setet
osm
wel
grunne
innledningsvis
australske
##alam
eil
##gers
bakk
daler
skryt
##erest
oppføringer
workshops
løperen
respon
boligkjøp
truse
по
skreddersydd
##wich
verkstedet
svømmeb
overvann
medvirkende
tilværelsen
greid
parkere
##foreningens
permalen
##yler
##ль
posen
sikrings
##sbeveg
moms
central
rag
##cl
slenge
uformelle
svinge
1924
135
merkelige
1928
fremmes
auf
tertial
safari
hersker
bris
baderom
association
departem
formulert
pilegrim
misunn
vibrasjon
separasjon
tub
linux
bonder
kastes
batteriene
map
##gges
arbeidsledighet
programm
ishockey
konstitusjon
sjokkert
hes
ov
trofast
reglement
høste
ulikheter
upassende
##forretning
veis
##renge
mode
##støv
avinor
metro
stale
##sfulle
kurd
kostbar
sending
koreanske
##rose
##skinen
innhenting
##eser
alan
##iano
skuespillerne
somalia
##blast
utsalg
##mnda
##selgeren
korset
passordet
aggressive
##psyk
##horn
forbrenning
galleriet
##itre
tiende
fornøyelse
##orf
eke
##seng
fleksibelt
##idepartementet
reness
asylsøker
dick
arsskiftet
søndagens
plastikk
grensesnitt
kay
arktiske
kirurgisk
oppga
appene
tegl
innvandrings
wur
tillagt
næromradet
##ops
vertskap
multip
chile
riksvei
heav
forbindelsen
korrespond
keramikk
pel
herved
malay
baneb
##ower
##forand
betjening
rikdom
beate
jostein
østlige
bølgen
insent
handlingene
komiteens
##ches
1915
unødvendige
##inas
hygge
trinnene
diamant
borgerlig
elendig
effektiviteten
112
fredagen
databaser
tynnere
overnatte
trium
##fanget
etterfor
##svenn
arbeidsmiljøet
nifs
beviser
plac
orange
velstand
##grammene
##lesing
##flater
boller
##belastning
##holdning
opplyses
varianten
##fisket
##fester
##udder
tidens
veske
korrid
forberedelsene
heb
avslør
risør
stillingene
niels
offeret
odin
radikale
søre
magi
mw
##ilj
rykke
stortingsrepresentant
delstaten
nedrykk
##feksjoner
stamme
varmek
sosialdemokrat
sorgen
watt
allment
kroken
avslatt
skifer
explorer
midd
dosering
##pengene
##alsk
beta
mastercard
##deig
kritisere
pensjonsk
nettavis
arkeologiske
foregatt
motiverte
henvist
permalenken
##erfaring
lekene
riksantik
hjerteinfarkt
oppdrettslaks
ingebrigtsen
nøl
##pson
giftige
børge
høv
anno
resolusjon
edel
helheten
tilbrakt
effektivisere
løypene
framgar
forskeren
emosjonell
uformell
konspirasjon
setningen
aksjonærer
##ities
rytm
hormoner
ranet
##edre
avver
daten
hate
##yon
bakker
formues
##produkt
nesodden
enslig
fotografen
etat
##musk
1929
xn
##oker
suppe
mages
departement
undervann
##ysse
graven
nyttarsaften
forvirring
utmark
##kete
volds
##produsent
leies
lengder
clar
svakhet
francisco
køy
##steinen
##spir
sarah
shanghai
##univers
kraftigere
statsborg
##rein
poste
forsøkene
folkens
ungt
arbeidsutvalget
responsen
utdanningsdirektoratet
vestland
aggresjon
western
instruks
nostalg
##ught
sandra
nokut
price
triste
ordtak
kritiker
quick
##sjefen
p3
##cat
pack
friksjon
verker
propor
##edene
avføring
##smy
statist
identifiserer
begeistring
##elius
meddel
forelesninger
billedkunst
dekar
krises
seinare
ramp
avstander
rikere
##ides
##valu
startes
104
mam
løperne
synke
elegante
##stasjonene
skv
centre
sadan
omgjort
1935
pioner
##itert
turisme
erfarer
størrelses
##elsesp
kunnskapsløftet
funksjonsned
##rustning
sjans
##okal
bidragsyter
verge
akkum
østers
provo
ante
hio
kyn
doblet
virkedager
frelst
palegge
rekrutterings
næss
slem
ern
sommar
##stillegg
bened
##skamper
storebror
gammeldags
cape
selvfølelse
nordmannen
##ysen
klor
##hamar
##strategier
kalla
mastur
##main
innsjøen
##odor
morsmal
selvang
handtak
inflasjon
utlevert
ose
nevneverdig
pakrevd
grunnvann
haukeland
solar
fosfor
partileder
##had
##holdige
##sglede
corpor
miljør
flekke
mobiltelefonen
fremlagt
usikkerheten
pseud
østen
kanalene
avvikles
skiftende
isak
##sølv
nytter
small
hamsun
##bokser
pubert
##rær
nettbaserte
forside
##sbrevet
consult
eliz
argumentere
vedtaks
arbeidsgiveren
imponerte
rights
tangen
##gam
overlevert
ther
##formet
##alternativer
nf
##utviklere
kosmetikk
hukommelse
usannsynlig
pave
maur
gahr
læreplanen
kjøretøyer
silver
##sekken
pekt
lide
sev
konsist
gif
førti
forespørselen
psykologer
clean
tippelig
lj
trusselen
phd
##utred
hauger
awards
sørum
##lim
##sykt
anfall
innspilling
buy
verdighet
spesialenheten
innsett
##vaks
psykop
døve
##ibosome
preribosome
hotellkjeder
moderate
##røret
##kapitalen
frustrerende
fost
fotballspiller
feilene
kameraer
tillatelser
##oppdrett
opin
##letter
sjeldnere
innvandrerbakgrunn
##konkurransen
##bye
reviderte
handled
tonje
kafeen
civ
##team
hay
##ainment
drukket
dort
steinen
avgitt
høyreklikk
##esektoren
garantier
pix
valley
pirat
oversvø
rebe
namnet
terrassen
kløe
##ique
reaksjonen
very
særpreg
anmelder
stevner
##nov
tolk
ubehagelige
##sjob
vendt
nig
##fys
utpekt
flyene
hovedkvar
krevd
bursdagen
geografi
bonderom
steam
satan
spedbarn
velkomne
formatet
konsepter
##feiring
svin
##isem
inspirerte
forretninger
diskuterte
utøvelse
iglesias
lien
skuldre
genseren
##ledende
eksplisitt
aylar
klokkes
paføres
rade
mora
sommerferie
hverdager
identifikasjon
varmer
seiler
skjærer
comeb
##kritikk
##unktur
moses
korrigere
innredet
##forsik
amanda
droppet
1921
votering
disponerer
utsk
arbeidsinn
ruta
klemmer
##konse
##sbo
tuber
police
henviser
koblingene
seilte
##emod
medlemskapet
sletting
kirkelige
kongelig
sovet
regningen
naturvern
dyrev
anerkjenner
##brevet
##hetens
elle
dennis
kaldere
konfron
angrepene
pyramid
søkelyset
reklamasjon
overbevisende
samboeren
gjennomgangen
skoleeier
##mødre
##edrift
change
tomte
brannvesen
forund
tryl
kommunist
valle
lg
##lytt
arist
1937
blomstrer
##egangen
##delene
journ
##elk
pagang
living
fullstendige
ødela
stimulering
yoghurt
##forløpet
gravlagt
zero
##emper
overensstemmelse
##arme
dramatikk
oppfølgeren
##innlegget
firm
munchen
avviste
gjennomtenkt
innan
johaug
omsorgstjenester
elias
##sbakgrunn
fotografert
beredskaps
helsetilsyn
##alli
glir
foreliggende
##nettverk
hadeland
##pulver
sletter
rensing
restitusjon
gummi
##merking
unntaks
lydighet
rører
lymf
utdanningsprogram
##etilsynet
kullet
##mengden
sekk
eksepsjon
tokyo
##gud
etg
##senheten
follow
ektepar
lading
herregud
hørsels
ukentlige
##ision
helsestasjon
løpetid
dokumenterer
##iers
tilpassede
nettbasert
##diagn
ærlighet
støttespillere
sperret
helsetilsynet
bokstavene
felling
##vakter
avlyst
frisp
sjelevenn
kutter
okse
kome
epidem
##strom
##sregn
##krefter
rating
##eldinger
lh
##mengde
tilførsel
brøk
bolle
taylor
family
sommerens
homoseks
##war
forbig
1923
strong
sanit
oppsettet
torstein
datag
kultu
##seminar
##utviklet
bedrifts
sykefraværet
##ril
membran
kringkast
##rekord
ulven
bading
bringebær
nødhjelp
levealder
sakkyndig
##spres
havbruks
crist
lego
##sbesøk
metodikk
ift
##blene
omstendighetene
##gl
##apar
fødte
ryan
kommentaren
##ladet
oppgitte
arven
infilt
midtre
##sforskjeller
skysc
konvensjonelle
##stral
beretning
handelshøyskolen
esa
##ivere
parten
minimalt
1908
kjerring
angrerett
entert
fienden
kiwi
oppskriftene
egersund
##anel
boss
skim
##bestanden
tool
step
ressursbruk
originalen
cav
##agner
##amo
##klasser
##oping
kasse
##verne
##president
vitnemal
særegne
trommer
akter
representantene
hyppige
##spinn
##ebet
supportere
##svide
louise
##imb
malta
personbiler
kristelig
nerd
medan
##vingen
sammensetningen
fysioterapeut
tillitsvalgt
ie
##bland
##slutt
kontrollutvalgets
lotto
##bir
##meldte
restaurering
##less
210
uniform
forbedres
##indeks
##lyset
##miljøer
rustfritt
gynek
volleyball
##stads
komiteer
dos
lyde
andeler
testes
fresh
##rele
konfront
solskinn
marthe
anslar
sluttspillet
uforut
gymna
oppreis
1906
synnøve
statsborgere
oster
ath
bearbeidet
malin
##stoffene
ocean
##ransa
kanseller
syltetøy
##elekt
mandel
googles
##stim
##edagene
estimert
smidig
fastsettelse
bevegelsene
knappene
ødeleggende
aaa
##seeing
##bestemt
##stes
##kins
trek
pornos
høyresiden
connect
amme
inngrepet
solli
tillatelsen
##stock
arbeidstiden
svikter
drastisk
voldelig
aksjem
putte
##byer
samfunnsøkonomisk
drit
østover
manedlige
pall
farges
dek
prosje
trappen
skulderen
belastet
fagmiljøer
fornebu
estetikk
elizabeth
##unk
##anska
ansikts
ds
kink
##atferd
##sender
vertik
pinse
##overy
universal
128
sims
1922
underskrift
amig
deep
computer
##anet
studiekompetanse
mislighold
##agende
ferdigstill
##helg
##slas
vennen
thon
##berry
pornstar
##studie
##høgskole
##hald
arom
##akim
gjenv
eksakt
etterfølger
##historiske
dynamiske
urolig
##denes
forventede
promille
fc
jakobsen
erkjenne
flashback
salong
1925
diagnostikk
##øpte
søstre
##drevet
moduler
##eringen
##skript
utgiver
eggene
tykkere
oversettelsen
##95
støttende
innkrev
##smateriale
##pasienter
budsjettert
##søkning
hope
lekkasje
##skvelden
hmm
knuller
varsles
award
beord
stygt
trade
foretok
spesifikasjon
beskyttelses
give
tenne
1902
mappe
bestikk
ondskap
##ingelsene
stefan
intervjuene
erkjennelse
##uster
kloden
arbeidsgivers
lisbet
kjel
modig
informasjonskapslene
##synlige
meningsmal
kjipt
kystverket
balkong
##ilskudd
forfri
anavn
##sbanen
mario
eter
corner
javas
uteb
##regnskap
fjellt
1904
##stillende
##jobben
redigert
mettet
##rerne
##iing
fratatt
romjul
røst
kuler
##usene
sher
skyscanner
talmodig
kind
nominasjon
overenskom
##ferdighet
mosjøen
incl
vulk
##rager
paber
steril
ping
##roprakt
førstpris
##sforstyr
skyve
##hardt
kols
uenige
dil
varmet
slimh
apris
plasseringer
materialene
likesa
anklager
security
tonen
##gy
kapte
nhat
address
negl
veiledningen
##ressa
klepp
##støtende
fettsyrer
days
signerte
søn
##ettverk
summ
hovedar
palace
1927
uskyldig
spres
betjen
##sporten
border
standardbest
multim
sortert
husholdninger
##gaten
filmp
førstdato
konkurranseut
porsjoner
snøscooter
sadd
106
linser
sinnsykt
##selgerenavn
standardbestselgerenavn
##hf
##sforsøk
ideologi
balanser
future
gele
muren
##isset
fd
prøving
tretthet
##medlem
betre
samarbeidsprosjekt
sporing
elementet
inntekten
sjør
tillegges
hilsener
unngatt
allianse
eksponert
##emann
bifil
voksnes
##skrivning
napole
##merkninger
arbeiderpartiets
dej
gent
backup
click
tilgivelse
skib
atv
syden
##urist
joker
jakter
sydney
utfol
kosten
##sstaten
##student
##camp
kjærlighets
anonymt
##sforbundet
vannd
tidligst
##bølge
kvalt
herlighet
1898
estetisk
xxl
fangen
matematiske
vesker
grener
holmestrand
forsket
konsultasjon
##oslav
rollene
henvende
guri
skeptiske
pictures
skinne
hvete
seher
hyster
linkedin
##iful
verdifullt
anmodning
adren
##sevnen
ingvild
skeive
167
ebay
psykosos
samer
##ici
evighet
##scorer
102
besøksadresse
spilling
mistenkelig
luksuri
##kandidat
utne
nedentil
prater
kjempek
plukker
originalt
ypperste
forsavidt
aldeles
sluttrapport
##sfelt
beboer
surt
utførelsen
propaganda
sprut
molekyl
##idd
##amente
drømm
bukse
storfe
bakkene
askøy
samla
##manns
hockey
##hamn
lol
kantene
unødig
##usener
løsne
platene
flytta
sertifikat
jordskjelv
fabrikker
arbeidsdag
flau
dialekt
historielag
##plassert
terminal
##sele
skrittet
##ssykl
dver
godtgjør
ips
##odes
canaria
høydepunktene
##streken
skuffelse
likeverdige
sannelig
##kapp
##foreningene
weekend
orkdal
tut
##ental
##otekn
nemnd
bjørke
gulrot
uendelige
forske
##finale
##ants
hensiktsmessige
kapitler
salten
pulsen
hyttene
##økonomien
##endere
filmens
##stiftelsen
forsikret
sluk
offensiv
spesialiserer
farens
product
pastor
ekspansjon
javascript
hale
pornografisk
lokalitet
utelukke
kollap
overvektige
libanon
flekkefjord
siem
notatet
utredninger
##utdanninger
slur
landsgjennomsnittet
namn
dublin
guess
kiroprakt
spredd
skuddet
majoriteten
tits
##ит
##sfoto
vanskeligste
nyhetsbyraet
sesongene
innlemmet
hpv
høydepunkter
vestover
shorts
skepsis
##stillingene
radiost
tare
leide
scra
presses
avviker
illustrere
sushi
banebryt
skuffer
iført
betegnelse
jug
pakk
##andy
##utsig
graviditeten
##indeksen
klaus
gjert
dødelighet
##merkene
skyldtes
##studium
konvertere
board
foreldrem
børsn
sylvi
scandinav
likeledes
##lers
muff
exp
kunngjort
flokken
knippe
terningkast
wit
hive
##etips
##skyl
stripper
##sentralen
a4
vall
##stema
operatører
klassifisering
fagomradet
kommando
bede
styringen
drømmene
##acy
nordea
development
taks
##alleri
kneet
1875
hyttet
scandic
hovedoppgave
kognitive
##ringene
biogass
##skrem
klinikker
##informasjonen
helseproblemer
tykt
søkelys
amalie
##sone
bevæp
lesning
mh
##pil
##viks
polish
allsid
##sfeng
forhøyet
##modig
vitser
##sutfordr
mira
etiopia
tomter
forurenset
pinlig
sammenlikne
##instrumenter
simonsen
##hjør
tilbakebetaling
videreformid
##lovakia
##rium
klages
ensidig
vinkler
stay
fanen
formene
henrettet
function
presiserer
grundere
nore
magasiner
skjenkebevil
duken
##aringer
ensemb
##sgard
handtert
karls
strek
hawa
sjøk
cool
strømme
grillen
kaffeb
vlad
avdrag
springer
karb
julia
mjøl
slots
fullfører
jeff
middelaldrende
jakken
##sfly
##ørrelse
##runder
landsom
besatt
kortsiktig
jules
trappe
interaktive
nesa
tynset
misforstaelser
opparbeid
intime
##snytt
havar
bemerk
learning
radar
##strinnet
olivenolje
##san
##esta
laner
champagne
framme
##ittelse
##oken
respekterer
æres
##søket
stillings
##ssing
abd
##cca
##styrte
idrettens
pute
think
demonstrere
ubegrenset
##vas
nabok
##aktivt
bonusen
##strukturen
lekse
fjernvarme
ay
##ged
lektor
utbygger
rita
##wart
kvoter
##cal
##velt
skoger
fyrste
education
kirkelig
lavkar
seriem
##stillat
sært
masasje
##seksjonen
##angt
spørsmalstegn
joakim
overlatt
velt
##esse
gjenn
psykiatrisk
veksler
##gripende
panser
##kun
spyd
krigens
energibruk
sametinget
emer
sild
bomber
reporter
550
##øen
beregningene
likheter
homse
kongo
##sutvalg
emig
edge
laboratoriet
##oca
##raftt
moz
##materialet
##sstudier
##kjert
stengte
##forskningsinstituttet
hl
tørk
diare
markedene
teatret
lønnsomme
##sprang
kent
utek
##nete
##gesen
##rurgi
1934
##sendelse
tilnærminger
stemm
##faringer
byggen
116
drømt
koal
rotete
arhundrer
##sfunksjoner
banebrytende
klum
##byrd
sanse
arenes
barneskole
sagene
bevilgninger
essensielle
##øket
mala
elektrom
650
m²
scenekunst
grammatikk
religiøst
inga
##lyse
baser
fallet
rødvin
betrakte
palegger
prøy
brukeropplevelsen
isf
tord
talen
##istik
frida
skogs
trossamfunn
##riller
martha
ufull
klienten
carol
##skjære
118
1909
agency
##sbehov
atlet
vaksiner
formater
knuste
inspirasjonen
kontinentet
gjenskape
alles
talls
truser
verksteder
tommel
smag
handlingsplanen
philips
##sykehus
##porteføl
forkjøp
##modus
argumentasjon
pinner
wolf
andresen
template
magic
##edelse
jubel
prege
indikasjoner
##sbudsjettet
##abu
stadige
strøket
##veiende
apparat
##usset
langdist
fullmakter
berettiget
beatles
lepper
solutions
gulrø
##hverdagen
magazine
bølgene
every
inderlig
##utninger
##lesning
avdelingsleder
otta
bondevik
varamedlem
laila
##portal
parkert
ureal
##veisin
matene
trykt
##vinnings
##espesial
glit
smeltet
##pliktig
phone
hijab
gerhard
##avisa
vedtekt
lyngdal
ytes
##kol
fagbladet
##right
maltidet
jurist
uttelling
fosen
sugar
brensel
##hode
reproduksjon
fotos
##ferdige
skyer
bearbeiding
##bjel
bespar
##bildene
komponist
egenandel
førstkommende
##svold
renset
dagblad
havs
ago
##isiko
155
rydding
skate
vitenskapen
halvannen
1926
bevilling
pastandene
##elaterte
##slu
utelatt
brasilianske
retorikk
utprøving
square
##front
hansker
totten
##fekt
##beskrivelser
samfunnskunnskap
skikkelige
forveks
kloakk
##panelet
pakjørt
utgir
kontak
adopt
trinnet
paprika
nudist
##søkende
pameldte
mikkel
##rammen
unni
misbru
brutale
aasen
utøves
postadressen
barneskolen
sakarkiv
neb
desentral
kollektivtransport
##nasjon
##bag
nedfelt
##ubben
delegasjon
datingtjenester
##ref
barbert
studium
##parad
sekundær
##semp
anført
jakker
uforutsig
spørs
##resser
tragisk
planla
konsistens
arrangørene
arrangementene
regelmessige
forsikringer
ørn
sameiet
##ат
avbildet
##rock
kathrine
assosiert
##type
overlegen
retting
julebord
mislykket
finansieringen
##skyting
allah
energiforbruk
skaffer
##inden
##utstillingen
tilknyttede
arhundret
##forvaltningen
##hub
likeverd
konkurrent
firkant
vg3
classic
utviklingshemmede
jakte
restaurert
bund
##klund
##smalene
avling
bjørnar
gut
##sur
##akultur
##smarked
startsiden
##rydding
##pis
utfra
##ennelser
gavene
##sselskapene
administrator
##aljer
viktor
##mannet
truende
skiftes
ekeberg
pern
skrifter
sout
valpen
striper
abonnem
cred
stelle
##unci
##sfamil
aktivitets
binding
##edo
##bygge
ow
hvet
rekonstru
mile
varaordfører
##tene
teologi
repli
sement
vaksinasjon
nøytrale
##inf
seiko
##tjeneste
klimaendringene
brav
pink
##næs
attraksjon
##sommer
korpset
nyfødt
konsentrasjoner
argumenterer
høflig
##veen
torgeir
eksplos
helsemessige
skildrer
iranske
anmeldelsen
##skrevne
sosialistisk
lorent
fana
kitt
laksen
aminos
dokumenterte
namdal
##ettelse
porto
kvikksølv
ufrivillig
etterkrig
##objekt
##sbeg
##monopol
utsetter
brukergrens
mestrer
gruppens
holding
##ntb
mjøsa
svig
smelter
107
##ringet
solcelle
nisje
rettshjelp
lerret
døy
bandene
##egorier
##ennitet
vilde
##kjøkken
statistiske
helsing
ignorere
dm
##rey
vips
##aper
jobbing
##pakka
appell
lavpris
prognoser
uvanlige
##leik
##andaen
##fagene
avfallet
pistol
##nyttelse
##rammer
avhandlingen
##sites
overvinne
eksisterte
torden
arthur
arenaen
walk
##aften
nyten
nytten
bøter
applikasjonen
tottenham
treningssenter
oljeprisen
færreste
kjøpesummen
ydmy
##bevegelser
photoshop
##varing
lean
raus
heat
tarmen
##kommelig
bokhyl
kinn
##stips
##ortene
##søking
belyst
jonat
innarbeidet
slange
drink
sjekkliste
##sfrihet
kyrkja
##kteskap
##ytende
indeksen
##beskrivelsen
arktis
##ommunikasjon
landsomfattende
seniorer
slakter
gullsmed
moon
perfect
##egjeld
østens
rover
hundret
##feltene
svømmebasseng
blødning
##ymp
##rakk
kortsiktige
на
##ui
guvern
##sklasser
utdanninger
befri
træ
sexdate
##lærere
skyss
##senheter
enkeltperson
##kontroller
##saktører
skrav
111
##sfart
##skonferansen
boston
banner
trofaste
fastlandet
fremstille
admin
##ardo
prognose
tveit
strapon
galax
avsnittet
behagelige
©ntb
alliansen
wang
##uly
stressende
dash
ribbe
##egruppa
tyrkisk
snork
husbanken
##halvaret
gryte
vii
anelse
tillegget
##arka
asane
whisk
perspektivet
dell
presisere
##izen
nordmennene
fjerd
field
beskjedne
tittet
##heia
huff
tønn
stemplet
##etab
dates
kjeft
mnok
injeksjon
avlastning
klubbhuset
kasinoer
mager
##creen
sluttspill
appeller
##utstyret
##vision
gardene
##produsenten
drøfting
##ukter
##barheten
epile
##oterapi
##hara
##hvit
today
newcast
sperre
iløpet
mons
money
samuel
109
formidles
##medalje
ryttere
##lerne
økonomist
hamas
och
##vor
fredriksen
kunnskapsrike
uttrykkelig
autorit
##sstraff
annonsere
ytringsfriheten
##any
førere
diagra
mykere
miljøene
styremøter
jod
area
utilgjengelig
kassen
talk
due
kjeks
portugis
brukervennlige
rant
finst
perfeksjon
rakett
vokalist
##graden
hild
##forbindelse
gaus
løslatt
hendelses
tendenser
aldersgruppe
##sikkerheten
trem
##platen
assister
##mil
##amfunn
##ylt
advokaten
kinas
forskriftens
georgia
##heit
fagomrade
enhetlig
justisdepartementet
##otering
##safe
nedbryt
tomater
mistenkte
etappen
avb
mappen
mangle
##ssykehuset
##kos
klut
##perter
creamp
tariffavtale
blit
impulser
birkeland
benke
formiddagen
rutene
veidekke
##sking
##kalle
hovedmalet
marokko
##aterialet
kripos
radyr
##sgraden
ombud
comments
reisefølge
mislykkes
##fore
halvannet
hjorte
brannvern
energil
signalene
bydelene
gwh
##ettings
farmor
utlysning
skøyt
##bonus
##innd
##filosof
axel
##mnd
##46
dernest
foretrekke
##skjeden
gjette
##forekom
miljøverndepartementet
123
presise
boring
vu
tilværelse
godhet
kunnskapsbasert
mekanismer
active
kvalme
variasjonen
pit
berør
reguleringer
gabriel
bulgaria
##velse
##olar
skall
##come
##tun
##xy
høie
##pm
##urdere
forskningsprosjekter
ufarlig
##jas
##mmelser
apples
ferg
##hørt
automatisering
uer
hitra
bekke
elvene
nicola
##spliktige
bele
bega
wergeland
kortvarig
qa
sidest
frelser
eksperimenter
frispark
##alisere
glø
behjelp
hæler
fetter
skattek
spasertur
vervet
##spraklig
m3
sunde
##chet
undervurder
peer
nhh
gøte
læ
smy
titter
lønnsoppgjør
kompli
grundige
nabolag
sweden
utfylling
##omp
knus
##utdannelse
republikk
ansa
importert
buff
zom
forordning
##tersk
sparing
senker
ln
handfull
leverings
trappa
229
radioen
kolonne
##stakere
lørdager
fortelles
##esnittet
##85
tilh
skriften
##ssentralen
##cross
sabot
##sregisteret
hyllest
fremgangsmate
##alo
livssituasjon
##underlag
sofistik
redigering
##num
where
vatrom
susanne
##angst
chip
sour
strekning
##økonomisk
vardø
parforhold
høringen
oversettelser
##veger
berømt
fenomener
stormen
adap
##ansens
##kommune
grasrot
ustabil
skiløy
immig
merete
stedfort
##kilder
##slinjer
rørlegger
##produsert
##code
arb
kundenes
revolusjonerende
tene
driftsinn
unnskyldninger
oxford
utlegg
##ølle
feriet
arkitekton
forvirrende
utvidede
konfigu
telef
utesteng
fæ
gur
##edig
sme
transl
xxxxxx
##ikate
fabel
bese
vanskelighet
ringsaker
badekar
##sbeløp
invad
hygien
favor
tsar
storhet
rasjonell
##ammens
##srommet
##word
##kammer
##ctive
kronprins
ukeblad
gardiner
##skrivelse
scoringer
kondens
friste
frodig
##førende
##kledd
gjengi
volks
filtrere
##spliktig
kjønnslem
winter
##kunder
inndelt
overganger
neglene
sess
motstrid
##lysninger
fredet
lanka
systemat
kjønnene
misbrukt
friends
alter
##ush
idol
inkluderes
1903
sertifik
veksel
##istenes
hørtes
##ments
standardiserte
beregnings
kassa
##iev
##poster
tilnærmingen
##ives
##regnskapet
kaffen
##asert
tv3
canon
stemnings
##ugen
andrew
intervaller
charlie
produktutvikling
##redet
bortimot
overflødig
##serklæring
begrunne
lysene
utslitt
netent
fult
menneskehandel
trondhjem
spilletid
twh
fornybare
##etti
145
these
##lekk
flaut
komposisjon
handlingsrom
engineering
##elven
##mmingen
dagslys
damek
author
hverdags
grind
##bber
forente
innovativ
skager
rundene
fjoraret
chrome
etterutdanning
romersk
bidragsytere
##skatten
holland
antikk
skattes
skylder
##artene
monsen
laboratorie
undergra
oliver
##forurens
gjennomsiktige
frans
kvalifiserer
##bestemmelsene
##ingsloven
mo1
##eline
forpli
aroma
kulturarv
tiss
hamburg
optimalisering
overnattingsstedet
##halv
serbia
sjalus
sightseeing
level
##hea
løsnet
lew
##ebyggende
nordby
vennes
kjøpesenteret
klp
gangbang
christina
ungdommens
bilete
##sbon
klipper
galaxy
vadsø
rju
##stone
investeringen
gevinsten
gallerier
##sher
hems
utlevering
fotok
klimak
takknemlighet
trille
##ygg
##etak
sporty
fallende
misnøye
tallets
##bridge
##ude
underord
konsol
##sleverand
opprinnelses
1896
betalingen
dronningen
mountain
##ømme
##rix
leik
tradisjonsrike
thailandske
svelge
screening
##roulette
betry
instans
samfunnsmessige
eggen
##videoer
##sgrenser
gassen
##plagg
ledning
koker
webkamera
arbeidsgiveravgift
dyreste
kristoffersen
unnag
datterselskap
samfunnsutvikling
kofferten
##slatte
klassekampen
eggløsning
dødsfallet
magnes
##strøk
livmorhal
hjerneslag
asen
felleskj
beregningen
høykvalitets
##sekk
høringsnot
##etisk
##forskrift
booke
repetisjoner
##42
senja
motto
koreansk
##likasjon
login
##øvelsen
brosjyrer
audio
##jobber
svekkes
bompenger
##aturlig
karam
flotteste
##stemme
veronica
tilbøy
verdenen
profeten
glomma
tjenesteyting
##iber
karib
identiteten
modernisering
##orientering
folkeparti
signe
ytringer
##blogger
rittet
roen
##sforskriften
utleier
forfølge
monitor
landskaps
arvet
amt
hallingdal
artistene
willy
gøteborg
ym
ansi
forbyr
comeback
forskningsbasert
kolleksjon
ereksjon
hafslund
lindre
##boller
støpe
##olis
styrende
##vakning
rakke
##skvaliteten
##volum
rekvis
beliggenheten
##asing
ulikhet
pameldt
##ameter
tunneler
##server
##lubben
klimagassutslipp
reker
##atn
lead
roboter
bivir
veiledende
kondomer
flirt
##arken
sink
##skjøring
søkemotoren
høyesteretts
kommuneplanens
320
lydbøker
##myndigheter
##oval
##ize
fyrverker
islamsk
avviket
##ekontoret
vakter
dagbok
eksempelet
eiendoms
##rane
##ologene
skjæring
##irektivet
##matiske
kroppssprak
##grensen
newcastle
##koll
skiss
regionens
skoge
dedikerte
##opplegget
diktene
paulsen
eksplosjonen
##ders
delikate
husets
hurum
large
##teknisk
raym
kropper
registre
dyrking
erobret
indonesia
pa¥
kurven
##enske
handarbeid
nokia
utredet
valentin
##skysten
venezia
##spel
tyver
regjeringer
nøtterøy
##sadvokat
anløp
jas
##pliktige
spanj
avsta
hovedtema
vennskapet
parts
##medlemmer
kjært
diskusjonene
sæter
stjal
ee
stream
edward
##smelding
##strekkelig
linde
##akeren
begrunnes
##kulturen
kalkulator
##skonkurranse
##deleg
flow
entertainment
advarsler
beskyttende
bidraget
sultne
##interesse
oppfatningen
jorunn
##sprinsippet
fotografi
skulptur
##bust
##sstrategi
asl
##sjer
vif
rikshospitalet
annan
##garn
##vap
infrastrukturen
oppdragsgivere
##chsen
hovedrollen
##sjet
videoene
##smiddel
vvs
grilling
skolev
sonja
eldrer
##ssats
trekket
##prosjektene
kjempefint
kjens
##ytere
virkemidlene
næringslivets
charter
rd
utp
barnefamilier
interesserer
1901
experience
##shemning
ansikter
trekningen
soldaten
respondentene
trailer
politiattest
##alsjef
insekt
##sadvokaten
##uropeiske
elit
slyn
activ
##mestere
utestengt
##steiner
arbeidssøk
karer
meyer
cnn
##drevne
vakte
hudpleie
tobias
smakt
##staker
registreringer
transporten
##belegg
##analysen
seniorradgiver
##upe
soker
sprøy
##straff
avganger
kafeer
permanente
pitt
gjennomgikk
spik
##angrepet
forsinkelse
battle
oppheng
##gevin
beinet
##´s
##plas
skiskytter
forbrytelser
etterlyser
dies
sac
innretninger
lappen
røttene
mjøndalen
##spilt
ladet
##vederlag
svov
fløte
##ibel
pride
nøkter
variabel
lønnen
pump
overlevende
##romm
##sag
tomas
ikonet
##splanlegging
xnxx
skoen
##adel
konstat
##sfeltet
##tøy
##handbok
ungdomssk
##pike
drifter
angis
##asis
##ylte
supers
ukom
merken
##obi
drapene
events
##produsentene
verft
jersey
grethe
attest
second
høland
basic
pakkeforløp
observerte
rjukan
spalt
situasjonene
forble
gunhild
##smester
tilgjengeligheten
chatroulette
pressekonferanse
1931
zam
##oleranse
semifinale
society
bærende
##inspe
utg
rusav
pcer
konkludert
solbriller
##hensyn
flora
##kurset
utjev
oversky
eiendommene
oppgraderinger
konstatere
lass
næringsm
gigantisk
##elyst
aids
##fia
skolear
gote
kjempes
makrell
samferdselsdepartementet
rømt
padle
utdyp
bakre
bakhodet
emnene
##abilitet
##stjerner
ric
godbiter
faks
straler
##braten
ivan
##stien
##svin
brikke
cia
jaget
##onym
kvalm
##skonferanse
podcast
mikael
taco
tiltale
minimere
sjuk
##materiell
kunstnerne
deltids
felleskap
fiendt
fete
##vinduet
oppføringen
##sforsta
skinnende
gjenspeiles
bryggeri
ironisk
##estre
##marg
landsbyer
ore
innfører
##ssentre
omganger
fraværet
utløper
ustab
palegges
farsund
henvises
##pause
uregel
##klipp
##mari
sop
saka
holdningen
hertug
##inten
##objekter
hovedregelen
bydeler
1881
forstyrre
##melk
innebygde
loftet
johanna
##slinje
fangene
##staur
lærdom
##hørighet
kanin
lengter
oppdragene
kapittelet
##на
##soppdrag
aurora
teor
lengsel
illustrasjonsfoto
tilfeldighet
hekk
traumer
vedlikeholdt
entydig
paa
##bana
1899
scenar
parfyme
sentre
##shot
praks
utdanningsniva
gigantiske
bop
##smedlem
snub
strukturelle
eigen
own
pest
sterkest
eliten
patrick
##eløst
stresse
betegnes
toronto
1932
massak
##entreprenører
##valuering
pron
analog
flasken
innhentes
telesex
latinske
alice
##figur
omsorgsdepartementet
##nemnd
hyllet
istand
tisse
pafallende
ujevn
agenter
custom
vinger
følsomme
hald
umiddelbare
##nære
svol
patar
annonsene
øm
slip
utdannede
gjelden
kvalifiseringen
nøkler
##esnes
millimeter
malestokk
essensielt
overtred
##ques
transformasjon
##produserte
records
tykkelse
ck
##ikum
advart
fornuftige
valutak
velstaende
byggene
##menyen
grønnsaks
tripad
mekling
sausen
hydr
opphøy
utilstrekkelig
vraket
somm
##ledninger
linja
skadedyr
birger
unnagjort
dannelse
##kelige
##ор
invitasjoner
iherd
chap
umb
delegert
##aviser
kostbare
##starter
individet
intelligente
payp
##dikt
##iditet
spenninger
avkjør
##sekteskap
straffbart
motstanderen
tildelingen
stone
operaen
sofia
mindretall
##skapital
kunstige
##ktorer
oppsummere
klarhet
progressive
selvhjelp
tanz
##røt
favør
##bryter
rykker
eye
##omsp
innretning
innfrid
jevnaldrende
akseptabel
nin
##demp
løftes
vrid
##virker
triat
##kropp
simple
rammeplan
genererer
riise
brutal
formannskapets
dumping
velegnet
representanten
terrorister
billettene
goteborg
##zing
pollen
cha
##prosa
wis
tropper
velsignelse
raga
##imir
bosette
returnerte
##edata
kalib
brikker
territorium
gm
##gede
159
##orp
gjeve
blender
kommunikasjonssjef
contain
bemerkelses
kirsti
##myra
##muren
into
vafler
ingunn
##yndighet
skarpt
offensive
avhenge
hioa
2021
tegningene
1895
oslofjord
kostbart
beskjeder
cockta
slenger
kvalitative
##elærere
ured
usynlige
vitnes
oversendes
##sekret
meiner
##utbygging
ungg
innsje
craig
##76
##enna
plage
betryggende
frøy
##komment
trøste
hovedinn
beautiful
##massen
##etode
##raper
stella
hollender
spesialitet
##stigning
championship
avgir
tinglys
korro
bieber
bk
##liket
##iting
offiserer
##rics
secret
beroligende
lsk
##felling
sjøørret
pressemeldingen
fiskerid
forsvarsbygg
patalemyndigheten
harris
##øytn
zoom
kirkene
argumentet
mathisen
stipendiat
smating
##lagg
lettvint
##mani
##ælt
organismer
tul
##anmeld
tramp
sparken
bagat
borge
verdiskapning
skallet
bevisstgjøring
orkla
omverdenen
america
borgerkrigen
tomta
##skontrollen
tuberkul
bremser
konsernets
guro
melkes
introdu
innsjøer
##ssamfunn
##inettet
##skru
##statistikken
independ
djevelen
##kretsen
egget
klimagasser
gjennomførings
flue
forføre
balet
avla
utenkelig
dønn
køen
pigg
adgangen
lukkes
dammen
informasjonssikkerhet
dagligvareb
lap
##orta
bruket
flak
plagene
vassdraget
okkupasjonen
inndeling
overlate
##slagene
sander
##befolkning
bip
pars
helsetjeneste
intimitet
##slokaler
førsteinntrykk
kjempebra
##ekontor
autentisk
kakao
##skjem
grusom
transaksjonen
samordnet
skavlan
tiltakshaver
kasserer
joggesko
ff
utvand
mao
joach
vp
##landskapet
byggeprosjekter
hydrauli
ronaldo
illustrat
øien
aps
##gruppens
sylin
beten
passive
boys
klassikere
ødelagte
møtetid
cott
fremgangsmaten
grusomme
##lamm
frukter
uvurder
eksploder
##utdeling
##uttak
kveldstid
inntar
##betjent
##ofile
homofili
ulempen
hæl
geologiske
arsaks
##konf
vega
tjø
##neringen
toppene
fullverdig
basere
talib
avls
relative
##magasinet
dd
flyg
roms
husleie
demp
##kontrakt
##ruppen
113
miljøgifter
slep
evakuert
b2
##endals
fremført
testamente
##kingen
norc
planarbeidet
østerd
eine
pagikk
latvia
kommisjonens
##fib
nyutdannede
verdensbasis
##bygninger
overdreven
lufte
utdatert
##jafør
frogn
befolkningens
##idler
##ødd
lojale
##stans
stearin
volksw
rotet
scooter
kanel
##beskytt
selvfor
##fox
challenge
ding
##rier
buret
kd
103
hylla
##materialer
kysse
dykking
##sforeningen
[...]
