[PAD]
[unused0]
[unused1]
[unused2]
[unused3]
[unused4]
[unused5]
[unused6]
[unused7]
[unused8]
[unused9]
[unused10]
[unused11]
[unused12]
[unused13]
[unused14]
[unused15]
[unused16]
[unused17]
[unused18]
[unused19]
[unused20]
[unused21]
[unused22]
[unused23]
[unused24]
[unused25]
[unused26]
[unused27]
[unused28]
[unused29]
[unused30]
[unused31]
[unused32]
[unused33]
[unused34]
[unused35]
[unused36]
[unused37]
[unused38]
[unused39]
[unused40]
[unused41]
[unused42]
[unused43]
[unused44]
[unused45]
[unused46]
[unused47]
[unused48]
[unused49]
[unused50]
[unused51]
[unused52]
[unused53]
[unused54]
[unused55]
[unused56]
[unused57]
[unused58]
[unused59]
[unused60]
[unused61]
[unused62]
[unused63]
[unused64]
[unused65]
[unused66]
[unused67]
[unused68]
[unused69]
[unused70]
[unused71]
[unused72]
[unused73]
[unused74]
[unused75]
[unused76]
[unused77]
[unused78]
[unused79]
[unused80]
[unused81]
[unused82]
[unused83]
[unused84]
[unused85]
[unused86]
[unused87]
[unused88]
[unused89]
[unused90]
[unused91]
[unused92]
[unused93]
[unused94]
[unused95]
[unused96]
[unused97]
[unused98]
[unused99]
[unused100]
[unused101]
[unused102]
[unused103]
[unused104]
[unused105]
[unused106]
[unused107]
[unused108]
[unused109]
[unused110]
[unused111]
[unused112]
[unused113]
[unused114]
[unused115]
[unused116]
[unused117]
[unused118]
[unused119]
[unused120]
[unused121]
[unused122]
[unused123]
[unused124]
[unused125]
[unused126]
[unused127]
[unused128]
[unused129]
[unused130]
[unused131]
[unused132]
[unused133]
[unused134]
[unused135]
[unused136]
[unused137]
[unused138]
[unused139]
[unused140]
[unused141]
[unused142]
[unused143]
[unused144]
[unused145]
[unused146]
[unused147]
[unused148]
[unused149]
[unused150]
[unused151]
[unused152]
[unused153]
[unused154]
[unused155]
[unused156]
[unused157]
[unused158]
[unused159]
[unused160]
[unused161]
[unused162]
[unused163]
[unused164]
[unused165]
[unused166]
[unused167]
[unused168]
[unused169]
[unused170]
[unused171]
[unused172]
[unused173]
[unused174]
[unused175]
[unused176]
[unused177]
[unused178]
[unused179]
[unused180]
[unused181]
[unused182]
[unused183]
[unused184]
[unused185]
[unused186]
[unused187]
[unused188]
[unused189]
[unused190]
[unused191]
[unused192]
[unused193]
[unused194]
[unused195]
[unused196]
[unused197]
[unused198]
[unused199]
[unused200]
[unused201]
[unused202]
[unused203]
[unused204]
[unused205]
[unused206]
[unused207]
[unused208]
[unused209]
[unused210]
[unused211]
[unused212]
[unused213]
[unused214]
[unused215]
[unused216]
[unused217]
[unused218]
[unused219]
[unused220]
[unused221]
[unused222]
[unused223]
[unused224]
[unused225]
[unused226]
[unused227]
[unused228]
[unused229]
[unused230]
[unused231]
[unused232]
[unused233]
[unused234]
[unused235]
[unused236]
[unused237]
[unused238]
[unused239]
[unused240]
[unused241]
[unused242]
[unused243]
[unused244]
[unused245]
[unused246]
[unused247]
[unused248]
[unused249]
[unused250]
[unused251]
[unused252]
[unused253]
[unused254]
[unused255]
[unused256]
[unused257]
[unused258]
[unused259]
[unused260]
[unused261]
[unused262]
[unused263]
[unused264]
[unused265]
[unused266]
[unused267]
[unused268]
[unused269]
[unused270]
[unused271]
[unused272]
[unused273]
[unused274]
[unused275]
[unused276]
[unused277]
[unused278]
[unused279]
[unused280]
[unused281]
[unused282]
[unused283]
[unused284]
[unused285]
[unused286]
[unused287]
[unused288]
[unused289]
[unused290]
[unused291]
[unused292]
[unused293]
[unused294]
[unused295]
[unused296]
[unused297]
[unused298]
[unused299]
[unused300]
[unused301]
[unused302]
[unused303]
[unused304]
[unused305]
[unused306]
[unused307]
[unused308]
[unused309]
[unused310]
[unused311]
[unused312]
[unused313]
[unused314]
[unused315]
[unused316]
[unused317]
[unused318]
[unused319]
[unused320]
[unused321]
[unused322]
[unused323]
[unused324]
[unused325]
[unused326]
[unused327]
[unused328]
[unused329]
[unused330]
[unused331]
[unused332]
[unused333]
[unused334]
[unused335]
[unused336]
[unused337]
[unused338]
[unused339]
[unused340]
[unused341]
[unused342]
[unused343]
[unused344]
[unused345]
[unused346]
[unused347]
[unused348]
[unused349]
[unused350]
[unused351]
[unused352]
[unused353]
[unused354]
[unused355]
[unused356]
[unused357]
[unused358]
[unused359]
[unused360]
[unused361]
[unused362]
[unused363]
[unused364]
[unused365]
[unused366]
[unused367]
[unused368]
[unused369]
[unused370]
[unused371]
[unused372]
[unused373]
[unused374]
[unused375]
[unused376]
[unused377]
[unused378]
[unused379]
[unused380]
[unused381]
[unused382]
[unused383]
[unused384]
[unused385]
[unused386]
[unused387]
[unused388]
[unused389]
[unused390]
[unused391]
[unused392]
[unused393]
[unused394]
[unused395]
[unused396]
[unused397]
[unused398]
[unused399]
[unused400]
[unused401]
[unused402]
[unused403]
[unused404]
[unused405]
[unused406]
[unused407]
[unused408]
[unused409]
[unused410]
[unused411]
[unused412]
[unused413]
[unused414]
[unused415]
[unused416]
[unused417]
[unused418]
[unused419]
[unused420]
[unused421]
[unused422]
[unused423]
[unused424]
[unused425]
[unused426]
[unused427]
[unused428]
[unused429]
[unused430]
[unused431]
[unused432]
[unused433]
[unused434]
[unused435]
[unused436]
[unused437]
[unused438]
[unused439]
[unused440]
[unused441]
[unused442]
[unused443]
[unused444]
[unused445]
[unused446]
[unused447]
[unused448]
[unused449]
[unused450]
[unused451]
[unused452]
[unused453]
[unused454]
[unused455]
[unused456]
[unused457]
[unused458]
[unused459]
[unused460]
[unused461]
[unused462]
[unused463]
[unused464]
[unused465]
[unused466]
[unused467]
[unused468]
[unused469]
[unused470]
[unused471]
[unused472]
[unused473]
[unused474]
[unused475]
[unused476]
[unused477]
[unused478]
[unused479]
[unused480]
[unused481]
[unused482]
[unused483]
[unused484]
[unused485]
[unused486]
[unused487]
[unused488]
[unused489]
[unused490]
[unused491]
[unused492]
[unused493]
[unused494]
[unused495]
[unused496]
[unused497]
[unused498]
[unused499]
[unused500]
[unused501]
[unused502]
[unused503]
[unused504]
[unused505]
[unused506]
[unused507]
[unused508]
[unused509]
[unused510]
[unused511]
[unused512]
[unused513]
[unused514]
[unused515]
[unused516]
[unused517]
[unused518]
[unused519]
[unused520]
[unused521]
[unused522]
[unused523]
[unused524]
[unused525]
[unused526]
[unused527]
[unused528]
[unused529]
[unused530]
[unused531]
[unused532]
[unused533]
[unused534]
[unused535]
[unused536]
[unused537]
[unused538]
[unused539]
[unused540]
[unused541]
[unused542]
[unused543]
[unused544]
[unused545]
[unused546]
[unused547]
[unused548]
[unused549]
[unused550]
[unused551]
[unused552]
[unused553]
[unused554]
[unused555]
[unused556]
[unused557]
[unused558]
[unused559]
[unused560]
[unused561]
[unused562]
[unused563]
[unused564]
[unused565]
[unused566]
[unused567]
[unused568]
[unused569]
[unused570]
[unused571]
[unused572]
[unused573]
[unused574]
[unused575]
[unused576]
[unused577]
[unused578]
[unused579]
[unused580]
[unused581]
[unused582]
[unused583]
[unused584]
[unused585]
[unused586]
[unused587]
[unused588]
[unused589]
[unused590]
[unused591]
[unused592]
[unused593]
[unused594]
[unused595]
[unused596]
[unused597]
[unused598]
[unused599]
[unused600]
[unused601]
[unused602]
[unused603]
[unused604]
[unused605]
[unused606]
[unused607]
[unused608]
[unused609]
[unused610]
[unused611]
[unused612]
[unused613]
[unused614]
[unused615]
[unused616]
[unused617]
[unused618]
[unused619]
[unused620]
[unused621]
[unused622]
[unused623]
[unused624]
[unused625]
[unused626]
[unused627]
[unused628]
[unused629]
[unused630]
[unused631]
[unused632]
[unused633]
[unused634]
[unused635]
[unused636]
[unused637]
[unused638]
[unused639]
[unused640]
[unused641]
[unused642]
[unused643]
[unused644]
[unused645]
[unused646]
[unused647]
[unused648]
[unused649]
[unused650]
[unused651]
[unused652]
[unused653]
[unused654]
[unused655]
[unused656]
[unused657]
[unused658]
[unused659]
[unused660]
[unused661]
[unused662]
[unused663]
[unused664]
[unused665]
[unused666]
[unused667]
[unused668]
[unused669]
[unused670]
[unused671]
[unused672]
[unused673]
[unused674]
[unused675]
[unused676]
[unused677]
[unused678]
[unused679]
[unused680]
[unused681]
[unused682]
[unused683]
[unused684]
[unused685]
[unused686]
[unused687]
[unused688]
[unused689]
[unused690]
[unused691]
[unused692]
[unused693]
[unused694]
[unused695]
[unused696]
[unused697]
[unused698]
[unused699]
[unused700]
[unused701]
[unused702]
[unused703]
[unused704]
[unused705]
[unused706]
[unused707]
[unused708]
[unused709]
[unused710]
[unused711]
[unused712]
[unused713]
[unused714]
[unused715]
[unused716]
[unused717]
[unused718]
[unused719]
[unused720]
[unused721]
[unused722]
[unused723]
[unused724]
[unused725]
[unused726]
[unused727]
[unused728]
[unused729]
[unused730]
[unused731]
[unused732]
[unused733]
[unused734]
[unused735]
[unused736]
[unused737]
[unused738]
[unused739]
[unused740]
[unused741]
[unused742]
[unused743]
[unused744]
[unused745]
[unused746]
[unused747]
[unused748]
[unused749]
[unused750]
[unused751]
[unused752]
[unused753]
[unused754]
[unused755]
[unused756]
[unused757]
[unused758]
[unused759]
[unused760]
[unused761]
[unused762]
[unused763]
[unused764]
[unused765]
[unused766]
[unused767]
[unused768]
[unused769]
[unused770]
[unused771]
[unused772]
[unused773]
[unused774]
[unused775]
[unused776]
[unused777]
[unused778]
[unused779]
[unused780]
[unused781]
[unused782]
[unused783]
[unused784]
[unused785]
[unused786]
[unused787]
[unused788]
[unused789]
[unused790]
[unused791]
[unused792]
[unused793]
[unused794]
[unused795]
[unused796]
[unused797]
[unused798]
[unused799]
[unused800]
[unused801]
[unused802]
[unused803]
[unused804]
[unused805]
[unused806]
[unused807]
[unused808]
[unused809]
[unused810]
[unused811]
[unused812]
[unused813]
[unused814]
[unused815]
[unused816]
[unused817]
[unused818]
[unused819]
[unused820]
[unused821]
[unused822]
[unused823]
[unused824]
[unused825]
[unused826]
[unused827]
[unused828]
[unused829]
[unused830]
[unused831]
[unused832]
[unused833]
[unused834]
[unused835]
[unused836]
[unused837]
[unused838]
[unused839]
[unused840]
[unused841]
[unused842]
[unused843]
[unused844]
[unused845]
[unused846]
[unused847]
[unused848]
[unused849]
[unused850]
[unused851]
[unused852]
[unused853]
[unused854]
[unused855]
[unused856]
[unused857]
[unused858]
[unused859]
[unused860]
[unused861]
[unused862]
[unused863]
[unused864]
[unused865]
[unused866]
[unused867]
[unused868]
[unused869]
[unused870]
[unused871]
[unused872]
[unused873]
[unused874]
[unused875]
[unused876]
[unused877]
[unused878]
[unused879]
[unused880]
[unused881]
[unused882]
[unused883]
[unused884]
[unused885]
[unused886]
[unused887]
[unused888]
[unused889]
[unused890]
[unused891]
[unused892]
[unused893]
[unused894]
[unused895]
[unused896]
[unused897]
[unused898]
[unused899]
[unused900]
[unused901]
[unused902]
[unused903]
[unused904]
[unused905]
[unused906]
[unused907]
[unused908]
[unused909]
[unused910]
[unused911]
[unused912]
[unused913]
[unused914]
[unused915]
[unused916]
[unused917]
[unused918]
[unused919]
[unused920]
[unused921]
[unused922]
[unused923]
[unused924]
[unused925]
[unused926]
[unused927]
[unused928]
[unused929]
[unused930]
[unused931]
[unused932]
[unused933]
[unused934]
[unused935]
[unused936]
[unused937]
[unused938]
[unused939]
[unused940]
[unused941]
[unused942]
[unused943]
[unused944]
[unused945]
[unused946]
[unused947]
[unused948]
[unused949]
[unused950]
[unused951]
[unused952]
[unused953]
[unused954]
[unused955]
[unused956]
[unused957]
[unused958]
[unused959]
[unused960]
[unused961]
[unused962]
[unused963]
[unused964]
[unused965]
[unused966]
[unused967]
[unused968]
[unused969]
[unused970]
[unused971]
[unused972]
[unused973]
[unused974]
[unused975]
[unused976]
[unused977]
[unused978]
[unused979]
[unused980]
[unused981]
[unused982]
[unused983]
[unused984]
[unused985]
[unused986]
[unused987]
[unused988]
[unused989]
[unused990]
[unused991]
[unused992]
[unused993]
[unused994]
[unused995]
[unused996]
[unused997]
[unused998]
[unused999]
[UNK]
[CLS]
[SEP]
[MASK]
!
"
#
$
%
&
'
(
)
*
+
,
-
.
/
0
1
2
3
4
5
6
7
8
9
:
;
<
=
>
?
@
[
\
]
^
_
`
a
b
c
d
e
f
g
h
i
j
k
l
m
n
o
p
q
r
s
t
u
v
w
x
y
z
{
|
}
~
¡
¢
£
¤
¥
¦
§
¨
©
ª
«
¬
®
¯
°
±
²
³
´
µ
¶
·
¸
¹
º
»
¼
½
¾
¿
×
ß
æ
ð
÷
ø
þ
đ
ı
ł
œ
ƒ
ɔ
ə
ɛ
ʹ
ʺ
ˆ
ˇ
ˈ
˚
˜
ˮ
ͼ
α
β
γ
δ
ε
ζ
η
θ
ι
κ
λ
μ
ν
ξ
ο
π
ρ
ς
σ
τ
υ
φ
χ
ψ
ω
ϕ
а
б
в
г
д
е
ж
з
и
к
л
м
н
о
п
р
с
т
у
ф
х
ц
ч
ш
щ
ъ
ы
ь
э
ю
я
ђ
є
ѕ
і
ј
љ
ґ
һ
ա
א
ב
ג
ד
ה
ו
ח
ט
י
כ
ל
ם
מ
ן
נ
ס
ע
פ
ק
ר
ש
ת
،
ء
ا
ب
ة
ت
ث
ج
ح
خ
د
ذ
ر
ز
س
ش
ص
ض
ط
ظ
ع
غ
ـ
ف
ق
ك
ل
م
ن
ه
و
ى
ي
پ
چ
ک
گ
ی
क
ग
ज
त
द
न
प
म
य
र
ल
व
स
ह
ा
ि
ी
ो
ক
ত
ন
ব
য
র
া
ি
ে
க
த
ன
ப
ம
ர
ா
ி
ு
ക
ാ
ി
ก
ข
ค
ง
จ
ช
ด
ต
ท
น
บ
ป
พ
ม
ย
ร
ล
ว
ส
ห
อ
ะ
า
฿
เ
แ
โ
ไ
ა
ე
ი
ᄀ
ᄂ
ᄃ
ᄅ
ᄆ
ᄇ
ᄉ
ᄋ
ᄌ
ᄎ
ᄏ
ᄐ
ᄑ
ᄒ
ᅡ
ᅢ
ᅥ
ᅦ
ᅧ
ᅩ
ᅪ
ᅬ
ᅭ
ᅮ
ᅳ
ᅴ
ᅵ
ᆨ
ᆫ
ᆯ
ᆷ
ᆸ
ᆻ
ᆼ
ᐈ
‐
‑
‒
–
—
―
‘
’
‚
“
”
„
†
‡
•
…
‰
′
″
‹
›
₂
₨
€
℃
№
™
←
↑
→
↓
⇒
−
√
≤
≥
─
■
□
▪
▫
▲
▶
►
▻
▼
◊
○
●
☀
★
☆
☺
♀
♂
♡
♣
♥
♦
✅
✌
✓
✔
✚
✨
✭
✰
❄
❑
❗
❤
➔
➧
⠀
⭐
ⰰ
、
。
「
」
【
】
あ
い
う
え
お
か
き
く
け
こ
さ
し
す
せ
そ
た
ち
っ
つ
て
と
な
に
の
は
ひ
へ
ま
み
め
も
や
よ
ら
り
る
れ
わ
を
ん
ア
ィ
イ
ウ
ェ
エ
オ
カ
キ
ク
ケ
コ
サ
シ
ス
セ
ソ
タ
チ
ッ
ツ
テ
ト
ナ
ニ
ネ
ハ
ヒ
フ
ヘ
ホ
マ
ミ
ム
メ
モ
ャ
ュ
ョ
ラ
リ
ル
レ
ロ
ワ
ン
・
ー
䄀
䈀
䔀
䜀
䠀
䤀
䬀
䰀
䴀
一
七
万
三
上
下
不
与
专
世
业
东
两
个
中
为
主
么
之
乐
九
也
买
了
争
事
二
于
五
亚
交
产
京
人
什
今
他
仙
代
以
们
件
任
伀
会
传
位
体
何
作
你
使
供
保
信
元
先
光
免
入
全
八
公
六
关
其
具
内
円
册
准
出
刀
分
划
创
利
到
制
前
力
加
务
动
势
動
匀
化
北
区
十
单
南
博
原
县
及
双
发
取
口
可
台
号
司
吀
合
同
名
后
吗
员
和
品
哪
唀
商
器
四
回
国
图
在
地
场
址
坛
型
城
基
堂
場
士
外
多
大
天
太
奇
奖
女
好
如
姐
娱
婆
子
字
学
安
官
定
宝
实
客
室
家
富
对
将
小
少
就
尾
展
山
川
州
工
巧
市
常
平
年
广
庆
库
店
度
建
开
式
当
录
彩
影
律
得
微
心
必
忙
快
怎
思
性
总
情
意
感
戏
成
我
户
所
手
打
技
投
报
持
挂
指
推
提
播
教
数
文
料
斯
新
方
无
日
时
明
星
是
時
更
最
月
有
服
期
未
本
机
杀
来
東
枚
果
校
样
格
業
次
正
比
民
氓
気
水
江
河
法
波
注
活
流
测
海
港
游
源
澳
点
然
爱
片
版
牌
牛
物
特
狗
玄
王
玩
现
球
理
生
用
田
电
画
界
登
白
百
的
皇
目
盲
直
相
看
県
真
着
知
码
社
神
票
福
科
程
空
立
站
第
等
算
管
精
系
红
线
组
经
结
统
网
美
群
老
者
而
肖
育
能
自
色
花
英
行
表
装
西
要
見
规
视
解
語
计
记
论
设
诗
财
费
资
赌
赛
赢
走
起
超
足
跑
路
身
车
软
载
过
运
这
进
送
选
通
道
選
部
都
酶
里
重
野
量
金
钱
长
間
门
间
际
限
院
集
霸
青
面
音
预
频
食
香
马
高
黄
龙
ﬁ
ﬂ
！
（
）
，
：
？
ｩ
ﾞ
￼
🌟
🌸
🍁
🎉
🏻
🏼
🏽
👊
👌
👍
👏
💕
💖
💗
💙
💚
💛
💜
💪
🔥
😀
😁
😂
😃
😄
😅
😆
😉
😊
😋
😍
😎
😘
😛
😜
😦
😬
😱
😳
🙁
🙂
🙄
🙈
🙌
🙏
🤔
🤗
🤣
🤩
##a
##n
##d
##v
##e
##r
##k
##l
##i
##g
##o
##c
##p
##t
##s
##h
##b
##m
##x
##f
##u
##j
##ø
##y
##z
##w
##2
##4
##8
##1
##0
##3
##´
##9
##5
##ケ
##ッ
##ト
##ف
##ز
##و
##د
##æ
##7
##¥
##स
##ा
##न
##ी
##е
##р
##в
##и
##д
##ц
##6
##q
##ᆸ
##ᄋ
##ᅴ
##😜
##¸
##ð
##у
##б
##а
##н
##😊
##я
##ф
##о
##л
##ь
##э
##¨
##°
##¦
##ด
##ห
##ว
##แ
##ร
##ง
##ע
##ש
##ר
##ו
##ת
##ナ
##ホ
##ー
##ム
##ß
##ल
##र
##オ
##フ
##ン
##し
##ま
##す
##™
##ح
##ت
##ض
##ر
##ə
##ん
##こ
##う
##き
##つ
##м
##г
##ƒ
##®
##т
##з
##ы
##👏
##🏻
##¬
##ᅳ
##ᄂ
##ᅦ
##ᅭ
##😘
##😍
##❤
##ی
##ا
##ل
##с
##к
##х
##ш
##ب
##غ
##م
##ي
##ة
##נ
##ק
##א
##י
##ε
##σ
##ω
##ν
##💕
##ع
##た
##い
##と
##ι
##α
##ж
##€
##て
##く
##ᅢ
##ᆫ
##ᄃ
##ᅩ
##म
##ח
##ם
##♡
##✌
##ч
##δ
##μ
##ο
##×
##¯
##😳
##💗
##ह
##व
##χ
##κ
##υ
##ı
##ア
##©
##ق
##п
##і
##כ
##ב
##👌
##😁
##ヒ
##ル
##や
##ラ
##ク
##か
##あ
##れ
##は
##の
##に
##な
##リ
##ロ
##گ
##ه
##ن
##カ
##ハ
##ニ
##✔
##œ
##า
##ล
##บ
##イ
##س
##ء
##🙏
##¤
##ˇ
##♥
##ص
##さ
##わ
##レ
##ᅧ
##ᆼ
##ᄒ
##ᆨ
##ᄉ
##ᅵ
##ᄆ
##ᆯ
##ﬁ
##พ
##อ
##ท
##ค
##ก
##จ
##ะ
##ไ
##ส
##ᅡ
##ᄌ
##ю
##щ
##ɔ
##エ
##●
##チ
##−
##🌸
##🏼
##ে
##য
##ন
##ج
##ł
##ヘ
##キ
##サ
##😂
##を
##せ
##ひ
##ツ
##ェ
##מ
##☺
##▲
##τ
##γ
##ρ
##φ
##😋
##ா
##ு
##க
##த
##ி
##ம
##ன
##ﬂ
##😄
##コ
##ᆷ
##क
##ो
##り
##そ
##ม
##ข
##น
##ต
##เ
##त
##ि
##þ
##🤗
##ᄀ
##ப
##ʹ
##🎉
##ъ
##シ
##ュ
##ス
##ら
##へ
##メ
##セ
##🙄
##đ
##👍
##ᄅ
##ן
##ョ
##😅
##چ
##😀
##🌟
##♦
##π
##η
##る
##ミ
##モ
##テ
##ィ
##ᅬ
##💙
##🔥
##😉
##め
##け
##ャ
##↑
##র
##া
##ς
##💪
##ك
##ى
##っ
##ג
##ย
##ป
##خ
##ش
##お
##ᄎ
##ث
##һ
##β
##θ
##ξ
##ᄇ
##ᅮ
##💛
##💚
##マ
##ি
##λ
##ज
##य
##😬
##ל
##±
##ґ
##پ
##☆
##ک
##ʺ
##ᄑ
##ᅪ
##⭐
##✓
##ত
##ক
##ग
##ウ
##よ
##ᅥ
##ワ
##ち
##☀
##º
##タ
##❗
##✨
##→
##💜
##פ
##ס
##ה
##▻
##🙂
##÷
##ط
##¹
##द
##ѕ
##³
##ذ
##ظ
##🙌
##ט
##😆
##ช
##ա
##²
##½
##£
##😎
##ი
##ა
##โ
##ネ
##є
##ђ
##♣
##ᄐ
##ე
##▪
##▼
##ர
##🤣
##🙈
##ד
##み
##え
##😃
##¾
##も
##˜
##🤩
##♀
##🍁
##µ
##¢
##№
##🏽
##🤔
##ј
##ɛ
##ـ
##💖
##ͼ
##ˈ
##❄
##ˆ
##👊
##ζ
##✅
##ി
##ാ
##љ
##♂
##ব
##ᆻ
##ᄏ
##↓
##★
##○
##😱
##ക
##¼
##ソ
##⠀
##ª
##😦
##←
##ˮ
##₂
##℃
##✭
##►
##प
##˚
##≥
##■
##ﾞ
##￼
##□
##√
##ψ
##ｩ
##ϕ
##─
##▶
##▫
##😛
##≤
##✰
##⇒
##ⰰ
##◊
##➔
##🙁
##➧
##฿
##✚
##❑
##er
##en
##ar
##an
##or
##et
##in
##ll
##tt
##st
##ig
##om
##ag
##ed
for
##de
##ing
##on
##al
##ch
##at
##el
en
och
##sk
det
ti
pa
##ra
in
ar
vi
att
som
##es
sa
med
##te
og
st
##kt
sk
##re
har
##ck
av
##der
##na
var
##un
an
##as
##ol
de
##ter
##ning
##pp
##and
##ver
##lig
er
den
##sa
##ik
##il
##is
##it
om
##eg
##ro
till
jag
##ad
##em
##ang
kan
at
til
##iv
bl
##id
##all
##am
du
##ade
##ur
##ion
ut
##att
##ne
##isk
men
##og
##ot
##ller
##for
##ast
kom
man
##den
af
##ke
##se
inte
fr
##ok
##est
##ør
all
sp
der
ett
##ut
##are
##ent
##us
##od
##mer
un
sam
##ru
eller
##ist
##ta
##ens
##ul
##av
##ande
se
##igt
##var
##ort
##het
##itt
##le
min
han
##ser
be
##fter
nar
##ell
##kke
##gen
fra
##ær
##ill
##ak
pro
##ss
upp
hel
##ker
over
hv
fin
##ska
##ir
fl
al
##sp
kl
##art
kon
##ation
##ende
##ger
fa
##ri
ny
et
sig
##ud
ikke
##yg
##sen
##ma
and
##ov
##sl
ska
##yck
##ft
##ej
##und
##um
tr
jeg
efter
under
bar
gr
##op
##ere
far
##ant
##os
##ev
##ull
20
fran
sl
pr
vil
##ns
##ligt
kun
##ff
nag
##ge
nu
##dag
##bb
ud
pl
stor
val
dag
per
##ige
ha
da
##ett
##bl
op
##del
kr
##ans
##ick
##ek
dar
##ost
##bet
del
##je
##ord
##yr
##ark
kommer
##arna
##dr
mig
vara
kv
##ling
##ner
sj
li
gen
##ene
##ede
mo
##yn
ta
sin
tid
mang
or
din
##ic
lag
##im
##ock
##son
##ber
bor
vill
##ass
##ske
##hol
hj
##else
##me
##sta
##ier
##ess
ma
gj
sv
gor
##kl
ver
##men
lang
mer
##tid
##opp
br
##ningen
ind
mot
beh
##ga
jo
ann
##sam
##hed
##ste
##ket
dig
##ks
##va
sex
bil
skal
##itet
##be
alla
##da
ju
væ
##ikt
ved
##gar
##per
sen
komm
##sm
##ika
bet
bra
##ken
god
sm
##00
##æn
##age
201
hur
re
ser
fram
##pl
vid
##jon
##ater
lite
##alt
hon
##ycket
gar
##rad
bru
##ulle
##ka
sag
##ann
ex
##aste
reg
blev
##ekt
##oll
opp
skulle
bli
##ats
mycket
inn
##vis
##satt
finns
bara
##edan
##iga
##org
##ott
person
##jer
##iska
gang
vad
th
##ie
##eck
##era
##kel
##ring
blir
nog
##la
ch
ty
##jt
hand
ogsa
##du
##ering
hem
##ja
fort
##liga
res
ock
aven
ol
##tal
##ive
ocksa
gl
helt
dem
##ci
sy
##ligen
##net
best
##bil
ber
anv
dat
her
andra
van
##gang
##ack
##ster
nat
fors
sel
allt
hade
hvor
##tr
##alv
##get
##lag
##far
sid
detta
hav
##ien
##ys
være
mal
bes
vis
##som
##kar
fol
19
##ningar
nor
##ug
##ult
##ler
no
arbet
tj
##dre
##aller
tan
ga
##mar
##over
##ets
on
##ds
##gi
des
##ce
før
##ygg
svar
por
satt
##skap
kvin
##ara
##erna
##rem
##ia
mat
##dt
spel
##uk
kommun
##pa
##iske
mell
##form
tra
##stall
##sb
##riv
genom
##atis
oss
par
utan
##erne
##ytt
sn
samt
##æl
dan
selv
vin
tro
##dig
hen
##ram
akt
liv
nagon
form
bade
lan
##if
inter
fun
manga
fil
led
##ktion
##nings
di
lig
##bej
barn
##ingen
sven
##ala
le
##des
##hall
##man
##enter
tre
sedan
verk
##ote
gratis
alle
##yl
##pr
to
nagot
mar
##jting
##gr
##kom
forsta
kra
##iskt
str
##øl
##amp
##land
##ale
##ilj
##lige
vær
forsk
dette
mu
meg
beg
##aget
hog
gora
##yd
igen
so
el
##kter
su
dr
vet
land
tv
##lighet
##ret
##asta
hos
of
jobb
ans
produ
va
##ine
ni
forb
##dom
##ust
ja
inne
idag
hun
##kon
##det
##øre
hvis
sitt
fick
sjalv
##yk
##elsen
anvand
##agen
kor
end
##eb
10
##nes
ratt
tva
pol
##elser
denna
##ef
bed
hitt
##lar
##øn
##app
sver
kop
##jen
skol
rad
mass
##ide
##fr
##iver
##eder
kont
andre
hela
##nas
seg
olika
fast
##bar
te
ka
saker
##elig
mest
##pt
dom
denne
mange
utv
##io
##aren
borj
hø
##æg
fakt
##pe
nagra
dejting
##ativ
mark
ingen
im
rikt
##ym
vikt
las
##br
##rupp
eg
star
bland
maste
##nar
##lev
##ader
sna
##pel
##ager
frem
##ings
slut
bo
forst
vir
gam
200
plan
##stem
kar
ad
pen
##els
am
ble
nya
##inger
foret
ab
##sker
##ju
##hus
hall
##min
##met
##fil
mor
##holm
by
meget
##sid
mann
hjal
##ighet
pris
##øb
##mark
sal
na
##ps
kj
frag
varit
##ow
ned
##fatt
18
##ninger
tal
lin
kanske
hans
gra
kn
enkel
tar
inom
tran
##ille
##val
##tter
##ven
natur
vag
grund
tyck
moj
hu
##led
##jekt
##rum
##ød
ham
##by
ant
##ister
##takt
fatt
behov
##sc
##hand
##verk
sol
hal
##ikk
ly
ro
##asjon
##ont
##lem
bok
##vet
##cer
##str
alt
lik
##ts
la
mellan
##blem
##digt
red
ord
##kte
##pro
hus
##fl
dessa
##utom
vide
mitt
##eter
bill
sverige
stad
##sten
eu
sø
##bo
lar
hol
##borg
##atten
##este
syn
##elt
arbej
kunne
##ella
fot
veck
vor
##ades
##idt
##dan
##yll
##enn
##ider
mod
the
ater
he
spe
##hold
##vik
læ
tur
just
ur
15
kort
mere
innan
vilket
lever
##akt
egen
inform
stock
##iner
##fall
ner
##olog
##før
jul
hver
##van
lø
bak
##alen
##ata
godt
ste
12
tag
besk
dess
##nad
etter
##nen
##ha
annat
##stand
##gram
##empel
ca
em
stockholm
##orna
##ten
ligger
alltid
kontakt
fam
##orde
dis
##giv
nam
##rekt
##istor
sammen
ek
problem
porr
##tra
##iva
vel
##ial
tiden
batt
bro
##iet
##ationer
stora
sh
##nem
ev
fall
##iser
basta
tror
##ran
kro
##ator
bør
massage
##esta
speci
behover
##sv
##aka
go
lok
kall
kvinn
##unt
##sson
##oj
sina
aldr
##med
sager
lu
ger
tek
tilb
porn
##skar
##heten
behand
ge
kost
ban
koll
svenska
styr
flere
mindre
##anden
bad
sik
##di
varje
vart
kunna
pre
##igare
folk
eftersom
##rakt
byg
##ander
ville
##gt
medlem
we
skriv
##cent
##lighed
##mal
bare
kval
##sn
##slag
blog
esc
mus
stall
##par
mil
onl
tjej
##ffekt
polit
aldrig
##ard
fant
vores
##jud
føl
bort
##ester
##æk
30
##sh
samma
varl
##ition
##rade
komp
ret
gick
off
gjort
tog
##utt
##oker
##unkt
##vær
##arbet
utveck
org
dating
hopp
##ve
11
konst
sak
valdigt
bliver
samtid
havde
##red
##bild
hor
latt
riktigt
##ipp
##fin
hjem
##ian
pass
sma
flera
nye
##ert
##kv
mannisk
##elle
##kring
stort
fi
##uter
deres
full
ra
ele
forv
sist
hele
tycker
intr
art
trad
hvad
##tag
mis
milj
bilder
##dens
##ob
com
tor
have
online
eng
lo
app
##anska
start
##ubb
dock
snabb
part
##skil
result
information
##øg
##konom
##ct
##ratt
galler
##delse
kunde
##heter
gener
foretag
escort
##iten
##las
##yt
rel
co
##iken
lov
stat
##radet
is
##rift
##etter
mina
enkelt
battre
gjorde
mø
##upp
##under
##orter
histor
noget
enligt
første
##ordan
tel
##iker
inv
tha
ditt
eks
##rev
##lut
nytt
##unn
sta
##olig
##river
17
##berg
##skol
##lagg
##gifter
##ars
pres
dagen
soci
##anis
verkligen
film
16
##samm
stør
rek
##ellt
langt
##istr
kvar
fortsatt
inst
##stad
sadan
##ind
##ksom
tim
leg
bygg
##ice
##øj
##pen
øn
##oka
effekt
mas
grupp
komma
post
ren
##andet
krav
hvordan
##orer
store
klar
ben
14
aktiv
tekn
##atte
erb
##ina
tillb
kron
svart
anda
##spl
jam
##nade
##nat
ag
uden
my
haft
##aler
tack
##lingen
##arbej
skall
os
bi
stod
sit
direkt
##mel
bel
rum
##vag
stu
ung
sc
##ite
nord
derfor
runt
##rik
##fer
##ioner
forl
noen
##dagen
fler
pu
kat
##ære
kur
##ationen
siden
exempel
##orgon
##sel
program
kvinnor
redan
lev
##dere
personer
ov
disse
lam
nett
ansvar
met
##øm
##hav
##vud
##edet
lat
deras
svensk
##styr
100
int
manniskor
ba
ven
13
euro
##iter
mon
##adde
##sammans
resultat
tidigare
fem
fred
po
tillsammans
via
dit
##dent
##ift
hvil
##cis
##ingar
as
##slut
ener
##mo
##spro
annan
fantast
##ung
##iller
lidt
hitta
##sfor
projekt
##æt
##ionen
##rar
pas
##efon
beslut
##beid
dina
##andel
ok
video
vand
kult
##gor
san
kvalitet
##oligt
##fol
lav
##bel
sar
ne
bety
sjuk
kropp
##kes
##ip
##asin
hjalp
##yra
##sat
##ges
##uld
stra
##ren
disk
25
##uss
lige
glad
pat
darfor
webb
##tte
typ
fre
nogle
ob
tillbaka
mand
tem
son
beratt
##reg
ute
##illa
plats
infor
dam
ide
##bart
køb
betal
gennem
honom
##tern
mid
tjan
huvud
ih
##still
##bru
liten
næ
##gende
kvall
kna
##orn
##føl
##raf
stand
lyck
hemma
do
traff
system
##res
stud
funger
##fekt
##ukt
samme
vej
dra
sov
##xt
nær
mojlighet
henne
##vid
##anger
##skab
50
lange
noe
verksam
hadde
halv
##let
ars
##okus
##of
##læg
høj
000
kul
titt
gre
anal
danmark
været
match
antal
bas
hund
ofta
##ies
saga
##aster
unders
##rak
nok
##ivt
##bland
rund
lika
##sade
ak
priv
varm
menne
gav
dessutom
dej
##ald
mater
##one
flytt
##kur
faktiskt
fan
jan
##amma
serv
mag
hov
##ellige
bild
##erat
##rat
##lek
bid
kanner
00
##æng
cent
erfar
nast
tjejer
##ads
egent
litt
ul
mobil
fokus
##klar
##jan
pla
##anter
##ummer
kultur
foren
##kor
super
kø
##esser
snart
viktig
joh
##esten
anvanda
##leg
heller
vatten
##ate
ror
pos
##stra
fel
precis
dal
blive
rak
##ivet
##lad
kanns
funktion
##up
##gift
gjenn
kap
kal
unge
inden
gjennom
##kop
##sf
##ember
dog
sett
##bol
##ron
ter
mellem
yo
desig
famil
##smal
telefon
vack
insp
gote
ang
##omm
kamp
pengar
sikker
organis
##illar
finans
krist
ho
##vand
##otell
##icka
##ban
##sdag
lad
goteborg
##kan
produkt
spør
##ond
bliv
hennes
intern
dk
##saker
nov
ganska
##drag
kraft
##pet
aret
norge
samtidigt
##jar
##sattning
gu
inget
namn
##ons
##bud
##iss
##ligere
moder
##dende
fordel
musik
gør
dagar
tot
##cept
bag
ps
##sch
kontro
##ystem
but
kred
livet
sæ
knull
##æll
hin
hjæl
dy
##grupp
klart
sommar
sw
fø
und
klass
##ksomhed
utbild
pri
pop
##ins
ap
mode
##stallet
kopa
##erar
aldre
utfor
rigt
ting
varfor
##dar
publ
cy
storre
##ras
##naden
langre
fri
nastan
vilken
##bro
event
extra
gud
##edel
##ænd
##iden
borjar
hoppas
##rag
##iger
##jor
træ
helst
gode
vax
spr
alltsa
omkring
##ument
##alla
##ogen
bek
fordi
rom
produkter
side
hotell
##sin
vissa
perfekt
##gere
##tem
##erade
tom
senaste
ganger
istallet
behandling
##lys
ram
##vin
artik
annu
##jur
##ternativ
bud
bred
tak
##ital
begyn
##nader
ring
slag
bon
blivit
procent
##kelig
gott
hot
fag
sand
aktivitet
nav
ønsker
mulighed
##ært
##ry
folj
2017
##aga
vidare
aller
##sida
tillgang
rapp
##ivers
##ise
kons
sang
dansk
erot
##ium
samman
garna
skriver
tav
##cc
forhold
##sikt
##edes
let
rev
##gj
log
##ører
igar
forskellige
nem
##fik
##spel
kam
##ograf
##farande
ibland
nasta
##undet
deg
topp
lak
udvik
##eng
##yndig
##atter
test
vilka
offent
199
minst
##essen
##gør
omfatt
papp
##fors
innebar
lj
ens
skj
##ike
elever
familj
net
##ub
##rukt
utt
haller
borjade
komme
##plat
sagt
##dann
dok
sjal
fo
trots
uten
##eringen
bol
24
brug
##elses
dejtingsa
registr
##ny
forut
2018
prakt
##hor
ekonom
sarskil
andet
##ux
gamla
lagen
##ledning
hast
fik
dine
21
bost
##dater
sista
luft
car
##eret
##als
visar
jun
data
senare
arbeid
sitter
##sak
prø
ytter
fortfarande
sær
##juder
halla
spar
hoved
thai
anden
kol
sch
##kning
##øy
hende
børn
blogg
##iz
##ræ
fore
##cka
ko
free
vant
##nam
40
alternativ
vare
##raft
gøre
##band
enda
##ure
##plan
##ydd
rik
forand
hittar
bedre
##nads
##alj
ungdom
enn
##rett
22
lille
præ
##end
bal
##int
endast
esk
##ffe
univers
inga
porno
##ue
list
##joner
kunder
gjør
energi
rett
##he
popul
mens
vært
besok
lasa
##its
##lø
bev
##erad
##esse
##amm
kjø
sing
##aden
mamma
giver
##uren
risk
gir
framfor
tips
handel
##ko
##set
resp
##bor
omradet
##tera
##drar
skar
rundt
gangen
dro
kredit
##ocker
situ
fint
##handling
gatt
aren
##omen
nr
knapp
fer
fly
casin
##inn
##af
virksomhed
##ateg
##bin
##pas
##sett
danske
ander
natt
inde
inkl
##ank
fragor
fal
ofte
væl
hva
##jo
nej
inspir
vol
ihop
alder
erbjud
##ække
fisk
anvander
samhall
altid
lek
bast
##lam
##vs
##sport
mye
kansl
psyk
##ity
spela
##unden
soker
##entet
##spunkt
finde
##hj
fod
##ht
verden
sim
sund
##fri
rej
hy
##vard
kok
visa
pros
tyd
##ligare
host
##otter
##bara
ovr
grad
les
##gjen
jord
##estaur
##hver
flyg
tilf
##ansk
sine
storsta
social
prof
fav
##isen
##aten
mojligt
##arer
stan
##sst
ton
restaur
stø
slapp
trev
2016
si
regler
nak
sek
los
##gav
##sæ
snabbt
it
skr
2015
vard
##ighed
##ong
service
bry
posit
##ror
borja
##ph
betyder
jer
borde
fina
##nt
##raden
først
material
roll
mennesker
tanker
maj
##ari
web
##gte
matt
##vej
eget
sidan
##rader
timmar
internet
##skin
##ender
lær
usa
set
dyr
##uta
blevet
##ham
sjalva
gol
slik
farg
fyll
##spr
gro
##bygg
##ommen
##svar
##aa
flesta
##skriv
fyra
fys
haha
varlden
##ly
amer
plat
sem
##sol
tills
##gre
høy
morgon
egentligen
verksamhet
##alog
##dejting
##sted
##star
##ral
##øde
viktigt
skolan
##klart
##full
lokal
gillar
handlar
tidligere
##lade
stol
tred
sport
tank
konkur
vecka
##oc
sil
arr
##nande
gem
skad
##slo
klubb
##lin
##film
##au
landet
nation
vanligt
##nu
##ay
##ers
blod
framtid
stark
vok
ry
arbete
##ikker
vigt
skapa
##anda
jamfor
23
minuter
##kort
##mes
nara
favor
forslag
læn
dec
tæn
skriva
indiv
lug
##ension
##ich
vak
##mor
##so
lilla
dags
##itut
bada
##lan
privat
egna
sker
stil
leder
skyl
ljus
arbejde
engel
hej
ej
opt
mel
gerne
aug
mm
me
##delig
made
sted
##ifran
sverig
natet
##æv
##snitt
##sag
ovan
##igheter
fikk
internation
##anske
2014
sep
eventu
##anser
forbin
tilbage
beskriv
valja
okt
juni
##lever
bu
##til
chr
smak
arbets
fest
brukar
gjøre
kvinder
##rikt
veckan
##lat
tu
cm
videre
aka
jon
alskar
rost
##gard
kir
emot
hurt
apr
##eln
##rig
nød
lagga
design
vit
maske
##haller
##lo
##ib
##spekt
sym
kara
cir
rod
##otek
norm
him
bestem
viser
medan
massa
kroppen
##eras
##len
hard
fas
inf
fraga
##use
##alet
ac
##lex
vur
recept
proc
dagens
kring
malmo
##oder
##xx
sida
større
##ansen
sok
vanlig
bedste
pe
eta
verkar
skick
##visning
fredag
mad
valkom
##kta
##ensen
forh
##byg
samarbet
natdejting
##endel
sidste
kopp
utveckling
prov
deb
betyd
dejta
tage
##annande
kompl
kompet
gym
ing
sat
##rer
##sakring
dod
60
##anga
erbjuder
##kker
port
##ygt
##ksjon
##hl
##ona
roligt
last
ifr
bank
narm
##mid
##lla
matte
delt
##ix
##fe
##ots
intress
tanka
komment
lor
perio
##ession
alls
##samma
##ida
##po
##enskap
##syn
forel
ses
##plats
fantastisk
kronor
id
delar
fe
install
bus
hander
##book
borjan
##part
trott
vem
sall
talet
deltag
annon
passar
oplev
##egor
elekt
##andra
##betal
respekt
##ish
##oter
##bok
yn
##enhav
##grund
jatt
##huset
sør
date
universitet
##ient
##verket
##vir
vux
virkelig
##ologi
sten
##ca
æn
lagt
sla
vanner
fanns
siger
casino
kil
##ført
##nal
ten
tillfall
erfaren
mj
##agg
ph
##enser
arets
##ytte
fon
##deles
##pon
##llen
sveriges
vinter
repr
foral
feb
billig
ark
meter
forra
kre
##stid
samtidig
##off
##elige
bestam
##dte
mellom
bilen
##sidor
mail
stadig
aktu
##pan
##les
##oms
jobbet
pal
sort
hum
glas
2013
region
filmer
##sper
københav
ogon
kommunen
kanna
##holder
rigtig
forfatt
djur
##produ
face
sarskilt
utanfor
##koping
##dering
##revet
bruger
ford
motor
ske
max
lun
arbejd
bestar
##imer
eksempel
kommit
myndig
##derar
tren
ww
manader
spill
absol
karl
kvinna
##splan
øv
cl
ata
regel
##bord
##port
##bas
##co
vagen
økonom
løs
hjalpa
invest
indust
avtal
bur
##ash
regn
hvert
##atta
##ild
##skaper
prat
##ement
synes
ris
##iel
##kn
bla
dere
##ega
mine
klas
26
skill
##stre
janu
stam
norr
##fa
##eds
rekommen
##ober
godk
sommer
krit
amerik
allerede
tredje
sakerhet
tjen
##atet
frit
##ikation
##assage
samtal
etabl
give
##sd
igang
gamle
smart
forstar
varme
presenter
bruge
pot
kyr
ass
uddann
skont
avslut
28
##komm
stopp
forsvar
genomfor
yr
tol
klock
igjen
ve
forskning
##ode
##atur
johan
søn
##ativt
27
##dera
nogen
forklar
##icin
con
gi
akte
www
##dags
hvilket
laget
##stol
huset
##tre
fj
##ink
##ningarna
affar
##skapet
utvik
##sj
##jter
unga
##emot
omrade
##agt
##oende
kolla
spørg
##olit
varandra
miljo
utr
tradition
lej
forbindelse
taget
##anta
bord
bruk
##rack
bolig
##skan
veta
innehall
wh
faktisk
tankte
tagit
##bef
eskort
arbetar
##edag
anstall
skrev
fjer
special
##oo
boken
facebook
igenom
tri
imorgon
allman
septem
dokument
syg
veckor
gul
noj
tryck
september
annars
##fte
norsk
##her
##ienter
oslo
##back
sakert
real
traning
still
driv
mart
2012
barnet
ytterligare
august
##sad
new
server
##sav
interv
lyss
stk
elev
##oren
holl
##aljer
##ab
ru
titta
svært
mit
dor
hud
upplev
##dene
altsa
##ktioner
tysk
##kost
stund
satta
april
enkl
profil
blandt
##arn
vann
mak
rent
otr
fores
fix
meddel
forsoka
passer
##ses
##inst
##varr
november
syd
##rav
##samt
##foren
oktober
barnen
kund
##øk
manad
##ore
##boll
od
##satte
##lagt
##legg
liksom
annet
##sket
utbildning
fir
teg
visst
spørgsmal
nj
defin
##pass
klader
##atisk
inlagg
holde
##50
fyl
##inde
skil
can
bruker
##isering
grunn
kunskap
autom
tyvarr
christ
km
##iteten
sur
span
##ita
nødven
##slaget
29
##frag
##za
##gelig
back
fungerar
europa
##ruktur
ekstra
mill
ir
hold
saledes
medel
##utter
mind
varde
damer
steg
##gaende
sent
trafik
skap
prin
krig
##chen
niva
betala
kommune
totalt
anvands
##agra
spiller
oper
kategor
resten
veg
tit
norske
##eden
oav
bj
198
spelar
##lund
##kr
##mon
fro
lon
heter
hom
ras
##isten
anbef
filmen
hjel
bakom
sad
drift
mænd
kart
##ette
dist
nedan
##kk
qu
tus
lamp
adr
ifran
##angen
spannande
##ikke
nyt
tilbud
foto
uppgifter
link
lara
priser
##arbejde
muligt
##ias
innehaller
##tes
##iella
bod
##ations
neg
ident
##lysninger
tex
##sidan
traffa
lager
fleste
strateg
##bered
##kret
##ælles
##heder
##ton
personal
sason
oft
samf
vist
mott
##qu
##veck
##serv
kunst
finder
mys
skog
endnu
##gs
blom
helgen
len
gæl
forbatt
##ligheten
31
team
aktiviteter
individ
##ism
##itter
##ckt
##ith
##dige
##lands
##kvall
##æss
forandring
##ange
forsok
københavn
##eligt
2011
klipp
typer
spring
energ
fær
stem
later
##heden
andel
##oret
mulig
##sex
##tering
lys
##sar
stedet
##person
##staende
##samling
utom
hjælp
2010
sant
grøn
aut
##ema
##atan
jobba
##bli
##dringer
dejtingsajt
parker
kvallen
række
hogre
cykel
##skade
vers
jav
naturligt
aker
skade
admin
faet
bit
forhall
analy
chat
80
##samhet
speciellt
##komst
##skud
##ach
##tak
sexiga
kand
##blik
absolut
knulla
kontroller
##kten
tager
xxx
##øger
##bes
pan
rapport
produktion
gange
viagra
##20
glom
hjalper
timer
scen
are
fig
sier
partner
dire
handling
##mere
##allet
##uppgifter
butik
##orden
sprak
##ansvar
osv
##rott
folja
##egg
##hov
fastighet
rut
##vist
rol
##blad
##strom
##ica
##skad
##platsen
miljø
##endes
##ben
##emang
skatt
##eta
##ota
bestall
##namn
valjer
teck
70
brand
##ding
arrang
medicin
##isa
##har
fragan
normalt
enkelte
##skatt
##ane
transport
mær
forsoker
punkt
oavsett
##ften
##æm
valg
plus
senere
##skri
tun
kry
mener
##umenter
sty
berg
thaim
500
##but
##idler
ons
varen
##ey
upps
oppna
mandag
industri
fire
##ork
pra
fart
public
##arnas
##vent
##ions
følge
bilden
##dring
tilby
uppdater
juli
##rust
##ifier
kombin
vaster
fælles
middag
##erer
mog
kurs
ungefar
gemen
soder
standard
ital
##varande
tanke
integr
mars
197
trygg
pappa
kontroll
hit
tjanster
text
givet
hvorfor
stre
gravid
##sent
blant
hjemmes
fortsatta
tand
forutom
out
december
##lle
supp
tyckte
største
ful
vast
##mat
##sing
##ugg
dels
prem
htt
##inar
erik
##føre
forvar
spes
45
læg
you
jes
foretaget
snygg
lave
otroligt
##san
resa
dju
uppta
##otten
skon
lander
rab
dermed
##iat
bedom
nummer
begge
goda
lamna
febru
tab
nemlig
fyr
vackra
90
detaljer
##satta
varldens
live
befin
forek
##asser
beror
guld
politik
##ygga
##uden
##kont
effektiv
##tryk
##skor
thaimassage
dage
udval
favorit
peter
cam
nan
varld
slags
##fyl
ovriga
##pper
##øs
##ningsm
vanliga
##gn
##los
tavling
amator
jobbar
##okrat
oster
vatt
##tere
varier
ivag
##nytt
35
lop
##ba
bloggen
resultatet
klockan
kri
kræ
finner
gall
##mær
længere
##sæt
ingar
oftast
##evel
rapporter
ljud
##tet
begr
bat
ed
stallet
udvikling
##kant
findes
kaffe
hjart
##ola
sju
bostad
sikre
nod
dejtingsidor
##sut
##unde
lund
væk
##derne
char
##isjon
##verkar
##sekv
viss
anledning
##igen
naturlig
siste
hør
bygger
teknik
##seende
dejtingsajter
##orm
bem
varmt
tillverk
artikel
##sigt
mun
##skrift
chef
vilja
##ktor
trak
##dat
##uten
sasom
bog
##gas
arm
reser
alldeles
##asjoner
forvalt
##foret
##ryck
spelare
##gene
cirka
gik
##gangen
arbetet
##punkt
malet
##ante
kontakta
midt
brost
band
##ruk
##ora
not
##giver
##skabet
massor
utman
salt
søger
##fyll
diskuter
jour
##arbeid
laser
##agare
dejt
blitt
bonus
arbeta
##øv
##agar
morgen
skole
drom
##garden
slipp
2009
delen
framst
forsakring
##any
miljoner
kvinde
##itu
behovs
hens
marker
princi
frisk
##oven
##skl
##skaber
forbi
sann
##mann
##ista
##stil
##unkter
##arta
present
hyr
##sg
darmed
slutet
projektet
tilfæl
repres
forest
inklu
fullt
ager
administr
##por
##delser
wid
##eren
foljande
yngre
informasjon
relev
fang
##gangspunkt
hvilke
##eller
vest
##ment
veldig
kopte
##iale
ref
##isar
##otte
##dde
isl
natten
##folk
hoj
fruk
park
fy
medier
centr
delta
##cy
##aret
frukt
erhver
##ativa
brans
solen
profession
beroende
##gaver
intressant
##allt
rack
klok
##ffa
##ule
##lede
##bler
anvandas
flick
##ific
dubb
##skott
fu
gron
##eld
gammal
tok
##ftet
statist
piger
muse
##fra
medarbej
kande
cook
samband
##smark
semester
erfarenhet
exempelvis
hendes
##rige
kravs
##klader
torsdag
top
namligen
antligen
intresser
##ettet
dvs
promen
##endelse
sitta
tw
vind
##ssystem
daremot
##ake
alv
sikkert
ot
dare
konto
foræl
##slan
##givning
finansier
menar
oka
ansok
selvføl
press
institut
sige
uppdrag
ill
avl
frukost
penge
##ep
finne
helg
arg
##ppar
##ingsl
tør
##kast
prote
##ii
overra
ikvall
lata
##redning
##cke
##sats
konsekv
modt
prata
##hen
fej
kora
liknande
##garder
##skolan
sadana
##dret
berattar
vas
fitt
temper
offentlig
ryg
seks
##urer
##itar
hurtigt
anmal
goog
plads
##jarn
##mm
gift
fritid
hjemme
direkte
pension
##ørende
##ikring
lage
blot
##cep
##hæng
plast
##ana
satte
fuld
hora
drag
reklam
forvant
##folj
bocker
ganske
tale
##bur
programmet
navn
fotboll
darefter
glob
tas
##enting
organ
##oden
næste
tio
##fritt
mannen
hittade
riktig
ume
##emal
spil
##ance
gran
##urs
##kende
##add
##ual
medlemmer
##yttet
##gave
##rog
##bu
##fort
cit
dri
reda
##ap
anna
klicka
kostnader
##mera
triv
investering
grader
serien
##ementer
##holde
avsl
hotel
trodde
sommaren
kin
##vel
placer
um
bygga
italien
196
mej
valj
lunch
skul
2008
ensam
##terna
##ancer
##skt
dest
##ld
rull
lagger
##sattningar
tatt
girl
##remt
ordent
##sorg
langa
langs
musk
vanster
##inge
##kken
personlig
uppsala
innen
hell
relig
læs
finnas
sjalvklart
lyst
sjukdom
hemsida
fotograf
##ologisk
brott
##ækker
viden
jur
##ight
kommunikation
klim
skicka
verkt
beste
##holdet
##ialis
sova
slutt
##følge
##skydd
##styrelsen
billeder
tillegg
hed
købe
følgende
##alder
klara
personliga
jack
selvfølgelig
##æde
##nummer
36
##zny
holder
skrift
behova
##ordning
pap
gymnas
##rapp
maskin
dla
plac
vælge
tankt
mik
##ips
##ama
yder
farger
##iveau
dans
##anych
##owanych
##behandling
zalog
ingenting
##oczny
widoczny
zalogowanych
##erte
allvar
rim
maten
rec
studen
poj
##umm
ellers
kast
nyhet
sundhed
skyd
stress
##filmer
familjen
##iteter
foljer
budget
vigtigt
forening
eneste
##agn
##ump
rese
løn
##iens
black
gay
##program
##ative
##ierna
alko
gikk
##iven
##eres
tider
bidrag
digit
snar
vantar
medlemmar
erotisk
undersok
sadant
##forande
misst
##skon
##verka
up
helsing
lordag
nojd
ah
anslut
hvem
ep
kommuner
entre
engelska
forhand
chok
vore
##iod
##iti
##rummet
##verkan
valkommen
sms
##ikken
historia
studie
##platser
kg
hart
##ligheter
steder
innov
##leks
bruke
##ands
hant
like
regeringen
fortsatter
næsten
intresse
sats
omraden
je
##ærer
foraldrar
wor
##bi
journal
poang
forekom
300
patient
##bon
##elsens
byen
kant
borjat
nø
lock
##kraft
##stallning
kram
ore
tilbake
##satser
shopp
prova
forsalj
foran
fremtid
regering
##pris
##urser
størr
dator
##iko
cialis
dela
##øver
kjen
##dning
##mun
stær
##stor
aftal
##hal
utmar
##forb
dejtingsida
##nit
marknads
ont
videos
daligt
samtliga
infl
lill
bibli
prosjekt
enskil
brun
exper
##iste
##stat
##takter
hjælpe
karlek
frank
##ssel
##cen
handler
##ved
tillrack
skydd
anders
##rid
prior
sidor
problemet
litet
visade
stabil
ken
##centr
utifran
refer
maneder
uppe
ky
##deling
uans
tidigt
##ovis
bolag
masse
bom
kollekt
##assen
##garna
centrum
info
forbru
ple
forbered
##inister
alkohol
spæn
mask
familie
herunder
minutter
arbejds
##ykker
digital
##lare
etc
platser
##dem
spa
##rup
tema
##skje
accep
kvinner
brev
with
larare
penis
hogt
skit
dre
nyheter
kør
uk
##okt
tvatt
mindst
hang
egne
##ena
gal
lind
problemer
lære
batter
##fun
kapital
især
modeller
voks
us
##edd
##ktionen
vald
hotellet
arbejder
svara
umea
forstas
##vn
ald
gast
##esp
motsvar
patienter
klin
##best
##omradet
hd
##enta
##ting
hæn
plock
##fær
beratta
halsa
ost
skrive
##stilling
##hem
støtte
ku
##uts
staden
amb
##arbete
sky
uppmark
sub
##aner
begre
venner
##kede
leva
##zz
serie
lokale
icke
nodvand
##hang
##mant
fla
vurder
stig
##sla
vader
villkor
vansk
##igg
elektron
strand
hamt
eftermid
borger
prøve
dav
vent
01
time
##rip
vari
framgang
vardag
if
##kendt
samling
rolig
organisation
gjel
##fører
jak
bevis
læse
##anen
##vart
gruppen
igennem
##æller
##hu
##uell
fored
##usive
forskj
aften
ulike
lesb
kalla
##lov
overt
cookies
tanken
##uella
sondag
kontor
##ho
forn
kraver
got
former
ax
anser
##bruk
avsnitt
europe
konkret
oplysninger
jorden
rid
32
ena
bekv
saval
2007
dalig
antalet
##vall
salg
kanskje
elsker
kroner
særlig
sej
salj
kommet
##bilder
respektive
januari
ideer
exakt
sor
underhall
utveckla
tyskland
kak
sociala
lavet
##sor
##skole
kuk
onsdag
dele
skøn
undersøg
##adem
allra
søker
almin
##laget
hoga
##onen
##we
nakna
gjen
lade
##etten
besø
##iment
skola
sangen
##ætt
skabe
løb
skapar
egentlig
folket
udfor
##ase
ifølge
samarbete
samlet
katt
##hel
##janst
##delige
historie
makt
avgor
samarbejde
##smilj
##ura
##aterna
kandes
##ningsl
laver
camp
##orda
himla
##sr
drog
avs
orig
mogna
yt
onskar
trans
trevlig
##inal
mojligheter
gard
selvom
ene
lagre
vitt
##gruppen
situation
lyd
##bt
grupper
mera
møte
##cker
##teck
hvilken
33
ude
##sken
##asjonen
cre
mening
stalla
kata
barne
menn
lars
##landet
##ycken
##øren
milf
bestyr
##dena
systemet
ug
kille
##inder
##kommen
anvandning
diskuss
##empl
stats
cykl
##bev
viktiga
mol
undervis
slar
##utbild
##ytter
job
toppen
##ada
friv
##ube
kott
overv
##ex
##ilt
enten
tant
helse
194
onsk
struktur
don
platt
##ire
ovrigt
##ielt
boll
seri
senast
skratt
tæt
##ikter
forum
lagg
æl
##gren
trevligt
http
maned
soka
erbjuda
##delning
hoger
fat
jatte
##oppet
kommentar
studer
revis
gammel
grav
kem
netop
2000
##gjør
##ringar
vise
bruges
skor
##ih
overfor
##center
##oga
##ppe
berak
##phone
luk
##istisk
foreningen
skillnad
ster
stal
giv
##nede
bidra
finland
sot
skam
google
##stans
trana
drar
grann
demokrat
garanter
inspiration
spelet
pul
hals
##ningsvis
framtiden
lana
##imal
bir
##jekter
##igh
visste
total
plots
nettet
##oster
##ction
intervju
yrkes
værd
kallas
undervisning
##jendom
dusch
uttryck
nagonsin
naken
##æder
lattare
##arder
##anse
tum
##mus
tube
omrader
sno
mjol
intro
##spektiv
pin
##sætt
kansla
stockholms
frivill
##ball
##sprogram
straff
webbplats
konkurr
john
enbart
will
stang
##føres
fantastiskt
uppgift
atgarder
forbed
##laggning
fru
##kommer
fork
skrivit
spille
studier
intens
ext
satter
##ppen
##our
##andes
##delsen
##ima
perioden
sjukt
boende
##10
vacker
liges
uppskatt
kunn
okar
lyckas
bygge
njuta
##freds
verksamheten
virksomheder
porrfilm
##ielle
general
vanta
dum
utnytt
08
alene
relativt
fjar
media
##ifte
kas
##chef
##sled
sider
forvent
jenter
##skont
gælder
##ctor
naturen
##fest
testa
##pren
##teret
foreb
analyser
datum
##ungen
saknar
antag
##ior
##terar
lokala
##ose
##fly
miss
##rede
##æring
tilfælde
sorter
servic
ansikt
funktioner
##ile
adgang
##ustr
##edagog
prioriter
byta
##own
handla
##ppet
borta
##30
maria
##vers
dagarna
kapit
besvar
saken
laga
hogsta
korrekt
##anten
konstater
leverant
producer
##una
lett
##nare
dotter
oppen
møde
##ukke
##utveck
boka
arkite
utmarkt
saklart
konfer
##skrifter
modell
##skomm
##out
storlek
drabb
omsorg
ip
2006
undrar
##urt
symbol
##uer
##dal
sum
fantas
col
medvet
##roll
augusti
##ykke
knappt
##spar
stille
07
##stæn
mg
utover
##ood
kommentarer
verdens
dø
34
potent
iaf
følger
##system
##ktar
redu
##arken
garant
tviv
opmær
lakem
##beh
##dighet
namnet
radio
09
fx
##ykk
idrott
mult
vuxna
##ffer
hosten
huden
oven
pga
ejendom
hjemmeside
##derna
paket
tru
##xa
##lunda
erfaring
##istan
afgør
marknaden
##snit
desuden
vall
lyssna
##ledningen
tankar
retur
lagenhet
75
mjuk
##bert
orebro
afsl
alvor
##ente
##aterial
metoder
##liv
grill
##larna
verktyg
bilar
##kj
forp
##emat
nil
##mod
##ometer
sluta
##erande
klubben
historien
øje
pavir
sagde
indtil
spara
formul
mør
national
formid
masser
hygg
starka
stav
omgiv
ældre
vita
##ylland
kunnat
karakter
air
plotsligt
##ya
pil
overens
dersom
januar
##histor
##iell
interesser
skatte
skrevet
mich
site
martin
tillrackligt
ingr
jesus
##ømme
halso
ori
pige
##agram
##hund
##klubb
##bum
##press
sæl
løbet
bestille
fantastiska
##stav
##ius
student
##løs
miljon
##stod
rock
skolen
sjov
##ernas
##bolag
finnes
hinanden
spændende
##makt
##skning
##værk
impon
##lande
yout
sikkerhed
enorm
##erede
##amin
øst
tidspunkt
priset
sos
formal
skov
##ower
oke
##organis
formod
##ole
skru
normal
ligga
##ms
55
nack
vigtig
carl
ordet
city
lækker
##sdagen
kjøp
##fald
forsvin
##medel
konser
samhallet
kyl
nas
##spart
##mot
karri
##orlunda
ihag
slog
utgor
sens
##uelle
havet
ekonomiska
##yp
timme
publik
brugt
tillhor
javla
mesta
bre
##pat
naturligtvis
tyn
tillstand
offic
framat
harligt
##skyl
ansokan
##givare
rem
vattnet
dukt
##ugt
##ksis
enhver
##brug
hurtig
##unders
rummet
ordning
##pos
##dels
længe
nagonting
##kal
gas
figur
medarbet
utbud
##vaxt
##ila
uge
opplev
tall
anses
master
narmare
##isse
positiv
rød
vinna
##brott
sof
tjanst
##ellen
folke
ordforande
antingen
neder
restaurang
fortæller
planer
##alg
##vok
sod
##fon
##holdt
kjøpe
##ygge
golf
lack
##eratur
buss
##rin
##kopp
vagar
lærer
driver
##atch
##fang
rest
##ics
##digvis
minska
kommande
##orten
urspr
monster
##ogg
spra
smal
børne
##start
vuxen
stick
##omrade
lekt
##illing
undersø
##aks
tids
##elefon
forud
rosa
##ble
##ori
bekym
passa
slakt
rea
##ffan
mangd
sku
rygg
kunden
play
38
flytta
##ident
objekt
bereg
aktiver
radd
##usjon
##ekn
##sminister
betyg
##mest
kjent
tilbyder
fry
personen
strax
besøg
##kade
utrust
big
##offer
fett
##kat
##imul
angel
##ival
rus
forsø
konstru
##holds
400
takt
##rigt
endelig
positivt
thom
februari
matchen
udvalg
##vi
højt
hjul
inb
rette
ordentligt
##uel
huvudet
blomm
##fiken
stranden
##okr
høre
fitta
valgt
bestemt
offentlige
##beskriv
okej
position
rader
##fal
uppfatt
##sig
generisk
##kere
##handel
herr
ønske
##føring
37
##vika
##ful
føler
fysisk
ladda
##arm
##foring
##fir
tving
valt
kung
ansatte
##nere
forhopp
nyck
##annon
finansiella
sætte
syk
forstaelse
##natt
ara
motes
harlig
center
##klag
kær
kig
ekonomi
tillamp
voksne
arbejdet
kommunens
gjelder
hensyn
tonar
coll
dokumenter
komb
ferie
ursprung
##pi
fonster
hamta
39
aar
mote
##skola
klimat
##oteket
fed
polis
pik
risiko
##ningst
##elserne
gun
annonser
##stone
02
starkt
rym
kæm
utred
haret
køre
utform
forældre
##skraft
spelade
fald
pag
betydligt
prøv
195
faktum
rabatt
skjer
beskriver
##ence
##værende
blad
puss
##stalla
05
##løb
ros
forlor
sjun
lond
tapp
##orges
konfl
motiver
valde
##rike
lapp
##grupper
forr
snygga
##service
##denafil
##vara
relation
mom
virker
muligheder
inkluder
##drer
dim
##skj
##igheten
papper
vanskelig
##iets
ges
forvan
modern
##delen
korde
2005
enhet
##farg
sygdom
betydelse
##slagen
##ple
renover
mate
indeholder
appar
motiv
viktigaste
##mos
annen
kostar
rav
##bladet
forte
gallande
underbart
kurser
flash
choklad
show
##jerg
kos
registrering
kjær
bakgrund
datorn
landst
06
##ec
##melse
##varden
bestalla
##ills
billigt
##ac
alex
##dage
tydligt
your
this
spørsmal
doll
##uttet
##oss
laste
fixa
##lysning
##bak
resultater
isra
##enden
pratar
opfyl
ersatt
##deligt
##sakt
jf
parkering
##polit
##nende
hatt
teater
smid
ligesom
underklader
hyp
samarbeid
forkl
##ox
##kam
bidrar
kommen
##cel
jamfort
strøm
anbefal
kontin
youtube
version
##egaende
aktivt
tittar
bedst
dol
hjelp
##forening
one
##endet
koncer
sikt
##egar
introdu
rejse
vat
løpet
lju
##han
sasong
effektivt
fyn
##foretag
stolt
##ids
automat
staller
kompetens
diagn
mov
polisen
guide
agg
##ifik
status
##aning
forret
au
koper
bran
fredrik
##oner
##fot
imidler
gri
##rast
##lor
imidlertid
sammenlig
spender
happ
utsikt
hyll
killar
##edi
temperatur
kostnad
##trol
##verse
pet
##falt
dild
mic
##asje
arene
lugn
bekvam
roliga
cert
ress
##gjort
bolaget
sexlek
##kul
hyres
dialog
lans
##hy
anstallda
humor
kombiner
tusen
oro
kamera
48
erhverv
velkommen
div
london
central
##spolit
##istiska
gæ
kære
##tok
oppet
##itivt
inklusive
dato
comp
fortæll
period
##god
svarta
##ors
betydning
private
hak
øj
underbara
trenger
pamin
##rop
kend
##skede
morgonen
fardig
goras
mangler
promenad
type
##isert
millioner
##eran
04
lyckades
angiv
forhallande
henrik
smukke
##way
##heng
##skift
synd
wik
engang
derefter
##fag
vars
personuppgifter
kompis
ejer
uanset
##ee
ski
studenter
pc
forutsattningar
magen
allig
lant
lanser
##lik
##assan
gors
##læ
gruppe
køkken
bilderna
spise
handen
skane
il
tunn
avgift
rigtige
##skal
instru
aktie
turen
tøj
forsv
nemt
visas
##inget
djup
kontrakt
ialla
myndighet
freder
prest
##vax
sus
##talet
##rit
danmarks
##mail
mikro
sign
atmin
numera
jakt
kopt
født
##rande
##alitet
annorlunda
##taget
##draget
givetvis
##brik
##fs
##ukker
##atorer
##iland
lejlighed
utsatt
holdt
sko
iphone
##ekan
##inen
initi
dyg
arranger
datings
princip
run
skift
##ologiska
betale
praksis
daglig
lust
##sproc
tat
vetenskap
inlag
1000
lista
pool
##fisk
dram
omgang
detalj
engelsk
kommunal
hallbar
hunden
prosent
week
specif
42
niveau
magn
separ
vedr
grym
syns
##smed
hat
##ern
alligevel
stift
##hamn
##ris
intresserad
lør
150
redovis
##ah
drygt
besl
vm
kampen
##splat
hemm
forsikt
anmel
engag
fakta
styrelsen
brukes
sags
sannol
singlar
lakare
formodligen
starten
acc
apotek
utrym
##df
norges
##tar
03
bestamm
##ivan
##varer
##ledes
##beider
besta
ytt
##leva
landets
sprang
lamnar
moderne
vinst
lande
entrepren
smag
##alender
baby
fyller
##tning
uger
syfte
##fan
musl
orkar
konstigt
flot
##former
##ete
##essor
##institut
##slos
##ckar
##onom
styrke
##leder
hogst
domstol
##olut
kampan
stalle
stimul
skogen
##tiden
mogen
forsikring
befolk
idr
ersattning
helsingborg
teen
chans
fordon
##leken
##stø
iallafall
guds
##ningsb
bemær
søk
atminstone
internationella
##dus
populara
falt
##fart
aust
ægte
starta
here
##arbejdet
strom
hort
prim
##uddann
skær
isol
samfund
grunden
##valt
##elles
inc
kors
tydligen
utvikling
paverkar
##tim
akadem
bakgr
##aket
anpas
##hop
lugnt
mord
forbattra
est
arkitekt
##rom
##vo
kræver
singel
gratt
##maskin
##varm
bio
underbar
##klus
##stift
##cher
inled
staten
atta
nøg
65
generelt
hantera
resept
leda
smer
motstand
fejl
klarar
##andt
slet
##sy
##skom
orsa
varum
fiske
tala
##kas
minns
ball
forsaljning
pengarna
nærmere
formaga
vaxt
planen
het
fine
bryster
popular
##niva
represent
eksister
hittat
##wa
sasongen
behandlingen
fac
minim
forelas
midler
bjud
venstre
##dd
uddannelse
love
##adel
##mens
ungdomar
talar
perspektiv
##stam
marken
husk
##vig
##anning
anvant
##ows
##steder
##ffar
##aker
##vikling
##entyr
soffan
tisdag
kirke
pedagog
##delar
rot
2004
##ensioner
succ
forny
øy
##ftig
kombination
happy
##hæn
mansk
starter
sodra
##stru
##stret
intet
sara
kender
løsning
##ongen
marie
44
saljer
evt
funkar
spor
vurdering
salja
vælger
øvrige
darlig
thomas
sallan
stral
indlæg
repar
sexleksaker
##risk
aben
box
##rettet
indenfor
homo
utvecklas
bygget
anlæg
##bred
hojd
py
organisationer
##sø
inkop
okad
##ægt
jarn
##rika
##do
##ress
##gaard
##smæss
definitivt
særligt
##gl
hann
##sprodu
sover
cont
overfl
periode
##terne
misstan
##kval
manniska
##behor
##stændig
slutade
politisk
rig
##jas
swinger
##ønn
##adser
enkla
fuck
##server
familien
aldri
##lader
##køb
mc
praktisk
sidst
svang
viste
##ave
roda
slipper
fungerer
firma
##ned
tekst
gett
##inne
ryggen
regul
fing
syster
##udover
racker
konkurren
stanna
##esen
kjære
bilj
krimin
selve
swed
monter
jap
kandid
##prov
##hets
mojligheten
mobilt
olyck
##kall
##ele
placering
skand
oj
lanet
##bla
##egn
191
underl
bostads
##ness
##ogn
uppen
jeres
krop
##fta
##ugga
brist
sweden
siff
rø
vejen
diverse
ær
thailand
kristen
##ffet
##cken
plass
udtryk
fortsatte
vold
vaknade
døde
dæk
overvej
##skolen
lod
##ismen
statistik
metod
##hort
forsokte
forskol
væg
##handa
christian
46
##th
album
deler
##fragan
garden
##trad
flex
##angd
næv
varken
##vagen
##akning
trum
lopp
cafe
##itra
baggrund
romant
##halla
##alte
fris
##følgende
prins
marknad
bb
varer
##ivitet
gull
gis
vindu
##jej
bø
vackert
##olver
mysigt
attrakt
losningar
unik
find
spesielt
udgangspunkt
allmanna
amnen
grov
##ordin
gladje
uppratt
ron
debatt
##isere
anvendes
villa
tyst
politiska
utvecklingen
##sætning
motion
##smedel
era
##blick
##ordningen
kina
cop
seneste
matcher
glass
##iar
fukt
interess
##eri
##till
spillet
##værre
rattigheter
cas
oden
sæson
##verksamhet
størrelse
erotik
tjenester
piz
line
utgangspunkt
resul
torr
mi
49
springa
mitten
vaxer
grat
langiv
##sporter
neste
klasse
losa
wind
flykt
##annen
linje
skid
england
bestamt
indt
ins
193
nasjon
##gatan
##øse
##somt
##skill
##pu
paul
##ræns
genomsnitt
##ome
ranta
desto
##inner
socialt
britt
stjarn
fet
##mas
socker
##king
fundet
egenskaper
##irt
bered
##enten
befinner
##heim
bergen
jurid
venn
rok
make
ventil
##ringen
sende
desværre
finansiering
pek
impl
termin
kommunik
##roende
dildo
nuvarande
pack
##amen
snarare
vek
unn
burde
valet
upplevelse
##xor
tantra
bror
stammer
israel
down
##indu
resan
kne
strategi
begrans
stri
typisk
medarbejdere
svaret
utvar
milit
litteratur
rob
orienter
##unda
norra
##otta
sammanhang
bjuder
tallet
sajt
sætter
søndag
david
sidder
tjock
omedel
chatt
mota
naturligvis
glem
york
daniel
##bergs
##iew
personlige
forsknings
letar
syr
lørdag
politiet
initiativ
tryk
bete
fungera
fodd
betalar
fn
##terer
intra
medarbetare
parti
politiker
paverka
mojliga
undant
##skat
oblig
imod
økonomi
flotte
rekommenderar
lider
kanda
##gu
jobbigt
kunnskap
##che
væsent
##ptom
##onym
intell
sattet
##sler
##jet
assist
interesse
græ
gitt
##uen
undan
oer
hinner
funder
fritt
civ
besoka
aarhus
landsb
kill
neden
optim
##llop
##lok
søge
41
aktuella
opgaver
betaling
##arens
##barn
højere
sexy
innlegg
simpel
##øst
##sætte
leve
syke
trav
risken
græn
exp
farver
kyrkan
bussen
amerikanska
redo
##ign
##rasjon
platsen
99
prost
mennesk
utrolig
##ørn
mork
tvivl
##ford
letter
malt
##ino
pasta
gaet
koncentr
kapitel
##angt
ack
##lingar
##ric
refle
arv
eleverna
##ros
##slapp
tekniska
framforallt
##jent
##beg
##annonser
aktier
inrikt
##mø
rør
ringa
kallade
representer
mats
drøm
oplevelse
kong
narheten
##ologiske
vinner
##vide
##tokoll
##stedet
socialdem
##bad
nerv
videor
tradgard
43
forskjellige
##sætter
harliga
flickor
##fy
paris
behovde
190
gavle
utdan
invand
##fred
hvid
##skort
##spill
chansen
enklare
bef
##ioden
februar
udstyr
kanslor
gren
mærke
illa
teknisk
##jus
major
lyx
##bed
stycken
bær
nyligen
standigt
##bold
advok
efterhand
##kket
##regler
skada
skra
sekret
##000
sprog
koket
jonkoping
død
rekommender
dager
avstand
##punkter
yderligere
paverk
kines
##behov
færdig
hushall
prisen
lokaler
betrakt
##staden
hjælper
tilg
47
silver
orden
taler
##ogra
##uft
islam
##svall
##laggande
##elen
haber
blomster
mac
billede
##asen
klare
regelb
horn
barns
mormor
hundar
bjor
##middel
##erende
##ratten
tvungen
undvika
##æld
luften
aventyr
##somradet
##fam
delvis
smarta
##bare
##fulla
##uds
##umer
hunnit
avancer
kursen
personligt
oh
vardags
individer
bodde
##ime
brollop
##entlig
tænke
lader
##isme
kyrk
##talt
lid
##fullt
##tekn
gransk
mobilen
sallskap
pratade
finn
involver
overrask
##jord
andersson
legge
vila
mos
nere
##oper
##hjem
lakemedel
funn
##deren
spis
computer
##رر
nev
botten
##eger
nik
kilometer
produksjon
##uellt
##pot
gn
situationer
##forsakring
##ugning
rakt
vasteras
##rel
##sjon
##varme
##pac
relevant
dollar
ende
192
##play
kanslan
erotiska
##dres
##ytning
##sko
##cks
levitra
vadret
lyckats
##isera
skull
##anal
shopping
block
mast
vd
repræ
##vatt
##11
automatisk
trakigt
##yper
postad
##riter
losning
##sliv
##rang
samhalle
##stalld
rekke
sekunder
praktik
situationen
forslaget
##grader
prøver
frække
golv
fallet
champ
resurser
##ynt
ii
##janster
##gress
##assigt
banan
##valget
##adsen
##bra
##juk
behag
sæd
2003
##yer
oversikt
check
##skrav
perfekta
##orier
felles
##old
omoj
historier
gjerne
##øp
opmærksom
tax
varden
personalen
matemat
##skoter
##fod
brukt
single
##siden
##diga
sociale
riktiga
support
forhoppningsvis
fylla
ker
sammanfatt
kallar
inkomst
gill
begran
iv
demon
##result
kategorier
kompon
##ikal
vastra
modellen
##con
micro
uttal
##jning
##appar
##sprak
klassisk
pæ
gif
dens
berattade
hittills
grundlaggande
føds
slott
aner
##kninger
fører
himmel
gram
dejlig
##40
drikke
langsikt
helhet
power
##somrade
fack
opna
##box
##inter
mv
koncept
##produkter
##mand
marked
tidlig
skan
utomhus
smil
rapporten
skuld
relationer
lyder
##uro
konsekvenser
##direkt
##lak
kompletter
##aturen
garanti
dack
##nasjon
handa
##kre
##evær
tillfalle
museum
brod
lane
##burg
urval
symptom
natverk
vild
##øjer
lim
vider
bordet
##rarna
faktorer
##skrig
##lende
okat
skott
frakt
trapp
##istiske
##dele
trolig
girls
ein
##delningen
kreativ
eleg
##ege
sortiment
fandt
##60
lou
lignende
micha
varma
nom
tung
blas
glæde
ei
nødvendig
##hjæl
##jal
##stillinger
lyn
##splats
kærlighed
listan
kollade
andras
jonas
##varo
kunskaper
world
kjem
instagram
engager
knullar
motsvarande
##varl
moderna
hamnar
ort
##mad
ryss
extremt
hæ
##ledare
arige
##mask
njut
svag
webbplatser
##ova
##osa
##inform
funderar
##oth
anpass
anvandare
dn
myndigheter
eksempl
lank
rammer
utlan
##ningens
forre
##usen
ledig
starte
processen
forhandling
allmant
skyldes
##ea
visat
fika
observer
##ekte
aal
glada
indhold
##ini
webbplatsen
dubbel
russ
##sene
austral
løsninger
apple
##ørs
##lats
samre
mur
ri
tip
##mene
frederik
eksp
centrala
pens
behovet
##betalning
alskade
##unds
pus
##vatten
analys
leverand
daliga
samlede
særlige
tabl
langst
kla
magnus
cor
lagom
metall
mobiltelefon
kjør
jobbat
##ycke
##jylland
dia
##opt
rakna
##inav
##elset
arbeidet
that
storbr
sorg
##viken
mottag
##kontakt
##stiden
arsm
##sjuk
##formen
hansyn
syftet
sade
fragade
blommor
distri
##pol
vægt
vanligtvis
##80
eleven
abon
reserv
feil
snabbare
køber
læser
linkoping
huvudsak
ifall
##mode
##minister
stjer
rigtigt
##djur
derudover
værdi
tillgangliga
##skyd
sugen
avgifter
slutar
tittade
ekte
##foreningen
enskilda
##itann
faller
bogen
arig
langtar
##eten
high
##ængde
kontrollera
president
hil
omfattande
turner
sendt
heta
hjarn
mamm
datter
startade
blu
valgte
inns
odense
mont
økonomiske
##partem
overen
internasjon
grona
lyk
##skost
populære
hører
hardt
##gørelse
more
bebo
##ley
relater
hande
hehe
##iosa
forekommer
menneske
##gora
##satsen
narvarande
japan
body
kus
opret
snyggt
from
imor
møder
tecken
vekt
jac
52
anledningen
anne
konstnar
stads
moter
cla
bloggar
kommende
insatser
dricka
gemensamma
lettere
cro
hverdag
kritik
##sked
bri
front
ledare
model
turist
kører
snabba
kollektiv
klick
varv
felt
##ysning
illustr
banker
erbjudanden
begar
##enny
billiga
avseende
##hallen
tyg
dorren
forlag
jar
flashback
europ
##ellan
dobb
##etøj
arhus
##iserade
erfarenheter
##job
kallt
klassen
##odet
##gande
varan
##bal
kik
likevel
adress
##ævn
atit
sæt
langd
##fi
fug
kontant
eventuella
virksom
rov
##eslut
##stallningar
forsøg
ell
gat
identifier
storbritann
##ze
definition
beb
programmer
##oda
sval
bidr
dikt
##varet
original
privata
sonder
føde
tydlig
børnene
##fo
##cam
##ula
arkiv
skot
utland
##skr
leta
bestamde
nationella
vanda
mix
juster
##rument
aftale
has
idet
betyr
windows
banken
##slutning
oerhort
betalt
besokare
expl
hjerte
unika
##fria
##fallet
karaktar
sti
begynder
trods
mini
tillhanda
##ellem
angre
##ørg
##samlingen
dj
michael
##fragor
kraftig
tillvaxt
##tryck
##hog
##ytande
kategori
forandringar
bjorn
inner
terror
ringde
mist
pabor
nesten
##ckning
tjansten
jens
diskussion
##marna
##yttes
logga
hors
tidningen
##utveckling
nagonstans
svarar
eftermiddag
##bat
##ringer
poker
##12
saf
beskæ
typen
##ums
fodels
dekor
##bby
rolle
brann
##avtal
minne
##omrader
fria
pir
teknologi
##sek
##partiet
##unnit
##icy
mr
smitt
tilfreds
##fora
##problem
pig
##gade
##stri
akta
kanal
##bit
ki
ogonen
hjarta
mangder
skiv
godis
konflikt
varlds
anges
hoppa
lide
##lost
##bank
##kelige
##angel
nytta
træning
##sattningen
island
bekraft
cat
tilgjen
korta
efterfølgende
konstant
pagar
stallen
tilsvar
bøger
##forvalt
bevæg
tillganglig
porrfilmer
250
kog
##træ
varmen
frankrike
økonomisk
##ockey
##ojd
specifik
##aland
aalborg
##eringar
##ament
lenge
##lades
##mannen
klima
##mæss
heldigvis
begræns
##shop
ke
parad
installer
badrum
ansvaret
dei
handelser
uppleva
kristian
æg
belopp
andelen
hjartat
liter
##aft
lokalt
##amer
forutsattning
besked
##terade
eva
amerikanske
johansson
opr
##fel
inlagget
##dagog
skaffa
mall
traffar
nodvandigt
lankar
slit
appen
mojlig
kontakter
even
materiale
valkomna
borg
##anvand
sjo
sette
intressanta
lagenheten
barna
levande
øjeblik
cd
vapen
59
navnet
##mi
smor
##gards
utav
##legget
##gerne
##vil
øk
markedet
##enhet
##osof
##milj
avsugning
emil
sakra
lands
hag
politiske
emma
stykke
forran
##linjer
undantag
##enge
##vare
balkon
sagen
lycka
diam
behøver
bilag
##orte
##ografi
##iot
varsta
##ugan
##projekt
potatis
mjolk
tilgang
forfattare
##ivalen
amerikansk
traffade
radgivning
try
##vek
kendt
mai
kostnads
befolkningen
snitt
95
nyckel
orsak
bot
##annes
##ski
ryska
skickas
frasch
foljd
lamnade
##nor
##losa
2001
##æst
sun
startet
svenskt
indsats
overallt
189
process
##bill
inse
tilsyn
blanda
aspekt
fargen
##givet
##emed
sukker
miner
##iseret
kim
sop
trygghet
escorts
bedomning
##kommende
600
##ligheder
2002
garder
saknas
jud
skickar
halften
framtida
leverans
##arbetet
vintern
osaker
##ards
##elserna
kvalitets
anm
regjer
uppfyll
oppnar
invan
markt
fullstand
##sil
stro
varav
tilskud
pdf
##qvist
slappa
##imod
angaende
##fen
rutiner
ent
fasc
rant
overlev
hjelpe
omfang
##drene
henhold
sadar
sav
##folkning
##70
##ese
planlæg
knappen
ungdoms
##wn
ansøg
befint
klassiska
bilde
##fast
mju
kans
onod
utval
ledande
enheter
##sland
umiddel
book
præcis
kommiss
enormt
inviter
muskler
##ians
international
sjukhus
##rare
uppfolj
##ssp
begyndte
##lene
vardering
uddannelses
##personer
bestemm
##sstil
##valu
look
camping
plocka
global
massasje
aning
atmos
saa
ringer
##yta
modtager
##hi
ratta
ler
num
cup
finger
sarskilda
##vest
resor
dv
butiker
von
foregaende
spanien
digitala
positiva
posted
religion
forbud
##namnden
tænker
fordelar
##hagen
texten
føre
præsen
ange
artiklar
anmalan
statens
billed
##visa
##byr
betalnings
maler
kraftigt
##lyst
talt
deltagare
##utte
##jobb
imp
##ckor
tiltak
halm
andreas
tvær
stack
grattis
##utr
spur
troll
klad
videoer
tilh
mulighet
papir
##pres
ladd
foraldr
julkl
##rapport
samle
tyr
bredvid
tillagg
gamm
ødel
##førte
overtyg
85
##behag
gyn
læge
##forbundet
##itor
forsamling
narmaste
##fru
slike
plant
##jande
tilgæng
undersokning
svamp
langivare
##ones
undga
##behand
##ware
arab
flott
##gitt
voksen
beskrivning
gent
##ders
gemensamt
hundra
prag
tegn
##astro
##valg
tacka
kæmpe
56
produkten
mala
løbende
##raff
europeiska
##rimin
simpelt
mio
hr
bekendt
##rej
maskiner
##usk
belast
aud
sjæl
telefonen
omfatter
##cial
redus
kjærlighet
bist
hanga
funnits
stilling
ufor
etik
journalist
ferdig
tomt
identitet
avvik
##utbildning
sd
passade
nio
okade
##gaven
økt
opgave
obs
anlagg
genomfora
station
nuværende
bestyrelsen
##delingen
antallet
##arch
storm
##ou
møn
middel
180
startar
amat
##urg
##skop
tycka
framover
##station
foredrag
##ebra
##iness
vilkar
##beroende
cancer
professor
sec
bakter
specielt
minskar
skulder
##edde
##ykket
tera
lesbisk
erfaringer
##stu
54
tillfallen
utrustning
minsta
##skam
##vakt
eld
pct
ofor
##asino
familjer
##ierne
soft
##ælland
avfall
ratten
bos
##egang
tranings
rena
##usten
nødvendigt
opdater
##jol
livs
marts
akut
##schef
strid
vækst
vibr
konsument
bett
karn
betalning
bræn
hanger
lege
kyck
bandet
belig
pi
##istens
def
effekter
ht
##anke
dør
kvaliteten
kontinuer
minut
cool
##ssen
artikeln
eksisterende
markeds
tyska
varor
##nast
##hjul
##orerna
pask
vaxa
psykisk
120
ledar
53
fen
https
##brans
##unnet
arlig
faste
svt
element
##ney
grejer
materialet
kvinne
høje
gumm
frig
##iam
livsstil
club
konsul
wil
##ennende
##bilar
##entals
træk
stader
noll
##umin
##vert
stann
herre
wal
knyttet
ike
rekord
##side
##resa
ledning
marg
##tur
ec
agare
forelig
allting
stefan
forbundet
##bri
udvikle
##serne
kryd
somn
##hast
orgas
##tatt
##skaff
farve
golvet
evalu
skydda
fortsat
verkligheten
##celler
ked
##vards
##que
vei
manaden
##hr
##nene
fragar
akkur
dyb
speg
51
jose
bibel
varre
##kommande
##takte
swedish
alltfor
akkurat
##sættes
solid
##forsalj
kaff
charl
##bek
vaga
virksomheden
hansen
lut
pum
foreslar
alsk
##sman
##ekul
sundsvall
##encer
vagg
motet
moms
herefter
skaber
turk
transporter
forklara
fortælle
##tale
##rans
##kro
foll
toal
##somme
buk
gæster
rekry
spillere
##sund
blond
spare
huske
alternativt
##sbol
naturliga
rosen
antar
##intr
##oler
kriter
tir
invester
restauranger
##plikt
scenen
##løse
read
besøk
64
duktig
##okraterna
downlo
gældende
naringsl
jensen
funksjon
flest
##inna
fira
bostader
røde
##ftar
flertal
eftermiddagen
roman
##sbrev
3d
kalender
##klass
dyre
meste
moten
bull
##okning
liste
##melig
##itering
peder
fantastiske
##sprojekt
hyra
tilsvarende
upplever
olje
reha
vidt
##ultur
eksempelvis
succes
bang
##agne
sekund
##spil
godkan
##si
øl
læring
house
syntes
frihet
##position
bestammer
barnets
eldre
sikrer
dame
seminar
rorelse
##lere
##ming
informationen
prosjektet
enk
utfora
snall
hjert
eventuellt
værkt
twitter
fransk
fornu
dop
green
sender
##asa
##ination
##park
tvek
betrag
tilmel
utbildningen
##amal
##indra
abne
balans
kvitt
inredning
nødt
nyde
tavlingen
senior
sne
forskott
anger
##olen
samla
gru
tilkn
informer
##forbund
##fit
radi
##betaling
fortroende
dejligt
##besok
leng
tolv
nick
format
fundera
##rek
hastar
tilstand
rora
redig
##eledes
##li
ledelse
radda
satsa
arbetsmark
butiken
##matt
##ygger
indr
fodelsedag
##følg
surf
bibliotek
bestamma
lule
vander
##ionens
##savgift
erne
foreningens
foder
slot
studi
##bs
##fard
kontakte
amne
victor
##vill
irriter
fjor
hvornar
##isser
##iserad
##vetenskap
sexig
hinna
spons
udel
##andre
fit
undervisningen
sota
##pacitet
marknadsforing
skador
##ældende
posten
word
fur
befolkning
forestall
##etar
inre
adresse
##varlden
partier
anonym
ull
ønsket
registrera
blick
produs
højre
oplever
aktiva
vitamin
##lagen
rott
fond
reducer
##ckta
studerende
##mande
##cir
##esh
jern
konsekvens
raknas
2019
protein
senest
foregar
øver
##lass
horde
##stræk
gaster
arbeids
arligt
diskutera
beslutet
skin
regionen
##cm
##smet
ye
avgorande
dynam
hjør
lavere
kvad
maks
lasare
grej
tempo
##kerne
eksper
indga
omkost
brett
kalmar
##ani
nyss
lic
lart
##jansten
##omraden
war
uppna
market
imellem
bock
tillbehor
##bordet
skadespel
kompisar
tam
##sprodukter
gust
dominer
tvang
sahar
automatiskt
inred
felakt
ændringer
##oppen
vr
paa
fund
overst
veter
fjern
##ml
ligeledes
pojk
sammant
##sperson
tillfallet
implementer
anslutning
##slen
anl
afhæng
civil
aterigen
høyere
noggr
liber
femin
##anna
exklus
fril
anvendelse
offentliga
##anlæg
##skog
kameran
##bilitet
overgang
##rifter
lamnat
##roid
underlag
wall
##bog
##gra
57
kontrol
dru
##ødte
partiet
sock
nyfiken
##ages
rester
tad
##15
ansvarlig
kniv
samarbej
karlstad
ingredi
efterat
ever
##levelse
arter
lese
forsvinner
##rot
##smak
advokat
##kamp
business
fisse
nojda
kollega
forhin
##stud
##juter
hemmet
behandlas
##core
##idens
poly
800
asyl
halsen
##olja
utseende
ansiktet
bjod
utenfor
avser
beting
generalfor
overvag
hypotek
anbefaler
latar
organisationen
58
smar
kæreste
##erings
gjenopp
venter
##yst
stj
smuk
opleve
tillat
cu
telefonnummer
ox
engagemang
kulture
##ax
nilsson
##dor
yoga
coach
##iendom
uh
##vider
spelat
instit
jor
psykolog
##keligt
##line
##peut
##pens
##iddel
jacob
robert
protokoll
dyrt
forvand
behor
cell
noter
erhvervs
ledam
rit
sildenafil
spark
legger
##stallningen
##oser
##skriften
antall
forklaring
origin
fedt
##dy
utredning
søg
##unnen
hypotekslan
miljarder
pizza
##gruppe
skyldig
argument
works
##bid
muskel
skram
##forhold
vivan
##arden
##cus
musikk
pak
reager
kvinnan
##sling
sprid
navig
bedriv
modul
kortet
minimum
retten
##stekn
sto
framsta
mika
##satter
utbildnings
diabet
arbetat
##sforen
infekt
utrymme
pædagog
farligt
forbund
dryck
tranar
ryssland
perman
##uelt
##holdsvis
vivanza
pod
##boken
##esel
formen
filosof
boras
deltar
loss
##gatt
franska
sovrum
tonaring
##ision
fjarde
ansigt
noga
beskytt
vejledning
tl
norrkoping
tilpas
tjeneste
kendte
ansvarig
ændre
kvalific
order
presentation
yng
fattig
west
axel
69
sommeren
##spital
nødvendige
vedlige
##beskrivning
##18
kris
lækre
bott
pic
##statt
1800
enlighet
cum
##soft
##ningerne
ikea
onskemal
##sbruk
forskare
##ckan
##fat
sannolikt
finna
ingredienser
skillnaden
##værks
phil
arena
revolut
skolor
sarskild
##bær
lulea
vente
##partementet
inge
##skov
##produktion
kristna
shop
gustav
punkter
kabel
##felt
webs
ambition
##iler
good
hunde
##oten
signal
spennende
træn
pepp
ansvarar
infrast
appl
##bevar
get
gom
arbetsgiv
##holdes
lamnas
nærmest
omfattar
apen
udsigt
indre
##huvud
innovation
##nsyn
##slyck
svarer
forsokt
mulige
tilgjengelig
traffas
call
bryst
anstr
##bring
bind
vaxjo
pigg
##wood
varder
##briken
lis
##emidler
hinder
levering
##pri
almindelige
##ces
kolon
tyske
##ners
##ksjoner
ramme
sir
intressen
koster
##høj
##anken
barndom
fasta
index
gennemsnit
benytte
halva
##flytt
inkom
##ografer
##smiljo
##iere
nt
samverkan
##tran
omstand
fora
rasmus
inser
perf
vedrørende
parter
##orget
totala
hverandre
vurdere
omedelbart
##øbet
forresten
ekonomisk
upptacka
##pad
formed
aktuelle
pengene
##sform
blek
rat
##planen
baten
medborg
amnet
nedenfor
framgar
selskab
trend
hust
para
bin
fodbold
databas
##vida
interessant
fleks
spins
demonstr
obligator
eventuelt
frid
produc
##strateg
ressour
##drom
driva
arbejdspl
handle
bestaende
maltid
##botten
virke
inl
kold
##rene
cal
grus
svarare
##yder
dobbelt
##tor
##eland
##funktion
##ortt
##forslag
##somraden
rejalt
aw
sed
grundlag
penger
##asy
forpack
62
isa
døg
slang
føle
lagstift
pann
oxa
innenfor
paus
flyttade
trivs
handlade
##ølv
utstyr
skiljer
##lekar
##material
eskorter
##tav
grønne
lyser
biler
instrument
##smiljø
##roller
safremt
72
##unk
enor
##byte
##fig
distrikt
mysig
glade
skoj
afg
hemsidan
skandinav
snakke
mp
intresserade
kvadrat
##stig
forebygg
abonnem
##slivet
sjon
visse
beskæftig
##ares
borgere
##bane
home
##færd
##maktige
sammens
køn
##com
styrka
snur
melod
storbritannien
misslyck
komplett
##ibel
upptack
dokumentation
forteller
utdanning
søke
##saft
##fakt
lax
##yrer
##umt
##delt
karin
teori
svenskar
##ked
verd
##ordet
fremgar
intill
blan
##ripande
netværk
##iering
bytte
julen
forvir
tirsdag
##hjælp
øvrigt
uppmarksamhet
kortare
android
##hjal
##ingsdag
riksdag
sve
brit
nic
avlon
##stal
udgifter
male
forhallanden
elit
##kred
højde
riv
skader
##igheder
restaurant
traningen
lagar
støtt
lyssnar
rust
##ally
deltog
fremtiden
leksaker
springer
##ettig
eiendom
##sal
##alafil
jamt
asiat
elektr
omojligt
##bag
linda
1990
leverantorer
anti
##radd
trond
spir
tadalafil
visser
##amn
##icera
##ifi
jakob
europæ
harmon
rengor
kaka
lost
##iled
asikter
skjul
##ines
hug
shem
##gick
troligen
##fla
stemme
livsmedel
##sna
##pir
##onger
anord
rog
wa
opdag
relevante
ess
skona
grand
jattebra
##ystemet
egendom
innehallet
##kod
umiddelbart
løse
erbjudande
linne
manglende
mader
halvt
skala
tidig
##skra
forskel
perioder
fjerne
##mak
plasser
bevar
etablering
tabell
syge
##dørs
antagligen
trevliga
##oen
##sgr
gyl
suger
vanligaste
latin
##antering
##rades
leka
##cia
pleje
graviditet
fattar
vision
forvaltning
flicka
##forl
faktur
##skvall
##sre
vandet
kru
citron
sykdom
overord
forber
retning
dyker
##forsk
inomhus
indik
##udselig
##mede
visserligen
bedrift
gifta
##meter
utomlands
serier
riktlinjer
knappast
##emark
##fyller
diskret
##rost
forbe
patienten
ago
##sbest
presentera
##platt
intim
##agas
kallad
thor
uc
1999
hellre
pludselig
hvide
shemale
benen
deltage
##hals
faktura
gymnasie
final
narmast
phot
ran
begrav
##opa
##emon
##ianter
liker
glæder
uttr
##ath
##uch
uke
skapat
knut
ekonomiskt
dann
fræk
broder
##olf
gemensam
kollar
##komma
evenemang
planera
hverken
bund
mkt
parall
tvart
ekst
planerar
##ktorn
festival
brut
well
kontra
halmstad
spin
offer
hjer
operation
tap
vo
pers
diskrimin
##egen
67
hev
munnen
##garen
##lej
gb
trist
##24
##enes
##okl
tryg
aktuell
##zon
66
vigtigste
kassa
rens
##vat
oppdater
##driv
astr
##16
effekten
manniskan
bransch
sutt
haper
##ningslin
allmanhet
bis
aks
jobbade
vanligen
lordagen
vacc
##uttar
henv
legg
flytte
188
norden
klik
atgard
fysiske
vises
minister
konsult
##øve
stiller
muslim
motesplatsen
gig
##bærer
kreditkort
endda
likt
komfort
bul
laten
##spa
styre
gave
steget
vask
es
uppre
##øje
regnskab
stærkt
byggnader
##ekk
rask
kaj
planering
##slet
konver
klasser
udover
oppr
savel
ml
konkrete
smatt
unikt
oppe
##sky
eventuelle
pussy
olja
tang
##post
stemmer
hp
ovanligt
behalla
bif
taket
sci
styra
eleverne
##samtal
email
landsting
deretter
kryss
##ye
##ørt
##etid
petter
utmaningar
##14
sidde
geng
multi
tydelig
##styrelsens
beskrivelse
veien
stannar
##stan
titel
prom
undersøgelse
##slin
arbetst
avslapp
opfatt
sites
jamfora
mikael
billigare
familje
lægger
legit
##bruks
##endt
anvende
kod
anderledes
goteborgs
##haver
dvd
##disk
simon
darifran
perfekte
hul
##sberg
tenn
tungt
planter
movies
butikker
##splanen
##artik
##ited
postadress
troligt
jobber
syv
ligge
sektor
ica
blogga
##landa
bik
styret
forbedre
sket
debatten
analyse
funnet
##fuld
idrett
angest
nabo
sikkerhet
##iør
kull
##tagelse
katastro
##data
avloningsdag
attra
##jejer
karriar
kyckling
##stillet
styrelse
løp
brom
granser
chil
fremme
etn
optimer
##eler
roy
erkan
##istik
##hengig
møter
uppstar
summa
eksempler
eventuell
hedder
##byggnad
installation
pagældende
begynte
alumin
sønder
verksamheter
glomt
##anders
##isch
tradgarden
vardagen
##ikte
##isin
##gangar
forfatter
##læring
skjut
raka
forar
forbl
omdom
seger
materialer
hack
tjana
##skurs
domin
separat
kvartal
moral
koppla
small
##sproblem
betalas
##ico
##uligheder
erbjuds
##holdelse
hørt
grymt
##sommar
##kelsen
human
tycks
##ypt
ideal
##naren
garn
inslag
##belt
virus
uv
ukra
##ategor
webcam
lot
rehabil
daglige
fader
oplevelser
ostra
faglige
færre
missa
sandsyn
##ool
alter
##agan
##stillingen
afdeling
##beth
##varde
##information
elin
spot
kalk
##ingo
doda
##øjet
sug
skat
berlin
##bolaget
tekniske
udviklet
##vark
processer
uppenbar
##shus
trening
konferens
spl
holm
mata
##sas
høyre
skyld
bd
transa
ør
kapacitet
##edia
tillsatt
hyggelig
speciella
rekommendera
bevilj
speed
##ical
##rona
63
manskliga
observ
rida
parlam
insats
emellan
##ogon
##lerne
lediga
deltager
rand
##rats
fødsels
lægge
point
hamnade
##fre
svarade
##vete
tusentals
velge
##ular
##bus
flyttar
nielsen
udgør
##spe
microsoft
bubb
lisa
hormon
eskil
negativ
udviklingen
larsson
ordinar
##spris
register
aluminium
##vern
berom
straks
##kopings
spraket
gjøres
kilo
kone
stallning
weekend
##got
stannade
##ano
skarp
##pression
forskell
feber
##onde
##plads
projekter
##hydr
fiber
bære
fabrik
omfattende
foton
##vention
bens
baseret
fysiska
farmor
##uth
graf
retningslin
passe
kunstner
kilde
ringe
traditionella
klub
vinden
expert
yog
sælger
sjalvstand
fredags
##ingarna
klokker
speciell
verklighet
anvande
fyldt
beløb
købt
øjne
gront
fasciner
høyt
ole
følelser
faststall
##omb
##losning
certifier
##tain
umgas
oberoende
##sborg
forlang
slutligen
efterhanden
utstra
plugga
stres
dygt
##glas
lyfta
paga
##iellt
que
takk
medlemskap
##ikon
##yndigheten
##´s
gutt
lyft
andring
##meddel
vardenafil
##aaaa
tapet
slippa
utvikle
filer
runda
##90
##dyr
listen
bron
##liggande
##finans
utgar
workshop
agen
uppman
bestallning
texter
internett
##meste
digitale
bryr
watch
meningen
arhund
undvik
staende
brugte
mia
spekt
praktiskt
sambo
sje
##espiller
sørge
foljde
##konto
synlig
##banan
##skiftet
selskabet
##rende
##usion
fuldt
##uu
##besk
lena
jente
beach
rejser
##kert
fjall
afrik
##isterna
bokstav
leag
##løsning
fjell
oph
insag
act
##osen
olof
life
anbefale
##spol
sjukvard
##iviteter
svenske
kompetanse
kanon
skara
dejlige
diabetes
nyhed
hamtade
centralt
##inspekt
##bygget
veckans
hanna
##strand
tech
negativt
frist
##oppa
regnet
##pack
##stang
lagenheter
yta
prop
esb
kass
##organ
##try
kond
##gubb
afgørende
landskap
pall
##esjon
ida
teoret
##xid
bekant
myst
bjuda
ikk
##ømt
adam
arbeider
elektronisk
frokost
psykiat
##rettel
svær
##ssystemet
exempl
sper
tjug
##rukket
##edom
armen
besoker
rast
leverer
doft
##splatser
brasil
beteende
vinster
##kler
fortalte
glomma
noveller
##rut
forskolan
medie
osc
##sall
##itten
linjer
primært
rekommenderas
opfyldt
fott
##bæk
##videre
class
stoppa
1998
temat
nede
##iera
rollen
dagligen
medarbejder
vælg
##skommun
forf
186
##25
##ikere
##mester
tavla
smule
fann
brud
ik
sas
metoden
lask
skape
amatør
##adt
aktorer
ekskl
udbud
68
bage
minnes
syssel
##sspel
hente
planet
lud
nør
##stein
##75
afsnit
uaf
##pligt
##ison
##kap
##light
##bana
bh
uansett
mobler
##porr
##maskiner
##sku
karleken
gronsaker
##butik
##landske
ordinarie
forsak
belysning
gymnasiet
lone
kontaktannonser
##stander
dun
skabt
klag
##13
inbjud
##kok
søde
generellt
foremal
koka
lenger
biblioteket
##erare
##last
spelas
##æs
hyl
hallen
endvidere
##ffen
meddelande
mekan
cur
##sbygg
afton
larande
old
imorse
hamn
vik
stream
somnade
matematik
malin
himlen
mex
olie
our
dress
gjord
harry
skifte
jamforelse
tradisjon
utlaning
##ordes
##ensson
femte
mobile
begynner
andersen
kanaler
publikum
mage
maskinen
ovre
lamplig
omt
##samheten
tillag
ophold
ledsen
morse
formalet
minus
snack
eric
proces
intakter
stram
skum
byggnad
spri
rich
##ansvart
##verkt
selskap
##bry
anvandar
bredt
dygnet
traffat
meny
blow
riksdagen
forstod
pant
jeans
loven
sød
biljetter
league
forholdet
regeringens
stof
høst
velat
komplic
##brud
##ugh
kondom
ig
fagel
##cykel
temperaturen
88
##imeter
avsloj
erotiske
galla
##teras
##osition
belon
##ebror
##ampa
naturlige
tø
grundlæg
1900
grans
infrastruktur
statt
hockey
may
losen
##rollen
tredj
upphov
bevid
produktionen
ask
kveld
day
##bund
##cing
skoter
fokusera
##beratt
kontoret
administration
johannes
udfordringer
##agaren
tilrettel
spiser
utnyttja
##liggende
passager
forløb
lei
##staf
varianter
andamal
karlsson
naz
mund
pon
benyttes
##elsene
##spiller
upplag
aga
tillater
##ize
direktør
tilpass
hastighet
afrika
musikal
##tagen
sjovt
revider
gubb
verkade
##19
##js
##ænding
##lista
##cake
comment
kostnaden
internationale
levende
udeluk
harda
universitetet
##holmen
98
annons
fara
korte
trag
personale
rengør
##parten
forrige
simpelthen
##stande
selskapet
stallde
ib
##imm
medfor
##tjanst
days
##rustning
starkare
andas
##yre
mental
legat
tuff
cle
endte
vaggen
dater
##nelse
regelbundet
sjukdomar
hasten
venlig
wi
tages
pren
hop
##eser
##olin
konsert
sexfilm
snor
tenke
##skilde
##holdning
leverantor
##delses
##egnet
bevæ
##proc
sjukskoter
sendes
pæn
##ript
##och
progn
slapper
tunga
elegant
favoriter
##jam
nivaer
undersoka
##oli
generation
drive
##dighed
700
term
vite
##kanten
alm
almindelig
kirken
roligare
##22
intellig
latta
attack
william
handlingar
betaler
##programmet
moment
oftest
skriftlig
##mans
##iserar
moden
farre
kirk
##hh
københavns
nøgen
anbefales
74
brudar
minnen
damp
filter
##radets
virt
download
anton
jazz
##vnte
##go
sakerstalla
kick
religi
game
affarer
loj
dramat
flor
plugg
stada
fotball
overg
ink
medveten
finalen
sle
gitar
formand
betong
##jonen
introduktion
nettsteder
kannas
##ira
sammenhæng
foreligger
ryd
aktive
ovant
areal
avtalet
action
soll
avses
studien
startede
kjenner
##sprocessen
djupt
overenskomm
forstark
positive
repræsent
##pros
insattning
narings
##ioxid
bbw
genast
anlaggning
hest
likad
hardcore
##ratter
##ooth
sorte
tuttar
ving
##vast
##ovens
historisk
##famil
integritet
erstat
byn
beslutning
henvis
invanare
slett
##zy
verket
hyg
##evis
musiken
drø
bomull
aring
##17
umu
rene
tæ
##aldern
behandlar
roller
uker
synner
##yrelsen
##kendte
raskt
sanna
handelse
traf
utslapp
udenfor
ønskede
asa
haven
sigt
utstrackning
##ruppen
premium
bun
understø
teknolog
usikker
tyder
nut
øster
strum
##ægter
konkurran
ekster
gjorts
basert
##grad
goran
recensioner
##otet
soldater
konsumenter
inspel
motte
##rogen
demokrati
##sfri
beskriva
utgifter
##vikt
koordin
fremover
##een
##seffekt
midsommar
dækker
##opro
museet
open
##talje
##fj
skoler
eventyr
raknar
##industri
trondheim
vedkommende
##edygt
suttit
dorr
bjer
trang
79
hjemmesiden
anpassa
##visor
init
hakan
gjenopprett
##kun
permanent
##pade
##dagar
kran
upplevelser
##ude
silke
praktiska
##aven
verkliga
flag
apne
hovedet
cra
spont
utgang
##eringer
prøvet
##pool
advent
nogens
bebygg
stiger
døren
datorer
omtal
hammar
uppat
what
dl
tvar
modtaget
klatt
##efter
sports
disc
##sette
tidning
##sby
kompens
##tage
galt
##jun
##kurs
lastbil
byens
##ela
slots
johanna
foljt
##sned
mam
##ove
##shem
##uppgift
##kræ
løbe
papek
genop
framme
somna
##ppa
kb
skatter
klokken
øget
##arbeider
foretagets
besikt
lott
viktigste
##ype
levere
premiar
billedet
svin
hatar
gev
designet
ansikte
tje
bengt
##førelse
ledde
moln
overgre
smidigt
nyar
motsvarar
frekv
##stjen
##lejer
snalla
trosor
##amet
portug
lanken
baserat
innebara
gunnar
schwe
usb
##iene
falder
##orth
##vitt
erk
holland
oprinde
zo
polen
jylland
skarm
king
kyrka
ugnen
bestammelser
ender
nøgne
vejr
spørge
reaktion
##strin
##elighed
##blog
m2
##behør
cv
auto
befintliga
piller
bilaga
##valitet
gulv
mojligen
##blom
##tek
maden
utvecklar
tendens
73
forvaltnings
ast
dos
##regn
##ingsm
serios
kjente
gjordes
samlar
flu
fød
ratts
##skydds
geograf
personlighet
##ous
76
tranare
group
klarer
##jour
report
kravet
labor
##asse
læst
urin
arbetsgivare
værk
##mord
ert
##rikes
street
skonhet
##stolen
fordju
duktiga
parken
leverera
gengæld
proff
mem
ændring
his
planerat
poeng
1980
prenumer
##aldte
##sagt
tilbyr
anhor
glim
ultim
##værelse
modne
rekommend
trin
78
hverdagen
upptackt
stycket
##iserer
forpligt
indkøb
kritisk
levereras
##spir
syftar
lycklig
eier
vardet
tunnel
##perioden
pakke
værelse
enhed
varierar
overskud
annonsen
##bbe
1500
hass
uppfattning
##bling
klan
foretagen
forkyl
immun
trække
gillade
tvartom
storst
##ifest
reise
##hn
inkluderar
bam
##rus
øke
telefoner
tillæg
teamet
white
tour
##formed
nordiska
kika
ipad
bostadsratt
larm
jesper
kjøre
fans
1970
benytter
##udvikling
negativa
praktiske
varenda
tavlingar
##itz
metode
nm
næst
arbetslos
trus
vandring
volvo
##kene
indgar
tingene
reserver
skydds
godkendt
metal
bakat
party
##bildning
##klan
brød
herren
magt
repl
##ankande
konstruktion
historiska
fastigheten
modtage
licens
tings
jamstalld
kollegor
bygninger
landsbyg
gemenskap
ikon
##medlem
##ckande
badoo
forklarar
harom
faktor
beskrevet
nogensinde
antik
spesial
bredband
##arter
##bile
eme
hyd
internationell
arkitektur
##kak
##træk
##skick
stop
snon
langvar
##profil
squ
evne
aktenskap
##vind
##asten
malm
instrukt
bekl
##ission
frivillige
skett
verka
##21
fenomen
elementer
volym
##eled
asi
##strøm
trump
billige
##uc
smaning
rep
##rund
##efte
stik
sakta
specifika
forventes
flyttet
kud
##anmark
lovar
iran
##ningsfor
uppmun
##ttes
opmærksomhed
##ojligheter
profiler
praktiken
resultaten
politi
fornem
##olade
inriktning
naring
skillnader
siffror
reis
ombord
##ragende
##asinon
behandla
##verkets
bea
##anne
##elden
##hovedet
##sekret
forandras
hjalpte
##gjorde
lordags
debut
##oteller
##ils
personligen
enheten
valp
tydliga
kæl
mæng
97
funktionen
persson
fastigheter
charm
##saf
hustru
##stjarn
junior
##kningen
migr
variant
##erades
gransen
trett
kopen
vakt
##vejs
flyt
medvir
185
##aring
##rutt
foredrar
import
carol
upphandling
sorts
tlf
allian
vantade
##pul
##skottet
personalet
stadens
fantasi
vidste
##bryt
utmaning
deleg
fortsætter
dick
overblik
dagis
nærmeste
blank
77
##idan
stanga
bryta
ott
gøres
offentligt
##merksom
vaxter
##ningss
magasin
læng
##huse
ledere
##muse
kvant
kvinnliga
##skær
spred
riskerar
sexuella
solgt
##øen
vende
sondagen
beton
lopande
vegetar
naringsliv
netto
##savtal
ljuset
forsøger
##samf
banen
##agna
innhold
ikkje
##anderna
ordentlig
96
##adelse
##eve
smaningom
fredagen
stærke
1997
saaa
##bba
ambul
eskilst
morka
overlag
##jerne
rektor
##dagens
##slosa
anlegg
lakemed
primar
arenden
##elin
##formaga
##spros
##vanlig
eskorte
lom
##beide
##setter
levererar
søvn
##havare
uds
##glad
livsl
fonder
tilbyde
byer
komfor
##domar
smerte
hundrat
lukket
boliger
##essig
mæl
garderob
##klub
insikt
drabbas
galet
ogonblick
fornuft
##ew
eriksson
budsj
cap
kalas
##cell
storlekar
setter
vakna
klokke
omfattet
##skapen
##usi
##kningar
engas
##bod
fremragende
uppdraget
xx
klanning
##iserat
sovjet
##aminer
##imenter
mente
kommers
frugt
ts
rose
gotland
##rapporter
valuta
drivs
##kir
##iliteter
##edda
tillbring
myr
halls
schweiz
enige
bdsm
blandning
##udvalget
tt
sosiale
emeller
##spra
oppmerksom
##vagn
##sbr
kraven
tvingas
kigge
##attan
skinn
alexander
radighed
##gym
##hvert
##lagte
premier
##stalt
eskilstuna
ordin
##sutveck
emellertid
troja
avsluta
friluft
##plass
jarnvag
##ansvarig
win
##trafik
##øring
utok
##jente
##banken
##cl
webben
delas
basis
##sbel
##uder
##ves
oliv
187
spendera
put
uppfyller
##vas
omvand
paverkas
sanningen
balanser
##menn
gustaf
##itation
kød
##eks
julklapp
falla
##gelse
##emask
ugen
træner
kommunala
fragorna
minuters
moss
##bocker
plug
##omet
tvatta
add
vildt
mester
##æd
anmala
##slar
##istiskt
skønne
mørke
##kontroll
bestemte
dygn
##steg
pojkar
barneh
##igar
util
alternativet
##acka
reson
##priser
løber
##to
frivillig
gatan
##dalen
##iseringen
##kelser
kw
##orts
emner
komplex
jenny
uteslut
hospital
sajten
89
observera
##pum
studio
##vne
mangel
##utomater
ande
handerna
##dringen
ambas
yrke
##uddannelse
leje
aff
jordgubb
riktning
aterstall
oppnade
sprut
familier
##ssk
webblas
swe
manniskors
bondage
innlegget
tjejerna
##ume
framgangs
86
##lt
medbor
##budet
##agande
hette
recension
jess
skyn
##klipp
sannsyn
institutioner
tillverkar
ændret
sanger
kav
aspekter
europas
branschen
hallet
hobby
foreldre
##just
hoppade
forfattaren
kandidat
##splatsen
heder
internationellt
fm
##sniva
scan
bryll
##lyser
gjennomført
runde
##stemmelse
drommar
##porn
##shandel
andringar
trycka
##gardar
utvalg
##skrivning
dahl
erkl
barnens
foddes
uppgifterna
komponenter
mari
støv
pagaende
nark
inneholder
##boende
rop
dagliga
##verks
lur
##ener
beakt
viktige
che
syri
##havet
orange
priserna
##strup
publiken
presenteras
overnatt
##arke
##log
##bj
fatta
mega
iii
forordning
bespar
##parken
medlemsst
how
traden
##ute
produktet
samtale
konkurrens
samord
packa
montering
forskola
hantering
##km
##bygning
##ætter
medans
muligheden
generelle
tekniken
##øte
oppett
bestod
kommunale
oscar
sofia
begrepp
##eliv
vilde
magnet
deltagarna
samlat
##sok
stykker
vikten
utviklet
jobbe
##ementet
stærk
avkast
nøj
##hyr
europæiske
kanten
##hs
klage
kvart
brø
ola
katter
##mast
solna
ankom
legen
##varda
dyra
##inet
##unns
##spelet
##bevis
vigtige
vice
she
brow
##adet
forman
##koppling
##rim
##holl
celler
ifragas
koncern
katol
hjarnan
fotografer
##gøre
##samen
begransad
nordic
betalningsanmark
fair
wikip
##smæssige
##sættelse
opfor
alders
grundlæggende
redov
tele
84
rika
jattef
tydeligt
brugere
##forand
klubbens
ze
kursus
heltid
delakt
tværs
##væk
##forsta
byggt
tross
##stider
sprida
fotter
sørger
##ymp
krydd
##yser
smink
interview
ytan
fare
batteri
begiven
artikler
##kommit
australien
oppettider
svett
hekt
pasient
sjælland
uppdatera
reglerna
bitar
110
kommissionen
##kna
ulf
lækkert
marke
##day
##peratur
muslimer
olj
uafhæng
institution
##zer
bab
fjarr
hoteller
enkle
##annan
finaste
optimal
foss
anstallning
##pes
stavanger
træt
##sakerhet
##ffel
udarbej
lit
ond
stru
sparar
##storp
utstallning
##kamera
forsvann
forbjud
citat
##iseras
forsvars
##skabel
sr
aktuellt
forskjell
vig
forklarer
##blet
nedre
display
guid
##etning
bistand
klær
doktor
knap
mobb
##forvaltningen
unna
##cket
##staller
varet
rimelig
manden
karta
bevidst
oron
skab
hih
faglig
jas
intensiv
farsk
utbildningar
livets
sentr
##nats
dalarna
rag
uppvarm
##deb
homosex
mangden
integration
skik
##tom
##kvalitet
nyhetsbrev
james
klassiker
##ørsel
byr
størst
skuespiller
begav
##osta
forlust
misstag
nils
husker
klassiske
stek
##ylar
elva
bekræ
effektiva
stilla
##ibilitet
testat
panik
besøge
spej
egypt
japansk
arbejdsmark
##rette
light
fyllt
tilbehør
##plom
adressen
allerg
roskilde
kronika
kontanter
odds
stoffer
rosta
##ologiskt
direktiv
budskap
##orp
maxim
orolig
##rod
##fulde
datingside
apoteket
studera
##politik
funktionsned
blød
fortr
digitalt
arliga
##spass
outfit
##ivir
foreskrifter
halvar
valget
beraknas
##ømmer
##assiga
forvantningar
hyresg
stoff
nøy
muligheter
vunnit
føles
##itte
non
midten
snakker
bebis
gymmet
smslan
kontakten
mjuka
yttre
værelser
skud
##edem
cel
##ualitet
##fold
##skrona
##igheden
dets
følte
derimod
fak
##førsel
symptomer
endringer
bolagets
afstand
pay
medicinsk
##رررر
uppfoljning
arbetsplats
intryck
pur
##das
##hlm
##drift
væsentlig
annoncer
bibliote
sha
tull
seng
##uge
mødes
blok
betydande
##lon
##lock
esbjerg
efterfragan
manag
overensstemmelse
innehalla
ventet
##livet
medisin
spekul
##no
nike
karakt
grunde
##uti
ere
danska
summer
##bjerg
##morgon
##stallda
##resultat
900
hallbarhet
hjemmel
##branschen
##dating
vejle
gla
##staver
svare
iden
laggs
enig
##spolitik
tidpunkt
forandra
##papper
tjanste
potential
statsminister
bildet
tja
##systemet
alternat
nordisk
hær
work
##unge
##igaste
uni
##smode
##klad
orter
##bran
hungr
morfar
##supp
patri
##design
skapade
83
##afton
dengang
sølv
designer
retter
##saken
ana
geb
kommunfull
##oman
testet
toil
inbland
##ni
muligheten
avlopp
forstatt
forekomm
radet
ledige
##dam
##ekort
baka
utsatta
##massigt
mans
kampanj
bekvamt
##sprogrammet
finska
jakla
bunden
##sendt
##bandet
farlig
distribut
natter
tillgod
kapp
##spunkter
tomm
døds
forvag
utlandska
romer
øge
paborj
##moder
first
sjuka
##hopp
syss
milli
godkant
##vendt
lette
belg
representanter
##oer
sams
langsamt
redovisning
togs
overhovedet
atervin
##issar
stodja
hi
##pre
##stedt
hoja
revision
##ogne
##ugen
presenterar
nice
strategier
sannolik
passion
tyng
nylig
agera
##sperioden
underlatta
sove
vejret
medborgare
cr
##sjo
udl
hantverk
math
##teckning
##sreg
##sert
olsson
analyt
placera
bay
udelukkende
94
##koll
##rull
hænder
inbygg
ledarskap
enter
vaknar
revisor
tacksam
forald
##ejen
diesel
##utrym
undt
##stin
184
bøn
content
##yen
hjemmet
uppmarksamm
behandlet
orsaken
kemikal
##øret
syskon
hamna
##ary
##grunden
##bre
##synet
##ado
##hoj
blue
randers
dras
barcel
ytterst
rank
fungere
betydelig
norska
indholdet
sonen
kristus
##ides
##figur
##skur
oppdrag
##stillstand
mess
##organisation
forma
foresla
uppehall
ves
asikt
##forn
##dæk
nyttig
investeringar
tjenest
nyeste
61
ønsk
##oritet
##kra
dricker
velger
smaken
##bolig
utredningen
wo
##yns
gammalt
tilstræk
nybor
##entar
forsiktig
bearbet
82
paverkan
##bø
feed
affaren
ef
virkeligheden
93
uppfor
forsen
##skostnader
tagg
ansag
##struktur
##sbas
nævnt
ovningar
##sagare
##ect
atmosfar
intresset
bakterier
besokte
##svær
krediter
##bost
alska
##terat
udgave
kjæreste
robin
norrland
##agning
fællesskab
brister
bredd
foraldrarna
kompetencer
kriterier
##serie
##bygger
forbrug
fangelse
sidorna
tillganglighet
##forsaljare
stigende
backen
nad
##prom
##marken
blowjob
drenge
klam
valut
ish
nude
lektion
forsiktigt
kreditvar
internasjonale
elisa
suga
##emedlem
understre
kvalite
roster
##uttede
skak
skri
kit
dir
henblik
##slok
slip
##lu
følelse
søren
kommentera
bockerna
kvm
forhindra
bollen
##økelse
markant
lufthav
##kelen
##drende
vandt
##stens
manager
nærings
##ely
kopenhamn
kræft
sthlm
mt
arne
born
##iek
renovering
begrænset
ama
samlas
fog
robot
1996
##eftea
##don
mærker
politiken
byggnads
##estall
drev
##ily
henta
##vidt
karleks
sagtens
exister
placeret
sande
##klubben
##priset
klager
tram
opstar
lady
##kvar
##eman
veckorna
risker
kaos
beskrivs
access
utro
synpunkter
##øyd
mission
##sider
regi
1995
##barhet
division
##departementet
institutionen
troms
organisasjon
1994
##smaterial
hundarna
definer
lung
tjek
henholdsvis
ovanfor
##avgift
##tex
skje
kristne
tilldel
##agte
handtere
##bul
paminner
specifikt
skrack
##cipl
##sand
cha
berattelser
sadanne
##aktor
##skador
berattelse
vav
bryter
indfly
larar
leker
indien
franske
##redovis
sticka
balt
turister
92
gel
skridt
##ævnet
vurderer
##lang
allmanheten
##chat
krever
##hult
##firma
midlertid
gest
##visningar
lagring
##sfull
losenord
forord
forvantas
##lasser
vester
dommer
kundens
foresp
arrangementer
ledningen
ravar
vell
pt
planlagt
uppskattar
konflikter
dm
fax
sammenhæn
diskussioner
byder
ledd
rart
avsikt
fuldstændig
byter
fonstret
regjeringen
minimer
rakar
pump
##backen
kokos
cru
aukt
kategorin
##erats
foreningar
fartyg
##stof
##ls
##sbolag
##istret
pratat
versionen
stoppe
russiske
plattform
højeste
bruks
ramen
##pal
##hæ
##oci
sf
sovit
##centrum
lærere
taxi
sana
viking
gifte
##yndighet
bytt
tester
1960
konserv
svensson
fordelt
virkning
spanska
installning
niels
munt
diplom
##skamp
gluten
godkand
##emiddel
160
bygning
filtr
##okument
vett
inspekt
gur
##irekt
reglerne
website
udtal
stalls
dagligt
hvorvidt
maling
laborator
##arbeidet
websted
touch
spann
inatt
huse
kasta
frost
acceptera
larsen
##varor
pred
gras
flack
##snittet
fortjan
##atoren
tabletter
udført
restaurangen
angar
terra
avse
kys
times
aldsta
vert
oversigt
##esund
87
##resor
utfly
##ago
signaler
vinkel
flyttat
meddela
vanilj
vistelse
nemmere
regioner
enorma
videon
bakgrunn
astad
avis
links
arbetsuppgifter
potens
gilla
opprinn
lagde
tekniker
tjejen
kyst
samtlige
ansoka
omgaende
brittiska
overgripande
undersøgelser
lansstyrelsen
##ony
klient
lykke
pick
kreativitet
skjøn
##icia
##hd
##øder
abent
cer
sjældent
tabellen
internettet
korkort
gigant
argumenter
dek
upptackte
##kons
virksomhet
##front
socialdemokrat
butikken
pojkvan
andres
narkot
##serien
##cca
##stjanst
##okrater
brukere
##gol
morten
vantat
detsamma
referens
##pla
##ng
timmars
morkt
komforta
conta
##lings
##lær
##spelare
omfattas
bakgrunden
ljung
respons
besviken
videokl
bæredygt
sallad
fortid
##vader
skickade
danne
skur
missat
samlade
justin
was
wikipedia
tander
seb
fotterna
ern
wifi
okning
140
blin
##zen
variera
rutin
cirkul
lykkes
forventer
forbereda
##rere
##36
##sfall
ordre
avgj
repu
opptatt
ordningen
journalister
mødt
##plant
killen
drømme
loppet
##æves
loser
##bjud
jobben
skapas
iværks
2020
asiatiska
##duk
forlorade
kommunikasjon
##yo
passet
##setning
rettet
##inci
tillfreds
ordna
bm
sundheds
ideen
ondt
##hantering
##ligvis
banklan
tjanstem
romantisk
forars
pad
##spartner
gennemført
kvadratmeter
fardiga
innefatt
kommunerna
derved
netta
lavt
styrket
mick
sofa
obehag
fordele
fanga
##pin
losningen
opbevar
forg
chatta
##sens
tidligt
pavirker
komplet
oskar
##geren
kvarter
dial
poster
##vor
trivsel
##blogg
nødvendigvis
begreppet
fulla
spelarna
populart
##ulette
kurset
##ssitu
##idor
marcus
##iff
njuter
smerter
krang
##rafik
##paket
##skifte
producent
##dress
vedtak
skiva
ryk
gry
antib
bonde
allvarligt
festen
##estad
night
godkanner
repræsen
##plassen
risikoen
rorelser
proced
fremst
##put
m²
hjertet
oppdag
agent
uav
##hard
##sajter
##forskning
støj
katten
##præ
##melige
doser
rehabilitering
##iserte
##vask
rytt
sosial
leverandør
regl
##istent
nervos
##endelser
hmm
##central
##verktyg
avgora
send
##skilt
kreditupp
orientering
chan
##lav
fynd
blatt
applik
##gir
##halsa
ostersund
##jare
##ømte
omh
valk
scener
dott
omgivelser
university
vokser
inspirerande
skræ
##yse
lita
skip
##jd
traditionell
##tas
ped
##ington
jev
kasino
##oplysninger
forventninger
udby
asiatisk
alvorlig
gives
erkanna
130
epis
svend
krigen
stott
plante
who
ledamoter
mum
avlag
##splaner
biograf
fruktansvart
menyn
##produkt
rante
hera
rh
lampligt
billigaste
##sbeg
fc
formiddagen
##hallanden
kroppens
førte
college
##cast
escortt
avsnittet
servicen
##rukturen
halvtim
bestemmelser
##bell
kolding
emne
knep
massan
raddning
nettopp
##løst
tidningar
udgivet
specialist
##ywood
##delinger
pkt
trykk
##natur
angr
fitness
dron
ic
nasjonal
køle
chock
værdier
past
forloss
lyse
##garant
politiskt
##ible
enst
gjorda
aringen
##sbru
##cre
kropps
garanterat
palit
frustr
minskat
##smat
kontinuerligt
sammanfattning
##nitt
##nævn
tekster
informera
handika
arbetsmiljo
pian
adult
##hjemme
##ykkedes
management
brus
##skall
utforska
saljs
##lager
wow
##ulin
studiet
##givningen
ryck
##ify
##rens
dagbladet
##holdene
vurderes
vagbeskrivning
had
nul
arbejdsgiver
omkostninger
175
##ørte
kørte
pedersen
pause
hihi
huru
motivation
fullstandigt
tillampas
regne
stunder
orsaker
historiske
systemer
udarbejdet
miste
fisker
##frihet
miljoer
vaxande
seriosa
annoncen
gala
victoria
præm
##egard
desper
##komp
lem
hjelper
ansætt
fardigt
reseptfritt
videregaende
sammanlagt
##sbo
##ylla
blott
bemærk
lover
commun
damm
##ledningar
tillgangar
##holms
##ods
louise
mek
julia
##anmal
bemot
fyllde
##rater
vande
ce
##temot
room
levde
kollat
iron
elast
sygep
smukt
gna
skell
drack
unnga
oplysning
kontrollen
##hjalp
yttrande
smør
##vad
##alternativ
##vente
luks
desember
##entene
abb
bow
produkterna
##frem
blodet
globala
##undervisning
##iseres
foralder
marks
##sons
kup
irak
slanga
games
fungerande
policy
vinnare
toalett
##handler
aterupp
skolans
fysiskt
afgørelse
##forløb
øye
##like
forsam
depression
signer
darlige
privatpersoner
forlora
fugt
arrangemang
tennis
kende
##file
krafter
hvorefter
barcelona
darligt
udfyl
oversatt
##sning
symboler
##bull
71
hentai
grænse
prosjekter
##iskop
##cere
long
flickvan
scand
##ij
##atorn
##hænger
kriminal
statliga
stede
ovenfor
amnes
skarmen
##mende
eit
generalforsamling
##sep
print
satsar
befri
##inga
##oma
##ffade
faldt
ryt
hyper
ged
grabb
enstaka
##ups
##stark
aterstar
vinder
udst
artister
snacka
trekant
nodvandiga
militar
jonsson
leveres
fota
beund
retningslinjer
##isol
manus
##økonom
torka
##befin
vasent
kombinera
##ican
særdeles
byggnaden
utvardering
viktigare
##retten
##uster
resen
beliggen
fylkes
utvecklings
enskild
samrad
smaka
##omer
talat
mots
klapp
tilfred
restauranter
grek
##banen
oral
vager
spanning
maltider
filen
##motor
aa
##hjel
expon
myndigheten
suck
indflydelse
diskriminering
opprett
##arv
anvandarna
sjukhuset
isen
##regel
wild
forstor
harde
##agarna
lært
##laddning
varda
kunderna
narhet
deltagande
nud
beskyttelse
satsning
##kommun
begynde
utbetal
kampar
aterkommer
kalder
##foljande
school
finan
##iode
united
##oke
##sorganis
html
erhall
co2
kriget
##andan
ado
adresser
sakerhets
introducer
merke
1993
skyddar
manniskorna
slo
identifiera
værktøj
slap
##iljon
##gange
tilbag
opplæring
ført
overhuvud
ekspert
frien
trycker
torg
##etr
drott
kosta
##igheterna
kalle
##svagen
textil
##fram
##ifikation
utvalda
menings
tjanar
mattias
##elever
usch
fle
minimal
komprom
##uv
##ovan
dart
kust
ventilation
hahaha
##varna
sørg
anmark
sokande
brot
die
##ikat
pavirke
glatt
analsex
##gg
fortsætte
samarbejd
##ights
favoritter
stallt
##vise
anstalld
besluttet
tart
legges
balkong
vinduer
redd
retro
smuts
vilt
tron
klikke
undersokningen
tænkt
##cht
japanska
invig
vinteren
arendet
omstandigheter
samsung
matlag
foten
##stak
##xy
baserad
helger
170
rejal
undervejs
mindste
spen
flask
pier
medfører
##visningen
begag
majoritet
skel
galen
majoriteten
swingers
læder
cast
##begyn
chanser
gissa
konstatera
##issa
##kyr
##bott
##taket
##skriget
##stick
evaluering
inflytande
troligtvis
provat
##øjelse
bøl
framja
jenn
##menter
vitlok
viborg
hentet
arlige
klippa
støtter
holdet
##halt
##dack
katalog
klickar
malar
forvarva
glans
##gets
##visar
##alar
spørgsmalet
korn
about
kej
toner
svarigheter
pyss
kampa
##ørr
dumt
byte
##malm
##pak
##etts
høsten
##splikt
mull
##legging
terr
intervjuer
##oft
vaxte
##jakt
gilt
##vision
presse
ingred
saft
coun
redovisas
kore
grepp
sverigedem
karriere
plag
larde
##sajt
##ated
meng
bøker
ligner
##betyg
evangel
atl
##imentet
lykkedes
radgiver
cross
##entre
##board
omfattning
rubriken
lyfter
##emel
varderingar
omsattning
byxor
services
behandles
nei
biljett
##ætte
diagnost
normer
grin
grunder
gad
aktører
garage
utmark
##innan
slappte
kid
heraf
smaker
##bilen
sken
slutten
abner
uppdatering
kasser
professionell
aflever
utfors
scre
pornofilm
godkjen
danskere
titeln
any
##ating
copen
beaut
##krig
seksuelle
friske
##værker
redeg
spets
##inlagg
##edyr
hei
##løbet
lagstiftning
klarade
tabel
klog
##nom
indian
parf
plagg
stipen
##musik
tenker
arende
malen
lasning
utvid
varia
##peg
nur
fritids
gps
aja
utviklingen
##tro
aik
suver
##33
##omi
kandidater
oppgaver
gyll
tumbl
slutat
ursprungligen
foreslas
utspel
utvecklats
lukt
##vens
utvecklat
tænder
trækker
morgenmad
forplikt
fylld
ankomst
rang
##tegn
fixade
lyset
endring
##kansla
ff
mild
dreng
##bytte
afsp
ansat
forventet
øjnene
##effekt
arbetade
viktor
muligvis
##speriod
##aser
aterforsaljare
varumarken
forbattring
view
publiceras
vul
fokuserar
keram
forkert
lockar
oppfølg
##industrin
samfunns
skete
hm
##oken
birgitt
##cs
peppar
middagen
##ki
dyl
##uf
kompa
utlandet
regional
kampanjer
eur
1992
cykla
ign
mødet
rulle
forha
##værdig
##ios
interesseret
producera
forskere
bell
fortalt
vana
prestand
ersatta
italiensk
tradgards
camilla
aterham
##verden
gitarr
##atiska
##beskytt
onska
installningar
samfunn
kommunfullmaktige
kamer
##smannen
serveras
tillverkad
byggdes
##ifer
effektivitet
##verre
samfunnet
##pension
##junkt
hangde
##utvikling
forvaring
experter
korv
inlogg
vinde
##gorande
stok
##ellet
legitim
##ato
konkurrence
informations
##ekonom
chokolade
pok
##ikop
ss
##flyg
marin
nyan
bero
91
anslag
gallde
holdes
aftonbladet
##cha
kyll
innte
verktøy
opsta
baren
fylke
uttag
slump
##illinger
1700
domstolen
##valla
pojke
1950
kle
tub
navne
tumblr
adfærd
##test
##oliga
begaran
madde
beliggende
hemskt
##forbru
##ords
meta
kungs
way
##ife
stabilitet
lakaren
kladd
jung
##vning
konkl
begrens
copyr
elevene
frida
nyanser
viet
ansøgning
##ationerna
beregnet
##tral
##etisk
samarbetet
landbrug
delarna
pia
##mag
vaggar
varumark
fæng
sælge
foretags
lagsta
kolleg
panel
oppnas
jør
forlat
##not
nomin
grun
vg
grunnlag
omtr
udvikler
quiz
overklag
foretagare
##ytan
jamn
opplysninger
mister
fungerade
parørende
##shav
##miljø
sættes
mandat
diagram
forretnings
##sforet
casinon
##retning
teksten
unger
##jening
dræ
galopp
##lakare
rengoring
brygger
sentrum
jattem
lenn
##stopp
kaldes
forskningen
krev
##cal
amanda
##smæssigt
styrker
energim
tillsyn
varumarke
ingrediens
##penge
##gro
debat
aggress
tankarna
normala
##nævnte
nettstedet
##sledare
farfar
kjell
##sident
tunge
floden
spurgte
maken
##udstyr
deltagere
mængde
prostitu
##sloven
brygg
kvinnorna
kali
handikapp
cou
utsl
leif
jean
tredjedel
koppar
opin
attraktiv
##gb
bjork
##stran
hogskole
##iro
konfir
forutsattningarna
satts
##pladsen
organisasjoner
clo
hensigt
konkurs
udnytt
vedlike
##lopp
cec
bach
italienska
ling
hap
kjøper
etablere
brutt
handlingen
anteck
gula
rullar
efterl
medic
bjørn
kock
##jef
vaska
søster
must
adel
solo
bange
udlandet
alg
visning
##dis
hypp
copyright
innebærer
iso
sykehus
##drede
vender
##teres
spelen
slav
dubbla
##kram
##35
##iserede
##imin
irland
##forsikring
forsor
##ikerer
distans
kristianstad
stel
extrem
eksamen
funktionsh
hertil
race
scenar
##isjonen
tidiga
inkludert
##isjoner
oplevet
onodigt
anvendt
makten
##shistor
forsvaret
anta
fundament
##boy
350
artist
anstrang
forretning
##hurt
snap
namna
sakna
stemning
gummi
margar
flakt
tipsa
##registr
##sratt
skilsm
##væl
hyf
firar
musiker
##rive
tomas
saks
maksim
##utrustning
##navn
million
##kande
dagars
page
kjæresten
typiskt
affald
orkade
sjunga
dertil
underlatt
anmeldelser
##sband
##endelsen
##ollen
stak
tiltag
vindkraft
##omal
cons
skylt
løfte
rente
##sbar
##ljus
gaver
batterier
gradde
trygt
##forum
categor
markligt
mynt
##ites
poolen
stue
creme
palest
kallor
webshop
nominer
glid
huruvida
anklag
tabe
overhuvudtaget
rakade
royal
skjuta
oand
ms
kommand
vikar
##nr
minnas
ekologisk
kryp
allvarliga
beslutade
##date
jamstalldhet
samfundet
medi
blind
bekan
mønster
beveg
avslutade
esp
##brid
behandle
importer
samhalls
ledigt
revolution
sokt
##agere
##kester
copenhagen
lagret
science
omtrent
underholdning
ekonomin
##verksamheten
##givelse
profesjon
gulvet
ledelsen
##tals
pensjon
##cos
skivor
delade
officiella
suc
lakar
125
frihed
slutningen
anfall
tett
forsy
##stallande
forklare
skolens
##stock
mora
##undersøg
frygt
##cle
cyklar
drama
nin
##kontor
##work
##jek
vardera
kigger
##rud
narmar
ensamstaende
fisken
partners
##venskan
smalt
stein
##nelsen
beskytte
breda
folks
granskning
##tages
##knipp
partik
##forsor
wester
konge
energik
masker
office
tillfalligt
##kland
cash
optimalt
vidunder
##cancer
##itch
fixat
anvants
instruktion
fornøyd
julafton
##kus
kendskab
foretage
verdi
dennes
passende
medlemmarna
arrangement
genomfors
smycken
pastar
alfa
tænkte
grønn
sjunger
auktor
suppler
ulov
missade
borgen
##ogs
##relater
##atar
lakt
##sætninger
##usjoner
respon
##arig
##circa
##sem
sorters
begyndt
adcirca
sud
##hydrater
balance
vardagsrum
varsel
lararna
konsol
meld
jagt
photos
planerade
frys
sodertalje
arke
##teknik
sankt
mette
georg
kommunicera
hagen
høye
lil
siv
##agelse
laur
##instit
##terapi
pornograf
ejendommen
##lassen
installera
##papir
koppling
overenskommelse
kostnaderna
##biler
tegne
hænger
exklusiva
markedsføring
dansa
bringe
abs
rekrutt
##tan
uppfylla
begyndelsen
foretages
tvekan
olsen
onan
snak
tommy
vegas
gentemot
konvention
teor
stjarnor
beslutar
north
flertalet
slippe
tillslut
forsøge
gymnast
##given
##idig
sakaldte
discipl
returner
##sakra
langsomt
foreninger
bekymmer
sunn
tjugo
hjalpt
##løp
##wer
veder
pm
opera
lesbian
ogat
dead
##ftt
az
lr
mandel
##potek
##bilj
dryg
##planer
aftenen
##sang
bt
manaderna
betingelser
##sløs
tide
##yske
deltagelse
##vagar
socialdemokraterna
tobak
individuella
kjøkken
belaget
##unget
hogskolan
bager
riktar
gt
øre
tacker
spansk
##ffat
øker
grænser
bratt
mir
arbejdsmiljø
studenten
##rap
friska
glommer
##levelser
ending
fjerde
mojligheterna
##nadens
women
##mater
virk
tann
sind
skriftligt
comments
egnet
##lamp
##ulen
professionella
undersøge
skulpt
testade
odd
now
hallow
nyheder
ekologiska
##aton
oftare
formagan
diameter
kontrast
formiddag
##phones
slatt
skedde
miljøet
centrale
##umen
vantan
lof
fordelen
##ommer
##cript
cirkel
ded
individuelle
imponerande
##hotell
smidig
vaxel
vaken
##fjord
flam
brukte
##hallare
tyrk
behall
jatteg
fødselsdag
godkjent
##iks
isb
extre
legetøj
vitaminer
bestemme
strang
##vandring
gris
##ksjonen
øjeblikket
##niveau
hurtigere
brad
##gørelsen
bestyrelses
##juka
spørger
##aldt
anvandes
food
presenterade
aft
ada
##spor
ljusa
vintage
variation
helena
##ktorer
##ield
finansinstitut
pix
flygplatsen
pend
investera
##grav
avdelning
##ægge
godkannande
##ækken
nationell
yderst
formar
##23
analysera
sokte
koden
arsag
talade
##hallning
##99
##brand
farten
ressourcer
music
##stoffer
bladet
vilje
##være
##juden
##mn
##atiskt
storleken
##hallet
leende
mira
aterbetal
protest
inkomster
lyssnade
narvaro
##centralen
kampe
fad
1991
avtale
hoppar
antibiot
vedt
dybt
liberal
##fukt
tackar
lavede
hanterar
vans
decenn
##ict
##ero
wordpress
##trykk
##sekonom
vs
fos
cigar
afhængig
see
##fu
hk
##direktor
5000
ovning
underteck
fulgt
undersokningar
flagg
alvorlige
##trade
skattem
grunnleg
seriost
øjen
besluta
##stendig
##frist
halt
poul
hygge
silkeborg
missbruk
definier
##jed
##laren
dimension
hogtal
anerk
##ærende
engelske
##chf
tomten
##okan
hastarna
##ail
skelleftea
standarder
indret
##skrid
lugna
skradd
forskrift
##smetoder
livsk
fulgte
##able
##klin
varna
optaget
generationer
festivalen
##feldt
##kig
fabr
tilfeller
apps
turer
ursprungliga
cecil
myt
##kaka
##skoler
lengre
høyde
jørgen
synnerhet
##issen
nys
tomma
øverste
likasa
bestallde
betting
udføre
tolkning
tagits
##elie
fremtidige
shirt
liknar
tilpasset
opgaven
ursakt
##sell
arligen
trafiken
##ati
##undersokning
##makten
mn
forvanad
##stur
##oped
marknadsfor
##omme
lednings
##lage
logo
vardagsrummet
##infl
##ikan
krava
smartphone
##ulering
##syk
internt
ping
aterbetalning
adskill
fulde
lakemedels
##fron
##bibli
search
tob
ultra
glomde
##pladser
udføres
##ssons
miljop
dessuten
samarbejdet
##ky
paret
##meddelande
##imot
asien
extern
uppenbart
løsningen
effektive
havn
placeras
servera
##krav
##pg
pilot
butikk
sandra
##frisk
størrelser
ahl
##pressen
gods
bensin
langtid
idi
feedback
sofie
forknipp
aterkommande
##ua
##kets
maneden
##dahl
mejl
##skolor
color
informationer
udstyret
sengen
sondags
feltet
møbler
sved
kjønn
aldern
udfordring
##nan
sound
hæv
upphor
succe
ash
##kott
##orienter
##vol
##berget
politikere
opdateret
sjek
fakult
blyg
##zo
radik
lasse
medverk
dyka
oprette
deklar
hytt
negative
omstændig
talas
erstatning
##fft
filmerna
##villkor
arbetsmarknaden
armar
bokning
endre
lillebror
##givande
mistet
coop
##esa
flod
hemliga
konceptet
visit
##assa
lede
udendørs
browser
budsjett
##emt
myndighed
kulturen
styrels
know
##ligheden
tillid
grafik
skib
hallbart
dragit
hyggeligt
##holt
ljuv
frista
gutter
bana
##maren
utfordringer
gh
hørte
uppenbarligen
utstallningen
##illkor
flyga
noggrann
skratta
##itteratur
vegne
dagsorden
blik
sjove
##onto
dagene
bonusar
juridisk
undra
##status
##45
lesbiska
3000
ungar
hiv
reflekter
##gers
##sutveckling
kopet
øvelser
##elly
takket
##byggere
##byen
jaja
talets
lina
biver
pel
medborgar
vagt
vip
handlinger
asp
bevægelse
nina
##rakning
brænd
##laggningar
laggas
##can
kh
##slov
kakor
mins
##ødt
beslutat
avhengig
ubehag
nrk
news
arbetsgivaren
##radare
symtom
tilltal
##esult
bedoma
##arrang
##jene
##urdering
helbred
nyder
selvsagt
interna
zoo
roulette
skovde
galleri
nodvandig
alice
##ukket
moll
##allen
intellekt
instruktioner
stanger
dna
skjønn
enklere
tappar
beredskap
havdar
review
foster
forkort
##ætning
tryggt
skota
login
problemen
skaffe
##frit
##komne
tarm
##vede
fristaende
leds
##strategi
##stjanster
dokumentar
beslutninger
##opgaver
##ocke
story
ork
følg
##jel
aftaler
##rn
bekre
hundratals
avdel
skamt
behandler
##ssjuk
##itativ
uppsag
research
assa
stracker
exemplar
kassan
##sklass
##analys
radsla
oc
##styrka
købte
skickat
naede
namnda
##tagna
##ratta
neut
drejer
##dsel
medarbejderne
blods
uppgiften
nærheden
livsmed
sjekke
chefen
bransle
overveje
uppdaterad
##fug
pekar
merc
sjong
##arbeten
eftersp
##ents
halloween
orka
##byxor
kub
gd
anim
milliarder
klinisk
##akes
utbudet
varierande
##platta
horsens
veje
##leje
kjøtt
##register
##narna
representant
bidrage
kostt
##rapporten
gjennomsnitt
slottet
##kostnader
mandagen
tjene
##bidrag
##brev
afghan
avgjør
ovanstaende
##kg
hill
angst
tinder
##kron
tillhorande
matta
hjalpmedel
##forsvar
baksidan
ekstremt
##have
##lange
gold
salu
##upplevelse
sykkel
##une
chefer
##orge
nasjonale
##betalt
begynne
##komsten
bærer
elektrisk
nettapotek
fatal
road
##læge
marian
offens
redigera
##anas
hallas
frø
bedt
flo
##otekn
konstrukt
ombud
frik
##entes
louis
efteraret
##ygdom
menu
flygtning
regionala
gasterna
foraret
##sgatan
professionelle
##æle
##pil
##estyr
enheder
gjennomføre
notera
mach
lchf
flug
individuell
kristendom
kilder
avancerade
relevanta
landslag
tillgangligt
fien
videnskab
darav
kusin
demens
præst
reparation
software
registrert
fixar
##saktiviteter
##viv
##text
apnet
bivir
udvalgte
ivar
flykting
opplever
sevard
##skema
undersøgelsen
killarna
mobila
uts
rettigheder
batteriet
##skarm
hollywood
utbygg
utse
bond
behandlingar
fattigdom
found
##skons
fard
heldig
##foder
avslutas
pyn
udbred
menade
onani
redusere
uddannelsen
nationale
lotter
kræfter
##ialt
konstaterar
bane
kommunstyrelsen
patrik
##univers
inflamm
##ption
##svag
hab
nævnte
chau
døgn
inuti
lampliga
armband
sygdomme
brøn
arbetsformed
kalde
slagit
stugan
cyk
sterke
producenter
rein
jordbruks
mangfald
samarbetar
##ward
##yggen
skriven
##trar
principer
avkastning
##aktig
##mart
imøde
locka
uf
sticker
charlotte
size
autor
remiss
tomat
##varon
cover
flygplats
##srika
agna
ode
tørre
hvit
længde
glede
##hing
##ureau
after
kreativa
størrelsen
sjukvarden
norde
afhænger
regiss
skept
engl
flad
forelasning
##ami
##istrasjon
bedrifter
makeup
brem
hamtar
##olet
lyng
##chester
utsatts
kreative
kravene
fortsette
##panel
jimm
skikkelig
##underlag
arbeten
##virksomhed
kontaktuppgifter
stralande
ansikts
##skada
klikk
1600
lux
interiør
uppgrader
brak
jakten
anvandningen
mineral
richard
beredd
tilladelse
meddelanden
doden
##varende
pancake
rabatter
kode
oppleve
trotta
boede
wel
amerika
uthyr
linjen
##istrikt
alderen
ytor
protester
##prøve
konkurrenter
tarta
narkotika
##ieffekt
femt
professionel
karen
norway
medføre
snick
##ebr
leverandører
globalt
tjener
trygga
besvik
dream
mammas
kanel
gbg
tillverkning
sanka
afsted
bekvama
minnet
dukker
##ibland
flit
smakar
xn
hogskola
anmod
opskrifter
bestemmer
herning
chic
latex
sanning
forfl
gmail
##utna
billigere
##mis
torsdagen
##akul
##dier
##promen
behorighet
##alderen
namns
avslutar
##olie
dessverre
tranat
##nis
unikke
##astning
flaska
venligst
forvis
bygnings
contin
##ilde
##car
hendel
##maskinen
dren
anlaggningar
lova
kallat
##dra
##inden
360
##reser
krets
##mets
##forfatt
onskan
tillverkare
sammenlignet
drømmer
falun
frie
##umtion
infektion
hamburg
##ifikat
servering
bestil
##skudd
dorrar
##inspektionen
##ysk
##namnda
samtykke
meet
##nær
sans
atervand
##sleder
##etil
##spres
fron
langden
overordnede
otill
utvarder
rimligt
myn
avdelningen
rummen
mjukt
greit
gade
81
isolering
##xamen
centimeter
forvejen
bostaden
##bygge
##mæssigt
bekost
angivet
ego
minder
filip
torra
salde
sajter
##raning
agaren
tonaringar
upptacker
handica
##stugan
stir
langsiktigt
kenn
tidens
salen
stopper
dagslaget
jordens
bygningen
forfall
pirat
bedriva
forverk
spelaren
forebyggande
tittat
##stillende
berattelsen
blanding
dubbelt
rumpa
stackars
forvaltningen
sælges
margin
##ønns
vass
anpassade
##laggare
grim
forsøk
nb
handels
huvudvark
intera
stabilt
vilda
american
mojliggor
badrummet
##sfors
hett
forsigt
##jeneste
destin
beskatt
mørk
##egrupp
etablert
ariga
christina
forvarv
rotter
fordr
jessica
søknad
##ydde
anledningar
tappa
egenskaber
ljust
accepterar
udn
landerna
dt
forsakringsk
vattent
kinesiska
flat
madrid
kundtjanst
villig
shoppa
kalt
asfalt
forlorar
##amerika
virksomhedens
anvender
##bilden
hæl
smin
skugg
kulturer
ordfor
købes
sexfilmer
##vaxten
upplevt
##sende
dottern
snø
tagen
reform
folkets
receptet
##casino
medium
##skvallen
smaland
cand
basket
sektion
##snummer
wiki
slappt
overalt
##skontroll
strategisk
overraskende
##bileum
grovt
##oseks
##teringen
sul
ekspl
inntil
risik
æld
miljovan
fonden
fjol
##mers
##vald
skrap
##parti
bokstaver
interessante
##wor
talent
analysen
##smag
##vapen
##finansiering
##linjen
pænt
annika
tillit
##point
turkiet
##ernes
portugal
indtryk
overlam
xd
nordjylland
tilknytning
sendte
kopier
key
##sklubb
kemi
ake
paradis
##marker
brinner
melde
##ningene
imponerende
famili
erf
duschen
sakerna
orsaka
bibe
kalorier
ydelser
slappe
sinne
kortere
##rent
foraldra
oppfølging
grønt
grundades
klo
undersøkelse
lønns
fylder
stilles
##estaende
finansiell
dyrare
deltagerne
##stationen
fysik
kvartalet
fjernet
vanlige
trafikk
passande
##vant
seier
anbud
danner
tilgængelige
fortjanar
uhel
smed
frivilligt
kladerna
reaktioner
##ippa
##lægning
manu
missar
mysiga
nyborjare
imper
##fraga
djuren
vanskap
##oty
stolen
gy
narmsta
##familj
forældrene
gaming
##ters
externa
kret
kørt
niklas
dispens
tappat
prestanda
flyger
sentral
forlorat
##ferie
care
ansluta
##rock
scor
beteck
ljudet
slapps
medicinska
haver
##igenom
musikken
infora
##stest
rabat
hyggelige
sesong
kondition
break
dartill
samtaler
##etch
rekrytering
accept
pun
slikt
sjalvklar
bildene
deltid
young
appel
klinik
hjerne
grekland
##emaskine
##ovre
underhallning
odling
metro
benam
uen
nedanfor
hf
##sack
##stro
##kla
##ykning
tillfor
##karna
##lagga
nackdelar
rengøring
stater
tast
##nerne
udde
##terede
jamna
##oks
bedoms
##vux
kolleger
samler
fortelle
overenskom
##gener
skærm
great
besatt
##inds
skrattade
handtag
postadres
##gin
ebon
##ættere
##sti
trakasser
spid
gos
##resan
søges
tilhørende
##renover
varldskriget
latina
hensikt
fordom
regner
figurer
##srad
##forsy
afd
fremmed
godkendelse
opfattelse
##spillet
stry
avtalen
samarbeta
##ekon
røg
blaser
udvalget
genomforande
jesu
patent
##ст
helhed
elisabeth
klem
forvente
belastning
skraddars
kommunes
tatu
export
christensen
##usjonen
timers
strip
##iget
kasse
pern
kommunene
##yft
##rorelsen
frankrig
besokt
##laggningen
##ipul
exam
examen
##olution
stuga
inledning
baseras
biskop
tilføj
faciliteter
normale
##ipper
kryds
ale
berorda
oprindelige
##svej
verdenskrig
møller
##ingens
landstinget
rud
utgjør
##elater
forstyr
varmland
rulla
halvdelen
##ople
mul
troede
borte
##iful
pp
boj
djupare
webblasare
water
vandrar
##gran
##video
feta
damms
uttrycka
manliga
mort
kjøpt
##tagning
sterkt
dages
afholdt
bekanta
##beting
##skrevet
registreret
##gjøre
##hot
canada
##pning
spet
##styret
lytte
overdr
##col
oprett
lotta
##klassen
##strad
progress
fysio
vokse
overtygad
##terapeut
luksus
auktion
avancerad
slutter
##veien
omgivning
kaste
lægges
sax
afslapp
tillkommer
##kapital
fremmest
##hv
falde
##idering
##ferd
racka
skønt
##foretaget
arbetsdag
##skande
scene
##ogas
tilfældet
sving
ey
kreditvardighet
intakt
forsvinna
helsingfors
skym
mammor
utby
forelasningar
pist
nedsatt
##viser
##bent
##faltet
##aktiv
fotografering
popularitet
funderingar
dkk
funderat
##bom
forbruk
generalforsamlingen
livsmedels
lila
ebony
##standen
skjedde
frammande
1989
##fonden
katastrof
kann
##skriven
synas
redog
uppger
husets
spelautomater
hardare
##27
##even
##ofte
##asjonene
##26
terapi
next
indsam
##krit
##værket
angri
spray
##aktiver
holdning
##nov
glemt
stravar
oroa
ligg
differ
wash
applic
##æsen
##antor
genu
lønn
etiketter
##34
julklappar
subst
name
ramt
fødevarer
noje
anhoriga
##angs
##jack
hornet
lokalen
##miljo
fotos
noggrant
benyttet
fryser
##bis
##sammen
varmer
##skader
liver
jacka
##flix
herfra
ansl
samtalet
tina
personuppgift
onsdagen
##aganden
##weg
skilja
vetenskapliga
redskap
allvarlig
##unna
nivan
boligen
##konstru
varannan
bastu
intyg
stamning
opposition
george
##az
##pten
møtet
##apper
##partner
##parker
##stændigt
pladser
tradgardar
lise
morgenen
helvete
tufft
##fas
manads
ostergot
did
##feltet
tusind
natverket
##olyck
systematisk
gennemføre
idol
##chefen
hval
snabblan
vietnam
##grens
bestallt
foreg
trykke
nost
##ymer
josef
##yle
tilsynel
sult
kartan
##massage
helikop
##sforbund
arbeidsgiver
trender
fortsetter
ll
obeg
forholde
##lapp
hemifran
kopi
##ology
forekommande
##loven
kontinuerlig
semestern
##nos
inger
lt
##mek
framgangsrika
provade
kosten
sikret
mennesket
##plet
##ji
utru
dækket
tv4
teorier
entreprenor
bestilling
skepp
farliga
forne
vuxit
mads
forank
kaldt
udsat
##sels
mandags
doma
##spot
hogkval
perspekt
ment
marit
otte
radhus
olymp
trukket
##vendig
overl
drick
vagnen
cock
liga
##ory
ringen
##urgi
elektronik
##ningstid
##oppar
sterk
verkstad
innanfor
kontaktperson
##valet
lennart
solar
handled
røv
fb
arme
skivan
sho
slaget
##jorden
filosofi
tjenesten
smyg
##present
aftalen
forutsatt
forbruger
smartphones
champagne
forsaljningen
rita
situasjonen
ifk
funktionsnedsattning
bass
nyere
##edition
lovgivning
seni
overvak
spotify
bagge
dispon
provning
snakket
viner
rensa
startat
##byn
videoklipp
compan
##ræk
years
fremstillet
skritt
vanligvis
##yren
##itution
grunnleggende
##uff
pase
farska
kvallens
utrikes
terras
theres
##sprog
avdrag
##forbrug
begara
hull
gens
slaet
##edal
syl
minsann
##check
rapportering
tilsl
drommer
framtidens
slid
personerna
ambassad
river
rapporterar
lex
vekst
hungrig
##rester
ukraina
stilen
atal
graviditeten
bitter
ture
farge
tin
maila
##mæssige
sprit
##atering
pics
rorande
take
chili
veterin
tillverkade
oversattning
skrivbord
##lement
##fyllda
##træder
kalen
stamp
diet
##byra
lyckad
flygplan
##aktt
registrerade
##arten
bjør
wood
lekte
ændres
##mjol
køkkenet
most
##rest
mkr
##ways
præsent
##pulver
chance
loft
rasmussen
prostata
178
fugle
rakningar
##ønne
aldrar
frat
##plo
havne
saljare
borgerne
nettsted
misstankt
leveret
arsager
##kultur
villkoren
fester
forvantar
opskrift
forenings
rider
nordiske
bug
likhet
##iche
tappade
namnden
##dren
##rorna
dil
flytter
##oon
forebygga
udskift
sogn
estet
anvandaren
leon
##utor
##kortet
##pump
medvetna
please
firade
psykologi
anpassad
kanada
stolta
bøs
##bør
##ittel
drink
prylar
##hag
skadespelare
besluts
stjerne
fodda
motorn
tumm
paketet
##ustrer
arbetssatt
haromdagen
konkurranse
kalv
kjønns
##stilles
hamnat
autent
##sbeslut
low
anskaff
skaper
handicap
##ville
sexuellt
express
##handeln
##skrivna
affars
##listan
næringsl
kbh
##linje
##give
##haven
vakre
tes
allih
transpar
##gel
##dade
malrettet
maja
motesplats
tjansteman
tig
stere
##objekt
receptionen
alarm
polar
udlever
anbefalinger
##seln
jackp
##entuna
##stuga
bygges
traditionelle
main
kompakt
##vardet
byggde
##vanligt
ekteskap
##bror
##flode
##kult
soph
kanin
##jem
##65
##øjt
vagn
toler
sjukdomen
bedomer
##resultatet
##bot
minskade
##poang
fange
insidan
forstand
regulering
splitt
bingo
langvarig
db
byggs
ggr
##cist
plejer
##nets
fremgang
##ject
nyttigt
##tell
##marknaden
##eva
##æb
nit
##jenester
faglar
insamling
gøy
age
hallbara
innefattar
hamnen
affil
betraktas
##aterne
ystad
solidar
inkluderer
havre
oppdatert
producerar
kemikalier
rub
##him
##undersok
hjarna
selvstændig
utga
alskling
##ammer
string
styring
aktiebolag
genomforas
portion
albert
hjernen
allergi
syda
##middag
svære
##lada
forbedring
##ickor
lappar
syre
1920
trail
testam
##saret
##traning
ds
##jeller
værktøjer
oga
lyckligt
feng
pont
179
fortry
sned
skifter
ryn
##ærke
##ws
bløde
gator
mødte
pulver
koldioxid
drop
skiftet
##delag
atom
heste
skarpt
1930
dnr
vaskan
varst
utroligt
sommerhus
varsin
##dell
upplevelsen
##come
##plade
indsigt
##esi
psykiske
bedriver
beskrive
##gjorda
trop
humør
sydafr
hjemmesider
##orgas
programvara
null
lampor
lektioner
tjeck
anmeldelse
klack
plockade
militær
ovenstaende
svagt
##alem
##ytor
##irasjon
beskrev
drin
oppfor
there
strik
skogs
klev
##urder
tiger
endelige
easy
hænge
##ilitet
nevnt
titlar
skilt
reflekt
medlems
uppgick
##arande
nato
afgr
##iggede
sopp
##raffande
sjalvfort
##stede
underhallande
tjocka
##mindre
rantor
underlattar
utstall
strack
only
dygtige
klassific
tillatet
halland
##cu
hallit
britiske
javligt
elite
##venn
orgasm
uddannelser
lay
kongen
absor
fantasier
fargerna
##holdende
avst
##77
pladsen
besøger
##ælle
diskussionen
##format
inder
digitalisering
utel
varning
##slig
formel
techn
##ikern
hanteras
entusi
kaldet
kørsel
##komligt
tillhandahaller
##cas
hero
strumpor
avgjørende
sola
sparet
##28
xl
manchester
gata
fokusere
classic
##ssyn
anlaggningen
bevara
udvi
##sbanken
##etøy
##utik
innsats
efterfrag
minskning
høring
##orgen
forflytt
people
tillbaks
rantan
bege
ingang
jørg
##fond
##evin
head
##ection
nasan
favoritt
##pert
1200
rick
ensamma
rets
præsident
bredde
##annat
byra
stiftelsen
##atsas
bortsett
almindeligt
høg
konkurrenskraft
ettersom
##ame
##uls
##fallen
gleder
njot
væsentligt
ingrid
lada
##bber
konklus
somras
berattat
##ændene
evner
sovevær
overbev
brænde
adhd
behagelig
tender
afholdes
##vejen
##centret
psyko
hip
stug
imens
##modellen
reste
##stjansten
##trakt
uppsta
legal
##ningssatt
##stroms
aktiviteten
sokning
gjer
kostnadsfritt
afghanistan
hvoraf
vedtatt
ration
##win
ytterligere
slanger
repet
køns
kronisk
sesongen
jævn
##hallande
little
katal
style
forsakringen
grata
trakig
##baserade
nybygg
##blikk
melder
populær
##ening
kommunerne
driften
harddisk
kannet
næring
escorter
strej
torn
klat
forsvara
medmindre
##spolicy
forstora
ethvert
drevet
##ops
perform
mellanrum
tranade
tilbak
##koden
##sey
##jener
chips
kyss
bekendtgørelse
alternativa
løst
##syns
sexuell
forhallandet
ankl
kreditupplysning
utført
spørsmalet
ellen
robust
kum
besluttede
forhandler
huvudsakligen
kanneteck
hallon
orsakar
gava
laddar
cos
##øtt
regionale
landskapet
##avstand
##namnet
homoseks
jordgubbar
arsredovis
diagnos
##riga
##rine
talam
tilknyttet
ultral
vaske
use
varat
image
mors
##tagande
kjører
erg
nationellt
cyber
bn
vestlige
buff
associ
rute
abonnement
naet
##landsk
tavlar
every
overflade
sony
maven
skadestand
inspirerad
stigning
##serna
##vetet
hodet
##idrott
koncernen
syrien
grannar
riks
skjor
spænd
##kald
bryllup
benny
klarte
handtering
ray
evigt
operativ
betales
overstiger
reiser
trenden
traditioner
##sklader
kiggede
note
##skatta
genre
pals
##sevne
vvs
##shamn
oratt
##producer
##desig
egenskap
mb
##strek
##organisationer
valfar
slapptes
shit
##vc
##raget
forare
tillverkas
gymnasium
stole
bede
raknat
##skun
aktivera
bilda
ratter
koncentration
##piger
mængder
bikini
boy
faldet
##syr
overrasket
tiltr
##speg
kvelden
pisk
svømme
malgruppen
bagefter
knud
snakk
flytande
øverst
##areal
##sbes
presset
##rejse
komplement
munden
innom
satell
vamp
lægen
slas
jordbruk
kompetence
vagrar
luder
invandrare
bosatt
hemmelig
automatis
bestand
gardiner
sammenligne
haug
tunna
erst
univer
##eborg
dykt
etableret
##jenesten
##prosjekt
løg
drottning
gards
movie
frukosten
south
bust
##adres
morkret
kommunalbest
##ен
godkanda
##klara
ledelses
linnea
##alth
hammer
susanne
roger
bygglov
##fiber
kammer
nobel
##ledende
derimot
skrattar
andrar
bega
##inska
psy
redakt
honung
plak
faren
tromsø
##idrag
markte
modernt
##angre
publicerat
ihjal
vaner
mums
logistik
##29
stillet
##hammar
grundig
##levelsen
##æmp
visby
ovrig
turne
##kasse
##asyster
udvid
tekniskt
vedligeholdelse
##bonus
##block
feder
tvil
##arbetare
##hattan
bivirkninger
læger
cred
citer
sallsyn
parag
oliver
billederne
##agda
conne
##onder
ligeg
tals
brede
##psyk
benz
##vit
marianne
upptra
gennemga
##somrader
tanter
casinot
avslo
##skriver
interne
##brød
##anmalan
##skabelige
belagen
sønn
mentalt
kk
skrivande
uppmarksam
populært
bokat
lararen
##ismens
##innande
sliter
tripad
vinsten
undert
batar
skrek
deilig
ova
uttrykk
tummarna
rutan
gebyr
diar
gifter
bacon
bent
sejl
lunds
##mott
brugen
##sformer
christer
exkl
følges
laves
##skyr
energis
interessen
beloppet
##sprinci
kanslig
krog
##adels
##filmen
individuellt
mobiltelefoner
abonnemang
utsikten
handlat
arskurs
##skel
aterfin
laddning
##tips
##bai
udseende
##bliv
klarat
kiss
uddannet
luktar
forlæn
publisert
toy
vistas
sarah
indstilling
onskade
##konst
norweg
klaga
spillerne
fantasy
forbr
samtalen
##ador
investeringer
distribu
##ferens
##ilda
selskaber
fremad
stillinger
##berga
ansoker
bevil
##bruket
##ningsmedel
pressen
place
them
hemsidor
fisket
konkreta
toilet
##real
grønts
##historia
cykeln
##vering
diskuterar
minoritet
smith
##ree
kasinon
##sere
##veis
##yggende
samtycke
##formation
##ов
tomater
##stet
djupa
sovrummet
##koder
forfatteren
justering
spillede
mentor
dogg
##ningstider
erstatt
placerade
minuten
skriker
##mig
organisering
mona
begransat
avslutning
##hojd
yde
fiskar
##ebo
fastan
neutral
rekommendationer
##stille
opplevelse
udenlandske
##ship
platta
##idas
forvanta
identific
fødsel
##my
##intresser
styck
##kontoret
værker
kylling
kjærligheten
##illet
##lyse
undrade
agar
sprider
gratul
emnet
##ussen
vaggarna
##spartnere
baserade
##garanti
brukade
##atiske
##ssy
eksperter
##opol
expans
sebast
##handlingen
audi
logg
krom
marketing
kristina
albumet
elef
cart
wir
doc
myndigheder
kristians
forskar
forklarade
svull
##isont
##forbin
##pati
foreslag
rebe
xnxx
incl
bestammelserna
talte
arbetsloshet
oste
luck
gabri
okanda
##ava
##dede
høyeste
aaa
genet
marknader
##rager
##undna
##venska
gavn
foreløb
bop
akvar
økologisk
utdelning
tanderna
genomfort
tent
fula
tone
##avet
projektledare
tripadvisor
glasogon
skattef
kvallarna
bitt
moderaterna
sejr
befinder
fucking
poin
talmod
tydligare
rap
bevare
sunde
signifik
##ierade
##arin
tildelt
1940
kinesisk
##lop
temperaturer
korre
##itativa
mineraler
nyans
##svir
administrasjon
given
beat
urban
seo
recens
missn
bly
##esex
erfarne
regnskap
representerar
overnat
formedla
trim
##ious
td
##kjøp
kognit
bornholm
idiot
eh
omvendt
trøn
barer
##annons
##anvandning
fornøjelse
advar
handelsen
##brod
lovet
harald
ganget
bringer
##skolans
bokar
byggas
##posten
##arina
##uttes
udda
##osten
caroline
fylde
nyheterna
resurs
frekvens
ks
sjok
##emi
utnyttjar
mestadels
apos
##kalla
gate
fase
##plic
skoll
arbetsplatser
##forlit
##album
##udgifter
##æssige
##speci
##ettiget
oprettet
palm
bomb
##forbud
varmepum
hygien
nysger
løft
nek
##dragelse
nja
absolutt
globale
tort
orgasme
uppdateras
whisk
organisator
##mund
kitt
##melser
kontrollere
card
komplettera
elias
tilpasse
lacker
##eloven
argent
cc
##foto
##stoff
genomsnittet
prosessen
category
##punkten
tros
jobbig
kunnet
##px
myster
avsloja
##ummet
rike
missfor
bluet
##plattor
relationen
agde
tyckt
indiska
kage
miljopart
##vende
ride
kunskapen
lus
bankkonto
##strakt
oplæg
amager
skorna
##utdan
sjø
sygeplejer
møtte
intensivt
##smø
vagledning
apel
manniskans
tilgængelig
projektets
astrid
glemme
syntet
lukke
bildas
ft
##kann
##møde
##zan
##mass
forhindre
blivande
gammelt
holls
flin
##illingen
kulturelle
likvid
bildar
##egarden
ældste
allas
versioner
bart
slim
##stallt
aqu
kandis
netflix
##agera
eb
asian
miljom
promenader
##house
inspireret
formular
finansielle
napp
radets
##ental
##evej
bedomningen
nadde
vaben
klokt
omstændigheder
biverkningar
varmare
##ologer
apner
yes
kyla
moun
ledende
matcha
kent
degen
redaktion
betraffande
oversv
##eksjon
sammenheng
##sforening
prast
stangt
ekstraordin
relaterade
pligt
hellere
tisdagen
slick
gjenoppretting
trovar
##vogn
torget
kostade
than
antibiotika
overleva
parterna
planlægning
singler
viten
##atum
blabar
videospel
gradvis
fattas
##sidig
##omsorg
hilsen
buller
herreg
beromda
##glom
pite
henvendelse
aland
utformning
eksam
##ikre
vog
hyfsat
ansatt
kanter
stodjer
angreb
imot
wars
fetish
uken
steph
spiste
1988
sverigedemokraterna
foruren
opkræ
##anc
oppgave
md
fanget
##sej
trænger
pink
klubber
nøjagt
overk
hjartan
falsk
ravaror
##scent
bryt
##slor
##butikk
pensions
pyssel
semif
##bullar
pasienter
nørre
tenden
datas
destination
##°c
forløbet
magisk
klubbar
##oni
##iers
planleg
rommet
roligaste
##esystem
overd
##fordon
birgitta
hotels
passform
##langd
romanen
sortimentet
schema
beboere
tillforlit
shorts
##pleje
singles
kafe
operationen
halsar
veiled
skønhed
##cin
ios
afslutning
##tradande
##iteen
##list
##mg
overvakning
ledamot
grafisk
modtag
##atsen
bildades
belgien
ressurser
sau
##lægge
saknade
antas
skrammande
valkanda
adskillige
lab
distribution
riket
letade
dc
fravær
likadant
mærket
tobias
tryckt
##prisen
font
##spress
balkongen
stjerner
redde
##gjord
oce
ags
##plasser
væsentlige
halvtimme
##card
pah
##udvik
rakning
##fari
skilda
angeles
besøgende
vackraste
##itiv
konton
##emar
##ikationer
cola
pluts
ændrer
rally
tillhandahalla
ærlig
smooth
gardagens
paras
##modeller
##buk
gass
rele
##vande
spik
tuffa
nordsj
flert
ansvariga
ledet
alf
##datum
kob
derfra
meddelar
sannolikhet
kolhydrater
bebyggelse
overlat
plutselig
##lur
omega
stoppet
bakken
##scen
berget
vacka
trakiga
dokumentet
##oe
regelverk
uppr
tiot
valdtakt
##egler
stiv
burk
beslag
soffa
##astaende
##rets
##hion
sentrale
forbereder
betalningar
malgrupp
hundre
arn
butt
##givende
##ktoren
forsakringskassan
erfarna
uavhengig
fordelarna
torsdags
jobs
##skyddet
passerar
fjord
##38
fittor
##ænse
##esc
##visas
kompat
rt
dur
varierer
series
##sforvalt
##shot
gymnastik
##jarna
##odde
hotellets
xbox
hands
##stræ
##forslaget
kampanjen
vibrator
forega
fras
##mænd
qual
padd
expressen
kontaktar
bladd
presentkort
sadel
##install
arch
peppark
indgaet
linde
sling
plikt
eksterne
vagade
utnyttj
hjørne
##essa
##bben
langsiktig
beskæftigelses
##festival
baller
avsedd
rødt
onlin
værelset
cookie
konstiga
bluetooth
skadade
##sbok
##svin
norwegian
##helm
skoven
##grans
##span
##agner
##illes
fut
vardnads
kansliga
skrivet
genomfordes
marginal
naked
rediger
forholdsvis
##otyp
some
ohalsa
besvær
##ross
year
##akers
##39
##kø
##69
##skul
##kapp
##barns
##olo
lg
hermed
kombinationen
begynnelsen
vim
ulem
##¤r
designen
tænk
##medicin
##æren
##kyl
guiden
##ekom
litter
utgav
agt
##cykl
pabegyn
stamningen
endret
motorcykel
stryk
puls
menstru
kate
frederiksberg
barri
##klaring
diff
flickan
forskellig
kjol
##enner
hellig
grasm
konserter
alp
overordnet
nyte
dys
##savgiften
stræk
felaktig
verdt
rabattkod
##spension
##bilda
blekinge
##funktioner
1987
##arbejder
utsett
overlever
mysa
forrad
stov
anime
situasjon
pakker
kanalen
indber
tillata
eksport
inblandade
shir
torrt
montera
uppbygg
stenar
migrations
fremdeles
slem
kvinden
overraskning
bella
nøgle
usd
liverpool
uttry
svarende
kunderne
##række
##num
resultatene
##bottens
##skyldig
storstad
lagst
pigerne
nacka
meriter
##svatten
uppmarksamma
vaccin
examens
assistans
følelsen
erotic
onda
forfar
indeholde
opført
forberedelse
energin
##befolk
duft
skarpa
forval
##fiske
landskab
publicera
##sty
tul
fars
##71
fattiga
forsin
elske
husdjur
##vaska
kvinnors
matlagning
mamman
herregud
sparas
vagarna
disney
flok
sommarlov
temaer
wer
##steknik
##edy
##alken
nordens
case
diskuteras
irrit
##ention
budd
kollektion
##bete
energieffekt
##luft
##vann
telt
##utvik
##asing
aksep
spro
jule
##skas
quick
##atik
zon
smek
resur
pedagogisk
filt
blandat
base
##cert
##bang
huller
begransningar
omdome
begransa
syndrom
javas
hugo
krigs
potentiella
skruv
juice
undervisnings
##ørene
##egr
blast
##øpet
nest
sitte
##okande
innovasjon
berømte
smarte
ovantat
akademiker
stadigt
track
jattekul
##vags
##kelse
hair
velvære
reagerar
1986
##rækker
english
suks
ansøger
##ynet
##varre
450
inspirasjon
potter
republik
tilstrek
##utbildningar
##tron
socken
badet
##emelding
højst
langsiktiga
bemotande
##klæ
##lejning
##eklass
harifran
absoluta
øger
gult
##dinge
want
##stjarnor
##svillkor
chi
samlingen
campus
tilføje
##hyll
borlange
##penning
##varen
barber
enskilt
forvisso
##bundet
##grepp
##fotograf
##ygen
texas
##arbeide
##arare
stracka
lopning
stot
genomgang
badeværelse
pent
realistisk
stunden
creamp
##ekont
uddevalla
bangkok
##pedagog
##sprocesser
agenda
medvetet
træer
garanterar
opfylder
##utbildningen
parkerings
konfigur
##estilling
##32
xtra
##ministr
##ringe
prestation
punkten
uppmuntra
##massan
##lunde
ulyk
bevisst
religiosa
##ovning
nordland
attraktivt
kroat
##lagda
kajak
aro
other
kvallar
stressad
##inkt
##skiv
testar
ai
utforas
armarna
matcherna
arbetskraft
belys
framgangsrik
justera
engasj
temmelig
emball
cougar
olle
bidrager
hovedstaden
skilj
holdninger
ankn
beck
konsulent
krisen
##ningsmet
melding
guider
generell
##skot
beseg
leger
snow
malene
hovedstad
##fære
tallrik
arbetstid
eder
##samman
sprøj
##kunn
##stalle
mulighederne
##smæssig
teste
solned
abort
skærmen
eksperimenter
manipul
kerne
drakt
##smo
verklig
vælges
brotts
##vaningen
uppvarmning
##dokument
##kens
danse
##smuligheder
lukkede
##skontoret
javascript
trekke
badkar
##ænke
session
gaden
##unes
ekologiskt
##yran
knack
ups
skyldighet
##stadiet
true
##ansokan
##rr
##ofs
kosmet
nedsat
sjutt
reklame
framsteg
forlæng
##usalem
##lyste
telia
brasilien
##samnen
kopare
vanligare
penning
formentlig
##room
##interv
##skran
naja
stuen
namnde
##malet
##akim
chris
olag
vera
loper
alltmer
##gjøring
##skogen
rymmer
##arl
vra
partiled
kf
stadion
konstig
##sele
motsatt
billetter
liggende
##problemer
sjalvstandigt
olav
##marke
hiller
positioner
oversta
styl
vrid
##strid
##bøger
johns
iaktt
surfa
##sforhold
##sanal
nærmer
##ping
obligatorisk
udstilling
teckna
transaktion
##blas
utrymmen
##peuter
betalings
talamod
kyrkans
vardagar
##halls
chill
hidt
nyfik
utrustad
jordbær
tallene
1985
blixt
onskat
##ftelse
merket
maximal
##alje
taggad
##asjer
gotaland
krydder
##korn
tod
skrivs
revol
##lack
##row
gin
##hør
snu
klienter
##quist
samhallets
logist
samvær
hyresgast
krypa
sagas
ugn
##cet
slappna
erbjudandet
tos
nettverk
treng
forbindelser
falken
golden
##filer
gule
alternative
##lægges
##ungna
bilens
hidtil
halsade
beliggenhed
##ates
sperm
jæv
kreft
##staltninger
kundservice
livskvalitet
nap
markus
##skred
sygehus
leveran
koste
##rol
politikk
schemat
donald
sou
self
bold
sammantrade
hemlighet
sco
cirkus
rykte
døden
sjunker
##ety
##edlem
tarar
kvinnlig
nal
##kvens
babe
besøke
turneringen
tenkt
obek
stortinget
kakel
arom
anat
mossa
spre
brevet
upplys
ild
manaders
smut
less
statlig
tillracklig
##filter
pastor
##loss
betegn
##utvalget
aer
##ungit
proport
##fuldt
ming
træder
følelses
hert
modstand
karlskrona
uppskatta
objektiv
intu
right
morker
forandrats
jerusalem
forekomma
arbejdspladser
smat
stationen
##ladan
paj
nedladdning
rettigheter
nordmenn
landsbygden
virkelighed
105
juridiska
spilde
webbsida
veninde
varg
bmw
omedelbar
styrelsens
meters
streaming
##situ
produceret
##borgs
bilarna
astadkomma
kjole
udpeg
bern
valfard
minde
tilladt
firmaet
##butiker
betalningsanmarkningar
stadning
fost
dessvarre
kind
dimensioner
bonder
kwh
lejligheden
kolde
bestaller
##66
otal
okay
forskelligt
veteran
nærheten
fashion
doften
##helst
førende
skive
##stilbud
##strar
grundigt
engasjer
ergonom
uppfin
sebastian
kunstnere
##øya
overgrepp
hastighed
foretradare
##master
##føringen
vinne
##ventionen
misstanker
ops
benet
provin
gdpr
monstret
haftigt
alliansen
amerikan
maz
udform
retor
værste
leveranser
##spunktet
neuro
amate
specielle
##foljer
tyngre
resterande
argang
parlamentet
handlingsplan
undskyl
uppratthalla
lejligheder
arbetsformedlingen
tipp
medarbeider
bachel
##illen
##ærker
præget
##ændelse
##provning
forhallningssatt
##foral
excel
menneskerett
skuff
##bles
omdomen
skord
agerar
##ria
slutsatser
nytte
rar
##essige
funka
##klund
oppdaget
utgangspunktet
hjort
##sbek
henven
utfordring
##svikt
visual
trygge
joakim
##entets
rackte
kedel
oronen
equ
##kol
engagerade
##icitet
##edig
dolda
kallare
klippet
granny
reelt
beta
kopplade
##44
kloster
kastet
##fet
partierna
flexibel
bedøm
glam
union
arsen
wellness
silikon
##xis
blogger
##viden
##brist
spegel
badevær
datingsider
jentene
sander
tøm
droj
##blod
yoghurt
vinet
##gøres
slutandan
fotografier
skytt
##sarbete
funnit
nedenstaende
##sforetag
gjeldende
rune
lovat
overvikt
umulig
forholdene
##andare
##cted
arbeide
second
sjukskoterska
##ækt
tilhører
##forhallanden
jattes
forebygge
vantas
rubrik
##straff
loppis
flow
mobl
##tert
lanka
inrednings
spesielle
uppdateringar
uber
pappers
aktuelt
slass
naglar
strukturer
stamma
pom
avgiften
tillatelse
##fett
syds
muff
##aling
betyda
loll
utmarkta
toget
kloak
##anny
vandra
##amnen
oppmerksomhet
lamm
##ibelt
blandade
køge
granne
rattvis
territ
taby
vred
##vesen
lanade
andrade
##æden
ægtef
huk
markera
inntekt
lysande
utvardera
##kart
count
disken
jørgensen
primære
sakerheten
##manland
pupp
egg
mave
foreslog
vennskap
krise
##leden
fæn
##eso
atervanda
runtom
##ergi
skema
kink
sørensen
fororen
maklare
lake
diskutere
spørre
##risen
arealer
begej
loner
bonn
1984
rf
tilfredsstillende
pavirket
sekretari
udfl
narliggande
opfylde
trinn
overvin
kompetent
utmer
dejten
originale
faltet
apent
##marknad
##udd
massiv
antyder
spilte
starker
kungen
ade
reading
utfall
aterfinns
influen
reportage
øvrig
resort
ypper
garantera
overtra
valkomst
natterna
utslipp
informasjonen
svarte
marina
jaha
##anting
leo
##37
##egner
##sle
træne
utgangen
##ateriale
jamtland
##regionen
fikt
arbejdsplads
aj
skype
##ifisert
boet
##yler
##klet
##aktivitet
sis
##arkiv
inneband
dygtig
talang
fæl
oklart
utk
registrere
##melding
klip
fortsattning
dopp
aber
raff
brid
kendet
##tede
efterlangt
##eda
dømt
vital
##bestem
klagomal
##isex
washington
nakne
brown
græs
tell
spad
paramet
vulkan
fede
utdrag
##organisationen
sevardheter
##saks
svan
##pengar
næppe
##idning
strikke
vedlikehold
kliva
sjalvfortroende
narstaende
portratt
industrin
##isation
fornyelse
snubb
##kvist
varberg
faster
##kostninger
satser
##studier
omhander
afspej
avdeling
blo
knæ
kopplas
workshops
##skomp
sja
koks
næstved
nacken
essent
husse
vispa
historiskt
##made
attit
hitler
existerar
##ettes
ønskes
aps
##vinkel
tenderar
micke
bk
grønland
smager
##kers
##ingene
menneskelige
fylkeskommun
danskerne
##straning
modsætning
aktion
konsten
kammar
fyre
numret
wien
hid
prick
verifier
##købing
explos
##plock
##nation
##nj
intag
kontot
intelligens
summan
##vanlige
tilfel
##festen
##chi
sjekk
sena
fullstandig
##andens
blogginlagg
onsdags
grekiska
##ortering
duscha
fortol
kirurg
##yy
luther
##die
##hub
besoket
ovanpa
##givaren
atmosfære
overgangen
klø
foreldrene
utslag
##personal
##user
veterinar
leser
samuel
dessert
patag
##helg
indrettet
indebærer
##prøv
##fabrik
lufthavn
bryn
monica
broms
##udvalg
applikationer
uppfod
##aksjon
bestyrelse
vap
hemmag
koldt
sushi
##estr
barnehage
skalen
##førelsen
bob
##nord
stina
elskede
kongr
##kit
##95
tripp
##skende
orn
indisk
konsekvent
spell
tenkte
gear
##jav
nyckeln
##mote
barnmor
lyde
trek
ursa
##rukne
resultaterne
entr
debiter
dejtingsidan
terapeut
parfym
##processen
##peraturen
##stren
ub
dynamisk
tankas
##ropp
latsas
stodet
##adende
omhandler
njur
mangfol
##ydda
##tillverk
præcist
drabbade
cockta
spridning
frug
held
brunett
varas
##ledninger
shar
samlinger
##produksjon
rolf
diagnosen
sandsynligvis
##uppdrag
##smassigt
fremstar
##iserende
priserne
interessert
##landerna
kriminalitet
tvist
rattvisa
##sagn
bruna
klocka
##handlare
##sveck
arbetsplatsen
##umma
racer
sovmorgon
kopia
temaet
tegel
##vander
befolknings
patt
vannet
##arg
tillampning
tej
flog
assistent
##andring
redusert
forsker
##liste
##størr
##skurser
sæsonen
staet
snarast
php
##kad
utgora
##æns
##eraturen
##smedlem
##ierede
enna
elektroniske
svøm
##sforsakring
omgivningen
plockar
berattig
innholdet
##fyr
utmaningen
##æne
##sallad
utflykt
kraften
slat
tilsted
##ænder
væske
helsingør
sponsor
overflod
udkig
##jak
dansker
skatten
##ammen
##oplan
reder
ressource
##lampa
##hastighet
##ejl
undersøkelsen
success
trænings
enorme
legendar
##faren
##agor
##bespar
regelbundna
vatska
##illskott
manat
malade
##seng
aab
##spo
domare
anpassas
fragestall
##order
tankande
resulterade
proposition
jane
alvorligt
uppkopp
mary
kottet
mosk
skidor
##bitar
strikt
spist
ral
domen
stolar
##hart
##omt
droger
nedgang
hostens
ære
##giften
jfr
##illverk
blomma
bydel
reformer
korrig
events
liden
tvunget
##farger
weekenden
skiller
referat
emelie
cykler
vardepapper
dirig
za
travel
friends
tyk
basen
##journal
herom
orkester
polyester
##kredit
##fylld
skatteverket
##ferien
##mastare
resenarer
dyn
funktionalitet
##sdata
offentliggjort
blondin
gjest
indirekt
terrang
##spark
kundeservice
##sparken
##sikker
pornost
bidragit
##præsent
stotta
utdann
psykiatri
quest
##88
blackjack
hoppet
boob
varnar
hindrar
##64
bibeln
kug
vinnaren
certific
##nenes
politikerna
##massa
oprin
community
prepar
poangen
arsmote
comm
##itoris
naturens
##rass
utmanande
naringslivet
hemmaplan
varu
tillverka
raden
hogra
atte
carlsson
##srevis
iordning
standarden
ersatter
##sfun
transfer
genomsnittliga
##essan
utvikler
##sbolaget
##cation
friskt
##skiva
1982
lampa
heart
erin
nettsiden
##skriter
stallas
##inos
fingrar
huvudsakliga
maximalt
##zi
manifest
bring
savner
institutet
##verige
udvæl
motverka
utfard
telefoni
museer
kusten
tilbydes
##utet
detekt
##ommun
verksamhets
investere
cecilia
bagage
amazon
klump
##atern
chelse
melodifest
problemstillinger
individen
funderade
gm
trader
##dragen
tilstrekkelig
##ilbud
##ckit
skadad
karaktarer
garderoben
arsregn
trener
kjenne
rymd
valda
therese
prot
teman
##barber
foretrækker
simul
##videos
##ffes
##smojligheter
somal
resonemang
##bogen
##ladd
##ryss
psykiska
svarat
inneholl
sakerligen
institutt
750
hamtat
interra
##jacka
bredare
feel
amatorer
marka
ostergotland
bedrager
køret
avisen
repræsentant
otto
##terings
latit
anvandarnamn
vaxthus
siges
inhand
svarede
mottes
statistiken
kvalifik
fusk
specifikke
gjennomføring
bortom
ulla
skjedd
møt
toppar
sunt
fager
styrning
passiv
billigste
##modell
fotografera
##cd
ront
##anlaggning
spektakul
midtjylland
sikkerheds
##smorgon
salv
vaning
drabbats
blandet
kostnadseffekt
same
konsumtion
trettio
subjekt
delaktighet
planeras
selskabets
verken
sexual
korrid
forumet
nyheten
portal
trivas
programmering
husen
utbyte
sammanstallning
aftalt
nes
claus
##primer
darigenom
##datter
prioritet
internasjonal
##forstaelse
flesh
brunt
forblir
skold
bukser
product
rummer
##imat
fortsattningen
atter
arsagen
kulturella
##ason
medeltid
evig
givande
kvindelige
katrine
##hjelp
simple
##wh
utbred
##æts
##stallen
forberedt
bevæger
svd
redskaber
døgnet
foundation
##forvar
kopplat
##akon
underratt
stæv
##artiklar
1945
##alls
kramar
##skru
mature
bakke
##ра
##sæd
hemat
pitea
irriterad
lego
avslutades
blandar
##guide
##hon
rattegang
##sinne
##fæl
papr
lunchen
umuligt
janne
##kakor
fjernes
##itas
korru
begra
fastighets
ngt
layout
døre
trupp
cali
##ryl
company
etablerade
##mare
welcome
kollektivavtal
kvaliteter
egypten
trakt
gon
kard
hybrid
ægteskab
ukjent
utmatt
apparater
videref
mobel
experiment
smykker
medlemmerne
blæ
varem
##sept
##følger
##eleder
vogn
##rich
pub
hammarby
tilstedevær
##terad
klæ
ferd
vendte
forse
##yttede
itu
champions
signatur
attityd
tales
helle
behovas
miljok
beholde
##run
jød
valfri
paragraf
##ydlig
homosexuella
spilt
##rant
inventer
mekanis
traditionellt
horsel
foreløp
vilar
samvete
sikte
220
fattade
tilsyneladende
sb
amal
##vackande
darpa
pedagogiska
pressmeddelande
serverar
flexi
trekk
##ici
myndigheterna
##varu
saint
billan
##nivan
lister
fingrarna
forban
tangent
monteras
gestalt
vaskor
vaningen
secur
blues
erklær
konflikten
sporten
prel
tryghed
indretning
creampie
kros
pettersson
forfragan
mut
virkelige
##dukar
sexet
genomforts
random
apt
##ception
##55
##ilen
230
##arkite
indkomst
smas
##resta
##kull
##ribut
##usik
hvite
epost
##ymbol
torp
strider
virksomheten
mælk
##sbev
værre
lp
tempel
socialstyrelsen
bladdra
hindra
##ischer
##sarbeid
##tein
proffs
deles
##skinen
podcast
lanar
obama
uppdel
kommersiella
intraffar
fros
øen
avklar
avveck
komplek
##junktur
latarna
sommarens
kommuns
spelande
agnet
arkiver
øm
##vandrere
stretch
julet
hittas
utl
##vak
moster
andrat
svaren
delat
##ining
provet
deltagit
karam
glat
tvungna
formanden
1975
corn
boss
dokumentasjon
reflex
##endelses
ombygg
##pekt
branscher
færdigheder
##komme
influ
stren
utbildad
tiderna
evnen
fokuserer
italienske
amateur
synonym
færdige
debuter
cens
##cera
bromma
oppnat
ødelagt
##alle
##elsess
##øvere
amt
fotbolls
artikkelen
##edin
skanska
opphold
stolte
inbrott
flaske
nuru
skalet
##andid
##jader
jos
okand
bokfor
health
trives
udvalgt
mediciner
fortjener
flyktingar
biologisk
##stalls
##datere
skrik
krim
##ydning
trafikverket
##uri
##ested
flygtninge
engagera
dilem
smul
##iction
bestilt
saab
innovativa
rekruttering
forbattringar
skotsel
migran
##ving
gled
##ives
konserten
lyden
jim
ersatts
##hm
aftens
venlige
tanda
fastnade
score
##jes
neur
ovnen
fordeling
hult
##ethe
ataganden
##atts
jimmy
minskad
tegnet
##samfund
afdelinger
trig
##merne
arten
forskellen
fardigheter
stans
israels
hook
pande
levt
forsamlingen
utreda
fasad
internasjonalt
##wich
expander
##historie
##skultur
manlig
implementering
##pers
militara
oplyst
innehav
biten
##eby
studerar
samlag
##smarknaden
fyllda
arbetsmarknad
ekspon
emellanat
forudsætning
##andras
levetid
##staten
amp
artiklen
inten
morg
indikator
landstings
smala
##stolar
langtan
lee
##kond
##ply
soff
tegnes
adoos
kreativt
bevæge
vitenskap
sortera
##plac
dække
##sekreterare
rækker
bundet
##uger
##inerna
landbru
elevens
prisk
sysselsattning
bekraftelse
##sdal
fods
irri
kanned
##indrade
##uggar
##scy
##scenter
slank
##pig
##museum
halsband
##ovn
postades
##lander
##sforeningen
##ttid
bøsse
befor
pud
vansterpartiet
framgangsrikt
kvarn
snapchat
itunes
##barhed
teoretisk
grott
##ovningar
##eth
herlig
ingaende
forestille
hoppe
katarina
blade
peber
rinner
motstandare
forsøgt
imorn
underlaget
henvisning
##prins
receptfritt
kylskap
##lasning
impro
forklaringen
##napp
avbr
##eslag
kristin
utat
intervall
inspirera
lærte
##arige
reception
arbetslosa
samles
forutsatter
økologiske
sammanhanget
beskrives
ladan
##sche
##ologen
enklaste
##immer
##parlam
##bella
ynd
149
##bringe
gennemføres
ersattare
academ
avgang
skjema
##usiv
##savgifter
finish
##100
præsentere
1973
hembyg
mountain
kiru
linn
begransade
nordea
##baserad
lugnare
optag
anner
blicken
verkligt
##bir
##veg
##ondition
sott
inlam
budskapet
surt
##blar
trycket
##isterne
svenskarna
arbejdes
##spartners
##ced
forestallningar
numer
klanningar
unntak
klimatet
arrangementet
brant
bjerg
sikring
##но
frascha
stoffet
##industrien
rapportera
femton
ist
utall
uppskattat
vackt
vade
##ished
inviterer
##obi
avslojar
##rov
oprindeligt
kallades
molek
sjost
stapel
kennet
trøndelag
fangar
##tabelt
trade
stilar
gæld
##amerik
betalningsanmarkning
samsta
container
##kompet
##økene
kategorien
kassen
##udi
paske
forordningen
betyde
angivna
##ariga
cyl
dark
tyngd
forestalla
bristande
ligesa
##gorelse
##fix
ekv
##py
fordonet
persons
##utstyr
minutters
drifts
slam
salgs
tillfallig
seværdig
##produktionen
tilsæt
nederst
landsby
trojan
stadium
klassiskt
##alds
spam
##blomm
inbjudan
ansprak
##domstolen
begagnade
misslyckas
elektroniska
yttersta
forbattras
opnaet
##smatch
familjemedlem
##brun
popp
attraktiva
unionen
##ioder
law
uppvaxt
##ketter
##lyft
##evne
pædagogiske
matning
##behandlingen
bnp
voldsomt
tilnær
##smot
flyttas
##karen
vri
saljaren
##panna
arsskiftet
ota
njutning
solgte
laskigt
ishockey
betalat
##messig
postat
##oment
##festivalen
specialister
rorelsen
##krets
##eknik
##wi
franvaro
stiftet
afsluttet
##aming
arsmotet
turnering
##iaren
selger
##falds
idræt
uafhængigt
jaga
telen
forsaljnings
kjøpte
intelligent
rykt
opprettet
religiøse
arabiska
dybde
##skapande
sliten
##nevnte
havnen
forlaget
granska
segern
##iza
tveka
traningspass
kevin
almen
meldt
pynt
stjarna
bortt
fortjust
hbt
##illgang
##sse
foda
##rea
profet
begrun
maleri
barbara
forbruker
blandas
##fattning
arrangeras
avslappnad
idræts
abenbart
backar
trenings
socialdemokrater
##handlingar
fragt
snus
##bragt
arvid
##prem
##slutningen
##somhed
different
##hur
desperat
velegnet
spilles
##regning
livstid
come
timma
indkal
sexstallningar
laveste
vattenfall
hojer
fullmakt
##war
##200
regnes
##egu
beskjed
utfort
igjennom
nedanstaende
##ovet
selskaper
annanstans
scha
utforande
funksjoner
##iej
##faktor
hydra
##ocka
magiska
pip
##nalen
beder
sasonger
herhjemme
##uble
sli
siffrorna
partnere
konsent
koparen
profilen
johnny
queen
##retter
##version
##inrikt
konfirm
formidling
forsvunnit
fish
installationer
irriterande
kapas
valkomnar
hamp
##ordninger
slakten
smile
##respon
##well
cow
krys
##dm
boendet
enastaende
##latt
##ningstiden
240
privatlan
udmær
fremtidens
namner
premie
interracial
rostade
vasterbotten
##ifa
##ulent
bevak
115
tolk
træffe
stadat
fliken
##pix
forbattrar
##deltag
kortsikt
binde
utmana
##emand
valbered
pluss
kollektivtrafik
travlt
levnads
##ileg
kraftfull
læste
restauranten
forsøgte
##horn
##agon
arlanda
misshandel
##urd
##merende
kartor
grava
insett
pussel
uover
##prøver
1979
tolka
skoleb
individuelt
nettsider
knappar
opbevaring
arbetsliv
tættere
##ynene
platserna
manen
redovisa
177
konstnarer
##tilbud
##adan
##ssnitt
##kraften
bjar
hvile
##anlegg
##bedom
santa
##entrepren
elektro
adidas
byx
##hat
tredjepart
##æger
hostas
funkade
besid
##spligt
filipp
input
##anpas
kalles
##nok
dannet
branden
spurgt
fradrag
##formar
nyhets
1968
piano
tabt
akust
kd
kungliga
##iren
##fost
fremmede
behovt
bedrivs
torde
genbrug
borgmester
when
latter
bloggare
underligt
timmen
livslangd
beskæftigelse
galaxy
passerat
hverdage
apparat
fastsat
abo
virksomhederne
trojor
arrangerar
spesif
verdier
omslag
forbudt
##foretagen
##ægts
olycka
##sidorna
##sfon
historik
insulin
##uropa
finlands
ritu
kamper
##wan
overvaga
grø
stillingen
titan
vundet
kommunalt
bemærkninger
##adens
##aaa
##48
##teg
anlita
##fokus
insekter
##tekst
hænderne
uppgar
upplagg
uende
altan
krankande
udgiv
falska
ordnar
lærings
seminarium
##ombud
imponerad
svanger
koncert
##uma
inverkan
ordinære
klitoris
##smuse
tandlak
##rab
165
kastar
drommen
datoer
##ody
utgors
charlie
kjøretøy
##store
forbunds
værksted
ala
prester
##iges
sovjetun
kræv
##onus
nos
biom
dods
strunt
byggd
##dej
tillvag
##ture
operat
##kender
vasentligt
blix
rostfritt
tf
grunnen
europeisk
##galler
sydost
##ingenjor
##asjons
varumarket
kroppar
administrative
##ynd
initiat
##gjor
marx
##ligaste
satsningar
faget
placerad
##elovens
hage
produktivitet
bidraget
kræve
livmoder
##øyt
teknikker
applen
tegner
##idi
efterar
hipp
##uppe
flackar
##sbrevet
etnisk
forsvarsmakten
continue
utarbet
tjekke
spy
charles
sommark
ordforanden
velg
sog
sensor
lass
publicerad
typiska
jubileum
ingick
##akor
innspill
terrasse
virkel
patientens
brønd
##ologin
##børn
hundrede
sundt
performance
##ørelse
112
settes
##vav
meddelade
seværdigheder
##procent
##edagen
ove
lyckliga
utbetalning
##sprocess
##nett
graset
##virkning
kombinerar
trangt
versjon
frans
spontan
tits
sofaen
##stora
pest
bista
finare
agnar
belagg
reducere
rige
brugerne
spania
claes
##mu
hillerød
##finer
##obe
jackpot
dyk
befann
##sniveau
jobbiga
abnede
sjel
poliser
tvivel
rug
##sbyg
lene
fødder
odla
detaljplan
##nd
hvori
uppskattade
dediker
unød
##givna
osterrike
jet
meditation
inleds
kerstin
pressa
studerande
spelades
deprimer
ovar
fastnar
ferien
utbilda
twe
politikerne
kreditt
enkat
tove
##agd
opnar
##funktionen
sjalvmord
lasaren
omradena
pjas
mexico
bolags
lest
##sministeriet
##litteratur
##lasse
dromma
enestaende
personlighed
heldige
tillsyns
##biljetter
##horde
beregning
nærværende
hier
brasilian
##31
tankbara
rostar
øvelse
lejon
klor
fascinerande
dennis
##plast
bruken
##issionen
foruden
hex
understøtter
##stamm
##avgifter
kylan
kanslom
##rafta
bredden
##oskop
finsk
narma
lasar
arkitekter
framgangar
vinduet
milfs
sponsorer
tv2
krops
fredericia
peger
pron
alles
##spsyk
1974
bygd
kæmper
kiruna
##spersonal
they
##field
lades
##boks
anmalt
##ito
kyrkor
##رررررررر
##orr
motta
skille
refleks
gjennomføres
sydafrika
##vanliga
hanne
storebror
jattemycket
lokalplan
fordeler
##syra
iss
økte
stiga
udfører
arhundrede
tingsratt
midlertidig
##linge
tranga
relativ
jonkopings
zomb
otrolig
mim
loftet
kristi
beman
navigation
utspelar
trene
##nick
suksess
smeten
slagelse
chelsea
engagerad
idrotts
lidande
##edon
huvudstad
provar
##ymen
##ftere
elevernas
share
kraftiga
vellykket
dejen
##berry
faktiske
lurt
quot
afh
hurtige
hemt
japp
##invest
##fektion
##umul
##adress
##amot
slutte
sparer
demokratiska
kompleks
variere
genus
beboerne
##skikt
##aktorer
horisont
tidlige
behovdes
grejen
##enc
##gede
uret
forde
anhorig
malvakt
svendborg
##fav
smartan
konstaterade
ambitioner
stjal
trailer
poll
paulus
##haug
gider
organisasjonen
##yllands
intraffade
##museet
vedtaget
country
skede
samsvar
abra
das
##slund
afvik
##sfest
brugeren
udbytte
tilfredse
##myndig
avsedda
escorttjej
okande
##atgarder
##sbrans
hariga
mp3
francis
##universitet
cust
overskott
omvard
bokade
funktionshinder
arbejdsmarkedet
##vakten
partiets
jones
udbetaling
##vagnen
tupp
havs
##øyde
dolj
scott
forfog
tvilling
indh
##prise
lador
afdelingen
privatliv
extrema
##noveller
fjort
beskytter
speciel
virkede
medverka
##angden
##sætningen
fingre
luftt
kannedom
flyter
faktiska
salget
lampan
datat
byde
sakaldt
karet
heads
etableres
trell
søgning
fasen
forluster
utvalget
##typer
##ssas
merk
##utomat
##emen
tilsyns
kunders
lyssnat
##styring
hypot
nystart
kristine
##korning
nyanlanda
##bøl
fortælling
heliga
posisjon
##uddannelsen
##rym
##vattnet
læsning
glod
oplysningerne
##ai
##erapi
nasjonalt
##aki
forberede
strackan
mastare
lantbruk
utvecklade
fiskeri
inledde
##iket
jansson
russland
veckors
sakrare
helikopter
videoen
##verdig
##natet
lagras
##armen
##how
regionalt
propag
patter
whisky
behar
dran
putt
##sammare
madsen
phone
mængden
fænomen
##utan
inratt
konsistens
##direktør
##acken
købet
brostet
gangbang
##oid
collect
##otisk
##historier
kemiska
konferensen
dug
cry
##musk
udnytte
1978
##anol
hovedsak
glider
gevinst
motorer
utstallningar
hunger
hindre
korning
forandringer
beauty
tillfalliga
dyrke
agil
forfattar
##markedet
##ansvarlig
infin
carina
orten
##angar
forestallningen
pala
drycker
very
trog
canna
binder
##stader
harmoni
tvinga
fallen
slette
forandringen
sange
farlige
##lubb
##gam
bollar
tystnad
1972
##cho
fornemmelse
##ummen
##inske
salong
animal
opvarm
felaktigt
forbattrad
##ensjon
gennemgang
isak
oland
##kastet
##ordforande
opfølg
arbejdede
hjulpet
varens
nævnes
dramatisk
afstem
lød
ejendomme
##ocken
forelsket
##kondition
fagligt
nekt
betragtes
simma
upplevde
##plader
ross
forberedelser
##spen
astma
ebba
sodermalm
##uck
foraren
##ovic
magi
hamtad
casinospel
##artet
matchar
formidle
vidta
sangar
##ameter
foot
jamnt
lurer
olyckor
dækning
##upunkt
##smalet
##rie
varandras
flyve
##avtalet
russisk
hylla
jubil
eksisterer
4000
##string
pryd
nhl
##meligt
annonc
udvidet
skrevs
landene
sammenhen
dekorer
viktigast
køl
honor
##kem
amster
staffan
kontaktannons
miljob
eventuel
##ledaren
kaffet
salat
fremhæ
##alands
dressyr
renter
kastade
bekymret
frækt
forlangning
infektioner
##esø
fortviv
##bredd
##ycker
midnatt
bekraftar
drikker
##vagnar
steen
kinesiske
##seg
apost
avsevart
farvel
deut
tidspunktet
##fect
massag
##kedja
##befolkningen
##manns
samliv
##uper
##ofog
sill
##smod
alfred
racing
blodtryck
avd
bachelor
cher
##see
forbehold
sjalen
vardefulla
hektar
##ændige
chip
egner
casual
kysten
ungdomarna
user
##forel
oplyser
kameraet
##arerna
mathias
##rist
##sokande
##gik
nodvandigtvis
##varld
askad
spo
kritiska
##rics
kakade
sark
tillskott
senge
keramik
forkylning
skuffet
##edelen
laddas
hassel
djurgarden
##sokt
ydre
##creme
platform
aur
pappas
hudvard
##afe
##utrymmet
svaga
erhalla
bussar
##sop
forbedret
1983
##familjer
escorttjejer
mes
omd
##lege
grøntsager
##skare
pøl
vindmø
animer
utallige
myk
moro
linus
flyttede
fortell
amsterdam
exklusiv
lovade
blink
skjønnhet
pock
prestige
kis
profess
sviger
voll
snusk
holste
optimale
foljs
utføre
nyfikna
##ebel
soldat
tisdags
seriøst
rio
utskrift
dejtar
space
##sbud
temp
dagtid
omvarlden
bærekraft
moa
tillampa
kroatien
psykiskt
##ilding
##wall
delikat
gevin
##hytt
præsenteret
sluk
##viks
stationer
retfær
publicerade
utov
mvh
hyster
traditionen
jordan
##satgarder
1976
##ommes
hellige
##less
dev
kio
##skjema
nedat
fotot
frascht
step
henvender
eksklusive
udsatte
norrbotten
truffet
exakta
##ures
rense
goa
skav
kolester
osyn
allsvenskan
##hz
##sjukdom
yngste
direktor
speglar
milan
vanskeligt
leie
kræves
sammenligning
lyngby
omtalt
tavlor
##okal
kronofog
darligere
kenneth
halvlek
undersøkelser
grundet
##stop
ordene
##dotter
##zar
tilstrækkelig
etterhvert
##havs
vurderinger
woman
effekterna
nylon
##sburg
villiga
officiellt
scandinav
control
##personen
##uktion
datama
betydelsen
##sender
kravande
##skompet
365
forsakringar
##byran
svalt
arbetslivet
trafikken
##elte
universitets
fibr
syrran
kjempe
stycke
##pakke
annonce
##mæssig
rekre
lukker
glitter
forvara
falster
lm
gross
annerledes
malsattning
filmens
##speriode
##period
##traff
ocean
##atin
bekymring
lyckat
##forsorjning
brosch
##hc
apelsin
##dinger
vesentlig
##wal
##emeld
angrep
utova
deltok
veier
tilskudd
dance
skild
##avn
##olas
modifier
overforing
msn
økonomien
pakket
professional
gnall
uppfattas
medfora
mygg
blonde
##akare
vasa
##ækket
baggrunden
##kil
alternativer
1981
##muligheder
knog
freesp
sjukvards
huv
##avfall
bestiller
overvejer
elimin
nettdating
oct
odm
landskrona
herudover
mattan
smorgas
cyklade
##smand
gp
##68
jogg
skyddas
sweet
sapass
svav
##yge
##uret
nøk
short
##etting
taggar
##arealer
kæmp
henvendelser
skiner
070
gæst
##athon
##støtte
skære
##faldet
hydro
familjens
økning
festiv
oralsex
##unch
elec
##umb
sanda
demokratisk
vackte
skiten
nyfikenhet
leke
karolin
grillen
skadar
antis
europaparlam
isk
kommunalbestyrelsen
hent
forvaras
##skontrakt
##skoll
stige
##jyske
natural
anstalla
##detaljer
artikkel
glemmer
state
champion
traffades
##innor
kommenterar
avbryt
##rekk
forbinder
##esome
##ategorier
produceras
slad
henning
erotikk
kapittel
##danmark
mose
kusse
##sbro
vinn
##jod
##skjut
oplagt
ressur
entreprenør
edu
##sbidrag
##fornien
opprinnelig
barnehagen
##sonen
løpe
institusjon
dow
flir
kyrkog
##enheter
kjørte
uttalande
begrenset
omgangen
fullkomligt
offis
hjalt
fattige
slangde
drept
##sbi
sekretess
##sperspektiv
strander
maneders
rusland
##intress
senter
upplosning
bitco
##veje
paminnelse
indstillinger
romaner
undviker
menuen
kylen
##stændige
konvers
nøje
endt
utoka
chicago
behandlinger
krona
##ilskud
certifikat
fia
##elia
allians
depon
core
explo
somnar
##ilkar
termer
##trafiken
poser
treff
nagorlunda
indiker
trotthet
begivenheder
song
modstander
valdes
##utvecklingen
bekamp
nasa
visdom
##vagg
avslag
forudsætninger
##fronten
cyklister
pigen
anknytning
##nav
##eval
##kode
pojken
##oarer
ribb
folkhog
regnar
ice
foretagande
udvek
galna
##oso
italia
##bour
komplexa
##formul
##match
kulturell
graver
##ount
folkem
besøgte
sattas
##ægler
##ared
##øbel
jennifer
##bende
##ities
ledighet
ng
tabeller
author
inflytt
møtt
forvantat
beskæft
##inens
elektriske
miljopartiet
parallellt
fungerat
etterpa
##ommet
arbetare
figuren
illama
hurra
biogas
letat
##sporten
##sfag
##fac
drast
bekrafta
jpg
ruta
foreløpig
##oller
mercedes
##olige
##vendige
males
kof
##usa
perm
valbefin
datingsidor
borgeren
##rør
kvarts
arbejdsmarked
balsam
nanting
evighet
dry
froken
debatter
finansk
indendørs
tilmelding
risikerer
skubb
##fulgt
pappan
##hemmet
namnt
prøvede
b2
opslag
##veri
##nte
segel
vy
helen
spok
gag
afgift
ohl
saljas
nova
roka
vardel
##ty
henry
##sbehandling
need
##banor
tvaa
##sigelse
oppfatt
tilstrækkeligt
##værd
samarbejder
##sover
##pler
##dubb
kontrovers
overs
uthall
mattet
benene
assoc
inlaggen
angiver
##drat
url
doman
##fargade
byggeri
frykt
##egge
sekreterare
##minen
uro
tranny
handeln
gissar
dominans
##golv
##imp
skyldigheter
præsentation
riksrevis
foref
coolt
##maling
føres
truppen
gravide
lapparna
philip
##smessig
malat
clar
dropp
##stabil
snallt
traktor
##spapper
indby
fattat
tkr
lagade
arbetsgivar
styrs
anpassat
grip
beviljas
leverantoren
inbyggd
tæller
klagen
##zone
forpackning
berettiget
vark
sambon
seniorer
##smote
lykkelig
##fler
##haha
teat
snarere
adop
udlø
oil
kommunikationen
konsekvenserna
merit
tony
##brudd
holstebro
forskarna
tilbudt
porten
bortset
huvudstaden
disciplin
ojam
suk
##assistent
##garda
upphovsratt
inleddes
smakade
##67
##splads
##paret
skjuter
beloning
168
nydelig
##husen
toaletten
##forvaltning
##ørgsel
fordy
utsidan
scb
##svis
samarbeidet
anvend
##smann
1977
quote
uppdaterade
gjens
abraham
internationalt
afhængigt
ljusare
a4
balansen
gustafsson
##bryn
krogen
otrogen
indtægter
##maden
hiss
bert
tamligen
eid
sjatte
jagar
##ience
etablera
usæd
holbæk
playstation
##ffor
##ref
absorber
fremfor
dern
lapt
##møn
jattet
boost
##ygdomme
halve
tøn
kapten
##marked
prefer
opplevelser
resterende
ridning
sjunde
halvdel
##piller
##menne
##head
##umman
##vang
tilltrade
nyd
ivrig
præg
botan
##ialen
inspirerende
lampar
stimulera
##ер
direkta
brænder
##ansar
sjukgym
##lines
spenderat
forhab
##iem
##hin
prenumerera
trelleborg
##stationer
##asso
registrerar
elsa
blaste
kandisar
overbevis
flexibilitet
ora
##betingelser
##roendet
plade
horlur
rytm
##anterna
ikt
onde
iver
hukomm
utlaningsprodukter
##ized
omradets
supple
##øt
tusan
nære
##elius
anvisningar
##rice
danish
situasjoner
verksamma
mikkel
angrar
pov
mød
sjansen
lime
bidrog
##styrke
passioner
##ikor
sjelden
brons
forskerne
journalisten
anvisning
anbefaling
##teren
kaller
onodiga
##kostnad
##ampen
bolan
##stemperatur
mcdon
flem
vanskelige
kaster
##flyt
cykling
##landska
kallaren
##overskrid
##havn
skrid
kartof
regim
herpes
axlar
mordet
novell
##inflamm
india
rabb
realtid
atel
quality
ansokningar
opskriften
tape
inspirere
relasjoner
hemska
landbruk
fakultet
##ope
##gilt
klanningen
##udier
##skatten
haf
##aff
tilfelle
##ungar
porslin
stilren
lejer
kristiansand
aran
skrot
prioritera
nagel
##ræt
meningsl
joel
anstallnings
forstaelsen
##nering
invandring
beløbet
derhjemme
imorrn
##porno
menneskene
traum
asker
daribland
rosor
innehallsfor
##oy
arbetstagare
living
indsatsen
territor
##midler
##aj
prisvarda
efterratt
hydraul
chal
utsag
mistan
polisens
forbedringer
skjult
gil
##sstod
undgar
nulaget
##ligh
skapande
##fatning
jurist
grænsen
##kunst
##linger
dialekt
opplysning
luftkondition
lym
fargglad
##namndens
friluftsliv
obekv
pitt
##formand
##nara
##glasogon
smide
snackar
reality
sprungit
hyppig
publicerades
skyll
øvre
stærkere
##sbolig
lidelser
##ippet
indblik
##ancen
illeg
officielle
msek
menighed
##insats
bedriften
julie
##rettede
øynene
personoplysninger
help
landslaget
ikapp
oljan
nært
befintlig
komplikationer
karna
1969
broderna
bf
sjof
grater
finansiera
##acker
osk
inspireras
tillader
privileg
herman
nicklas
bevisa
sala
hurtigst
akv
##forbundets
hanvisar
project
mike
almed
utlandsk
indgang
tingsratten
voksende
##berattelse
knullkontakt
moderat
stoppar
pill
gladjen
valent
nykoping
gatu
rejsen
ekstrem
strump
##lakt
vurderingen
fjerner
popularaste
##funger
##bind
flaskor
##faste
uteslutande
##takelse
samvitt
visningar
nufor
##flodet
wc
##bolagen
upplaga
regning
regelbunden
attraktive
##skode
paminna
##tech
stadsdel
1400
analog
sundby
fox
fryg
omfatta
sif
marktes
forsik
uppror
forsiktighet
overtal
##chatt
ansett
drives
tilstede
##projektet
vrede
informasjonskap
##eli
frim
modsatte
##kontroller
##nivaer
##faglige
costa
defens
rutt
##periode
gruppens
##institutioner
elektriska
tradisjonelle
antioxid
##fasen
teknologien
##runda
forekomst
##billeder
gavekort
bertil
synen
ruter
klockor
sikres
kommunstyrelsens
ponny
nytar
upptagen
beløn
stold
flirt
##yde
naturvetenskap
telefonsamtal
studenterna
kurt
##butikker
barnbarn
styrer
læber
##skaffa
hejda
resulterar
##spring
zlat
forbjudet
innebandy
stamm
##perspektiv
notter
uppnatt
edition
ravarer
##usse
adap
nojes
tvingades
##hamster
storningar
handbold
##lering
klogere
styres
atervander
##inas
##via
##element
##ui
##arp
rs
seksuelt
trom
omtale
initiativer
uttrycker
rehabiliter
tillats
force
kraftige
fronten
lærerne
##bunden
strategiska
vagina
konting
1967
fallit
##fran
##bjorn
forlængelse
photoshop
brinnande
##uttag
redaktionen
paradise
skl
nederlanderna
stoder
korset
inledande
packade
operator
##senhet
næringsliv
beskyttet
halsan
tonars
trakasserier
##iana
afrikansk
forsvinder
endel
fastighetsagare
##riska
virket
placeringen
escorte
moskva
juridiske
tillbringa
forventede
lum
efterlev
begynt
fornuftig
reagerer
tysta
flade
flitigt
utdel
##raftt
arstid
bolden
##komster
gudom
motivet
ryger
petersen
jattefin
effektivare
helene
vettigt
overtid
inje
overført
betød
##fara
legitimer
tegninger
rist
redogor
damen
nufortiden
sura
guy
jatter
##arts
##relser
stemningen
peg
##vanor
zen
flyver
fængsel
florida
##fina
##ams
solsken
##emester
spontant
forund
tillvaron
gardagen
densamma
##viste
løper
harig
kompromis
indsatser
##varan
##smidler
bubbel
sanne
allan
##stjarna
sexshop
##ckare
avslutad
helgens
underveis
##sgiver
##ksomhet
hek
##skaffe
lyr
fell
røn
europeiske
##market
##reng
##eliga
##rix
rimlig
hotellrum
tilslutning
##athan
arbeidsmark
branchen
##lich
regjering
kukar
##oto
betydningen
spenderade
liggande
1971
hobb
bulgar
webbsidor
alexandra
meddelelse
nævne
boks
##sering
atskill
satan
saknat
proteiner
enskilde
udbetal
##verdi
evolution
pa¥
##riller
faser
joe
##styrning
##oooo
skyltar
kryddor
universum
kompos
maxi
##belopp
rorde
onlines
fortare
##kell
##bos
slum
pose
forsiden
##betalningar
troende
biologiska
##rakningen
stolthet
##klam
ingeniør
##vog
##slager
kurv
##anvisning
sensuell
linser
##grunn
oon
##dato
##visninger
##sattnings
forankring
børns
sah
medverkar
##ни
kjer
##agelser
tyger
uppsattning
giftet
selvmord
##ryk
##uset
naturvards
departementet
##karl
konf
adopt
ulrika
rejste
ligefrem
lindgren
anlægget
##aku
synlige
selge
hansson
##sklipp
studentene
styrelseled
opps
##baner
regelverket
overraskande
factor
militære
##enne
drabbar
##stenar
##fødte
oppstar
beboer
nora
dalen
dernæst
kritiske
fossil
cho
dugg
tagna
økende
handboll
overgar
morsomt
ansvarlige
ringar
spj
adri
agnes
##osystem
##iljø
##flykt
forskjellig
jamlik
vedrører
erbjudas
##egaard
kinky
##iskor
utformad
##foreningens
##lighetens
specific
lift
##beck
utskick
mødre
oftere
hoft
freespins
samlingar
skolorna
prover
tipsar
##undersø
##beskyttelse
upprikt
##gebyr
svim
mottatt
sygdommen
morkare
ødelæg
##sdotter
##regnes
lasta
forekomme
bygde
direktivet
heden
sønnen
felet
solidaritet
knall
forskole
area
uppmanar
promenera
##forordningen
intensitet
fjader
joseph
##opplysninger
wahl
peng
european
raw
grep
beholder
grannen
##stral
opplevd
indel
sap
##sradet
berakna
tekstil
frustrer
faa
akershus
skylla
##ego
jom
ignor
##sbor
##kans
##kobling
omgangar
##ademin
kristall
##boliger
sext
pakken
signifikant
lovlig
##ordiner
rysk
##cion
privatperson
##illstand
bokforing
takke
gæsterne
konvertering
fordelning
statsbor
##skrev
hvorledes
glimt
fodelse
volt
formaner
busty
kottfar
handledning
knullad
enden
sommart
arbetsmilj
engagement
kompletta
##butiken
langsta
##forbrukning
tilt
##intresserade
totale
##zonen
published
reduktion
225
davarande
sea
elvis
##nn
stygg
##utbud
##look
moon
frysen
druckit
##undersøgelse
kejser
poet
prosess
nogenlunde
east
bestemmelsen
##forsaljning
foreløbig
wide
marknadens
##rostning
family
lovens
klipper
menstruation
forhor
##verken
##bygningen
##etabl
saff
anony
spildevand
collection
svak
##attra
herrar
gennemsnitlige
vanstra
exponering
ranking
ali
##kropp
##mys
mottagare
arbeidsp
alta
skargard
forebyggende
hhv
soner
landade
##klasse
koder
startades
nutid
network
vaknat
modtog
##ро
fikade
planlægge
##forandringar
niveauer
uttrycket
##slip
trappan
emotion
bbc
p4
##ues
pasken
angelagen
kapitlet
fleshlight
beslutsfatt
##gelige
produktions
hetaste
riktade
roma
sistnamnda
ostersjon
gotalands
##vekst
selvtill
avbrott
vurdert
olivolja
##bevæg
sikkerheden
##inte
mannens
kopiera
felaktiga
kreditbetyg
##kalender
garnet
karolinska
ingenjor
utrustade
nitt
##oriter
minner
bestilte
byt
elg
erektion
##dals
kliver
genomtan
##ockt
##sstat
##utskott
##plus
terræn
hamtas
agneta
tags
samlades
gyllene
sneg
onskad
vort
krok
##skilj
webbkamera
coola
anført
runka
plassen
geografisk
kapa
initiativet
plockat
sakerstaller
behorig
maksimalt
innbyggere
inblick
soul
df
behaller
huddinge
bransje
radgivare
melodifestivalen
rann
zink
dokumentere
fp
their
##ægte
bytas
uppnas
andliga
petra
godkjenning
synder
spillea
##sgrupp
rosten
tjat
tablet
##riger
blomstr
##emor
bosatta
trykker
potentiale
fou
omsætning
uppstod
turn
slaktingar
værdien
niss
foregang
tillvaxten
kontrollerar
##sproblemer
trollhattan
klum
##aken
henvises
town
flis
knyta
skolj
##ættelse
kvinnen
##forbruk
pelle
##nek
valpar
samarbetspartners
utnyttjas
##derslev
hvorfra
forfrag
energy
standig
skapades
klaus
transaktioner
rekommenderade
##sbyggnad
dilemma
##gud
##klær
falkenberg
skeptisk
overblick
ytre
testen
##itel
hemmal
rakenskap
mav
principen
landar
detaljerna
flys
mikrofon
##stt
##ktig
##optimer
##egnes
krasch
studere
serb
clean
overvejelser
dumma
ank
foreskriv
##ektion
##47
jonathan
johnson
##sbordet
videok
ay
slu
lederen
malta
ligget
##sektorn
snacks
barbar
##serfar
two
devel
kvinderne
pannan
fingrene
fd
##stars
##smast
kameror
abnet
rede
uppsats
skjulte
sparade
hangt
##kusten
vokset
biotekn
neutr
##indt
innovative
##fack
levert
plassert
##øvelse
##ants
molly
##valda
##buss
skandinavien
##forare
ct
specifikationer
bragt
grymma
watt
##anserna
intervaller
producerat
##listen
forsøker
avslutat
kostym
##ace
tight
skidt
høres
gruv
##ippi
dyp
veron
##spersoner
borr
betragtning
##indik
##verdenen
##ilsynet
jevn
ansigtet
aterkomma
fysi
pensionarer
systematiskt
lovande
marmor
særskilt
mandlige
tøjet
ikraftt
##ljud
##ku
hevder
kopman
tiv
##mont
blaa
agder
kælder
sogne
gangs
flode
##artat
framsidan
repræsentanter
##korea
skriftlige
husdyr
fremstilling
landa
osakra
passera
fragat
##arning
atkomst
leasing
tapeter
ydelse
sittande
101
active
glide
professionellt
smalta
##restaur
blommorna
kombinere
forlade
##deklar
##sban
centre
jattel
beredda
avsked
sollentuna
skv
##valgte
støttet
##aturer
##sinter
utdannings
forbran
dronning
tillvaro
uøn
otro
##øbt
precision
begivenhed
noja
bifog
dofter
gemme
##sgrad
rgb
##floden
bryder
ericsson
styrem
stativ
nass
forur
pape
##ifisering
dryga
lindberg
tykke
skjønner
brian
uddy
repræsenterer
forfattere
##pine
siffra
magasinet
##gri
ambiti
overraskelse
##briker
##kyrka
permal
ultimata
##rorelse
busk
valen
planerna
forventning
halvan
produktiv
hagg
reporter
p1
false
oplevede
##myndighet
tugg
bing
hogtalare
røre
garde
по
pendel
pavirkning
lancer
handledare
djav
##farlig
jaa
veget
##ugn
frol
svek
nordsjælland
##vækst
vedvarende
##skript
bohus
sgu
##49
liderlige
lign
opinion
konkluder
søen
klattra
nederlag
##kampen
##illings
sands
##insatser
vetenskaplig
linkopings
ns
bestallningar
leksak
vekk
grammat
dyrene
revisions
##sving
væggen
produkterne
supporter
##algi
mørkt
beskad
photo
swingerklub
pust
##grundlag
##tager
givit
swedbank
##finalen
##urell
beregnes
##rium
grey
nakenbilder
prostitution
sannsynlig
avsluttet
##llet
##fargad
##uler
menas
polska
##øye
skyde
greb
##skontor
connect
etikett
yrken
##skytt
fordons
relax
interesserede
herved
##artan
gjent
forsakrings
scanpix
vedlegg
anse
logistikk
placeres
delte
visum
##hum
rd
##istene
laks
sektorn
trø
betyget
seminarier
magic
fatol
bostadslan
staket
sperma
forflutna
passagerare
spanske
mah
hjar
router
agarna
##stjeneste
vinyl
svind
kabin
prognos
torsk
##belon
##folket
liderlig
ansø
##okk
135
pinsamt
insatsen
flitt
##ush
dagsl
baden
motoren
frals
##ograph
##85
drammen
teknologier
talen
jull
latest
kolesterol
hvidt
##itus
kombineret
domina
##bility
skjuts
dyrere
personnummer
opgør
smula
lillasyster
samleje
alger
konfron
##ied
laror
megen
grova
sannsynligvis
##kerte
##uppet
regleras
toll
indire
helset
##gal
##gul
aringar
##forandring
krydda
olyckan
looking
panor
xhamster
kæ
##skorna
##slost
title
##jern
formann
kakan
hemsk
grilla
sour
slutsatsen
##foreninger
forebyggelse
ella
basic
anonymt
regionens
listor
nikola
mekanisk
generella
auktoriserad
sentralt
korrekte
##yng
##bbar
biologi
hua
klist
framstar
julef
dialogen
hash
matilda
lonen
akryl
formularet
friheten
##basen
zu
##deler
investerare
folketinget
##garn
muslimska
sjalvklara
havda
steve
irritation
##ikar
##utdanning
##forsvaret
##frid
skattes
kvalitetss
omradene
##avisen
fødevare
##aktiviteter
bjuds
nordlige
asiatiske
minste
finansierings
##øvet
skadet
vagrade
colomb
sakalte
falske
##ray
herrens
##rec
arbejdskraft
anmaler
entusiast
installd
hacka
##veckan
uforpligt
##chs
##lagd
mundt
besokarna
##iki
uppskattas
hantverkare
avkopp
tillverkat
dolja
varighed
##elag
kennel
butikerna
plattan
essa
administrativa
elbil
kombineras
##etningen
berakning
sanker
hormoner
elen
mdr
hord
revisjon
christians
eftert
kommunic
##ando
principper
avsta
lektionen
pizz
##stilsynet
utgift
snett
luci
##mojligheter
tidsbeg
maraton
tons
booking
stadgar
##ensborg
skrivna
opph
godkanna
lackra
forov
grundare
jenta
paprika
christop
##øtet
frysa
##rul
betalade
hane
hjemmefra
##styper
elle
avstandet
utseendet
godaste
skrifter
##vade
##ørerne
opnas
fetisch
jog
lrf
vardefull
fren
tackt
ljusstyrka
##øres
bestams
straf
header
glidmedel
sorgligt
tranas
fiska
registrerat
raddningstjansten
maskine
osakerhet
tik
##larare
gaende
dax
judar
andan
##alin
valbefinnande
arenan
gunilla
##gymnas
porte
raskere
##tvatt
##ет
skrives
lekar
frukter
##skivor
handlet
presenterades
##anj
løfter
motivera
aningen
##fonster
gentlem
##rekord
banor
##visen
apote
akl
skadliga
tillige
##kommet
inflammation
netent
ferdigheter
##promenad
undersøgt
##arkvall
storby
langtat
hassle
##hamns
##oh
hong
kommunikations
##stenen
patienterna
boden
karnkraft
##fund
##bilde
##roner
##sintr
halen
dekoration
hovedsag
##bris
nordvast
omfatte
##bock
aktiek
katte
##lim
##gest
dukke
##ydelser
hojden
##nev
anette
sugar
cafeer
medlemskab
kare
medelalder
indirekte
dekke
titlen
##akk
slicka
##storlek
gradda
finnmark
stallningar
surfplatta
isar
backa
##arkivet
kritiker
reflektera
spenderar
referenser
##media
spørgeskema
svea
##oppgaver
ninten
branna
erstatte
fastnat
kvarteret
produsert
yngsta
modet
##avagen
##stips
installationen
address
valds
begravning
##omsorgen
##frie
klagar
##blin
forlossningen
kasper
knappa
servit
##kelses
nyare
præsenterer
fæ
arsaldern
overtræ
its
##sfullt
hamburgare
sammantaget
skaffat
tarn
garantier
planeringen
overskri
lyster
##rads
##forsyning
##odeller
een
spana
paborjas
##itive
kommissionens
fleksibel
listar
synet
bankerna
vov
galden
forpligtet
##styp
sexliv
kuddar
udløb
producerer
fight
##rivill
##rafiken
vinnande
##monster
forretningsm
wolf
##dder
detaljerad
##behovet
sher
menneskets
##eback
##namnd
tayl
kompletterande
france
gabriel
opkald
etage
budgeten
masc
vasby
veiledning
krono
upplands
##filtr
lagligt
bokslut
##kassen
uppskattad
idyll
saret
##glass
drøft
##sinst
lofven
norrtalje
bunn
empir
fullstendig
sfs
terrassen
##nandet
entreprenorer
kirker
skapet
##drage
diagnoser
computere
leken
utses
matchmak
insekt
oppstart
##goring
ideell
samarbeten
jubilæ
##cco
bullar
##stag
eco
entreprenad
arsenal
##uga
allergisk
##ødning
##dest
bristen
forskelle
upprepade
manuellt
understøtte
skadan
##bun
##odor
##ralen
grundskola
framling
tver
##lorna
##sforbundet
opptil
sammenhænge
riskera
blid
uppratta
hb
glitt
utlov
reiseliv
##ejer
prioritering
dov
##kladd
##partiets
dagbok
fitte
##arth
uka
##holdere
##dejt
##egangen
legem
valma
sydvast
##radgiver
inneha
trio
praxis
supplerende
udenrig
lucas
meningar
tilbudet
spesiell
arts
uforpligtende
planerad
##løg
synliga
slekt
##ez
intervjun
tyget
##svid
forskolor
pornhub
besvara
##elekt
fritiden
select
##ræning
##cup
##leverand
henviser
strikk
reagera
kontrakten
inventar
##hord
##alens
##fys
brukerne
blocket
basil
baj
underlagt
trappa
##satts
speciall
##falla
##ratts
anita
##ury
bevægelser
radande
avled
lss
lanserades
perfect
akuta
riskerna
108
kliniske
##vaxter
##skala
slant
fotografen
##inat
tjuv
illustrationer
lir
##stadning
operasjon
##isade
uplo
ruten
akademiska
applikation
tørt
modsat
##vejr
grundskolan
judiska
borgerliga
169
børnenes
parlor
søknaden
stegen
praglas
arbetsm
handlaggare
rasism
german
arsaken
##faglig
##aldo
byggda
##antorer
folkhals
læsere
vl
firmaer
fraser
sandt
##emaskiner
##instrument
double
improvis
mk
##odling
feir
##emo
##smodell
##belysning
##hai
acceptere
frp
##skaberne
forsakrade
bestamd
ow
applicera
rakat
##ierad
møtes
deep
malning
rumpan
luftfart
uppfattar
monteret
tore
producere
##beskrivelse
grot
radikal
betrakta
level
mansklig
uppdrags
telenor
helta
utvand
##hammer
mud
starkaste
japanske
planlagte
vida
##sset
##unst
satsningen
denmark
deal
smagen
thi
kretsar
individuel
models
saldes
vindue
volont
myter
fastighetsag
udvide
gjut
incit
kastrull
johansen
kollektionen
cream
ift
##ssituation
unges
misbru
fotade
monument
gedigen
fylls
philips
fusion
tillvara
intensiva
fleksibilitet
valsig
dansade
spruta
skuggan
trost
##ught
forestallning
##fristen
gavs
lie
##skravet
aviser
##formular
oppgjør
##rada
cub
underviser
##tema
eksplos
forvantan
faststalla
revisorer
djung
##blade
forsikringen
##annet
hittades
tvattmaskin
##esultat
typiske
opptak
kjøpes
##iii
anmodning
tilfredsst
tunt
stoter
skaldjur
moren
annie
gatorna
illamaende
##spresent
forratt
stravan
##ojda
universal
##losningar
##sersattning
##ifisere
cin
inntrykk
gangavstand
walk
undersokt
grind
trekker
blommar
soderut
nøye
indones
soppa
konstnaren
tors
##stjenester
##sprosjekt
##web
vegetarian
utgitt
organisera
optagelse
##ættet
onlinek
##skærm
grafikk
minimera
decennier
formue
stipendi
blon
skutt
##arkitekt
computeren
lesbiske
udstillingen
iværksætter
##amoter
registreras
##graden
naturreser
borsen
tecknade
genomgaende
avnj
formogen
sophie
nisch
tval
arstider
##fyllt
##aria
opfølgning
magnes
diamant
gynn
foretager
tegning
cour
sovjetunionen
##vei
mob
vingar
existens
inviteret
beaktas
##tøj
##41
inlar
##sho
##hett
konen
satse
##shavn
agerande
gravida
##cess
##aktigt
nærliggende
sjalvklarhet
mirakel
annonsera
sauna
##iddag
aktor
hogtid
behageligt
oser
verb
henter
rekommendation
hjalpsam
udt
flexibla
gluk
forverkliga
bolagen
uthyrning
hudik
##inerade
forlanga
##atisering
blickar
aterhamtning
helge
magiskt
reglering
ugg
atlet
##bloggen
annans
kravde
vp
vendt
utbildade
lockande
kyrko
ekstern
transform
##begre
click
##vensk
stens
spænding
##craft
##plar
never
vondt
coaching
pund
isbn
højtt
brattom
zoom
bopæl
komplekse
koncentrera
##osteron
ludvig
hahah
stillede
##bjudanden
forvandlas
utmerket
##lid
pensioner
gubben
##erie
##dec
vardnadshavare
##manden
##sledande
tet
fullstandiga
##jev
##planter
price
formagor
stadigvæk
##edirekt
moduler
kad
spredt
kunsten
begrebet
##ækkende
kirkens
innstilling
skrika
rabarber
partene
tillgodose
rimliga
kista
mønstre
##ogram
sprøjte
skro
solens
##ны
tidpunkten
##skrivningar
ligegyl
bakifran
fullmaktige
##vap
ankommer
##bys
ringt
##kamer
##branchen
forekomsten
skulptur
##tagere
##matta
forkyld
##utslapp
pontus
##sve
gemmer
ntb
##atere
##prof
audio
##opat
##ferdig
lagstiftningen
preget
betydeligt
morsom
plastik
##ledere
else
##oil
uppslag
vals
jorgen
tai
##onna
kombinationer
regerings
##fro
rattvist
##artor
grenser
superbra
##ulla
##intresse
##brett
biblioteks
sorgen
fylle
mojliggora
efterfoljande
cannabis
farven
maa
munk
128
axeln
avslutande
##myndigheten
paverkat
bredere
rattighet
kristoffer
##fint
analysere
##hammed
integreret
udarbejde
bevidsthed
##norr
##ль
##tit
musklerna
borgenarer
riva
namnas
##cont
##ærket
informerar
uppdaterar
forvantade
tiltal
fargt
kortfatt
varar
##sprotokoll
##stykke
these
aktien
jen
altanen
zlatan
frigj
geomet
bisex
##pase
konkurrensen
planlegging
peka
##unga
lukas
##cts
mannisko
elektriker
##fodda
gladjande
##round
dodsfall
fab
##drakt
kosttillskott
##møte
sorry
otaliga
myndighetene
innr
pavag
fyrt
##cium
flaskan
næse
##artikel
##fjorden
slutsats
hjalpen
godnatt
##ilog
orm
lanets
marine
##uggest
lucia
strukturen
tømmer
##pop
inleder
forelasare
##aktivt
bordel
##miljon
##opper
forstarka
##hjer
##index
##varmen
##joy
vægge
reservation
parterne
frisor
avund
socialtjanst
hjørnet
dubai
##spaket
##slokaler
border
skred
##temperatur
tendenser
bakade
##deg
mattnad
forsigtigt
attraktion
thailandska
##merter
tass
##skostnad
##upplevelsen
##perne
fastholde
##betet
##sindu
rullade
avkopplande
skjorta
oppdr
soja
hc
parat
dubbels
##loshet
##edt
##odden
bunke
kunnig
sykeple
planlægger
naval
reddit
merker
oppgaven
##rogna
laptop
malgruppe
##kompis
##drivna
homosexuell
##forsakringar
logge
skagg
##førende
nemme
adobe
##idigt
meninger
ejeren
arbejdspladsen
bedrag
verkan
stapeln
relevans
tilsynet
##legetøj
litteraturen
inval
singap
allihopa
deltakere
eskortt
##radio
villor
nervøs
portioner
##dsels
##tavling
efternamn
##dingen
ansoknings
##spolitiken
forsakra
##sverk
statistisk
##smøde
bestemmelse
fert
medfoljer
fk
gjeng
##mur
##sterna
elf
##damp
##pige
varva
maskerad
oforand
##foraldrar
vandret
uppstatt
norrut
mistanke
sjukskoterskor
afslappet
##ysen
albin
gangvag
hosta
sammenhængende
frustration
komplicerat
##informasjon
##komplic
##vari
taller
undtagelse
##atal
##sbe
misshand
beter
dragon
representerer
kompensation
##sles
volks
proven
djupet
mete
længst
##guiden
generel
vata
lip
skugga
resande
saudi
##gardens
ignorer
forbli
beklag
uppehallstillstand
trust
bergman
nade
vels
vika
resmal
skots
##blank
troen
##pene
anstrangning
##vidde
bryg
singapore
hjerter
belæg
##redningen
sterkere
##matning
magnesium
undersoker
skulden
##fic
plattformen
tarna
##ка
siffran
akes
ramar
kny
mixa
pædagogisk
ovn
forfær
besvikelse
##smin
olov
salta
billet
##usias
fremskr
voldt
stovlar
lagts
carolina
klister
jok
snabbaste
##ænger
bym
sakrade
##46
##kallande
informere
hejsan
kungsb
dorrarna
##hente
##forsok
derude
##entlige
likval
##ит
kirsten
kopplar
##benet
zone
velfærd
glaset
hir
handverk
grabbarna
responden
nettbutikk
vine
trium
stekt
urvalet
tillval
namnen
angra
tandlakare
afgørelsen
presentere
attity
blomst
løses
heldag
forside
muskul
hjemmelavet
tjansterna
kjørt
fersk
kombinasjon
hembygds
ivaret
##gorit
tveksam
kvantitet
##ugna
koordiner
##rand
##anlaggningar
opprettholde
adolf
serum
jackson
iofs
befal
##ansvaret
dansen
hoppats
##info
##ventioner
jackpott
avstang
taske
revet
schamp
koble
overføres
##fylt
beskedet
bestyrelsesmedlem
##samhallet
handjob
torkar
##42
helheten
offert
registrerad
muren
tummen
##avir
hastigheten
administrator
tackade
astronom
sædvanlige
##vsjo
gavor
korrekta
eksamens
##stamma
halsosam
ansags
stikk
nikk
xxl
notat
strim
genomskin
##reger
forpligtelser
forfogande
minor
havregr
mottagaren
talk
avlid
justit
##illede
tilrettelæg
##snat
fosfor
fjaril
western
hemlig
skotte
omty
tilføjer
valmaende
##indlæg
hundens
vardagliga
##klare
kontinu
##pek
manual
leter
teckning
satellit
##esl
staderna
domaren
patrick
utarbeidet
elektric
buck
pand
fiender
pocket
porto
cupen
kald
vanja
ulovlig
##sinformation
kakao
sked
mørket
##sax
crazy
##kontakter
forhabentlig
koselig
foraldral
vu
##ylen
strapon
hyllan
bryde
innehallsforteckning
katolska
illustration
talan
thro
##bragte
##ssenter
##final
##rt
tjus
motas
standiga
foretrukne
formedlar
##aktiva
onskel
##grona
socialtjansten
sparat
framtradande
airport
outlet
1300
skagen
delvist
beteenden
ceremon
filme
lyrics
indtast
knapt
passerade
foranstaltninger
reparationer
sallskapet
145
orim
nordost
cloud
##kalas
muslimske
hjartans
citrus
##melsen
1965
##cyklar
medvetenhet
terrass
korrespon
bush
kemisk
##sto
kommunestyr
modersmal
artion
messen
##itioner
##visande
mellanoster
daværende
oplys
ober
spol
tilgjengelige
abc
lattillgang
tida
friend
medborgarna
##skrives
certifierad
omhand
udgang
heat
forfor
skim
##ssikker
dansar
account
ket
viljan
##max
##latande
##skolds
seriøs
virksomheter
princippet
##radande
centerpartiet
moh
materiel
##administr
olik
fastsættes
rakor
##hogskolan
runder
hind
##utbildade
##fos
irriterende
hing
##foreningar
numre
forster
utenlandske
mht
oljor
separata
##inerad
lolland
##etiden
stangde
##andelse
nerver
uter
smage
tool
anvandbara
arkt
synligt
afs
bjods
utflykter
entusias
ate
nuet
aktieagare
ballen
solceller
##stillfallen
##splass
babys
omses
vandre
styrkor
gylden
gjennomgang
arbeidstak
planbok
##magasin
brygga
##ingsas
meldinger
##olycka
opmærksomme
##ssjef
fjen
rullstol
stasjon
medaljer
fs
ansættelse
klippe
fanger
forklaras
nisse
skander
##ventil
skjort
##rah
finansminister
olivia
brande
gomma
besøkende
opstaet
##ødder
databasen
publicerar
whe
underhalla
hanvisning
estland
klost
beslutter
##arets
grunner
hey
laddat
heidi
misbrug
popc
skilsmisse
lounge
machine
##odd
##bestall
invas
ronn
mindful
pride
uppl
fløj
##sbevis
renovera
matas
firas
obligatoriskt
svalna
##fem
joss
kjolen
##stiller
poesi
inbyggda
##inspir
diskusjon
ledsag
rorlighet
vaningar
kampade
atmosfaren
thy
skibet
##svirksomhed
inhem
telemark
psykologisk
uld
redovisar
##haus
flysel
##laimer
##vindu
##budget
bodø
ryttare
tvers
kundene
##ummi
shirts
##ttet
elden
##kkede
upprepa
##husets
##also
dvar
fløde
ungarna
pernilla
lægemidler
##tecken
boxen
likvar
konstverk
anlande
backup
ingredienserna
namnd
piss
##skoterska
foreslagna
kokt
studierna
misstankta
migrationsverket
garaget
##sdatter
bitcoin
bæ
linkedin
hemlag
siri
koh
sluttede
##gru
##alere
money
cigaretter
synge
miljard
##nades
smad
bowling
##ctive
##sekonomi
skyldiga
avanser
tillkann
pow
paborja
visioner
##andets
komfortabel
vidr
advarsel
laroplan
oppfyll
ernst
tillade
##sspar
fortryck
hets
modellerna
manuell
himmelen
tenk
1964
muntlig
##alo
kids
##utskottet
ambulans
##gare
hæve
engine
margareta
akademisk
glip
disclaimer
flydende
##stamning
værelserne
træningen
afrikanska
kated
##arell
markeder
testosteron
rusk
parfy
##borden
##finger
##udenter
##altet
nyhedsbrev
indledning
##esteder
dd
dad
vifte
##emeldinger
##sbank
udbyder
featur
oppsummer
##etta
nøjes
tdc
gung
##skamrater
knas
##43
##smon
##træning
abstrakt
apart
##egenskaper
##kørsel
snyggare
##jamin
giss
motala
skry
##rier
matchmaking
plader
rettes
##sprojektet
kalenderar
litar
lojalitet
lonsamhet
lymf
ledsagare
blandningen
mallor
##kunskap
samordning
industrien
altfor
restri
##forsakringen
genren
advokater
locket
tillbringade
gynnar
1917
##behandler
ideella
jacobsen
matten
oroliga
##oleum
##akter
blande
##lappar
forsikringssel
smukkeste
infordes
interaktion
##flickor
tryckte
aterstalla
radion
grev
sexkontakt
vederlag
inkludera
##slas
##stillede
opsætning
kallelse
volksw
trussel
hesten
ornskolds
also
begreber
margr
##bestamm
romantik
presidenten
hsl
hytte
omfanget
horison
akupunkt
lokalerna
tov
lv
bekymringer
langsom
sure
mario
virgin
aterfukt
agility
pie
##sbut
udskiftning
guitar
ifragasatta
williams
beretning
duger
visades
udbredt
2030
scenario
testamente
potentielle
##ffs
reservdelar
##agens
fv
sluts
##istiker
autonom
rekt
##otiska
lytter
##agerne
##færds
byradet
medicinen
pyssla
sept
konkurrer
##analyse
patenter
hello
##repræsent
klikker
underskrift
kompetensutveckling
##pra
engasjement
arrangere
bibelen
skygge
mattor
forts
adm
strukt
overgangs
oppgav
pure
##isi
kolum
utgjorde
ungefarlig
verne
grupperna
underliggande
##andning
utfar
karaktaren
redskab
experimenter
variationer
##helgen
pornografiska
##æve
timmarna
onlinespel
roret
ambitionen
rattare
2500
morgan
##gelsen
emp
juleg
kapasitet
valbehov
innehar
verksamhetens
besiktning
wii
##eje
gjø
##yds
uteser
indført
ettersp
ændrede
framjar
vasen
argentina
1962
tacos
vansinn
away
##angiv
##æmpelse
sjoar
porrstjarnor
##kjen
knat
kraftfulla
##riske
##hangen
gemt
skarpe
streck
nyttige
bekæm
kritiken
kollegaer
formatet
##herre
tomme
mager
brune
raser
dikter
smalter
flyget
taylor
deci
lofte
omb
leave
##edning
birger
komponent
bød
flybill
tillatna
stories
udsalg
##setninger
familiens
prix
kommentaren
pulsen
anpassar
##skiller
##malt
##key
##ecken
christoffer
protokollet
##flo
##væg
konkurrencen
##studie
bc
ted
planeten
##aljen
atervinning
hofter
##genom
sfo
1944
eye
forebild
##leie
utformade
samst
punk
##grim
chass
benjamin
expansion
##merna
underst
kombinerat
oar
ersattningen
oplyse
munchen
pommes
bekostnad
variabel
##øgning
civila
alar
beklager
flyr
brøndby
corpor
##relaterade
obligatoriska
##espil
markliga
ansættelses
reglene
fordjupa
australia
prøvde
indbygget
##stillings
skadat
tillgangen
##oplevelse
leverandøren
fadern
konkurransen
demokratin
bogstav
erkanner
samhallen
etiske
##vandet
##vuxen
##potatis
medarbeidere
rammen
stella
blasa
defekt
##krafter
bekvamligheter
vejleder
pornostjerne
##roppar
210
##sfrihet
beautiful
nettside
fornybar
ungt
gardin
genomgatt
##ssprak
tvært
felix
##historien
samarbejdspartnere
p3
##splanering
taktik
maur
kontrolleras
cad
##vidd
anordnar
helgerna
dekker
vannerna
uttalanden
##valgt
##arie
placerar
kvinno
visp
sank
bankens
code
erstattet
studion
anvandbar
erov
##øsning
greve
karlsk
uttryckt
moz
kot
ansluter
udlænd
lidingo
rontgen
otur
romantiska
##ques
booty
sexualitet
fællesskabet
##itta
valjare
polism
medlemmene
tavlings
kongelige
##savtalet
skabes
evidens
twin
ulykker
brudd
grave
halsningar
kikade
##ingsmiddel
##ido
strikket
grenar
##placer
timen
speciale
cs
tras
øyeblik
##fulle
anslutna
spurt
svarighet
graden
distriktet
ventede
##blok
opprette
forbannad
opdaget
dogging
strategiske
utb
older
##ødet
klippt
diagnose
anfor
helga
fengsel
1966
##økken
nedbr
hvorpa
hjalmar
ugns
flickorna
genomforde
teorin
søm
##ippe
##middagen
##programmer
##baren
afsæt
boenden
puder
##kvaliteten
malgrupper
halsning
østfold
skiter
##elefoner
sneakers
behandlings
overbevist
##rits
halvparten
kreve
lyfte
afgræns
upphand
toyota
alternativen
##klæring
##fog
oplevelsen
espress
forsøke
##alag
chefred
vasternorr
otroliga
tænd
reinfeldt
overfladen
##ebygg
reelle
stone
##amatch
##foretagare
sture
beige
##ekonomi
##godis
intrade
seksualitet
mastercard
niger
skeden
elsket
flyet
maksimal
litau
olamp
køretøj
hott
##konsol
lyxigt
sexlegetøj
##medvet
kartofler
branche
##porten
##kligen
overvægt
##kle
nol
player
dybe
acceler
begrænsninger
laura
snurrar
omtanke
tipset
synkron
brittisk
elevernes
inskran
fult
træffes
opgav
varuk
varianten
release
switch
naglarna
kreves
##analyser
vardcentral
##ae
utmed
sykehuset
##roja
##kammer
fremmer
spær
involveret
cb
rykten
##estyrelsen
proportion
anpassning
arrangor
##erier
selvstændigt
oversku
strommen
flytten
forhandlinger
##vilkar
kirurgi
digt
##fika
aus
plas
##ikerna
lidelse
##ningsforetag
vibe
chick
fjernsyn
betjening
ofre
samlad
abningstider
motsatsen
besitter
tokyo
kvarstar
##lægger
hendelser
klippte
##bletter
stenen
varmek
sinnen
sparen
been
bely
spindel
forkerte
##agarens
lura
##batter
pyram
##betændelse
nintendo
pam
##dommer
tyde
forestilling
arabisk
forkæl
##centre
##mannens
##taj
likviditet
award
operationer
##isolering
##skarmen
utvecklare
reflektion
deltakerne
forhallandevis
##senheten
fordelas
byrak
bridge
##sappar
peru
sanden
medelaldern
forste
155
##forpack
manskligheten
magaz
opfordrer
##istans
skapt
skrivas
likte
ci
osten
##standard
rigeligt
exception
impul
utføres
sjutton
skabte
snabbast
hjørring
oarna
pagatt
database
successivt
transparent
cams
safari
varmvatten
oversk
##tradde
vandløb
fangst
overenskomst
dee
burger
oversyn
drinkar
langsam
beredskab
flink
rejs
outf
tata
overleve
##ammare
rydde
kvist
isted
generos
arbejdstid
knyt
senget
atgarda
ulykke
læreren
##eling
biod
ryan
enklast
bollnas
arbetsdagar
##ellack
likes
ernæring
nostalg
tilfredshed
sidel
prostituerade
##transport
migration
tycke
board
lyckan
##somhelst
naboer
amning
##punktet
##fardig
sprids
segrar
mardrom
vev
lanserar
dildos
##samhall
statistikk
##strategier
boobs
chatten
kamrat
aktivering
butter
protected
turism
vassa
inham
hæld
##slovens
ovantade
awesome
veckas
dreier
kronprins
asylsokande
##prat
assister
fjernvarme
hede
sofistiker
agentur
##smassage
jamte
lastbilar
##jorer
als
##settes
omhygg
sic
torv
ranger
seriøse
##dekor
dagtilbud
trot
kommerci
produksjonen
##jong
##artikler
1948
redaktør
mottar
brunch
anlegget
uppskattning
gennemgaet
##bjudande
vurderet
swing
granserna
anka
##lokal
tempot
avsak
mottagning
unike
##lans
tivoli
mcc
##vendigt
klang
##gettet
præster
##naderna
støvler
chauff
skinner
styv
bekampa
avverk
lasas
samspel
valkomnande
##ising
ligan
##banker
##agnen
anmalda
modig
##produs
uppdaterat
##ief
##ovar
vandrarhem
rikta
##spriset
generera
lutar
representerade
1100
##atser
træde
begri
hemmelige
trusler
møteplassen
vene
canon
sæn
brutto
uppkopplad
##bøker
##erapeut
kliniska
tranaren
maklar
fordela
##otin
123
sasongens
1918
##verker
korea
##host
vaglangd
exploder
##faktorer
##saftale
gyldig
professionelt
overdre
kee
##uda
kondomer
nokia
smet
mellanostern
##skrive
observationer
alingsas
##artner
##prak
##salj
informasjonskapsler
gigantisk
genrer
ultraljud
smoret
spott
outlook
104
bjudit
spurte
##reglerna
##greb
halvaret
mottak
sosialt
olycksfall
levede
dataskydds
huvudman
hode
bengtsson
bæl
afholder
spinn
bebisen
oversatta
sjæld
kikar
kli
gina
portugis
jævnligt
papekar
##spartiet
##kage
konkurrenc
problemat
væsen
kartong
wat
elect
##kurser
korten
##pose
kortvar
handlaggning
bedomningar
montage
##bostader
skaka
sværere
vennlig
##amman
tork
briller
anvandandet
produktene
logik
mojligtvis
velkomne
skrib
tilpasses
nyin
##registret
clara
##mitt
##injen
##amt
baner
sert
aptit
##kabel
sluttet
cass
##ores
kontanthjælp
onskas
##boda
tynd
kloka
bour
##istensen
badade
6000
underholdende
requ
sydlige
konklusion
vips
1963
saaaa
gips
aminos
107
##agningen
fritidshus
moped
andrea
asia
elektronikk
pappret
##lador
##garde
##idst
bakgrunds
dekket
atlant
handlare
instruktør
vittnes
segt
beslot
tecknad
##spillere
##sholm
innkjøp
provas
scout
where
utvecklad
papeka
filma
køretøjer
bryssel
##ieber
jattefint
kræn
pupper
ther
##øyet
berodde
##sparet
selvstændige
miljopa
arb
matrik
##rutan
wol
vægtt
kongressen
kritikk
##demokrat
kriminella
monteres
reper
##bakken
##zel
##regul
atanke
heja
treffe
kopas
fakturan
folkeskolen
sannolikheten
mælke
framkom
marknadsfora
twist
##vardiga
utredningar
utgaende
inspirerade
størstedelen
grens
fineste
anded
afgang
##ologien
utvidet
laxor
##iano
mærk
kvalifikationer
forlov
##sbibli
charter
##vallen
kærligheden
##ligheterna
##rick
##diagn
##dør
##spriser
forsvarar
sandheden
##posit
##hanter
opdager
vattendrag
krak
publicering
##sprang
##andringar
kungsbacka
##arbe
snyggaste
на
pojkarna
##skonfer
##цr
kartlaggning
løser
revolutionen
blodtryk
vilkarene
okningen
fødslen
overbel
##odell
##61
anelse
tidnings
tolkas
certifierade
bokens
fots
lobby
tvattar
charmerende
advan
daily
hob
##то
forkant
inrikes
pornstar
organer
tildeling
valley
wilhelm
strategiskt
mosa
credit
rekon
expedition
##iate
læses
leksand
##stilt
##olv
fotografi
##jade
omg
angrepp
##bostads
karaktarerna
4k
buddh
##sadress
##ophold
oas
prenumeration
hakt
lagra
tabu
strømmen
krypt
spand
##handtering
sald
##etty
episode
pion
hender
##foten
tilføjet
##indhold
##ough
nycklar
skynda
##jat
elektricitet
tm
##nack
genomforandet
hof
##forhandling
hæm
genkende
forfattarna
opplær
makro
##ingets
generosa
roser
##eltet
fritidshem
meddelas
##sendte
##bens
arrangera
##holden
stay
dylikt
##stallas
pluggar
udfol
rin
bars
##hild
##værdige
kaffek
accepterer
begravet
blood
##størrelse
friidrott
inspirationen
pott
gf
marathon
popcorn
##istere
##gning
forskjellen
##ches
##lay
dørene
medlemsstater
##pef
catering
technology
transporten
##regnet
##legge
terminal
creative
msk
betydelige
bestammelsen
mogel
blodpro
afsked
##visende
trykket
##ки
medarbetarna
tilsammen
##følelse
tilfeldig
forsvarlig
hjulet
bergs
fødevar
##irs
glogg
laros
##etninger
forhindrar
##krediter
##entusi
seksuel
pierre
forvirring
symfon
utkik
##alat
ansluten
##cil
cocktail
650
ydes
træet
perspektiver
dekk
vaxla
##asi
sexnoveller
egentlige
francisco
linux
gevinster
tynde
varifran
##ikkens
erbjod
forme
##bygd
##samfundet
##hormon
calle
##gan
opstart
utvecklades
hotar
##flader
##stammer
##otyper
begransning
hits
andam
virksomheds
skrædder
sundhedsv
develop
##ærk
politiets
kopplad
skillnaderna
##drings
søgte
secret
hemmagjord
møbel
homoseksuelle
opdagede
synnerligen
varpa
##hoved
anlagt
##special
##tabel
kvinnene
postadressen
behaglig
strava
aklag
valjs
tvingar
ifragasatt
##jede
slack
elim
pauser
uppfost
etapp
##oider
gader
disco
lektor
utformas
forhandlingar
anlander
##vigt
palestin
##hyg
begransas
##vanner
forberedd
organisk
gallerier
likadan
genombrott
jum
pæne
onekligen
taste
grunnlaget
jøder
udfylde
einar
fus
handduk
ackligt
##ktligen
##iop
installere
1939
nøyaktig
kvaliten
##stegn
##revlig
tolkar
##shantering
stallningst
##roprakt
demonstration
fakturor
oppning
##starka
##ogna
kongens
##gy
henger
eds
vagnar
globen
##sfordelning
118
liam
pakistan
granit
##zing
kari
spanningen
konsept
beslutningen
ideelle
spændt
shl
kulturarv
anvendte
manatliga
veil
sekel
nuancer
semifin
linket
##avdelning
attrah
gubbe
udgangen
skilte
##arena
forsakringsbolag
mobiler
kompress
rasen
premiaren
##anv
##uttende
bemyndig
akties
nackdel
kvick
figh
betalte
trækkes
millimeter
indsat
utsokt
fornuftigt
graven
babes
tydeligvis
viset
pull
##motorer
drabbades
miljontals
rykker
sarbar
personens
truck
lida
sjalvkansla
lugnet
analytics
apro
##ningsman
hudens
##slav
tjockt
sokmotor
kritiskt
onanerar
schys
arsredovisning
maneds
mascara
ingenstans
formulering
fluff
jernban
spelverksamhet
boller
##skilte
flyttes
which
kulturhistor
overtog
forete
think
penn
##skjer
##havaren
dirt
avde
##ædagog
tradet
nanstans
pastand
##drivende
servere
oljem
vaku
tvn
rattigheterna
nettles
##sfrem
sædceller
sykdommer
komposition
overfora
kampat
brystet
mølle
sandviken
reply
fiction
tavlan
hunder
##itis
forholder
knu
annuller
##dejta
##lampor
forlader
gammeldags
skibe
valby
kontaktet
nyaste
fakturering
snackade
ateranvand
##apparat
medfoljande
ledaren
kulor
bim
nicola
udarbejdelse
websites
ovennævnte
##knapp
##miljøet
indikerar
nv
sammenlign
upplevs
##højde
medvirke
fylt
##ningsloven
parlamentar
menneskers
erika
##slaet
##burit
vetenskapligt
##xi
sammansattning
##ineret
grunderna
pse
550
hjælpemidler
østr
udgift
telefonsex
miljopaverkan
nykter
dold
##inor
slickar
bøkene
##shast
portfol
udarbejdes
modtagelse
skæb
samverk
kongress
incest
selskapets
derby
umgange
oppgrader
102
##ikum
datan
uri
ovenpa
seil
monopol
udefra
##stue
reduceret
spidsen
administrationen
opplysningene
##blivna
##forklar
picture
halver
function
109
hovedsa
folkeh
##konkur
videreg
graders
depp
##ændringer
##songer
alskare
##foss
##bords
observation
rammerne
kostnadsfri
##blen
##psi
velkomst
##studer
jagare
sære
motsats
rada
cf
##sli
klur
##reder
##portalen
slutliga
kobber
pasar
vejer
jattest
##peppar
mastur
spetsen
##egning
grundar
forsvare
jamen
##odande
omed
##slosningar
aterga
vanskeligere
nd
ideologi
pistol
pvc
##bibliotek
overføre
cav
koncernens
torkt
medverkande
ovanliga
tilbuddet
semi
portfolj
hastigt
fortællinger
##ramme
brocc
tonn
kompletteras
mene
besvare
aksjon
forbundets
##ampe
krevende
bankid
adren
##vandrer
vardegrund
juridik
stimulerande
anteckningar
##rate
experience
gambling
##hjulet
losas
paraply
ramte
hawa
republ
veronica
##gron
sandhed
##dog
##splant
vt
say
uppkommer
kjemisk
##63
tillstandet
desser
##redskap
omvardnad
clint
keb
monte
pedagoger
tilldelas
drage
jackan
sallsynt
herred
##halvaret
1½
##sledning
##sev
##alom
packat
utgiv
konstruktionen
fackliga
volkswagen
ubeg
traditionel
registreringen
1961
baksida
christopher
##vecka
nevne
##ettan
tandlæge
taber
##intervju
virtual
arrangert
hovedsakelig
bestræ
##sstor
cuck
##vejledning
kiroprakt
##iknande
##istre
konsulter
videnskabelige
fugl
optage
mails
##gørende
gjester
skjerm
##udden
kungalv
integrerad
pinne
fargton
indepen
##bestand
fantasin
supplement
salda
guar
solut
##blast
fargade
stressa
rygs
awards
pafre
##ostat
harnos
##utover
##stres
##rygg
nynas
utal
m3
utenrik
fanny
ngn
søgt
##olje
øya
##rosa
administrativ
udmærket
prestera
miljøm
stangd
trick
lanat
parkeringen
##cirkel
##hug
tværtimod
tonen
##oz
mellanmal
tradte
bita
##emellan
fjellet
optræder
jomfru
mallorca
##kare
reagere
bøj
ilska
tillykke
placeringar
vinen
gaffel
instrumenter
øyne
ambassa
##urop
generationen
trea
snurra
reel
propaganda
kang
handværker
##show
sidstnævnte
##ssokande
jakke
vasket
kommentarerna
valling
##usentals
liban
sjef
barb
overh
besøker
hudiksvall
java
petr
jr
cumshot
invitere
##alten
##kin
##utomaten
##sort
osann
##meddelanden
opbak
dromt
profesjonelle
illust
stangs
spiritu
##visade
1958
tararna
programmen
diskuterade
nyttiga
forstarkt
fortroendet
googles
swim
innovativ
sønderborg
##smester
hocke
winter
sandaler
##sministeren
chancen
prøvd
legitimation
sick
korriger
justere
toa
doms
søte
sunder
seder
ensamkommande
designad
##89
opholds
avtaler
klassrummet
tillverkaren
##værdi
avdelningar
##sprem
##eeee
farga
##drages
kaniner
vanvitt
kronofogden
save
opfin
halet
blankett
##slagna
terminen
langivaren
detail
morot
personbil
enkoping
eleganta
skamm
jocke
beskrivningen
##ranta
##spromen
omvax
abonn
bloj
##egne
undre
milano
##listor
tjeckien
forsav
##skelse
rabattkoder
##gad
##bildet
##sbranschen
##smægler
synger
eko
brands
stev
dominerende
melodi
rating
##assig
prioritere
syften
befatt
##smodeller
teoretiska
hl
spiral
better
opvarmning
split
embed
streama
##vurdering
infall
repræsenteret
penetr
ersattnings
herrer
radon
##hydrat
inkluderet
##iserande
kontingent
harmed
bindande
friday
##works
forpackningen
konjunktur
##ique
2x
##skip
angelholm
##sbrott
kajsa
redigering
hugg
##food
udviklede
##badet
honning
parla
##skrit
medierne
serveret
otillrack
##evir
##arenden
stigande
visionen
varn
fascinerende
##62
primær
opstod
blota
avlagsna
##midt
##bygging
##vakter
##undervisningen
roland
hava
association
[...]
