[PAD]
[unused0]
[unused1]
[unused2]
[unused3]
[unused4]
[unused5]
[unused6]
[unused7]
[unused8]
[unused9]
[unused10]
[unused11]
[unused12]
[unused13]
[unused14]
[unused15]
[unused16]
[unused17]
[unused18]
[unused19]
[unused20]
[unused21]
[unused22]
[unused23]
[unused24]
[unused25]
[unused26]
[unused27]
[unused28]
[unused29]
[unused30]
[unused31]
[unused32]
[unused33]
[unused34]
[unused35]
[unused36]
[unused37]
[unused38]
[unused39]
[unused40]
[unused41]
[unused42]
[unused43]
[unused44]
[unused45]
[unused46]
[unused47]
[unused48]
[unused49]
[unused50]
[unused51]
[unused52]
[unused53]
[unused54]
[unused55]
[unused56]
[unused57]
[unused58]
[unused59]
[unused60]
[unused61]
[unused62]
[unused63]
[unused64]
[unused65]
[unused66]
[unused67]
[unused68]
[unused69]
[unused70]
[unused71]
[unused72]
[unused73]
[unused74]
[unused75]
[unused76]
[unused77]
[unused78]
[unused79]
[unused80]
[unused81]
[unused82]
[unused83]
[unused84]
[unused85]
[unused86]
[unused87]
[unused88]
[unused89]
[unused90]
[unused91]
[unused92]
[unused93]
[unused94]
[unused95]
[unused96]
[unused97]
[unused98]
[unused99]
[unused100]
[unused101]
[unused102]
[unused103]
[unused104]
[unused105]
[unused106]
[unused107]
[unused108]
[unused109]
[unused110]
[unused111]
[unused112]
[unused113]
[unused114]
[unused115]
[unused116]
[unused117]
[unused118]
[unused119]
[unused120]
[unused121]
[unused122]
[unused123]
[unused124]
[unused125]
[unused126]
[unused127]
[unused128]
[unused129]
[unused130]
[unused131]
[unused132]
[unused133]
[unused134]
[unused135]
[unused136]
[unused137]
[unused138]
[unused139]
[unused140]
[unused141]
[unused142]
[unused143]
[unused144]
[unused145]
[unused146]
[unused147]
[unused148]
[unused149]
[unused150]
[unused151]
[unused152]
[unused153]
[unused154]
[unused155]
[unused156]
[unused157]
[unused158]
[unused159]
[unused160]
[unused161]
[unused162]
[unused163]
[unused164]
[unused165]
[unused166]
[unused167]
[unused168]
[unused169]
[unused170]
[unused171]
[unused172]
[unused173]
[unused174]
[unused175]
[unused176]
[unused177]
[unused178]
[unused179]
[unused180]
[unused181]
[unused182]
[unused183]
[unused184]
[unused185]
[unused186]
[unused187]
[unused188]
[unused189]
[unused190]
[unused191]
[unused192]
[unused193]
[unused194]
[unused195]
[unused196]
[unused197]
[unused198]
[unused199]
[unused200]
[unused201]
[unused202]
[unused203]
[unused204]
[unused205]
[unused206]
[unused207]
[unused208]
[unused209]
[unused210]
[unused211]
[unused212]
[unused213]
[unused214]
[unused215]
[unused216]
[unused217]
[unused218]
[unused219]
[unused220]
[unused221]
[unused222]
[unused223]
[unused224]
[unused225]
[unused226]
[unused227]
[unused228]
[unused229]
[unused230]
[unused231]
[unused232]
[unused233]
[unused234]
[unused235]
[unused236]
[unused237]
[unused238]
[unused239]
[unused240]
[unused241]
[unused242]
[unused243]
[unused244]
[unused245]
[unused246]
[unused247]
[unused248]
[unused249]
[unused250]
[unused251]
[unused252]
[unused253]
[unused254]
[unused255]
[unused256]
[unused257]
[unused258]
[unused259]
[unused260]
[unused261]
[unused262]
[unused263]
[unused264]
[unused265]
[unused266]
[unused267]
[unused268]
[unused269]
[unused270]
[unused271]
[unused272]
[unused273]
[unused274]
[unused275]
[unused276]
[unused277]
[unused278]
[unused279]
[unused280]
[unused281]
[unused282]
[unused283]
[unused284]
[unused285]
[unused286]
[unused287]
[unused288]
[unused289]
[unused290]
[unused291]
[unused292]
[unused293]
[unused294]
[unused295]
[unused296]
[unused297]
[unused298]
[unused299]
[unused300]
[unused301]
[unused302]
[unused303]
[unused304]
[unused305]
[unused306]
[unused307]
[unused308]
[unused309]
[unused310]
[unused311]
[unused312]
[unused313]
[unused314]
[unused315]
[unused316]
[unused317]
[unused318]
[unused319]
[unused320]
[unused321]
[unused322]
[unused323]
[unused324]
[unused325]
[unused326]
[unused327]
[unused328]
[unused329]
[unused330]
[unused331]
[unused332]
[unused333]
[unused334]
[unused335]
[unused336]
[unused337]
[unused338]
[unused339]
[unused340]
[unused341]
[unused342]
[unused343]
[unused344]
[unused345]
[unused346]
[unused347]
[unused348]
[unused349]
[unused350]
[unused351]
[unused352]
[unused353]
[unused354]
[unused355]
[unused356]
[unused357]
[unused358]
[unused359]
[unused360]
[unused361]
[unused362]
[unused363]
[unused364]
[unused365]
[unused366]
[unused367]
[unused368]
[unused369]
[unused370]
[unused371]
[unused372]
[unused373]
[unused374]
[unused375]
[unused376]
[unused377]
[unused378]
[unused379]
[unused380]
[unused381]
[unused382]
[unused383]
[unused384]
[unused385]
[unused386]
[unused387]
[unused388]
[unused389]
[unused390]
[unused391]
[unused392]
[unused393]
[unused394]
[unused395]
[unused396]
[unused397]
[unused398]
[unused399]
[unused400]
[unused401]
[unused402]
[unused403]
[unused404]
[unused405]
[unused406]
[unused407]
[unused408]
[unused409]
[unused410]
[unused411]
[unused412]
[unused413]
[unused414]
[unused415]
[unused416]
[unused417]
[unused418]
[unused419]
[unused420]
[unused421]
[unused422]
[unused423]
[unused424]
[unused425]
[unused426]
[unused427]
[unused428]
[unused429]
[unused430]
[unused431]
[unused432]
[unused433]
[unused434]
[unused435]
[unused436]
[unused437]
[unused438]
[unused439]
[unused440]
[unused441]
[unused442]
[unused443]
[unused444]
[unused445]
[unused446]
[unused447]
[unused448]
[unused449]
[unused450]
[unused451]
[unused452]
[unused453]
[unused454]
[unused455]
[unused456]
[unused457]
[unused458]
[unused459]
[unused460]
[unused461]
[unused462]
[unused463]
[unused464]
[unused465]
[unused466]
[unused467]
[unused468]
[unused469]
[unused470]
[unused471]
[unused472]
[unused473]
[unused474]
[unused475]
[unused476]
[unused477]
[unused478]
[unused479]
[unused480]
[unused481]
[unused482]
[unused483]
[unused484]
[unused485]
[unused486]
[unused487]
[unused488]
[unused489]
[unused490]
[unused491]
[unused492]
[unused493]
[unused494]
[unused495]
[unused496]
[unused497]
[unused498]
[unused499]
[unused500]
[unused501]
[unused502]
[unused503]
[unused504]
[unused505]
[unused506]
[unused507]
[unused508]
[unused509]
[unused510]
[unused511]
[unused512]
[unused513]
[unused514]
[unused515]
[unused516]
[unused517]
[unused518]
[unused519]
[unused520]
[unused521]
[unused522]
[unused523]
[unused524]
[unused525]
[unused526]
[unused527]
[unused528]
[unused529]
[unused530]
[unused531]
[unused532]
[unused533]
[unused534]
[unused535]
[unused536]
[unused537]
[unused538]
[unused539]
[unused540]
[unused541]
[unused542]
[unused543]
[unused544]
[unused545]
[unused546]
[unused547]
[unused548]
[unused549]
[unused550]
[unused551]
[unused552]
[unused553]
[unused554]
[unused555]
[unused556]
[unused557]
[unused558]
[unused559]
[unused560]
[unused561]
[unused562]
[unused563]
[unused564]
[unused565]
[unused566]
[unused567]
[unused568]
[unused569]
[unused570]
[unused571]
[unused572]
[unused573]
[unused574]
[unused575]
[unused576]
[unused577]
[unused578]
[unused579]
[unused580]
[unused581]
[unused582]
[unused583]
[unused584]
[unused585]
[unused586]
[unused587]
[unused588]
[unused589]
[unused590]
[unused591]
[unused592]
[unused593]
[unused594]
[unused595]
[unused596]
[unused597]
[unused598]
[unused599]
[unused600]
[unused601]
[unused602]
[unused603]
[unused604]
[unused605]
[unused606]
[unused607]
[unused608]
[unused609]
[unused610]
[unused611]
[unused612]
[unused613]
[unused614]
[unused615]
[unused616]
[unused617]
[unused618]
[unused619]
[unused620]
[unused621]
[unused622]
[unused623]
[unused624]
[unused625]
[unused626]
[unused627]
[unused628]
[unused629]
[unused630]
[unused631]
[unused632]
[unused633]
[unused634]
[unused635]
[unused636]
[unused637]
[unused638]
[unused639]
[unused640]
[unused641]
[unused642]
[unused643]
[unused644]
[unused645]
[unused646]
[unused647]
[unused648]
[unused649]
[unused650]
[unused651]
[unused652]
[unused653]
[unused654]
[unused655]
[unused656]
[unused657]
[unused658]
[unused659]
[unused660]
[unused661]
[unused662]
[unused663]
[unused664]
[unused665]
[unused666]
[unused667]
[unused668]
[unused669]
[unused670]
[unused671]
[unused672]
[unused673]
[unused674]
[unused675]
[unused676]
[unused677]
[unused678]
[unused679]
[unused680]
[unused681]
[unused682]
[unused683]
[unused684]
[unused685]
[unused686]
[unused687]
[unused688]
[unused689]
[unused690]
[unused691]
[unused692]
[unused693]
[unused694]
[unused695]
[unused696]
[unused697]
[unused698]
[unused699]
[unused700]
[unused701]
[unused702]
[unused703]
[unused704]
[unused705]
[unused706]
[unused707]
[unused708]
[unused709]
[unused710]
[unused711]
[unused712]
[unused713]
[unused714]
[unused715]
[unused716]
[unused717]
[unused718]
[unused719]
[unused720]
[unused721]
[unused722]
[unused723]
[unused724]
[unused725]
[unused726]
[unused727]
[unused728]
[unused729]
[unused730]
[unused731]
[unused732]
[unused733]
[unused734]
[unused735]
[unused736]
[unused737]
[unused738]
[unused739]
[unused740]
[unused741]
[unused742]
[unused743]
[unused744]
[unused745]
[unused746]
[unused747]
[unused748]
[unused749]
[unused750]
[unused751]
[unused752]
[unused753]
[unused754]
[unused755]
[unused756]
[unused757]
[unused758]
[unused759]
[unused760]
[unused761]
[unused762]
[unused763]
[unused764]
[unused765]
[unused766]
[unused767]
[unused768]
[unused769]
[unused770]
[unused771]
[unused772]
[unused773]
[unused774]
[unused775]
[unused776]
[unused777]
[unused778]
[unused779]
[unused780]
[unused781]
[unused782]
[unused783]
[unused784]
[unused785]
[unused786]
[unused787]
[unused788]
[unused789]
[unused790]
[unused791]
[unused792]
[unused793]
[unused794]
[unused795]
[unused796]
[unused797]
[unused798]
[unused799]
[unused800]
[unused801]
[unused802]
[unused803]
[unused804]
[unused805]
[unused806]
[unused807]
[unused808]
[unused809]
[unused810]
[unused811]
[unused812]
[unused813]
[unused814]
[unused815]
[unused816]
[unused817]
[unused818]
[unused819]
[unused820]
[unused821]
[unused822]
[unused823]
[unused824]
[unused825]
[unused826]
[unused827]
[unused828]
[unused829]
[unused830]
[unused831]
[unused832]
[unused833]
[unused834]
[unused835]
[unused836]
[unused837]
[unused838]
[unused839]
[unused840]
[unused841]
[unused842]
[unused843]
[unused844]
[unused845]
[unused846]
[unused847]
[unused848]
[unused849]
[unused850]
[unused851]
[unused852]
[unused853]
[unused854]
[unused855]
[unused856]
[unused857]
[unused858]
[unused859]
[unused860]
[unused861]
[unused862]
[unused863]
[unused864]
[unused865]
[unused866]
[unused867]
[unused868]
[unused869]
[unused870]
[unused871]
[unused872]
[unused873]
[unused874]
[unused875]
[unused876]
[unused877]
[unused878]
[unused879]
[unused880]
[unused881]
[unused882]
[unused883]
[unused884]
[unused885]
[unused886]
[unused887]
[unused888]
[unused889]
[unused890]
[unused891]
[unused892]
[unused893]
[unused894]
[unused895]
[unused896]
[unused897]
[unused898]
[unused899]
[unused900]
[unused901]
[unused902]
[unused903]
[unused904]
[unused905]
[unused906]
[unused907]
[unused908]
[unused909]
[unused910]
[unused911]
[unused912]
[unused913]
[unused914]
[unused915]
[unused916]
[unused917]
[unused918]
[unused919]
[unused920]
[unused921]
[unused922]
[unused923]
[unused924]
[unused925]
[unused926]
[unused927]
[unused928]
[unused929]
[unused930]
[unused931]
[unused932]
[unused933]
[unused934]
[unused935]
[unused936]
[unused937]
[unused938]
[unused939]
[unused940]
[unused941]
[unused942]
[unused943]
[unused944]
[unused945]
[unused946]
[unused947]
[unused948]
[unused949]
[unused950]
[unused951]
[unused952]
[unused953]
[unused954]
[unused955]
[unused956]
[unused957]
[unused958]
[unused959]
[unused960]
[unused961]
[unused962]
[unused963]
[unused964]
[unused965]
[unused966]
[unused967]
[unused968]
[unused969]
[unused970]
[unused971]
[unused972]
[unused973]
[unused974]
[unused975]
[unused976]
[unused977]
[unused978]
[unused979]
[unused980]
[unused981]
[unused982]
[unused983]
[unused984]
[unused985]
[unused986]
[unused987]
[unused988]
[unused989]
[unused990]
[unused991]
[unused992]
[unused993]
[unused994]
[unused995]
[unused996]
[unused997]
[unused998]
[unused999]
[UNK]
[CLS]
[SEP]
[MASK]
!
"
#
$
%
&
'
(
)
*
+
,
-
.
/
0
1
2
3
4
5
6
7
8
9
:
;
<
=
>
?
@
[
\
]
^
_
`
a
b
c
d
e
f
g
h
i
j
k
l
m
n
o
p
q
r
s
t
u
v
w
x
y
z
{
|
}
~
¡
¢
£
¤
¥
¦
§
¨
©
ª
«
¬
®
¯
°
±
²
³
´
µ
¶
·
¸
¹
º
»
¼
½
¾
¿
×
ß
æ
ð
ø
þ
đ
ı
ł
œ
ſ
ƒ
ɔ
ə
ʹ
ʺ
ʼ
ˆ
ˈ
˚
˜
α
β
γ
δ
ε
ζ
η
θ
ι
κ
λ
μ
ν
ξ
ο
π
ρ
ς
σ
τ
υ
φ
χ
ψ
ω
а
б
в
г
д
е
ж
з
и
к
л
м
н
о
п
р
с
т
у
ф
х
ц
ч
ш
щ
ъ
ы
ь
э
ю
я
ђ
є
ѕ
і
ј
ґ
ա
א
ב
ג
ד
ה
ו
ח
ט
י
כ
ל
ם
מ
ן
נ
ס
ע
פ
ק
ר
ש
ת
׳
،
ء
ا
ب
ة
ت
ث
ج
ح
خ
د
ذ
ر
ز
س
ش
ص
ض
ط
ع
غ
ـ
ف
ق
ك
ل
م
ن
ه
و
ى
ي
پ
ک
گ
ی
क
ज
त
न
प
म
य
र
ल
व
स
ह
ा
ि
ी
ो
ক
ন
ব
র
া
ি
ে
க
த
ி
ு
ക
ത
ന
യ
ര
ല
വ
ാ
ി
െ
ก
ข
ค
ง
จ
ช
ด
ต
ท
น
บ
ป
พ
ม
ย
ร
ล
ว
ส
ห
อ
ะ
า
ำ
เ
แ
ไ
ა
ე
ი
ᄀ
ᄂ
ᄃ
ᄅ
ᄆ
ᄇ
ᄉ
ᄋ
ᄌ
ᄎ
ᄏ
ᄐ
ᄑ
ᄒ
ᅡ
ᅢ
ᅥ
ᅦ
ᅧ
ᅩ
ᅪ
ᅬ
ᅭ
ᅮ
ᅳ
ᅴ
ᅵ
ᆨ
ᆫ
ᆯ
ᆷ
ᆸ
ᆻ
ᆼ
‐
‑
‒
–
—
‘
’
‚
“
”
„
†
•
…
‰
′
″
‹
›
⁄
₂
€
℃
№
™
←
↑
→
⇒
−
∗
∙
√
≤
≥
─
━
│
■
▪
►
◊
○
●
☀
★
☆
☎
☕
☝
☺
♀
♂
♡
♥
♦
✅
✌
✓
✔
✨
❑
❗
❤
➔
➤
➧
⠀
⬆
⭐
、
。
「
」
【
】
あ
い
う
え
お
か
き
く
け
こ
さ
し
す
せ
そ
た
ち
っ
つ
て
と
な
に
の
は
ひ
へ
ま
み
め
も
や
よ
ら
り
る
れ
ろ
わ
を
ん
ア
ィ
イ
ウ
ェ
エ
オ
カ
キ
ク
ケ
コ
サ
シ
ス
セ
ソ
タ
チ
ッ
ツ
テ
ト
ナ
ニ
ネ
ハ
ヒ
フ
ヘ
ホ
マ
ミ
ム
メ
モ
ャ
ュ
ョ
ラ
リ
ル
レ
ロ
ワ
ン
・
ー
一
七
万
三
上
下
不
与
专
世
业
东
两
个
中
为
主
久
么
之
乐
九
也
买
了
争
事
二
于
五
亚
交
产
京
人
什
今
他
仙
代
以
们
件
任
企
会
传
位
体
何
作
你
使
供
保
信
元
先
光
免
入
全
八
公
六
关
其
具
内
円
册
军
冠
准
出
分
划
列
创
利
到
制
前
力
加
务
动
势
動
化
北
区
十
单
南
博
原
去
县
及
友
双
发
取
受
口
可
台
号
司
合
同
名
后
吗
员
和
品
哪
商
器
四
回
国
图
在
地
场
址
坛
型
城
堂
場
外
多
大
天
太
头
奇
奖
女
好
如
姐
娱
婆
子
字
学
安
官
定
宝
实
客
家
容
富
对
将
小
少
就
尾
展
山
島
川
州
工
巧
市
常
平
年
广
庆
库
店
度
建
开
式
引
当
录
彩
影
很
律
得
微
心
必
忙
快
怎
思
性
总
情
想
意
感
成
我
户
房
所
手
打
技
投
报
持
挂
指
排
接
推
提
播
放
教
数
文
料
斯
新
方
无
日
时
明
星
是
時
更
最
月
有
服
期
未
本
机
杀
来
東
果
校
样
格
業
次
正
比
民
氓
気
水
江
没
河
法
波
注
活
流
测
海
清
港
游
源
澳
点
然
爱
片
版
牌
牛
物
特
狗
玄
王
玩
现
球
理
生
用
田
电
町
画
界
疆
登
白
百
的
目
直
相
省
看
県
真
着
知
石
码
碰
社
神
票
福
科
程
稳
空
立
站
第
等
算
管
精
系
红
线
组
经
结
统
网
美
群
老
考
者
而
联
肖
育
能
自
色
英
蛋
行
表
装
西
要
見
规
视
解
語
计
记
论
设
诗
说
请
财
费
资
赌
赚
赛
赢
走
超
越
跑
路
身
车
软
载
过
运
还
这
进
送
选
通
速
道
選
部
都
酶
里
重
野
量
金
钱
银
長
长
間
门
间
阳
际
限
院
集
霸
青
面
音
预
频
食
香
马
高
黄
黑
龙
ﬁ
ﬂ
！
（
）
，
５
：
？
ｗ
～
￼
🇩
🇰
🌟
🌸
🍀
🍁
🍂
🎄
🎉
🏻
🏼
🏽
👌
👍
👏
💕
💙
💚
💪
🔥
🔺
🔻
😀
😁
😂
😃
😄
😅
😆
😉
😊
😋
😍
😎
😘
😛
😜
😱
😳
🙁
🙂
🙄
🙈
🙌
🙏
🤔
🤗
🤞
🤩
##v
##æ
##g
##d
##r
##i
##e
##s
##t
##a
##u
##l
##ø
##k
##n
##o
##m
##j
##f
##9
##5
##3
##h
##b
##2
##p
##¸
##4
##1
##y
##c
##7
##0
##x
##w
##´
##z
##q
##6
##т
##р
##у
##к
##и
##о
##в
##а
##н
##ы
##8
##д
##ч
##κ
##し
##て
##い
##る
##の
##す
##か
##ſ
##ß
##ン
##フ
##ィ
##ニ
##ッ
##ト
##е
##г
##і
##б
##х
##ห
##เ
##ส
##ย
##ว
##ล
##า
##м
##×
##😄
##🔥
##ア
##イ
##テ
##ム
##🙈
##¾
##п
##ш
##™
##л
##с
##ю
##ᅮ
##ᆨ
##ᄉ
##ᅩ
##ᄅ
##ф
##з
##ل
##م
##ض
##ط
##ر
##د
##は
##こ
##カ
##セ
##ル
##を
##ש
##ר
##א
##י
##ﬁ
##ن
##ي
##ه
##ə
##ο
##β
##ε
##ρ
##ω
##τ
##α
##ν
##ð
##я
##נ
##ע
##ا
##ح
##ك
##ة
##λ
##μ
##ι
##ς
##❤
##と
##あ
##り
##ま
##レ
##ж
##γ
##σ
##ı
##ص
##و
##ت
##ـ
##ƒ
##¦
##ि
##ल
##क
##ो
##®
##ა
##ь
##っ
##た
##ら
##ج
##ع
##ᅦ
##ᆯ
##ᅳ
##ᄏ
##ᄋ
##ᅥ
##😂
##°
##ъ
##π
##η
##φ
##θ
##ب
##ی
##♀
##せ
##き
##य
##щ
##ᆫ
##🙂
##🇩
##🇰
##ク
##ウ
##ー
##マ
##ת
##ק
##ス
##タ
##ﬂ
##þ
##ᄀ
##ᅡ
##ᅵ
##ב
##כ
##😉
##🏼
##✨
##👏
##¥
##う
##に
##ม
##ร
##ต
##ด
##ง
##บ
##น
##€
##ে
##ি
##া
##☺
##ค
##อ
##ц
##º
##ज
##ा
##म
##👌
##ケ
##👍
##ł
##ز
##ف
##ق
##ヒ
##˜
##🌸
##ത
##ന
##യ
##വ
##ก
##¬
##や
##ᄆ
##س
##ک
##√
##²
##🏻
##さ
##れ
##シ
##⭐
##🙏
##😍
##コ
##メ
##ᄂ
##ല
##ാ
##ര
##ी
##त
##व
##र
##🤩
##😋
##ء
##ᄌ
##स
##け
##э
##ش
##ュ
##キ
##ツ
##ミ
##є
##υ
##−
##χ
##な
##ひ
##¨
##خ
##☆
##リ
##œ
##♥
##😅
##ช
##ャ
##ラ
##µ
##½
##え
##オ
##●
##ζ
##😛
##🍀
##✌
##±
##へ
##も
##ξ
##پ
##گ
##ロ
##ל
##ヘ
##サ
##ন
##ו
##ち
##ј
##δ
##ハ
##¤
##র
##😊
##न
##💚
##ホ
##מ
##ᅪ
##ᅢ
##แ
##♂
##£
##ᆼ
##ᆷ
##ث
##ᅧ
##ᄎ
##わ
##め
##ᄇ
##ᄃ
##ª
##⠀
##ე
##ი
##😜
##🏽
##ᄑ
##ろ
##ん
##ᄒ
##©
##ำ
##ى
##よ
##ט
##˚
##െ
##ക
##ി
##ג
##غ
##ョ
##க
##த
##ு
##ソ
##チ
##く
##ᆸ
##¹
##ไ
##พ
##ה
##😳
##ذ
##🎄
##ђ
##ѕ
##đ
##😁
##ह
##つ
##💕
##😘
##ᅴ
##ᅭ
##☀
##ґ
##ʺ
##🙌
##✔
##🍁
##❗
##🤞
##ʼ
##ʹ
##ա
##ะ
##ข
##ป
##ナ
##ᄐ
##ד
##🤔
##😆
##🙄
##³
##¼
##จ
##💪
##ן
##ワ
##お
##み
##ท
##ி
##ח
##ס
##ক
##ᅬ
##ᆻ
##¯
##פ
##そ
##😀
##🤗
##ψ
##🍂
##⁄
##ェ
##エ
##🎉
##▪
##♡
##₂
##→
##ˈ
##ˆ
##😎
##💙
##ব
##№
##★
##✅
##ם
##☕
##☝
##प
##ネ
##🙁
##😱
##￼
##🌟
##モ
##✓
##😃
##♦
##¢
##ｗ
##∗
##►
##ɔ
##│
##━
##～
##℃
##─
##∙
##○
##←
##◊
##≤
##５
##🔻
##≥
##⇒
##⬆
##■
##↑
##➤
##☎
##🔺
##er
##en
##et
##or
##an
##ed
##in
##ig
##ar
##il
##el
og
##st
##de
for
##al
##nd
er
##ing
##es
at
##om
til
en
af
##sk
##le
##ag
det
##re
pa
##on
##at
##eg
##kk
der
##ne
med
##ter
st
##ver
##id
##ør
##ra
sa
##ol
de
##is
##ler
##te
sk
den
##se
##lig
##and
##ær
ud
##kke
##der
hv
har
##ning
som
vi
##it
##ge
##iv
om
##un
##od
et
du
##og
kan
jeg
ikke
##ende
##ik
##kt
##ej
op
##ru
##ere
##ion
##av
al
##ste
##mm
##ad
pr
##ede
##ur
ar
man
##hed
ind
men
##isk
##æl
##els
var
el
##ens
bl
##igt
##ent
##else
##ul
in
##as
##ræ
##ab
##erne
##for
##ige
##am
an
sp
fra
eller
##ger
hvor
vil
be
##omm
##ks
##fter
##us
over
##sa
ved
væ
skal
##ud
##nder
##ang
##age
##ist
fa
se
##lev
##ov
##ind
##op
##iver
sig
##øb
##old
##je
##elt
##gen
hav
han
##est
##bej
##ort
##ation
and
##lige
##end
efter
##sp
ma
##ot
##ft
nog
kun
##ske
ogsa
##ut
##ok
##æn
komm
##ive
være
sam
##im
##yg
##ill
her
kon
ny
kl
##und
##øj
sel
##em
dan
##ød
bru
god
blev
##ser
##ri
##æg
##æt
##ene
selv
hvis
##yr
##ine
##ale
##ir
##pp
##lem
##eget
##ade
20
##elig
under
##dan
##ligt
gen
vær
##øl
##iske
##kker
##art
kr
meget
tid
før
##esk
##os
##ic
##ring
nar
end
sm
##vær
##ob
##sen
##ling
alle
alt
fin
hel
##hold
##ret
##um
##ff
tr
##rem
arbej
samm
##ers
pl
sid
min
##yn
dig
mod
##sm
##øg
fr
##ke
##idt
mere
##var
##sl
##ark
##eret
læ
##ord
far
##vis
kv
sl
##ant
stor
da
mu
mange
##yl
##ie
##eder
nu
dag
br
##ager
##skab
vor
##itet
re
##øre
##yd
bet
##ide
fl
##elser
##ninger
##elsen
##tet
##lighed
din
##be
##ænd
bar
køb
vores
##ner
##øn
vir
##jer
##nem
##det
denne
bliver
havde
##alg
hun
##del
mig
frem
##per
kunne
##kl
##net
##æng
hvad
reg
##yt
tilb
samt
udv
##ass
bed
bør
##ys
##agt
pro
##ier
godt
dem
dette
##lere
gr
##ille
noget
##jæl
have
brug
andre
##pe
forsk
##alt
sex
lig
##enter
##ss
or
forb
kom
##des
##ast
##ch
##ak
##arbej
beg
deres
##ci
ret
##00
##ek
træ
##den
##ktion
201
hand
helt
##ering
##gang
del
gru
uden
to
form
##ce
##hand
un
##ningen
##tr
hver
##ten
ad
##eri
le
sø
##dag
##let
sammen
lidt
høj
lige
##pr
os
##erson
##læg
##mmer
##ber
##odu
##ost
hje
##ker
gl
mel
fort
nogle
##land
gennem
##før
ga
##ess
##sæt
##ighed
##ode
forskel
##ve
næ
##ket
ch
vej
##ga
th
bes
par
##mme
bade
##dt
##ikker
##aler
##org
hele
##ksom
gar
##di
person
været
ser
nye
##sker
fors
jo
##ap
flere
##dr
føl
##get
##atur
##sat
##aget
##yk
inter
##hol
##avn
##yder
##pl
blive
ek
##nes
19
ned
##ange
hvil
lav
derfor
##isse
su
ab
vid
mellem
lang
##ster
##inder
sin
kont
##elle
igen
inden
##sb
stør
dr
bil
hen
##ien
gør
##mp
best
##eb
mind
##edet
##elige
kommer
skul
hjæl
##mer
land
##ult
gang
##ksomhed
rigt
##inger
produ
##ac
##øde
##eligt
##vend
##ktiv
sy
##bl
første
grund
##ets
bare
##ug
store
mass
eks
hvordan
vis
dk
øn
danm
dat
mulighed
ty
besk
børn
##me
##edes
##vej
forskellige
arbejd
##elses
udvik
hol
hos
##gør
##vet
des
liv
##tal
skulle
di
##kken
##andt
##ans
net
ven
##æld
##ald
##øs
##fte
bill
massage
##over
##af
dog
##sten
##inde
str
##les
##ære
ev
andet
##ingen
gøre
##br
##hus
##føl
##under
10
gra
##form
##orn
mat
##kter
##stem
##nesk
natur
dit
dansk
vel
mand
giver
##ørg
anden
syn
siden
tra
virksomhed
sen
vand
samme
ville
præ
byg
by
##tes
##nings
mal
##ven
mennesk
kommun
so
##giv
altid
ver
hende
tilf
##gende
finde
fol
sikker
forhold
disse
lu
omk
pol
##ken
res
##iger
##cer
sn
##ads
bag
fik
danske
løb
væl
##ard
##ræn
la
##dann
##ub
blevet
ans
##still
tilbage
opl
##alitet
##ust
##urt
lille
##endt
##iller
skr
star
danmark
##kon
mor
pen
ly
##havn
##amp
hans
##fl
##gi
##sta
nok
side
##unkt
sag
##kket
vigt
fil
skab
enk
on
pris
##uld
dine
arbejde
ha
##oder
gerne
fordi
ham
lov
##nu
##gt
##ele
omra
##olog
##ater
kvinder
sadan
##len
rad
##ffe
nem
sit
##red
sær
maske
beh
##hver
sv
sæt
##ligere
virk
##akt
hov
##tere
gode
ingen
##ogra
200
##ister
##handling
bedste
##ow
##of
kra
sidste
gener
nær
ra
##til
te
##oblem
ord
mest
inde
##tag
##ole
##fat
is
im
komme
hold
tage
plan
hurt
##ationer
valg
made
##anden
##ynd
##istor
vide
tv
fast
lever
##asse
oplev
omkring
spe
18
##rer
##sc
tek
##are
##iden
led
siger
##smal
##au
##mær
kn
##borg
##ppe
ting
sal
##amil
ænd
##ører
nød
polit
##atis
porn
per
mark
tæn
##æv
##lever
rigtig
fakt
spørg
##led
##jen
lok
##bet
##enhavn
hal
##ække
fun
læng
##sel
##ærd
bo
bruge
københavn
eg
tim
ønsker
problem
##ings
nogen
mad
off
##ma
proje
##if
prø
speci
##styr
##bru
##rift
aller
bruger
kort
stad
give
rej
jer
mænd
##som
famil
12
15
tre
##komm
ber
##far
gratis
delt
hus
met
ofte
hjemm
##ave
##gru
##olig
##bo
##res
##ider
hoved
##ges
smu
##io
mindre
##entlig
hvilket
##ip
udvikling
##ia
sol
blandt
tur
spørgsmal
##stru
lan
kar
stk
lær
mar
##arbejder
bedre
fæl
uddann
##iet
##oc
nord
##ringer
##orm
mil
histor
sik
##opp
##løb
fle
gj
##iner
##spr
lej
let
fortæl
nyt
ligger
##arbejde
hjælp
ben
bog
muligt
kal
kræ
sted
##søg
ekst
##anske
##idig
mens
mit
svar
ja
red
##ioner
endnu
##ib
##sted
##gar
sund
##med
##vid
hjem
##spunkt
##sn
##undet
##ld
sæ
ca
am
hu
stat
finder
##indelse
folk
virkelig
kvalitet
række
esc
##reg
com
stadig
fant
##all
faet
soci
##mel
##irk
##ank
mennesker
##line
##holder
##æk
aktiv
ars
hot
##æss
##oks
styr
##ift
escort
tager
ene
ej
verden
egen
##up
##øt
rest
ekse
komp
gange
##stand
først
forv
unge
bek
kor
##vende
mær
und
##yld
##byg
rund
akt
##sf
##pper
bor
mus
fælles
film
vin
tha
##ygt
##vic
##alet
start
klar
##la
##pt
ide
sh
##rakt
##øje
mine
##oner
##vel
11
##hæng
##øger
dej
dire
gam
##eller
lave
##uden
større
proc
##heden
##kte
set
online
stort
##urder
##str
læs
forbindelse
inv
dy
opt
##øm
dage
##ond
pat
tal
##set
##ise
projekt
langt
udvalg
##konom
##ct
eksemp
ka
##sh
fag
længere
oplys
##yst
findes
behandling
##ativ
tidligere
30
ne
##ition
ro
sma
samtidig
##syn
##agen
synes
væk
mang
org
mot
ren
##lad
gik
##alis
søger
art
##ytte
##nen
na
prof
##okus
ener
##by
kontakt
alm
##sfor
øv
allerede
aldr
##øv
pas
##utter
##tede
##trol
aldrig
14
spr
altsa
##omme
##ren
hjemmes
dyr
spil
fal
stand
sommer
fre
bel
erhver
fokus
kø
##van
##bef
##sigt
faktisk
læg
result
gu
##idler
sine
sta
web
##lag
medarbejder
løs
hendes
he
sc
##eren
##jø
tab
piger
plads
voks
em
rundt
##atte
priv
##asser
##ationen
##istr
##ælder
svær
inst
##blik
16
sige
17
saledes
modt
konk
##ian
ekstra
##ue
##telse
##ejl
spænd
##ænge
##une
videre
##anis
gamle
fantast
hurtigt
næste
lin
tekn
int
##egn
behov
penge
kur
##eter
eng
afsl
##gelig
leg
##olle
##tid
##na
viser
##ykke
tæt
nr
tog
effe
holde
##revet
fuld
eur
##ender
økonom
##min
##uder
##elte
fri
tilbud
privat
##ultur
##erer
betyder
grøn
##lede
tag
anbef
erhverv
part
##aling
købe
##omra
billeder
nødvend
kvinde
##olen
##ator
##ont
vælge
vurder
##ført
##uelle
stedet
yder
##iveau
hvert
foret
sundhed
vigtigt
##teret
##dom
13
##riv
kør
arbejder
##erede
besl
##elef
bev
jord
fræ
ge
nemlig
desig
po
##rev
aft
glæ
undersøg
video
##gte
kat
##skaber
tiden
næsten
fød
servic
erfar
thai
eksempel
##ire
tilfæl
##slag
viden
super
sand
besøg
hjælpe
flot
kommune
##endte
stær
blot
##sv
haft
##snit
100
##ym
ta
##ester
tale
##træ
ter
bolig
##kom
25
funktion
ste
giv
##ader
norm
##sam
##ro
hvorfor
##aret
ol
aut
jul
antal
begynd
##aden
##ensen
##uds
sj
bi
co
æld
hj
især
##mmet
mindst
porno
##øder
interes
##grund
fordel
fleste
slag
##igheder
##værk
kunst
##ure
tem
the
##ikke
kæ
ris
syg
undervis
##terne
##ansk
læse
beslut
enkelte
bud
igennem
##øse
skøn
morgen
event
##efter
##ha
##ite
oplysninger
maned
##sdag
inform
fjer
##men
lavet
ban
ansvar
opg
##eneste
syd
##edt
##sent
##one
stra
skabe
udfor
aktivitet
##orde
tror
##rag
taget
##rik
ung
cent
opf
samarbejde
kamp
##unde
hin
##ikken
vind
ann
via
hotel
##yde
kultur
id
##lerne
##rede
enkelt
kap
##skabet
produkter
materi
ude
herunder
##brug
##son
##præ
fod
halv
lys
anal
krav
selvom
##stænd
##dat
jan
##iste
##akter
job
##ori
peri
app
sikkert
ps
##satte
støt
##fra
skole
##rist
hab
##ledning
sim
##fe
##ylland
kig
##iddel
##ligvis
kost
ju
ful
netop
##lemmer
luft
##udv
bruges
##kning
almind
selvføl
bestyr
##kv
##vn
betyd
sat
lo
##heder
##skud
##stat
##ars
000
##itut
europ
mon
##int
aften
##gaver
hyg
##elefon
begge
senere
still
omfat
sikre
midt
ander
##øren
hæ
liges
største
fer
ul
virksomheder
##sg
##oppen
anvend
##entet
##par
gælder
trad
tro
mød
##ionen
kir
##tra
##unden
tilfælde
##ande
færd
anvende
##ember
fot
øvr
ejend
##ældende
##ppen
##tek
50
selvfølgelig
##alen
hjer
##meld
møde
grad
hvilke
##leje
##po
elever
svært
ring
øje
fantastisk
hør
##stemm
indhold
##plan
sker
##yldt
##bud
direkte
nov
adgang
bas
##ask
musik
ru
tør
##our
opmær
mob
forsta
##ay
pos
##mmel
ellers
##stre
eu
##ograf
##ffer
##vand
værd
##use
afgør
foren
##nede
nat
##ession
desuden
moder
##tryk
medlem
opret
##vir
##cc
##oden
resultat
prakt
indtil
timer
sagde
sjæl
##uler
progra
ni
##spl
ang
dermed
##iss
##øge
følge
ele
##elserne
sæl
fø
pige
ældre
stud
spændende
dar
hinanden
##cept
fx
løbet
system
sikkerhed
fys
klub
jun
størr
lækker
##amer
vigtig
lyst
tru
organis
mail
høje
fald
samf
plac
##rig
##ance
brugt
##ved
længe
foræld
vist
familie
hjemme
hens
fred
produkt
##ative
##ove
##okum
rel
varm
##dens
tan
tak
artik
uge
gjort
personer
højt
##ben
barn
regn
psyk
kraft
fortæller
udgang
##ikring
ski
heller
arbejdet
salg
følgende
kær
pati
steder
varme
insp
passer
indsat
slut
but
holder
børne
hjemmeside
sagt
omradet
slet
fem
##holde
dæ
sætte
##bar
##rum
navn
##færd
mener
##cen
maj
fire
##aet
miljø
annon
##rej
tilbyder
tran
##øver
##terer
elsker
intern
##ck
dating
rejse
matte
risik
laver
masse
##læ
mobil
##iser
telefon
##star
##jerg
dagen
##stilling
##arks
##ef
forl
problemer
##ytter
omrade
lad
muligheder
##itter
##rad
vest
christ
##cent
indeholder
gav
bef
##øst
kontrol
værdi
##ørende
##fald
køre
##arer
bestem
nærm
##føre
baggrund
##ykker
##ivers
eneste
##værende
skær
##fik
dokum
##kkes
##kkede
##ina
##ital
krop
##fr
ligesom
top
pop
handler
##pu
hvem
leder
##stil
##pa
dele
##ægt
24
##anset
offent
pass
##smæss
fejl
##illet
service
spiller
##køb
syge
disk
godk
##atisk
mart
bedst
energi
##reb
##agra
bu
test
cyk
forud
fly
kære
rød
21
dec
ko
seks
uanset
borg
ob
død
lokal
##ht
inspir
kil
smukke
##skil
cm
fest
lokale
minutter
lyd
skrive
dom
danmarks
derefter
søg
rigtige
tøj
ant
hurtig
nemt
00
##lagt
køkken
samlet
ref
oven
post
bal
byen
pik
design
lejlighed
teg
aar
##ack
##tering
##orer
billig
øj
##følge
verdens
##ann
gjorde
##ligevel
ganske
hvilken
##ods
forbru
##yster
alligevel
arr
ba
##deling
##kar
niveau
lag
nettet
park
forsøg
stil
skov
forvent
ex
bid
sort
sprog
held
maneder
##arbejdet
forældre
alder
##ell
ses
##gene
##oler
løn
læge
bord
forkl
masser
##ologi
##eten
medlemmer
##ban
klass
indt
fisk
situ
alene
konkur
40
opr
enten
bemær
sil
##ateg
ho
um
social
##pport
søge
##ktur
##anter
uger
##reds
græ
##hen
##sætning
##uel
##ron
kræver
tidspunkt
udford
prøve
##tem
##sætte
data
livet
nøg
##sy
gæ
##ævn
ak
penis
ejer
we
##ations
##isten
kender
rom
nav
##ktioner
##lej
22
lade
politik
freder
##sels
indlæg
##kommen
##aven
anlæg
aben
indenfor
kommet
frit
uddannelse
pu
##yttet
me
særligt
historie
forh
##ension
##ræt
dren
simp
##sætter
prin
##ph
##ivl
invest
##oen
behand
##æd
præc
##udover
##sport
##icin
imp
gul
fru
sidst
stille
##ose
##bold
199
hverdag
univers
##gifter
udg
mag
jeres
ferie
dis
vejen
tor
##atter
overvej
##abler
drø
##uddann
blog
eget
græn
vælger
tit
##ningerne
internation
##stræ
##pligt
##ies
##givet
##mmen
forbed
fj
enhver
smag
ønsk
##ium
samfund
støtte
ford
omrader
of
##ful
##eringen
udgangspunkt
##aur
ske
##uelt
udsk
hed
vedr
fyr
##værre
##ikk
typ
ur
dyb
vold
lande
##ogn
deltag
restaur
##vor
##ific
##ynder
lø
##æft
car
fundet
lære
gud
desværre
mill
ryg
begræn
bær
##ps
##endes
posit
##inst
##ænger
##ons
##mod
sej
log
seneste
medarbejdere
tilg
blod
##arbejd
sætter
ens
sidder
##orte
bad
rent
sør
anvendes
kæm
bryster
2018
popul
nation
kunder
fug
fandt
##samling
##mand
##føres
##nar
imod
vægt
bestemt
produktion
juni
go
effekt
##ært
foreg
##holdt
mør
højere
information
##yse
##eres
opgaver
##jylland
glad
rum
##mark
okt
ønske
ifølge
borger
spille
##rat
skriver
farver
skyl
egne
drift
prim
sjov
tvivl
gaet
##retning
##iddag
sep
aarhus
hvid
regler
##he
tysk
oplevelse
bræ
evt
procent
velkommen
##foren
udstyr
foran
rele
##gaard
##fører
##iat
mask
mærke
sport
karakter
afslut
væg
sæson
slags
yderligere
studer
apr
region
billede
2017
sæd
arbejdsm
kolle
barnet
ark
marked
##øjer
##lys
##uar
##gere
sw
tænke
hjælper
##uss
bur
høre
proces
formal
aug
##frem
jf
bred
##varer
##رر
hund
profession
træning
køn
fir
amer
##ink
haber
internet
motor
bygge
krist
normalt
landet
repræ
##berg
pal
2015
##igvis
kommunik
port
##ales
frække
23
særlig
it
nej
##elsk
##ivil
##ment
ac
uds
elekt
##ober
##følgende
rig
tvær
mangler
sociale
lærer
møder
komb
skrevet
bestille
forn
##kal
##drag
##endelse
ansøg
selskab
##ore
virker
institut
##ommen
medicin
##iz
dejlig
##kort
##ids
aret
inkl
##olut
##værd
effektiv
opna
##bart
venner
##igur
##ppet
kompeten
##rup
##fekt
##ild
centr
vinter
naturligvis
##hov
fat
kærlighed
arbejds
erfaring
givet
sider
aktiviteter
hensyn
model
us
##mæss
sku
##ledes
recept
alvor
forslag
stod
##aller
yd
deb
##oven
interesser
fær
##da
##holm
energ
bestar
endelig
gammel
fint
pæ
funger
erot
intet
##gift
cl
##center
##uer
##olk
2016
januar
##givning
no
kold
blom
##løs
##enti
egentlig
bevæg
derudover
rigtigt
brand
##assen
2014
valgt
##tende
sch
##esp
##produ
bereg
##aner
føler
compu
kryd
ær
##gørelse
snart
##olit
##elighed
##raks
tyd
spise
admin
##skrift
mis
##aske
amerik
##kn
forløb
##hjæl
kører
##kkende
aftale
mæng
etabler
km
pap
##gede
sla
feb
##nende
tred
betydning
sket
konkret
kurs
oden
##ylde
bogen
henhold
betale
##stid
odense
##anlæg
klart
frederik
##anger
stig
begynder
børnene
glæde
##bog
aal
##ceret
##hør
priser
betaling
mm
##dagog
ægte
gruppe
##nal
##elsens
rol
trods
##ktor
##raksis
##yre
optim
tradition
##ix
viagra
særlige
beskæft
følger
dv
##uen
tj
60
arhus
kol
kommunen
##huset
efterfølgende
il
##spil
lange
##lejer
usa
vise
tun
##pen
tæ
##her
val
##vede
fremm
##enser
bemærk
till
engang
offentlige
##ts
##ligheder
bus
##tig
dri
##kald
26
##ellem
2013
##nere
ag
afg
perfekt
##anch
smer
forfat
##ylder
##offer
kendt
aalborg
størrelse
pot
##eskab
beskriv
samlede
lide
finans
##teres
joh
bol
find
abs
hum
generelt
moderne
periode
løsning
##sættes
rette
autom
eksper
elev
indiv
planlæg
nævn
time
##gelse
resten
cit
føde
here
gennemsnit
kroppen
kæmpe
æg
ok
begyndte
##za
kend
udb
mic
uddannelses
pres
stop
offentlig
sammenlig
stri
##fil
udtryk
kunde
##kr
præsen
tænker
taler
seri
øvrige
modtager
ir
succ
skol
28
##ktør
hej
undervisning
##ærer
##sbe
##to
bla
##abil
konkurren
tilgæng
are
##lin
jule
private
##lende
kroner
beløb
løbende
fremtid
projektet
##ate
##alog
vækst
indga
profil
bekendt
opmærksom
##kre
27
##ampe
##visning
budget
peter
sna
week
varer
nuværende
bestyrelsen
##yser
ejendom
køber
##linger
##ras
##lo
hud
##fri
neg
##tagelse
##vist
søn
opgave
uh
huset
sek
##spe
nødvendigt
idet
##ng
nor
klasse
##unkter
farve
##akte
##ages
##rav
tilfreds
forest
personlige
artikel
fjern
##ystem
##adet
sagen
marts
selve
smil
specielt
rab
##agn
registr
##udvik
##ringe
##sd
ophold
##fang
detal
december
fortælle
bebo
voksne
##oer
fortsat
##estyr
udvikle
ph
ende
##uren
jes
##klub
indb
oktober
##imod
##vit
øst
neden
adres
bland
april
team
redu
glas
virksomheden
herefter
pluds
sygdom
general
behøver
##vent
husk
as
##part
bab
septem
##raft
gældende
fodbold
hy
kommende
##derne
stykke
frisk
##tern
september
muse
kred
kj
##ffet
##værks
skolen
##ierne
##essour
succes
klo
fedt
individ
##omradet
hard
skj
indsats
sønd
##ko
pct
utr
##ustri
##fin
gravid
ry
typisk
rør
billed
tillad
figur
forsikring
stem
##radet
transport
##somt
##varende
værkt
##værelse
##aende
##cep
##staende
##hje
tils
abne
korre
simpelt
type
dejligt
opd
skrift
nyde
bøger
spør
universitet
minim
##lementer
dens
undga
##høj
##aft
krig
forst
tryk
sten
tilp
skaber
hvornar
stru
fas
flotte
ligel
##æst
ci
mo
lagt
august
29
##ativt
holdt
praksis
retning
venstre
##skri
oplever
midler
##obb
fungerer
##vare
##udvalg
administr
eksister
forhand
2012
studerende
overfl
præcis
##eld
tekst
udn
instru
kre
hul
højre
hom
tant
imellem
##asin
klin
udel
strateg
fuldt
ændringer
bestemm
leve
udl
##bro
bort
ligeledes
afhæng
##afil
##skl
##kræ
november
##man
tje
krit
##bu
pag
##rettet
meter
server
familien
pædagog
afsnit
vent
##plad
kæreste
færdig
mio
##mad
computer
##eringer
##ly
##sens
frivil
##oje
35
opleve
regel
kirke
fisse
kop
##smin
skyldes
prisen
sammenhæng
dam
bygger
tri
##arm
smart
##øjet
cirk
bidr
##fort
fine
##støt
erne
##ou
tjen
osv
erhvervs
##igheden
##ins
overra
skat
opdat
31
kombin
arige
##istiske
vejledning
##ologiske
apo
##ørs
##ja
kateg
punkt
tand
ændre
ansigt
komment
kendte
helst
vedlige
##ommer
kvind
klim
lyder
lækre
nærmere
projekter
##stændig
##tiden
ww
##oret
overv
stærk
##deles
##isteri
bank
##ologisk
ram
##menter
læser
##peratur
starter
##iljø
patienter
udsigt
materiale
##inen
interess
dokument
dra
paa
##egr
lignende
oper
lør
##ydelse
almindelige
europa
patient
45
##komst
tot
weekend
##ømme
ital
##ock
belig
arrange
anmeld
##ynde
mærk
tantra
##elen
##sning
##fo
li
kg
ressour
hører
tilsyn
##sættelse
sende
koncer
forbi
konst
smuk
kons
##skr
##sekv
mening
kli
pleje
interesse
mynd
ident
www
vurdering
van
cykel
anvendelse
beskæftig
omkost
##orden
kul
standard
nummer
øl
chat
foto
##istisk
safrem
##ofil
##isen
øvrigt
udgifter
##eløb
højde
##hav
oprind
partner
kød
fac
sød
supp
spillet
##book
afdeling
##hjælp
##iven
ras
safremt
##jort
##ivet
##ktionen
europæ
søndag
firma
##mus
typer
malt
ændring
##port
##ndt
antallet
##fuld
pig
eksempelvis
##stillinger
skatte
rammer
lørdag
mader
tegn
styrke
positiv
##tel
##sid
vandet
skift
dels
face
##ømm
beting
regnskab
##illing
meg
##abel
##plads
##own
bilag
rev
kapit
##skole
udf
pludselig
##vejen
deltage
hvide
gift
udelu
konsekv
glæder
##ikt
2011
##ips
erstat
kaffe
magt
vers
pagældende
altern
##anten
vari
brød
tredje
##forløb
retur
ti
vigtigste
##æring
plad
##iteter
hor
hardt
##forsamling
fræk
skade
guld
gent
kontakte
##erk
senest
##gr
endda
netværk
nødt
##alder
revis
jorden
pavir
stærkt
##ragt
##ante
pe
sidde
##terede
udover
##ici
##stillet
næv
all
##mb
dobb
opfat
eleverne
##ørn
omfang
resultater
##svis
##okol
lægger
mist
borgere
spur
lod
trafik
sove
##ygge
198
stol
##nas
##alte
##gaende
ent
##splad
ufor
##kast
digit
undersøgelse
##ach
2010
burde
80
juli
##taget
vælg
##slut
##bred
overrask
lykk
viste
hedder
amb
anderledes
fej
##met
##aben
##bes
##yttelse
##udvikling
bon
##ice
##uligheder
cialis
vild
aftal
pension
menneske
fyn
##vidst
oplevelser
sandsyn
##fa
generalforsamling
sko
datter
kval
udviklet
##illede
##sst
savel
##ikket
sønder
new
fe
lyn
##etter
##handen
lægge
generisk
camp
udgør
symp
febru
udviklingen
special
band
fredag
70
februar
san
##iew
skriv
sven
baseret
geng
hunde
træt
absolut
sar
##videre
klik
sælger
konf
købt
##øgen
fyldt
øjne
forening
##jerne
heldigvis
efterhanden
##splan
##æde
dygt
char
situation
##strup
##ka
gym
bekym
##elset
valgte
sikrer
møn
forskning
brugte
forbrug
fremgar
afh
ungdom
langs
##tom
hygg
middel
yng
respe
huske
##itu
drikke
dre
##kommende
olie
rejser
##try
forfatter
##ateri
skil
##ty
##forhold
maler
vedrørende
princi
folke
dejlige
##holdelse
starte
##ry
##ish
økonomiske
flyt
jylland
afgørende
##ves
##ung
bilen
##ifik
christian
stress
sang
mv
uaf
rand
klare
genop
overfor
ass
nyhed
opfyldt
dvs
lar
##ta
blød
foræl
##betaling
isl
økonomi
##virk
ked
sjæld
omfatter
##fæl
liste
italien
debat
ht
nab
engelsk
##vig
##indre
##nov
##viser
##20
skabt
interv
##giver
kommuner
søde
cop
møl
##beg
endvidere
markedet
tyskland
former
##ions
mik
##ugt
intr
con
risiko
##bil
##valg
##iker
gæster
##ba
##løse
populære
##blio
skyld
deltager
##ich
lider
foregar
##co
lege
jour
skrev
træk
##aer
afsk
hjør
rim
hverken
##enes
197
##omrade
umiddel
folket
##ick
grundlæg
##mmerne
lager
grundlag
stof
##atet
tom
500
væsent
kommunikation
øk
sender
real
bage
fysisk
opbe
bryst
uk
udfordringer
rekl
præst
værk
program
dobbelt
##amen
kong
øjebl
indkøb
formand
strand
damer
##person
##fek
sjovt
sing
musk
##okost
født
rengør
dør
spis
smule
sad
dyre
##holdes
kast
##mmelig
rolle
##smæssige
eksisterende
vinder
##alu
##lader
just
stræ
gard
ansatte
ot
facebook
##ordin
nør
venlig
potenti
pæn
##centr
røde
frugt
prøver
almindelig
jensen
dialog
##isme
##ovens
beret
vare
internationale
køl
inspiration
arets
##mask
##cere
fødsels
dæk
tus
hotellet
##vejs
starten
darlig
struktur
brænd
bund
##okrat
nøgen
opbyg
startede
repræsent
##endørs
forand
##domme
billedet
besked
strøm
##bæk
simpelthen
unders
hansen
adresse
##oplys
automatisk
levering
cy
udenfor
##50
##ægter
wor
hjerte
forret
svarer
ed
dækker
ros
tages
vidt
forsvar
hovedet
videnskab
av
gengæld
nogens
##fer
integr
modtaget
apotek
##oces
##mal
falder
rett
forker
##besk
##vante
sammens
forældr
bygget
dokumenter
##ydende
papir
øget
rapport
##hovedet
2009
ori
guide
##stemmelse
##atør
##orter
##fag
mer
kirk
tanker
mund
økonomisk
##bare
##ødes
politiske
ideer
##brud
ringe
vejr
##mmere
københavns
##vin
pul
fører
sendt
##fulde
pri
tilstræ
##kser
blomster
##landet
læst
fantas
nøgne
maden
##ness
##sø
fork
thom
modtage
foreb
##app
##styrelsen
forpligt
gre
nielsen
stilling
leverand
løsninger
modeller
varmt
##amin
historien
trække
beskr
nærmest
point
enhed
##iens
aktiver
tillæg
grønne
##edygt
##ash
mulige
##dage
##istik
ønskede
koster
indgar
##ette
fantastiske
##fekte
værelse
##ustr
personale
meddel
godkendt
nogensinde
betragt
36
visse
vansk
journal
industri
udbud
døde
medier
##ancer
forklar
##omrader
esb
understøt
##hj
##iel
millioner
vilkar
skar
kund
##leder
plast
##qu
opmærksomhed
##fun
neder
jens
frank
tilskud
spor
ug
temperatur
##stemer
flytte
##rige
overens
ing
##øve
erfaringer
vit
straks
turen
forsv
##delingen
fleks
symptom
vidste
opdag
samarbejd
fortsætter
videoer
spar
nødvendige
tl
træn
##pos
##væg
gøres
je
##ætter
kron
dato
##vest
lettere
##mester
arig
arbejdsg
mandag
##lingen
##ape
forsøger
##bjerg
omgiv
affald
sjælland
knap
bygning
amerikanske
##institut
næst
relevante
##orier
live
politiet
beslutning
##førte
##anti
jagt
##skrifter
materialer
bod
tilbyde
##egnet
leje
##sætt
sorte
prøvet
##assage
##cel
sundheds
primært
branch
init
##ah
##behandling
##rende
##rund
omgang
korrekt
udvid
##vender
maks
kigge
##hal
daglig
væs
##histor
radighed
tids
arkite
imidler
indbyg
##las
##eks
fores
2008
hosp
##mor
skønne
hjemmesiden
ugen
##skilde
##fors
imidlertid
center
perfekte
do
goog
voksen
detaljer
parkering
##bær
indfl
##inge
reser
opskrift
swinger
ødel
##ert
prote
ændret
kem
orienter
90
bevæ
afsp
mom
handle
regering
sager
kursus
øver
accep
sukker
anerk
ledelse
book
butik
##gade
forek
scen
##iteten
stærke
lars
konkrete
##ftet
##ity
##usion
##ragende
##job
glade
støv
mæl
forber
lader
##splads
##uddannelse
overord
32
funktioner
glob
fremtiden
muligheden
vigtige
##imer
##vice
ligge
fysiske
batter
##liv
196
##ight
europæiske
nøj
sli
vildt
##førelse
##urs
behag
ramme
teen
livs
tar
brugere
tværs
saa
##bord
opfor
grundlæggende
elektron
tydeligt
hast
invi
out
biblio
tilslut
hi
##forening
evalu
prøv
lækkert
uafhæng
##olf
##gard
pil
manglende
stemme
##slaget
skræ
udst
landbrug
lands
##skov
##denafil
tryg
malet
træner
alko
##yttes
igang
innov
##vok
daglige
##ses
fællesskab
fremragende
bevidst
##agne
konstru
wh
##stedet
##rene
kommunal
overblik
henvend
publik
løber
udt
fav
tilst
manden
afv
cam
##oft
up
henrik
##imin
møb
bekræ
sind
pengene
match
tilstand
besøge
tyske
tir
arbejdsmark
naturen
fotograf
##nene
indre
##andid
##saf
##ane
sov
salt
##saft
national
tilkn
baby
##riter
##erende
resultatet
kræft
rul
##estyrelsen
##ordning
derimod
##رررر
værelser
væsentlig
interview
personlig
esbjerg
##slen
løbe
pan
faglige
mødes
sasom
##park
relev
##isteriet
down
33
##mon
##sig
anbefale
torsdag
plus
idræt
læring
##eltet
opst
venter
relig
##æder
##afe
##sby
##out
forstaelse
moden
##nat
vejle
##entligt
arg
##opper
vore
analyse
vandt
##huse
umiddelbart
vejret
beskrivelse
##agte
anbefaler
minimum
grupper
tænk
huden
##tages
vente
rasmus
max
##vise
satte
##ase
##mail
fortr
##iseret
frederiks
døg
##we
##olitik
praktisk
fo
##bed
øge
restaurant
historier
modne
opbevar
hænder
silke
navnet
overhovedet
##ines
randers
kampen
stal
##aen
kone
##ament
drenge
sver
##peri
udelukkende
støj
##chef
chokol
oph
##yll
##mænd
triv
indholdet
##rib
hjul
dengang
##varme
##somme
døren
onsdag
194
introdu
fab
##ros
ube
##landske
##ski
natten
alkohol
tilstrækk
virkeligheden
trav
##anen
modstand
udgave
##føring
nævnt
skridt
kompetencer
vilde
##ork
halvdel
føle
henblik
od
grunde
2007
gave
haven
fart
beste
##ojekt
##sler
færre
overensstemmelse
begrænset
##ssel
##aff
frokost
##reme
radgivning
sagtens
placeret
cook
retten
##illes
gulv
opstar
tabel
biler
mærker
toil
markeds
forne
##istrer
eventuelle
not
iværks
slu
syntes
defin
forstar
roskilde
orig
##ission
##oo
studie
##agere
##ævnet
kapitel
##sku
præg
stabil
perioden
sadanne
omfattet
##phone
fu
byder
hørt
##sprog
bestil
##rader
brun
oppe
skru
politisk
##kor
højeste
##ømt
arm
peder
byens
internettet
meste
fjerne
##middag
300
komfort
##stof
qu
varet
reglerne
hænd
dags
trin
nedenfor
eventuelt
##lement
skader
##sorg
entre
respekt
nemmere
oversigt
link
føre
personalet
##udvalget
sjældent
undersøgelser
skifte
trans
##ura
udført
fuldstændig
abent
##vil
##skom
betaler
angiv
dagens
levit
don
##delt
##ytt
steg
tilsvarende
kne
bæredygt
tlf
##dem
ku
websted
google
kontor
spillere
billige
##esten
kunden
flygt
col
problemet
forretning
##itt
organisation
sigt
##leks
præm
løse
sur
lukket
##gjort
personligt
utrolig
dræ
levitra
male
faste
air
fødselsdag
install
tidligt
##ænk
praktik
milj
udfordring
benytte
reklam
forventes
##oplysninger
andersen
##behør
nede
adfærd
hil
repræsen
##aktion
værktøj
##liggende
##skolen
spare
##slin
##hund
stigende
##anke
##pleje
##adem
vende
tirsdag
sne
gennemført
sommeren
naturlige
tilmeld
hovedst
##ton
##drer
origin
##gangen
##hjemme
ekskl
oftest
fund
vask
rob
udgivet
kamer
slot
bold
tank
75
tider
##pris
naturligt
værdier
klubben
forbedre
##anc
##smæssigt
##ware
interessant
grænse
eftermiddag
##ime
kørte
spiser
status
##nævn
udarbejdet
kart
ner
leget
##vind
tilh
mindste
følelser
##gu
ræ
serie
annoncen
stykker
##olkning
kolding
jac
rut
søren
anbefales
##væk
##itte
annoncer
ør
smukt
litter
fleksib
##pon
las
passe
34
kilde
##ulering
ansvarlig
afgørelse
læder
##delse
hvorefter
pc
##rab
aktuelle
##ny
foreningen
begiven
ondt
fremme
ender
##ander
##ls
version
ska
darligt
mult
##ydes
##sende
programmet
##serv
foretaget
bredt
##handler
my
tend
ansat
røg
##væ
pakke
kende
pga
konfl
##værdi
niels
abon
tænd
ep
##urer
camping
indflydelse
##klæd
faldt
avis
omkostninger
designet
##onen
begynde
gymnas
stjer
diver
kalder
arbejdsgiver
levende
##service
mort
metoder
relevant
investering
free
sverige
serien
grader
fæng
arbejdsplad
##oplev
fordele
bir
##xx
##ith
maksim
##off
fortalte
##enh
fortsætte
bjer
sor
stiller
##oppe
systemet
##olver
tænkt
jern
amatør
can
gæst
undervejs
formalet
bygninger
lavere
##sjæl
tekniske
ansøgning
##ulent
##ike
37
##als
køret
centrum
forars
vol
jævn
derved
##isteren
vindu
##former
##stillingen
veg
spørgsmalet
dest
casin
##iment
sejl
dets
forbundet
##kaldte
kond
##virksomhed
ill
thomas
seng
##spart
lykkedes
holdet
feri
isol
##dannet
##sede
##atik
priori
##ætte
stre
konkurrence
##tage
##su
##øjelse
direktør
heraf
##abet
tænder
##alinger
##steder
aflever
danskere
jap
##ogne
gives
##vokat
fler
bj
abner
##unst
elementer
hæv
afd
##band
øjnene
##nuft
forlæng
favor
trækker
emner
forkert
sav
opsta
skete
john
korte
søvn
mødet
muligvis
morgenmad
interesseret
##haver
fed
peg
kunstner
søl
konstant
diverse
forebyg
politi
rek
klima
ledige
##atiske
toppen
teknologi
eksempler
konto
kontrakt
johan
fyld
##10
placering
mulig
cont
gyld
brev
elsk
##sken
##penge
##ii
filmen
sælge
##rit
grav
##ube
afl
##alisering
metode
kredit
fang
##rapport
38
##oster
udvikler
##nævnte
sættes
kaldes
ut
soft
vises
svend
mængde
jur
kob
vinde
##udstyr
cafe
afstand
fi
chokolade
skib
##ema
downlo
spurgte
##nummer
fornuft
kommunens
syv
##værket
tingene
##nis
##ofilm
virke
##bane
au
hensigt
offici
##dere
sjove
##pladsen
erik
eventyr
##riere
viborg
adskil
renover
formid
gas
ger
##idenskab
##ødet
udlandet
anders
middag
landets
handling
webs
bange
oplevet
klassiske
fond
udbet
bom
konkl
##sident
##slev
varen
symb
dreng
##rebet
##arder
hertil
sprøj
##sr
##gøre
handen
hente
##have
beliggende
##nerne
tiltræ
##skær
##ile
glem
presse
museum
klage
forbruger
tilbehør
##undersøg
##inden
##ong
stoffer
involver
ip
lagde
huse
##ytning
overskud
##gruppe
tiltag
praktiske
digitale
gruppen
butikker
frihed
tjeneste
micha
kigger
orden
##punkt
regeringen
##sætninger
drømme
dyn
toilet
##skort
##niveau
dav
2006
vester
kandid
##forb
##kaldt
udp
slutningen
frivillige
##sex
##ias
kendskab
##api
vivan
##ival
##ikkerhed
vag
foretage
##able
che
##yb
undervisningen
normal
tænkte
##zz
kvart
##værker
bro
total
##ancen
begyndt
tallet
vivanza
handic
kapital
samtid
ejendommen
##klar
rengøring
hænger
styre
##æmp
selskabet
dagligt
lane
##hl
begyndelsen
mode
vaske
forsøge
ker
sus
sakaldte
kb
kommentar
vedkommende
stranden
##kendt
tø
util
foretages
udk
løg
mørke
selvstænd
##inget
##organis
2000
nærme
øjeblik
spørger
boliger
aftenen
##laget
##otte
inkluder
indg
beskrevet
##ows
vejled
undersøge
cykl
spørge
grænser
gal
anledning
##yp
dertil
##kende
cirka
prov
##bol
bestyrelses
##kont
endte
##læge
##sjælland
##gørelsen
nyheder
overbe
extra
les
##30
sens
##pet
galt
omstænd
bra
behandlingen
yderst
symptomer
##sproces
##kost
arsag
plat
udskift
ressourcer
kog
samtale
pornofilm
fugt
fransk
##stande
martin
ov
erkl
dybt
lavede
samarbejdet
hverdagen
listen
øjeblikket
##seende
afhængig
solen
talt
smerte
nyeste
omfattende
##plejer
htt
garanti
##stol
byer
##nement
##ikere
##rus
42
bunden
optaget
nordjylland
planter
##stalt
skoler
udføre
##ningsm
tillid
opgaven
særdeles
anne
hurtigere
fulde
repar
##ivt
udendørs
sendes
ment
dokumentation
sørger
udføres
yngre
##ail
##hæ
##vidt
39
born
silkeborg
chef
sædvan
smør
ægt
emne
udstyret
radio
michael
cla
##fær
##skriv
handels
love
sub
last
links
dist
geb
opdateret
stue
oprette
tanke
sørg
abning
andel
myndighed
arbejdsmiljø
skuesp
frygt
rabat
##opgaver
skin
##mæssige
bind
hyggeligt
utrol
diskuss
brø
##cerer
##kel
koncentr
erotisk
##struktur
##ekter
##celler
tyr
##iem
##skyld
folkesk
publikum
øjen
##ep
bryll
##film
klokken
nyder
##øret
aktive
mid
##dyr
hidt
lufthavn
##anal
udløb
##ometer
hø
underhold
suppler
##dende
ligner
stik
##sløs
##itioner
##ureau
##edrag
helbred
russ
rene
motion
hoteller
aftaler
##jening
vad
lun
##omen
anvendt
naede
bevægelse
købte
medarbejderne
##ika
##arden
rus
stift
##avet
retter
nærheden
overveje
##vendt
intens
##yske
##elske
samling
##spar
arrangementer
hygge
veje
##ificeret
##varm
##kraft
informationer
bidrage
##urg
##mæssigt
55
drejer
øster
plant
##fart
perspe
info
##ror
01
navne
eftersp
flygtning
generelle
efteraret
produktet
enheder
foraret
henholdsvis
specifik
jesus
langsomt
##lade
undersøgelsen
udvalgte
horsens
hvorvidt
rettigheder
##sger
enorm
naturlig
legetøj
##iering
uddannelsen
beskriver
kræfter
vender
##ude
travl
gri
arligt
nævnte
sign
##æb
professionelle
##mos
metal
sygdomme
professionel
kvaliteten
imøde
føles
##edag
enige
kys
længde
##illa
afhænger
omgivelser
fit
driv
umu
nærmeste
##ogram
fing
##mann
lægem
##leg
familier
medle
disku
kampe
forklarer
tilladelse
vinduer
num
tips
centrale
gem
nic
##grupper
boede
try
cookies
48
##mmes
##olie
tilmel
bre
afsted
ægteskab
##tim
opskrifter
implementer
kommunale
kurser
smerter
##tøj
kna
milit
lid
unikke
##vne
tilfæld
banen
##uk
##algru
venligst
heste
spej
golf
knæ
planer
forvejen
##ume
vedt
##eting
sørge
##bel
##cl
alternativ
##ese
forar
handel
##alerne
##ansvar
skud
nationale
##rænde
kirken
##fisk
##dre
date
sælges
leverer
hær
præsident
##regn
stats
2005
deltagere
ke
diagn
fan
landsby
hels
levere
mødt
finansi
sms
herre
##gruppen
virksomhedens
processen
forsigt
##bas
##pot
##oss
solgt
tablet
mun
##ones
ere
##shop
ekstrem
erotiske
balance
##rækker
##skon
pænt
##rut
##ømte
poul
##ernes
gebyr
artikler
bevar
##ior
##ringen
fylder
##erence
samfundet
kontant
##aa
fritid
litteratur
##forbrug
you
tilgængelige
konsekvenser
##æs
herning
teknisk
##sty
##værelset
forældrene
##smod
##ligheden
kørt
press
##asset
pkt
##irt
tæl
##sej
terras
tilret
forventer
gi
udtal
hjemmet
akut
sikkerheds
##vogn
luks
##sek
advokat
positive
##aard
betal
deltagelse
##che
##ssystem
lette
##bolig
opfattelse
duft
400
hyggelig
ødelæg
international
mur
orgas
pers
udvalget
søges
krimin
helhed
##igh
central
jacob
egenskaber
æb
##irma
##foreningen
frankrig
guds
oprindelige
##kommer
indik
minder
lou
##hop
situationer
tilføj
godkendelse
troede
forbe
aktivt
##rest
##press
arhund
relation
##hvert
følelse
registreret
##kred
pum
##holdet
tilfældet
samtlige
digital
##isterne
lægges
beliggen
##pladser
effektivt
fremmest
rac
malgru
billigt
##ram
anvender
strategi
position
falde
bidrag
##ho
udsat
##ffen
##moder
dim
dages
mester
##ower
skønt
copenh
gade
##fød
##system
retningslin
samle
bornholm
cert
indsam
tel
parter
besluttet
##stør
##siden
##sind
##ana
kommentarer
##bal
fødevarer
##yttede
##ærk
tusind
vidunder
##stille
##pap
vagt
midten
##but
attra
##lagte
vurdere
##oter
ledere
dru
initi
ri
lab
gennemføre
##spor
##iliteter
##enten
købes
ramt
44
sky
##ola
klog
evne
##ign
##æle
##forsk
intim
roligt
##ball
institution
optræ
dækket
##frit
##dele
pet
195
lyse
komplet
kontroller
kraftig
##aktiv
vider
benytter
ordet
kalender
harde
grunden
ventil
sent
motiver
forretnings
obje
udbyder
kant
body
biograf
musl
aftalen
rod
kus
casino
afholdt
##ned
befolk
halvdelen
tilgang
demokrat
lind
65
kla
fremstillet
tidlig
##hv
##ris
station
bede
##mag
slaet
stemning
norge
spir
##har
forbud
udgiv
restauranter
indtryk
##løsning
rust
nødvendigvis
otte
##its
overnat
fordelt
anmeldelser
snak
teater
ændres
##synet
basis
ydelser
køkkenet
præsent
tema
lovgivning
karriere
##okse
##oblemer
arsager
thor
kyl
leveret
bryg
gir
##lægning
akk
klikke
##smed
span
##elefoner
##att
sølv
lim
passende
klager
stoppe
##sret
anmel
##apeut
hænge
snakke
husker
dame
forhandling
udlever
##bi
udlej
##aster
larsen
##kur
fremover
kbh
eksist
elektr
##oni
##oseks
følte
##delinger
##pil
##rejse
plejer
levet
##oll
traditionelle
150
##speri
takt
brit
mangel
##rænd
møbler
ah
kontra
røv
##bill
ve
lavt
svare
##sag
specif
##aten
angar
dkk
markant
copenhagen
hospital
mødte
##gas
##fal
bløde
##førsel
kyst
indsigt
pedersen
utroligt
læger
betalt
eksklus
##strøm
datab
marie
bonus
##fære
skærm
iphone
ordre
betingelser
isra
stopp
tunge
hest
##ovre
dygtige
mængder
##sliv
afvik
##ierede
##bygning
friske
socialt
borgerne
besøger
eleg
kaldet
videreg
kategori
konge
indret
sommerhus
punkter
programmer
fornemm
dagsorden
uheld
pladsen
forventninger
kompetence
landskab
191
##mmeret
jesper
ole
beskyttelse
lokalplan
##aren
havet
##møl
almindeligt
bestemmelser
##agement
rapp
væsentligt
foredrag
benyttes
morten
registrer
afholdes
ib
tilrettel
nyhedsb
##mindre
nut
uddannelser
##lek
teknik
##kkerne
hvoraf
bøs
rart
##dire
kommunerne
handtere
runde
cas
brænde
##kør
kollega
kru
##igheds
41
matem
svenske
positivt
døgn
bekendtgørelse
kvalitets
##lov
finan
##redi
medmindre
blok
##mmende
forvalt
fungere
pin
besluttede
bryllup
43
kælder
kombination
##aut
bordet
ungdoms
risikoen
##spunkter
slar
##deren
argum
ryggen
tydelig
hjertet
parørende
kiggede
##uft
hemm
2004
overflade
virkning
##piger
tanken
redeg
udtry
naet
##alp
##smuligheder
fede
mette
forsy
jør
arene
##oren
ekspert
frist
##fuldt
faldet
ovenstaende
##ica
svaret
bagefter
køleskab
institutioner
hr
hjemmel
skolens
##hel
##ction
danne
##teket
vurderer
##ydelser
grupp
franske
bøl
##hag
tegne
svære
##mest
udbr
hypp
##sloven
munden
lægen
kommunalb
registrering
etableret
46
##verden
##owser
##ca
spid
##aterede
##maskine
uv
##række
klassisk
udlænd
mobilt
##ze
mærket
oblig
gangen
##lan
afrik
kim
historiske
##enskom
line
maling
slog
kompl
deltagerne
pyn
linje
billederne
gæld
hd
maven
mente
darlige
gennemga
kines
##skraft
##mi
ligeg
mørk
omsorg
ki
##idens
##smæssig
islam
indstilling
jørgen
arbejdsplads
##bruget
stillet
##lands
lyset
finger
##eng
forbered
bos
skam
analyser
brugen
kæmp
sammenh
indled
udseende
uddannet
##han
sofa
mælk
berør
organisationer
indeb
forny
imens
erstatning
dj
grønts
velfærd
stemmer
bri
kørsel
omt
motiv
flad
##ogen
spillede
arlige
spring
moms
samtidigt
show
laves
tjene
planlægning
udenlandske
alb
##ætning
gavn
kage
gulvet
forholdet
angreb
barnets
vokser
##fest
vedligeholdelse
##fund
loven
sejr
myndigheder
##ds
lyng
##sko
sengen
utal
##vises
##stal
forbl
49
værker
##formen
##produkter
befinder
bære
##byr
##lex
bringe
pladser
evaluering
fla
ideen
yde
##udgifter
tw
blæ
værktøjer
fornøjelse
havn
fremad
##ydning
##ærke
yog
##tager
sof
tendens
##agning
størrelser
luder
menu
relativt
enig
foreløb
oprettet
nysger
beslutninger
anmod
systemer
##iland
193
radgiver
##issionen
oplæg
##prøve
regne
pligt
##gning
##oth
behandles
##asen
stim
##onning
sygeplejer
##iets
tilgængelig
##aliseret
ældste
##stiden
##hu
##ony
nøgle
##cyk
si
lam
individuelle
ynd
inspireret
omstændigheder
##egard
lak
##jeneste
cal
inddr
graviditet
##ual
lært
190
chance
areal
hellere
##fru
div
##igen
seksuelle
bygnings
opkræ
imponer
##lings
vaben
##folk
trænger
nøjagt
##ateriale
##pan
medfører
##lemme
modtag
##lægge
fremtidige
will
afslutning
att
skønhed
rav
symbol
behandlet
47
##rom
homoseks
##redse
skel
resul
væsentlige
##firma
autor
koordin
black
##rof
valget
##plant
handicap
kasse
##tige
helsing
##svej
ændrer
foruren
sold
##forsikring
leveres
bebyg
besøgende
gumm
dynam
generalforsamlingen
tilpas
wind
blad
jub
##ffes
##kvalitet
##forsta
##itz
adskillige
send
efterar
overd
deler
##eland
kilometer
fylde
grill
christensen
pavirker
holdes
felt
ap
##iceret
indgaet
##mar
bespar
overordnede
overlev
##stilles
plante
##acitet
beskæftigelses
##cerede
forløbet
pavirk
medvir
##ktive
administration
møller
##bad
rens
fragt
hæng
##standen
site
værelset
blow
##komne
##dommen
foreningens
stede
ordin
romant
##papir
look
ønsket
skand
##ius
lærere
entrepr
frederiksberg
##illinger
forskellig
kasser
sygehus
arranger
cd
eleven
bliv
forelig
mads
kompon
rasmussen
##ino
kunderne
##bring
indberet
kvinden
pigerne
herfra
fris
52
højst
indeholde
hermed
flertal
spred
##klag
##stet
avan
slid
scan
idag
skoven
hunden
acc
vurderes
svarende
##forsy
lykke
ventet
big
frig
##gave
maltid
vels
bloggen
##getøj
dans
angst
fiske
udstilling
besvær
gaver
kerne
prem
øger
##yttelses
pause
rente
##vente
tilføje
ledelses
##ojekter
foder
forum
parad
badeværelse
synd
relationer
lesb
england
træer
befolkning
opfylder
##kap
skifter
snar
##vi
øverste
##kant
nedsat
vik
jak
diskret
##projekt
##ics
favorit
dygtig
tilstede
andels
indvend
claus
mulighederne
fugle
skærmen
##ordningen
vælges
kab
turner
indkomst
##ya
abonnement
atmos
garan
medie
xxx
if
gaden
billigere
besvar
psykisk
##essor
##iget
bidrager
island
##skol
nørre
anmeldelse
initiativ
handværk
formentlig
mave
nødvendig
##lægges
stød
va
##angen
beregnet
biv
99
##adal
1000
##sæ
##edyr
mikk
##agerer
behandler
##ændelse
opført
forsik
refer
beliggenhed
hidtil
himmel
begrund
lat
bø
statistik
kalde
nabo
##okl
##eden
skub
fc
ild
normale
revision
brede
tav
indr
jørg
lond
piz
træder
forg
hent
arkitekt
tilt
single
gens
##cam
stigning
##stider
##beret
titel
##staltninger
##kne
##dragelse
seværd
mek
virkelighed
##osof
pabeg
produceret
kreativ
understre
veninde
belast
##iness
95
lejligheden
##df
paris
tilladt
##isering
opv
forskelligt
hjemmesider
udfl
por
arbejdsmarkedet
spilde
jurid
kopi
##ænder
grundigt
telefonen
192
udform
stammer
sildenafil
lukke
installer
lejligheder
præget
##hr
skad
##aterne
psykolog
hob
eksamen
forhind
luften
http
##gøres
eb
##ampen
kolde
##hul
angivet
brem
offentligt
##enhed
##imenter
ii
ture
hørte
mas
køge
amager
overenskom
##unt
##købing
##atorer
fortalt
ten
luksus
##famil
##relse
thaim
unik
horm
perioder
specielle
rettet
engelske
##ulere
##elsesk
m2
trænings
timers
##pum
iv
samarbejdspart
##best
rimelig
næstved
mia
sekret
løfte
##brød
##spiller
##ævne
2003
nik
rid
situationen
lede
frø
begej
##ska
etc
##sbehandling
sports
ubehag
opfylde
arv
##ktivt
ægtefæl
talte
blanding
bib
humør
##hi
##ædt
##ferie
##tiget
##inet
maria
træne
maskin
kurset
frie
forbind
tørre
danner
##stoffer
##ugle
etablering
midtjylland
kendet
front
bjerg
##haven
forel
piller
lund
ansøger
flyttet
##adende
rige
næppe
annonc
##bens
planlagt
organ
##ænomen
nedenstaende
holdning
##edel
kreative
##funktion
udvide
##børn
boks
maneden
##sforhold
lis
kammer
mini
bygningen
størrelsen
liter
butikken
smager
civil
indvand
nul
anses
danskerne
kriter
overalt
modsætning
forhab
opløs
bakter
asp
##entlige
førende
webshop
##vention
##rere
villa
pus
56
malrettet
akadem
##erm
##produktion
indebærer
kina
overtræ
mi
indrettet
udarbejd
værste
##fektion
tjener
##inerer
tekster
leverandør
lykkes
vinteren
stiger
henvendelse
ryd
##tekn
##ænke
resultaterne
bestemte
senior
sti
innovation
grønt
præcist
##ama
omvendt
tadal
proced
sunde
##dder
##inerende
enkel
##tegn
selvstændig
sandsynligvis
tadalafil
indretning
##varter
kommunes
priserne
##fond
kortet
##rid
##kkelse
sæsonen
følg
##regler
hyggelige
ansætt
##orien
stolt
staet
fuck
grønland
##ejser
jakob
udkig
tast
teksten
assist
øvelser
well
bestyrelse
glat
##way
alvorligt
koldt
psykiat
mos
søster
tyrk
##ctor
eksp
##æne
##skade
bivirk
high
livsstil
##ili
selskaber
kompr
forslaget
pok
opvarm
sty
ovenfor
fabrik
london
herom
betales
demon
##sborg
fortsatte
kritik
mac
##inter
##stra
varier
genbrug
##præsent
##ønne
##sled
jon
udvæl
bul
##muligheder
talent
##hjul
kunnet
##slet
efterl
54
kode
##side
tilbydes
weekenden
##bus
oversk
##sminister
medføre
beskytte
##somhed
##ærker
##utte
halvt
thaimassage
fare
ethvert
##ceres
kæl
600
foretrækker
##asses
bladet
betrag
kvartal
effektive
hundrede
illustr
##onym
51
ansvaret
repræsentant
##uter
##drende
hit
##valt
##inav
##gest
væld
svarede
specifikke
afgift
galler
vardenafil
siges
bestemme
##ford
##kostninger
##bøger
bis
hader
afspej
politikere
##handel
aftalt
græs
minde
optag
selskabets
vegne
staten
def
alderen
helsingør
teknolog
handlinger
arsagen
andres
##iør
##iøse
bevæger
browser
##dres
##ilde
##visninger
##elsess
vend
knud
brønd
##lav
kvindelige
umuligt
reguler
blik
parl
##givningen
faktorer
tilsynel
gn
##ækket
rummer
sekunder
opbevaring
faglig
døre
ball
##sætningen
##møde
medlemmerne
produktionen
hastighed
##ox
##alske
aud
nyd
##ati
flyve
modul
tilsyneladende
cv
gay
vilje
##yge
deltog
domin
lokalt
endelige
rummet
##indsat
tryghed
##ata
konstat
##olution
##økonom
##uc
xtra
software
overgang
##skat
##stav
##sforen
thailand
planen
##ilitet
bibliotek
forandring
socialdem
fyre
dansker
forhandler
##pperne
vanskelig
konver
##lene
bærer
færdigheder
bevæge
formanden
færdige
imponerende
hust
trak
##illerød
pavirke
heldig
##indes
forklare
flygtninge
lytte
emnet
shop
##erien
lukkede
slappe
behandle
##skv
##ariat
spanien
##lunde
ressource
forudsætning
business
terror
teori
##put
skive
introduktion
øen
garden
##ygg
dræb
venlige
fitness
kylling
udvalgt
intel
svensk
##enteret
##play
ryt
arbejdspladser
forskellen
##agram
fn
oplyst
klip
hind
##bogen
aftens
aktier
##skrav
##æm
dække
stopper
trivsel
forventet
svag
forstyr
element
elskede
##burg
##erencer
omd
verdensk
##stillende
##barhed
works
beboere
nytar
udd
club
cat
##vs
##ric
bob
identific
operation
smar
lic
sans
arbejdsmarked
gennemføres
champ
##60
##alderen
forsøgt
præsentere
bane
make
##icia
mister
sektor
85
appar
##fold
milli
arbejdes
rat
imm
forskere
indh
gro
stuen
oprindeligt
##ax
afdelinger
##strateg
euro
##amet
anbefalinger
maskiner
ken
fotos
##unget
ligesa
bio
dekor
sto
##sop
##fot
styrker
vært
advar
mes
##ladt
rem
trend
swingerklub
identitet
perspektiv
vitamin
vedligehold
opnaet
##isser
ledelsen
##banen
##plade
revisor
##skift
enormt
pædagogiske
vm
havne
##sprodu
tip
##sministeriet
afsluttet
##inerede
parti
##ysten
konflik
back
uafhængigt
##tighed
##mæssig
garn
forvente
koncert
##anchen
stole
##angel
nemme
artiklen
primære
ef
historisk
##ote
##ham
inklus
stilles
abenbart
##ena
##enterne
rock
værre
##ood
okay
billet
besid
knappen
carl
##proc
forstand
tap
tvang
peber
##industri
resp
elektronisk
morgenen
##fj
189
##ec
herhjemme
forklaring
betyde
holste
svømme
plade
turist
udpeg
fremgang
tilsæt
##aser
medlems
forsknings
beton
udmær
slippe
træffe
reelt
dm
lyde
mennesket
power
øre
undtag
##formand
fasc
forsøgte
travlt
fastsat
kraftigt
##klædning
glemt
##server
læste
hillerød
tættere
##rak
storm
kortere
græsk
flytter
publ
##spligt
53
bringer
besæt
drej
##ellen
patienten
kok
opføl
tabt
spurgt
tilrettelæg
##itation
slutter
blu
virksomhederne
austr
disc
fortælling
diskussion
ulov
skuespiller
marg
vundet
enkle
##ktiver
##ygter
blomst
koge
hænderne
##førelsen
bemærkninger
spa
radi
trykke
##elter
##oli
##emidler
nyere
##komme
arrangement
konsekvens
hverdage
180
festival
reaktion
##hjem
##40
orgasme
##rur
samtykke
kamera
dild
overg
##somradet
kræve
svendborg
##gelsen
barnd
ton
##kender
noveller
fremmed
tjekke
##klin
##arter
tilhørende
temmelig
miner
fødder
varmen
krydder
udtr
bedømm
gran
dækning
seværdigheder
##forslag
bager
haret
##wa
bøsse
oplysning
##politik
eksperter
hjørne
kaldt
reducere
brugerne
førte
abnede
09
##ener
##sniveau
konsulent
jørgensen
##etræ
##jern
##tur
personlighed
##jent
##smand
gev
sørensen
##ination
##edskab
##lyst
foruden
bøg
cykler
06
02
##æger
##رررررررر
peger
250
stram
alvorlige
finansielle
beder
city
modellen
boligen
##itor
sogn
udfører
skriftlig
kategorier
hvori
prop
lokaler
##centret
markedsføring
værksted
redskaber
2002
##kir
##iler
pre
anlægget
klassen
temp
dukker
ønskes
entrepren
dejen
##bøl
tjek
vedtaget
##cher
brugeren
udbetaling
##rens
##kede
##kræft
læsning
gider
apple
tjenester
hæl
pool
opnar
afdelingen
paul
slagelse
##ame
virkede
##spillet
blowjob
befolkningen
2001
søgning
59
kæmper
##serne
samtaler
sakaldt
separ
gad
vade
oplysningerne
byde
##etr
with
##sninger
dum
afs
udgift
##mming
rækker
mængden
fænomen
##skal
økologisk
udnytte
fiskeri
drømmer
##uddannelsen
intellig
rot
fredericia
støtter
rekrut
##manden
58
times
beskæftigelse
##iks
laur
arter
pt
##rette
ordentligt
mg
bukser
nærværende
##værkt
dø
vestlige
arbejdede
##ablere
nævnes
##igere
købet
gennemgang
fagligt
##træk
ejendomme
overraskende
lug
filosof
betragtes
##navn
handbold
ført
solid
miljøet
##ovn
##ett
ekstremt
##ysning
glim
sendte
hjerne
email
comm
##ekort
udvidet
57
##kredit
##onom
pla
speciel
loft
##urdering
lem
arhundrede
fremhæ
08
fulgte
kristne
minut
eventuel
signal
sange
ig
udbytte
frækt
##smøde
evner
berlin
##ulation
retfærd
roman
skra
oplyser
##sland
hellig
bestilling
##inform
efterspørg
##iej
vr
##ifikation
sundt
tilfredse
understøtter
fornemmelse
vendte
##mentet
grøntsager
kald
adsk
flyttede
bestaende
vokse
foresla
ankom
musikken
##urop
smal
præsenteret
##skont
##plader
05
holm
brænder
udsatte
kolleger
##ats
kors
prot
##vers
##tab
velegnet
kræves
##være
hurtige
vanskeligt
##rien
##revne
ins
##iativer
##acc
##tog
gmail
drive
højest
##fi
##ona
##spolitik
tilmelding
helle
centralt
forp
##svæ
samvær
webcam
fjerde
##vandet
##ognen
overvejer
fløj
rapporten
tilstrækkelig
800
herudover
##okr
huller
behagelig
##arch
charl
utro
kaste
flest
ekspl
one
forholdsvis
løst
betegn
kommunalbestyrelsen
kontin
ops
prost
##auff
##irksomhed
##adres
retningslinjer
##givelse
##ædvan
bevare
baggrunden
nordisk
188
dir
nøje
eftersom
gamm
##veje
oplagt
indendørs
katte
vogn
tol
snakker
##elm
humor
##egru
foreninger
##ænde
stjerner
menuen
##rade
##alsk
64
##tilbud
##mat
york
##rør
indstillinger
co2
begivenheder
##løst
##start
forudsætninger
##ejer
##ple
horn
redegør
spons
kondom
##dagen
rusland
bivirkninger
##go
fjernet
##ængde
direktiv
besøgte
##ægler
##pens
amerikansk
lyser
##priser
##kend
forbedring
##selskab
samarbejder
kapacitet
faciliteter
cor
annonce
udveks
havnen
pigen
undskyld
diam
handtering
ekstraordin
nordsjælland
##utr
tempo
grundet
arab
definition
matematik
##ineres
support
##jyske
##punkter
foresl
tilstrækkeligt
sexet
saft
trukket
##appet
##fyld
##ipp
opslag
ern
##arbejdes
##yldes
stiv
prøvede
stu
##dæk
spl
kontakter
borgeren
##tilskud
stj
reserver
bøn
##regning
##rul
klinik
dvd
hjernen
##slovens
bortset
es
##vægt
aps
##ision
est
energim
krigen
byggeri
finansiering
##xe
kos
master
bestemmer
##agerne
afhængigt
bedt
indtægter
##ilæ
cr
##slivet
ultim
disci
##oper
kusse
skriftligt
##kan
præsentation
milf
startet
skære
##ygdomme
internationalt
lyngby
usædvan
maskinen
##ita
berømte
copyr
etablere
rumm
term
negative
##ump
##onde
##com
anna
##11
betalings
interne
holbæk
##vejledning
mont
personen
##mynd
benene
sortiment
##skende
##undervisning
##stemning
kandidat
uen
valut
overst
eff
##ikler
##akning
copyright
processer
kartof
opskriften
hæld
tæller
begejst
generation
integration
væske
stjerne
dyrt
##ement
derhjemme
##redienser
indsatsen
religion
eksperimenter
billigste
driver
##vejr
him
vindmøl
##egner
##cy
grænsen
##kendelse
world
samler
pizza
##givende
stærkere
høring
##pression
rute
##ivende
drag
desto
##perioden
protein
løft
##igelse
vision
personoplysninger
tillader
indgang
##maden
##back
kjole
indblik
##vækst
arrang
##isere
kommissionen
angiver
rejsen
tilknyttet
officielle
forestille
mønster
princip
187
kolon
lød
aktion
##sud
tax
modsatte
studier
##taler
flade
fattig
følelses
windows
##stekn
##umer
bekræft
##retten
million
pornost
bop
takket
blade
##iserede
beskrive
##italet
lejer
##vask
##ystemet
##sprojekt
td
##næst
nordiske
smat
##oplevelse
##ada
lol
##værelser
hurtigst
bevis
##bygger
yo
pakker
klogere
07
pens
##que
##ksomme
ryger
amt
kulturelle
overordnet
fulgt
##lerup
eksem
##lund
##bund
##jet
regner
forlængelse
##ley
nylig
sikret
##bevæg
ride
forsvinder
beløbet
benz
##abelt
feltet
##vning
##usk
sommerf
ovnen
gyn
skiftet
alex
slap
##øvet
øverst
skjul
##blad
##bladet
##car
skandinav
kilder
pande
##bringe
derfra
drøm
interessante
##følger
udsted
72
perman
##idende
forholde
kro
##øven
dann
diabet
##bert
undervisnings
##visende
klubbens
nævne
orientering
terrasse
##rigt
fødevar
holstebro
smarte
opkald
##fyr
ingredienser
forlade
nerv
flag
arealer
##jener
rejste
##reen
scor
boet
forhindre
korn
verdenskrig
flyver
dernæst
##øen
børns
mobile
fase
kam
omsætning
##pas
##spunktet
mega
misbrug
120
konflikt
myst
sygdommen
harmon
##cks
bolden
##aks
##somrader
regionen
studiet
dybe
66
##igter
midlertid
gæsterne
regnskabs
uret
tilknytning
teoret
økologiske
##ineret
##kes
##egaard
##sammen
grin
indtast
radik
##billeder
sekund
ligefrem
69
##ysk
hval
originale
##smet
gennemsnitlige
spildevand
atter
damp
inder
barne
formiddag
leverandører
ost
##ente
behovet
planlægge
niveauer
eksport
fokusere
meddelelse
##æret
fange
socialdemokrat
##skifte
##ravet
modtog
sikkerheden
mission
voldsomt
organisationen
vant
arsregn
infl
scenen
##rukne
potentiale
fingre
knog
sammenligne
scene
nett
play
##undersøgelse
spot
kalk
ydre
tynd
kvad
##videnskab
inds
initiativer
##planen
frat
##rummet
david
rolig
fader
renovering
##sikring
firmaet
refle
gule
værdien
##th
producenter
erfarne
greb
farvel
gram
tyk
tillige
installation
##skoler
##ns
ess
trump
##skrevet
undgar
pisk
cre
overvejelser
foreløbig
domm
muslim
kvinderne
gammelt
pdf
nogenlunde
forvir
##position
##garden
##alisme
mc
betød
##proces
spiste
##astik
alvorlig
anonym
wellness
abnet
##bank
blandet
professor
skaffe
##biler
##legetøj
##askine
geograf
##post
koncept
elske
2019
senge
tøjet
mandlige
hustru
##etten
03
steget
forelsk
##sender
##egang
##ismen
smide
vedrører
##ateret
aktie
plak
graf
##12
begivenhed
ansigtet
erotik
samleje
gemme
##ni
bang
62
østr
##ini
hovedstaden
lik
betragtning
repræsenterer
singler
vandløb
tilslutning
kas
miste
##æves
oplevede
vokset
menstru
slægt
henvisning
##løg
aktører
hilsen
liderlige
##øbt
brut
søen
væggen
fængsel
##gel
produkterne
hug
##loven
uover
##erings
skilt
spørgesk
interesserede
psykiske
russiske
##veks
download
placeres
bist
##ømmer
pasta
eksterne
juster
egnet
redskab
hvorfra
##repræsent
stræk
offentliggjort
opgør
berettiget
henvender
kombineret
logo
bryder
løsningen
flaske
staende
##arr
hvorledes
traf
##kkere
krise
##ræk
producent
vibr
##ssam
udbred
leds
magasin
fradrag
megen
fødsel
##pige
liderlig
186
##ule
##agten
arbejdskraft
byd
hvidt
skarp
israel
##ano
globale
afgræn
##aps
uforpligt
##spolit
##anne
##relser
##va
netto
##ysen
sexy
##gerne
##tion
##rud
##jorde
##teren
principper
##landt
##ott
døden
medlemskab
##li
varighed
dram
mundt
lukker
fakta
##regnes
underholdning
bredde
drøft
opnas
klubber
portræt
kampag
anti
##ioter
##esel
menneskelige
##sforløb
frost
styring
sammenlignet
femin
emil
##shøj
hovedsag
madsen
##bag
##ades
simpel
roy
68
afpr
frivillig
##spænd
##ualitet
totalt
##hot
##tekst
statens
##annon
##sch
undersøgt
skyde
opfølgning
branchen
bach
telefoner
præsenterer
atmosfære
følges
##atoriske
ankl
##ain
##ykning
forpligtet
##freds
netværks
brud
uld
##kj
##usen
mistet
tat
producerer
##etøj
67
æl
##polit
virksomheds
ikon
forebyggelse
enest
almen
fundament
ydelse
##osis
computere
##beskriv
titlen
##ffel
fans
website
dyrke
forskelle
nom
muskler
sammenhænge
beboerne
elegant
engagement
jubilæ
album
syr
lign
##telsen
investeringer
##boliger
skulder
##tagere
uforpligtende
udenrig
simon
maskine
optimale
##danmark
konfir
frug
##phones
##yer
ordentlig
slipper
modsat
##ukker
bun
demonstr
hormon
##ani
kabel
tabe
folketinget
forekommer
læsere
##ensborg
##stillede
børnenes
meld
##smidler
repræsentanter
konserv
##ammen
##ites
##una
opb
workshop
##tidig
##orme
acceptere
bragt
størst
doll
sover
##ktivitet
producere
forbund
bevægelser
monteret
populær
##marked
kryds
##ygte
mog
overenskomst
kongen
bror
##lik
smagen
individuel
knyttet
minutters
gear
smykker
mr
##esen
fad
##frist
##sløb
shopp
glemme
iværksætter
varsel
##institutioner
forventede
##øft
##berne
##ingerne
##user
##ystemer
##dato
kunstnere
bug
alarm
overrasket
beholder
##klasse
udstillingen
omhandler
##ath
rosen
##bor
your
affil
komprom
##aftale
##ødning
inviteret
##cykel
##indt
foreligger
fantasi
coc
04
neutr
materialet
behageligt
sperm
julem
##orator
observ
##ico
##skærm
##smænd
interessen
ulem
##avisen
##møn
forsyn
betydelig
##ekn
##kunst
simple
levetid
##personer
inge
stillede
bopæl
##uleret
##skode
kritisk
##kendte
##rel
forega
stadigvæk
##fab
udsalg
##ikkerne
patter
enestaende
beregning
foretager
kræn
kaff
ligegyld
##aste
##grundlag
fjernes
ekster
etage
savner
gemmer
betydeligt
computeren
refleks
fanget
##atoren
salat
fremtidens
##rød
##status
##ima
##bør
udarbejde
##andet
##problemer
bevidsthed
filer
integreret
fravær
planlægger
blond
fysioter
##uch
88
regioner
farven
investere
##lægger
##udb
sandt
bordel
partier
arkitektur
kejser
begrebet
straf
##ærket
koncep
##billet
vægge
##ræning
skuff
bekl
forrige
##andens
mølle
slik
andelen
jobbet
creme
##alisere
##adelse
henvises
##istens
fjord
mobiltelefon
hall
designer
forsigtigt
klasser
##fly
mekan
##ial
usikker
parterne
arbejdspladsen
ejeren
kontrollere
belæg
accept
datoer
##kasse
indsatser
##sket
tour
tøm
individuelt
kundeservice
sammenhængende
afslappet
taske
farligt
miss
kassen
gymn
##ney
citron
næse
krops
undtagelse
uly
##´s
trekant
faktor
##bragt
##cca
##test
vort
anført
pædagogisk
ambul
generel
louise
##ationerne
##iserende
##ækken
kanten
##erie
synlig
derude
##aktioner
længst
afgørelsen
tube
instagram
dal
sving
bestyrelsesmed
##ux
opsig
read
optagelse
##stilbud
98
konting
ekstern
##aften
trygt
pir
##elej
presset
##kørsel
robot
##areal
danish
format
sædvanlige
unikt
spænding
##merende
##ktøren
hjemmelavet
urin
liber
forpligtelser
##æve
sorg
cap
sgu
tilføjer
bekæmp
63
museet
##illingen
fremstar
##result
jordbær
##artet
##forsyning
fastholde
micros
smage
karen
##oci
forhabentlig
m²
reklame
##vo
understøtte
mol
##talte
italienske
tyder
bygges
##ife
studenter
fuldstænd
##linge
kanal
bryde
lib
##ærende
##sleder
discipl
##datter
beskrives
##skaff
udvend
had
afbr
borgmester
##holt
miljøm
japan
forfatteren
fastsættes
princippet
foranstaltninger
##fløj
print
fur
liggende
byradet
more
##havet
styrket
inf
61
kanaler
kravene
##bekendt
bot
rappor
opmærksomme
opgrader
tilfredsstillende
##chen
tob
journalist
forbehold
konstruktion
sf
##deligt
ære
opstaet
branche
dybde
opsætning
##sbes
etn
mors
##cm
delvist
3d
yout
##ora
##oværd
##agelse
lit
blo
##ommens
gevinst
beboer
barndom
hukomm
##sevne
kommerci
klarer
strikke
hæve
##sbet
##ledningen
##lær
behandlinger
lægemidler
døgnet
forandringer
gig
fremmede
mangfold
udlejning
petersen
konkurrenc
værelserne
green
sluttede
skidt
supplerende
flydende
crem
træningen
desser
udskiftning
indledning
iværksæt
kaj
nøjes
##sfri
fløde
tidlige
begreb
spist
##arealer
jordens
hhv
skrædder
##idige
##styrke
##egen
unød
smukkeste
herved
##atten
##mo
##uge
holdninger
kompleks
74
maneders
##parken
populært
feed
##historie
udbredt
æstet
vo
##uret
diabetes
poin
ml
##fac
services
##sselskab
##byen
nyhedsbrev
vine
yoga
##ging
broder
numre
##eler
bestilt
tilbuddet
britiske
ec
##rifter
brygger
##eriet
norske
hk
ændrede
potentielle
bent
##assist
##ryg
holland
stillinger
pi
indbet
##umin
##svirksomhed
lyden
hylde
##muse
gemt
##sson
karl
hjalp
##mere
cig
svamp
word
##elin
beredskab
mikr
arkiv
konkurrencen
negativ
##ktoren
opfyld
kloak
oplyse
marketing
note
lolland
tall
##bid
##kamp
poly
indbygget
arme
etableres
##agtig
put
##ophold
##kkel
problemstillinger
udskriv
##ames
##sbeg
soldater
sul
kristian
bomuld
afk
samarbejdspartnere
##regel
##kommet
##somrade
##000
mikro
##stiller
##mmede
dagpenge
skabes
hentet
##meter
1999
samlinger
eder
uend
##habil
tide
##pul
termin
opdaget
kvadrat
komplek
overvægt
##læggelse
koste
##sperson
sønderjylland
faget
##inerne
bakke
banken
##gle
afsæt
##ordet
##creme
aab
overfladen
hjulpet
oplevelsen
##ye
kniv
seg
videos
##besøg
kartofler
respekter
##tre
palæg
##behov
begrænsninger
ond
elevernes
microsoft
##midler
træffes
tomm
halsen
rose
tilpasse
bh
faktura
##skilt
##box
##væl
involveret
selvstændigt
ventede
##oppens
##gul
##ybe
olsen
optimalt
ophør
vacc
bam
forkæl
brøndby
tvært
ler
restauranten
##umen
kilo
##gange
##amentet
beslutter
eva
cool
##forslaget
tegner
forkerte
vejleder
drifts
##kontrol
anim
dommer
tdc
check
analys
fair
udviklings
##val
##hyd
mdr
henviser
##anvend
base
##æren
anmodning
##stig
strip
rense
sags
##vide
##eliv
##ighederne
##ummer
rigeligt
##ordninger
##typer
skabte
ovn
plastik
##ædagog
træde
opfordrer
paske
testet
##vidste
tilpasset
71
##elever
korrekte
spær
dronning
tilfredshed
stige
##parti
bæl
##dags
sprøjte
sikres
human
afsked
sammenligning
celler
spin
##reber
grand
forekomme
fremstilling
argang
emp
##planer
##ksen
glemmer
høst
bb
regionale
gennemgaet
vurderet
kontanthjælp
##sprogram
dildo
politikerne
sexlegetøj
johannes
indsamling
veninder
fjernvarme
argumenter
anbefal
hjørring
##faldet
##isteriets
elektroniske
##data
temaer
kw
forventning
bød
danse
profiler
krim
sogne
depression
beskytter
vedvarende
184
##oritet
##oser
chauff
##osen
afholder
tegnes
185
jævnligt
austral
##obe
professionelt
##pad
ærlig
platform
rulle
digt
væsen
funktionen
tegnet
optimal
opford
sværere
##græn
forvand
eksempl
##sser
##periode
ringer
levede
##kortet
indført
ipad
##konstru
omh
home
##gra
arbejdst
inse
##pakke
effekter
værket
tykke
##sbesk
opdager
86
resterende
zo
79
78
##visningen
selvstændige
##anerne
##fre
##astrof
##forløbet
lover
##progra
ryst
sparer
##pine
##æssige
jubilæum
fokuserer
eksam
ift
ansættelses
vendt
##gebyr
jazz
blan
opgav
noter
##livet
##arn
fordeling
sandheden
##træning
drevet
høn
legal
haver
billetter
##rejser
##kage
oversku
fødevare
forstas
##miljø
fødslen
hjemmefra
##stjen
kærligheden
tilber
charmerende
##risk
anbefaling
passion
drikker
motivation
tynde
77
##enting
skabel
videregaende
tilføjet
##oplevelser
varem
rets
tone
risikerer
##ilbud
emball
prom
specifikt
veget
##indhold
milliarder
##edr
dennes
afgang
børnehave
ejendomsm
herren
pavirket
##iter
bygher
##styrelsens
læses
ydes
effekten
##atorisk
glide
træet
##mma
pak
##ards
snarere
##evne
sikring
faktum
beskad
søgte
borde
isolering
opdagede
jack
thi
seksuel
##tigt
##valtningen
posten
accepterer
folkeskolen
##tens
##aede
opvarmning
bras
##sministeren
cup
sydlige
ager
##speci
videns
##tigheder
pæne
smartphones
varierer
talmod
underviser
forsam
kriterier
delvis
foretrukne
sponsor
udfylde
##ular
sites
aner
##meddel
##agtige
virt
##ifi
##bon
##ooth
ejendoms
##18
##fyn
udgangen
trækkes
skander
##sprocessen
##frastruktur
##kons
utallige
##ringes
##skomm
mikkel
##istrik
##svæsen
persond
forbedringer
strid
optage
##ulære
rødt
males
##oph
aspekter
sved
##ara
##zon
##iere
skibe
sofaen
bøj
forlader
terræn
udarbejdelse
spændt
ovennævnte
bogstav
mov
hjælpemidler
leger
udarbejdes
bron
past
##onten
skæb
##analyse
plader
##15
halve
udefra
##arne
eksklusive
##industrien
troværd
##sfag
tung
betjen
##fred
alles
reduceret
asyl
truffet
turister
##okaler
spidsen
menstruation
##anken
rammerne
frems
son
vifte
minister
forsink
##brit
##ikkens
##elet
##point
##osp
##ieret
##dede
##adresse
##ikal
##25
dagtilbud
virkelige
hvorpa
##uller
linjer
##information
lærte
input
handkl
reduktion
ramte
vejer
##ænkning
revolution
##esko
discla
##ændringer
snit
##holdning
bestræ
belysning
stren
budskab
##ylden
sønderborg
##scenter
konklusion
1990
afslapp
modtagelse
videnskabelige
##omet
##unge
##gørende
forebygge
melde
standarder
87
disclaimer
##feltet
##bureau
vandret
fortællinger
klat
##hurt
bit
afkast
steen
udmærket
tværtimod
sandhed
##amm
sci
homo
detail
optræder
traditionel
valby
##mes
##aming
sidstnævnte
cover
die
##aliserede
flok
rec
matcher
vinduet
##ella
latin
firmaer
wo
pornostjerne
debut
tillykke
##øser
##skur
##skader
##yste
søgt
batteri
73
størsted
shopping
ure
chok
guit
forsikringen
##issen
mælke
forlag
temperaturen
folketing
permanent
bakterier
gader
ansættelse
##ulighed
coach
display
chancen
##emal
evnen
frivilligt
##splanen
abningstider
##isol
kundens
##middel
fastsl
##rapporten
sædceller
handværker
varmepum
repræsenteret
nordlige
bureau
læber
udviklede
netværket
ordning
gavekort
##hjel
bd
veks
opdatering
inkluderet
formue
##ianter
renter
##stad
parken
opstod
spisest
medierne
hoppe
serveret
forberedt
schwe
##radgiver
##inci
opstart
math
##ægte
##drages
gren
ingenting
##egarden
##bs
citat
##rettede
licens
vvs
forside
udforske
faktiske
skæv
homoseksuelle
bedes
rejst
skanderborg
##skema
opbygning
embed
eksisterer
rimeligt
etik
byggeriet
ugers
skum
apps
##liste
##centre
mails
samles
returner
hemmelig
stoppede
##venlig
himlen
##rent
##rerer
##hn
##sti
venskab
kampagne
ovenpa
##anda
##aterialer
89
anvendte
fjerner
##ribut
kødet
avisen
ejere
##mot
##rapp
tilhører
politiken
##branchen
øjeblikk
forbedret
luk
afspejler
##si
##skop
##avne
slank
formar
kompens
solgte
konsul
fold
##ografi
beskæftiger
astr
tandlæge
genstande
køretøjer
tusindvis
ferien
farlige
this
##program
##ificering
skarpe
eftermiddagen
##højde
##saftale
glip
##sgade
enorme
##indlæg
europæisk
forsyning
alders
administrative
tabte
størstedelen
fortjener
non
76
tilbudt
affilierede
##ødder
##bukser
kompromis
forsiden
montering
vindue
mex
spillerne
hals
opleves
pakket
følelsen
mess
blodet
##bygget
##nor
parf
nedbr
hede
##ostrup
alting
##væsen
julen
##ænkt
røn
skriftlige
youtube
##omkostninger
papeg
pøl
tusinde
personal
##rikken
phil
muskel
stoffet
##førende
beretning
pant
hyd
##yper
##prøver
smartphone
skema
laborator
vug
byr
##verdenen
wil
endeligt
palid
##ursus
ster
almene
##rol
hylder
konflikter
debatten
##ml
tegninger
96
ogsaa
kategorien
venligt
opløsning
##gives
##baseret
ordningen
tv2
rug
##4for
mands
##prisen
tro4for
ded
enheden
ork
mødre
fisker
drengene
##styring
linket
##uf
##instru
##lege
tum
##endelsen
nærings
salget
badeværelset
fortid
dybere
##profil
gold
begrænse
##stjeneste
lufthavnen
##ners
bæredygtig
##hh
arbejdstid
##ækkende
besøgt
pod
##espørg
gennemførelse
##speriode
virus
diskutere
aftensmad
##aktør
stolte
##sholm
fællesskabet
menneskets
uop
kommenter
##ulerer
tildelt
italiensk
sadant
baden
score
##atch
##uddannelser
parforhold
##spris
præmie
økonomien
telt
regning
østrig
kjær
bestilte
tankerne
vægttab
original
frederikshavn
##inens
betjening
overskrift
skor
beregnes
skilsm
uund
kommand
installeret
##kammer
landsd
global
ravarer
sekretariat
mav
bestiller
##vogne
##rukket
immun
indbrud
##ificerede
inspirerende
drage
##indsats
abnes
##sprojekter
angive
lot
##ype
##till
længden
wal
##stykke
##fast
##afgift
bytte
færø
##appar
gummi
##skvalitet
trives
##olde
unges
##eled
##midt
formidling
blødt
##ellet
medicinsk
##markedet
ankomst
orange
##ams
must
jød
reparation
arbejdsløs
snap
##mærker
##enn
##venlige
jyske
strø
ægtefælle
##cts
##24
deltaget
##sproc
##vilkar
polen
klagen
øjet
##13
endt
lanet
##sbr
festiv
kontoret
##ript
bond
hvile
militær
##ous
forvaltning
tværfag
##iserer
sæde
heldige
observer
##sprodukter
beskyttet
rader
lønmod
navig
reflekter
udsigten
ce
parat
##hoved
nederst
##spring
biblioteket
inc
speciale
indeks
##spension
##oppet
tilmelde
sande
smed
kroppens
##ory
skulpt
1998
kravet
opbygge
røre
##14
selvm
lytter
pabegynd
forøg
1800
##anlægget
##gennem
house
klø
foruds
samvit
kraftige
grundig
køle
vig
loftet
forstaet
malgruppe
vinkel
bestemmelse
binde
##19
meningen
hovedstad
banker
usikkerhed
hygiej
opbygget
##skar
##enden
regulering
udvidelse
garder
fejre
told
pakken
forordning
##yrer
##astrup
##anere
sams
afb
livmoder
jøder
trist
##sproblemer
identificere
bundet
##plo
fet
##krav
ringsted
brændstof
alternative
filter
udkast
82
sovjet
##peten
##askiner
##itten
tech
spilles
bjørn
indtægt
colle
bestod
##itiv
has
stemningen
tiltrække
seksuelt
garant
##sj
veter
infrastruktur
atom
##sprogra
typen
retss
ukendt
elite
gucca
opretholde
##etid
udbetalt
mellemrum
##værdige
nervøs
##nens
teknikker
forberede
##ættet
sandsynlighed
udsl
systematisk
##fod
dræbt
dannet
##zone
mistede
lovens
##egning
tredj
dun
nætter
bandet
hvorved
##aterer
##saktiv
husdyr
df
morg
##stens
##stillings
##oklip
overvagning
83
indbyggere
tons
##fødte
efterløn
skygge
ødelægge
##ai
maksimalt
afrika
##skin
opbevares
fonden
øvelse
ansøgningen
92
begreber
gravide
##ray
ryge
kvarter
langsigt
##idte
taller
transpor
voksende
stav
##aminer
##egnes
referat
anelse
klinisk
storbrit
tændt
udfordrende
udførelse
1970
adgangskode
velkomne
birg
opdage
##ældre
##riterende
medfør
alumin
medarbejderen
menneskeret
hæk
manglede
als
##ariske
knu
føres
kinesiske
hvidløg
##ivelse
##elovens
seriøst
instruktør
##pension
skit
parlament
afgørelser
##omst
svage
##ygdom
kaster
##delen
forlod
pia
fornød
girl
klippe
malene
sproget
pic
skibet
##yggeligt
undersøger
kaldte
ped
##aliteter
arrangementet
opbakning
sikke
##afdeling
##fulgt
hvidovre
lægemiddel
##foreninger
tidens
frid
bac
vidner
svine
street
samspil
radet
vidunderlige
mærkeligt
##ives
infektion
læseren
##fyldt
##xt
tegning
mem
dt
fiber
##chat
##emaet
stam
parret
fleksibel
udvikles
sec
sau
auto
understreger
##strækning
eksamens
##elskab
dimension
700
lene
##institution
koncerter
reform
teste
mønstre
ling
race
kirsten
køleskabet
##icerede
regnet
##bordet
##70
overraskelse
old
sjældne
wik
vink
foreslar
##ævner
strik
slette
aktuelt
bestyrelsens
##sbeting
regeringens
dyrere
##sform
##geren
indk
##fundet
ze
fremtræ
##farve
teat
hon
nævner
storbritann
inspirere
parall
import
benzin
shem
##rop
hf
von
##ti
indv
melod
gh
##endom
rask
angri
##anceret
##autom
##bede
hanne
##imeter
dreje
kliniske
kommunikere
##ran
##leden
slip
##kultur
kirur
forbudt
jose
datings
digitalt
soveværelse
##krig
religiøse
tilsk
domstol
dl
menigheds
besta
##ateres
obs
vedtægter
metoden
indrømme
præsenteres
udlændinge
falster
tvunget
##brudt
sagens
afhent
grundlagt
cigaret
##ical
cyklen
tarn
indsig
##klen
##billede
konceptet
tillade
budgettet
romer
##rænding
##ppes
træffer
scenar
##iblandt
84
nærmer
aluminium
varieret
sandsynligt
##ydelses
epis
toget
##piller
uni
##ækker
skuffet
partnere
ansøgninger
væn
godkendte
inviterer
spejl
konkluder
indstillet
enden
##sbid
kandidater
laveste
##afdelingen
junior
anerkendelse
fastsætte
magnet
omhand
tarm
krog
fog
redde
##ala
##umre
imødekommende
##rerede
##lovens
synlige
andro
placere
erg
kneppe
juridiske
bonde
makeup
mændene
##amper
erind
keram
gennemsigt
##esex
schweiz
betingelserne
##ev
støvler
præd
##core
applik
carsten
mht
snor
lærerne
##ary
##sonen
##skontrol
usb
tos
##skræ
rehabil
reklamer
fryser
administrer
spek
##itive
ærligt
manu
mørkt
apos
medlemsstat
box
konference
morgenmaden
melder
videoklip
denmark
##brugt
tørt
##spørg
udlejer
servicen
##kvens
good
##aka
pille
sod
##kul
##raktive
skræddersy
kontingent
erklær
indien
prostitu
##agtigt
##skede
##yden
anerkendt
##teker
lesbisk
##plom
formel
plej
##ilj
kh
##ki
fyldte
overnatning
##møder
dosis
hegn
##staet
arrække
rykker
##dren
lovgivningen
projektets
katastrof
henvendelser
##pat
sygeplejerske
##ands
royal
tallene
øges
velsmag
smit
præstation
oversættelse
##lejning
bussen
##arked
louis
festen
screen
dømt
søer
ruten
##give
##smag
kager
søskende
##ageret
ansvarlige
opvaske
##armen
##act
udgifterne
fuldstændigt
forinden
##støtte
produktions
sun
irriterende
springe
93
ruder
rødovre
##værdier
##sbyg
vrede
palæst
husets
varetage
##odt
flex
afsnittet
variere
anvendelsen
##gisk
børnet
juletræ
attraktive
##16
##strategi
##overe
##ize
medvirke
neur
nykøbing
97
dispens
##værdig
##ums
rekord
mix
berling
udsagn
slim
tilmeldt
rekruttering
##otiske
komplekse
dyrker
redegørelse
##entre
kameraet
##annoncer
##elor
##ærm
spirit
cle
rober
##jour
kæledyr
portug
marker
portion
1980
##ktører
##install
##du
dab
forberedelse
indire
##elem
niveauet
videoen
skudt
##virkende
##betændelse
##bade
##forme
eje
ekspon
irri
##ummet
##æver
forbliver
bekymring
ordinære
##maling
ligget
analyt
samtalen
ringede
implementering
naz
##melding
vinen
veder
sviger
hemmelighed
juridisk
##egnede
sofie
##ence
latter
hobby
bekymret
kærlig
uges
##zen
autent
indirekte
##iverset
patienterne
lugt
grundlaget
##rudt
brune
efterskole
##staver
##ress
lidelser
tætte
svin
kristus
egentlige
færdigt
hang
kvalifik
##reder
##projekter
##eløs
ærger
cykelt
##afrik
porte
fig
android
onde
underligt
visit
##orienteret
naar
##dene
opdelt
klæde
ubet
strej
ingeniør
negle
forbr
##økken
domæn
godkendes
##teg
habet
ic
realkredit
##erencen
##igtig
langvar
trykker
trafikken
##omi
gennemgar
marian
passager
frik
110
##ee
samvittighed
ordene
besvare
skjult
demokrati
##udbyder
familiens
##iko
##asing
##tning
stemp
##shosp
erst
##skel
skuespil
selvmord
hellige
##sre
##tigede
##draget
virkeligt
omfatte
tidspunkter
byrad
##ofte
indledende
##læde
lut
taber
dukke
strækker
host
signaler
ødelagt
reagerer
innovative
barns
opgaverne
udgangspunktet
##itis
entreprenør
##brog
sed
andreas
bay
artier
monteres
efterspørgsel
løfter
glostrup
afslører
tidspunktet
##parten
##ugler
gevin
haderslev
##ligter
kongelige
db
##ting
##apning
##kær
serier
stund
##klubben
forsker
##fejl
sammensat
##vang
##uderende
##iøs
vitaminer
fortrol
malsætning
madlav
##80
gæste
bredband
hop
grundvand
fantasier
kosttilskud
pensions
##vem
kvalificeret
##abon
herfor
##iche
iagt
klædt
tang
dedik
##eloven
lykkelig
tønder
##isted
vægten
##pligtige
diplom
iii
##butik
sagsbehandling
spansk
##flade
##dy
opp
los
##begræn
siderne
tiv
chancer
fritids
sexede
##ideret
bekæm
##stur
georg
briller
lighed
strategisk
##17
daværende
beskat
sparring
pern
room
detalj
tilsammen
terapi
bik
scener
gel
samsung
##holdende
kysten
hjørnet
##yng
multi
jobs
##lens
hjælpsomme
deles
esp
udtaler
arom
##ælde
varianter
adop
semin
perform
tyver
rejs
##baner
adresser
hinandens
##hjer
opdagelse
trygge
##regne
drengen
vinden
skjold
floden
##roen
figurer
##visor
class
separat
herlev
open
øer
forleden
##kontakt
cand
kronisk
nederste
##ktail
overholde
##gelser
##itering
konvention
analysen
gennemsnitlig
bæredygtighed
funktionalitet
ugens
opdatere
indtræ
may
velsmagende
##mak
##cast
flow
tilgængeligt
tradte
fingrene
##æge
##varet
forank
angel
sult
præcise
##arige
##ents
##eser
kæde
journalister
kollegaer
##arrange
##lut
##ftere
mistanke
gribe
flo
overgreb
##holdte
befri
##jælp
udpeget
beslutte
drikkevarer
skolerne
begrav
##værdien
partiet
##hente
##forbruget
landsdækkende
afkl
landskabet
##pædagog
##ace
##magt
afholde
##ae
##stolen
afløb
##klet
feedback
##gerende
##abe
##ool
##stole
##lel
opad
wi
genstand
##landsk
herrer
downloade
##upunkt
##ates
sundhedsvæsen
konger
erstatte
##yen
##ians
pej
guler
legem
diagnost
##kelse
næsen
##resund
opgørelse
agt
##ænker
anbring
##spladsen
##kob
beskeder
##ævnt
udgøre
##viste
traditionelt
gardiner
##ppede
sejler
maltider
tyrkiet
forespørg
##sformer
formod
livets
fleksibilitet
velkomst
##sving
daniel
##ælk
##kat
torben
doser
fattige
konfirm
ihjel
rh
sut
bøgerne
grov
##støj
forarsage
##saktiviteter
uddan
øgede
##beløb
##sperioden
run
inkluderer
ox
ida
rast
ophav
##interes
squ
##word
pend
from
##bygningen
perspektiver
sammensætning
pressemeddel
pud
tomme
arbejdsopgaver
magn
nyborg
omegn
omdrej
tilfældigt
harry
tekstil
vurderingen
1997
flu
##værktøj
een
enighed
##fit
##sforsikring
stak
katol
##terings
besparelser
blid
frustr
smidt
energik
planlagte
vul
inddrage
repu
køretøj
##reve
dress
##ametre
indsk
kritiske
filen
fastsætter
kirker
jom
kombinere
klikker
egentligt
rækkefølge
ik
købmand
kran
elektrisk
##ors
velly
risici
kemikal
##skridt
rapporter
##fonden
##orts
king
##kkene
laks
##ativer
nydelse
voksede
##egler
ast
spekt
forfattere
akvar
skulde
spild
ventilation
##virksomheder
omgivet
synet
tilbag
##maskiner
##inket
ejendomsmægler
aftalte
tegl
reaktioner
forbindelser
ged
gymnasium
win
##vidde
dyrene
##type
storby
flytning
efterlader
dirig
kult
forudsætter
kunsten
storbritannien
beslutningen
realitet
afgøre
split
kit
hovedsageligt
forsvandt
laser
##fælde
universitetet
kemi
bragte
prins
underholdende
adam
spanske
arlig
##ikre
gryde
mogens
spark
ilt
salgs
stab
udleveret
anlægs
australien
cvr
##arbejdere
japanske
henne
##plejen
svampe
beskyttelses
kedeligt
incl
##ern
##oe
oprettelse
fm
sanger
inten
guid
udtrykke
dominans
kasper
sutte
slikke
alu
1960
##pes
privatliv
landshold
flitt
##pool
guitar
##fladen
bredere
forurening
spejder
##stud
problemerne
##sgaard
detaljeret
femte
landbruget
poulsen
træl
##spekt
beholde
ds
##øbler
omgivelserne
wa
formidle
##spillere
swe
160
beløn
misforsta
officielt
valuta
##iges
kriminalitet
##sættelsen
##nemm
optimere
ulykke
distribut
løses
aw
nærliggende
impon
generationer
romantisk
##ererer
glimrende
ydm
kalorier
sektion
vred
mej
ejet
##slisten
94
henvende
telefonnummer
henter
list
vandre
afgifter
##egle
skind
fæ
handlede
genet
flemming
prog
reserv
interviews
prinses
2020
poster
##kanten
##ondition
udtalelse
lekt
##organisation
teknologier
krævede
oplyste
avancerede
mak
forsynet
avanceret
##tale
forbrugere
attraktiv
halvar
##slan
##smateriale
##iseres
##ops
##anterne
medens
turde
aaben
ron
forhøjet
plet
##spørgsmal
lady
racer
##korn
sygepleje
indkal
lærings
forudgaende
hart
viet
kvinders
##smødet
##betjening
eksped
essenti
##seng
##oppede
##farvet
markeret
##olin
ministeren
bekymringer
indeholdt
##gik
bakker
menneskers
afsluttes
touch
bestemmelsen
henning
##smiljø
##ømmet
værende
##ague
bogstaver
shemale
irak
##celle
aggr
regnskabet
meldt
smilede
forelsket
blande
anbefalet
##skrivning
østerbro
happ
armen
ballerup
##skiftet
##21
sele
centret
arrangeret
klinikken
fornuftigt
union
##endelser
komponenter
benyttet
action
markeder
##nel
skræmmende
typiske
batterier
##ulde
##ebr
voldsom
klaus
foregik
pornograf
##hæft
flensborg
menings
rese
aflæ
##frokost
public
##ageren
skjulte
siddende
vanvit
ving
pier
nas
##ism
##slaet
cast
værelses
adressen
len
##størrelse
##foto
loy
##ussen
doc
##mf
ensartet
speciall
pink
##ypt
forestilling
adskiller
indehaver
bøde
finansier
herred
robust
bebyggelse
hp
fødderne
synge
##mind
dagsordenen
skot
muslimer
citater
kreditkort
naboer
stramme
taastrup
yngste
mærkes
##kkelig
konstatere
gods
førtid
justit
velfun
##agerede
##værdigt
hospitalet
rib
æble
##systemet
oprør
overbevist
rist
##stegn
naturvidenskab
kokos
bagt
##lagde
jakke
merc
sæbe
##enterede
##ynge
183
##boy
##ægten
græske
fanger
case
trætte
transa
##hs
seksualitet
cros
erektion
ande
##domm
##drift
lederen
atlet
cocktail
spænder
væv
charlotte
skyg
forbrugerne
##ryk
willi
##plej
##sløse
forholdene
logge
##klagede
familiem
panden
sejle
##otisk
teamet
##ega
dokumentere
nærvær
##ængen
##øvelse
slem
unger
honning
reel
ankommer
lovligt
##gelses
##ifte
cens
defineret
##oline
velvære
overvejende
tu
særskilt
ultra
suver
login
regelmæssigt
ax
##jord
##skriver
bagsiden
indbydende
præster
##wood
nederlag
egner
##uddannede
spredt
solidt
trusser
yderste
yndling
galleri
udlænding
https
##avede
##direktør
hyp
speed
velfungerende
##esult
magten
berlingske
##ding
varde
foden
flasker
##alende
##ugter
farverne
kongens
antik
afslappende
##ækning
begyndelse
events
food
rytter
kvæl
vejledningen
140
forebyggende
##ots
medfølger
##øves
tabletter
##gl
mari
kvadratmeter
kobber
østjylland
hekt
jonas
programm
buks
erklæring
hovedpine
##værelsen
##foder
silik
poker
pavirkning
##brev
uafhængige
farvet
victor
spill
##stilsynet
kreativitet
##rethe
stiftet
svagt
opretter
##yrdes
væsentligste
rede
ægge
kæresten
uskyld
folkeparti
elektriske
kram
udnyttelse
##safgift
kvaliteter
mørket
inklusive
##lespil
##mærke
udbydere
holdbarhed
pernille
anerkendte
møbel
##inationer
fremgangsm
aldre
west
slanke
##bedste
spørgeskema
##listen
##kalender
##lægen
##ulin
veld
folkem
##stemt
##øvede
##tain
anm
##por
driften
deraf
kjoler
fremga
kartoff
hensigtsmæssigt
offer
thisted
nordic
##istan
##ylle
sommerferien
dynamisk
afvig
utilfreds
management
pind
hyppig
##22
baner
omkostningerne
praktiserende
returret
kørekort
zoo
##wich
##hast
pose
##byggeri
bitter
##az
##trækning
stadion
ernæring
konkurr
kælderen
##cert
lejr
indføre
firk
##uten
##ansøg
roller
##taj
##omb
jav
institutionen
##mændene
frugter
##agende
bekæmpelse
anlagt
albert
inspe
##stik
erhvervslivet
flor
##felt
folks
rejsende
registrerede
##ramme
##sset
norden
passede
##spladser
##raa
rumme
afklar
##artikler
brands
tørret
stock
dødsf
war
forskerne
underskud
##øster
##sbeløb
udby
##partner
##bespar
kigget
matrik
##barn
pumpe
blind
afsluttende
130
skaret
forælder
ank
ambition
radets
overtog
syl
vill
receptionen
##skib
ane
forholder
pad
samfunds
bagud
drama
##stød
udsættes
trof
digte
motoren
gyldne
##alde
katalog
udad
##gæng
overført
ple
##egne
springer
rødder
skatter
gensidig
velkendte
##massage
##ari
jomfru
sjælden
allergi
tallerken
##sekret
##seks
seo
##igennem
udkom
instrument
premier
##pres
nuancer
##talere
alternativt
pels
kompetente
notat
twitter
kirkens
norde
ambit
kvik
forfær
demens
voldsomme
##atører
europas
##tagen
##okratisk
wifi
##avnet
julie
serveres
##san
asiat
malgruppen
løser
køres
effektivitet
fremskridt
advarsel
##allere
##ainer
125
lamper
vaner
##fol
højskole
blodtryk
tilgode
udsm
dæm
detaljerede
##kassen
afsat
traditioner
cra
bekræfter
kemiske
stillingen
mødtes
udstillinger
etager
homoseksuel
indbyrdes
integ
tennis
nysgerrig
##ymp
trakt
realistisk
##flix
belg
vanskeligheder
sum
mindske
##dating
minus
kalund
brændende
tilgængelighed
group
styres
variation
herinde
garanteret
##90
sygedag
forf
støb
synger
konstateret
refunder
bjerge
##shistor
overholder
installationer
##aktionen
ration
uplo
kontrast
bestemmelserne
barcel
klit
girls
evangel
oliven
skiver
sem
sammenlign
spillem
##vad
##kode
begaet
##aterialet
##stidspunktet
formen
camilla
nyligt
##edal
efterfulgt
##sbor
ligegyldigt
yt
elast
mærkede
gymnastik
1996
ikraft
kommunikations
##ited
jeans
vedligeholdelses
##forn
indvandrere
snakkede
selvtill
specialiseret
call
kontakten
omradets
gammeldags
begejstret
flyttes
appet
styrer
##ffekt
tæppe
##ilien
fungerede
sundhedsstyrelsen
betydningen
konklus
asf
kagen
røven
jamen
##aritet
afslør
forbinder
##cia
kastet
kostumer
ministeriet
rich
analysere
##plac
##itution
bistand
hovedperson
##omer
kedelig
skrives
bisk
cu
tyndt
reelle
overføres
trop
finn
##lyd
league
drys
farlig
##splaner
lovet
hallen
##lesk
mormor
kalundborg
brystet
oprindelse
##øvler
pædagoger
dagene
foregaende
instruktion
gps
act
registrere
styrelsen
mt
##eleder
toner
##drivende
##nr
instrumenter
sutter
##oller
koncentration
relateret
##artner
##fyldte
internt
##ms
meddelt
bestand
reagere
##frihed
kulhyd
æbler
##klinik
tungt
farten
oral
jæger
falske
forarsaget
snakket
belastning
rub
##trad
get
##virkning
##udviklingen
spræn
leverandøren
##orth
175
udsendt
pest
smut
##sal
##sbas
vejledende
thy
##avand
strategiske
udsp
##asken
livskvalitet
##ces
##historier
##opgave
##selskaber
tilmed
##svil
skild
##gener
##sfre
dsb
patri
fore
##regnet
gast
dannes
cru
##undersøgelser
##station
grim
groft
ideel
hævet
kommunernes
forhindrer
strande
konservative
rammen
overstiger
skrue
##key
horis
hændelser
ikrafttræ
##stykker
forre
##gaet
##aftalen
##arv
indikator
ever
udstedt
##læn
hesten
midlertidig
ih
##itim
derpa
uøn
middelfart
##aku
omtr
flybillet
oprindelig
hyper
seriøs
##tagelser
overn
irrit
##estyrelsens
tær
lysten
russisk
##kød
statslige
klæ
jag
##rug
bekymre
esk
rengørings
vesterbro
dessert
kvitter
udbetales
arkæ
##frisk
allian
breve
##minister
mene
jacobsen
tilhør
netflix
##bur
##kapital
ofre
##log
eksplos
##sberet
afslapning
mental
oftere
##vognen
fornuftig
genkende
isoleret
trænet
division
sorter
udtrykker
##otika
orienteret
##elev
beund
rester
##frie
##stue
reference
hemmelige
##skaffe
##hverv
nedad
booke
pynt
supplement
folkeskol
midlertidigt
given
fleksible
thomsen
##ibi
xx
takke
affære
middelalder
ungerne
nakke
stoppet
##no
skarpt
stabilitet
baren
##hallen
skilte
aftales
leverings
##do
##ælt
organisering
begrundelse
that
frod
skilsmisse
jean
minimal
designs
invent
##sbidrag
udstrækning
kristensen
besiddelse
900
cykle
##ændring
kreds
øm
nævnet
nørrebro
vedligeholde
marianne
ladet
bruser
##læger
##oke
færreste
fokuseret
##mennesk
phot
felter
sant
beregninger
sauna
gebyrer
##sselskaber
robert
ordbog
lunge
analsex
##ørerne
graviditeten
siddet
indlægget
##stilladelse
stævne
sas
forelæg
##omraderne
førtidspension
indstille
detalje
pletter
jorde
dominerende
forældrem
delte
kommission
white
amal
advent
fril
ideelle
lidelse
stolen
##alingen
fysik
escortpiger
snyd
afslag
que
yndlings
koll
broen
airc
##umb
græken
diagnose
anbefalede
kompet
##stemmelser
krøl
tæpper
##ssystemet
##astning
slagter
farv
##arde
##fektioner
brian
prøven
styret
nordvest
##rich
nære
##ælling
canada
##fabrik
bdsm
tømrer
##prop
respons
sfo
kore
1995
udgiver
light
##rediens
tilpasses
heri
flys
tavs
bekræftet
##sforening
strategier
##samfund
content
hammer
fliser
batteriet
offentligheden
sammenhængen
##zy
inddrages
##agenævnet
ringkøbing
argument
maneds
##sgræn
##aktiver
radhus
undertøj
##værn
flugt
dækkes
præmier
næg
##elf
væksten
negativt
lokalavisen
kinesisk
smad
greve
overtrædelse
##slov
##leverand
industrien
ombord
sned
reserved
varetager
ub
omkringliggende
##stog
støder
fandtes
gennemførte
rækken
krævende
ventetid
##bræt
auktion
forestillinger
##een
protest
indlagt
madras
##edage
medbringe
##design
midter
bevil
##ægterne
day
##angreb
##retter
smalle
tapet
roser
bogens
myndighederne
diameter
omtalt
##iber
overfør
hjerter
hvortil
blods
##øvrigt
drives
berg
betalte
protokol
overtage
##forældre
spiseb
sikrede
børnehaven
mandens
fester
##oman
1900
nøjagtig
udfør
##omp
##ulær
##procent
ansøgnings
uafhængig
##ologien
##søkonom
##kirken
pun
vestjylland
angives
overstaet
genre
glæd
tivoli
beach
gab
planet
##aktivitet
servere
vuggest
1950
arbejdsgiveren
varerne
navnlig
myr
aktuel
overleve
revet
troen
##saftalen
nationalt
pikken
dna
filtr
etablerede
søb
##ils
##valget
sætning
##ituation
inklusiv
gentofte
asiatiske
lovforslaget
spont
##artede
vord
kosmet
omkostning
symptomerne
grave
rygning
pilot
fastlagt
##dal
trænere
temaet
albu
læreren
faldende
hass
##riske
##blade
evigt
svigt
emballage
lidenskab
##stræk
selvs
bekæmpe
bm
##ido
##bla
tænde
billund
udred
rikke
optages
nytte
storeb
overskr
fremfor
betingelse
registreres
##æsning
hvalpe
susanne
udgaver
ryn
reduceres
beklager
operationen
##kager
næstformand
terrassen
indekl
##appede
intent
agent
radikale
myt
ømme
indskud
bachelor
sødt
chi
ledende
nøglen
værdipapir
kendetegnet
installere
sagsbe
ego
rimelige
##selskabet
tilsynet
##zer
søj
asien
perle
fineste
falsk
handværkere
skala
##maskinen
##kurren
lant
kopier
fars
kollektiv
inn
##illæg
##bragte
reb
##runde
stikk
chili
grundt
allan
zone
##bj
forstod
##dansk
budd
##36
slidt
grafik
##ibre
karakterer
nøgler
armene
maksimal
isb
ukra
lastbil
skagen
nicola
fremadrettet
færøerne
##æden
boller
udsol
blidt
iført
skød
##ktoratet
udarbejder
lesbiske
##unktion
##klassen
voldt
forkæle
rygs
japansk
##sparing
prædik
terapeut
##ensioner
mænds
nan
teoretisk
##sev
arne
anvendelses
maleri
klap
leasing
malerier
##tran
diesel
opdræt
vigtigere
bækken
##ky
reducerer
forudsat
##strede
##materiale
##onsulent
arsregnskab
pastand
happy
strikket
oste
trusler
glæden
##hvil
gær
hørsholm
mb
james
ribe
organer
kontrakten
##istre
statist
kryst
##æssigt
kørende
forladt
gulve
##sak
##forbindelse
snav
fordybe
koden
session
facade
##lægningen
##oderne
##arisk
kvæg
mentor
bluet
rettes
##gers
##ado
##ome
aabenraa
vidst
krydret
sara
anten
træthed
##stilstand
gifte
##atil
medal
life
##assistent
faderen
tilbagebet
maa
præsten
gymnasiet
ext
nikola
##vaner
smile
odder
##maler
tilstedeværelse
printer
medvirkende
bass
indfri
gennemsnittet
kup
prostat
##bunden
trøje
##garn
indgangen
barsel
hvede
barcelona
certifik
manager
vederlag
shirt
smagte
##ønnede
afprøve
170
##skrives
##ssund
selskabs
##anker
plejehjem
statsfor
##dam
farverige
aviser
websteder
##inke
coun
erhvervsliv
##hotel
##store
bedømmelse
afhængige
apparatet
afdrag
kloster
##hd
gennemt
##somkostninger
nb
udløsning
afdøde
dead
drev
franc
lise
opfyldelse
rud
satser
afsløre
slutte
apoteket
finalen
uro
syddanmark
##ilje
##onto
dørene
klem
gun
fornøj
omfanget
elef
intelle
##forbund
regions
##tagelsen
tørkl
##imellem
dagligdagen
overtaget
vidne
81
##løshed
tilværelse
aflevere
##ssikring
sundere
##ida
tøs
blue
kuffer
lampe
venst
##jo
cur
meddelelser
##jene
opsat
arbejdsløshed
angivelse
erob
ingrediens
##spir
##arbejdning
kulde
norsk
##mmers
##klæring
lukkes
tænkes
rollen
##varteret
halvleg
research
læn
##punktet
##sager
lanceret
##forskning
##grundlaget
kass
omhyggeligt
vække
administrationen
##isation
hardcore
##drede
trang
##sregler
##arig
appels
nice
istand
aggress
ekspertise
kompetent
modtageren
køns
##telser
mild
##syre
kogn
skeden
1500
lignede
reglen
selvværd
paradis
istedet
smilende
superlig
##sider
rumæn
##anet
kontaktperson
muslimske
##smodel
##øvelser
medi
lay
kompliceret
gevinster
gennemfører
##ilder
erfaren
attraktivt
omtalte
afgjort
habe
tatover
museer
enlige
betinget
villig
demokratiske
##inspe
anstr
underlagt
heden
##okale
medicinske
fællesskaber
##baserede
##spraksis
##can
kontekst
optager
##eliste
##egade
dba
volumen
##aftaler
grækenland
omtrent
engageret
##istyr
klæder
opm
indvendig
dahl
begrænsede
ble
##ørt
uænd
##dj
dick
##ministeriet
pur
gatur
opnaede
booking
vidunderlig
##centeret
loc
lux
##aland
##ologer
knytter
duften
database
bern
bluetooth
tykt
##boks
##brand
game
darligere
teknologien
dys
tilsendt
kaptaj
ike
angaende
##disk
soveværelset
udløbet
stive
kristen
##teringen
indtager
bemærkes
##jerner
afstemning
glatte
turnering
1992
forsvaret
##raf
##ally
teorier
hæfter
deg
ulovligt
frygter
slagt
filosofi
bagage
##grad
fjernsyn
udgav
armb
temper
##itutter
##strand
respektive
##slo
malinger
opføre
fusion
##garanti
gradvist
udfordre
##admin
bly
##ono
maksimale
91
talet
ledig
##endelses
selvtillid
##yndighed
risikere
350
forlig
##rikker
isen
døbt
nakken
komfortable
utroskab
procedure
arbejdsmilj
autoriseret
##flader
vindmøller
ærgerligt
anker
##ible
##work
skyder
##sprocesser
forhandlere
##skabe
undtagen
##aldet
testen
tina
##ledninger
bt
fæst
stabilt
##steurop
leverede
højden
indslag
seriøse
sænke
sommerferie
forblive
nad
marc
udformning
ligestilling
fel
eas
bestaet
fortolkning
##aker
##klass
##fravær
udenom
præsenterede
procedurer
sexfilm
udenlandsk
indtaste
skinner
chr
betragter
elektronik
##interesser
##elementer
##spær
udr
179
hak
udfyld
blæser
ubegræn
intellekt
angrebet
inddragelse
lg
mord
parametre
løv
tasker
pikke
university
legeplads
supple
heriblandt
skabet
skadelige
tilsat
##familie
barb
jagten
koloni
beviser
cb
##finans
indhente
opgjort
party
md
udveksling
julefrokost
bemærket
afholdelse
anded
##icer
aks
øve
lyt
1994
moun
omdrejning
udtalelser
##drene
støttet
faglighed
fornemme
sprede
ulykker
##rod
begravet
kombinerer
konkurrencer
medtage
oversv
skjern
trag
centimeter
tov
##vurder
temperaturer
fascinerende
nummeret
indtage
skaden
teenager
gitte
lægerne
##briller
beaut
##butikker
tilbøj
svind
porcel
vellykket
##verdens
##inal
trappe
tømmer
gag
slottet
smider
indgreb
rykke
##wor
##beskyttelse
##leve
opstilling
visuelle
##stop
justere
tilsluttet
##niveauet
garde
rolige
grafisk
##elskaber
bevægelses
pra
##venligt
##smetoder
kulturer
##stuen
ordsprog
##dannelse
trade
step
##anvendelse
tænderne
erstattet
forsøget
hukommelse
##bevis
arbejdsdag
omtale
militære
kvindelig
##olet
borgerlige
##oversigt
dannelse
pakræ
hvalp
madlavning
finland
##meldt
sorø
##ministeren
drop
##holdere
hert
office
christina
indbetaling
bestyrelsesmedlemmer
##mg
kirkegard
kontaktet
bidraget
##anstaltninger
mp
kastede
grene
sigte
##istrikt
##lænd
slas
lone
##pladen
spørgsmalene
##tro
tilbagevend
ambass
##esvig
##asker
lagerstatus
busser
hash
højttaler
nap
##tor
##beth
fjernelse
opstillet
ligne
##smøder
kollektion
arrangere
arealet
##fatter
haha
indenrig
skiftes
access
sindss
forsigtig
nike
mose
##bek
##pose
færdes
cons
lasse
klinikker
##orgen
undersøges
grat
##aktive
olien
moderen
ukendte
længste
##ødte
##acks
1993
energien
##inkel
rap
puls
container
stier
udkommer
interesserer
##gaven
uddyb
begrænsning
respond
performance
##vision
produceres
##drage
fremmer
trænge
ideelt
røver
bagved
brancher
flod
regnes
##forstyr
##regulering
andelsbolig
kontinuer
##handtering
svej
sitet
##høje
begær
destination
fastsatte
rosa
synder
##læsning
cirkus
##sklub
##23
skæbne
hygiejne
pressen
rækkevidde
fremhæver
##klasses
##sem
##ikel
plu
hat
bemærkning
bevilling
talmodighed
sound
##salt
invitere
##aliseringen
##ingborg
nyttige
samfundets
forarsager
##ælles
pressemeddelelse
familiemed
##cript
overskriften
straffes
see
psykologi
forhandlinger
udgjorde
streaming
udlig
sab
pulver
##sektoren
##organisationer
teenage
husstand
cali
##mødet
præf
forsvundet
bæredygtige
lego
ultimative
##usi
differ
##akke
tendenser
##ræs
bat
##etil
flash
mentalt
##esæt
##sættelser
symboler
skæl
projektleder
søgeord
##adgang
##hæv
redaktion
##رررررررررررررررر
html
knudsen
tviv
decideret
kvant
sandwich
klippet
gigant
##stein
tydelige
cirkel
##teks
undgas
behagelige
##sto
udtalt
kvalifikationer
naturens
bydel
excel
##sau
##afstand
##linjen
forklarede
friluft
miljøb
##ssag
foreslas
nets
salen
##obi
udgivelse
bremse
##ørne
sygeplejersker
skjule
afskriv
##pilot
kompetenceudvikling
trine
passagerer
estim
fortrydelses
hjælpen
overvældende
##ju
gentagne
##handlinger
højesteret
skæg
afvist
seje
##ørger
udledning
balancen
vordingborg
tex
ægløsning
glemte
amm
synspunkter
##studerende
overflader
abenhed
dokumenteret
##ifest
potentielt
slagsen
navigation
##pal
champagne
relativ
danskernes
##eddel
##agtet
pulje
##kerne
##kval
##alismen
pist
burger
##rin
##irts
fyret
forældres
porcelæn
erstatnings
oh
##farver
alborg
##skamp
forlaget
frederikssund
flittigt
kugle
cpr
redig
##emin
landd
syrien
djur
færdsels
ye
sangen
palæstinens
##kasser
lev
afsender
##udgift
konfigur
##øjt
##forum
birk
aldeles
pragt
højsæ
fortsæt
beskæftiget
vikar
kostede
mentale
bræt
dort
koncentrere
helvede
lilla
alf
appetit
østers
angivne
full
schmidt
roc
glasset
krigs
suveræn
ama
##imentet
vietn
hundred
butikkerne
##præst
ansøgeren
følsomme
hængende
##fakt
premium
badmin
poolen
##vejleder
fantasien
##wn
##kkeligt
ulemper
regi
178
##45
igar
swing
udtale
afgive
fratræ
gennemgaende
landbrugs
##skap
tricks
altan
dykker
skabelon
slettet
oversat
vagner
##cykler
endog
ein
##cker
overholdes
nak
##svin
sætninger
erhvervsdrivende
langsom
tilpasning
##sborger
feber
##ejere
hvorimod
køer
jor
beslag
overføre
malsætninger
##adt
studere
organiseret
kendes
##egu
##ædet
krydderier
bou
##ømning
ophæng
atl
usædvanligt
smid
sygefravær
streg
##sikkerhed
##cerne
forretningen
fran
kredsløb
besparelse
##illeder
##illings
handfuld
menneskes
provin
##vurdering
##sbegræn
sejren
snarest
##ago
antages
straff
##don
skiller
##stest
smab
karam
oprettes
nysgerr
imødekomme
fornyet
udtrykket
##ature
efteruddannelse
betegnelse
tilsku
##ærkning
krydser
##rine
bindende
opfordring
fortiden
##produkt
gentlem
jesu
rehabilitering
sydvest
informere
likvid
konsekvenserne
inventar
patent
provok
nit
helbr
##behand
gb
ts
##how
##edia
kæmpede
investorer
intu
kanter
garanterer
midlertidige
##ira
##registr
træerne
toilettet
like
koncern
firkant
##inding
##elund
##esi
sup
motorvej
##ila
favoritter
beskrivelser
##eskov
work
halsk
##levende
##spark
betegnes
samarbejdspartner
bjarne
appen
hensigten
##amerika
udbuddet
fortællingen
portal
angiveligt
hentes
##ytten
##75
berørte
tillids
olier
ører
nødder
manuelt
bedstem
##allet
borgernes
##istret
##mesteren
stel
tjenesten
andedræt
kle
##aktiviteter
##funktioner
##yggelig
moduler
night
opfatter
lister
##vik
matt
betændelse
##sgiver
bekræfte
bruse
ignor
arsregnskabet
undvære
##valgt
vognen
markante
##kynd
##ota
kampagnen
politiets
##fug
##stab
##sbetingelser
mobilen
##kkens
##boende
##ew
##banken
eksklusiv
geni
henover
titler
##søgning
##lic
pludseligt
##sebær
seb
sproglige
##orten
bjergene
allermest
efterretning
##administr
firm
unødvend
anmelder
##ødt
aktiviteterne
did
afstanden
forestiller
##nie
##spræ
##aver
audi
##svilkar
stikker
pabud
##billedet
##uh
primær
jysk
kalenderen
inger
##board
viking
##esse
tilkende
##asket
syre
indsættes
brændt
pabegyndt
varmer
cel
kærester
nøglet
genoptræning
stald
tilbagebetaling
skjorte
sundhedsp
tabellen
oplag
skiftede
##indsigt
partnerskab
##affald
##ædre
##apeuter
forestillingen
afst
opholds
##35
progn
opfordre
vækker
forlænge
menes
posted
##sprinci
læne
aircondition
reception
erhvervet
fordyb
landsbyen
forbruget
##padvisor
wall
##væv
vibe
alsid
##jorte
kemikalier
##processen
##prov
##fordring
##brid
##igtige
sydøst
trussel
lase
kriminal
retninger
førsteklasses
knus
trold
##smer
sporet
##spot
brugernavn
bølge
mineraler
objekt
guider
eksamin
byggede
ishøj
væggene
indkald
##lesen
kaka
ingefær
##løn
folkes
style
spises
tyve
bacon
##lers
dukkede
blodsukker
parfume
##ækkede
hjertes
##skning
silikone
sparek
gø
puder
skiftende
##ktorer
workshops
fornødne
##familier
tomat
brudt
tilkøb
indstilles
##ikationer
##givne
bevaret
##syge
bemærkelses
dokumentar
##model
ligeglad
materiel
##ængden
##rater
velholdt
taletid
##trin
anskaff
##fælge
kwh
trykt
certificeret
kanon
families
##italer
smiler
##numre
virkninger
suppe
sr
ordren
forbedrer
jødiske
overgangs
høf
kollektive
diff
undervisere
ansøgere
celle
##ption
digitalisering
soph
arbejdere
##øste
tilbringe
lomme
kedelige
gentag
alternativer
##retninger
indimellem
parlamentet
griner
stærkeste
grundejer
overnatnings
##amente
cub
tydeligvis
udmøn
bemærke
##ledere
bæredygtigt
munk
dødsfald
accepteret
løkke
vedhæft
rang
##blog
prioritering
hovedparten
##pri
##inks
##steg
##delige
afvikling
sure
kvælstof
forsendelse
drab
stater
mobning
##orerne
serverer
##faglige
cookie
imponeret
##cing
##skrive
udtræ
indeni
##vald
anholdt
##ypten
betydet
forlænget
youse
republik
erkende
##eligheden
forgæves
revid
sax
lejre
dol
indf
strøg
##styper
udstr
honor
##adset
ms
slave
blogindlæg
odds
hobro
card
impor
tripadvisor
##dragt
afhjæl
rar
bin
nutidens
pix
harald
##farvede
pladen
betydelige
handlet
perler
repl
anførte
##ansvarlig
ihvert
nydt
kloge
produktivitet
knapper
versioner
kod
##grunden
forsynings
teknologiske
skove
udland
oplad
##ægtig
ort
konkurrencedygt
kurt
##olo
mæt
vintage
drikkevand
eksistens
forsvare
##sselskabet
presser
##slund
entyd
birgitte
christians
ey
ordres
husleje
##telig
persondata
##ygning
##ansen
suge
##vendte
##følelse
resulterer
##ederne
desper
vinderen
##urd
turisme
udfordret
marken
anmeldt
arkitekter
##sfolk
##ua
aer
mande
modstander
færge
angriber
ørken
##figur
##skabende
koncerten
college
forbeholder
##udlejning
##uth
##afrika
rønne
hotellets
##sher
##djurs
referencer
kunstneriske
romanen
##ating
meninger
webstedet
uform
##planter
badminton
festivalen
kampagner
gend
else
prioritet
wordpress
sammensæt
##ansvarlige
asfalt
skæve
##posten
##pig
##skes
drømmen
##ble
##ligste
enter
##smanden
tasken
deltagende
afvise
kvalme
##fs
strømmen
djursland
californ
##edie
usyn
ydermere
skille
semester
luther
brude
balkon
ordrer
blogger
ukrudt
sjovere
drager
indklagede
østlige
aktivering
fetish
musikere
drivhus
layout
sankt
##ovne
##foreningens
##ami
snu
##agede
##avis
##vivl
akupunkt
##pert
styl
##porn
lotte
formaet
##ummen
kristend
teoretiske
ledighed
##aton
##idlet
sos
disciplin
podcast
dogging
røget
##forstaelse
anvisninger
tisse
hopper
vennerne
egenskab
serv
støvsu
teenagere
iøvrigt
overvejet
##ørsel
vesten
stævner
skur
frisør
##arkedet
sammenlignes
passiv
grundtvig
bn
deleg
bønner
##øf
##skultur
brøn
derover
værdig
beslutnings
uændret
fremstille
lovlig
kommercielle
transform
børnes
cec
overflød
leveringstid
##fel
absor
krone
prag
retro
kartoffel
øresund
struer
##bygge
##markeder
##ssystemer
rydde
bevidste
fertil
##mmene
add
frafl
skruet
##sfortegn
vv
##ømmes
##fælles
slemt
##ulerede
uforgle
folder
allerbedste
assistance
gemmes
bibelen
##mmens
fysioterapeut
henvise
ledes
gis
indsamlet
ekstraordinær
stadigt
##forbind
spøg
ejerlej
udnytter
##osten
mangfoldighed
knaller
media
##spul
brødre
berømt
cost
mich
opkøb
hersker
##handlere
fugl
##jakke
##kalde
refleksion
hey
gramm
udførte
##endomme
forfald
globalt
overlever
stockholm
ophæv
dimensioner
fos
forstør
besøget
koncernen
informer
##orge
ændringen
grove
talrige
##ænket
kongres
faser
##ynger
tjekk
barsels
##svidenskab
skruer
sog
opfattes
##kreds
solo
##styrken
besidder
løgn
fix
1920
##udder
manuskri
1½
etiske
##smiddel
##stræning
iron
##nettet
dur
akkredi
redaktør
tradløse
##erg
##ægning
kaffen
forsinket
##aldrende
##lor
stjalet
##fjord
##pakker
##opr
rødvin
fremhæve
adm
iso
planlægningen
##pulver
##eds
klient
sexliv
tredjedel
opdaterede
mul
##ribende
gris
sodavand
##konsulent
##klagenævnet
energibespar
##cht
hyl
iværksættere
forsvinde
az
brande
##jysk
arbejdsliv
fus
kanin
retfærdighed
##tegnede
##elærer
ferier
##uddannelserne
##yndes
udbed
konsult
lynhurt
manedlige
erstattes
placeringen
key
hjort
anton
afslutte
visning
associ
das
bilens
solskin
kammerat
ikast
##bruger
udflugter
udbrud
godkende
radgive
##ificere
yousee
specialister
afrikanske
##bror
##kore
first
slidst
##salg
##østen
underskrift
##ydelsen
nærhed
##veksling
blære
egnede
##rids
følt
obligatoriske
indsætte
vip
##mund
demokratisk
##klædnings
fordeles
kendetegn
##con
begrundet
##eligheder
fryg
bjæl
wir
linie
udflugt
tænkning
hushold
samsø
musikalske
##øjen
byerne
vinduerne
obligatorisk
landmænd
genkend
gluten
##kop
sulten
afspiller
prinsesse
genrer
period
eksperiment
##ahl
indrette
abn
ubegrænset
konsulenter
##varmet
anser
normer
mikrof
flæ
figuren
##abeth
afgøres
tilsagn
bevares
skærme
utryg
længerevarende
##elles
indbyggede
bekendtskab
sygedagpenge
syet
aktiveret
indian
lokalet
##forsøg
udfordringen
dollars
##ensigt
karri
##delser
music
motorcykel
afgr
oplevelses
elsket
beskeden
nerve
prioritere
gardin
##glas
sløj
##syk
##holdenhed
##sministeriets
regnvand
##alem
##landing
kirsebær
ydmyg
##serie
omstilling
alverdens
comp
agen
tort
##nit
sønnen
underskrevet
charme
komfortabel
patientens
parcel
##leren
##akken
gladsa
pj
nordjyske
forretninger
afkøl
##ington
uenig
##ways
betegnelsen
##svar
##skj
juice
##ninge
litt
##problem
grundlov
gall
alp
##kursus
allesammen
toler
nedlagt
antibi
forsikrede
timen
##vold
py
skynd
klaver
indberetning
vanskelige
konfr
kommuneplan
massiv
overh
katten
hardere
saret
udøver
kompos
##neren
##ula
indhent
høns
##forand
føltes
drog
konferencen
opdateringer
tele
news
ejendommens
bygningens
##andel
cafeer
datoen
boksen
##ij
bow
##prof
##ømmelse
nøjagtigt
##pasning
##bered
tastatur
efterlade
dile
##sanlæg
jas
science
afslutningen
##ugh
kronpr
##kirt
##overskr
indretningen
skemaet
sony
stikke
##ref
##formal
elektric
mikkelsen
glimt
tinder
lønmodtager
fucking
ikea
##hor
##web
resume
tiltrækker
##ikon
borgerens
romantiske
1930
##skrævende
ihvertfald
faktur
kaos
##teligt
straler
flis
motorvejen
dagligdag
manch
betragte
biologiske
fejlen
##firmaet
stau
##voks
##just
fleksjob
ekstraordinære
vice
rabte
statsborger
avl
cum
##foruren
late
##bod
funktionelle
onani
grine
fortryde
##ansatte
uhensigt
##hamm
##hug
tradløs
eksisteret
kontrollen
##orienterede
dyrlæge
døds
voldtægt
udløber
overførsel
tavshed
##musik
##ute
fuldkommen
##ejle
sigtet
ambassad
villige
##konto
karet
hill
cow
hævder
##eling
kin
##ekont
sprang
novelle
medarbejdernes
##otten
værdifulde
##light
##lager
ambitioner
polske
##guide
meddele
varede
##sfuld
modernis
##war
kik
fattigdom
##inske
seni
synligt
opfører
fordelene
informations
##stor
forstærker
##bat
plot
subje
##nden
##sdygt
##rive
delik
dispensation
formidler
aktivere
handtag
control
fjen
forekom
dollar
begejstring
afspil
annuller
satell
##trykket
##ulerende
julegave
forbindelsen
førstehjælp
brændte
bemynd
##ete
lil
sagar
billedkunst
handlingen
meditation
sammenligner
sejlads
græspl
indikerer
##bestyrelsen
##altid
##umper
##ykket
hamborg
stir
##ato
indkom
1940
william
forældrenes
##shoppen
tjekker
optimering
ikk
hiv
hellerup
tommer
udfold
pasform
##helm
##ellerup
knepper
reder
##præget
##vaben
nade
swi
biom
##mærket
hva
##æppe
sarbare
tilfl
##zonen
belægning
benyttede
diæt
##ameter
konkurs
michel
force
##cd
##vækkende
frekvens
indsamle
uoversku
##økonomi
hovedstads
udformet
ovre
##gøring
studi
##optim
definere
##ikop
1991
elis
maves
##igede
sle
modtages
karakteristiske
regnskabsar
cyber
track
ruter
kriminelle
##sklasse
opsamling
##ularen
##last
##stabil
evig
##biblio
forvaltningen
indholdsfortegn
##arin
menneskelig
##iderede
mobiltelefoner
guiden
##odes
dybden
væd
##bekendtgørelse
fax
spins
nært
tilsættes
aff
sønner
deaktiver
##chefen
vindues
fagfolk
rører
lander
intime
##ikeren
vasket
politiker
montere
fysi
centre
sæs
bukserne
skrivebord
kneppet
objekter
hyr
udnyttes
formulering
##indende
parkeringsplads
nægter
##skue
uf
afleveres
betalingen
jyllands
kombinationen
##rets
signifik
##hing
beregne
flyder
tolk
klienter
margrethe
vet
legend
##lon
plug
rov
nationalpark
##faldende
milde
indgik
##bom
##produktionen
##isolering
outfit
##endet
tyskerne
sanne
udtalte
nysgerrighed
læben
##ssygdomme
forfrisk
henvist
##klip
omdan
##faciliteter
talenter
kombineres
krisen
pakrævet
godtgørelse
justeres
##husene
tales
velt
sarah
besværligt
##betjen
energiforbrug
alter
take
øjeblikke
urter
bestræb
supermarked
indgaende
##cke
rejsning
rednings
nemid
cecil
engagerede
bekendtgørelsen
hjemmelavede
elend
offentlighed
##dækning
dron
forme
offentliggøres
vagnede
fejrer
klageren
trom
statsforvaltningen
##itime
markere
1989
##ael
##ampoo
oplader
emma
sædvanlig
##beting
##sprisen
arevis
mundtlig
##færen
gladsaxe
177
plakater
##sters
watch
##smassage
ophører
##arre
##egul
##irke
stilarter
afstem
##itative
##sorganis
skide
##vokater
kvindens
økologi
elegante
fanden
laget
kompat
klassiker
folketingets
straffel
revideret
##ommes
cph
absolutte
kontrakter
traditionen
ophavsret
udskiftes
##eskole
uddannelsess
ruller
opmærksomheden
gerningsm
ft
afgivet
##ktivet
energis
dankort
1700
skæres
##etagen
vaskemaskine
afvikles
##elight
foss
rediger
##ture
mødested
##systemer
binder
illust
nedsætte
ødelægger
##okal
opkræves
lift
sære
##svalg
##iøst
##falder
what
indsamler
##advokat
##søgende
oksek
##fu
##fordeling
fremsta
fordob
oplyses
##eje
helte
inders
undrer
manifest
##smerter
##vagt
vanilje
##alistiske
regul
elektrik
rak
manip
kortvar
interviewet
enhedslisten
search
fornyelse
bronze
nybeg
##usik
konen
torv
rekre
lob
akutte
##isbrug
glans
dvær
##cial
kosten
psykiatri
urim
indvendigt
##agter
klaret
scand
betydnings
##deler
hviler
testamente
asi
she
gødning
porteføl
landevej
straffe
insekter
kontrolleret
udsendelse
slukke
tests
superh
##ydere
##26
wild
dommen
fortolk
##akers
##faring
engel
udvides
udskifte
dispon
forsørg
medvirker
grimme
returnere
##99
##uddannet
sommerhuse
##bevægelsen
uundvær
##ants
studerendes
sygehuset
tam
igangværende
stævnet
overgangen
justin
næringsstoffer
potter
derinde
opbevare
stationen
relaterede
##valtning
##heim
designe
takst
fros
bart
how
budt
lovede
planten
dc
forsikringer
putte
retfærdig
tul
anbragt
omgange
##hosp
##rerne
udskrift
indvendige
##fic
udsolgt
aspekt
københavnske
flet
##ument
bise
mountain
##lets
komfortabelt
trykket
nark
opgørelsen
informeret
##arup
medført
##psyk
larm
oce
##date
jævne
efterkomm
udbredelse
kvm
##27
##stype
mestre
blonde
marx
konsistens
bringes
formet
tjenestem
katrine
##æste
handklæder
forklaringer
intelligens
kørsels
psykologisk
##æster
fremstilles
1945
##født
cab
opholder
##usse
elevens
adskilt
palagt
##28
##havende
henriksen
rugbrød
jævnt
offens
frys
##nets
ombygning
næring
kæmpet
##apt
travle
##aria
søm
contin
skod
forord
dedikeret
skulptur
indtjening
hindbær
rd
andelige
##ødende
jane
ubes
3000
##agers
prisk
passet
sædkvalitet
##projektet
##bul
kostume
arstid
##itteratur
##kirke
beklag
ege
sd
##meldelse
mathias
jp
##gets
holly
##reglerne
uddrag
privil
budskabet
bevist
fordelingen
meddeles
lommer
bakken
vigtigst
fif
##itum
papiret
dor
##datab
blondine
alexander
afghan
##skæring
##ipper
##ejse
prioriterer
idi
sier
supplere
holdbar
##reres
##beskrivelse
sejre
udvider
strømper
##gørelsens
berøring
##største
ist
##øvning
margin
bum
##shje
##alistisk
ergonom
process
fabrikken
radgivere
vindmølle
dad
nikolaj
##lignende
blandingen
registrerer
sæsoner
modern
seminar
##sbo
klipp
school
##slys
glider
##plantning
poser
renoveret
elektricitet
ask
udgivelser
hip
##tex
##ænkte
tablets
##ст
##museet
tomater
##ikation
fryse
prest
casinoer
statsminister
##programmer
afhængighed
##igende
gyldig
arrest
##radets
main
overskydende
##motor
kommissionens
markedets
forpligtelse
albummet
produktioner
redning
badet
rustfrit
blander
screening
afviser
##usser
eksistere
hale
##amenter
befolknings
##abonnement
søgeresult
gust
fremtidig
famili
strategien
hidtidige
dykke
trends
infektioner
##nød
krom
musklerne
runder
massive
##atisering
mellemstore
##funktionen
undertiden
etape
magisk
assistent
kompensation
kole
##oligende
##kkelige
synspunkt
renten
rørt
variant
introduceret
skubbe
##sløn
kommentere
planterne
udlan
##saften
andelshaver
##kka
udnyttet
manuel
handværks
road
uber
skandinaviske
##ænding
græsset
tidsrum
##egnelse
slaget
akust
##zo
garage
opsigelse
interessenter
legitim
distribution
saal
geografisk
fut
##kron
impul
##værktøjer
moderat
##ungen
##ope
abort
hypot
##idi
vigtigheden
bredden
thorvald
mekanis
otto
##trafik
gælde
buffet
danser
##mers
handterer
##odtgørelse
metro
riv
bega
##vinder
forventningerne
barer
tilbaget
repræsentantskab
##materialer
##drup
platforme
eksemplarer
besvaret
##linje
langtid
##delte
lynlas
##klubber
udnævnt
gennembrud
##garde
transm
basale
dry
##alid
børnetøj
foreslog
ytring
##adser
bærende
derud
##vægge
##kryd
øret
afhentning
tjekket
blank
leif
##afsnit
kulturen
##klædte
opvaskemaskine
skuespillere
kabler
foreslaet
sprøde
##uet
hotte
stine
blogs
keramik
tredjepart
indiske
##versioner
##frø
sushi
pude
oliem
regelmæssig
inklusion
arabiske
##invest
##lærte
truet
aftes
trail
sekretær
gæng
hentede
pav
ringet
bbr
rummelige
aktiviteten
medregne
ledning
dramatisk
vejlede
panel
omgaende
##yttelsen
europe
fuldtid
##ikkert
##rerende
koncentreret
##hm
##smulighed
jok
allerg
rykket
involverede
pressede
brutto
opholdt
jeppe
skan
##sejer
register
##saftaler
stikkont
rabatter
##ræer
##samfundet
linse
vægter
medium
uddanne
murer
##elskabet
hormoner
messen
stykket
gryden
underlag
##alth
stribe
aqu
betalingskort
kunstnerisk
fods
afgiver
tankegang
smitte
ekspedition
tub
puljen
opholdet
reservedele
##sfond
skønnes
refusion
tilværelsen
fis
##abol
hospitaler
tillidsrepræsent
øvre
##lejen
uddannede
##asiner
##odel
svan
##esh
bruun
flyet
enkeltes
smelt
kreativt
mexico
opgive
fristen
teknologisk
jernban
konfirmation
dufte
diskussioner
overkomm
intelligent
lune
videok
page
##avirk
betalinger
indholdsfortegnelse
1200
sommerhuset
kroniske
undskyldning
##talende
sir
##bringer
##konstruktion
forhøj
##undersøgelsen
anat
overtager
##compu
sengetøj
pp
##klo
oksekød
##resp
optræde
bekendte
efterlad
modtagelsen
null
strenge
ansætte
gylden
vagne
mesterskab
george
undervise
hullet
grus
##meldinger
##junkt
lisbeth
skept
tungen
##akes
djæv
depot
safar
garantere
uddy
snapchat
##agner
bedr
eftertr
forvær
##producenter
nøgletal
##okset
opføres
slaver
gynæk
caroline
##pligtig
medfølgende
##sdage
slide
handsker
bekræftelse
ravn
vejledninger
vestsjælland
wash
##direktoratet
drink
spændings
betalingsmuligheder
badekar
trailer
##idigt
bærbare
iver
fængslet
opvækst
hvormed
##forretning
litra
varierende
magiske
easy
opsu
##sterol
udbredte
høres
##amera
arena
forsvarligt
pædagogik
individer
##almind
finale
vurderinger
##athon
pengeinstitut
nyttigt
skærer
buket
venstrefløj
dirigent
opførsel
sanse
saint
ejerskab
christiansborg
##lysning
depos
trapper
##grupp
sexnov
##sbud
offentliggørelse
##fterne
##ræner
portugal
udfyldes
justering
nysgerrige
videnskabelig
præcision
skelne
bygningerne
mole
##akker
bemærker
fedtet
##nord
madrid
jar
blink
løftet
ink
lanc
kinder
##pass
beskrivelsen
##indkomst
##delses
trægul
fordøj
low
baret
##ibel
sammenfat
børnebørn
abningen
nud
meters
udfordrer
udvendig
##hjemmet
chris
omsætningen
brasilien
fy
##safdelingen
spejle
galax
aftag
hjemsted
##yttende
subst
fremtrædende
bevise
fagforening
chauffør
##itch
resultere
landdistrik
shoppe
passerer
konsekvent
katolske
vedtægt
arkiver
ualmind
arsagerne
gene
blandede
sundhedsfag
kid
##allen
afhjælpe
bønder
cir
givne
cyl
skolet
buske
solcelle
uventet
##overskridende
menighedsrad
beklædning
inddraget
##sforeningen
sammensætte
indeklima
##endal
vandtæt
langsigtede
griber
mailadresse
sejlede
##heds
ændringerne
lektor
turneringen
##ønt
ræd
##ynt
##ladet
opgøres
cann
##uner
##emed
besat
tilbudsgiver
dumme
##øbet
utilstræ
indvirkning
wien
spilleren
mellemtiden
kurv
ringen
kontoen
amts
##tets
##hat
##ænkes
fremmødte
jal
hensyntagen
donald
fisken
ultimo
belgien
ensomhed
drøfte
appelsin
##styret
overholdt
reserveret
##berettigede
magasinet
forholdsregler
##aldo
bjerget
kvindes
opførelse
##virke
vandrer
overskuelig
finansk
176
##gørelser
skuldre
fynske
punktet
medlemsstaterne
##hion
carls
##redes
##byggede
biog
persondat
##god
ulla
overlæge
##fjer
skyd
høringss
jordenssalt
revolut
vamp
##orit
problemstilling
gunst
holger
argent
hier
identifikation
vaskes
arkitekton
lugter
tyv
vældig
vidunderligt
dømme
clo
teorien
dtu
tildeles
beskidt
flir
##omot
klost
bestilles
##øden
takker
##icitet
kryp
sluk
smykke
##sned
forhandlingerne
latex
river
domina
grebet
pege
image
stere
magnus
##lu
##meldte
universet
##emaskine
blikket
konvertering
liga
##indsatsen
betragtet
meldte
tommelf
indgaelse
trængte
alliance
##historiske
ji
forbrænding
konkurrenter
##egruppe
laura
##beskyttelses
satse
##34
laner
masker
forkøl
##bang
værkstedet
##institutter
##lysende
##sprogrammer
kontorer
medlemmet
resulterede
obligationer
landsbyer
spæd
fortrins
nabol
##gens
overskue
shirts
##utik
##skilte
kviklan
##ksp
mindret
##raktik
summer
plantet
allerød
##retningen
##shospitalet
##edler
##ellerne
hæder
##oriseret
hyppigt
##fristen
##fugle
omend
##illen
omraderne
true
agur
energimærk
psykoter
guddomm
dorthe
stjernet
ultr
blæse
kasserer
lejemal
anmode
afbetaling
interiør
ungdomsuddannelse
vasker
fuldtids
organisk
fall
pærer
abenbar
##kjær
##rundlag
grænseoverskridende
medbring
##rapporter
lilleb
##søgt
5000
mekanisk
spids
##usalem
forsinkelse
gartner
sagerne
oslo
forklaringen
hvisk
jet
civile
kontanter
water
vinkler
tin
farvest
##eskyttelses
tidsskrift
mandskab
psykologiske
kind
drøftelse
kajak
miljøer
kammerater
stresset
##kysten
slange
##parret
fjender
bekost
skif
##virksomheden
langsigtet
##ammer
tælle
eksponering
rive
blæst
klipper
udsendte
##fæst
afdelingens
irritation
leon
shorts
prostituerede
tilstande
##ægtige
##mands
lejet
##rænet
kvittering
filipp
smith
sene
kemisk
##sdagen
foreslaede
ejerne
direktøren
orientere
museets
stolthed
inflamm
ansøge
udbuds
lemvig
##ology
amp
naturstyrelsen
hjemløse
finansiel
virksomhedernes
barri
opholdstilladelse
##æler
understrege
##pol
geografiske
øde
undtagelser
tig
##stenen
christiansen
undlade
##idas
orgasmer
mortensen
##horn
##hunde
tilvej
blat
##lærer
##urgte
palle
##sbeskriv
arrangerer
care
bevægelsen
meta
udstillings
##ænken
fremgangsmade
know
videres
maje
##søgte
udøve
johansen
uundga
irriteret
tilvejeb
adgangen
olymp
forklaret
mw
lokalomradet
spray
etnisk
papeger
erkendelse
chic
ugentlige
##ova
##kg
varetages
##ause
break
julekalender
børste
panik
nick
fornuftige
webshoppen
head
tilfredsstille
klu
disney
bogstaveligt
##alat
tod
edd
flotteste
ubehageligt
drak
##etrin
javas
##stjenester
##malet
sagsbehandler
##mestre
opdateres
dæmp
sekretariatet
vall
##inkt
sats
rejsebureau
galaxy
særdeleshed
##steknologi
betjene
bost
medtaget
speciallæge
sigende
##plus
##nering
bøsser
gætte
hallow
##aliseres
long
fortryder
##ovs
autentisk
besvarer
size
##marks
weekender
gest
forlænger
udløser
hjørner
kollegi
tilrettelagt
forbrugeren
ydelsen
fanen
##fler
##spsyk
kunstig
websites
velfærds
formelle
forvirret
garderobe
##mærk
arbejdsdage
##bass
##fasen
verdenen
jernbane
katja
lovforslag
105
sanser
samlingen
klud
##illon
travel
eftersyn
##otion
bast
kontr
kulhydrater
distri
forfærd
konsol
drejede
##dis
ingeni
##sor
præpar
##ænget
messe
lederne
##eldet
folkeskole
fonde
bing
kolesterol
##amfund
suger
specifikationer
##fan
optræden
biologisk
bibel
xl
##etur
dragør
musikalsk
regionens
##room
øjeblikkelig
aktindsigt
nicolai
badeværelser
omega
overbevisning
##blomst
##historien
thaip
udbydes
hytte
antyder
kristendommen
##bygninger
klam
knald
langvarig
view
redigere
##rygende
##rap
##jagt
poet
ryddet
nedsættes
etableringen
kjeld
embedsmænd
natursk
varmepumpe
javascript
kvalificerede
adhd
mærkelige
##mas
dræbte
surf
##raden
##ters
stemmeret
##bestyr
kroppe
handicappede
kompakt
wow
løbetid
##nøg
migr
kennet
mindful
ajour
forældede
112
fornem
præferencer
skralde
##stret
socialdemokratiet
eksklusivt
##kirk
opgivet
ket
efterars
indføres
##udsigt
positioner
logisk
##dygt
harddisk
forstærk
æres
bølger
bænk
redegøre
ondskab
##yo
##emaer
bankk
porto
indskræn
friis
##ommere
##sfest
peters
anmelde
##ergi
linjen
##resultater
relevans
forespørgsel
##klus
##kompeten
diagnosen
##krit
overset
kortlægning
bondage
tyveri
##edning
savn
pølse
##urat
grønlandske
klarede
hygger
hypn
fam
suppleret
spektak
nyttig
##sfrihed
soveværelser
brændeovn
agf
finish
fængsels
opsam
##yndigheden
##rappor
lie
bedstemor
##okalet
skræl
forlyst
##sbesøg
##iten
udgiften
##strakt
libido
formular
streng
komplette
ordens
illustreret
bugt
##stri
struktureret
tildeling
fejler
sprøjter
afklaring
skræddersyet
hæver
totale
ærø
taxa
slæ
humle
##espil
nina
højder
usædvanlig
##temperatur
tilmelder
skrøb
##frygt
##sbest
360
##sky
lur
##rings
##skibe
landskaber
##alon
opfind
koncent
trappen
manglen
##xid
##datoen
hejsa
onkel
mum
vvm
##alb
autoc
halloween
##skerne
kaptajn
##ories
lokalplanen
stok
drinks
sideløb
indp
amerika
##hjælper
skævt
coug
paras
svi
koord
ll
sner
elle
##smetode
pointe
##løbet
fordelen
mellemøsten
nydes
kastrup
##læs
knogler
fjorden
fortjent
kløe
landene
afsløret
hudpleje
##house
##hastighed
ges
specialist
vha
drømt
##gs
banan
servering
ansigter
##mur
forring
forrygende
tros
rytm
efterspørgslen
hastigheden
udviser
##rugt
irland
##brogade
indl
##srapport
##jek
kjolen
##slaede
##stemperatur
kogt
kick
##vamp
biblioteker
fd
skrot
jerusalem
paradise
producenten
afbrudt
raske
##sforslag
iran
fashion
##gjorde
halm
bevarer
skyldig
##festival
rammes
##æsonen
afleveret
slikker
##poser
##pi
tværgaende
hmm
##uddannelses
efterladt
kysse
aflevering
brown
milliard
troet
##sæde
prøves
idræts
##hedsg
blide
##ested
topp
middelalderen
kontaktes
karakteristik
visioner
stødt
kursister
rutine
barber
sideløbende
jette
kof
naturgas
##agens
##ilt
bekvem
gin
dannede
monster
##elys
karsten
whisk
stang
kraftfuld
involverer
nordea
##sliste
mærkelig
lort
intensiv
##sner
redaktionen
##cle
grafiske
kommunalt
behjælp
vanløse
frederiksen
dræbe
udredning
maatte
casper
neutral
zink
indse
forfærdeligt
caf
ekstreme
krimi
juleaften
##ws
##skad
pauser
##bræ
kondens
abonnem
##mælk
##adisk
spredte
opsparing
##elsæt
signe
tilstanden
##itoris
##krop
alufælge
nørgaard
##istand
blæk
##ningsanlæg
##rejsen
stramt
lopp
sexnoveller
who
##skest
vejene
north
mindes
750
opera
svømm
##organisationen
fastel
komplikationer
armband
planlægges
##aborg
overstige
grillen
forbedres
dialogen
fredensborg
præstationer
genind
henseende
hurtigste
##order
##bt
blandes
tilbød
##ican
spilleautom
afbud
kanel
havem
##ragte
coaching
evige
bagepapir
stegt
kommunikationen
##look
##valitet
ubehagelige
##cted
##medicin
campingplads
##lænder
dræn
carlsberg
investerer
cro
indsatsomrader
spænde
husene
apparat
logget
dete
samfundsmæssige
bornholms
undre
parker
gentage
##chs
##inspektør
affalds
got
##indtægter
omverdenen
nomin
##legen
##uts
##aldt
samliv
erstatter
menighed
visuelt
tyng
regionerne
##onna
stilen
udgrav
kug
konflikten
hive
afviklet
skuffe
heter
dyret
spredning
tolv
bnp
bbw
saaledes
##aturer
1600
##stang
indtag
miljøstyrelsen
##orf
tilslutte
modstandere
##ugning
review
skadet
##tryks
##smuse
underliggende
##unk
##forsvar
afdække
##klede
b2
##ansom
etniske
##oliger
vildeste
olesen
matas
fertilitet
diskr
strækning
##hardt
ritu
afsluttede
reguleres
pynte
mødel
##skasse
##vere
broch
strukturer
##programmet
##osser
solceller
vadt
følelsesmæssige
arbejdsgivere
##dej
moment
universiteter
jud
pussy
##wer
kendsger
bladene
fastelavn
forudsig
##ielle
fladt
raber
##kateg
##pakken
tiger
makker
stryge
uhyre
united
##synets
ejede
mandlig
##lod
zon
##master
dikt
hur
##fur
jura
##win
##see
annoncering
undertegnede
vs
værne
høringssvar
plakat
##ilding
markerer
omb
##oid
##rængt
##indstillinger
rejset
interaktion
drik
classic
chil
resort
vejrtrækning
bevarings
tilhæng
uddannelsens
##uktion
invitation
bestræber
omtal
hjælpere
toft
dobbelte
bøv
##ovl
165
mineral
##museum
tok
fremsat
frim
hænde
møderne
##arkite
##neret
psy
bestyrelsesmedlem
koordinering
balt
saad
rejses
videnskabeligt
##inker
udfyldt
overbevisende
##shistorie
indvi
##sprofil
snavs
indsendt
dd
busk
komite
forenings
##29
minimere
##ekon
biogas
bortfalder
skulderen
materielle
##ængder
forbrugslan
##brusk
amalie
draber
udvidede
##mt
dommeren
##arrangementer
logistik
prostata
ufat
stripper
eftert
ell
vandværk
begrænser
tidende
færgen
pligter
##pati
tramp
##sløsninger
optagelser
privileg
##33
bande
territ
afghanistan
fryseren
aa
biografen
pavirkes
kenneth
nødvendighed
##smodtagere
dyrket
ale
fakul
digter
115
##rækning
undersøgelses
frækkeste
##byrd
arbejdsmarkeds
##bestemmelse
bella
##lines
finansieret
##risiko
##delings
arsrapport
##sproget
feriebolig
sandaler
sparet
nato
##klædt
kuld
puds
mejeri
##haret
rektor
lejeb
disposition
landsb
dbu
pornografisk
mir
instruktører
mønt
øjeblikkeligt
problematisk
matche
budskaber
tilskuere
coop
##bakken
##kyst
##egrupper
følsom
##teknologi
pub
ledet
bolde
solide
strækningen
tilbagevendende
self
sygehuse
udgivelsen
faren
##kontor
indtagelse
ky
lomm
diskuteret
domæne
##ен
aftenens
##saut
kede
progress
biseks
akupunktur
nokia
romaner
egenkapital
montage
lp
hundredvis
velkendt
##scent
##orie
indtog
##ji
evidens
##osa
bmw
forfra
##panel
forenede
grise
gled
dgi
slukket
sprød
troels
ægteskabet
udfærd
undertry
facader
ledninger
##card
forførende
pausen
hollandske
søgemaskine
forstaelsen
syndrom
##ville
nøds
indkaldt
placerer
attraktioner
værter
nikkede
gt
hæfte
campingpladsen
dumt
brik
##præm
slettes
sovjetun
##respond
udvælgelse
beregningen
lt
##ference
##lementet
sebast
cell
##bryn
indbygger
##egninger
teams
kvalifikation
##egnen
træf
hamburg
fyldig
lovbekendtgørelse
indsigelse
samrad
rotter
450
branden
vog
##forsker
##video
##prøven
oscar
mai
statistisk
pahvil
kontaktoplysninger
##slutning
##km
smak
##undervisningen
fyldes
##indeks
shampoo
220
valent
neger
opstille
specialiserede
arn
##emiddel
operationer
cere
##ressour
faaborg
sæder
##verne
tilbragte
##skolerne
##sløsning
##osteron
##huller
vænne
klassetrin
mira
lejren
mandler
solned
værksteder
advokater
afklaret
##feldt
vinduesp
##kko
drukket
kernen
græde
categ
bilerne
slutning
stien
##vande
rønt
hh
derhen
lønnen
gangbang
##remal
annet
##vert
konvent
pære
værdipapirer
##ituationer
##isteret
overholdelse
sørget
ferieboliger
##entiale
hag
ensom
præste
matr
administrerende
misund
bleg
skuffer
brunch
berørt
formaede
dersom
##komsten
akkurat
visuel
sæsonens
lommen
romerske
nøjagtige
fugtig
styrketræning
ikrafttræden
sneakers
##sord
webshops
legen
foretrække
realisere
oplagte
##nemmelig
##icerer
ordreside
##formet
##adfærd
##esø
opkaldt
langeland
##yssel
bodil
ørerne
tommy
kursen
vedhæng
gaende
##ison
toiletter
##formede
rejsel
cross
helikop
folketings
sommet
misly
rollespil
regerings
knapt
metod
direktion
varetægt
svinger
##sprøve
aktivitets
tagget
foresk
##iddende
reserve
udfald
fyns
defineres
victoria
richard
kink
influen
arch
visdom
spart
brevet
byt
smagt
##ledelse
medførte
backup
##safdeling
##udvalgets
##urgt
ferielej
klimaet
anklage
pis
dufter
##round
##ela
prostitution
stevn
fantasy
natura
swimming
roll
##udstilling
ios
jen
mundtlige
tommelfinger
fravæl
ærlige
uj
luftfart
besej
anskaffe
reflektere
afled
tape
nyhedsbreve
projekterne
sundhedsvæsenet
mobilitet
hundene
gennemsnitligt
right
anerkender
sommetider
bedsteforældre
arsrapporten
størrelses
handlen
regional
commun
##ов
hængt
ypper
websitet
slesvig
kæden
##opgørelse
behandlings
bremser
afslutter
insister
##sprogrammet
havreg
svarene
sneen
slimh
wikip
organisatoriske
overlevelse
forsamlings
astma
ritz
blinde
##sfil
handteres
marine
hem
##ærerne
sovet
fleksibelt
rune
moral
tjent
gigt
exper
##økonomiske
herlig
##jakker
uren
##univers
tidsplan
tilføjes
kørestol
komplicerede
ridder
savnet
efterkommere
tykkelse
øerne
lodret
stamme
flertallet
anstren
klitoris
1986
faa
biskop
abstra
ydeevne
##cha
1987
##sstater
abningstid
tillægges
antage
aen
religiøs
##anser
sauce
grænserne
funder
jørn
##plat
efterspørger
##ensyn
##holderen
granit
applikationer
skjoldbrusk
##blo
drøftet
roul
spreder
kugler
beskadiget
antenne
bjerre
bif
ilden
cafeen
beskæftige
opholde
##ikkerheden
sødme
ulrik
jordsk
grej
##hard
##gennemsnit
##fjorden
spisebord
##sprøj
##køkken
##ænen
jam
britisk
##ely
##ugten
varmere
dagbog
forsikringsselskab
##kammerater
##egra
scorede
venskaber
false
scanning
graver
##ovnen
##illelse
marmor
bryllu
krukker
##sdato
fordeler
hid
merk
##risen
rabe
##kontoret
værktøjet
administrator
##balance
socialradgiver
diskussionen
cyklus
##prise
transpar
##odkendelse
sexlyst
rykkede
wester
##smøn
##pigerne
karakteren
1988
kunstige
##immer
herpes
biblioteks
lillebror
udsendes
lilles
tjenesteydelser
iværksat
bekve
cigaretter
højttalere
eksotiske
vælter
skoene
##undne
##firmaer
bech
bælte
omkostnings
##irker
oct
sinde
walk
oliver
##eløse
formuleret
uu
##ident
##tradt
frust
showet
techn
##æssig
##apparat
##konkurren
myter
##aby
visu
spore
indust
udryd
##ibning
cin
stimulere
velbe
##otokol
ejes
edder
fætter
knep
mystiske
stres
rystede
observationer
fakultet
gulerødder
egypten
herrens
##uleres
hybrid
##netværk
##sey
forstaeligt
beliggenheden
##myndigheden
##terende
røntgen
##æiske
##ideer
vane
deling
aske
##dør
##ryl
lyster
udskiftet
##grunde
østeurop
##sammens
fyldest
juul
skitser
livmoderen
bispe
overdr
##waren
opposition
udsyn
##forvaltningen
meddelte
##magasin
skak
arbejdsskade
restrik
##køl
fastholder
græskar
hassel
##oskop
undtaget
slots
##run
tags
kærest
spisesteder
distrik
##cs
handled
udleveres
##88
indkaldes
##nderslev
maksimum
taknemmelig
##levej
almindelighed
implementere
##stigning
tilskade
striber
eksploder
eksemplar
asiatisk
afregning
knude
tilrettelægges
##benet
1985
ledsaget
audio
vedtagelse
twe
anken
luksur
intensitet
##dæmp
premiere
hækle
satellit
fælge
formiddagen
eksk
noteret
opladning
mach
##computer
dokumentet
herpa
reservation
##steds
##sgave
##forbud
##overs
indad
beher
smerten
antibiotika
##luft
##sfæng
gængse
videreudvik
tiderne
reguleret
##iti
##lang
olivenolie
rettid
hverdagens
airbag
lakrids
##mmels
dug
brunt
##bekendtgørelsen
bente
##energi
ventes
anette
##kkelsen
color
sensor
reformer
forkort
##px
ordreg
##kørende
søgen
afprøvet
sværd
##ags
herligt
##vinding
lektioner
erklærede
eksperimentere
##elling
amning
miljømæssige
allerfør
variationer
certifikat
##estr
svømning
bunke
navigere
indhentet
flyv
amme
##stjenesten
umulig
indtaget
##ush
was
jobcenter
sandsynligheden
patager
undervist
bortskaff
##inson
compan
##radgivning
brønderslev
nedsl
##undhed
nerves
sognepræst
senget
virtuelle
forreste
panor
popularitet
stationer
skandinavien
ove
klod
amu
gyldigt
##ærg
##endør
lukning
indgas
ranger
testosteron
about
##været
udtryks
tradløst
lykkelige
##løses
lampen
massagen
indstiller
filmens
uan
vilkarene
profet
lokke
bemærkede
ubetinget
adidas
muliggør
appel
fedeste
##oger
skønneste
password
##nummeret
##sfr
##tru
uretfærd
kaffeb
##eleje
nisse
##mød
##kkels
watt
##pede
##asten
hilse
regnede
emb
rende
ellen
kyssede
##atikken
##havnen
stifter
intense
##itivt
oldt
stave
nedriv
brugerens
undersøgte
torvet
230
##frugt
forskningen
opfundet
udbrede
fersk
cannab
farvede
fremstiller
sprit
folde
place
##kampen
hensigtsmæssig
##skompeten
##universet
fremlagt
konstruktioner
##lads
ulovlige
ups
##princi
tempel
forpligter
spørgsmalstegn
magi
grev
fastsættelse
udbygning
spændinger
uheldig
##jere
mislig
samspillet
arabisk
kurven
tegneserie
halvanden
potens
lyserøde
##shjælp
temperament
jung
##opperne
indlysende
mexic
nordøst
stilhed
egetræ
kunstneren
##givnings
fordomme
blødning
pje
depositum
##sbestyrelsen
kredse
##mulighed
ridser
observation
##esikring
##agtede
ordinær
dommere
hollywood
solens
hof
stigningen
tilside
3f
##igtigt
##ønner
kompetenc
krydset
##akadem
ejak
flybilletter
profit
posen
dennis
mattet
##ovet
##undskab
arve
##uste
rummelig
##renover
smelte
sydsjælland
destru
##uset
regnen
rengøre
skattepligtige
conne
ryttere
pabegyndes
planerne
stikket
muhamm
skt
malm
hule
##oney
sigter
mary
fornemmelsen
vietnam
dase
gulvvarme
investeret
##historisk
israels
øens
papirer
##fog
skolear
prestige
aktiveres
mursten
1984
truer
cecilie
trøst
##politikken
gour
tusinder
##aj
##regnskab
lagen
finanstilsynet
##bestemmelser
##brun
nøgenbilleder
brystvor
gruppens
##river
tiltrukket
##rejsende
illustrationer
slanger
##priserne
detaljerne
##less
tilrettelæggelse
##orium
vælgere
familiel
legende
fangede
besætning
malgrupper
essa
ultral
ordne
dop
tack
kier
orlov
ei
age
druk
afhandling
##beskat
##nok
lm
ialt
##jens
##lar
opholdsst
indefra
medlemsstater
##kostningerne
##vidende
omhandlede
proport
found
atmosfæren
bak
lud
bløder
raff
##lub
##forbundet
knallert
afska
smøre
##klare
hair
forsvars
snakken
##forurening
henvendt
flygte
besættelse
brid
ophævelse
erklæret
sno
uønskede
handlingsplan
babys
##cket
brandt
##dk
##stationen
benet
student
selvstændighed
##letter
##amerik
toy
forrest
udvælge
apost
##itære
##transport
name
##skassen
matrikel
sneg
##bergs
ray
##venner
##borger
befordring
tropper
cykling
harmoni
kynd
bygg
arti
ordnet
forbereder
uc
polar
pakkes
landmand
autisme
venstres
##lejr
konferencer
uendelige
##leven
messing
udførelsen
##65
##spis
##italen
tilberedt
sørgede
alg
udstiller
##kirtlen
##mmi
uregel
omfattede
##cas
##smark
##mens
renset
mystisk
##bagte
hævn
heft
wikipedia
##sbog
jakker
washington
ægget
##elisten
sollys
##stillæg
##faget
cremet
kulturel
##sbudget
beauty
##adiske
##skolens
##mmek
lækreste
pestic
skrib
##44
##boksen
betjeningen
hovedregel
fladskærm
bøf
##ikerne
##ensens
##emperatur
afrund
umiddelbare
1968
##frug
##øer
nedre
succesfulde
##portalen
faxe
midlerne
rensning
annoncelight
brystkræft
lynhurtigt
lor
opvarmet
mah
paulus
##older
lum
flasken
sjæle
kf
##uble
stimulerer
##77
kris
##cirk
integrations
gæt
##formid
pokker
nemmeste
forlang
energistyr
mønter
##cafe
##smedlem
##eløn
korru
erhverve
uafhængighed
aars
##gjorte
##tagne
oversigten
##føringen
##ønd
##husets
tarer
konstrueret
##iderne
regnvejr
initiativet
friheden
bestemmes
ernes
##hørende
odont
##ression
sønderjyske
skærmb
kinky
umiddelbar
afføring
kvalitetssikring
jobcentret
taknemm
reality
skyggen
koder
støde
udarbejdelsen
ukraine
niss
myg
fortol
guder
##rie
ulovlig
stempel
##skonsulent
##fet
modsta
##ælv
officiel
##svirksomheder
smags
viby
##ommun
folkeoplys
factor
beskæftigede
##shospital
kampene
extension
biologi
##lak
forestil
##ui
husholdning
forbinde
chips
kapitler
miljømin
##hjælps
snyde
##ated
opfordres
reparationer
nyhedsbrevet
definerer
svane
##imler
datteren
indkvar
pahviler
inddelt
gymnasie
grib
nv
way
farmor
loyalitet
##mager
udstillet
rytme
invas
pasning
stabile
##kok
pizz
##æller
sydafrika
riis
optik
##aber
risikov
mærkning
##avl
valdem
##kørslen
løftede
kontrolleres
ritzau
lounge
##trop
skør
##ride
dorte
guides
lamp
kakao
modtagere
fuldmagt
##løsninger
cloud
hua
beat
løbere
borgmesteren
##bevidst
##eria
dybest
##icere
brysterne
annonceret
syntet
varemærke
solbriller
sexolog
landsplan
hardware
amazon
californien
dh
tilføjelse
young
##ariatet
tester
tine
vedtages
##grænse
bille
belys
oveni
##ktil
displayet
##sprøver
##sprojektet
sættet
udgive
##slokaler
preben
teknikken
uddybende
##itil
parlamentets
tyngde
##ændes
virkningen
regnskaber
medicinen
ss
cancer
karakteristisk
træls
overlade
valgmuligheder
tilstrækkelige
tilfældige
jules
svaghed
snydt
ulige
søndags
fortælles
##pude
psykiatrien
wood
##pro
truede
godkender
##ventil
##terras
dn
repræsentere
skinne
signifikant
diskuterer
##ramte
erhvervsuddannelse
mercedes
efterarsf
christen
jordemoder
##forholdene
##yderne
overgar
##øtre
sortere
brob
yoghurt
insulin
indlæggelse
energy
prioriteret
tis
##smaterialet
##ward
##scy
##staten
intenst
købere
##95
benyt
arbejderne
trust
krystal
##valgte
udvendige
forblø
afbal
spam
mikrob
##sdal
##rettes
kontinent
droppe
kopiere
retor
##politiske
albertslund
julegaver
henri
insekt
vedtog
##sprogede
sebastian
opkast
selvsagt
refererer
rygter
nedenunder
##icks
##nødder
studieret
lingeri
signatur
##ege
udspil
uud
kanalen
cases
frigør
##skan
pand
priskl
teatret
gaafstand
syvende
arhundreder
##32
andersens
indeholdende
tilrettelægge
##jon
##arealet
kondition
##span
snacks
smooth
basket
indsende
##asis
massagepiger
indlever
##edagen
samænd
brygge
bust
pust
marer
##søen
##ituationen
nob
sammenhold
handleplan
##ekanis
##illo
gensyn
transfer
hoveder
sophie
engle
afhjælp
##mmets
udtrykt
##værksted
cola
##indholdet
fodtøj
##feld
##optimering
massivt
hævede
solrød
knæk
vagina
##isses
massageklinik
befandt
##staur
folkene
byl
##bra
flytningen
tyrkiske
hofte
nal
udsætte
shows
##trup
##alje
karin
muren
##koder
udskud
uddannelsesinstitutioner
boost
##bekræft
##roner
hotels
##askinen
stub
tilfældig
herover
fremmøde
##info
spændingen
beslæg
dekoration
kollektioner
domænen
##ferien
kristi
boy
##ævet
rekv
##srel
farer
##browser
urol
##agde
sindet
bordeller
tidsfor
brødet
overbel
fuglene
##urser
##spriser
##eskift
scoo
oliemassage
kurve
##æmpelse
æstetiske
genert
away
bibe
foreliggende
korsør
hist
rep
pastar
coll
garderob
tilpasser
##øgende
tankevækkende
funktionel
cos
nøgleord
vibrator
oprettelsen
proteiner
##fikke
frygten
##raber
kæmpest
##skriter
incit
router
funktionerne
repræsentation
annette
##riger
festlige
clausen
1973
##egruppen
##stim
##books
hektar
gaderne
neds
##stillelse
anfald
##ynam
##øgene
##armer
stemnings
objektiv
##nævnet
rejer
klemme
mistr
assens
##infektion
health
kærligt
bekymrede
##klart
lill
##38
##48
massere
havør
##forholdet
any
##ancerne
dannelsen
litterære
bygherren
lykken
##zoner
direktionen
evalueringen
##arnet
##anas
multif
##rust
##redskaber
##yttere
foreløbige
stødte
automatiske
##ærings
##planlægning
##offerne
fordybelse
imperi
spejlet
utrolige
##forny
##musk
hovedstadsomradet
ubehagelig
hvir
urban
udslæt
oprydning
menneskene
vurderede
konklusioner
cock
##madras
søfart
##stjerne
stakkels
##ografiske
svimmel
habede
forskrifter
##kerød
pall
pølser
##betingelser
our
beb
mareridt
##osh
organisations
ordninger
bedrift
organisere
føreren
produktiv
manøv
barm
abenlyst
betegner
sjælen
miljøg
soldat
##pynt
##blom
afrejse
sortimentet
hjemmebane
##tør
destinationer
styrkes
sommers
virksomheders
numse
vandring
enke
chrom
rade
##pumpe
cn
højtid
indvandrer
##støvler
##æks
##sretten
ects
##cium
##ople
sædvanligvis
udfra
sportsg
mindfulness
menneskerettigheder
##stykket
designere
udskrivning
1979
parkeringspladser
##iva
pumper
nost
##kse
##merne
campus
kolonne
##ello
##ique
ulempe
dark
distribu
musiker
gymnasi
##sstyrelsen
##rob
indisk
elisabeth
gravet
forstyrrelser
##lutning
samfundsøkonom
standarden
udtaget
spsk
hydra
##away
nedsatte
koble
vibeke
visi
genbru
##spild
enlig
hjelm
elevator
##indede
fædre
udpege
forurenet
##ælden
kundernes
##egenskaber
meddelelsen
traum
ugentligt
principperne
cha
##spersoner
kokke
##tene
##redet
##radi
##redaktør
gustav
##ship
hemmeligt
##sledelse
##otter
##onerer
##væsenet
muskul
hertug
variable
##iro
reddet
##sfrem
blab
tomt
##døren
forhandle
samarbejds
aftensmaden
prostitueret
plejede
##gy
indsæt
##lavet
points
agere
ledte
visum
lastbiler
##spress
tænkelige
øvelsen
365
overbevise
afgrøder
selvej
##desig
overskueligt
1982
jess
rode
tilhængere
##39
erindring
restrikt
raste
##rensning
udmat
abonn
##orre
linde
patrul
##skum
brugs
living
jakkes
automat
dyreste
lisa
strække
iværksættes
dagpen
farum
snedker
forfriskende
strømpe
snæver
cyklister
##ildt
##ioxid
motel
mappe
veteran
mælken
køretøjet
stemte
##kolle
fortrinsvis
tidligst
inspektion
pay
##skaberne
hakket
skane
østergaard
ungarn
linda
tiln
##odeller
##bidrag
##eltoft
report
udlagt
forblev
volvo
rekvir
horisont
##kommun
søborg
veri
##aux
morges
konstateres
forbrænd
krydderur
erkender
##aga
aroma
dream
blend
domstolen
bæres
falck
turneringer
##producent
kendetegner
##sling
##sproblem
smitter
beskidte
læserne
sandelig
##kle
folkekirken
industrielle
hverdags
lyserød
gastron
##tav
opsigt
##spolitikken
dramatiske
##stilskud
møg
##edraget
debatter
forfærdelig
vogne
foretog
skoleleder
##sløst
patt
regnskabsaret
ustabil
##oget
ledsager
##opol
fronten
installationen
haves
personerne
dynamiske
##atin
usand
##porno
##jenester
##vejledningen
indersiden
##kilde
chik
boot
konstaterer
templet
formulere
1972
brønshøj
johnny
##eline
ærmer
vides
##sigtet
sidenhen
##forsyningen
placer
anmeldelsen
##adere
sct
holdene
fotografering
belyse
##ced
##sbranchen
porten
anerkende
adsp
vends
stens
heidi
bide
##atiseret
palægges
dronningen
##øvende
rigdom
reading
##merter
datatil
##mmy
babyer
##cal
##illadelse
dræber
stueetagen
børnefamilier
landede
##klasser
eksternt
##ims
gøremal
##gardiner
##rollen
tvilling
##opgørelsen
overnatte
##ulykker
##ørte
kirkes
psykiatrisk
klassikere
ogs
##skoven
slæb
##amling
gennemførelsen
##tekster
opvokset
thr
skipper
kedel
##smodeller
vang
kommiss
##ældning
##rækket
opsige
døtre
##camp
ungt
naboen
botan
bier
nil
##ilet
##aliserer
pv
##agon
voldelige
menneskerettighed
ulykken
elefant
corn
linked
104
demonstration
blanket
krab
jungle
##vens
gaming
fikt
##sforstyr
##stæt
vidende
vedlagt
##rængende
effektivisering
fjol
variabel
undsk
spilletid
æd
marci
køligt
forøget
##skunst
overraskelser
modellerne
likviditet
##ægge
snes
##view
uddannelserne
protester
konfron
indstillingen
skaldyr
168
spiritus
nyheds
##mose
entreprenøren
##gigt
risikof
konklusionen
##sar
##edig
##svurdering
featur
afgrænset
##so
glædelig
##anding
blir
klarhed
spændte
nægtede
andens
##forbindelser
tabet
rabar
tegnede
stege
##ørge
oversætter
##opgaven
dagblad
##ielt
##ften
nyop
fastlægges
advarer
fremsendes
nyre
##filter
lugte
ledt
##inos
skylder
agter
fck
gød
vedtægterne
tværfaglige
jackpot
cho
##ku
brugernes
butter
beck
mike
episode
varmet
##uleringen
overvægtige
ocean
overt
##oto
krydstog
##66
##korea
##zan
henvisninger
##blikket
render
sandet
apparater
æstetisk
indviet
sundhedsfre
joseph
mangle
ideal
cer
##fronten
arbejdstiden
revner
revisorer
amster
flirt
plastic
næn
blomstrer
lejere
energir
jep
grundene
##sting
passere
tilsyns
persons
omlægning
##senge
##aw
##attra
krævet
facon
##kurser
udsnit
svæl
anklager
rodet
symf
ballet
akties
sværhedsg
forbeholdt
nyg
udse
dysfunktion
rundvisning
headset
kunders
skøre
##pavirk
lektion
grundforløb
paragra
opsl
##førings
##skommun
##iverne
maro
opsøge
krag
rettere
##skøb
rigelig
ørering
depon
1978
font
fødte
forlænges
sløret
hue
##oplevelsen
ambitiøse
##institutionen
buddh
##næs
zealand
##givelser
konsekvensen
##rester
regulere
bilka
##mærkning
usædvanlige
hemmeligheder
udfordringerne
udvalgets
iht
##lange
endet
##arium
reparere
##røret
letter
freel
perfektion
brunette
fibre
glædeligt
syddansk
halvandet
fedts
##isterium
##kas
##well
tilknyttede
troværdighed
##low
casual
##relaterede
##ørrer
distrikt
indførelse
paradoks
jakobsen
anfører
elektriker
morfar
bosat
dyne
impot
korrespond
partikler
maritime
booket
ulighed
omhu
opkræve
duer
##overv
##arbejderne
beroligende
##pind
##kog
flyde
bekymrer
due
kub
##enheder
akkum
tørrede
manchester
sektorer
vandfald
novo
flyvende
1975
midnat
forkælelse
##støv
##ends
##rah
##marken
##sætnings
gjaldt
##emarked
visa
primo
brag
##sfulde
##ømmen
iblandt
##navne
##gender
katastrofe
##ofa
respektere
fundamentet
hack
konstruktiv
sosu
snack
##isco
lillesøster
marin
skyldt
regningen
pandekager
##spærre
fraværende
ergo
skibs
##lister
ventilations
kristendom
##smedlemmer
onan
fornemmer
##finansiering
vas
udfylder
konstitu
pornografiske
døb
motivere
cougar
beskyttende
117
fredags
udfolde
dong
selvejende
##ason
transaktioner
smerterne
vinger
##minde
##wei
kendskabet
fingeren
foster
##holdige
krydse
ingredienserne
formularen
##bys
bænke
anvisning
tvinge
bluse
##arrangement
##regner
sydpa
great
135
bulgar
rigshospitalet
dokumenterer
lejem
afgrænsning
##spænding
eud
karakteriseret
motiveret
pyntet
##ibr
strale
implementeret
væb
tværfagligt
##senhed
markering
summen
universitets
uenighed
skolearet
trick
vegas
betjent
nanna
##uu
malmand
tilladelsen
prix
##shjem
indregnes
beskatning
tortur
skals
lokalitet
vod
##sherred
##udset
fjernsynet
diskuteres
ydet
neglel
generations
styles
##arken
eriksen
##eta
foref
##ukket
hvidevarer
##smaterialer
##brem
afviste
inviterede
mountainb
##forst
bestyrelsesmøde
wars
mh
natte
##ærmet
##hrine
kryb
æggene
fanø
vl
##eligvis
alfabet
folie
##bagt
babes
wat
bader
funktionelt
tørklæde
uforglemmelig
##ssvarende
malingen
gert
intelligente
erfaringerne
undervisningsforløb
fornøjelsen
gf
arbejdsb
gennemgas
##sakadem
transportere
4000
##ømmelser
overraskede
sho
voldgift
ingeniører
spiral
hæle
læringsmal
forlange
koblet
omstændighederne
##grav
suk
##miljøet
arkt
ash
alment
begyndende
##zar
225
cash
deltid
energie
igangsat
synlighed
omgivende
gymnast
udlæg
lystfisk
##ikum
lejede
fuldkorn
integrere
dernede
skyldtes
tradt
108
chefen
indtræder
overs
frederiksborg
søndagen
##strategier
##øe
american
korrig
##perne
##aktorer
##rammer
sommerens
sejt
liberal
læberne
svig
islamisk
afskaff
charles
mægler
rost
johanne
##vigt
malede
nd
##mangel
proven
##ulenter
ligning
strengt
hylden
##teringer
dyrkning
##udsig
##ugen
##nisk
##finde
birgit
##words
##gangne
pinligt
##angst
##melde
teltet
distance
ordregiver
stx
liver
##ped
indbyder
uheldige
opgradering
medregnes
databe
mascar
omtales
kameraer
##bind
##geligt
##etabler
helligdage
shoppen
##sforanstaltninger
##eske
outlook
skrivende
skjorter
bagfra
mature
sæden
inddrager
levest
##afgang
smittet
henry
organiske
præstere
campingvogn
videnskaben
##illedet
patage
eren
udgar
1977
quick
handklæde
url
hændelse
hyppige
rygsæk
certificering
tilladelser
manual
kønsorg
aftener
forstærket
##ordinator
tern
##fiber
kah
interval
##anmark
investor
lagring
##skrevne
##okrater
josef
helse
##skn
evaluere
sexpartner
partiets
lønmodtagere
##ologist
next
sjette
##specifik
sygesikring
mvh
##uterede
##oon
alternativet
handvask
##formanden
##bøj
##acy
ald
udlevering
husstande
upa
##indsamling
hitler
køkkener
##borde
##ømmende
kaniner
tilskuddet
price
birkerød
overskuddet
løbesko
klogt
afvigelser
##sningen
diamant
palidelig
foranstalt
moralsk
dagpleje
baserede
##zi
obama
cc
boligerne
##alens
##ра
lærred
politim
ballade
##atien
charter
længder
bebyggelsen
128
##ventede
kio
lage
megaf
whisky
konti
defens
maren
potentiel
##jul
antioxid
fissen
alfa
robuste
##oge
offentliggøre
##eskolen
##ningsvis
skrifter
##sigtede
fyldestgørende
anset
oprettede
##sproced
##forsikringen
##radte
autoritet
##borgs
##ygninger
rigs
facaden
##uleringer
##ometri
##holdelsen
begravelse
klint
arbejdstilsynet
isted
beskyttede
klister
liberale
serviceniveau
##iana
##onyme
ypperste
bikini
##atorium
magasiner
isk
##sændringer
socialdemokraterne
ensbet
##stationer
søs
sporten
##alle
overvejes
stræber
administrativ
indikatorer
thaipiger
cremen
selvbetjening
familiemedlemmer
hæves
stukket
alsidig
barrierer
rabatkode
støttede
afbest
lejeren
mikael
godbid
##aciteten
supplerer
inje
æbl
vulk
gourmet
nærmede
blues
mandel
valgfag
bangkok
kalve
aldersgrupper
##sbjerg
##utt
traktor
fremkommer
gaven
fejret
retningslinier
##etoder
##udi
##egræn
foredrags
hæft
rasende
mudder
rotte
##æmi
##ologier
trium
kommunalbestyr
udsender
bevægelighed
fremsk
baller
##fugt
##kna
ensbetydende
svinekød
##lampe
jammer
modulet
stikkontakt
fron
sic
gd
##beklædning
adap
##pix
bolle
kræftens
##hæves
genial
forkælet
##oklub
amsterdam
rapportering
##200
##stemte
##skind
cbd
rø
sexhistorier
jensens
ebeltoft
klyn
stralende
tredjemand
##fen
##etal
parkere
fondens
##edlen
helheds
##haus
##fos
##wo
marina
logik
lb
impl
tilbuds
højdepunkter
forkynd
østre
##sapp
adel
##lande
politikens
safari
berører
daginstitutioner
bands
1983
##edele
##sma
købers
1967
højtaler
kategor
sydfyn
protot
tørretumb
opstand
moses
bekostning
wer
lases
melodi
##forenings
##yle
suppen
jfr
troende
##aya
hydraul
bags
kgl
serb
apoteker
cykelst
##kæde
stadighed
lip
vendes
##ateau
fortrolige
##arten
seniorer
foredraget
##endende
sletter
##ekse
##aco
udløse
orienterede
feminin
##bre
##kredsen
virkemidler
##skilder
tes
##sbaseret
byudvikling
dalen
habit
derigennem
rakte
##atikker
holding
festlig
uheldet
##fodbold
tarnet
politikker
fremlægge
##lænderne
gennemskue
pm
##skreds
frag
sædet
konsultation
##ærkt
linkedin
##berry
##shaver
ff
menneskeheden
##fotograf
klatre
nin
bilister
arten
blomsterne
steph
eksistenti
##sort
retvisende
ophæves
bestsel
madvarer
##tjeneste
fost
skede
##udiet
suppleres
##rivil
datingsider
ufag
støtten
index
bæk
opfyldes
##mmest
understøttes
monitor
motorer
##hjulet
tuc
opererer
small
arbejdsgruppe
indledt
##aning
gavm
ressourc
fejres
begyndere
##erier
bemand
afsættes
landsret
forund
now
##bai
##sløg
legendariske
a4
gevald
portefølje
vert
aktør
nybyggeri
institutionens
heat
halver
dværg
tilføre
mistænk
quiz
efterforsk
##liggender
synkron
illustration
##lemm
varemærker
##ikret
##dog
rejsemal
røret
##greb
sugard
telefonsex
træng
indkomne
nylon
tændes
elskerinde
tilsluttes
fastslar
nex
vendsyssel
mast
sundhedsplejer
tsk
genan
græd
anja
serum
valid
øvelserne
ekspor
demokratiet
behold
kondomer
##hoppen
##orv
pung
unorm
borgerkrig
udskrive
##sledere
hælder
##sbevæg
indkvartering
antager
bombe
##sbilleder
defekt
etisk
scenarie
skylden
hvidvin
salon
kompleksitet
stæv
101
fortab
overskrifter
høv
vanvittigt
please
smy
bobler
##spektiv
##wan
##eksamen
jordan
##otek
pasken
gentager
tørrer
ultralyd
##ssager
##ønde
games
mindsker
kravle
soves
##col
støvsuger
hits
##ssituation
udpeges
uenige
##bjer
amerikanerne
usikre
organisationens
muld
takkede
fjende
##familien
munke
frygte
kilden
allierede
##analyt
stejle
##kegaard
fungeret
##modeller
behandlingsforløb
nedsættelse
engagere
##spartner
sorgen
##varmen
##øjelser
grind
idyll
gemte
##misbrug
faggrupper
santa
skimmels
udelukke
israelske
malte
svømmer
hjel
##rejst
##37
landes
##sgard
##hjelm
##kæder
erfarings
##agnet
saltvand
jakkesæt
##irs
akademisk
meddeler
konkurrere
æstetik
manen
skuffede
identisk
pund
##øjne
##но
arbejdsløse
##obil
sensuel
##relsen
foged
##klinikker
forsamling
##telses
##balle
scoret
##erslev
sanktioner
##grader
bestik
##stræner
beskæftigelsen
rio
##ree
nostalg
ekstraordinært
føder
##læser
dækkede
##the
##værelses
fysioterapi
telen
vaku
udspringer
hovedpersonen
fastholdes
levn
aktien
slav
polyester
tilfører
##hy
##arg
afvær
daginstitution
##snr
uønsket
##icit
vinterdæk
philip
##steori
kronprins
styrken
##værkeri
skinnende
hældes
ihærd
##ex
share
suite
kulturelt
parallel
kvindernes
overraske
##rix
anonyme
cheft
lejlighederne
revisions
samlever
##bevægelse
lung
##hem
##forfatter
sour
formodentlig
##stemp
uforsta
storebælt
vagen
formelt
##idræt
psykologer
##beck
benj
forekomst
skamløse
##saff
lovende
240
maduniverset
##strende
bankens
decentr
entusi
1943
kompagn
saftig
karakteristika
publikation
brutt
beklageligvis
renæss
##nerup
lofter
reservere
vuggestue
1976
pensionist
præmien
skoles
golden
tilmeldte
##edskaber
forskud
forsvarer
photos
lean
chip
fen
skattel
dannebrog
##handværk
##komp
costa
retsp
##otor
desperat
uddelt
hovedt
allerførste
tykkere
##stidende
hundens
respekterer
##rolle
##ancere
##assa
usd
garnet
kraftigere
udtrykkeligt
styrkelse
værdifuld
skandinavisk
sild
##ønnet
##sejere
materialerne
axel
vindere
dumfrygt
nakskov
vidnes
velsig
gallerier
##dommens
brux
præger
##yggelige
##rium
forhabentligt
##irken
##ebo
1974
##ancy
yes
forhindringer
1981
klang
oralsex
##leri
følelsesmæssigt
##ormon
##esc
escortpige
fagl
instruktioner
##analyser
##ræne
trivsels
anføres
oliv
##ederen
bevægede
realistiske
##shuse
ophævet
barbar
##erenc
sovjetunionen
swimmingpool
##stederne
hoppede
##kro
biod
continue
udholdenhed
terra
billigst
udstedes
langtids
##kastet
storslaet
erotic
ringere
fiktion
##stilfælde
##serfaring
##tron
undlader
overdækket
opdeling
idømt
only
glædet
##kked
1971
##streg
dyrkes
renser
energieffe
##ration
##anstalt
##svist
lørdags
##udbydere
sexshop
begrænses
transporten
##kjole
##ølge
staf
gur
##ifin
##schef
surt
fotografier
velud
finansiere
pure
soul
legede
boble
hub
m3
breder
sokker
scorer
kommunikerer
##sejendomme
##abilitet
155
beretninger
spisning
skoledag
placeringer
varmepumper
gid
sædvanligt
##præg
##oxid
oppust
##stemme
ordbl
grupperne
botilbud
løsnings
vævet
tidsbegræn
mildt
højsædet
##hub
##opkald
vital
##blev
lednings
##stallet
iss
stefan
##ningsmuligheder
##ekontrakt
##spolitiske
##øgning
##cerende
opdaterer
klimaforand
##format
brugbare
fortjeneste
forfatterne
domstolene
kvote
deri
uendelig
marathon
langsommere
afslørede
##hænger
befrugt
forudsættes
##aki
øko
nordens
1944
eftertragtede
nykredit
##sfun
##iansk
guidet
##edragt
##mængde
bygherre
sælgere
regelmæssige
svigermor
##sforeninger
mindretal
gennemfør
##klær
##talerne
kortene
hero
107
psykiatriske
ankomsten
søgefeltet
erklærer
extensions
yn
bankkonto
most
##kampe
bevirker
them
tændte
lingam
lus
setup
urte
##kem
harmonisk
##tagning
trykte
kritikken
patrick
uoverskueligt
##ryn
producerede
statistiske
katedr
sweet
broer
programmering
##gaards
indvandring
##uff
beregnede
okse
##okument
didakt
fid
torden
##itel
udseendet
##asserne
børsen
identificeret
proceduren
vipper
salater
deadline
bryn
forekomm
##viden
after
elegance
##ception
rettighed
pony
##steret
##svinkel
boligomrader
##ladning
sprøjt
##villing
##wal
steffen
stevns
genren
##sfac
afholdte
##eknik
fb
##version
huslejen
telefonisk
##positioner
cement
klimaanlæg
##ekan
undert
lokalerne
kirop
nedsætter
appeller
underretning
##sborgere
bruxelles
feminine
pask
katteg
abnings
arbejdsgange
afløser
evolution
underord
musen
bue
opkrævning
skalaen
datam
traden
##brugere
##cho
affaldet
123
hoc
konstaterede
inderste
brugerven
##propper
udlændingen
##væggen
##medlem
lillebælt
##dress
##reser
rutiner
alger
fortrin
optimeret
sluge
pavirkninger
##isi
værge
##udvig
##skrivninger
svul
tempoet
kobling
##svind
biografi
meret
kostet
##food
forklares
konkurrencedygtige
sagsøger
##forvaltning
##chi
##rate
brok
holst
afdelings
##fredse
rørende
tiltalte
klubberne
forfatterskab
mailen
transaktion
##idsen
gor
handkøb
##erhverv
hæm
nuru
##sband
udnævn
hb
##anfald
tæppet
sart
dynamik
##bland
efterlig
scenarier
hatten
arbejdsgruppen
##behandlingen
adoption
philips
fangst
ifl
diskrimin
revisionen
diarre
balanc
kuffert
kierkegaard
grønlands
##uide
##verse
indgives
halskæde
bokse
##ygger
stuer
forsigtighed
phone
australske
vampyr
rate
##elær
##nderne
studio
barnevogn
ober
##cykl
statsaut
timerne
lækkerier
stifte
episoder
afløst
fænomenet
tjente
installeres
omhyggelig
##iskab
##anny
frygtede
klump
laursen
iværksætte
orkester
little
bau
succesfuld
kabinet
førnævnte
##snæs
sie
##sin
omsætte
##gb
gudstjeneste
gyldendal
udgaven
opdragelse
opførelsen
flader
##ient
##sper
stofskifte
kalv
indsendes
afvisning
company
stæd
skuffende
##lus
##ionerede
intellektuelle
ludvig
##hede
##ægere
massør
bøje
køberen
tøser
tai
borte
sundhedsstyrelsens
tabeller
hærværk
##fir
ulv
arsen
dagslys
project
dobbeltseng
overdragelse
##idelse
arbejdsforhold
##patienter
karamel
knopper
ladyboy
benny
lettet
hylderne
membr
zoner
druer
mille
udebl
##resultat
##forstyrrelser
gult
bispebjerg
##dragelsen
blodkar
##ævre
forsikrings
besvarelse
lyr
tidskrævende
##andidat
##jack
##havne
nale
vuc
hensynet
aus
væltede
kølige
nationer
kirkegarden
##rog
konkluderer
impotens
afsætte
harm
maja
hedde
##mmelighed
gryder
provinsen
iben
varigt
ulve
pinde
lederskab
makr
akademiske
skalen
lokaliteter
underlig
1969
sorteret
kalorie
øjenbryn
dek
nederdel
user
udvise
tilført
livsl
kopper
##obje
orkest
grinede
skoen
udlod
hovedsagelig
fugtighed
forresten
smurt
##viv
lear
tungere
##gav
syns
leges
##sstoffer
bygningsreg
##tradition
##sman
partnerskaber
opgaveløs
cannabis
fisket
forløber
manuskript
asian
uendeligt
##raget
trøjer
##andele
lunde
opkrævet
##ays
174
scanpix
block
frar
høret
strukturen
##katalog
istedgade
magter
motorik
bekvemt
resulteret
dik
expl
omtaler
bærbar
skuffelse
tvivler
board
blender
gil
amok
##ismens
hyldest
kurserne
firmaets
skolegang
løsl
fænomener
114
ventetiden
##ving
vejrud
tiltrængt
jøderne
torsk
##panelet
udveksle
moren
kæder
odsherred
nedbringe
##face
abc
##64
trendy
betænkning
puber
##yring
reol
energimærke
tvinger
stearin
opskrifterne
fastholdelse
##idenhed
genv
beboelse
##porte
tryl
sher
ankommet
kunstg
undervisningsministeriet
biografer
permanente
##sfrist
hævelse
##iken
forsvarlig
kevin
værdsat
demonst
##stjer
fortrolighed
rynker
##epay
portioner
fugtige
##edann
##mølle
afsendt
udvendigt
sammenlagt
##forbed
stenen
softwaren
wolf
lektie
diagra
ekstraudstyr
fortrydelsesret
bmi
##betjent
##skabel
hands
aktionærer
indsatte
##atoriet
##bussen
aage
##leverandør
##ordenen
##club
ligaen
category
##sbevis
toppe
taks
##blod
##ibe
##splat
##kvarter
##varmer
sarbar
frustration
datas
oprigtig
forfal
forveks
##runder
besvares
march
fortsættelse
tegnefilm
tavshedspligt
herreg
##forest
svinge
udsigter
væsker
smidig
metrop
skype
angsten
autentiske
visionen
alice
fastlægger
arbejdets
originalt
stemmen
christine
slukker
mobilepay
##ulykke
##yret
bidt
mindet
fremhævet
massen
pointen
invit
moske
opbygningen
veksel
talk
foa
beregner
indsamles
herlige
oluf
fiskeriet
værdierne
behandlede
ikoniske
nuanceret
hindre
##cover
finanskrisen
fosfor
##elly
betænk
##afgørende
tømt
køben
##turen
sponsorer
strejf
vilhelm
magnes
##oy
munchen
jakken
banke
astrid
##karakter
cylinder
bedømme
afhentes
præmisser
##gir
shar
nicht
gennemsigtighed
sydjylland
efterforskning
prævention
tiltrækning
usandsyn
mærsk
enkeltpersoner
potentialet
supermarkeder
fryd
nedbør
1864
superligaen
temad
##eskyttelse
børneværelset
orker
banner
nie
tørring
sække
##ria
elastik
forvirring
twist
elinstall
palet
aktierne
##itativ
lysere
konstruktionen
datingside
frue
##sbrug
##længde
lokalsamfund
mariager
##gyld
implant
##bers
historierne
stjæle
##print
##vol
tool
radhuset
rygest
##udbud
##sættende
krydderurter
aspar
udgives
kæft
koncentrationen
acceler
ufrivil
begejstrede
minib
fremhæv
buff
brows
fora
kosm
##serende
susan
kirkelige
møllen
haand
ergoter
journalistik
##egnelser
nyfødte
befæst
##world
implementeringen
##inddragelse
hyggede
##opher
beskrev
baserer
hehe
indkaldelse
##saktiver
market
lamin
tandlæger
underlivet
trænes
forankret
udgøres
france
drast
pyt
administrere
udflad
kommando
south
tao
vre
##kla
korrektion
##mør
sluppet
besætningen
efterlod
tilladte
anonymt
##porten
spørgeskemaet
kærlige
##ygiej
guden
tilbøjelige
espress
folkepension
omklædnings
koner
glam
##sber
kloden
##sættelses
centeret
lee
##oriteter
##rice
##rente
##oplæg
##klipper
tilføjede
udsving
persondatal
gls
filmene
autonom
skitse
begar
heart
fisser
skikkelse
kogte
varetægtsfæng
##ømmede
banks
videregive
fristende
calcium
thailandske
indkøbskur
ambassadør
##attest
illustrerer
##other
rads
filt
outlet
##journal
rumænien
##aktivt
vakuum
romantik
kontrollerer
overskri
roulette
##ssyn
##boller
atp
vejdirektoratet
##acker
skatten
udvidelsen
omf
beplantning
##stigninger
parap
##værnet
eux
hein
udenrigsminister
aksel
nybegynder
##mont
sukkede
##indehaver
aflyst
wiki
##ished
oversætte
fantasif
genanvendelse
##ardi
aber
##hon
syne
##egningen
middagen
usund
kombinationer
features
dukket
virket
##ssikkerhed
prisbyg
skraldesp
##processer
glass
polic
entydigt
##ukt
reper
udvælgelsen
kirurgi
søstre
stemt
registreringen
krudt
##berettiget
udelukket
savnede
mut
brugsan
storebror
lektier
##jenesten
anska
modet
karry
kommerciel
##xy
gill
forføl
##imi
landsholdet
islands
reprodu
artus
pick
udendør
##ianske
hæklet
uskyldige
lyttede
bedømmelsen
sexdating
carib
##31
fjernbetjening
ulykkes
holdbare
dokumenteres
radgivnings
##teminde
##iano
##essioner
udpræget
##sbillede
tobias
smæk
opfordrede
landsretten
##ador
##øretøjer
rally
moralske
##bygges
##centrene
efterfølger
funktionsevne
hedensted
utilfredse
##registrering
cut
ctr
kundskab
##55
##kyndige
køler
antaget
varierede
opkval
##forhøj
parameter
ledelsens
##cell
ballon
ugentlig
bour
giftige
##afgr
vokal
vandaf
##ques
knust
censur
overdrev
fogh
udskrevet
##scyklus
1850
ct
zen
##skattel
##jente
##ups
kristeligt
servit
nedbrydning
stunder
havregryn
##asino
erhvervsmæssig
tove
olde
søgninger
skriger
##tysk
##igtigelse
skulpturer
ankenævnet
kulden
returneres
##field
ægtefæller
udi
oil
bench
moskv
grenaa
##given
downloades
energimærknings
rettidigt
##festen
onanere
rettede
babe
##rise
##uv
fyren
forunder
state
hjernesk
##vænget
bambus
##neg
dækkende
##læst
karrieren
##indkøb
overvage
udbyttet
##register
skuldrene
vw
putter
paklædning
demonstrere
ubevidst
intentioner
##strande
christoffer
##sje
##grupperne
##kvenser
rare
radioen
smelter
##svand
udsendelser
opfattet
dump
##apir
gynge
mogensen
asylansøg
klages
chatte
støttes
hev
people
skabeloner
mk
rating
simonsen
fjerkræ
facebooks
iscen
branding
palidelige
ægtepar
uforudsig
##ebyg
styrte
styringen
børnehaver
klasserne
smilte
bankerne
justeringer
##pligtelser
##ills
joan
ryste
repræsentantskabet
tut
hoste
ordrebekræft
gennemgik
værdighed
krus
fortsættes
##zym
udkommet
forestillet
tantramassage
torn
fælle
opsigelses
beskrevne
afsætning
robotter
vædde
platformen
multifunktion
##sekretær
standse
tante
##afhæng
valdemar
medlemmernes
##lerose
vinyl
##befolk
##hegn
gyldighed
passage
stoler
relationen
raf
##alin
teksterne
smertestillende
beslutningst
præge
fotografere
ceremon
kroatien
smabørn
æblet
##æmper
angeles
radius
modstandsdygt
kontanthjælpsmodtagere
##gren
effektiviteten
fremvise
nødsaget
huawei
##opt
folkets
uventede
vagter
##bøll
##team
antrop
fremdrift
velstand
##redsen
føtex
##ito
##reformen
brødrene
vælgerne
armlæn
altafgørende
glidecreme
boss
imorgen
konfirmand
slidte
nt
##chf
##forstaet
separate
##specifikke
brugbar
visitation
verdensmester
brusebad
madspild
vandretur
smeltet
æske
##indtag
##flow
##frugter
##ruppen
miljøklagenævnet
skyldige
pilgr
behøvede
bendt
bosch
nm
rt
grød
overtrædelser
##itude
tandbør
##mægtig
indbo
##lighederne
sundhedsmæssige
zoom
pavist
puslespil
øreringe
sundhedsperson
postkort
ubeskriv
dyrlægen
banebr
lokker
snow
indledes
halvvejs
gentages
kvit
nissen
pastande
##had
pom
escorts
##anche
fascineret
benjamin
##skursus
integrerede
strat
##aged
mørkere
##budget
##spres
ish
majs
facili
æren
uddannelsesforløb
kontinuerligt
medic
skadedyr
komponent
vidnesbyrd
##hygge
kriser
udvist
biomasse
##taske
##igan
overfald
##riterier
hc
muskels
vikinget
regneark
hammers
hovedgade
##otin
chokoladen
koordinere
kau
hotelværelse
opstillede
værst
opløst
fremhæves
uovertru
ld
overtagelse
paføres
prikker
klor
samment
##pren
hydr
##medlemmer
differenti
kendelse
uffe
##utikker
##kobling
behar
ungar
edb
kognitive
frelse
afrod
enkeltstaende
hierark
mæg
##shot
##øsning
socialpædagog
lærernes
fødevaremin
ice
kølvandet
undertr
##sfunktion
alfred
##øgerne
resterne
kulturarv
lejlighedsvis
movies
gej
litteraturen
ubesk
varmeste
bevarede
ædel
##yon
saks
legepladsen
##befindende
ordfor
himmer
graden
bore
improv
pics
##handlet
forankring
legeme
tabu
verdensplan
furesø
1918
amatører
sindssygt
malrettede
isabel
facilitet
tekstiler
energinet
autoriserede
mekaniske
observeret
##stone
stæng
mars
##gæld
ejakulation
##københavn
parkerings
##procenten
plantes
sis
bogføring
friday
drivkraft
grid
##pinde
værdsætter
motivet
ansvarlighed
##pigen
skøde
renseanlæg
nordfyn
different
cav
##lim
socialistiske
skræmme
tømme
budgetter
##strømning
##sgrænse
##møbler
indones
navnene
borgerservice
##ainere
##68
overvejede
reklamations
forældremyndighed
anpart
arbejdsmiljøet
medmennesk
indrettes
malsætningen
uoverens
bryggers
kvar
øvede
##flugt
præstø
##kapitalen
pit
plæne
værelsespriser
edition
##sjæle
pubertet
fedme
kerteminde
balsam
udledningen
beretningen
accessories
##sbeskrivelse
turne
##building
titan
koncernens
bitte
gutter
lykkeligt
analytics
udkanten
##hof
##tech
følsomhed
yngle
formandens
##ejet
##døre
##handlen
pump
##sprincippet
tving
portugis
##alter
##bevægelser
scient
##enge
pon
forgangne
##67
##sprotokol
bys
arbejdende
forfatning
vat
secur
woman
majestæt
sok
##kvaliteten
##forhandling
solcreme
fagene
interessere
forandre
fyldige
køretur
prioriteres
fremlæggelse
##statistik
humoristisk
skelet
feks
cif
køen
tendensen
kendsgerning
knogle
tobaks
umage
##pande
##slerne
kollektionen
frodige
space
partners
bukke
rekreative
hook
##fødsels
##ffekter
##butikken
sejlet
aggressiv
telte
respondenter
hudens
gynger
pulsen
clean
blærebetændelse
##cr
databasen
forelægges
vera
analog
koh
betragtede
søerne
##elivet
##bestemm
stammen
ildsjæle
personers
elec
gentlemen
skik
gavner
final
myn
placerede
##scentret
rabarber
rag
##lat
##klæder
graders
multim
liverpool
udslag
bagager
kvalificere
##oten
erindringer
genskabe
snork
borgen
champions
spyd
fiskere
pa¥
##udgifterne
##usserne
indrettede
suppleanter
##ippet
##starter
##ides
kontaktannoncer
##fællesskab
anse
inkludere
mug
##smad
konserver
fælde
##sordning
opsætte
projektering
skjoldbruskkirtlen
liss
turk
##100
radgivende
vælte
##ovation
karant
frugten
knok
sanseg
lindre
kært
##kirur
##grøn
sarte
rundet
semifin
retsplej
##sfisk
christopher
playst
##asi
publiceret
niche
arrangeres
lokomot
barndommen
##iki
forhindret
heldigt
##sere
klæd
1948
søv
heb
norddjurs
retssag
##atøren
returnerer
opbevarer
egypt
iflg
rummeligt
pisse
delen
sugar
motions
fotograferet
klokke
propag
##klæde
luftfugt
besværlig
glød
skotland
krige
##broen
korruption
##uro
løntilskud
comments
industr
fastlægge
værdiskab
tunn
hess
akryl
essentielt
##98
suppleant
sænker
##sklin
##serklæring
adult
##urud
løve
abra
browserversioner
##pus
fartpilot
ditte
længes
##foranstaltninger
##ро
gabri
funktionsned
bolleven
indledte
tapas
drøftes
magnesium
skøj
php
##resultatet
##marker
kvarteret
modstr
opstilles
byggel
##æderne
sænk
lejemalet
hansens
metall
anlægge
argange
jacks
tilvalg
bindings
kundet
nægte
texas
ørest
##stræde
gulerod
introducere
steril
menigheden
livmoderhal
##rek
##serien
lethed
oec
livsg
##ego
galleriet
mallor
islandske
indstillingerne
oversættelser
##stilsynets
ejendele
forbedrede
omdrejningspunkt
##arbejdede
micro
##overfladen
fic
skyndte
##elag
##handsker
banebrydende
##sbekendt
spærret
sak
utæt
lchf
hugo
ankestyrelsen
erhvervsakadem
##sne
alen
buch
forskelligartede
##gaden
personligheder
vegetar
forekomsten
handbog
psykop
beboelses
chan
pastor
fastsla
besvarelser
truppen
##smen
##basen
foundation
hæftet
##mødre
odontologist
nude
skansom
logger
##skild
investerings
udskudt
##bit
##handels
thailandsk
gyl
item
paraply
##plantillæg
spontan
kirst
miljør
midaldrende
afdelingerne
##vinduer
undervurder
##pekt
##sprocent
##ilog
koret
parkeringspladsen
taletidskort
smørret
trofaste
mikrofon
stemmerne
##skemaet
skip
dates
musikk
blomstrende
bunker
kønssygdomme
trio
villaen
##omon
tilberede
joe
##øtte
anslaet
folkekirk
cart
equ
##profession
ifm
sdr
pam
genud
marcipan
##past
mp3
overgangsalderen
skræk
1965
holdte
indrømmer
mtb
skreg
vareb
##oblig
##irektør
organisatorisk
beklædt
hovedstadens
peders
bøder
middelhavet
ambassa
umulige
##ytningen
##fattelse
universal
##instinkt
alexand
siam
dæks
opfordret
##sporter
foreløbigt
kommunistiske
krum
nev
##behold
bonusser
##ords
slapper
fremsendt
udsmykning
muff
velegnede
tæer
discipliner
fremgik
kunstværker
##indstilling
gennemse
##skabelse
##kræfter
very
investeringen
esben
rygestop
helene
gerninger
##placering
konjunkt
kriterierne
klubhuset
statistikken
forvaltnings
kartoflerne
emilie
angribe
##parter
forplejning
universitetshospital
##lemmerne
accepteres
stalden
afhør
naturvidenskabelige
##mede
mathilde
##pir
bagagen
trol
##apperne
stan
##svarer
statsborgerskab
influenza
basil
arbejdsmarkedets
geografi
pornostjerner
##eth
allergisk
regionalt
bitco
supervision
returnering
sovs
velsign
forefindes
censor
##edi
innovativ
##ydninger
##spændende
straling
medbragte
længsel
jammerb
frygtelig
malere
tarnby
diagnoser
sokkel
##udstyret
pumpen
cad
mcc
ignorere
enge
sundhedsfaglige
læreb
pip
gerning
boulev
##sche
##odor
##ches
yoni
merete
storslaede
verdensklasse
skale
##cin
tobak
playstation
emh
essentielle
##overførsel
blogge
skiftevis
ral
udsendelsen
##nik
##lay
foot
##semb
eøs
network
markerede
##sforsøg
venteliste
arbejdsglæde
dateret
##skuddet
upload
##fare
##illende
imper
##halvaret
b2b
startes
varig
filtre
##perter
##rskov
fejrede
vene
##brænd
118
neutrale
stemmes
informationen
animation
cf
brom
bønderne
afspejle
refunderet
abe
##beredskab
##feber
vestlig
grænsel
instruktøren
pistol
driller
##lyse
rude
argumentere
skaft
somal
stjal
##nemmelse
ai
fastholdt
lejes
akkomp
turistattra
##olis
##emæssige
dæmon
charlie
gebyret
afgives
ng
tilfældigvis
lyttet
##farlige
straffelovens
forekommende
roden
blanke
overdad
##sporet
blokere
frustrerende
atlant
##blok
frodig
##leverandører
opførte
moz
algorit
overfaldet
venus
##element
folkelige
##vansk
forkant
##sevnen
1400
210
efterladte
##slu
holdets
##sniveauet
level
milep
dyreliv
##isternes
##asme
klienten
##elinjen
tilga
##effekt
selvsa
bræd
pegede
##ily
indlæring
landing
pokal
##ivere
museums
kogebog
strøget
##sæsonen
krat
##moderne
tosset
cocktails
græder
pont
sædafgang
styk
##redskab
ubetyd
blabær
##ution
limfjorden
##strøms
##breve
ejerskifte
ending
tilskuer
depress
cond
moskva
manedligt
forøgelse
core
##esco
afprøvning
modetøj
adwords
højdepunkt
miljøv
pile
træneren
##agent
overdraget
##sfrit
kogende
korriger
kommentarerne
mure
fibr
interaktive
beboernes
jones
dyrkede
færdighed
foc
##ни
beretter
æggest
hjemland
folkeaf
udklædning
finske
plantage
cheftræner
bearbejdning
##nyt
##samtaler
udluft
specialer
underliv
fiskene
matematiske
##irur
lægemidlet
læringsmiljø
troværdig
vallens
afmon
bagte
comfort
##modellen
opgradere
uart
##lab
formind
##klaring
nedgang
dies
redigering
102
nielsens
webside
reformen
trek
##lejlighed
##portal
sangene
##praksis
deal
videreuddannelse
fcm
salling
egn
boldklub
akademi
arkivfoto
forbindes
kulhydrat
konstante
anmoder
##indretning
charlotten
kess
145
spinat
##uldt
svagheder
østersøen
bull
indeværende
servicelovens
betagende
ikonet
##partem
skyer
lime
fredet
##ingeniør
hegnet
##ief
ejendomm
forandret
barske
##tradte
indikation
intensivt
##ommeren
##imp
##inn
medborger
fortrolig
støjende
omdannet
aktiem
journ
færdiggjort
portrætter
##betjeningen
korset
tyrkisk
mager
##skravet
kompost
hing
hm
indførelsen
tavlen
svindel
københav
asparges
evangeliet
selvfor
##arealerne
##nære
tild
##vern
generende
fredede
##ao
fraflytning
regninger
##ify
hælde
##ventyr
forhandles
##bibliotek
##ake
##sektor
fællesk
dagbladet
##ues
##hur
##ility
##storm
forældet
1962
semi
##lah
fodboldspiller
dilemm
##arkiv
##ietter
konventionelle
henføres
godkendelses
finansieres
skolernes
beholdere
herman
neon
vedligeholdes
##brevet
sept
##unes
##crem
##anie
1966
mundtligt
##administration
##delsen
candid
vejl
zu
##væksten
##ssamfund
tilgange
hestene
rider
sluger
afstande
tilbygning
kunstværk
tavle
tolke
mindede
optradte
##iater
nytter
tiltalt
fjerd
indbringes
intro
autost
##offent
wint
##amme
##erklæring
toyota
belyst
væsken
##ævnes
##kopper
internetbrowser
postkasse
ændringsforslag
græsplæne
parallelt
kiroprakt
ansku
##grid
skys
reviderede
##liner
gengivelse
bages
##øjtn
overenskomster
##ejern
indgivet
svovl
langvarige
genvej
##vey
stein
##vard
##stran
snegle
forstyrre
utryghed
##ер
inspirerede
skubbet
##itage
sektioner
videob
4x
konkludere
cirkulære
##gruppens
understøttelse
betro
abraham
krydstogt
googles
##strøg
riget
komposition
hade
historiens
funktionær
come
naboerne
kontrover
nutid
konstruktivt
domme
nig
utvivl
##pit
##magten
ombud
opmunt
##berede
instituttet
notes
indsamlede
broc
datidens
vitter
learning
afspilning
##videoer
antag
farfar
essay
fyl
fatter
tandlægen
malest
##arerne
markerne
inviteres
plukke
desserter
trøjen
tysklands
tiltrækkende
domineret
rehabiliter
##smaling
##skru
##rt
holsten
tibet
##renes
##fradrag
upaklag
bli
##def
spredes
udtrykte
spektakulære
##melade
lap
##ios
tvist
##modtagere
##behandlet
stænger
kredsen
terminal
anede
##tallet
certific
cass
almindeligvis
trim
kølig
cuba
##vært
##jas
##emod
##arl
gol
devel
##izz
indkøbt
##idelser
solnedgang
værdifuldt
afgivne
rengøringen
løns
champion
ensomme
sortering
##uropa
##sons
##fattet
##enmand
frigivet
ansøgte
1964
koffe
##sbygning
##donald
##rads
væsener
profilen
nomineret
bliveenmand
award
trip
vp
##lyste
brabrand
chaufføren
##stift
##tube
##sides
journalisten
nuet
skærpet
##kab
havnet
indberette
##92
kunstigt
sandsynlig
regnskabspraksis
bevilget
border
##urerne
ansattes
##proced
aftager
cust
##sfasen
silver
skattefri
##iktion
skuespilleren
fødevarestyrelsen
afløn
##skens
##ssiden
##bob
humøret
blokke
flyselskaber
spand
ivrig
##rafik
bestillingen
naboens
vestre
overnatninger
##ilfælde
kontaktede
##oed
graven
terrænet
derom
beskedne
jim
##srige
##antal
##stænger
ansl
forsat
##spids
overladt
##fotos
dilemma
lovlige
hipp
samfundsfag
mirak
six
pack
univer
##ereres
socialdemokratiske
consult
nam
bevidstheden
sinds
fortvivl
2500
##saktivitet
##teknik
pakl
natural
##forbered
nørresund
csr
siddepladser
##attle
gaard
eh
fabel
##sbanen
lauritz
dametøj
spræng
slam
proportion
palæ
skadeligt
ferieg
##overvagning
sexannoncer
##krat
ambulance
præsidenten
sg
bingo
tilbragt
##flasker
strækninger
kognitiv
##ydningen
syddjurs
hjerner
omg
serviceydelser
udbygge
svækket
skridtet
afrikansk
##læng
minoritet
nattes
corpor
savne
anliggender
anbringes
flygtede
energitil
faneb
frikad
##hum
naturskønne
##skør
medaljer
joach
nag
forrent
byrum
town
litau
##esserne
##skortet
plaget
##weg
##kaldende
telesel
beharet
foreligge
gyser
spildt
menighedsradet
huser
friskt
tilstedeværende
jonat
kommunalbestyrelsens
fritiden
terrasser
præsentationen
##ience
genvalg
queen
story
dg
ugyld
##dig
nytarsaften
bagsværd
alsidige
skubber
fox
##ssted
netdating
fælled
##ingsanlæg
omkreds
moon
vedligeholdt
langsomme
printe
##andes
indleder
havets
167
vandforsyning
tja
cod
##spligtige
ophids
hotteste
energistyrelsen
afleverer
##sygdom
##ansættelse
sultne
hyppigste
##æpper
regulerer
afklare
##iversitet
sommerfugle
##rete
##vilje
fædr
##mentering
106
1914
##ologen
andelig
storhed
##færden
letvægt
##træer
malmø
palæstinensiske
anmeldte
kirurgisk
pludselige
analyseret
løbeb
sammenholdt
##afdelinger
afbryde
svæve
tulip
##kkelser
stimul
##felter
##oma
varmes
udstedelse
##ensburg
arkitektoniske
forsæt
tilstødende
##skærmen
empir
elbil
ansættelsen
##slande
bosæt
understreges
output
##vindue
foregaet
udviklere
cykeltur
nytænkning
anerkendende
vandreture
##overenskom
##defin
##upp
koranen
leverancer
magic
##eskriv
##prægede
bamse
##stoffet
tinglysning
isbn
nørresundby
##æser
random
xbox
selen
helikopter
hængek
tasten
##agelsen
##gear
osse
##ideres
direktivet
afskrivninger
##hedens
maxim
spisestue
##sekretariatet
svanem
lungerne
zomb
##gænger
varmek
##agaard
givende
##kout
##strukturen
betegnet
trofast
sammensætningen
ay
stearinlys
superliga
pcb
slæbe
##aktor
pse
adopt
overarbejde
værts
lettelse
klassens
hardeste
diy
sunget
støvet
##ovo
slib
fia
dee
udtræk
traktaten
erfaringen
##diagn
belønning
##følsomme
pensionister
##velfærd
klasses
1939
realiteten
cot
##sbøl
fedtsyrer
komprim
biseksuelle
eger
subl
vande
orm
knytte
lygte
european
##ytterne
##udviklet
jyd
##sarbejde
værdik
smating
vedlægges
kattegat
oz
##skyl
blænd
spind
##sbel
##følgen
blinker
hjælpende
pommes
folkeskolens
##kol
gulvt
principielt
##gribende
##hinden
garantien
##dateret
landevejen
forvandlet
overblikket
donor
odontologistudiet
bevæget
gip
cellerne
vallensbæk
justeret
pent
modig
administrations
eyel
satan
ytringsfrihed
stedfor
supermarkedet
##sign
tæve
jog
divis
knive
underlige
prøverne
bænken
motorcykler
autocamper
koncepter
##usive
lysende
tilsætte
##isters
forudsætningen
four
operativ
aftalens
genanvend
movie
##ivning
##bex
##non
dejligste
energibesparelser
solsk
birthe
efternavn
livlig
stegte
##vine
nø
forgænger
tilbuddene
uddyber
vandværket
energikl
по
##ssæt
##ikringer
undersøgelsens
##nær
##bach
hjælpemiddel
##gin
begæring
trumps
forudsige
stick
helge
##etti
##arie
##ringerne
gummist
opretholdes
##nep
dynen
prognose
strikker
##skærme
##igeret
singap
bridge
##skasser
##udveksling
apv
##bestand
krigens
116
volt
medvirket
honorar
dok
##liget
##kalder
##akon
##bisk
duo
booker
##ea
indspil
dommerne
realkreditlan
brætspil
intervention
sponsoreret
gevaldigt
##inationen
bordplade
børsn
##sforskning
likes
tolerance
hastigheder
gennemsigtig
deklar
anhænger
verb
uforudset
latina
hjulene
mandat
bygningsdele
bearbejde
slikket
migræne
tættest
omtanke
##operation
sæby
misbru
medicinal
efterspurgt
##gom
trylle
rustfri
vakte
##intet
underrette
row
##igelser
afsta
toks
##arts
regeringer
lake
intervaller
##skæringer
skeptisk
##timerne
superhost
##kil
margar
##sfejl
tilliden
institutionerne
kaja
underskrive
fysioterapeuter
vanvittig
tonen
##rivende
klimatil
1917
tilløb
ualmindeligt
##belægning
tatovering
absurd
erkend
##spændt
anstænd
##apparater
boende
snaps
##størrelser
##ofon
##hængende
fugtigt
bof
kommuneplantillæg
opfatte
stjernerne
overvag
islamiske
##ørrelse
##oved
uniform
2½
##studier
##uppe
109
##stimer
statsborgere
tidsrummet
redigeret
##semin
stores
afhænge
fyrværkeri
fuge
brav
jordbrug
##enheden
sofistik
adgangs
##færdige
##licht
debuterede
brystvorter
finur
taxi
##dygtig
##hulen
usynlige
##ет
nordpa
aldersfor
belej
afspille
vejrudsigt
laboratorie
hald
tilegne
slægten
kampens
bekræftede
indførte
flyvning
jokes
eco
kikker
koordination
kent
tac
##pause
malware
gnid
dubai
hverv
præsentationer
##leb
##strategien
##rængning
havudsigt
##skrig
bestræbelser
##ostat
##sbane
hæmmer
konsist
##door
##grænser
fuglen
tilskuds
##oldt
ejerlejlighed
stedfortræ
##æres
##talen
kav
arkæologiske
overnatningssteder
gan
krad
##byer
##ulet
telia
polsk
jødisk
##styre
indbe
emission
rustet
##works
utvivlsomt
forbav
##personalet
betydningsfulde
##inans
opdeles
afventer
uddeles
##øvn
gennemsnits
##dreven
ældrer
dyrenes
myrdet
planlægnings
stream
kysser
##nt
##asso
freja
boligens
bevæb
mascara
##eguide
##psi
eksplosion
selvfølge
realdan
udlejes
text
1300
##album
førstegang
fortrudt
##hospital
saadan
befor
emotion
gruppearbejde
indtaster
##svægt
pabegynde
hpv
bloggere
tucan
opsyn
bibliotekerne
fjendt
aby
##ск
leveringen
neglelak
##accept
transskri
hjælpsom
vinderne
sou
illeg
ræv
absorber
##steknik
mediet
##sbl
sluttet
##fransk
campingpladser
databeskyttelses
frustreret
sydamerika
express
disco
##personale
##lish
##standarder
hæren
videokvalitet
ifald
indd
forløbne
gut
sif
##wald
##elov
grot
holdbart
650
##radt
julemanden
hurra
hhx
fløjet
##aljer
##føreren
farvek
procentpoint
rengøres
cs
##perioder
intention
##skor
energimærkning
antikvar
##bun
sproglig
##uheld
##vag
entreen
afgiften
kvalitative
optagelsen
mj
myte
dyrk
glatbar
københavner
saftige
empati
evighed
passiver
##iri
beføjelser
pirat
##orlov
alban
skrig
##sordningen
##navnet
##ssteder
christianshavn
ric
##unds
##apparatet
reperto
kablet
gætter
phen
svendsen
##onerede
studien
##ights
kids
##fabrikken
##graden
tt
omverden
##kkert
hakkede
pvc
forskels
##opro
skolebørn
brandvæsen
tunnel
##siddende
hensigtsmæssige
emnerne
spilleautomater
datatilsynet
dyk
##flot
standpunkt
##oland
##fect
præmis
skygger
##ækkes
telefonnumre
erhvervsstyrelsen
1963
istandsættelse
napole
jeanette
klares
##aftryk
krydderi
rena
arrangør
##gulv
##deb
stejl
instrueret
skattes
##værelserne
afkryd
brandet
villet
henriette
deltageren
solidaritet
afbryder
ligesindede
##ged
##ændene
1941
formater
inspirerer
published
mallorca
rullet
trykkes
ejerlejligheder
lassen
binding
##jan
forur
tysker
symbolet
kortvarigt
adobe
producer
klippes
leveringstiden
fremlagde
kronborg
##canner
frafald
##hullet
auf
##eskind
##tasker
truende
flyrejser
værkerne
varmtvand
sea
##ladsen
fejlagtigt
ødelæggelse
anmeldes
academ
##sbevidst
træpiller
sagsnr
bølgerne
forbløff
##bour
friskole
brasil
trille
##bolde
højlyd
solcelleanlæg
gælden
##læse
baggrunde
autov
udarbejdede
piskes
forbrydelser
bureauer
sødeste
fake
sanktion
forelæs
udpl
bedring
fotografen
indarbejdet
##obs
intakt
statistikker
muller
koordinator
massevis
peer
chauffører
flager
salmer
aktiverer
bk
pendler
##sfirma
brugbart
kompress
installatør
talje
indtages
indskol
forbundne
gradvis
tiltænkt
workshoppen
relative
blodprøver
##giftning
##ansat
fagets
adress
##kart
##ruder
synke
bogholder
##sdyr
sværeste
##vanskeligheder
udsættelse
offsh
føje
gate
opsættes
##interview
wird
##terrasse
hirt
##optagelse
##scentre
fokusomrader
glimmer
buk
retlige
argentina
glædede
nutiden
transporteres
applikation
ophæve
udskrives
udadtil
rung
provsti
eddike
annul
##hvide
fodre
persille
brusen
bekræftes
joachim
##nic
##ebørn
bush
magtfulde
indhentes
gaz
lakt
gog
hytten
connect
isa
##arme
ordentlige
##etto
følelserne
stadfæst
##kelser
kvist
tiende
publikationer
tilstræber
læsø
pryd
bakterie
motivationen
##ønder
##arth
##koncer
deltids
epile
feder
kjøb
##gym
tanden
støbt
hønse
vægte
##højskolen
økonomiudvalget
kerner
forfærdelige
havemøbler
##giske
##ejlet
værnem
jernbanen
trig
lancerede
ali
##emark
diale
bebyggelses
pseud
gys
pollen
aminos
bider
fladskærms
betragtninger
søjler
ism
##ordre
svimmelhed
##47
rollem
definitioner
guddommelige
ophob
psykoterapeut
koffein
spæde
ion
disken
##dragter
benyttelse
##ønnen
carbon
slør
selskaberne
diskrete
linier
overflod
isolation
dedikerede
##sge
double
aftryk
ligetil
monte
##sejlads
østrogen
symfoni
koger
eksperimenterende
veterin
fade
mond
vandh
##elmasse
protected
nedlægge
frav
overfladisk
skrivning
moster
telenor
rystet
aj
forvirrende
##ores
uddateret
skylle
##sygdomme
train
sols
medhold
munter
##stager
##rulle
logoet
nedrivning
politikken
fristet
pie
overskuds
ryk
medvirken
medtages
storkøbenhavn
punktum
børnem
snur
befolkningens
leo
bbc
øvet
##essen
##saffald
pave
women
beholderen
##organ
højtalere
119
tilsynsm
objektive
1942
observere
tiders
grøntsag
drøftelser
cour
anlægges
lørdagen
##gaarden
muhammed
##fiskeri
tilstedeværelsen
fredelig
skræn
brutal
##wi
##strømmen
clear
##indik
triste
gavne
##rammen
ømhed
jordskælv
ilde
mesterskaber
basic
lodrette
fjernede
regntøj
##fredshed
bedrager
1958
##iklerne
lavest
serveren
##runden
kiel
##eper
##metoder
bagside
optog
indebære
suverænt
forestaende
##aaaa
efterlyser
##sbestyr
liban
hatt
avoc
immunforsvar
lagkage
tryks
havner
##hers
udpeger
kejsersnit
nyhederne
##instruktør
hirtsh
hir
##hjælpen
korrektur
##trækningen
tatto
manuskrip
udbygget
rastof
bring
gature
bekymrende
høste
##spraktik
reklamation
valutak
studerede
lærke
involvere
##bjærg
udvælger
saxo
gaa
103
bym
menneskeligt
##niveauer
sri
hjemmesko
regelsæt
venne
hjulet
anmodet
stemplet
barriere
efterarets
##ærte
eksotisk
departem
betænd
radiator
uer
grimt
##beton
bidrog
och
eric
holte
law
stressede
pante
##afgifter
straffet
nordjyllands
brygget
elimin
bagerst
149
##41
dani
multik
slang
chelse
sporty
##ero
tits
parent
gulvaf
anmodningen
republ
##eback
##oplysningerne
ansættelsesforhold
veroffent
knæet
modtagne
##elæg
emmer
##vat
6000
bloom
verdener
##rengøring
epide
##ællinger
udvej
udtør
##bekæmpelse
beta
jv
venstrefløjen
asylansøgere
eksisterede
kraftvarme
certificerede
utalmod
forsinkelser
gigantisk
delene
##ures
repræsenterede
##anni
presses
vase
tilhænger
marcus
##ollen
officer
jævnaldrende
overenskomsten
ernærings
klagenævnet
føj
oecd
misforstaelser
jammerbugt
##aper
udpegede
eftertanke
##42
ristet
mikrobølge
##iders
vasketøj
##fugl
strømmer
asger
entreprenører
##blomster
veroffentlicht
##lamper
depr
##iate
berørings
arbejdsgiverne
htx
hvalpene
verdensom
badetøj
vaccination
gymnasiale
offline
##onda
eksemplet
##kvinder
##fokus
bortskaffelse
##splanlæg
##hud
##shæ
rettidig
koges
øjenkontakt
afslappede
tolkning
##69
venedig
kusser
##telige
ærg
skrider
manedens
udlægges
skiløb
svømmehal
##puder
##faktor
forneden
søndergaard
##rustet
##issioner
sænket
anci
flora
fabrikker
fædreland
prale
rekt
##hall
forfølge
htc
fortryl
lemp
##mønster
##fortælling
justitsministeriet
massag
sagn
##kd
kirstine
hygget
stedets
##skibet
mælkes
2x
baade
indtastet
tilskadekomne
##bølle
garantier
uved
underholdt
pointer
begrundelsen
brylluppet
besynder
advarsler
brat
lancerer
cykels
tjekkiet
##befolkningen
indanding
bedstefar
inderst
singapore
bagen
##instrumenter
impuls
selvsamme
forfatterens
byggepladsen
pesticider
##sfaciliteter
egnen
1956
lesbian
definitionen
hiver
bilder
frederiksværk
##gam
regnb
##wear
monopol
antist
førend
##ovede
111
mangelfuld
bugten
inspirationen
##skontoret
rc
##oko
oplæring
eksek
1949
bell
grammatik
hirtshals
material
ærlighed
karton
bebrej
prev
premierminister
aop
##brik
autorisation
komponist
tosc
hviskede
grundvandet
progression
kard
genialt
##smuseet
##ukser
pengep
støvring
manedlig
##straf
ping
nyheden
cremer
laboratorium
##kvensen
udformningen
aven
lokalsamfundet
ambitiøs
tackle
siem
bibl
tilskrives
##vandring
kørslen
middelhav
anatomi
handjob
enkeltvis
hjemmeholdet
##filer
standby
familiemedlem
##skampe
fremtræder
##care
turbo
##dahl
æggesto
maleren
gengivet
sælgeren
##vedt
beboeren
leveren
kokken
afviger
sensitiv
##gie
relaterer
swingers
engros
pensel
restriktioner
##rettigheder
suz
hofter
pænere
1961
roklub
##regningen
##handleren
tas
##øns
##sbru
short
puster
panorama
##js
hastigt
##spisning
sys
##sminde
scooter
fravælge
hell
##oleum
udslip
halen
utilstrækkelig
fortræ
doktor
forespørgsler
havørred
##rier
##yndere
repareret
stigninger
drastisk
##ulationen
##standard
##informationer
##seret
squash
fredeligt
fødselsdage
belastende
powerpoint
omgiver
evalueres
tæerne
##plante
rørte
forseg
##ovide
flov
overvejelse
1946
udelukker
sofab
kortlægge
kunstakadem
ferr
gennemtænkt
adren
##afler
exit
##prog
##made
sett
bordene
##løsningen
innovations
vulkan
vibrationer
dmi
##ois
diagram
beregn
valley
elbiler
metabol
somme
forbillede
##øfter
source
lageret
etablerer
ødelæggende
kroge
byttet
wid
hong
vedtagne
tidssvarende
##sfra
stemmeberettigede
piercing
excl
tarmen
barnebarn
mann
andele
##førslen
##region
hjemmeplejen
intimitet
mirakel
##kæden
selvop
ernst
vedlagte
##show
hoff
uddannelsesinstitution
1890
pioner
medbringer
##odser
##formular
pladserne
kri
##ль
##reglen
universiteterne
fødes
dokumentationen
ideologi
forretningsorden
konvertere
øh
overlevede
damen
1947
scandinav
disses
kursisterne
michelle
piv
ansættes
tillagt
##svirk
branchens
taktik
handles
hæmor
ærke
forstopp
latinske
tilhørte
bumser
misbrugt
kropssprog
maskinerne
astronom
dyd
##alismens
referatet
passive
blomstre
##endel
drivhuset
spækket
healing
apples
underlaget
familiesammen
opereret
værten
##rot
##insk
ekstrabladet
##ione
##amas
sb
frokosten
##ickl
regionsradet
favrskov
maltidet
genetisk
skaff
129
##lavede
sper
byrde
skildpad
indsa
##ølv
renses
za
atlas
##okem
røres
registrerings
varige
æter
mms
uvild
anbefalingerne
omkr
volden
stiftstidende
hjælpes
nationalitet
ydelses
frister
##orges
sommerdag
vestergaard
##din
##ræder
farma
forebyggelses
indflytning
smukkere
balder
tænket
mete
invester
nerver
grundlægger
kodeord
efterarsferien
##ostyring
bej
##væske
jos
##ны
stryg
hævde
næromrade
valgfri
rødme
tillægs
forbrydelse
motoriske
grafen
ombygget
##astisk
raw
foranstaltning
athen
harfjer
behør
gevind
anvendelig
##ppel
##komite
uaccept
brikker
dygtigste
samfundsvidenskab
imødega
komplekst
##etemperatur
doven
keld
##komment
nødde
nordsøen
##smedicin
kontinu
galde
svende
stillings
færdiggøre
fagomrader
uhyggeligt
højrekl
undtagelses
##installation
elastisk
spares
gunnar
##egangen
##unsten
misforstaet
##rakter
gentagelse
ted
nattel
introducerer
flensburg
sq
##smalet
grey
adskille
hjemlige
##strene
igangsætte
##koncert
skiltet
omdømme
##opæd
1100
energiforbruget
optagelses
##sbehov
messer
##forskel
tvillinger
rækkehus
##partnere
hartørrer
550
ryster
jøde
##engen
##ovej
##overy
lufthavne
sygemeldt
godnat
debitor
offentliggør
usikkert
##ious
##sækken
raad
brugervenlig
retningslinjerne
maleriet
udspiller
fodring
##aluering
##behandlinger
afspær
fremlægges
##ities
##izer
##snings
refleksioner
benchmark
madpakke
komplimenter
##entusi
virtual
forband
pract
bemærkelsesværdigt
overgaet
##not
##hest
sprunget
##relateret
##læggelser
skilles
beharede
127
monument
malrette
##sfælles
integreres
##hjælpere
potentialer
sukkeret
##icon
fyrt
##ænkende
##etage
forsendelsen
straffen
##kyndig
forebygger
fon
tet
##fid
option
nim
##glæde
stjernen
##retlige
krænkelse
pæd
##vejene
ivan
hovedban
misligholdelse
##rost
##uit
##foss
hei
skorsten
ergonomisk
crow
##hab
##arene
qual
tegneserier
##klap
##trer
##spligten
saldo
##ateriel
lunt
kapsler
oprejst
nils
##fem
##het
komfur
##ererede
fischer
1880
##rim
##timer
product
1919
tastrup
akkreditering
lcd
bestseller
##ssyge
sekundære
hollandsk
deltagernes
gymnasier
opsøgende
aldersgruppe
kessler
velplej
barned
##afgiften
fredning
fabri
##læggelsen
##splant
##faglig
udleve
##mæl
outdoor
førhen
gna
skrab
scre
ydersiden
tilsætnings
##beskatning
styrings
##villa
nes
##cet
##bryll
indsn
viv
evaku
##bandet
prislo
administreres
##koden
edge
use
lærlinge
##legemer
##sserne
behjælpelig
##ørsler
mie
overga
paføre
færdsel
optagelserne
##ит
##inkler
dyrinstinkt
overkommelig
##verter
livlige
solvarme
faglærte
sparekassen
indser
forberedte
afspejles
wonder
##scen
sare
##alede
fremstillingen
1870
rejseforsikring
uhyggelig
##unger
strapon
synliggøre
bakket
evaluerings
##cil
##ygtet
programmerne
##bem
florida
zoneter
børsno
##æner
flink
sense
major
lucas
skifteretten
betalingsform
##masse
pengeinstitutter
##amerikanske
klør
##ieren
afstemningen
piske
nystart
udløst
opgang
retssikkerhed
anno
omdrejningspunktet
retsfor
opkræver
utradition
panelet
mikroskop
kalenderar
lym
##morgen
altaner
fotografi
kunsthandværk
multip
dirigenten
##ogene
##svækkende
transmission
lurer
1933
rein
integritet
radhuspladsen
##och
##ometr
dosering
frosne
##edren
virknings
tiltagende
tilberedning
domæner
flit
forstyrret
eøf
dyrevelfærd
opbevaret
##øjtnant
##kroner
##konkurrence
drabe
væddemal
udbudt
løftes
atletik
##neringen
hvedemel
want
udsteder
markedsf
biz
pusle
##flaske
partierne
udbredelsen
rudersdal
kærestes
than
##hjør
modstanderen
boligs
outs
aflæse
agenda
##sbroen
lodtrækning
##græs
medarbejderens
##skonstru
flødeskum
##vagten
##stidspunkt
169
vejledere
erektil
##farligt
ungdomsb
uhyggelige
sportslige
grænseværdier
address
bagl
onanerer
##kere
herr
salte
hullerne
emm
##overvej
injektion
##aro
kridt
afdækning
persien
##ruter
realiseret
##week
##etiden
indtjen
opgøret
wol
stønnede
andrea
##overtræ
##sfors
meyer
strukturelle
photo
##lign
forsørgelse
##tennis
##toft
##fæste
arbejdsstyrken
##parker
højbjerg
##isp
flue
opfølg
seer
flyvet
vinduesk
vagn
gavl
afspænding
spillemaskiner
bestyrelsesformand
vækket
turn
forøge
talen
##sstedet
##sforløbet
soundtra
grindsted
tilbringer
kriterium
skjuler
##manns
børnehav
frites
##obligationer
beskyld
dekorative
parforholdet
some
pros
hilsner
pyram
##ury
##levelse
emballagen
søjle
##inem
1953
flinke
skyscanner
forhuden
nitrat
rejseg
informerer
##buffet
omslag
finanslov
sekundær
michelin
irske
justerbar
##alings
skom
turb
udlevere
tærte
æde
skattemæssige
##assistenter
geniale
rs
eskort
forstærke
kommes
##imet
børnel
instans
lønninger
møblerne
blyant
versionen
mastercard
##sats
forsikringsselskaber
motiverende
##badet
hay
erhvervsk
##sidste
sjoveste
##mmeligt
grob
basketball
francisco
pornovide
brændsel
naturbeskyttelses
##sædet
postnummer
##central
##finger
afregnes
##fibre
##asien
lau
tøv
mosa
hvidvask
##fanget
hotellerne
##abnet
1957
simone
segment
arealerne
1959
unødig
knæene
nikita
##økonomisk
agurk
kate
isolerede
døjer
opefter
opgraderet
bronz
tjenest
##oz
##´erne
anledningen
julepynt
siv
dominerer
ressourcerne
code
prik
sarede
følelsesmæssig
miles
fremvisning
##nb
tilføres
frivillighed
##absor
konsort
##sprodukt
##pist
##43
kommercielt
afbalanceret
##rænder
grønsager
adspurgte
##sakt
fagforeninger
amerikanere
chicago
sommerland
ærter
boligt
linser
forsvarets
udlejeren
aggressive
overvinde
sædevarme
thorvaldsen
bark
##bærende
pel
udskyde
kompakte
##otograf
##kles
ideerne
lystbade
kalibr
brugervenlighed
indlægss
##metal
cort
##olaps
develop
##ræde
lavpris
tyde
ørred
unødigt
##otel
shit
mekanismer
forstoppelse
milan
dybeste
indsigelser
dækningen
digtsamling
##arrang
bedømt
skrivelse
##itas
skabelsen
rki
lukas
karina
professionshøj
kulin
feriehus
##rækkende
religioner
vestind
utrygge
##dist
##støb
arh
##ificeres
chelsea
trænede
[...]
