[PAD]
[unused0]
[unused1]
[unused2]
[unused3]
[unused4]
[unused5]
[unused6]
[unused7]
[unused8]
[unused9]
[unused10]
[unused11]
[unused12]
[unused13]
[unused14]
[unused15]
[unused16]
[unused17]
[unused18]
[unused19]
[unused20]
[unused21]
[unused22]
[unused23]
[unused24]
[unused25]
[unused26]
[unused27]
[unused28]
[unused29]
[unused30]
[unused31]
[unused32]
[unused33]
[unused34]
[unused35]
[unused36]
[unused37]
[unused38]
[unused39]
[unused40]
[unused41]
[unused42]
[unused43]
[unused44]
[unused45]
[unused46]
[unused47]
[unused48]
[unused49]
[unused50]
[unused51]
[unused52]
[unused53]
[unused54]
[unused55]
[unused56]
[unused57]
[unused58]
[unused59]
[unused60]
[unused61]
[unused62]
[unused63]
[unused64]
[unused65]
[unused66]
[unused67]
[unused68]
[unused69]
[unused70]
[unused71]
[unused72]
[unused73]
[unused74]
[unused75]
[unused76]
[unused77]
[unused78]
[unused79]
[unused80]
[unused81]
[unused82]
[unused83]
[unused84]
[unused85]
[unused86]
[unused87]
[unused88]
[unused89]
[unused90]
[unused91]
[unused92]
[unused93]
[unused94]
[unused95]
[unused96]
[unused97]
[unused98]
[unused99]
[unused100]
[unused101]
[unused102]
[unused103]
[unused104]
[unused105]
[unused106]
[unused107]
[unused108]
[unused109]
[unused110]
[unused111]
[unused112]
[unused113]
[unused114]
[unused115]
[unused116]
[unused117]
[unused118]
[unused119]
[unused120]
[unused121]
[unused122]
[unused123]
[unused124]
[unused125]
[unused126]
[unused127]
[unused128]
[unused129]
[unused130]
[unused131]
[unused132]
[unused133]
[unused134]
[unused135]
[unused136]
[unused137]
[unused138]
[unused139]
[unused140]
[unused141]
[unused142]
[unused143]
[unused144]
[unused145]
[unused146]
[unused147]
[unused148]
[unused149]
[unused150]
[unused151]
[unused152]
[unused153]
[unused154]
[unused155]
[unused156]
[unused157]
[unused158]
[unused159]
[unused160]
[unused161]
[unused162]
[unused163]
[unused164]
[unused165]
[unused166]
[unused167]
[unused168]
[unused169]
[unused170]
[unused171]
[unused172]
[unused173]
[unused174]
[unused175]
[unused176]
[unused177]
[unused178]
[unused179]
[unused180]
[unused181]
[unused182]
[unused183]
[unused184]
[unused185]
[unused186]
[unused187]
[unused188]
[unused189]
[unused190]
[unused191]
[unused192]
[unused193]
[unused194]
[unused195]
[unused196]
[unused197]
[unused198]
[unused199]
[unused200]
[unused201]
[unused202]
[unused203]
[unused204]
[unused205]
[unused206]
[unused207]
[unused208]
[unused209]
[unused210]
[unused211]
[unused212]
[unused213]
[unused214]
[unused215]
[unused216]
[unused217]
[unused218]
[unused219]
[unused220]
[unused221]
[unused222]
[unused223]
[unused224]
[unused225]
[unused226]
[unused227]
[unused228]
[unused229]
[unused230]
[unused231]
[unused232]
[unused233]
[unused234]
[unused235]
[unused236]
[unused237]
[unused238]
[unused239]
[unused240]
[unused241]
[unused242]
[unused243]
[unused244]
[unused245]
[unused246]
[unused247]
[unused248]
[unused249]
[unused250]
[unused251]
[unused252]
[unused253]
[unused254]
[unused255]
[unused256]
[unused257]
[unused258]
[unused259]
[unused260]
[unused261]
[unused262]
[unused263]
[unused264]
[unused265]
[unused266]
[unused267]
[unused268]
[unused269]
[unused270]
[unused271]
[unused272]
[unused273]
[unused274]
[unused275]
[unused276]
[unused277]
[unused278]
[unused279]
[unused280]
[unused281]
[unused282]
[unused283]
[unused284]
[unused285]
[unused286]
[unused287]
[unused288]
[unused289]
[unused290]
[unused291]
[unused292]
[unused293]
[unused294]
[unused295]
[unused296]
[unused297]
[unused298]
[unused299]
[unused300]
[unused301]
[unused302]
[unused303]
[unused304]
[unused305]
[unused306]
[unused307]
[unused308]
[unused309]
[unused310]
[unused311]
[unused312]
[unused313]
[unused314]
[unused315]
[unused316]
[unused317]
[unused318]
[unused319]
[unused320]
[unused321]
[unused322]
[unused323]
[unused324]
[unused325]
[unused326]
[unused327]
[unused328]
[unused329]
[unused330]
[unused331]
[unused332]
[unused333]
[unused334]
[unused335]
[unused336]
[unused337]
[unused338]
[unused339]
[unused340]
[unused341]
[unused342]
[unused343]
[unused344]
[unused345]
[unused346]
[unused347]
[unused348]
[unused349]
[unused350]
[unused351]
[unused352]
[unused353]
[unused354]
[unused355]
[unused356]
[unused357]
[unused358]
[unused359]
[unused360]
[unused361]
[unused362]
[unused363]
[unused364]
[unused365]
[unused366]
[unused367]
[unused368]
[unused369]
[unused370]
[unused371]
[unused372]
[unused373]
[unused374]
[unused375]
[unused376]
[unused377]
[unused378]
[unused379]
[unused380]
[unused381]
[unused382]
[unused383]
[unused384]
[unused385]
[unused386]
[unused387]
[unused388]
[unused389]
[unused390]
[unused391]
[unused392]
[unused393]
[unused394]
[unused395]
[unused396]
[unused397]
[unused398]
[unused399]
[unused400]
[unused401]
[unused402]
[unused403]
[unused404]
[unused405]
[unused406]
[unused407]
[unused408]
[unused409]
[unused410]
[unused411]
[unused412]
[unused413]
[unused414]
[unused415]
[unused416]
[unused417]
[unused418]
[unused419]
[unused420]
[unused421]
[unused422]
[unused423]
[unused424]
[unused425]
[unused426]
[unused427]
[unused428]
[unused429]
[unused430]
[unused431]
[unused432]
[unused433]
[unused434]
[unused435]
[unused436]
[unused437]
[unused438]
[unused439]
[unused440]
[unused441]
[unused442]
[unused443]
[unused444]
[unused445]
[unused446]
[unused447]
[unused448]
[unused449]
[unused450]
[unused451]
[unused452]
[unused453]
[unused454]
[unused455]
[unused456]
[unused457]
[unused458]
[unused459]
[unused460]
[unused461]
[unused462]
[unused463]
[unused464]
[unused465]
[unused466]
[unused467]
[unused468]
[unused469]
[unused470]
[unused471]
[unused472]
[unused473]
[unused474]
[unused475]
[unused476]
[unused477]
[unused478]
[unused479]
[unused480]
[unused481]
[unused482]
[unused483]
[unused484]
[unused485]
[unused486]
[unused487]
[unused488]
[unused489]
[unused490]
[unused491]
[unused492]
[unused493]
[unused494]
[unused495]
[unused496]
[unused497]
[unused498]
[unused499]
[unused500]
[unused501]
[unused502]
[unused503]
[unused504]
[unused505]
[unused506]
[unused507]
[unused508]
[unused509]
[unused510]
[unused511]
[unused512]
[unused513]
[unused514]
[unused515]
[unused516]
[unused517]
[unused518]
[unused519]
[unused520]
[unused521]
[unused522]
[unused523]
[unused524]
[unused525]
[unused526]
[unused527]
[unused528]
[unused529]
[unused530]
[unused531]
[unused532]
[unused533]
[unused534]
[unused535]
[unused536]
[unused537]
[unused538]
[unused539]
[unused540]
[unused541]
[unused542]
[unused543]
[unused544]
[unused545]
[unused546]
[unused547]
[unused548]
[unused549]
[unused550]
[unused551]
[unused552]
[unused553]
[unused554]
[unused555]
[unused556]
[unused557]
[unused558]
[unused559]
[unused560]
[unused561]
[unused562]
[unused563]
[unused564]
[unused565]
[unused566]
[unused567]
[unused568]
[unused569]
[unused570]
[unused571]
[unused572]
[unused573]
[unused574]
[unused575]
[unused576]
[unused577]
[unused578]
[unused579]
[unused580]
[unused581]
[unused582]
[unused583]
[unused584]
[unused585]
[unused586]
[unused587]
[unused588]
[unused589]
[unused590]
[unused591]
[unused592]
[unused593]
[unused594]
[unused595]
[unused596]
[unused597]
[unused598]
[unused599]
[unused600]
[unused601]
[unused602]
[unused603]
[unused604]
[unused605]
[unused606]
[unused607]
[unused608]
[unused609]
[unused610]
[unused611]
[unused612]
[unused613]
[unused614]
[unused615]
[unused616]
[unused617]
[unused618]
[unused619]
[unused620]
[unused621]
[unused622]
[unused623]
[unused624]
[unused625]
[unused626]
[unused627]
[unused628]
[unused629]
[unused630]
[unused631]
[unused632]
[unused633]
[unused634]
[unused635]
[unused636]
[unused637]
[unused638]
[unused639]
[unused640]
[unused641]
[unused642]
[unused643]
[unused644]
[unused645]
[unused646]
[unused647]
[unused648]
[unused649]
[unused650]
[unused651]
[unused652]
[unused653]
[unused654]
[unused655]
[unused656]
[unused657]
[unused658]
[unused659]
[unused660]
[unused661]
[unused662]
[unused663]
[unused664]
[unused665]
[unused666]
[unused667]
[unused668]
[unused669]
[unused670]
[unused671]
[unused672]
[unused673]
[unused674]
[unused675]
[unused676]
[unused677]
[unused678]
[unused679]
[unused680]
[unused681]
[unused682]
[unused683]
[unused684]
[unused685]
[unused686]
[unused687]
[unused688]
[unused689]
[unused690]
[unused691]
[unused692]
[unused693]
[unused694]
[unused695]
[unused696]
[unused697]
[unused698]
[unused699]
[unused700]
[unused701]
[unused702]
[unused703]
[unused704]
[unused705]
[unused706]
[unused707]
[unused708]
[unused709]
[unused710]
[unused711]
[unused712]
[unused713]
[unused714]
[unused715]
[unused716]
[unused717]
[unused718]
[unused719]
[unused720]
[unused721]
[unused722]
[unused723]
[unused724]
[unused725]
[unused726]
[unused727]
[unused728]
[unused729]
[unused730]
[unused731]
[unused732]
[unused733]
[unused734]
[unused735]
[unused736]
[unused737]
[unused738]
[unused739]
[unused740]
[unused741]
[unused742]
[unused743]
[unused744]
[unused745]
[unused746]
[unused747]
[unused748]
[unused749]
[unused750]
[unused751]
[unused752]
[unused753]
[unused754]
[unused755]
[unused756]
[unused757]
[unused758]
[unused759]
[unused760]
[unused761]
[unused762]
[unused763]
[unused764]
[unused765]
[unused766]
[unused767]
[unused768]
[unused769]
[unused770]
[unused771]
[unused772]
[unused773]
[unused774]
[unused775]
[unused776]
[unused777]
[unused778]
[unused779]
[unused780]
[unused781]
[unused782]
[unused783]
[unused784]
[unused785]
[unused786]
[unused787]
[unused788]
[unused789]
[unused790]
[unused791]
[unused792]
[unused793]
[unused794]
[unused795]
[unused796]
[unused797]
[unused798]
[unused799]
[unused800]
[unused801]
[unused802]
[unused803]
[unused804]
[unused805]
[unused806]
[unused807]
[unused808]
[unused809]
[unused810]
[unused811]
[unused812]
[unused813]
[unused814]
[unused815]
[unused816]
[unused817]
[unused818]
[unused819]
[unused820]
[unused821]
[unused822]
[unused823]
[unused824]
[unused825]
[unused826]
[unused827]
[unused828]
[unused829]
[unused830]
[unused831]
[unused832]
[unused833]
[unused834]
[unused835]
[unused836]
[unused837]
[unused838]
[unused839]
[unused840]
[unused841]
[unused842]
[unused843]
[unused844]
[unused845]
[unused846]
[unused847]
[unused848]
[unused849]
[unused850]
[unused851]
[unused852]
[unused853]
[unused854]
[unused855]
[unused856]
[unused857]
[unused858]
[unused859]
[unused860]
[unused861]
[unused862]
[unused863]
[unused864]
[unused865]
[unused866]
[unused867]
[unused868]
[unused869]
[unused870]
[unused871]
[unused872]
[unused873]
[unused874]
[unused875]
[unused876]
[unused877]
[unused878]
[unused879]
[unused880]
[unused881]
[unused882]
[unused883]
[unused884]
[unused885]
[unused886]
[unused887]
[unused888]
[unused889]
[unused890]
[unused891]
[unused892]
[unused893]
[unused894]
[unused895]
[unused896]
[unused897]
[unused898]
[unused899]
[unused900]
[unused901]
[unused902]
[unused903]
[unused904]
[unused905]
[unused906]
[unused907]
[unused908]
[unused909]
[unused910]
[unused911]
[unused912]
[unused913]
[unused914]
[unused915]
[unused916]
[unused917]
[unused918]
[unused919]
[unused920]
[unused921]
[unused922]
[unused923]
[unused924]
[unused925]
[unused926]
[unused927]
[unused928]
[unused929]
[unused930]
[unused931]
[unused932]
[unused933]
[unused934]
[unused935]
[unused936]
[unused937]
[unused938]
[unused939]
[unused940]
[unused941]
[unused942]
[unused943]
[unused944]
[unused945]
[unused946]
[unused947]
[unused948]
[unused949]
[unused950]
[unused951]
[unused952]
[unused953]
[unused954]
[unused955]
[unused956]
[unused957]
[unused958]
[unused959]
[unused960]
[unused961]
[unused962]
[unused963]
[unused964]
[unused965]
[unused966]
[unused967]
[unused968]
[unused969]
[unused970]
[unused971]
[unused972]
[unused973]
[unused974]
[unused975]
[unused976]
[unused977]
[unused978]
[unused979]
[unused980]
[unused981]
[unused982]
[unused983]
[unused984]
[unused985]
[unused986]
[unused987]
[unused988]
[unused989]
[unused990]
[unused991]
[unused992]
[unused993]
[unused994]
[unused995]
[unused996]
[unused997]
[unused998]
[unused999]
[UNK]
[CLS]
[SEP]
[MASK]
!
"
#
$
%
&
'
(
)
*
+
,
-
.
/
0
1
2
3
4
5
6
7
8
9
:
;
<
=
>
?
@
[
\
]
^
_
`
a
b
c
d
e
f
g
h
i
j
k
l
m
n
o
p
q
r
s
t
u
v
w
x
y
z
{
|
}
~
¡
¢
£
¤
¥
¦
§
¨
©
ª
«
¬
®
°
±
²
³
´
µ
¶
·
¸
¹
º
»
¼
½
¾
¿
×
ß
æ
ð
÷
ø
þ
đ
ħ
ı
ł
ŋ
œ
ƒ
ɑ
ɔ
ə
ɛ
ɪ
ʃ
ʰ
ʹ
ʻ
ʼ
ʾ
ʿ
ˆ
ˇ
ˈ
ː
˚
˜
α
β
γ
δ
ε
ζ
η
θ
ι
κ
λ
μ
ν
ξ
ο
π
ρ
ς
σ
τ
υ
φ
χ
ψ
ω
а
б
в
г
д
е
ж
з
и
к
л
м
н
о
п
р
с
т
у
ф
х
ц
ч
ш
щ
ъ
ы
ь
э
ю
я
є
ѕ
і
ј
ћ
ґ
ա
ե
ի
յ
ն
ո
ս
ր
א
ב
ג
ד
ה
ו
ז
ח
ט
י
כ
ל
ם
מ
ן
נ
ס
ע
פ
צ
ק
ר
ש
ת
،
ء
ا
ب
ة
ت
ث
ج
ح
خ
د
ذ
ر
ز
س
ش
ص
ض
ط
ظ
ع
غ
ـ
ف
ق
ك
ل
م
ن
ه
و
ى
ي
ٱ
پ
چ
ک
گ
ہ
ی
क
ग
च
ज
त
द
न
प
ब
भ
म
य
र
ल
व
श
स
ह
ा
ि
ी
ो
॥
ক
ত
দ
ন
ব
ম
য
র
ল
স
া
ি
ে
ਕ
ਜ
ਤ
ਨ
ਪ
ਮ
ਰ
ਲ
ਵ
ਸ
ਹ
ਾ
ਿ
ੀ
க
ட
த
ம
ர
ா
ி
ு
ం
క
త
ద
న
ప
ర
ల
ు
ก
ค
ง
จ
ช
ด
ต
ท
น
บ
ป
พ
ม
ย
ร
ล
ว
ส
ห
อ
ะ
า
฿
เ
แ
ไ
་
ག
ང
ད
ན
པ
བ
མ
འ
ར
ལ
ས
ა
ე
ი
ლ
მ
ნ
ო
რ
ს
ღ
ᄀ
ᄂ
ᄃ
ᄅ
ᄆ
ᄇ
ᄉ
ᄋ
ᄌ
ᄎ
ᄏ
ᄐ
ᄑ
ᄒ
ᅡ
ᅢ
ᅥ
ᅦ
ᅧ
ᅩ
ᅪ
ᅭ
ᅮ
ᅲ
ᅳ
ᅴ
ᅵ
ᆨ
ᆫ
ᆯ
ᆷ
ᆸ
ᆻ
ᆼ
ា
‐
‑
‒
–
—
―
‘
’
‚
“
”
„
†
•
…
‰
′
″
‹
›
⁄
₂
₨
€
℃
℉
™
←
↑
→
↓
∂
−
∙
√
≈
≤
≥
⋅
─
│
├
╕
■
□
▫
►
▻
◆
○
●
☀
★
☆
☺
♀
♂
♠
♡
♣
♥
♦
✅
✓
✔
✚
✨
❄
❤
➢
➧
⠀
、
。
「
」
【
】
あ
い
う
え
お
か
き
く
け
こ
さ
し
す
せ
そ
た
ち
っ
つ
て
と
な
に
の
は
ひ
へ
ま
み
め
も
や
よ
ら
り
る
れ
わ
を
ん
ア
ィ
イ
ウ
ェ
エ
オ
カ
キ
ク
ケ
コ
サ
シ
ス
セ
ソ
タ
チ
ッ
ツ
テ
ト
ナ
ニ
ヌ
ネ
ハ
ヒ
フ
ヘ
ホ
マ
ミ
ム
メ
モ
ャ
ュ
ョ
ラ
リ
ル
レ
ロ
ワ
ン
・
ー
一
七
万
三
上
下
不
世
业
东
两
个
中
为
主
么
之
乐
九
也
乡
买
了
事
二
于
五
交
产
京
人
今
他
仙
代
以
们
件
任
会
传
位
体
何
佛
作
使
保
信
元
先
光
免
入
全
八
公
六
关
其
典
内
円
准
凤
出
分
创
利
到
制
前
力
加
动
動
化
北
区
十
华
单
南
博
原
县
及
双
发
取
口
古
句
可
台
史
号
司
合
同
名
后
周
和
品
商
啊
啥
器
四
回
国
图
國
圓
在
地
场
址
坛
城
基
堂
報
場
士
外
多
大
天
太
头
奇
奖
女
好
姐
婆
子
字
学
學
宁
安
宗
官
定
宝
实
客
家
富
对
寺
将
小
少
就
尾
展
山
島
川
州
工
市
布
帝
常
平
年
广
库
店
府
度
建
开
式
当
彩
律
得
德
心
必
快
思
性
情
意
感
成
我
所
手
技
报
持
挂
指
提
政
救
教
数
文
料
新
方
族
无
日
时
明
星
是
時
更
書
曾
最
月
有
服
期
木
本
机
杀
李
村
来
東
林
果
校
格
業
機
正
武
比
民
氓
気
水
江
河
治
法
波
活
流
海
清
港
湖
源
点
無
然
片
版
牌
牛
物
特
狗
玄
王
玩
现
球
理
生
用
田
电
画
界
白
百
的
皇
目
直
相
看
県
真
着
知
石
码
社
神
福
科
程
空
立
站
第
等
算
管
精
系
經
红
线
经
结
网
美
群
老
者
肖
能
自
色
花
英
行
表
西
要
見
规
解
言
語
计
记
论
设
诗
财
费
资
赌
赛
起
跑
路
车
这
进
通
道
部
都
酶
里
重
野
量
金
钱
铁
错
镇
長
长
開
間
门
阳
限
院
集
電
青
面
音
香
马
高
黄
龙
ﬀ
ﬁ
ﬂ
！
（
）
，
：
？
ﾆ
ﾊ
ﾟ
￼
🏻
🏼
👌
👍
👏
💪
💲
😀
😁
😂
😃
😄
😅
😆
😉
😊
😍
😎
😛
🙁
🙂
🙄
🙌
🤔
🤗
##e
##m
##o
##v
##i
##t
##s
##l
##n
##g
##a
##r
##f
##j
##d
##b
##u
##ø
##y
##k
##p
##z
##h
##æ
##w
##c
##غ
##د
##ا
##ش
##ل
##و
##α
##π
##ι
##γ
##κ
##ο
##8
##9
##2
##0
##5
##4
##1
##x
##פ
##נ
##י
##ו
##q
##6
##7
##త
##ర
##ు
##о
##б
##е
##л
##я
##к
##и
##シ
##ャ
##ン
##フ
##ー
##の
##レ
##ヒ
##ュ
##3
##р
##н
##у
##с
##¸
##т
##з
##ж
##क
##र
##ा
##न
##ी
##か
##な
##き
##щ
##а
##´
##ь
##в
##ч
##±
##マ
##ホ
##と
##λ
##て
##た
##ィ
##リ
##ッ
##ス
##м
##ル
##イ
##ワ
##ケ
##д
##ı
##δ
##ε
##υ
##σ
##η
##ς
##˚
##ы
##♥
##ᅳ
##ᆯ
##ᄅ
##ᅮ
##ᄋ
##ᅵ
##❤
##ł
##™
##®
##ц
##°
##ल
##म
##य
##ि
##ª
##ح
##ر
##ی
##ن
##ν
##μ
##ζ
##ک
##س
##τ
##ρ
##ј
##ð
##ك
##ד
##ה
##ᆷ
##ᄉ
##ᆼ
##ᄀ
##ᅧ
##¨
##を
##セ
##ト
##カ
##チ
##や
##х
##п
##ŋ
##ר
##ב
##タ
##º
##ه
##ء
##ф
##φ
##г
##ち
##ш
##サ
##テ
##ร
##ะ
##ก
##ว
##れ
##い
##ю
##²
##і
##🏼
##う
##よ
##く
##そ
##り
##ᅦ
##ᅥ
##ᄇ
##ᅢ
##ᆫ
##ﬂ
##đ
##こ
##ら
##χ
##ᅡ
##ᄎ
##😁
##さ
##ß
##ᅩ
##ח
##ג
##כ
##ן
##ω
##⁄
##θ
##ア
##ت
##ي
##ة
##א
##ק
##ס
##น
##ท
##า
##−
##ᄂ
##ᄐ
##ᆻ
##ᄃ
##β
##ˇ
##ق
##ف
##ج
##प
##も
##あ
##ラ
##ა
##მ
##ო
##ე
##ი
##っ
##す
##ր
##ե
##ի
##ս
##ո
##る
##に
##つ
##¹
##🙄
##😅
##😆
##🤗
##ذ
##ى
##µ
##¬
##コ
##ネ
##ѕ
##は
##ਾ
##ਨ
##¥
##👍
##ᅲ
##ᄑ
##ह
##स
##♡
##ث
##م
##✨
##し
##ま
##ع
##ᄒ
##ᄆ
##ᄏ
##ת
##み
##द
##ग
##э
##þ
##ب
##œ
##ע
##ᄌ
##מ
##צ
##گ
##ə
##া
##ম
##ъ
##ƒ
##ˈ
##ん
##わ
##ː
##ɑ
##ٱ
##⋅
##❄
##☀
##ద
##☺
##ᆸ
##ం
##ల
##ナ
##ツ
##ニ
##メ
##せ
##อ
##ส
##เ
##ต
##ล
##ص
##న
##ʿ
##ウ
##ェ
##ক
##ᅭ
##ז
##ᅴ
##ﬁ
##×
##ל
##ソ
##¾
##¤
##👏
##🙌
##ロ
##ハ
##😍
##エ
##ز
##ク
##へ
##ʰ
##ி
##😊
##ਤ
##ਿ
##ט
##ם
##ਜ
##ੀ
##ு
##க
##€
##พ
##ม
##ง
##ย
##แ
##ไ
##ด
##ห
##💪
##پ
##¦
##ʹ
##ש
##オ
##ョ
##¢
##ช
##ն
##ա
##ਰ
##ਕ
##จ
##რ
##ヘ
##👌
##🏻
##½
##ɛ
##😉
##व
##خ
##©
##յ
##ɔ
##ム
##け
##ヌ
##キ
##😄
##ʾ
##ਹ
##ミ
##འ
##ས
##བ
##ᆨ
##ब
##♂
##ป
##ค
##บ
##র
##ে
##ʼ
##ব
##দ
##ღ
##ਵ
##క
##🙂
##├
##╕
##ლ
##ნ
##ᅪ
##ា
##ﬀ
##ħ
##♣
##भ
##え
##є
##त
##ـ
##☆
##ط
##ন
##ত
##→
##श
##ா
##ர
##ம
##😀
##স
##ল
##ض
##ξ
##ি
##য
##ہ
##ட
##ప
##¼
##お
##モ
##ो
##♀
##ґ
##め
##ひ
##ظ
##³
##😂
##😃
##ਸ
##த
##∂
##≥
##∙
##😎
##►
##÷
##ɪ
##ს
##£
##ਮ
##ʻ
##♦
##ད
##ར
##ਪ
##√
##˜
##✔
##ʃ
##ज
##ང
##ན
##ћ
##च
##♠
##چ
##ག
##≈
##མ
##✓
##ψ
##₂
##ﾊ
##ਲ
##◆
##★
##🤔
##ˆ
##💲
##⠀
##↑
##■
##─
##ལ
##●
##￼
##℃
##↓
##🙁
##□
##✅
##▻
##≤
##←
##ﾟ
##ﾆ
##😛
##པ
##│
##฿
##▫
##○
##✚
##er
##en
##et
##or
##an
##ar
##in
##el
##il
og
##st
##om
##ed
for
##ing
##le
##re
##ig
##sk
##tt
##on
##al
til
det
##te
##ra
er
##kk
av
##eg
en
pa
som
##es
##id
##nn
st
##is
##de
med
##kt
##ør
##ene
##pp
##ol
##at
##as
##ver
##ag
##am
##ler
sk
##li
ut
de
##nd
at
har
##ne
##ent
##ri
##jon
vi
##se
##ru
den
##lig
##and
var
##ere
##ro
##kke
##ste
##ett
om
##it
opp
##ke
gj
##ang
##ning
ar
fra
##att
men
##ad
inn
##ær
##isk
al
##un
##ur
ikke
##ks
no
et
kan
##us
in
ble
##tter
##je
##ul
sp
##ik
##for
jeg
##ikk
##ap
hv
##ak
##iv
##ge
be
nor
##ot
sam
##ens
##het
##ter
kom
##mer
##der
##ende
du
el
##sa
##asjon
##be
han
kj
##gg
sa
seg
##enn
20
##itt
##ist
bli
##od
pro
etter
##est
##ss
##av
##elig
an
##ert
##ell
##ok
over
##øy
se
##elt
eller
ved
der
vil
##sen
tr
##ære
før
##ker
##eng
bar
bru
kon
ogsa
dette
##ir
##inn
##art
##ort
##ut
ma
##ann
##lo
##me
##ling
re
##ske
##sp
##nder
##ser
ny
##ft
##else
##ant
##ud
19
##beid
##old
skal
and
##yr
##ve
sel
fa
##ier
##unn
##all
##os
##skap
##iske
##øre
tid
##gen
##øp
##um
##men
man
##ord
##eld
##ff
under
mer
sy
noen
##adde
da
##og
##em
andre
##ov
201
hadde
dag
##øl
##und
kl
##var
##gj
være
##end
min
pl
by
kv
ha
##ob
alle
##ært
to
##ale
##legg
##ger
le
na
hel
dat
sin
ver
nar
noe
##sl
##ennom
##jer
bl
##ass
her
per
mot
selv
blir
reg
##enter
stor
##hold
gjennom
##sm
god
denne
##ktig
##rem
mang
##lige
sø
##alt
##lere
##ød
##iser
far
gru
##im
sli
##itet
nett
komm
my
##ly
ann
arbeid
##00
or
##ingen
sid
bil
##ber
##rad
ba
##per
##rø
##ster
##ksjon
##vik
hun
li
si
lag
sl
##net
##vis
##eder
ta
##tid
##ry
del
høy
fin
##del
##jel
##ia
##ie
##inger
mange
##alg
##sker
##elle
enn
##ek
##ic
##før
uten
##res
##opp
##ans
##ede
fort
##by
##lem
un
mu
##ien
bare
beg
##mp
hvor
##son
mar
kunn
##yl
##ess
dating
##ater
##utt
##ket
sv
##ige
frem
##he
ek
vært
deg
inter
norge
bruk
##ab
##den
##dr
hver
##akt
ser
land
flere
##kl
kont
spil
##red
gjøre
##ult
mye
pros
litt
dis
første
fikk
meg
hva
##ellom
##inner
sammen
gang
##yn
ap
bet
##jø
mellom
tre
##atte
##si
vid
##ch
##jem
ve
mø
##stil
##land
tilb
##rat
200
##ings
##øk
gar
sm
##dag
##form
gjør
kr
##ust
grunn
##kker
res
##ner
##tte
ne
leg
##ub
##ette
forsk
##ninger
##hand
slik
##ion
mil
alt
lang
##ighet
##lighet
##ets
##ull
##ost
##pe
ty
vel
oss
##stem
##na
bade
disse
##if
##arbeid
##eb
din
kjøp
##kter
føl
##du
##dre
ned
18
##elsen
viktig
##ast
nye
##ningen
hand
eg
##op
jo
##ktiv
siden
os
ber
kunne
##som
##lag
sex
rett
ly
pol
##gang
##ire
person
##jene
##rett
##kj
##enger
utvik
pr
nær
vir
igj
van
##ken
##elser
##let
##sten
la
##isjon
dem
ga
##ram
enk
##pl
##ial
stør
bed
fors
lø
##ente
##ener
##rev
##ug
øn
annet
##pt
norsk
##ulle
liv
nord
mal
forb
##riv
igjen
##ordan
of
##ret
##rift
##ode
helt
##ran
fol
ra
mo
par
##nes
##iver
hele
kommer
br
hvordan
norske
ch
oslo
kommun
blant
store
##els
##rav
ti
rund
tidlig
form
##tem
##etter
gi
##ake
lig
ans
##oll
godt
hjel
he
##ga
##rist
##tak
##eldig
##erne
##kket
##gan
like
##kon
##la
mat
fil
vis
##ktet
job
##atur
stat
ad
##eter
##dom
kun
fly
##di
##oner
##ine
gir
spes
ind
samme
rundt
polit
sj
##are
løp
##alen
mest
blitt
hov
hvis
##edet
##amp
barn
##formasjon
##lev
##met
##ind
##olog
##sb
10
bruker
all
hjem
##over
hen
sier
##like
sine
##ytt
sak
plan
skulle
##elige
##les
fri
nok
##asjoner
bes
sitt
##sjon
##erd
##sid
ant
tek
##føl
siste
red
##iet
ev
##set
##ole
tilbake
##ard
sør
les
stud
##rer
vare
##ark
mor
finn
delt
produ
prosje
stil
##ring
##aler
##ativ
##ges
gl
ord
tillegg
nav
##orn
kn
mid
##olig
##ppen
hoved
##satt
##hol
##elen
##fil
eks
menne
sn
ein
##ister
##sy
hans
gam
tur
##ikker
rom
informasjon
fatt
gikk
ei
##anske
innen
##ten
##eller
forhold
styr
##ffe
##atter
verd
des
star
kar
ingen
##slag
bak
the
vart
veldig
sen
beste
##ma
su
tar
##pet
fram
fot
videre
hol
##gru
tidligere
##istor
15
te
finne
##ond
##nings
valg
hos
##kom
##min
end
ten
derfor
ønsker
##pro
best
##bru
##kte
##ane
##ate
##ele
ol
##pper
##une
grat
##alitet
rad
intern
##gi
##raf
##ck
##rit
##kken
byg
egen
ri
tjene
##styr
fj
mulig
ekse
off
bra
##hus
##usjon
mens
##valg
fle
samt
gener
sol
##ksom
##skapet
fyl
dere
th
organ
eksemp
##oks
bruke
fun
mann
tro
##nad
fe
bør
17
lever
ulike
lu
12
##ører
##amil
##sel
##rag
kvinner
##bygg
##anse
on
##asjonen
##handling
##yd
fl
eng
##raft
møte
eu
bedre
vin
fag
medlem
##entet
199
skj
##gram
mus
gratis
venn
##føre
led
##far
##este
spør
##heten
tv
##skje
##iner
##mid
nytt
bygg
##ester
##ip
mulighet
try
lok
folk
inst
##entlig
besk
##esten
menn
full
##ise
stø
fød
##ian
kanskje
pres
##ib
##ill
viser
##ppe
ung
##med
aktiv
prø
##stand
ro
ofte
##ultur
##ren
slutt
histor
##gjør
kjent
pre
hø
##ført
sent
klo
helse
bok
øy
16
gode
##elder
##vn
##anger
lov
porn
##vend
##allet
spesi
sett
hal
gjen
ting
utvikling
først
##sf
##ven
vur
natur
vann
kjø
##søk
part
fordi
kommune
##smal
##radet
ville
start
dam
##stilling
##under
pris
##heng
plass
##sta
ste
stort
kontakt
fr
##stad
##sj
bid
##funn
rep
aller
lær
art
tatt
samarbeid
lik
tok
ju
søker
svært
##stre
finnes
skri
11
ham
unn
##io
##ite
utd
ben
##røm
famil
jobb
fakt
##jør
di
barne
beh
mark
am
eksempel
gre
kor
##kur
result
jenter
##sak
mindre
po
fant
##org
klar
##ong
##sh
ligger
##kes
##ynn
##pa
##øm
inv
verden
inne
##vir
##rader
kultur
##ont
##rens
##ide
hvil
14
##gre
##olen
prob
##lekt
komme
forskjel
##det
sc
innlegg
dersom
##vel
##verk
##rakt
##asser
lett
##ys
##isert
matte
skap
##inne
deres
endr
as
oppd
kli
##fri
##assen
hvert
mennesker
større
hus
tem
annen
løpet
kal
hjelp
lo
kjøpe
krist
blo
kre
##konom
sh
kort
økonom
kir
ca
sik
30
tilf
##iva
født
ja
tekn
##ikken
##par
vest
13
gjelder
##ina
##ps
forv
syn
pass
rus
bilder
##bo
##rasjon
euro
##erer
begynn
ster
##tidig
##ka
bestem
##ign
##iten
nød
2017
##asse
##kning
sær
jan
vide
senere
kamp
brukes
spørsmal
##sn
##vet
utfor
ansvar
side
##ce
milli
svar
sos
gjort
skole
##ct
bas
##asje
##ubb
rese
co
mate
ferd
198
nasjon
kro
hav
bor
vurder
##øs
##aten
organis
skjer
vansk
bo
enkelt
program
##utter
##fe
arbeids
##ball
##roll
##led
tiden
##sket
##dri
krav
laget
fast
##rak
##dus
##gav
##berg
enkel
voks
##olle
samfunn
##unkt
##itu
##syn
vet
alltid
ban
fred
##tek
prosent
utt
dy
stra
trenger
##enge
nettst
##ha
sann
finner
dri
ho
ute
##sikt
sommer
norges
trad
##jen
##rig
sje
dei
søk
##veg
##ille
##yttet
fran
##gende
##fer
fem
sna
ungdom
##tes
mass
behov
porno
##kelig
veg
is
leder
hold
##reg
vanlig
##revet
løs
ter
langt
##sdag
fire
satt
##mann
##ral
ka
kjær
##uder
mener
kunst
sted
post
000
aldri
##øker
effe
spesielt
øv
hy
##oden
felle
##erte
brukt
rekke
fortsatt
##igheter
##leg
hot
resept
##ay
arene
tor
ganger
##heter
dø
##mel
##age
##fter
kvalitet
kunnskap
##ivers
##eren
sma
samtidig
##orde
neste
##up
sikker
##ron
gamle
##grunn
konkur
met
##ensjon
##stra
avt
tren
syk
197
miljø
##agra
produksjon
fleste
forskjellige
sette
##spl
vanskelig
død
##sje
ab
ge
##ive
##lys
viagra
##dd
joh
hatt
me
##midler
##ustri
fø
ret
##lever
##tet
syke
##ingene
##off
grad
største
opplev
arr
video
oppt
jun
dager
stand
##get
100
regist
##sett
so
##mark
kjære
tallet
kjærlighet
amer
lite
bry
hap
##isering
##anning
##atet
##uler
følge
dermed
ett
dire
##ris
it
tan
flo
##udd
##spro
lar
sty
internasjon
univers
##bar
arbeidet
byen
##agt
gjerne
allerede
kap
25
##okum
mater
##iller
fjer
##ering
##enner
liten
erfar
dan
mod
em
##ue
funksjon
2016
stad
tru
pos
kraft
etab
ses
nr
sing
repres
prosjekt
##ennes
##kv
heller
betyd
spill
##ice
gitt
##sfor
##bl
##ori
##lagt
##ow
dom
send
øst
pub
regjer
##sv
tror
int
##entene
legge
hu
akt
ko
oppr
##gjeng
##mene
app
##sd
kur
dar
##rykk
##ummer
196
##bef
##rum
##teg
omf
##føring
bort
eit
bolig
virkelig
system
##meld
##line
##elef
##okus
##enes
behandling
##lik
##gt
kons
ener
bel
lin
inkl
begyn
forf
rask
omradet
lav
amerik
##syk
aktivitet
likevel
##ftet
##va
jord
ob
navn
rapp
dine
aret
nødvend
rel
feil
komp
com
nesten
mob
##ttet
blogg
##ksomhet
avsl
pop
mai
##ktor
kveld
peri
begge
##esp
##bil
2015
deler
lagt
forn
##gar
problem
##vert
##orter
undersøk
fer
gjorde
mag
sta
kost
kil
betyr
ditt
##følg
##vid
verdens
kroner
aug
livet
gud
##iale
minst
##tre
##aker
ry
##rukt
stem
leng
##bet
##svar
stre
dagen
mott
felles
##drett
skjø
personer
dokum
pri
funn
utvalg
##jell
spiller
online
##orte
riktig
musikk
##alet
##part
landet
tra
seks
besøk
##ager
ekte
##ologi
tot
produs
henne
imidler
utfordr
imidlertid
halv
##lær
tran
lenge
ganske
kjør
fokus
grø
##kar
##holder
holde
tilgjeng
##ile
priv
forts
sep
va
ris
##sport
##heim
tiltak
50
ram
##følge
str
industri
##kten
##alte
sver
okt
##ilt
##tr
foreld
##vin
kart
##uar
tjenester
##fol
særlig
##iden
forskning
##ator
##lert
oper
##uelle
slike
bergen
##sø
##andre
elekt
region
dre
##ation
##yld
hjelpe
klubb
im
##kjent
##atene
krig
selskap
enkelte
damer
enda
faktisk
redus
kontroll
##lingen
##fører
##bruk
tilbud
##ansen
##ald
##rom
akk
stedet
usa
meter
2014
##lene
##endom
##rene
fjell
##ograf
194
##sam
hennes
anbef
prof
økt
##rik
lev
##ferd
topp
##sc
##hav
##løp
støtte
bud
event
innhold
##anser
film
##sted
vei
##vere
##rige
195
##fin
juni
kompet
tap
22
mon
egne
disk
##ore
dyr
bur
drift
apr
kvinne
oppf
##isere
ansatte
##ade
arrang
ekstra
21
bu
##ansk
situ
bek
bidra
eldre
##ja
massasje
##adet
hens
millioner
aut
but
##mal
lønn
##ino
dra
##ats
kje
##ban
##ksjoner
utenfor
lage
inkluder
dess
fotball
00
##minist
altsa
innt
##ennende
id
popul
tradisjon
unge
søke
##ningene
alder
deretter
kam
utg
##ons
##anter
serv
data
##ærer
ang
vise
startet
##liv
tred
prosjektet
slag
begynte
lære
foret
bilde
meld
##utvik
teg
##bud
salg
saken
pasi
opprett
##fl
##one
##iene
antall
##van
spille
##jord
feb
##rade
anal
ide
##deling
bygge
##yt
høyere
##ialis
hjemme
synes
forslag
##dal
##kkje
##afil
##int
elev
24
##elses
luft
egentlig
innenfor
2013
bestil
##side
km
januar
##sland
sikkerhet
idrett
##urat
##mere
##ande
gjenopp
##agen
universitet
timer
il
##ider
vant
##elsene
utdanning
bakgrunn
##urt
##kene
forsvar
##ym
anlegg
hund
interes
##ht
ul
kvinn
fo
ak
##elefon
fisk
2012
sikre
ifølge
ven
tak
##star
lese
##ongen
imp
##plass
gu
##oen
venner
darlig
mine
nødvendig
tysk
##skudd
mel
cialis
fre
eneste
legger
##vem
go
ikkje
august
utgang
barneh
hverandre
##fall
instit
##linger
insp
fest
risik
akkurat
psyk
apen
forsta
pra
##tern
##orer
interess
dig
je
##bu
yo
ark
eget
##uts
ag
tilgjengelig
##oler
##atisk
##uten
##usen
us
##indelse
band
##vil
##unt
administ
hjer
vekt
nak
søknad
poeng
eiendom
marked
barna
vær
kommunen
mars
kri
veien
niva
##vær
forteller
##her
funnet
kjønn
tom
skolen
2011
kong
do
klart
ferdig
sykdom
dagens
penger
sto
40
spennende
gatt
utstyr
trond
utr
##ba
##ca
mitt
##otek
##arer
##aller
##øst
moder
##po
23
##kkel
##hengig
##man
##gaver
##kkes
sven
2018
##kret
juli
forbindelse
##entlige
via
septem
##isten
lokal
fantast
grav
september
test
medlemmer
hør
##likt
##nt
eksp
##ader
ski
sjø
kat
##sjett
høyre
##isin
##holde
følger
lille
erot
nærings
##siden
uke
##ital
selskapet
new
knyttet
##ete
inns
bi
att
hvilke
##orten
stav
##rert
posit
maten
##br
##lemer
vinter
sverige
2010
##øte
oppdag
##kn
prøve
sand
kjente
bla
opplys
april
bred
pe
##ies
##ober
skrive
##ity
fav
##ytte
tema
hotell
##ikasjon
##co
##ative
##ember
basert
høyt
møter
##bum
##ses
design
##ata
navnet
##giver
trom
engel
skriver
##partem
##skin
hj
historie
skjønn
hard
natt
sil
##pen
kompetanse
følgende
krit
val
lenger
fall
193
jul
hvem
dist
tør
##rar
##vember
direkte
ep
##fra
alv
haper
##urer
november
tredje
represent
kry
midt
altern
gr
beveg
mynd
skjed
##use
sprak
rø
##ssk
##delig
##bin
jobber
hvorfor
sønn
mis
foto
liker
effektiv
##landet
##spill
fordel
tu
forkl
velge
##rifter
trening
spe
desember
oppgav
utvikle
innbygg
##kningen
##ase
oktober
nem
lys
rest
spesial
foran
gjøres
eier
sky
holder
##vern
##menn
pavir
dokument
sku
##iste
bod
aks
strøm
døde
skrevet
voksne
arbeider
sla
##ern
avgjør
##føres
kjøre
sal
##ho
stadig
reise
sve
nov
rette
##verket
##organ
skape
konkurran
kommet
##mes
ing
minutter
##bok
##hør
##øya
##rafikk
##ium
##ktige
##ksis
##uelt
car
##fold
telefon
##spunkt
jente
##vnt
sport
##ansett
opprinn
vold
begynner
##rike
behand
##iljø
transport
##skom
##but
##olit
utrolig
##da
gutt
viktigste
##esjon
192
ren
energi
##plan
##unktet
ars
uansett
##øse
date
191
folke
##oret
bjør
uts
bus
lokale
##urn
##mar
##ink
regel
grunnlag
takk
##rere
tall
##ham
forel
ex
##ikt
##stend
##fag
are
ur
rek
gav
klokker
##snitt
##ksjonen
fjor
##enten
##ild
service
##ju
konse
maned
esk
##essur
sko
##ai
2009
##gge
oppdrag
kate
lør
oversikt
bedrift
uker
vedt
##mun
##ppet
alvor
##loven
fint
finans
russ
utviklet
##iserte
sist
gammel
detal
reis
##ruar
grens
internett
prakt
steder
hend
februar
##verd
sykehus
tenke
26
grønn
##ike
mand
skog
##gift
forbru
ressur
##iter
##kraft
ky
opplær
regn
vak
2008
kjenner
bestar
handler
familie
europa
retning
gjenopprett
prøv
tri
chat
apne
hom
arets
28
cas
sønd
gro
tilgang
##ppa
trondheim
##sut
##arbeidet
##ktene
politiet
gra
##vne
##ivt
##fo
barnet
##fjord
##inst
##ress
omrader
##ppene
ref
lyd
27
kirke
christ
tilp
nasjonal
##lin
##skaper
stopp
holdt
bon
pal
deltak
##ktøy
##ativt
##løs
##ikkert
inneholder
kroppen
##onser
tett
foren
nettsteder
bygget
fys
tross
##uttet
##ølv
familien
sannsyn
bro
vedtak
brann
tilbyr
##iker
kjemp
internasjonale
##str
web
øke
engas
##giv
brit
viktige
##akter
##sider
naturlig
skje
##essig
##iere
esc
##kont
viste
present
##za
gull
offentlige
føre
##iss
raskt
##bart
motor
##øyd
prin
oppmer
bø
##ves
##tale
konst
##aende
##king
ønsket
medisin
sosiale
yn
registrer
offentlig
masse
tips
praksis
perioden
funger
##fritt
kund
##nen
profil
kjem
kval
slutten
ass
befol
sch
pot
lørdag
##elag
ytter
generisk
single
dram
flott
vit
fores
##dere
##dene
legg
##kvens
valgt
samlet
klass
blod
super
##ming
sterk
rød
mør
dro
gjennomført
maneder
fi
fylkes
sar
##gjøre
fas
##produ
tun
##bel
##rol
bib
##kant
erfaring
##skrift
slett
forsøk
bal
##denafil
log
komment
##partementet
gul
##stid
till
2007
ph
problemer
publ
tilsvar
styret
ke
fry
forbed
##splan
60
##stene
pu
høre
##sst
##øren
##lov
##visning
sosial
inneb
daglig
prosjekter
konf
norw
##sav
##uell
bat
enten
hev
aust
stavanger
##ingsm
##grep
##mens
uav
leve
##bund
##agn
regjeringen
tilby
besø
trø
lærer
lyst
bevis
29
##inga
langs
fac
foreldre
##enne
##skole
bestille
innlegget
ru
##visjon
økonomi
##veien
real
##ologisk
plasser
vok
##uer
##late
mobil
endringer
##isjonen
##person
hin
filmen
fu
setter
ital
godkj
versjon
##ebo
##ssy
velger
album
##annet
oppg
##of
vek
felt
##utvikling
##delt
glad
morgen
hum
##lit
##aland
##ruktur
sider
##leve
olje
jobbe
uk
nærmere
organisasjon
virksomhet
##ifter
##ph
san
ellers
nemlig
##ns
klær
muligheter
sikkert
vite
##igur
##eleg
kombin
privat
ident
kostnad
snart
skyld
##ighetene
fylke
kampen
distri
##tert
trykk
klokke
##abil
størr
##ith
muligheten
gruppe
billig
##stein
bildet
norm
produkter
venstre
tø
##sler
stein
##ytter
fine
fremtid
resten
budsjett
##sg
##iz
stille
##mende
##itte
fro
defin
sammenlig
##ko
##isen
2006
arsak
eskorte
##ellen
##anlegg
endelig
##øv
kalt
henhold
frank
rev
##kka
fiske
omfatt
##apen
stri
##atert
ir
fart
skil
styrke
vist
meget
##inget
forskjell
dato
facebo
##eres
##sty
moderne
neg
standard
helst
##istikk
artikk
fører
føler
tusen
sang
høst
milit
begrens
yr
krever
##ment
prem
##odet
gjeld
##isme
##eland
slekt
deltok
kommunikasjon
##rep
can
##fly
sentrum
##jed
##vare
##ah
tydelig
hvilken
forhand
opptatt
fyr
##foren
bøker
kjæreste
##ich
##aret
tyskland
passer
amerikanske
engelsk
##mon
forl
lan
resultater
##ama
##vand
ed
31
forsik
midler
##aks
##plassen
lange
kurs
hovedsak
tjeneste
søndag
##ielle
##setning
burde
totalt
sti
vurdering
##irk
##spe
spillet
brukere
inkludert
##bare
sendt
##følgelig
##skolen
190
slo
fang
##byg
team
tol
trygg
malet
##igheten
sitter
avtale
hud
##ikere
ene
selve
hverdag
oms
kateg
unnga
sammenheng
fantastisk
time
##middel
turen
ledd
relig
##spunktet
##allen
selvfølgelig
sesongen
##lende
tekst
facebook
dele
sat
kropp
##jema
virke
vert
utvid
brans
bilen
klare
svart
riks
nettopp
##uss
øk
spilte
2005
prøver
pensjon
##iør
##førte
indiv
delta
##istisk
utviklingen
interv
bereg
john
##deles
##ena
##likk
forfatter
##mb
erst
brukte
europe
##kjøp
##øyt
fir
virksom
##livet
sentral
press
##20
berg
qu
profesjon
rolle
##sse
##nere
gjennomsnitt
høsten
port
meng
ni
ku
lands
drøm
##felt
etabler
arbeidsm
varme
##urnal
sign
muse
datingside
##ensen
kolle
jern
##nende
skikk
kob
sesong
medier
##unde
forut
dame
hjelper
##ska
merke
gangen
resultat
rob
bord
forsø
##ident
nt
krev
fredag
jakt
meste
elektron
##bygging
middel
institusjon
##essen
trafikk
##legging
ves
pap
veil
dr
reseptfritt
kunder
saks
##enning
verktøy
##vnte
betydning
apnet
##radene
##ork
etablert
klubben
nam
ring
##leder
legges
grunnlegg
nettet
alene
##holdt
##aling
ander
##somt
forrige
skrev
##ish
con
sende
##siktig
mannen
deb
35
##rivil
rele
##aget
lengre
tal
##avn
##lipp
løsninger
##my
mennesk
oppgaver
amb
##enterte
opplæring
##valget
##ania
##ins
autom
innte
##yttes
abs
##leie
lettere
naken
utb
2000
type
mart
dessuten
##asen
stol
##dem
ii
danmark
invit
leverand
##fte
saker
pat
blom
organisasjoner
##nær
##styret
kol
titt
snø
besl
nø
free
spor
##pris
##drag
høye
##serv
vm
##ktør
resta
##fest
kos
##alder
bank
betale
##eri
terr
##ringer
jes
##ettes
fal
ful
##enterer
forvalt
sannsynlig
interesse
overt
bom
personlig
hensyn
##oder
fungerer
oppfølg
##organis
##istiske
gruppen
ivar
publik
##oren
##hver
##ines
vedlike
##varer
stoff
elevene
boken
hygg
nasjonale
##lar
neder
formid
##len
bre
gift
markeds
##behandling
##rives
opplysninger
huset
sjeld
hem
innebærer
jap
hei
##ers
tenker
##dat
##era
##huset
bidrar
gis
snakke
skip
overra
##aen
elever
innov
oppst
ara
klarer
nei
nummer
##iserer
prior
##qu
80
##ogn
politiske
##imot
elsker
##rale
vurdere
datter
nettstedet
programmet
##ologiske
inntil
flyttet
høg
partner
sig
seier
kvalif
tilfeller
drikke
##slin
##forhold
##øye
lat
##verre
##prosje
##edag
refer
omrade
##forsk
tab
gjeng
analy
ødel
frivil
nrk
typer
lond
##ana
##mt
sterkt
##skl
ska
restaur
formal
##enfor
70
189
høyde
verdi
skjul
##enting
##fekt
stilling
starter
godkjent
##olusjon
##vok
##ifte
folket
avhengig
uttrykk
##gene
##kkelig
samfunnet
##kjør
nyheter
rapporter
vari
tilsvarende
øker
omsorg
bære
dob
vanligvis
tvil
sexy
ori
500
##mu
forh
sterke
##ote
utover
##ski
økonomisk
##lege
heldig
virker
##melig
prest
##vann
glo
##forbund
flotte
##onn
##fort
##enta
reguler
##atiske
private
arrangem
rut
##ligere
##rid
##inister
fornøyd
##hvert
kjæresten
spillere
journal
smak
##øver
wil
##stillinger
lager
populære
deil
##vek
sov
lavere
##ffer
aker
##onse
butikk
##jenester
2004
##stendig
bekre
##itra
tver
hopp
london
rør
##gn
sagt
integ
##peratur
ettersom
##kort
individ
isra
##gangen
generelt
oppfyl
##tteratur
delen
bestemt
anled
##spil
##skri
escort
##riks
kjøkken
sek
##utd
omtr
grupper
eksister
##venn
konsekvens
##ben
økonomiske
sw
invester
yngre
farge
##bladet
foreg
##slaget
##ekte
registrert
##kkene
valgte
studie
boka
markedet
hvit
skrift
makt
utgjør
skjedde
oppdater
alternativ
##vist
45
aktiviteter
##kast
periode
jf
endre
fortsette
##onom
afri
slags
opt
und
punkt
prote
begynne
serien
##rense
malt
fore
starte
##isjoner
kontrol
skade
stjer
resultatet
##yrk
regjering
##enet
politisk
##ose
avvik
##ida
ønske
##byen
utfordringer
eli
##kring
##ønn
##cc
sukker
tyske
skatt
gjennomføre
varen
inspir
omtrent
##ias
##mester
studenter
##mod
overfor
opphold
thai
##ash
tilkn
##egn
enkle
##apotek
jule
##former
redusere
mist
jon
energ
spise
skol
styre
potens
##engt
jobbet
akse
##iti
teknologi
##iks
##gte
wh
glem
gard
student
senter
##ure
cm
osv
ale
##uft
##ømme
sjekke
##ørs
aner
fortelle
##iell
klarte
##its
øvrige
##full
##mannen
##fyl
##ix
kjøpt
opplever
heter
rik
bos
material
feng
farger
##gaende
##melding
##rapp
##hjel
forret
##ros
##gere
handling
##vei
nettapotek
##ius
##arder
##ollen
vinner
ansvarlig
##iteten
arbeidst
##øtet
##vant
##stemet
betydelig
enhver
##srett
##xx
sjekk
utsatt
glede
not
oppleve
bloggen
derimot
##ffet
div
kommunene
spilt
figur
##ians
##oc
##asset
##jet
vanlige
russland
dav
##okrat
##til
##ton
driver
tas
slatt
innvand
undersøkelse
risiko
sommeren
administrasjon
##synet
##laget
førte
hodet
klasse
90
##olf
##ac
dessverre
##au
siv
toppen
konkurranse
##veis
jobben
fritid
vind
skikkelig
ras
suks
##sagt
rim
mam
høyeste
##jef
##ight
slikt
sentrale
##skrig
viten
president
##ansvar
spr
lun
##runn
forber
188
england
##vest
vekst
##ved
##oritter
karakter
tel
forskrift
##imal
enklere
vg
sant
##dde
ytterligere
unna
satte
##delingen
motstand
ekteskap
##emid
perfekt
oppfølging
##mo
cl
spar
bland
greit
##mest
smer
krigen
kjøper
##sken
gutter
lege
son
##ften
utført
sunn
##ales
bildene
##asjonene
forholdet
hjerte
##irasjon
møtte
##atør
fortsetter
russiske
rapport
##vs
situasjonen
##gave
##band
col
##ssel
skuesp
##bas
##polit
tim
levitra
bef
rygg
arg
##stoff
##spart
we
prisen
bestemm
##uk
##asjer
kron
##bane
nevnt
casino
vedlikehold
ill
klima
møtet
favoritter
elem
##fordr
invol
##parten
##olutt
grunnleggende
##ada
##ach
##jenesten
##sstil
publikum
##ssen
##urg
frankrike
##eliv
##stemer
utn
universitetet
oppna
filmer
utgangspunkt
tj
##attet
normalt
##iger
fullt
vedtatt
utgitt
hundre
tilsyn
historien
arkite
##ple
israel
fug
maskin
spesif
general
verk
regler
voksen
prinsi
mandag
pc
##legge
##orden
trener
menneske
sja
øyeb
##ereg
gran
##klær
kirken
begynnelsen
relativt
røy
##omradet
sim
##asjons
pan
debatt
mic
2003
##50
##itter
##mat
avgjørende
disp
##aren
endret
intervju
innbyggere
torsdag
wor
##borg
klikk
you
benyttes
goog
##stø
bjørn
kategor
egg
##edlem
##sminister
konkl
homo
##app
##th
velkom
##ors
varer
vakre
##etøy
nev
##merket
opprettet
digit
##æren
systemet
tromsø
nettsted
endring
##utning
##atning
atte
##ms
##tering
svenske
absolutt
utenland
kraftig
strand
reiser
vitenskap
vol
oppdatert
##alene
bedrifter
##zz
##ansert
videoer
##kost
300
pen
ment
karri
af
retningslin
##andid
ivaret
jur
beskriv
##ica
just
ingenting
tann
##somme
sykkel
##skj
##ung
diskusjon
##svis
##resse
##erv
match
##ærende
sur
øya
innsats
utdan
statens
hyggelig
spørsmalet
produkt
nes
anne
haug
nordmenn
overv
tir
norway
##sopp
##iler
omt
##ick
kjenn
au
##terte
##aring
bygd
stund
stortinget
##kan
glob
respe
gje
kvelden
utform
christian
##skont
kjører
##undersøk
øver
arbeidsgiver
opps
ekst
forp
uavhengig
ford
##ars
skaper
mester
kommuner
kop
##ometer
nordland
oppdaget
##ørene
selvsagt
treng
##instit
bestemte
arsm
detalj
##kal
##oritt
##departementet
##sson
offis
videreg
peng
omfattende
##ørt
gøy
leil
mangler
erfaringer
##sbe
profess
fysisk
fremst
attra
straff
politikk
sub
bad
##dt
utl
stemmer
opprinnelig
##stillingen
eld
##ettet
avtalen
eval
omkring
videregaende
187
##edning
hell
forsknings
tanke
retten
##ekom
musk
seri
konkret
bist
vilkar
##risk
##anten
ole
lignende
tilstand
kna
tilrett
kjøtt
live
sølv
up
storb
##unst
strateg
møtt
oppgave
motiv
nat
set
kristians
underhold
ligg
rot
stam
priser
beskri
tillit
2001
kjempe
tilstre
merk
mm
parker
lei
##kjente
##saker
hardt
fotograf
male
varier
##tekn
unntak
omfatter
mc
enhet
bidrag
gleder
utvikler
imot
politi
last
temperatur
36
svensk
sjef
indre
##ls
##miljø
nylig
albumet
##idrett
aktuelle
svarte
borte
regnskap
##atelse
##eler
snakker
kontin
pluts
##arar
tilh
utbred
##sle
bandet
nærheten
opplevelse
trønd
##uren
vapen
umiddel
##ittel
bunn
fremdeles
ledelse
kvart
##mus
skul
rommet
digital
pasienter
sørge
ww
tilfred
presse
sammens
bekym
nil
##des
kryss
trinn
stab
##stet
staten
spania
ordet
##strøm
##nummer
##ape
##fjell
##riske
##ante
apner
kjærligheten
2002
##handel
onsdag
186
mad
kina
effekt
hører
trekke
inspirasjon
ressurser
dep
dikt
benytte
fredrik
##hund
##als
litteratur
len
mente
trolig
storbrit
##plasser
forsikring
modell
jesus
kristne
sildenafil
kjend
##verks
sit
salt
nyhet
vinne
##arn
with
storbritann
uken
##kor
kast
trøndelag
hor
##gatt
bill
husk
forvent
google
##sto
deilig
forbund
status
##sprosje
endte
##adal
tilt
samle
selger
suksess
opply
##skiner
##skriv
plutselig
oven
dagbladet
olav
##bord
beskjed
##øn
hvite
hed
gjenoppretting
skad
avdeling
befolkningen
interessant
papir
mening
kreft
##sprogram
##omrader
bevisst
tog
gri
##ika
##fot
##ikler
##sil
intro
hil
##ange
resultatene
stod
nedenfor
vises
typ
uh
yrkes
rog
32
løsning
bibli
læring
tw
##ott
merket
kalles
##ktive
maks
innom
##pr
##ank
him
studier
internasjonal
##stru
personlige
interesser
hentet
vente
eksempler
roman
interiør
situasjon
sitte
kamper
##urder
pil
spesielle
##histor
##ikal
ledet
verdt
odd
##aksjon
don
gjer
vannet
arbeide
forbruker
supp
rettigheter
britiske
oppmerksomhet
##etten
utgangspunktet
lek
list
##essige
forest
##spiller
##kamp
##lede
kontaktann
spra
symp
##akere
praktisk
##tere
identif
helg
kontrakt
pasient
##stemm
nm
##nevnte
kompl
oppmerksom
kines
gal
##atikk
##nem
master
##ømt
tirsdag
##jeneste
anbefaler
redusert
ramme
desig
seng
prosessen
problemet
dann
##han
hente
##prø
brev
benyttet
eventuelt
##iteen
##oter
hit
heldigvis
medarbeid
drive
##gjort
##stedet
##fart
##butikk
ansatt
##redning
middag
##kommende
skriv
##ionen
##entering
##kkende
33
starten
venter
konser
prosess
##fa
thom
##shus
vennskap
favoritt
##asitet
anna
##ikkerhet
brø
www
island
forsker
##punkt
apent
fremover
størrelse
tilhør
alvorlig
op
gjeldende
amerikansk
orig
##telse
internasjonalt
forstaelse
kjøpte
kristian
ør
spis
##produksjon
media
arrangert
besøke
sats
##bruks
storbritannia
##gruppen
jevn
nettverk
##ningsm
##jøen
rapporten
angrep
tenkt
sold
foreldrene
##havn
##uter
uly
ball
annonser
##stud
løse
tilskudd
fritt
##klam
##ogen
##eth
peter
jam
uttry
teknisk
##sti
total
faglig
##ssp
ferie
1990
cup
##brudd
former
##irca
##iat
drept
tegn
org
munn
konstru
fylkeskom
sens
arbeidspl
mote
park
paul
##apt
vent
fla
mamma
##ita
helhet
erik
dagene
ukjent
glass
##hl
nest
##iseres
bydel
flest
fær
støtt
arkiv
mi
##rest
homofil
##tom
innovasjon
interessert
lis
liste
jentene
nyte
organisasjonen
radio
myndigheter
##ander
informasjonen
tadal
400
konsert
tadalafil
eid
landets
hjemmes
##messig
falt
##mot
##iteter
løy
##ior
kjenne
forbud
runde
prim
fett
##ley
##opplys
konkurr
planen
konsent
enor
myk
adc
forand
##lim
ki
spørre
innholdet
char
arranger
##dating
plast
adcirca
johan
publisert
##niva
dial
austral
demokrat
europeiske
##omrade
kle
erotiske
##tegi
tale
##program
fremme
verdenskrig
lam
leser
kunstner
fransk
møn
avstand
##agelig
virksomheten
planer
tilstrekkelig
areal
enna
ført
teater
##inter
frukt
italia
biler
nærme
##rekk
york
revolusjon
##edagog
skar
skjedd
driv
institutt
etterhvert
røde
illust
hotellet
posisjon
##likter
##ynd
##øyde
##ledes
avis
fjerne
kra
eksisterende
velkommen
origin
professor
møt
##iens
festiv
avg
##yen
paris
##klubb
##beh
##hjem
undersøkelsen
##økene
##mor
stats
samling
formann
##angen
beløp
##nor
oppe
vardenafil
arlig
##mas
flytte
turner
sag
revisjon
foreløp
rimelig
ordin
34
nakne
mol
digitale
##veks
planlegg
##enteret
##skil
barnehage
undersø
##stin
franske
stiller
##hjelp
produsert
artikkelen
kul
blei
føle
trekk
arter
økte
johann
##tok
kred
fantastiske
klin
kjøretøy
##unkter
rekru
hjert
martin
valget
tekniske
cam
##fi
##aket
bodde
##ura
nettsiden
andel
##beg
vindu
01
havet
alko
fru
gass
##ics
benytter
##gruppe
laste
sum
listen
arkitekt
##abel
skader
##natt
##grepet
grunnen
server
plassert
forum
##esser
symb
anledning
##ction
gjennomføring
##bisk
undervisning
##sar
ryd
##skog
sju
oppfordr
skyldes
ok
##ctor
##sene
minne
priorit
handel
tenkte
flykt
igjennom
stress
alkohol
ekstrem
##che
positive
##ktoratet
##utvalget
vivan
guds
##alla
##mede
cont
tanker
fan
##aut
vivanza
sektor
lars
apning
knut
begre
bol
##istene
jød
trenings
##stav
kilometer
##smessig
##ld
##banen
funksjoner
##inge
##kob
kandid
brød
tjenesten
konge
kamera
##resjon
gjest
##gjer
fjerde
selskaper
sentr
midten
skatte
##urte
##rettet
##belt
##skriften
gjent
øvrig
bruken
advok
utse
byr
aktive
reklam
afrika
kg
tider
handle
##aser
dokumentasjon
evne
serie
kunde
##oven
camp
##ordin
automatisk
overrask
diagn
bakken
verdier
##skv
utlandet
treff
detaljer
settes
##bry
##yttelse
garden
karl
skjema
sakalte
begrenset
nasjonalt
tradisjonelle
forekom
regionen
nøya
##informasjon
solgt
##30
##edrag
##utte
##vekst
fekk
fare
grader
fab
lover
##formen
##iering
samsvar
struktur
nom
utarbeid
kø
omgang
1999
##grupper
krimin
direktør
##struktur
same
##ational
samarbeidet
##utstyr
##stat
faste
##aking
isl
batter
##budet
etc
##edes
##ellet
##føringen
##forening
##sels
##pene
skoler
orden
helgen
mill
##ua
kirk
forny
levere
solid
09
##egg
##nene
pengene
frisk
fortell
faren
veier
leie
forbedre
##fun
flert
umu
##kre
opphav
##annen
ansvaret
kontor
##stilt
giftet
##inen
##ssjef
ekster
##pan
synd
skjønnhet
ple
##ørende
##elly
ventet
air
sendes
##ismen
begrunn
nederland
##vide
nettsider
ledere
##sper
##antene
tit
##we
##unnet
smart
kyst
##har
stemme
karriere
mik
tenk
##oker
bygger
anner
1980
undert
gravid
boks
gen
utføre
hensikt
planlagt
vesentlig
##revisjon
ac
sosi
jac
##jert
maler
##endørs
vat
dyre
##ual
umiddelbart
undersøkelser
plu
##samling
gjennomføres
rol
matem
næring
##yrer
sein
materiale
avsluttet
kompon
provin
demon
##tiden
minste
snakket
##kam
pet
minim
utsikt
delvis
utvalget
sjelden
trene
aktører
##elefoner
etterpa
37
agder
komfort
klokken
vekk
bio
rent
sender
##oper
sovjet
skuespiller
invest
tilfelle
trygt
##hel
kristiansand
kne
##ament
partiet
underholdning
htt
##amen
trodde
øyn
datama
##skapene
iv
oly
ufor
retningslinjer
##post
danske
lokalt
inkluderer
##nede
aktivt
øster
forbered
##ya
sort
tilpasset
dialog
initi
omradene
##industri
peder
banen
mult
foresl
##sbru
##ringen
##eden
gate
fortsatte
2019
net
##folk
viss
redd
trans
##steder
##rikk
evalu
mistet
##ielt
kjørte
olymp
løpe
milliarder
bir
innkjøp
økning
xxx
ytre
argum
museum
velg
behovet
kilde
matt
kapittel
følg
1970
melding
artikkel
blomster
grenser
tyrk
bærekraft
38
annerledes
cook
firma
administrat
mek
##nader
##stander
##rings
oppstar
positiv
##partiet
inntekt
frig
##inert
##ta
vedlegg
italien
synlig
##ese
flytt
frist
##osisjon
##inder
religion
visste
mottatt
tilretteleg
eldste
##stede
arne
lest
opptak
spel
borger
alex
lurt
tildelt
cal
##sarbeid
1000
dvs
ær
ankom
foreløpig
syv
gave
##ellene
##ood
drø
##kap
fjellet
nu
symptom
fortalte
eksper
oppbe
dekk
økende
184
linje
mangel
konfer
sentralt
sannsynligvis
hovedsakelig
petter
religi
utø
romer
akershus
reng
##10
hurt
næringsliv
##sleder
asi
nyttig
fjern
engasjem
tilnær
##osof
ledende
##rop
##dagen
tidspunkt
psykisk
##esel
pus
dommer
##vene
##isp
##utdanning
forsv
##bon
naturen
forskjellig
preget
positivt
##ømmer
##sund
stal
stasjon
entre
lab
epis
obje
grund
øynene
##innet
understre
##bert
divisjon
##ligheter
hevder
##ona
støtter
ske
dyn
##ografi
##haug
city
thomas
scen
rettet
hvilket
etablere
##ford
##kninger
##vent
singel
opptil
##ykke
fullstendig
##ynt
idag
programmer
situasjoner
##ail
bonus
##sessen
##handler
75
levert
analyse
refle
behandlet
bri
##fug
umulig
fleire
varm
islam
loven
forelig
kvinnen
##arked
eventuelle
##slige
opplevelser
nødvendige
bransje
beskrevet
##sent
relasjoner
kommentar
##holm
##wer
korre
respekt
turist
mun
resp
spre
lot
eventyr
##okk
representerer
vinteren
utel
##ulere
militær
kongen
##etil
lykkes
korte
amatør
185
##nu
inform
barnehagen
##iseringen
##itar
39
enheter
##famil
selge
sjel
studer
begynt
butikken
nettdating
forvente
##dyr
operasjon
observ
pul
##ze
foruts
statsb
alli
nærmeste
bredt
innb
##ipp
rike
tilfredsstil
forhandling
gjens
##virksomhet
styrem
##verdi
##aden
handverk
##fjorden
følelser
##fisk
forst
forsøker
##aken
##ennelse
vurdert
##etning
fulgte
underveis
representerte
typen
utseende
relevant
forsiktig
utslipp
tilknyt
1998
russisk
manglende
spesiell
##ertif
dør
sikt
1800
foredrag
platt
studentene
konkurransen
dobbelt
##igh
normal
utdann
##sreg
erotisk
180
arena
egnet
strø
øyeblikk
baby
nøyaktig
regnes
sjølv
motiver
##rening
ton
terror
##sniva
##urs
bytte
##vise
hyl
##avt
kore
olsen
vond
informasjonskap
##jo
08
##sled
##sord
erotikk
def
rock
leverer
##slig
reiste
fril
##akte
kontaktannonser
lind
teknolog
opplevd
##spolit
##løpet
1997
japan
##edal
egenskaper
stim
hovedstad
lyn
kampan
godkjenning
##inke
stabil
hode
beskrivelse
byer
##lan
fengsel
##havet
datingsider
taler
vo
sof
skru
tils
utbet
dim
55
vedkommende
##ime
drammen
formalet
##anal
snakk
flag
##oteket
##akon
veiledning
nytte
##gaven
mangfold
##ain
inntrykk
##ath
fremtiden
faller
##ll
brasil
parti
##ule
anmeld
forstar
##terer
hørt
##skrav
teksten
##gard
nærmest
##iel
ønsk
skand
ovenfor
landbruk
sem
myndighetene
dekke
##arden
##ala
plassen
dens
dog
play
ideer
pape
##bes
##peri
##own
norweg
forskere
tvang
opprinnelige
butikker
##bed
mos
##henger
utdannings
utvidet
##bilder
dekker
kas
melde
##ving
bøl
1960
##møte
romant
david
arsaken
##indel
##nne
##gger
tide
##isse
lærere
kommunens
ligge
leke
##liggende
##spektiv
elva
kurset
smar
##løsning
##habil
jør
logistikk
##inet
støy
dans
kategorier
##angel
strid
innled
terreng
##staende
kilder
finalen
##ico
medlemmene
##makt
raskere
48
legemid
innh
forbi
bob
show
instrum
amerika
reiseliv
##irektoratet
hendelser
mont
##tatt
lid
frykt
senior
tilhører
følte
##ria
hau
seil
150
hjul
hindre
helset
lil
##litt
produksjonen
##virkning
##yp
##psjon
pedagog
##ora
##uen
kristen
##anke
anvend
anlegget
##fulle
troms
count
##ingsmid
pavirke
anders
fleks
minner
innfly
oppstart
plate
song
naværende
##rus
aka
42
##kel
dyp
deltakere
install
hull
##feltet
lanser
##ubber
if
overfl
##vekt
##alderen
antar
##sik
ferdigheter
statsminister
telem
stift
##liste
friidrett
tilstede
syns
innstilling
##sjef
1996
rab
##egru
##rel
utenlandske
sap
kjøpes
skriftlig
nabo
mac
forvaltning
##jar
skjønner
canada
##bøker
initiativ
dit
bokstav
regnet
##atten
huske
isol
kombinasjon
forster
turer
løsningen
ukra
jenta
kaller
strategi
konklusjon
##aliteten
black
utmerket
verne
historiske
innspill
kravene
hurtig
tillatelse
skaffe
kapasitet
ekskl
metoder
symbol
oppgjør
##øpt
forslaget
departementet
##kking
enige
halvparten
kommunale
hverdagen
husker
fantas
##add
181
ettermid
slar
##jørn
baten
##fød
doll
bodø
nede
##jøring
mulige
sav
##mos
kommentarer
trav
finnmark
maria
##selen
hansen
##minister
##nok
farlig
reag
47
omgiv
##uksjon
levende
feltet
moro
ip
handels
##sser
norwegian
kritikk
fungere
##vi
##hal
flyt
slipper
lom
brukerne
artikler
personen
nøye
kreditt
##bruket
leir
konto
##ssam
møtes
sms
verken
los
prøvde
fleksib
nydelig
##produs
østfold
færre
hag
partene
tittelen
fler
skiller
##stol
##ep
kontra
##rud
##itenskap
feir
personopplys
forventet
dansk
lurer
##iment
konsekvenser
##istan
sterkere
##ging
grense
pga
##vante
##renn
overgang
##hi
planlegging
##nus
world
##nett
##shem
velferd
hjemmel
marker
retur
44
fordelt
##verdig
asyl
parkering
trekker
1994
##ini
passe
##ward
##dommer
##ella
oppgaven
stikk
avl
utarbeidet
dekket
##onym
lengde
tids
leker
##setninger
lad
brudd
tvers
hagen
huden
opprettholde
hjør
##byra
penis
kostnader
##vendig
kone
tida
##kser
aksept
svare
visst
beskriver
filosof
vokser
velly
##wa
arhund
##kretær
million
besøkende
utenriks
kjørt
avfall
##tten
##anda
##ited
india
katol
repar
grunner
##satte
tilknytning
##meldinger
robert
##itering
tidleg
tilfeldig
visse
rolig
##kere
diver
1900
bedriften
mønster
markedsføring
brun
tilgjengelige
indust
gram
fylle
tverr
forklar
##lement
##yre
##ikke
styrker
1995
##akk
##inene
galt
deltar
##skar
mas
antallet
frp
forfatt
pavirker
kolon
takket
##minn
##val
##edskap
betaling
befinner
uttal
dokumenter
merker
klat
fysiske
grunnlaget
oftest
dus
hyd
ent
##krig
ettersp
myndighet
hd
bøkene
virksomheter
##vesen
fulgt
##forn
størst
sammenlignet
##bler
samfunns
##slet
##øg
øvre
##bi
ger
##drer
representanter
##kr
##rafikken
##fs
modeller
blad
engelske
inge
##skraft
##sprak
engasjement
thor
miljøet
skapt
##bol
rekrutter
entrep
##erende
passasjer
ledelsen
opprette
1992
ele
kontroller
innrøm
naturlige
landene
aud
cor
presentere
##utvalg
marg
historier
##burg
omtale
fitte
##egj
herunder
vondt
wik
inngar
ntb
##wn
##kkert
mobilt
løper
forlag
øl
##inde
colle
##kjø
##resent
deltag
melder
befolkning
##institusjon
frihet
konsept
gjennomgang
##ksen
spare
begrepet
enig
harald
##eleder
##ato
akadem
##biske
ansett
human
##ligheten
##cke
nettbutikk
##vensjon
##prob
##setting
instru
stral
##enden
vill
herlig
##høy
inspirert
##inav
##ktivt
##inske
leverandør
##ari
intens
gunn
##vakt
entrepren
klim
##kontroll
frivillig
##ij
ulov
mørke
indik
bronse
utstilling
##orene
##urens
grønne
bistand
##ativer
reglene
##sko
##ula
innført
##nr
overnatt
##bær
garant
praktiske
##oo
forestil
hast
motta
frivillige
statistikk
foreninger
undervis
klassen
##ømte
tilbudet
foss
sveits
keiser
sykehuset
##aktør
sanger
rogaland
motsetning
oblig
hotel
studio
sikrer
##skjer
600
##eldige
finland
hovud
kundene
kreves
##lø
berre
saman
out
advokat
front
representant
sivil
sene
uka
##lek
##sky
kapital
fen
##duksjon
foregar
##lade
europ
##ec
pi
##ansjen
41
gli
forsøke
##skilt
medarbeidere
minimum
kjed
leter
kontinuer
omfang
kreve
aringen
spiser
hemmelig
##skol
##ague
oppført
deltakerne
aksep
jer
reser
stock
obser
##rut
mikro
fordeler
bot
pale
##oft
koselig
generelle
mengder
vurderes
##ips
##igere
##elet
handtere
vurderer
garder
hest
spred
behandlingen
##bia
##være
##port
henger
marie
05
aksjon
demonst
46
forar
utføres
kaffe
##boks
natten
ødeleg
kunden
lykke
involvert
bag
tonn
##press
hytt
fylkeskommun
##igen
søster
##ypt
wind
2020
alf
bær
historisk
06
pappa
sirk
utgifter
likte
kvinnelige
aften
##nevnt
##aktiv
##lant
tyn
hjertet
faglige
syd
##øter
sosialt
##car
selskapets
avde
##foret
amp
sæ
skilt
##ube
ballen
##alender
##speri
tekster
hall
profesjonelle
rene
43
##ave
fylt
##vo
##vidt
dollar
belast
sambo
prop
##rapport
dron
rettferd
##edd
relevante
ola
##album
stede
nettside
##jor
kriter
oppgrader
juster
willi
tabell
flink
unike
kvinnene
sund
league
##ola
morsomt
orientering
oppn
registrering
mak
##enhet
##agram
##ensasjon
lette
##blo
kravet
negative
1993
##ommet
effektivt
lim
##stall
##navn
##merk
##ions
jurid
vestfold
##able
berlin
grupp
##ace
bind
##kir
produktet
forskjellen
##film
##ney
famili
mekan
##ioder
kjemisk
1991
west
ulik
syntes
##ilde
##tra
your
øyne
australia
##inerte
forplikt
##opplev
lavt
triv
von
sykdommer
##hen
65
esp
samtale
##følgende
veter
metode
sendte
##ye
frokost
##mi
systemer
kull
##bat
##oppgaver
ansikt
overord
##aa
##rende
##hengige
jub
friluft
##lagte
fond
talet
##etting
smerte
regionale
oppover
bror
lansert
bortsett
##amin
altfor
##ukt
hels
betalt
slippe
cookies
opprør
populær
boliger
alvorlige
velvære
##samfunn
stilte
phil
militære
##df
kommersi
steg
##aner
##way
skille
fredrikstad
kant
legen
produktene
gjester
agent
henrik
diverse
daglige
betal
bevil
##rang
##cy
adresse
##kobling
besøker
line
##sløs
utenom
spillerne
vennlig
##omen
##stiden
likestilling
forklarer
modellen
forklare
##ansene
sliter
##ketøy
pause
kors
##kjøring
##uddet
søknaden
avdel
tanken
grensen
konkrete
handball
foreligger
mur
##kkelen
sertif
##ii
bygges
##esund
klassisk
##anen
##ksa
rid
183
##gjøring
musikken
##asjen
##skip
##medal
innskudd
regne
behandle
dreier
menneskene
informasjonskapsler
##jemp
##hu
svarer
utgave
avgift
treffe
##yse
minutt
##lands
utelu
lave
meir
borg
medal
stoppe
##slatt
##rerer
big
kritisk
arbeidsmiljø
jens
telemark
fisker
02
##løse
vakt
elektronikk
##likten
##viser
##elighet
angel
ntnu
kastet
bedt
engang
sluttet
kunnskaps
svak
##opplær
tyder
ender
vunnet
temaet
##onger
##ds
##ikerne
offisielle
800
##elling
##sdal
ast
##arene
fortj
dal
væ
beskytte
kvar
sus
designet
nevne
ib
tingene
##rimin
yout
avtaler
university
##ennene
beslut
drevet
stig
krevende
##atere
elektronisk
##barn
ordfører
##avnet
##settelse
forholdene
##cel
undersøke
##likevel
rulle
nevnte
het
populært
drar
presentert
##skyld
vag
##førsel
mail
elementer
sidene
pak
pluss
ner
ull
dømt
##petanse
oppbevar
bryll
##ova
##vart
##melt
johannes
vand
oppsummer
bæ
besøkte
deltakelse
kjerne
likhet
ros
opplysningene
møteplassen
lund
flertall
##skjema
menneskerett
typisk
##bør
##ute
varierer
rec
arbeidsmarked
##arm
kvaliteten
gifte
fn
##leser
vilje
ansi
uv
egypt
forfatteren
grand
##start
##tokoll
##ric
tørr
fartøy
##ktoren
leverandører
rehabil
##personer
folkeh
##lad
ende
meldinger
misjon
bestemmer
utfordring
trygge
kontinuerlig
evaluering
studiet
wal
noko
##sre
carl
##prosjekt
familier
rav
haret
william
fak
49
andreas
leveres
barnehag
likt
jar
framtid
utforske
07
mom
beregnet
##autom
okk
garanter
seksjon
##skrifter
site
polen
##dalen
sykeple
max
etablerte
cir
forskjeller
anbefales
skogen
medisinsk
spurte
igang
skjermen
slaget
søt
infra
plassering
autor
dannet
skjerm
rutiner
##retning
##delen
skam
omd
##mune
grunnlagt
bygninger
ryggen
registrere
regi
pupper
tunn
##su
fy
allmenn
avgjøre
##rerte
yng
massage
bakgrunnen
mr
repub
hjemmet
byens
instal
##forbundet
rart
totale
vaks
##ørte
fellesskap
fjernet
logg
søte
##ty
##klar
utgiv
virk
kommende
medie
metall
dimensjon
kok
assist
innsikt
generell
one
prøvd
##istri
redde
produsere
escorte
morsom
##avgift
hunder
mulighetene
takt
restaurant
##uta
##kurran
tilsk
52
1950
tapte
noreg
vore
sove
koster
pasienten
rust
##ingsmiddel
cre
forsøkte
øye
samarbeidspart
1989
gyld
cent
milf
##prisen
nedover
separ
rum
ekstremt
sies
andelen
overbe
trakk
bach
##aksjoner
lagene
rh
##blad
kysten
bibliotek
##ky
risikoen
stiftet
snar
iverks
darlige
statt
jak
organisert
klage
nært
molde
stolt
bygde
bit
semin
riksrevisjon
##udsjett
tjenestene
opplevde
##drift
slit
##spillet
slu
usikker
kalla
##bytte
sønnen
gjennomsnittlig
institusjoner
sjansen
##bø
omtalt
henvend
##jul
anses
prost
##ows
lært
##sinn
03
kult
null
forhin
##sfri
vass
konsul
##attes
optim
klokka
##ttene
utro
##øpet
utdannet
arrangement
##ykker
##vig
engasjer
køben
##uri
##misjon
sekunder
##ktighet
##fond
grep
##ulering
servic
bane
##delige
##inerer
##sess
sykdommen
##orge
jose
fattig
##posten
profesjonell
##ano
mg
beredskap
##iert
##beveg
love
##stekn
etn
identitet
perf
innsat
grov
hender
fylkesmannen
##merker
mengde
jorden
matematikk
aksje
datamaskin
skipet
maling
farmas
##edyr
malg
inf
interessante
blu
forsvaret
testet
vokste
begrav
##stasjon
info
systematisk
##com
forsøkt
formen
muslim
føles
04
est
##gifter
vurderinger
##strid
##vd
asia
regulering
brukeren
spraket
##ary
utøver
virket
radgiver
##arch
fortalt
bul
speed
imponer
ungdoms
##bygd
hensi
bransjen
allikevel
##apir
sørger
##rommet
medfører
pin
følelse
sistnevnte
gitar
##mosf
anti
##sjekk
apenbart
##bro
1988
misten
stoppet
effekten
bryst
konflikt
provinsen
junior
radi
skrem
samler
united
ekspert
samliv
moren
ess
##system
klem
introdus
gradvis
scene
rammer
lunsj
##opper
##irektør
kommunestyret
##endal
overgrep
##standen
##løst
tallene
##send
sidan
##styre
samtlige
appen
##verktøy
##sdatter
kab
bb
marit
##eloven
forurens
##innen
##urdering
riktige
##ras
resul
bestemme
døgn
##last
ektef
nedre
stillingen
##organisasjon
sikret
rollen
definit
las
##result
ug
##iken
kreativ
##skoler
ott
tusenvis
##hr
scan
grundig
##festiv
søvn
perfekte
##ulerer
sover
jacob
gjekk
revid
##somhet
hunden
analys
##selskap
##kende
lyse
##rerende
plag
karet
182
##mm
hoteller
rødt
##værende
trygghet
##ance
jø
skadet
kosthold
##foreningen
##yer
engasjert
bursdag
tend
##hammer
minn
roma
high
##isser
frø
fakult
skudd
##ilsynet
bestemmelser
rand
from
henholdsvis
busker
##ement
premier
ivareta
sande
kjennet
nadde
##cial
##elin
trump
holdes
##ggen
inngatt
eksamen
nødvendigvis
sle
innføring
noens
##vernet
atmosf
regiss
has
vedr
ze
sakalt
sinn
##æring
styring
andersen
54
ødelagt
posten
stu
##raden
##barhet
sangen
##rering
##odene
fersk
prosesser
##gjorde
løfte
arlige
##legget
programvare
varmt
pum
magas
skandinav
forventninger
spen
##api
##tur
##vennlig
##omradene
vellykket
##stjenester
51
##valt
infrastruktur
##sloven
buss
##imer
konkurrans
søkte
støttet
##gress
ordningen
utforming
oppvar
ideen
bevegelse
betong
##ble
magnus
##ktes
forbundet
##basert
fasts
##ansvarlig
datab
##rasjoner
engros
##biler
soldater
##veksling
stillinger
smil
jazz
aksjer
sne
drev
mottar
##egard
##ordning
skogbruk
##sevne
halvt
tone
arten
inde
verre
sjekket
##phone
global
##eten
kommunal
99
##ørsel
##cup
innga
##inerende
anbefale
golf
tung
gutta
uvan
utbygging
##givning
muligens
landslag
hamar
anerkj
utfører
slutte
yt
glade
organisering
##hengighet
deles
rosa
oppdrett
morten
mottak
bærer
tant
spenning
this
apotek
kring
bratt
##isteret
personal
kategori
youtube
motivasjon
tapt
strekker
##offer
nærmer
forvaltnings
oppgitt
levering
gevin
vend
##vold
analyser
brutt
rekord
dn
desse
arv
##stiltak
forbe
perioder
##still
##uth
kret
iran
56
lane
pakke
##poeng
##økonom
vanskelige
biotekn
##alinger
angrepet
##visor
##ittet
##hop
ettermiddag
seksuelle
##personell
back
gruppa
trengte
eksklus
##gikk
optimal
innkal
personopplysninger
viktigere
teste
haha
1945
##risen
roy
##sens
flat
ali
rammet
behandles
1940
##arbeider
regner
college
klasser
atferd
involver
nordiske
arsaker
vars
parall
##rur
##staten
slapp
utendørs
##uro
opplyser
spørsmalene
##familien
lit
tidssk
##omet
perspektiv
64
rich
øverste
versjonen
hord
gay
overtok
britisk
trukket
por
##eier
mykje
##bygge
hjemmeside
overraskende
##lie
nys
sjøen
nøkkel
handlinger
sjanse
beholde
##ssystem
ære
teor
##bal
##forskning
fat
faktum
farmasøyt
forening
bisk
##skost
bruks
apple
forhap
bestilling
sogn
##mater
myr
##brett
##wood
hon
politikere
bekreftet
tempo
profiler
vegne
svein
utvalgte
shopp
##ssenter
kortere
##nam
belig
##aterte
plante
##sberg
næringsmiddel
##enser
alp
vidt
##edia
hevdet
bordet
##edlemmer
adre
virkeligheten
midlertidig
unik
##job
##que
ube
oppfordrer
##feksjon
cro
##ilder
##ransport
miner
forleng
overlev
tidlegare
##lesund
latin
svaret
materialer
utøvere
larsen
tungt
utbredt
utbygg
fulle
kommand
inntekter
cru
##ugh
bygning
beina
##rede
##ipend
iii
##smann
planter
bygningen
##dret
fel
deleg
landskap
reist
slekten
drømmer
##cks
##veier
samarbeide
døpt
presset
selvstendig
##messige
##ega
ran
vakker
war
##ingar
effektive
basis
##kalt
kjøkkenet
hensikten
vegg
betaler
skinn
##elset
grunnet
taket
vere
verste
sites
lou
konsesjon
informer
hytte
1500
arbeidstaker
betegn
##kultur
magen
tilpasse
andres
##kta
old
##melen
viking
thail
haugesund
sandnes
stilt
hydro
danse
##arane
forretnings
isted
##ely
foreslar
##nsberg
hedmark
alternativer
følelsen
riv
evt
##øt
##fatt
fakta
sapass
mv
yog
arbeidslivet
##ksp
1984
københavn
##gor
that
##abeth
jensen
statlige
##svalg
fasc
været
sola
hvorav
##systemet
##smid
prosjektleder
annons
anska
religiøse
journalist
liksom
##ago
skum
reklame
ec
##sidene
parad
fornuft
##ilitet
##astro
teknikk
noensinne
foretatt
mobile
##chen
hapet
##likket
graf
67
##unget
stjerne
##onen
dru
ask
tøff
forholde
stockholm
møteplass
rosen
reaksjon
##siktige
hob
nb
hvitt
##foss
##holdes
champ
##ally
##vat
##busjon
støv
fange
beskyttelse
53
sving
1985
##tekter
fork
dekor
atom
179
##vapen
dags
##ira
belg
##ful
faktorer
inngang
kinesisk
teori
tilknyttet
retter
vestlige
kaste
tillate
gresk
##rykket
##spar
arsmøtet
victor
ikt
1987
humor
top
more
utbredelse
heg
kyr
bærekraftig
##ipl
windows
bærum
ringer
1986
##legger
moh
korn
foreta
tøy
##asses
59
nettleser
eksempelvis
krf
##vard
58
##skon
temp
psykiske
cd
thailand
malene
oppdage
undertøy
etterl
femte
alesund
klager
avslutt
nødt
finan
tilhørende
bekl
eiendommen
herre
aktuelt
tillatt
utvide
portug
##splass
øvelser
vig
##pix
presentasjon
ult
mottok
##olje
##selskapet
trist
iphone
overrasket
utfordrende
##parti
##filmer
ifra
anonym
book
veks
spesialist
##elde
##behør
vokse
hage
solberg
viet
57
##saktiv
forkant
grønnsaker
##tekt
##18
redaktør
utan
##isa
62
tenar
skyl
heng
miste
##mund
avløp
##ther
skjel
##user
ler
utnytte
studere
##foretak
utstyrt
storm
vanskeligere
##tein
##ani
bidratt
liber
bebo
##lyst
##ating
produsent
micha
maksim
klassiske
scenen
gaver
munt
nik
distrikt
parl
avholdt
telefoni
vaske
dukker
bost
##ical
##atorer
raske
##smøte
inc
##ffen
laks
tønsberg
sog
mørk
85
##cker
1920
finansiering
samtykke
vinn
##produkter
landbruks
høres
##utere
darligere
skapte
##ørsmal
##ela
nic
##savt
##bak
##bor
høgskolen
##ara
250
gjestene
scanpix
georg
tittel
reduksjon
hordaland
##fab
ærlig
##oer
##steret
utfør
hær
intel
veget
##øyene
stortings
nyere
lista
##bjørn
prisene
henge
tore
http
ulovlig
##mynd
symptomer
##ype
arrest
arm
rente
kjell
##bing
##cher
malgru
##60
##ux
120
byttet
seinare
ungdomssk
##faglig
##ati
skyte
##kkede
tester
nordvest
##politikk
##ørr
skred
samhandling
agentur
snu
asker
debatten
galler
##vitt
##regn
##mord
komite
utdannelse
planlegge
medlemskap
overs
##yting
samtaler
##las
framover
##onsen
leger
milj
bryte
gulv
##meter
agg
bein
ps
fylket
che
termin
##merke
pavirket
koll
plikt
homofile
##reen
kule
##ool
motsatt
##oppen
innflytelse
kombinert
uri
bønn
flyet
konstant
##iro
##skamp
riksrevisjonens
##illere
skifte
kvartal
fjord
eksist
videreutvik
##klart
international
##planen
tradisjonell
temaer
tyrkia
innvil
foresp
##entert
lede
fund
##taket
farmasøytisk
kontrollere
utnevnt
oft
tunge
##maskin
erstattet
overført
##ndom
import
tiltre
engroshandel
##xt
##industrien
kampene
muskel
##sborg
koble
hellas
dukket
##40
kin
##idae
##dring
staende
moral
elite
bay
##esy
##flate
songen
etablering
geograf
namnet
diam
##ddet
##rin
løpende
mex
james
pent
ventil
teamet
lete
flyktninger
trær
fing
##sla
##our
let
meldt
balanse
biv
bis
##park
musikal
erstatning
sekund
maneden
fullført
hørte
##behov
##cam
oppvekst
lillehammer
95
virkning
##rasjonen
beskrive
##itusjon
tryg
spilleautom
##bildet
##bit
##kurs
straks
link
##støtte
bygnings
##musikk
##ppel
lagre
##uller
foreslatt
twitter
es
nils
##knings
peker
##spor
##stur
betra
##hov
brønn
avisen
##leis
generasjon
##oth
verdif
##øyer
klubber
prat
##alp
1972
##moen
geir
vib
##papir
700
beting
##prosjektet
##ksjonene
##muse
later
produserer
##gas
barnehager
tilbakemeldinger
##edy
##arkedet
##sendt
møre
plikter
down
materialet
alderen
volum
hitt
##onert
syl
avd
##ryt
##leverand
tolv
fokusere
dynam
forventer
fakultet
nettverket
fremmed
##aga
tipp
innvandrere
##melige
nødnummer
øverst
rune
##okol
##vind
##pal
himmel
mister
##verdige
uen
maskiner
stren
sikte
ubeh
mig
studien
frust
##akse
kalle
##miljøet
konvensjon
cat
##boka
##lir
##ikeren
##amer
helga
foretre
fanget
eventuell
fastsatt
øyeblikket
registrerte
kinesiske
endres
eig
oks
oppgavene
##iness
bakter
##adresse
swinger
nysgjer
##kunst
##bot
kristin
dypt
minor
investeringer
papeker
##perioden
invitert
bioteknologisk
eksplo
prom
fremfor
elektrisk
ukene
ungdommer
flor
##deler
knapt
museet
##resten
ansiktet
##eltet
##undersøkelse
inneholde
næringslivet
følges
cap
troll
representert
##af
pad
dyb
##sperson
bygging
komplett
debut
kjøle
##gje
definitivt
club
##rør
##bur
##21
elektriske
rein
##vende
##stolen
##samlingen
erob
##sbas
emp
kalender
forhapentlig
planlegger
##sforsk
biskop
stadion
isa
rute
passord
romsdal
rig
industi
detaljvarer
##vilkar
##hild
##gruppa
##odd
66
stengt
gn
tilfellet
diskutere
johansen
kim
pedersen
scoret
##norsk
##skader
hjelpemid
lovlig
jack
##ware
vik
kollega
michael
latter
vedtaket
kjennskap
##ulert
lesere
buskerud
nordisk
diskrimin
leste
hovedstaden
##listen
høyest
besluttet
satse
##ts
nære
##lister
tilbehør
sikkerhets
gas
stram
søkemot
##rister
nyttar
akutt
##engde
##øvrig
bens
##spel
foreningen
solgte
eksped
od
stoffer
##vask
##bransjen
spurt
barndom
arrangementer
dels
##følger
funksjonshem
identifisere
##hard
1930
##isiner
##vesenet
tykk
##splanen
arsmøte
##sikring
penge
signal
##vika
##uch
co2
levde
forretning
beslutning
kino
hellige
bachel
menighet
spilles
elver
##sprosessen
##verden
instagram
tradisjonelt
##idig
1968
kjøring
katt
##menne
##iven
byene
arbeidsplasser
saledes
##iko
forøvrig
past
##krav
##sliv
langrenn
parørende
søknader
sørvest
begrep
rak
enheten
tegnet
gjennomførte
pleier
moss
##organisasjoner
flagg
gress
##lf
erklær
##bilde
cirka
##mert
micros
unød
fig
##ullet
jakten
##rinn
hvorvidt
##komm
trengs
sakene
knappen
parter
okkup
oppfatning
lesbisk
hjernen
presenterer
kla
garn
sec
havnet
plant
##sida
senteret
tube
##førings
eøs
lyset
que
bryter
brem
seksuell
##gging
endringene
##byggende
happ
oppdatere
stopper
tankene
##partement
stilles
jevnt
innbyggerne
sykehjem
microsoft
rehabilitering
##hv
individuelle
krefter
metoden
epost
grønt
##vinning
##24
noksa
##ness
potensielle
underlagt
øre
applik
##fang
##kehus
##gu
regjeringens
elven
tjener
tiar
flyplassen
banken
depresjon
##rim
nivaet
##ids
neppe
gunnar
fravær
deltatt
danner
may
nektet
terje
jakob
koordin
##bred
smab
##amentet
afg
knulle
oppdatering
##bus
hammer
kalk
##aldt
handlet
eksterne
##stjer
fløy
1979
vask
distribusjon
barns
hendene
dyktige
tsjekk
komb
##ryg
bidro
enorme
tob
##garden
teknologien
friske
rester
blogger
nevnes
sorter
adgang
betrakt
studi
opplevelsen
bosatt
bestand
##aktig
##gitt
endel
##aton
kjer
##reise
satser
##opplæring
1983
1982
funksjonen
barnets
hakon
alternative
dia
morsomme
178
prosjektene
##ony
kanal
melod
ingred
poker
1975
solen
##ci
aftenposten
utfordringene
offent
##ianter
##ssystemet
festival
slutter
lagring
nedsatt
alders
størrelsen
petro
utløp
mere
veggen
kjønnsle
bater
kose
##versjon
lokaler
styres
##ssitu
eta
stykke
grøn
barnevern
sykl
streng
read
times
##plikt
1981
##ugen
##represent
##hn
kjendiser
fris
arbeidstakere
##oda
lande
jernbane
##prosjekter
selskapene
##teres
sed
##pensjon
namn
girls
forebygge
##innhold
##abelt
##elsens
delstaten
perman
##stilbud
pafølgende
##sfjord
landsby
jernban
1976
korrekt
nyeste
foretak
infl
177
##sprosjekt
mes
##bygget
guide
##baserte
prioriter
pdf
irak
skiftet
sult
overskudd
##illet
beliggen
stakk
##eper
north
1973
definert
##forsvar
##varen
underteg
senest
##markedet
##itz
##elat
forstyr
major
kjedelig
forutsetninger
jevnlig
referanse
1978
egner
søkere
glemme
##pte
97
sammenligne
kommunisere
poly
guttene
utry
##aste
skøy
support
medføre
##ialet
drives
utred
hypp
##ikasjoner
##oms
##ikon
##appar
globale
##egnet
tynn
##kja
trend
##plom
power
usas
leilighet
km²
kari
besøkt
idrettslag
##penger
##æl
##hy
bevege
forsvarlig
cali
lut
fargen
lærings
styrket
belønn
forutsetning
preg
kjønns
forelsket
produsenter
##anserte
##ords
##jøre
eriks
intensjon
oppfylle
hoppe
forbudt
##ssels
oppleves
will
ins
beveger
mari
understreker
##setningen
##bakken
fjorden
##elagt
delte
kapit
tidspunktet
fyller
act
sjakk
personlighet
fremste
george
medisinske
utgift
gren
ranger
fed
mennesket
flate
syria
imponerende
bibel
spanske
sjøl
element
dronning
##sanlegg
##11
nokre
rektor
holdninger
svømme
##avtale
##rikken
##arkiv
##fullt
riktignok
ordinære
forsvinner
forlate
bonde
betydningen
##savtale
telefonen
liggende
##spra
storting
døg
##skop
sjokol
63
sees
##ame
##sex
helsepersonell
##cas
konkluder
livsstil
skolene
harde
##run
musli
forhapentligvis
1700
sunt
##kvalitet
##nda
klassif
##chester
elis
arrangementet
##bb
##atører
arke
##osen
1974
klikke
spansk
regelverket
stammer
forsvant
sovjetun
forlot
##kommun
gym
delene
##chat
lisens
county
heile
mich
##strand
faget
sørøst
trakt
##aksjonen
eleven
laveste
endrer
paske
stry
##ota
etasje
kvinners
##smessige
videos
tømmer
##nev
ambass
høyester
luks
vedrørende
kartlegging
liter
høring
apps
veileder
##legges
sandefjord
##søker
oppfylt
katolske
dets
aktiver
ts
japansk
##vag
##legen
stjerner
pilot
hytta
reisen
king
norden
morgenen
olympiske
fns
finansier
alminn
gammelt
fase
naturligvis
utgaven
oppdrags
##udere
##ordningen
##stille
gjem
##oppgjør
relasjon
pyn
eiere
68
samtid
samarbeider
##sforbund
##ae
skre
business
util
##historie
##kampen
høyesterett
##board
tilbakemelding
sakte
destin
blikk
løst
oppskrift
##ington
##elva
offer
##jev
ah
skutt
lengst
1969
kaldt
gruppene
frie
korea
gold
heim
snitt
##kle
math
primært
##orm
69
kilo
arbeiderpartiet
##mis
palit
formidle
medvir
dokt
##skontroll
avdelingen
ingrediens
##back
driften
gry
smerter
##fallet
still
ankl
langsiktig
varsel
californ
ker
hæren
integrert
##aka
netto
trykke
##helset
ordentlig
regelverk
ulem
gulvet
had
##umin
havne
1964
##sikkerhet
behandler
nivaer
hittil
##onne
##kreft
forventes
arbeidsliv
danne
inviterer
villig
anbefalt
studerte
##esen
reaksjoner
samferd
##itiv
avv
problemene
bang
omsetning
##boken
personvern
intellig
prosed
##etningen
nedbør
##cer
kulturelle
bety
variasjon
regional
investering
bredde
visjon
koste
##iserings
variere
debu
##datter
dir
mengden
helge
kvad
franc
glemt
naz
##voll
passet
verdien
##15
1977
##grad
havn
helhetlig
aff
##pot
1967
plattform
149
kontakte
##anset
##12
vokal
##do
toal
vitne
nark
rens
garantert
singler
##ila
administrasjonen
traff
##lingene
gjenstander
tilpas
##inal
sarp
##vegen
arhundre
horn
##gaard
##ibli
##butikken
damp
italienske
brand
vilkarene
distriktet
hr
uvanlig
arkitektur
dild
lytte
oppsta
syssels
cum
møl
##egler
##bard
prinsippet
falle
styrer
##atch
forbruk
##reng
annonse
boligen
##ition
##istikken
slappe
gutten
vokst
foster
ye
cla
nh
kh
##sesser
flinke
trives
fødsel
hert
aring
irri
bun
dispensasjon
##unnskap
tinder
overføring
##ilbud
artene
##ulen
##kommer
cy
kenn
medan
##sprosjekter
72
stk
skritt
utfyl
bass
##senter
utstillingen
kafe
inse
##grens
open
##pool
utvikles
maskinen
tilsl
forbindel
arrangeres
hi
##fen
##fakt
kostnadene
##ømmet
##ineres
mexico
green
søkt
kald
bibelen
anskaff
hørings
##seth
apnes
kalde
hf
tilgjengelighet
gjaldt
##enteres
##ekn
landslaget
medisiner
https
modern
kunnskapen
personell
##test
##ations
lud
pors
statsbudsjett
aspe
forhindre
langvar
eksport
samboer
tvunget
##fir
tilnærming
svanger
fornøyde
fantes
tørre
smartt
bringe
diplom
styrings
speil
forskerne
##reis
piz
base
bekjemp
kjeller
emil
##skuddet
bunnen
ish
gjelde
3d
spesifikke
reduserer
sykepleier
fos
##kapital
einar
##somrader
stasjonen
vakkert
##leks
wikip
ekteskapet
psykolog
intervjuet
semif
nap
##helm
california
##oni
oppland
ettertid
obligator
administrative
##orgen
rov
partnere
pasientene
gled
##institusjoner
eide
bergens
skien
sun
utlend
enstemm
##likken
evner
##følelse
artist
smør
##rul
døren
sanne
valer
stralende
derfra
##stoffer
uend
angst
##osjon
skolens
dekning
##rot
offisielt
tour
vassdrag
##ones
##oph
##trykk
##sem
effekter
##anne
blanding
##ileum
kundes
barnas
lærte
andro
##oil
jorda
klubbens
77
tegnes
tradisjoner
mannlige
##stikk
begrense
trykket
hehe
fungerte
##byr
##kompetanse
mennene
negativ
navig
forholdsvis
##dringer
##16
geb
##stasjonen
tilsvarer
samlinger
##ssik
##rete
school
omgivelser
munnen
kreative
opprinnelse
larvik
##iff
selges
1971
##yo
kode
hellig
forberedt
kirur
overnatting
drap
virkelige
##avisen
##bruker
landskapet
skjær
billett
finale
##kro
##bill
##veksten
##stider
national
tidsskrift
sper
datteren
verket
tilbys
richard
tendens
fylkeskommune
lt
billige
klipp
##ringe
spareb
roller
##uel
paret
irland
nilsen
politiker
ruter
kopi
ragn
sarpsborg
interne
##beskriv
teoret
fremtidige
ingeniør
elektroniske
greske
##smod
##rich
oppgir
tabellen
nas
##rette
reserv
tilsynelat
##jern
##ws
bestaende
gab
løk
hilsen
##vitenskap
##sløp
quiz
kunstnere
døgnet
blind
##idens
liden
arendal
##key
feste
utstyret
kommunes
##sforhold
##befol
gleden
definisjon
tillitsvalg
gunst
##fre
##anna
restauranter
##problemer
regelmessig
italiensk
##rap
tech
introduksjon
##pass
mov
palestin
##selskaper
ordene
fullmakt
wikipedia
samlede
##oto
søkes
oppdraget
##cus
1948
##serien
partier
acc
innsatsen
handtering
tiltakene
behagelig
angri
telen
himmelen
##komiteen
varslet
vul
samarbeidspartnere
jordbær
labor
isb
ud
##fødte
##smater
##jenter
##bunn
shopping
vedtok
spiste
hust
videoen
ukraina
hvile
tillater
nordlige
kyl
innføre
strikke
protest
##naden
mount
avtalt
agen
oftere
hat
rabatt
varianter
stemning
forklaring
hape
folkehelse
meninger
flam
##konkurran
1965
daniel
baks
utarbeide
##uligheter
politid
##veren
entreprenør
turn
rettss
spilleren
ungene
##somradet
hendelsen
1600
kva
sjanser
flytter
vanligste
##rand
evnen
kandidater
sivile
døden
pig
melk
ama
reduseres
harry
bjer
oppvarming
metal
##lass
##marks
##ting
##ømm
##cia
##az
##andel
##ervice
##parken
transa
##seier
evig
noveller
foruten
kontakter
finger
pust
##ome
uro
festivalen
##skerne
karakt
##orgrad
stolte
hms
avgjørelse
gy
170
##sjøen
trafikken
home
installert
virkelighet
sørget
bakke
gig
gjenstand
spons
innspil
##frie
takke
hjemmelaget
alexander
fødsels
protokoll
##so
##frem
foretrekker
pian
beløpet
##ualitet
gjø
##mf
semifin
ukjente
internt
manager
utk
aur
bekrefter
##go
konkurranser
##ict
renn
generalfor
camping
hang
gjennomsiktig
tilsynelatende
##ystemet
mem
fusjon
##irkninger
sørlige
##list
fet
advar
bund
stoffet
##data
group
##forsta
kamer
##edel
strøk
opph
roll
havner
sopp
innendørs
brøt
hensiktsmessig
##aritet
hill
formidling
##lund
avdelinger
salgs
unntatt
styrets
enstemmig
fremgang
snap
kjendis
tenn
##otika
ytelse
tilrettelegging
appar
run
##fyr
##ømming
asiatiske
rekruttering
flørt
drag
overh
gjenkj
radet
##angrep
fattige
kond
dum
lederen
sammenhenger
moden
##ystem
rengjøring
88
##gget
samisk
##stjenesten
forbedring
deltaker
##faring
##bra
servert
fortjener
overalt
sære
sok
dj
happy
nedgang
kjempet
kraftige
##jesel
tegne
undersøkt
##zen
apningen
deilige
rapportering
oppnad
##ekont
scor
##kkere
avgrens
vegvesen
oppdragsgiver
##somrade
oversett
skuff
vog
##kanten
bevar
ordre
skott
hushold
ringe
900
kona
manedene
dop
oppnadd
74
##brev
sovjetunionen
utgangen
samles
seieren
rettferdig
evangel
badet
liver
kyrk
øyene
gong
##hjul
presid
73
tiltaket
strategisk
##sats
antatt
gt
make
##bestemm
##nerte
sannheten
##hallen
eidsv
høyden
##nte
opphe
statoil
vitenskapelig
1966
##kontor
oscar
elisabeth
##styring
leiligheten
long
##pes
mobilen
datas
##jent
radmann
staf
gjennomfører
shem
good
fordeling
##ml
78
##møtet
velges
konver
alta
elektro
comp
tøffe
automat
sittende
bryllup
175
formannskapet
##elever
variert
hastighet
usikkerhet
kristus
selvtil
forresten
lukket
##fast
gule
##oli
##jes
utelukkende
parken
##ikop
innvandrer
ressurs
pamelding
oppfyller
##hem
omfattet
talt
##teret
bassen
avanserte
svake
gjenstar
original
##veil
wa
vegen
mnd
##jere
aviser
sjokolade
forpli
anton
##dy
98
relatert
stipend
maltid
innslag
protein
budsjettet
avhenger
##lia
konsentrasjon
villa
##date
hjalp
selvstend
jesu
marine
serier
##organisasjonen
bivirkninger
##onering
sexle
lidenskap
kategorien
tilsier
sval
##dig
tingrett
handen
tax
utfordringen
motoren
##undersøkelsen
##anner
##fjellet
afrik
##uens
dokumentert
møbler
bygda
##banken
tilfredsstillende
treffer
debuterte
overflate
mosk
##bevis
oppdager
kriterier
fortid
etterkant
she
afghan
kaptein
heilt
##forvalt
holm
meldte
bow
linjer
##ots
ødelegge
nabol
##arter
temperaturen
erkj
generasjoner
##stjeneste
kameraet
øvelse
61
uøn
komiteen
prinsipper
1963
##itive
lønns
fysi
##avtalen
cra
forbruks
anerkjente
særskilt
##anlegget
smal
vera
tenaring
##leum
europeisk
argument
android
japanske
skilsm
mørket
heid
jøder
##bøl
sekret
drømme
terra
webcam
inni
hundrevis
##lovens
røyk
##25
dug
##box
hjerne
##etid
orgas
innledning
fokuserer
disku
kvadrat
likes
ost
istedenfor
manchester
##fugl
##ifer
negativt
krem
berømte
tekstil
##søkonom
kjekt
slette
betydelige
hyggelige
kvalitetssik
##iskap
##lic
gjengen
ken
muslimske
mobbing
beliggenhet
##deren
176
ferdige
konserter
##skritt
##apeut
radmannen
##fru
##eløp
informere
toll
##agene
##administ
utformet
tank
planene
kalte
arn
##istrikt
forfattere
pkt
oversatt
truet
petroleum
erfarne
jødiske
loj
elv
selvmord
artister
ssb
##zy
sjafør
asf
spillene
##skade
tag
steng
utredning
apenhet
legemidler
##ressur
##smøtet
##spolitikk
drama
firmaet
kontoret
skrives
bussen
76
have
interessen
hobby
##iar
##sprob
jonas
##forum
##con
dobbel
romerske
sau
runder
billetter
helseforetak
##sos
intet
datert
keeper
elsket
vri
mess
tildeling
genet
1956
timen
##armer
gjentatte
lykkelig
skjemaet
samleie
##sretten
ektem
katal
hverken
luften
##ktivitet
styreleder
etiske
##sbrev
argent
kjærester
avsnitt
dildo
motsatte
##enga
utøv
forutsetter
unnskyld
juridisk
##opt
nordre
landsbyen
swingers
##klare
uttrykket
journalister
##oline
personalet
##forslag
etterful
bekreft
house
barnevernet
##19
##ordet
emner
##sperioden
harmon
##fu
opera
omstend
liverpool
revolusjonen
godkjente
toget
utbytte
dødsf
##odt
spekter
sexleketøy
merkelig
pas
forvir
##ison
tele
utal
halden
skot
tidlige
utmerk
forskriften
nestleder
opplæringen
eksisterer
##ctic
hek
armen
ens
union
østerrike
##ulære
##eremon
gjeste
##zon
##amet
punktet
##orium
jørgen
ded
sammenlik
avansert
antagelig
##oller
##mail
##gjøres
fullføre
kru
bachelor
permanent
livs
banker
##13
aktiviteten
##illa
##lest
##komst
smith
##odden
##iret
##stilsynet
oppskriften
gjennomgatt
poster
##tting
billed
##ødre
arrangerer
##undersøkelser
nakenbilder
lagret
aktørene
levet
vitenskapelige
konserv
pers
bern
##saks
skuffet
ort
vannkraft
##punkter
skjult
størrelser
##høg
lade
avsk
snill
79
rang
##ou
episode
holdning
finst
assos
##pos
##uminium
drifts
mesteparten
vennene
wash
analyt
##arbeidere
##tekst
pavirkning
tenner
bevare
konsekvensene
trekkes
##ience
statlig
veterin
held
##jarar
forberede
##analyse
konferansen
160
foreles
brett
##rund
litter
turne
oli
tegneser
##idar
sørg
##tal
##øde
##anere
sammenhengen
forpliktelser
strenge
##ages
1962
takknem
##amper
##pert
anerkjent
domin
kirker
lofot
grill
bryr
##innlegg
budd
##ville
##sprogrammet
##smed
fyll
sliten
filmene
##iblant
dun
kunnskaper
stiftelsen
friluftsliv
arrestert
vinneren
skjeb
romanen
angitt
##programmet
behøver
##konstru
nytta
##frihet
##utviklingen
biblioteket
yngste
designer
hester
forebyggende
stemp
indian
arbeidsplass
fad
flyktning
søket
anbefalinger
##agas
vurderingen
##finans
problemstillinger
urin
sjette
elske
get
##holt
fremstar
street
kongsberg
evaluer
##idge
halvor
billigere
strømmen
manag
eksperiment
##brand
spist
##vnen
##skogen
bekymret
##load
inner
kontrollen
lister
##rine
originale
##ulasjon
lufthavn
spelte
##gjennom
uttalte
falske
tus
angeles
klø
pav
##betaling
##bibli
fargene
kristendom
skjøt
konfir
personene
kutt
##lend
kritiske
talent
fron
veiled
##bank
innsjø
baker
##løpende
##los
##regel
##ji
ledige
##dager
stev
adam
avgang
##inasjon
##spunkter
instrument
tang
muntlig
glatt
##ces
brede
scener
##funnet
nato
spek
refusjon
##splikt
svalbard
heldige
administrerende
grei
##formid
##egrens
dokumentere
ekstraordin
premie
gjøvik
statistisk
##kortet
omhandler
immun
nominert
jula
##sbruk
henvendelser
nordøst
##cing
##pleie
kirkens
##løk
##feil
katastro
manus
##klassen
partiene
##isi
##kkelt
vinden
##fting
##snes
kartet
##egjør
sjokk
ida
aluminium
chil
freder
works
makten
##jeld
høytt
word
frid
deriblant
avslutter
diagnost
vald
styremedlem
82
##smidler
overvak
96
##ado
##dato
##kysten
victoria
##orteføl
##givende
##sal
##hei
bodd
day
##brukere
##17
##dam
skjen
tomt
##rater
ving
##sch
##gjørelse
sjefen
nettbrett
møtested
arbeidstid
fremgar
86
##lager
turneringen
spredt
espen
betegnelsen
poenget
pepper
gust
##core
forsy
##splasser
##ican
revet
pleie
endelige
treningen
tlf
konstruksjon
arrangere
justis
legemiddel
##asi
##ima
oppkobling
##ahl
music
nevner
skjulte
##no
##egen
##lav
torg
ond
1946
lesbiske
##akten
helses
patri
kraftverk
valuta
yoga
##areal
lene
installasjon
filosofi
hunn
furu
##orger
verksted
forhandlinger
kontrakten
enden
hunde
cli
individuell
##urit
##hopp
forekommer
dører
veksten
flyplass
forsvare
arbeidsoppgaver
##rapporter
fortsett
teknikker
detaljert
innbygger
sjanger
plukket
nederst
##bolig
salget
operasjoner
telenor
jud
bestemmelsen
instrukt
riket
polar
lillestrøm
korrig
matchm
humør
tilsynet
##virksom
##issen
diabet
økonomien
rydde
handlingen
meldingen
##forskriften
##punktet
##sutvikling
standarder
rio
virkemidler
##ssent
tapet
strikk
estet
akseptere
##smet
nordover
sluppet
dahl
emne
blomst
kniv
trag
ms
1958
besøks
møttes
##oser
innrømme
krise
coach
kvalifisert
dagers
##oppgave
oppløsning
##rollen
misly
##spes
##øvere
##prøve
##bre
saksbehandling
##yper
undervisningen
ombord
mesterskapet
##alisering
##staden
inger
flom
##tta
fisken
bevegelser
respons
##eled
lure
##ralen
##elv
venninne
rose
##elles
1952
##ining
arbeidskraft
sjeldne
##funksjon
romantisk
mobiltelefon
84
femin
fortløpende
sterkeste
rat
soft
ordning
##kons
fotballspiller
overlever
antas
sykler
##otiske
1917
konflikter
flyr
videreutvikle
eus
overordnet
cub
##vinner
stedene
##ttere
nydelige
##føringer
garanti
##søkere
sir
herren
materiell
tariff
innvandring
spent
allierte
bisp
hekte
tjenest
lyden
politikken
fugl
##etta
avgjørelsen
1944
##shistor
##elte
verdiskap
testen
avslutning
##endt
##ous
innsyn
##medalje
##sforen
##utdan
##skrevet
##wh
turister
yrke
gratulerer
110
vietnam
##pset
forferd
1961
implem
nærhet
##cm
oppkalt
sengen
enighet
orke
kartlegge
ytr
##bul
overgangen
økningen
slipp
seriøst
søsken
dype
differ
##egang
##ship
##srad
hende
batt
forskningen
##strekk
intim
chic
##forf
faktiske
enorm
##preg
ønskelig
forskrifter
##esn
spissen
foretaket
##ologien
##14
territ
bedriftene
##spris
87
##sselskap
##gra
##anken
disipl
kortet
demokrati
omgivelsene
festet
##ravær
ryt
entus
stimulere
døm
skottland
bam
##vennlige
forbedret
uttalelse
plassere
samspill
nedlast
gjennomføringen
##sfag
look
harstad
ordinær
state
action
fremhe
dataene
oppbevaring
ernær
barcel
uttak
##tegn
##værelse
pameld
##smiljø
regnskaps
gjenspe
halvdel
##sammen
##avis
mestring
menneskelige
artig
profilen
gaten
gyldig
sannsynlighet
kanaler
##klo
snøen
trett
avslutte
sorg
smaker
beslutninger
vinduer
jæ
teller
iver
tilstanden
##gata
research
##sstud
skjønte
konseptet
##atoren
nyttige
1947
##problem
##low
vende
muslimer
hjerter
spekt
innbyggjarar
undervisnings
##sbrudd
innblikk
troen
tredjepart
veit
##grunnlag
##forbruk
varte
lyder
feire
utvidelse
minnes
##23
mage
tildel
bestilt
fuktighet
mesterskap
reagerer
shemale
louis
ille
##itten
potet
eva
ks
polske
##ordane
hann
##feranse
dommen
bestod
##kler
besto
lie
kollektiv
##litteratur
etikk
reflekt
diskusjoner
savnet
trenere
revidert
øyer
##sverk
##engden
antarkt
flytende
seinere
bladet
filip
kontrollutvalget
idet
1200
primær
fattigdom
venst
glas
sone
##reden
girl
juridiske
minoritet
sten
##gin
versjoner
punkter
white
##aw
nadd
flu
datamaskiner
##gri
økologisk
frakt
##fta
##riket
##alls
##oppdrag
opplegg
lyng
afghanistan
##ikkel
alternativet
##ssenteret
moskva
hosp
blogge
reddet
##begynn
utgjorde
vitamin
lenker
dusj
##riere
1939
##butikker
bene
passende
fisket
##klubben
##æringen
trent
filer
##firma
##sve
uavhengige
damene
life
fødselen
tape
ild
utleie
oppførsel
angi
nit
##rukket
oppskrifter
aas
dalen
laga
##rek
dyrene
fjordane
øyet
straffe
##innene
##ump
sug
konsern
##prosessen
karbon
mobiltelefoner
##foreld
observert
modne
knytte
oppsig
eik
stole
##prøver
forretningsm
##skr
##speriode
urett
timers
jag
##imet
tradisjonen
bredere
vestre
forfall
kanalen
##field
inntak
oppholdet
zealand
##bordet
nøyt
##skjel
kutte
##virke
##eist
utsted
span
##alle
##øtte
pøl
frekvens
innk
øystein
kriminalitet
##bad
##fravær
89
dekkes
##prin
##øster
##minner
vas
datoen
fyrste
innkalling
##ratt
##skapen
dramatisk
varia
ever
bevissthet
stranden
##ferie
faktor
domstol
vr
vinduet
lesing
93
##lywood
##omer
83
midlene
ub
washington
##gir
##veit
stiv
farlige
pedagogisk
unikt
krim
ht
skept
##egner
skjønt
helikop
heft
faktura
eksperter
satsing
forarsak
luksus
albert
lagde
anim
kompetansen
dyrt
perm
format
imøte
##lings
##øyet
hur
##pre
pizza
1942
royal
gh
gol
##bevegelsen
ns
oppgi
##ftes
kolleger
##esenter
lagres
vilt
1957
fangst
center
oversikten
ambisjoner
retningslinjene
lidelser
atmosfære
pur
linn
døds
##instituttet
fremmer
drepe
diesel
shop
##edom
apenbar
forstatt
##sutøver
rolf
markert
##ods
innsiden
illustrasjon
##rog
krets
##ox
##arige
##80
drakt
##elding
redaksjon
styrt
trang
psykiat
##sset
kombinere
opplyst
eirik
barcelona
traf
langtid
renner
fremmet
1936
klinisk
anledninger
##onder
arabiske
spa
doktorgrad
ikon
helsed
vene
##smenn
synet
bilene
lagmann
dyktig
##skvalitet
begravet
ordfør
julen
fylte
menyen
##besk
##haugen
politiets
eriksen
apper
abo
vitner
tex
myt
borett
bekymring
tiltaks
industrien
flertallet
løv
pun
beat
##ørselen
beskrives
matchmaking
##ikar
who
leiligheter
leketøy
ron
sele
attraktive
erstatte
ligner
koblet
opptrer
normale
tørke
kommersielle
tam
##rator
menings
##elaget
##ortert
magnet
##mennene
##imellom
##gavene
føres
miljøer
passasjerer
øyvind
uheldig
##vinn
##¸ˇ
konkurrerer
vie
oppsett
offens
erkl
1941
##egnes
gum
rykket
nina
##forfatter
registrerer
foten
tantra
##lu
report
løftet
avisa
presidenten
cast
##gruppene
diskuter
ferske
kid
ingrid
mini
overflaten
rekker
rasjon
kren
##bs
##play
##hagen
##leir
sørover
marian
grim
overordnede
ungarn
anbud
begrensninger
oppfattet
konsernet
smarte
knall
##aster
squ
kake
begeist
##haver
##pat
grave
register
##fiske
operasjonen
1959
##komite
##sprosess
##bandet
formannskap
174
##nar
charles
3000
##ax
##onia
ef
føde
ari
utveksling
spilleautomater
##ettene
##navnet
drivstoff
##usale
referat
cop
1949
##produksjonen
komplek
ferien
stang
filipp
fabrikk
isen
fc
pens
inkludere
##eløs
##endring
jfr
lokalsamfunn
bakover
utbed
metod
forelsk
begrunnelse
##ekort
kasino
emosjon
##insk
##ampen
kvitt
nynorsk
sinte
##klet
sjekker
halvar
oksy
##grø
utgjøre
uttalt
eies
referer
forandret
##skostnader
##vendt
forhandler
##ssyn
glipp
uni
##well
gil
kundeservice
voksende
##savgift
gjensidig
stykker
94
strekk
##sbet
##espill
typiske
##stemt
cer
inspirere
operativ
tilrettelagt
trak
etterfulgt
##slene
forpliktet
øyen
##saktiviteter
head
mask
##iserende
tydeligvis
ambul
investere
luther
adel
organer
fugler
tillitsvalgte
løft
lengste
nærliggende
oppsummering
montert
lages
synlige
sofaen
vidar
advent
analysere
##akes
pavist
##retter
bønder
høyres
prioritere
##undervisning
py
##seffe
innimellom
slott
krysset
##una
##sey
##itasjon
sigur
##ding
##estil
##helsetjenesten
##itor
sammensla
##farge
skredder
##festivalen
##ansere
##ument
night
##vannet
american
krevde
##ami
revisor
fristen
regulert
avkast
##atret
tegninger
##størr
##splassen
##sete
gravide
##ndal
formelt
innsamling
barber
##støt
sikkerheten
saud
##sykdom
edvard
##ettig
what
siktet
road
kaff
trykker
jean
strategier
greier
ansvarlige
godkjennes
130
daværende
grev
##advok
universitetssy
belgia
##fr
sviger
skjønne
##isje
kongens
kombinasjonen
##priser
inneholdt
##splaner
oppslag
leverte
kjøttet
hekt
haugen
spart
selvtillit
##skomiteen
celle
##lovak
vestlandet
stiler
##usk
samlingen
##vikt
award
##paret
hinder
endt
norrø
##gde
fingrene
##kart
##møn
##olin
##oke
komplisert
##kirke
##oten
organisere
##dokum
engasjerte
##sku
##fasen
##ulær
drepte
##22
byra
##bod
gjød
anser
##krigen
ce
mog
statsbudsjettet
miljøp
##opol
##enny
##revende
fylkesvei
diabetes
søppel
jom
overføres
herlige
##sting
karen
##por
bestemmelsene
lærerne
engasjere
##vald
levevis
israelske
opplærings
1918
heve
taus
butikkene
##sekretær
##oe
##kontoret
nif
dor
tv2
individer
##relser
market
strengt
ane
dol
stater
##lubb
marin
utroskap
kylling
skatter
nedlagt
budskap
##stisk
bista
##driv
##celler
kredittkort
odds
##slutning
verdensmester
##sjoner
matvarer
kard
distribu
##endringer
savner
river
europas
skilsmisse
elg
foretas
sykefravær
enormt
brenn
was
tynne
graviditet
medvirkning
lakse
koord
avdekket
varighet
##itim
politim
korru
jerusale
beskytter
desto
ektefelle
##sdagen
utdanningen
solo
lovet
eie
interesserte
fou
##verdier
diale
eieren
##sselskapet
##forsy
ulykker
imponert
hundene
##sesongen
attende
varmen
beij
fiber
dypere
parlament
##hall
stjør
virt
bydelen
meny
plager
##sutvalget
narvik
##atar
adop
##estad
vegger
mellomrom
omkom
##partementets
cel
kulturer
utsikten
overføre
asfalt
##flaten
fit
##gs
indiske
hitler
smarttelefoner
##hor
sannhet
opplysning
plukke
##maling
belys
bearbeid
oppdateringer
teen
return
71
##svitenskap
universiteter
sul
##stilte
samiske
##gate
##skipet
##filmen
utsli
##lyn
##kveld
uttrykke
hjelpemidler
høyst
greie
pier
jane
frode
fanger
##tektene
bevilg
##opptak
clo
vern
##mpe
##finalen
##høyde
##ifisert
bm
cur
take
prev
befolknings
forstand
##jan
natta
##nadene
innover
sas
##feksjoner
fjernes
ss
##omi
leon
sjeldent
langvarig
1954
##¸ˇ¸ˇ
##ioner
##cast
skift
innhente
forsink
grafikk
compan
##aktive
pant
kjøpet
forutsig
prosjektering
jubileum
asa
middels
redegjør
##reiser
steink
##stillatelse
finansielle
##anny
##ansje
refleksjon
bevart
lens
seriøse
nerv
plus
games
foresatte
sor
cle
redning
lod
##bygning
utlever
##litter
tvert
høytid
##opplevelse
inngrep
permisjon
tilfreds
bull
samtalen
##kse
bosted
klubbene
##yst
##skede
##aktivitet
##stasjoner
kvalifiserte
kvalifisering
kristiansund
verdifull
##avdelingen
pod
1955
download
##strakt
##smynd
inspe
sammenligning
heste
##formal
feiret
etterforsk
lomme
##faglige
forbrukere
restauranten
jav
kongelige
roger
forsøket
##plate
rense
skuespillere
tyskerne
##handlet
rud
kristiania
koke
##spartiet
svindel
140
endringen
bulgar
fornuftig
##ariske
kunsten
begj
klatre
##streme
ambassad
gps
middelalderen
kontrollert
put
digitalt
##yk
vekten
dukke
##behandler
ulikt
##engen
mjø
92
kommisjonen
##sprosesser
etterretning
plak
beskyttet
bh
##skur
funksjonalitet
##skir
kjetil
presenteres
smitte
##klæring
lem
asp
eierskap
aar
hop
##spillere
1943
1938
arts
anm
ulykken
tilrettelegge
##sprosjektet
##handtering
deling
strekningen
##sprodu
innvilget
datamaskinen
##grunnlaget
game
##ti
aktuell
klærne
virus
forarsaket
ped
fjær
fv
utkast
tunnel
pakket
oh
##befolkningen
kontakten
ombudet
##abler
smake
##interesser
rem
sparebank
173
kaster
blokker
varig
##arets
forandring
statsrad
tette
manu
comm
statsborger
planlagte
definere
hoff
varsler
cu
seriøs
##otisk
beijing
innan
dybde
antak
folker
rakk
kare
hindrer
##gner
knapp
bevegelsen
mørkt
overleve
menneskelig
fordelene
##ikanske
portugal
progn
wi
kjemiske
jim
##pon
filter
tyr
ishoc
tidene
nybegynn
brenner
lengden
stjørdal
##besøk
palegg
light
kjøres
plata
first
tilbudt
##status
nasjoner
gyl
hesten
amund
##festet
vikar
skulpt
##irekte
resulterte
bestill
truffet
##inket
rop
adm
south
investerings
##ografiske
institusjonen
##drende
young
individuelt
tod
besøket
kulturen
dna
1910
bekjent
stemmerett
bensin
pakistan
jordbruks
signert
henry
hanne
##edde
eidsvoll
##iliteter
bestiller
##ned
pagrepet
omtaler
arild
røtter
##jening
prix
tum
##win
strikket
1912
##skjerm
grunnskole
##ism
vennligst
palagt
jerusalem
aleks
bell
rettes
grus
luftfart
sigurd
workshop
kontaktet
levetid
maksimal
mette
østlandet
bj
##obe
blues
tis
##esi
wilhelm
seter
##vers
ic
##cupen
unødvendig
1953
varierende
##inering
politikerne
erke
##fokus
arbeidsplassen
##ifi
dokumentet
høydepunkt
##lis
radgivning
heb
##ellingen
##forsikring
beklager
ungdommene
ekstern
uttale
##sma
kris
severd
##stiller
kompleks
##asiteten
tydelige
##ny
num
forutsatt
##vidde
##fet
montering
kapp
univer
fenom
myke
fremmede
brukernavn
sykkelen
beskytt
videok
##gjenger
sverre
##treff
reparasjon
##sarbeidet
add
##forsker
dugnad
watch
asylsøkere
call
pron
trusler
##skurs
##virksomheten
foregikk
lise
vesentlige
stord
fagfolk
##ussen
angaende
fugle
introdusert
sammenlagt
sprøy
spredning
hug
brødrene
peke
##eiere
jevne
avvist
##medlem
konserten
##idene
skremmende
##deb
særdeles
1919
omfanget
fuck
innse
##real
##flo
##profil
##vete
prioritert
kampanje
hertug
støtten
glimt
##ivind
##stemning
siri
følelses
stikke
records
blandet
##fare
ligget
bryllu
##sgrens
bekjempe
dvd
diagnose
##ferien
our
##hs
forløp
oppi
##skriver
strategiske
konflikten
slitt
wood
elleve
um
omfatte
oppmerksomheten
##økt
fenomen
nordic
halsen
løfter
pave
legend
anmeldelser
##atikken
brat
##adress
middelalder
hollywood
kristoffer
indikerer
prester
sud
##lete
samferdsel
redig
informert
##bygda
variant
linken
##70
sprint
legitim
##holmen
##verker
fornybar
##yser
##savis
##ards
detaljerte
representere
hustru
##sburg
drømmen
##casino
nettverks
talmod
##ack
imper
##itch
baserer
indirekte
desper
##bbe
##lok
##aria
party
søm
late
gjenta
utstillinger
##ped
gardermoen
biter
plasseres
oksygen
##utningen
seksuelt
eiend
5000
utallige
##sbehandling
pressemelding
henter
saint
blodet
besta
##rikker
ot
langsiktige
##demokrat
snur
lofoten
##prosess
konsulent
nve
avgjørelser
sykle
leses
beach
##albumet
bif
varierte
reell
##sjø
##orno
diskutert
rod
partneren
sekretær
##hast
##annelse
##onnement
ankomst
##vurdering
takle
ringte
døra
varam
1928
##bruddet
##stan
utsettes
oppdaterte
konger
bringer
stj
konfirm
pasta
avdøde
slite
implement
##østen
##lista
##light
sporet
seminar
samvitt
mannlig
minnet
rede
##cont
kampanjen
town
##aku
az
##ee
nettsidene
##sykkel
akseptert
tast
fremskritt
mediene
##aps
prot
##dretter
kollektivt
arabisk
premium
andreplass
kropps
fokuset
venez
gun
farg
forval
##bere
hemmelige
malrettet
ivaretatt
flash
planet
kvinnelig
instrumenter
forskjellene
scott
kandidat
økes
bake
hoppet
konkurrere
arrangør
skit
##jeller
##olley
funksjonshemmede
##agraf
rase
francis
innlem
læreren
logo
##faget
##skal
nad
attraksjoner
trenge
kjole
##valgt
donald
##skjær
oppsto
##strategi
age
tverrfaglig
##forholdet
medarbeider
##hot
fortrinn
løpere
agenda
brevet
##klaring
kyrkje
oppgradering
##vit
signaler
livssyn
utforsk
avgifter
vev
cec
infeksjon
##billetter
##klasse
rasmus
##amling
marius
##enen
##styrke
##renes
pene
regionalt
##statt
##ledere
##pol
##kode
country
##savtalen
##rukturer
telt
minus
##ology
standarden
seksualitet
brennende
broren
holmen
##sha
##stab
subst
asiatisk
liknende
##ologen
##tor
svi
telefoner
gjennomga
betalings
##esh
angiv
skjev
oppm
viktigheten
##sja
funksjonene
##ropp
##krets
varsling
##hyd
blue
emnet
##bygningen
uform
lufta
foreslas
venstres
overtid
johnsen
reflekter
proje
##act
vester
##uli
skala
forhandlingene
studiene
##mekan
stafett
innvendig
skjære
##ror
etisk
arkt
##sklubb
##90
kreativitet
teorien
fans
reelle
presenterte
##aman
hæ
innby
eksklusive
julet
brenne
dynast
350
##skifte
##oster
techn
inspirerende
tau
##æk
##egarden
eiendomsm
##cket
forsvars
ypper
linjen
utsette
trussel
senga
eksempl
##avdeling
##lid
vaknet
non
news
arrangerte
rengjør
marianne
rekkefølge
ethvert
dominerende
laser
sminke
øvelsen
postadresse
forebygging
##spekt
md
kjemper
folketryg
##eds
kabel
touch
##brød
lurte
##ndene
##akerne
disposisjon
##zo
brygg
effektivitet
potensial
##ures
##regist
##ason
renhold
##kontakt
komfortabel
1905
nekter
phot
møtene
jødene
sparer
kontaktannonse
observasjon
verktøyet
cit
arbeidsled
dørene
melke
##fred
hilde
avslag
1924
sjekking
olympisk
##fy
hevde
##dder
##marka
mandat
##oul
1914
dec
ipad
drikker
##inte
reform
flaske
bøy
laborator
angrer
muskler
ledig
fur
##sektoren
satel
karrieren
aggress
deira
pagaende
##sfun
semester
synge
dress
nettbutikken
fundament
##ero
orgasme
anerkjennelse
##sion
##lon
##ence
##ular
hval
elverum
##ammen
reisende
betingelser
ober
diskusjonen
##edt
tennene
ike
nho
dok
utkikk
##kset
class
##uste
miljøvennlig
forlatt
væske
statistikken
ash
grensene
oppnar
ungdomsskole
##sbasert
invitere
betalte
ruten
##vision
##ementer
aktør
##bygde
skisk
apoteket
ox
fair
tilbringe
vanleg
maksimalt
valerenga
ullev
mt
fjernsyn
sitater
intervjuer
iron
tenaringer
rub
obligatorisk
bestatt
mw
kloster
stemningen
miljøvern
inten
dedik
byggingen
wer
opphør
belastning
##riksen
kontant
oppstod
starta
biologisk
logge
##cs
gebyr
##æs
fylkeskommunen
##ungen
finsk
dødsfall
tilsett
##sidig
##født
veggene
##ktivet
##dren
overta
##øysund
1933
##oma
framfor
##fle
sjansene
musikere
elevenes
##umper
svel
##hengere
1951
irrit
madrid
pastand
gatene
##ynet
##feld
vs
stilen
##kas
##ulator
##kkelige
rapportert
##kamer
##bedrift
##tred
styrkene
religiøs
trivsel
##fugler
knud
fylles
produseres
steiner
##ов
offiser
kommentere
##pri
##verv
##iets
konferanse
hormon
##utslipp
øve
observasjoner
snapchat
management
##ssystemer
glid
terrenget
overn
minister
herfra
overtatt
bd
rocke
resepsjon
##fla
##mate
demokratiske
skr
hyper
programleder
##gro
nyt
tju
rommene
arve
uføre
vidare
malsett
armer
##akken
##ipe
føder
posisjoner
lunge
##smannen
##etet
prestasjon
##muligheter
skarp
kjern
separat
lor
organisasjonene
pst
utenriksminister
dokumentar
##visninger
hytter
dratt
##gjen
bring
mattilsynet
etterspørsel
forandre
fortellinger
oversettelse
stabilitet
bryster
rosenborg
kompens
##kjøl
avsluttes
ign
##tenberg
sans
##rup
kanon
fremtidig
egil
##fylt
fleksibilitet
cand
onde
bebygg
office
varene
forlagets
ishockey
##sr
bik
para
rammen
biologiske
flatt
skra
kjønnslepper
utenlandsk
nan
spreng
##isasjon
##emal
fm
enslige
kristiansen
filen
travel
osm
fysikk
magasinet
plat
innsjøen
deltagere
prosedyrer
førstekl
##ikre
##jente
##ands
##radets
skjule
simon
innstillinger
kvant
gjennomgaende
storby
rana
føttene
##lanter
##ema
##forvaltning
isolasjon
##jeg
opptre
jæv
fineste
justere
oppfattes
##fas
ressursene
testing
referanser
##maler
##opphold
kontoen
##iket
lenke
spelt
hjørnet
##renning
gjennomsnittet
tig
##ammer
##assene
##sdalen
##vang
escorts
##sutstyr
larvene
fjellene
utførelse
##000
arsakene
sammendrag
mektig
dur
camil
medlems
yte
politidistrikt
timene
##ights
ivrig
##løy
husdyr
lastebil
stortingets
mannskap
##onere
kulturminner
universell
stemte
sports
anledningen
##øvelse
sønner
treet
radik
##politikken
vogn
eierne
##olige
##jønn
innlever
##cil
særleg
##nettet
##anerne
ax
##nivaet
##itære
takker
beholdt
sikring
latt
forespørsel
hvertfall
cecil
##visningen
##ordninger
bytt
mcc
taushet
##vises
##berget
omstilling
##vingene
nyskap
##hyl
##fors
##terende
kjemikal
rast
##espiller
##ooth
##ckey
staden
singelen
ludvig
cann
tillat
pressen
##iendom
oppsø
beholder
##nas
tekstene
##km
sad
ravarer
##malet
bond
astron
telle
water
opererer
begreper
globalt
offsh
kriminal
helsedirektoratet
stoltenberg
søndre
##ikat
kyrkja
integrering
##kne
##været
boksen
miss
lady
##ummen
even
foreslo
hjulpet
tegning
stikker
geografisk
megler
fattet
innovative
straffes
##feransen
tort
##sling
komponenter
##klin
##øpe
frykter
##interv
forumet
omtales
omega
lake
##skrigen
merc
##kna
nettleseren
rettighet
orient
##skultur
##sons
penn
utgiftene
skilte
##annonser
svend
kristine
kriminelle
grønland
somal
universitetssykehus
cost
##book
nyhetsbrev
##kron
palitelig
##finn
manglet
commun
regissør
##prest
##festival
##edato
tøft
##sutøvere
løses
fik
fres
sommar
menigheten
uavhengighet
##olk
yd
pom
adressen
malte
gata
ink
##vog
tilhørighet
medhold
spot
vels
##vurder
kai
snarere
obs
1937
gater
forbindelser
##ript
knytter
hp
særlige
##bøkene
##uf
kjøl
##unge
dnb
##ologer
lunde
biller
reder
fjorarets
ihvert
finske
helgeland
bakterier
syr
overd
##budsjett
##cht
score
hiv
nøtter
zo
##ario
bekken
voldtekt
fester
eksemplarer
##likasjoner
tilfredsstille
moderat
ig
basket
abort
##erto
tyngre
prinsipp
alexand
otto
grove
##arig
about
doser
sammenhengende
brannen
trodd
##avtaler
internet
##sspørsmal
pt
komplekse
tørket
##sjetter
følelsene
vesten
##museum
##zer
repet
operatør
hjørne
##lærer
jess
##sordningen
utførte
tilpasses
fascinerende
tilsku
visning
##blom
##pros
##vatnet
##planer
ihvertfall
forsøks
utsiden
kanten
##steknologi
##møter
##ssøk
svarene
anta
smitt
##iltak
erling
toalett
vara
##uset
livets
rally
porsgrunn
##liten
blatt
##salg
gunstig
stas
cv
tilnærmet
kobber
168
##sesse
menneskerettigheter
kub
##leggingen
##orier
##spensjon
##idet
##vendige
ih
utsp
##rekke
detaljene
gustav
##ista
budskapet
##vogn
##edager
##erten
plater
folks
prate
wien
colom
company
lee
kostet
##mott
sykt
jomfru
fysioter
##mad
##atib
##rover
##sordning
bjar
ekstreme
konkurransedy
##staver
oppfatter
overvaking
ey
##vedtak
##out
etableres
elektris
avhengige
turnering
forvand
puste
spesialisert
betales
oppfat
##adiske
samlivsbrudd
salen
inndeling
figurer
pels
bekrefte
villige
avsløre
sverd
opposisjon
avdekke
helsen
antib
##manning
østre
anvendelse
forbehold
##geren
leverandøren
utfordre
eiendommer
cruise
bomull
disc
konkurs
unngar
passerer
oppfordret
dil
##ated
forestillingen
##strene
overraskelse
dap
fabrikken
børs
farten
kf
installere
##lett
bert
ingredienser
##ikasjonen
sjal
bundet
ytrings
inntektene
kjøret
##skift
fjerning
##ios
lyktes
males
1913
modellene
##site
beregning
##systemer
##viste
##esøk
##alere
prestasjoner
##dis
##oversikt
166
lederne
ross
##armen
opphavsrett
nasjonalpark
objekter
##møre
summer
arsen
dry
uriktige
nøkkelen
utslag
ordnet
sammensatt
aa
##søy
oppsikt
spøk
nyter
olavs
protok
##byggingen
term
##bun
##rapporten
##nering
##ople
period
1935
reflektere
pakken
##skad
lider
ungar
christiania
##jelp
batteri
ultral
realisere
dømme
symptomene
##akene
eksperim
sjømat
ork
malinger
sara
mineral
##srom
##veggen
elimin
stian
science
##utdanningen
wild
aksepterer
tilhørte
die
iso
drøyt
##skilde
##inae
oppkjøp
aktivitetene
skjold
tilhenger
veterinær
##meldingen
regioner
elect
##ivere
##itime
ubet
##stinget
way
##saken
evolusjon
spring
resterende
##øydde
konged
##ansatte
diskriminering
##75
tryggere
reduserte
celler
merverdi
sovjetiske
##vol
saft
toler
##cle
tat
##instrum
inviterte
løypa
bisped
risikov
hul
skandinavia
hog
slottet
81
##sløsninger
bin
##handlinger
sete
familiem
publisering
joseph
##medisin
hybr
kopp
figuren
##arv
##bir
regning
##æra
##elege
sot
ydmy
stoler
##ient
ofre
musikalske
ubehag
##faren
1934
##sskjema
lokalisert
lastet
helene
1908
restri
forsvarets
1929
page
massevis
hare
kjennetegn
leken
1932
farget
posted
##periode
førsteklasses
heis
##kjøtt
næringen
##rogen
##setningene
##amfunn
hod
sfo
##eta
verdiene
notat
minutters
##oget
frat
rettighetene
krysser
sjarmer
utlø
fjerner
##rakte
forandringer
uttalelser
tørt
transp
erna
balt
midtøsten
grunnskolen
kontrast
##alam
haw
fellesskapet
##skort
avhengighet
fins
avhør
##fondet
##skan
maraton
kompetans
anker
##pub
kaker
sakk
formula
gjengjeld
spir
flukt
1814
##adisk
##skilte
dyrere
lier
tabl
##sette
byggher
formiddag
##slar
menes
angir
mistanke
tersk
inngangen
##reres
xx
##forholdene
variasjoner
produserte
samord
##sapp
hals
halve
sf
##arena
oppstatt
forvaltningen
##artikler
leif
spesifikt
innl
hemmelighet
midlertid
verdig
stan
hovedperson
landbruket
##skinn
markeder
rednings
sørlandet
avstanden
soph
avh
stige
##osisjonen
handlingsplan
athen
##repet
##dage
stabilt
##nø
involverte
formelle
bokmal
##design
cell
texas
forferdelig
føringer
ubehagelig
navnene
mestre
premiere
frigjøre
mva
##present
##foreldre
pikk
##ransjen
vers
e6
##gane
juryen
##tene
snor
kaos
point
ideelle
tjue
servere
frigjør
##assasje
eksam
tarn
overbevist
samvittighet
##ressurser
##36
bbw
kronisk
høyder
##etaten
brystet
short
mottaker
##protokoll
skreddersy
informasjons
key
##ki
##ferdig
justin
##500
korrupsjon
venne
chris
##beting
markere
solide
knyttes
##forbruket
observer
lukt
syndrom
##stopp
##stilles
flørte
krone
sentralbyra
borgere
egenkapital
##adem
domstolen
mete
##iansk
##eli
eneb
##skriter
virgin
mary
##syke
novelle
generalsekretær
kryp
kompatib
##forsvaret
flytting
fornær
##direktør
leks
alminnelig
tine
##ærne
##store
intelle
tilhengere
kosty
steget
rekna
##ssprak
stiger
skytter
gabri
##liktig
vennlige
##formet
pred
##akeren
embet
bbc
fraktet
1921
kongsv
##ender
##artet
døydde
krydder
østlige
cross
ambisjon
millimeter
pakker
eas
##bakgrunn
fortvil
##ronten
topper
steinar
1890
##redet
idretts
##krit
kjapt
hodep
##venner
musik
1922
santa
##ues
kjemi
##komme
##mingen
sjang
bnr
##orf
levanger
nederlandske
atlant
forestillinger
##nek
main
ellen
slet
brygge
fremdrift
##savdelingen
hyppig
##forsøk
narkotika
fagmiljø
##opro
røros
##slø
cover
##linje
innledende
kunstig
uthold
bly
host
trer
elektrisitet
169
##sfjorden
125
kogn
##ads
##oksid
sannsynligheten
##varme
##sbed
##assering
kroppens
uio
165
bransjer
lux
falsk
forkynn
verv
realistisk
rap
saga
parallelt
robin
ørret
brent
ventilasjon
pornofilmer
grensa
spont
egenskapene
regnskapet
jacobsen
forblir
oppnadde
##vey
traden
##retten
magne
leiet
manip
##minne
hvitløk
krang
skry
##dommen
strekke
attraktiv
summen
kav
##ktorat
kles
lekk
gid
##vokst
radhus
##ssaker
tredjeplass
fortelling
virkemiddel
hovedk
wall
kopier
forelskelse
##smo
cons
##varende
lidelse
konklusjonen
arme
saret
##revne
sida
##organisasjonene
uklart
bestilte
runden
fremtidens
kaja
gripe
skreiv
##ieren
lovens
svekket
##sfull
did
produsenten
datoer
##atia
artik
lanserte
koden
bard
institusjonene
##icy
##sber
trop
vgs
##attra
finansiert
forsiden
##estaende
##jort
teoretisk
piano
forklart
vedtekter
seremon
theres
##stedene
email
apost
##elønn
coug
##ikket
klimag
romania
##mg
1911
pagar
##radte
##ytta
berørte
##taler
found
utnyttelse
arbeidsgivere
løsningene
bust
bing
katter
##egne
verdipapir
smaken
risikerer
afp
##gori
##roller
##øve
ledes
svikt
##dist
inngikk
kirkes
gjeve
ml
color
##øper
tilfellene
republikken
ya
teknologiske
##gne
##gens
hauge
aksjonen
indisk
blan
medaljer
episoder
ere
etableringen
diagnosen
must
trekant
##bygger
##folket
temaene
##see
bekreftelse
91
spenn
eleg
1916
skulder
formidler
aksjesel
oppdateres
##væ
bidragsy
##obje
kontorer
nomin
mona
forbedringer
milliard
##ingeniør
lytter
hallo
##hai
##jakt
##ury
##rie
##lima
kvalitets
veiene
militært
energien
cath
##cken
viktigst
mødre
##isitet
sound
stue
forklarte
beregne
nyheten
1927
##elys
innlandet
nyhets
##svik
##bryt
bekymringer
##elærer
charlo
fryktelig
1925
isolert
database
##iop
##sporet
fylker
##altern
oppuss
##yder
stjel
chicago
##apet
fukt
portrett
tennis
##usive
elve
bakk
deltid
binde
innsp
meningen
rhf
atlanter
anse
##pres
##stua
naboer
anbefalte
semifinalen
##entrep
##fallende
##fotball
##sbil
foregaende
##aktige
brown
installasjoner
utviklingshem
utveks
##col
amt
nysgjerrig
##funksjoner
nation
##ents
##yttere
ungdommen
essens
impul
fuktig
##ross
kontrover
##pakke
trønder
antakelig
etnisk
ekspedisjon
sesonger
##skiftet
armene
##beskrivelse
164
##verdien
ulv
##snivaet
##kerne
##ftt
offshore
posisjonen
scand
nike
tron
vurderte
##olleyball
##partner
usikre
hardanger
oppa
vendte
heidi
avslørt
##utgifter
manif
soverom
##visende
oppgjøret
utland
##iører
stykket
margin
##rakter
week
kampanjer
mort
silje
fullførte
flekker
skaffet
baksiden
ligaen
harete
linker
datingt
##figur
korresp
sarbare
offisiell
munch
##sjub
##kson
personale
##atnet
trine
sint
publiserte
##retninger
##ulin
nab
##smak
forlater
kursen
skule
ryddet
gigant
lant
sorte
tante
colum
berge
studenten
ettermiddagen
people
##kirken
apningstider
eiendeler
medik
svangerskap
abonnement
geografiske
tobakk
##stri
bruksom
dumt
care
##ume
pla
##strekning
fokusert
1923
hart
realiteten
utsatte
overst
meister
installer
sintef
innvirkning
deltagelse
levd
glemmer
beund
champion
utfl
brig
kongsvinger
allerg
##sformer
body
his
now
spi
potensielt
ritu
renter
##aming
##sbolig
##iew
##botn
##forskjell
##skene
##skor
samfunnsøkonom
blande
alternativt
sinne
sunne
##work
utbyggingen
flyttes
hero
mum
##hur
##pps
prins
klippe
tidenes
##blikk
stevne
avkastning
trenden
flyktet
##fordeling
skriftlige
utskrift
titler
##handelen
oppmøte
argentina
##etninger
abra
astrid
utbetaling
##etisk
##rygg
enkeltpersoner
##fylte
stasjoner
tidvis
kated
got
tilpasning
beboere
hent
fordelen
lilles
innledet
stua
smale
##linjen
plattformen
utvil
merknader
lønner
voss
elbil
bena
##not
##umer
##registeret
retninger
innebære
undertegnede
følgelig
uf
##kandid
forsinket
##kastet
tes
mynt
##wan
##hm
win
##nest
insekter
fon
høyskole
motstander
avgjøres
legevakt
rettferdighet
grunnloven
##jenestene
hensynet
prostitu
##gel
stemmene
fell
grovt
##istens
see
bent
dama
eb
gavekort
opplegget
arbeidere
cupen
hk
respektive
pynt
##prem
##funksjonen
##egrupper
kjernen
flinkere
myn
blader
anbefaling
1931
here
##coin
eksplosjon
##strateg
##forstaelse
visstnok
belysning
tilbrakte
hjemmesiden
drapet
blokk
##sstat
camilla
arsregn
jammen
utgaver
##valgte
##sakene
##smuligheter
##veri
gods
auto
tettere
##giene
protester
##engder
forega
simp
##isont
inkluderende
pettersen
atmosfæren
stortingsrepresent
medførte
regjerings
elegant
##avet
svakt
oppmunt
##stegn
fastsettes
##feranser
grunder
redskap
##snavn
modul
##kunnskap
svind
kammer
vorte
dømes
malsetting
spore
ivaretar
livskvalitet
vap
formet
taper
ovennevnte
seni
triks
ørken
##ommer
##astning
oslos
vender
styrte
leiren
##lish
grimstad
##verdenen
##fon
##ory
##say
innst
tipping
pabeg
dirig
gevinst
##ock
erg
##bruken
nobel
karakterer
sextreff
##ift
romersk
korleis
kall
trøtt
kuk
##utfordr
føtter
##ligste
tildeles
foretar
##edie
hjort
heder
temmelig
kunstnerisk
mach
##kamper
ikea
progress
datat
patt
##raten
enestaende
##apro
opprykk
mellomtiden
sykling
romantiske
dagsorden
overl
utle
fasiliteter
##vilt
##akelse
next
overkant
##slok
##eliste
innlo
##otum
1926
kliniske
tjenestem
##oro
##drene
berit
rikt
synspunkter
elementene
sr
intellekt
tilsendt
konsult
##serie
##relaterte
redigere
hendelse
assoc
matlag
kopiere
mp
contin
##iender
realitet
flybilletter
innstilt
myster
enkleste
samband
slettet
gjennombrudd
##can
avsla
patent
fargerike
##rolle
vedlagt
gror
##museet
##forslaget
dramatiske
eksistens
##ruter
markerte
mental
bn
kilden
symboler
##umen
##blast
##styrets
forbruket
sjarmerende
utfordrer
parlamentet
##kat
nade
visa
utnyttet
inneh
storeb
musiker
støt
rare
høne
stien
funksjonsevne
nettavisen
grunnlov
##skompetanse
mong
tolkning
1100
##cts
imellom
impro
øvelsene
bygningene
chi
##egruppen
stanse
1907
objekt
ringen
buddh
løser
bondage
klinikk
jr
anat
##sli
social
midlertidige
oljen
rykte
edward
undersøker
##spraksis
overhodet
autonom
great
steph
##ikant
demonstrasjon
##esign
blød
##pton
breiv
bdsm
1400
overnattings
##ansvaret
##tz
registreres
etterspørselen
##arrang
##maskiner
##strø
kjennes
##marked
meters
oppfølger
##pende
omfattes
pist
##institutt
##pad
sakkynd
sprer
velkjente
jor
definerer
popularitet
skinner
gjerd
##holdere
1880
aspekter
oppfinn
guvern
fau
##rust
koser
oppfører
aksjene
veld
skyt
##sutvalg
virksomhetens
etniske
doping
anlagt
bug
##skons
dekkvingene
women
ove
fager
idretten
law
##39
##inker
keram
##rethe
##pedagog
##unnelen
fleksibel
afrikanske
##alens
nk
festning
##kil
garasje
meet
##sproblemer
##aas
antarktis
##sake
how
tiltrekke
##stig
foresla
israels
utøve
regelen
brosj
hypo
1915
analysen
medium
##ssituasjon
1904
##opplysninger
##andelen
tilstander
komponist
synger
##apning
##agne
rive
avgjort
universitets
1906
innrømmer
sittet
porteføl
gunder
skjell
søkemotor
bryn
##gaste
##sklasse
bestillinger
hauk
beslag
##ssyk
bankene
rikelig
##rute
france
vitam
aldre
studert
senke
formel
temperaturer
fli
rammene
beregninger
##oman
##setter
ingeb
##sprin
soc
litau
elend
overvekt
opplag
normer
landsmøtet
##jeden
middelsst
bøndene
beregnes
fortellingen
styrken
tet
maneders
sea
tha
musikalsk
fortjent
familiens
baserte
mj
smykker
rug
##oide
##reft
tenarings
##kjørt
norgesmester
##studio
##edagen
##sutgifter
spark
##leverandører
nettcasino
tyrkiske
stere
fantasier
servering
##stiske
topps
tull
greide
samvær
tastatur
##ey
psykologi
forfatterne
redegj
funnene
graden
orientert
hospital
fis
##pter
ultim
æren
melodi
jordbruk
valent
paradise
fordøy
høgskole
lokall
babyen
mannskapet
cart
##iges
subje
applikasjoner
halvorsen
1300
##sveien
mall
##pping
##foto
tolke
##bian
glam
ulykke
flørting
oppføring
cafe
glim
##ruten
forbrukslan
enke
utslippene
##osh
suver
krysse
umiddelbar
fornøy
spenningen
angar
doc
asb
##ktøren
jordan
finansiere
tommy
chelse
campus
diameter
fk
##video
malgruppen
komprom
##sikker
massiv
##dan
kroatia
##sat
##agte
emb
kod
##anker
sofie
blikket
vulkan
##synlig
lokalene
wales
underlag
problemstilling
henn
utvilsomt
##deg
##seks
##øring
evaku
ordinært
##leverandør
forbrukerne
oppsøke
flytta
sangene
glemte
veder
løren
corn
gult
##yret
gjenopprette
radmannens
selvstendige
##hou
##konkurransen
kompensasjon
garde
soldatene
rekruttere
medalje
##sforskning
pir
##sikter
##inor
##ulerte
arsverk
utpe
kriteriene
idrettslaget
bokstaver
kritikken
##ianske
spektak
styremøte
liban
##atering
gris
##nik
##vev
hopper
sogne
abraham
##kraftverk
berørt
utgivelsen
spiss
foot
##skveld
festen
løping
##journal
##iana
kontinent
stadium
skapes
saksbehandler
kjempeg
##itert
kass
seb
utbetalt
##sykdommer
avholdes
##bater
tomme
mala
sammenlign
pedagogiske
synliggjøre
##udde
##skommun
studiepoeng
##vering
fylkene
oppnas
valp
linda
sertifisert
fiender
bystyret
møtedato
##effe
hevet
konservative
##direktoratet
litterære
attraktivt
##veig
##stu
##bekk
tannlege
##egruppe
rv
frogner
##skere
##sform
bevegelses
komfortabelt
stemmen
klitor
##veiene
gjenværende
zaland
##løsninger
jones
dater
pronotum
autent
uskyld
teorier
##lovakia
robust
##opher
laur
sis
##alth
silke
tilbak
trender
##merter
##sfond
klient
rekkevidde
erfaringene
avhandling
ji
pp
##turer
##row
##kamera
access
##politiske
##elov
kondom
søy
kundens
sammensetning
verda
bredden
hydrogen
idi
ruller
verb
coll
##urne
publisere
dritt
direktoratet
obama
samfunnets
rapportere
room
videreutdanning
urban
antibi
svakere
tilstedeværelse
##serne
nyhetene
tenkelige
ling
dyret
plagg
gevinster
conne
##via
##fore
hjemmebane
skadd
##ude
##spot
galleri
unger
##oy
nielsen
nsb
##plant
etappe
mektige
tyngde
investorer
karbo
bygningsm
profesjonelt
bedriftens
reagere
minimal
##plater
omtalte
organiserte
##situ
##andres
final
polsk
spon
##hd
##agelse
##urene
munchen
##fat
leserne
identifisert
wester
tilbudene
360
##bai
steinkjer
rapporterer
barnes
plo
forbudet
blodtrykk
ambisi
omstendigheter
alpin
utvendig
##ен
diktet
veiv
differens
vinkel
krok
forventningene
inder
##arisk
jernbanen
services
telefonnummer
kommisjon
##studier
kombinerer
ernæring
##uke
##ialer
##sforening
invitasjon
trivelig
absor
##selskapene
skif
usikkert
##selva
gjere
##bom
##radisjon
tredjed
isk
##sfrist
forsterket
##cal
##farlig
hammerfest
trase
##fronten
##garde
tell
pynte
mattet
spas
anvendes
smiler
british
stjernen
valdres
ios
##entre
##onny
frost
##kop
##afor
affære
##komne
utøverne
##lønn
ng
##oslav
regimet
generalforsamling
##ssikkerhet
ragnhild
##ølen
rengjøre
##størrelse
eivind
case
møteplasser
nude
infeksjoner
##vender
pase
avslører
##heimen
##ariatet
verdifulle
skapet
hendelsene
##rent
##arten
zalando
clar
fødd
##ivenhet
demokratisk
mønsteret
##urch
alternativene
spinn
relaterte
etiop
knull
fikse
##osa
anslag
##skolene
orkester
utm
ignor
hater
##pul
kvaliteter
##orientert
valut
##dø
prostitusjon
severdigheter
spin
signif
##ivende
forurensning
##verne
byrja
samarbeidspartner
##radgiver
##teren
paulus
rader
edd
opprettelsen
betraktelig
search
ending
horten
##meister
skran
##savtaler
helseforetakene
##levelse
sprang
overveld
pileg
skjebne
##atta
bog
utfordret
##stykket
##idert
##ando
pend
##trekk
##allene
steve
pund
oppbevares
kvele
valgene
programvaren
geografi
vasker
kvikk
budsjetter
svangerskapet
forhandlere
##esse
##ags
innlagt
1909
hakk
retts
amster
adferd
kontrakter
enhetene
verker
arealet
flaten
pose
optimalt
##slo
##ello
oppsigelse
læringsm
##iation
##anes
leseren
oljer
gor
utgrav
avviklet
oppførte
kjende
trim
begatt
veteran
##rettede
##boy
vandre
##forbud
bombe
##ст
alarm
##mpet
##ssekretær
feilen
historiene
pic
east
##frid
##35
##elli
oppford
##økonomi
mønstre
tilber
##attest
fondet
##ordfører
m2
##ærene
tilpass
##skikk
bonuser
##ido
##esult
##sbok
navigasjon
##umet
ordne
herr
##sdirektør
rt
bokstavelig
##sover
etasjer
user
postboks
skoene
amsterdam
##listene
glans
##ito
##ifra
stranda
##ters
##landing
teppe
husene
avslapp
##spesif
vedtar
legene
##ategor
helsing
tunnelen
esti
proff
presisjon
hege
entusia
internkontroll
bernt
forarsake
planlegges
##forstyr
kongre
spy
margar
kvalitetssikring
##byraet
##lelse
##arl
magasin
##ovo
snow
most
little
abc
begrunnet
kapell
tjent
##endene
##energi
erklærte
##agnet
kommunist
feri
arch
spesifikk
innførte
kortene
borettslag
hallen
##ires
klikker
##sde
##kul
lagets
bestemor
##sbudsjett
feber
pussy
befant
bese
integrasjon
josef
##oppgaven
presentasjonen
##kalling
##imeter
tidsskriftet
retro
##fø
##uc
deltagerne
mild
ov
arkitekter
tjenestet
varmere
pinne
nokon
##kland
dannes
jug
##biskop
hager
##senteret
##ested
kirurg
helser
digitalisering
merverdiavgift
utsagn
utarbeides
##ografisk
folkes
##sfest
uendelig
henning
herrer
##spersoner
finansk
ridder
napole
ødelegger
etterforskning
kraften
understreke
hverandres
krog
prinsippene
chelsea
##ku
liberal
prog
brune
pensjonist
redaksjonen
tilfeldige
dommere
nedlasting
leid
grunnla
funker
overens
##zi
kompis
utsend
##vedt
argumenter
vell
##runde
huse
ytterste
punktene
##reserv
##forsyning
viken
1902
verif
bt
byrak
##meldt
avsatt
retor
prinsesse
sykepleiere
##sløse
ray
##arkite
skadelig
kollegaer
##grav
abon
torbjørn
skifter
trøst
assistent
supert
stanset
utest
presten
syvende
dommeren
barnehagene
moe
nøy
alfred
amazon
kasser
html
tilsatt
utformingen
##tema
universet
##opplevelsen
forholder
framtiden
##hetene
##sonen
friend
takknemlig
ingeborg
##onto
##sforvalt
slakt
##aus
marx
regissert
helle
##ariat
manuelt
liga
strategien
helikopter
bemanning
julie
forne
lukke
omvendt
bratte
brønnøysund
søkeren
##styrt
øyeblikkelig
##viet
poteter
forsvinne
##spraklige
beskrev
dose
eurovision
kunnet
##tredende
henvisning
jury
habil
kjønnsleppene
##ween
hip
tenkning
##fornøyd
##olene
drøfte
##vandring
##uper
##mh
varsle
hovedmal
underliggende
vegas
forstaelsen
passiv
skaden
##hastighet
##28
smøre
##elsess
##lates
bredband
dyrket
##rada
pastander
kristi
arkiver
uønsket
##semb
medi
antrekk
onkel
blow
##fan
##bassen
fradrag
##kong
speider
mene
angripe
##asj
menneskerettighet
pip
bekost
hook
##sregler
florida
arealer
1870
##ballasje
##feller
utgivelser
bølge
work
formell
##kjær
fut
##lagg
generalforsamlingen
##eleir
frivillighet
##gass
##oppgjøret
##aki
##splikten
uventet
tilsammen
##regler
##stemte
##point
##sprø
framleis
latene
inngaende
uforplikt
overvake
menneskets
episoden
motivasjonen
balansen
slanke
arbeiderparti
trakassering
ukrainske
verst
##sski
##svil
rytter
bmw
vedta
fordyp
##biter
ideal
##rah
sha
shar
##straff
karin
barri
sammenslaing
piller
bølger
##ittene
##gren
eric
dikter
##endet
##materiale
##esc
box
pavirkes
angivelig
konsentrere
smatt
zoo
kjæ
##lat
##settes
undersøkelsene
ytterst
mangelen
vakreste
##uble
emma
eksponering
##øyen
##menes
##ganger
oransje
stortingsm
blank
forestilling
iverksette
nicol
tarnet
grande
##cha
molek
uttaler
karbohyd
##tilbud
implementering
tilfredshet
kunstneriske
##egrunn
skrekk
##neren
##forb
fortel
volvo
teknikken
##bror
nepal
nj
##spark
istedet
##vass
##hull
klitoris
##leger
helsetil
cuba
ødelegg
skeptisk
prepar
lojalitet
##næringen
støre
nordsjøen
arbeidsmarkedet
aqu
utlan
opplyste
østerrik
##ival
frister
fleksible
svin
##fyll
sjen
motivere
trebu
atter
ekspedisjonen
##spørsmal
christopher
rull
klimaet
jordskjel
kvalit
##uv
kuttet
##ege
##fal
statsraden
vegetasjon
kanter
ala
forfly
instituttet
fantasi
mut
##bla
##geir
european
godkjenne
##brutt
kommersiell
##raket
##vint
snudde
miks
##27
opptreden
##sbehov
vatn
fastsette
##regionen
gratt
levekar
nøytral
trig
forver
dream
##sjen
##wi
##99
##ombud
organisator
gifter
julem
ivrige
terapi
knust
lanet
setning
straffer
##nant
##eling
##magas
##pill
##26
##erings
alb
1898
##uan
##ums
suksessen
forbeholder
##bunnen
anmeldelse
##ramme
##finansiering
kristendommen
##ping
paført
arenaer
lavest
erklært
johnson
eigen
grafisk
yrker
uttrykker
##skapasitet
søra
brutto
jødisk
friidrettsutøver
##zeg
horisont
aer
##imensjon
fib
singles
gd
know
##ledelse
prioriteringer
sponsor
havard
hotellets
raser
casual
publikasjoner
##otter
skur
bokser
beskjeden
##utten
spørreskjema
klagen
oppfordres
intensitet
prøvet
relativ
##olo
desverre
##liktige
tvinge
gransk
oppretter
##88
prioritet
smaks
profet
satset
økologiske
mah
##bakke
hentes
boy
oppvask
kirkegard
lilla
regulere
demens
filme
##parker
##porno
1903
##raph
##feste
##ador
##urope
skjørt
1860
content
indeks
reserve
basketball
##eles
geomet
##tilskudd
##mektig
nekte
##følelsen
##helse
katten
paragraf
ll
forsvarer
linjene
bytter
anita
næ
respond
tilskuere
patale
folkem
vinnere
kontroversi
opprettholdes
defineres
kjøleskapet
stilig
annonsert
britene
tilkobling
##ritt
leds
cos
gaende
herred
##stilskudd
##aya
used
mir
##roppen
navne
fagene
agoda
erobret
##ulv
volleyball
oppri
find
bente
beskyld
overve
##stuen
tav
disponer
bekymre
##ways
uforpliktende
fortere
setninger
##formidling
ukes
hanna
musklene
uønskede
fordeles
##boksen
##vindu
##løsningen
batene
##oped
##drivende
##ømmelse
forvalter
johnn
##ential
##unne
innebar
##stykke
##vatn
##order
seint
##gr
platen
resolusjon
skarpe
nel
##kjøringen
foredrags
##fabrikk
tegneserie
quest
monica
misbruk
niger
gjennomslag
##vak
kans
guddom
avviser
##atens
sørland
##søkte
beboerne
wen
##jøtt
##kling
oppdaga
##cent
##ily
##apparatet
utdelt
##endes
monte
fortiden
haakon
behandlinger
fenomenet
nag
eksklusivt
##yrene
aksel
##hald
cash
innbet
nitt
##service
##elter
regulerer
only
potensialet
##adressen
##iklin
##wor
vate
##værelsen
utholdenhet
innstillingen
svømming
robot
portugis
svinger
mandal
meteor
konstruert
osl
##skij
hekk
julaften
##sprinsi
tøm
nese
motivert
revisjonen
romantikk
studerer
nl
forsikrings
liby
singap
georgia
taxi
smile
kveldens
intelligens
##kok
berører
nybygg
middelhavet
##okse
##bein
brua
ordens
ego
arabia
parallell
##kasse
##ynte
gale
vad
##handle
ufør
dete
dov
helsevern
bush
stresset
behovene
signatur
photos
##ulette
kick
##stens
##illi
##angfold
marte
batterier
tilfeld
meier
partnerskap
##iteres
omdømme
oppslutning
kosmet
heime
##skriving
begrunnelsen
iht
kommunalt
##setaten
##orget
turneringer
print
forarsaker
1901
reality
promot
gras
ukens
pabegynt
##resultater
vernet
golden
##sing
beite
##ifa
statsministeren
##ali
skjem
signerte
palest
utslatt
edu
##rise
##enheten
beskrivelser
kjemikalier
naturvitenskap
vedtas
##apparat
##neringen
netter
marokk
##sskatt
##reisende
ambulanse
leier
energik
equ
poser
republik
lob
##ield
innad
##typer
hybrid
aringer
saudi
##sbilde
offentliggjort
##kjenning
gledet
mike
1850
eksemplar
brude
plaget
armb
stabile
ibsen
videreføre
programmene
##frist
foretaks
##resultat
##ndalen
##brukt
praha
okkupasjon
capp
##sang
##arnet
maren
brødre
ivaretas
virksomhetene
bore
utløpet
##kvaliteten
##skomite
seo
ekv
elast
dimensjoner
iverksatt
##sbestemm
strømp
hønefoss
omgitt
wars
kvote
betraktet
sykkelt
overlevde
nud
etik
veide
##idige
brygger
##verksted
sokkel
erstat
skolearet
vekke
nettstedene
##arealer
songar
##ordenen
filmet
##iset
oppvokst
utfall
##sprisen
partil
skøyter
elin
rist
omsider
stygge
skandinaviske
##dende
rutine
##kry
##studenter
lagrer
##itær
##forløp
forkort
broder
hylle
cho
multi
##xon
utsl
kalenderen
stenge
##overføring
therese
barent
##sgrense
røk
##egenskaper
monster
reguleringsplan
uber
##veld
##ssak
utvides
##leik
##søkt
##ierne
cecilie
utarbeidelse
pia
note
planleggingen
grunnene
##illene
definisjonen
nakken
transaksjoner
ansattes
utnytter
antik
korps
bitter
gnr
bygningsloven
##visst
forventning
katalog
lp
##oppna
vibrator
sams
regjeringa
##odell
##dekkende
tortur
delar
mosjon
kjøpesenter
dynamisk
##smus
shang
administrere
godta
magiske
visuelle
gene
105
##fler
realfag
etterkom
##inntekter
##evne
trafikksikkerhet
##bling
##sprodukter
##war
antarctic
sikres
meldes
##teknikk
janeiro
##ystemer
bryne
##orth
møller
##produsenter
##trener
##klass
hong
konkluderte
##savisen
strengere
propag
pasientens
slas
oppløst
##setnings
halvveis
##sfe
valpene
express
##nemnda
magisk
avgarde
##radere
##gener
##issene
satsingen
ytelser
beher
midnatt
opparbeidet
##stor
broen
tradte
balansert
søl
450
skriving
alminnelige
##zar
folkene
voldsomt
alger
fristende
væp
##jinga
illustrasjoner
arbeidsforhold
fengslet
stikkord
biografi
mekaniske
honning
##snett
problematisk
overdre
ordenen
særegen
verdiskaping
arsenal
sjo
##arkivet
##øtene
movies
##idem
lakk
nrks
kontaktinformasjon
ferdigstilt
skygge
johnny
##uka
##ulerende
bart
mæ
ukers
silikon
ulemper
forankring
toy
snille
feiring
protokollen
flitt
some
danser
ektemann
eksamens
tarer
167
batteriet
aleksander
ik
##kall
brad
##fli
garanterer
akust
slav
kritisert
dc
kit
##syre
buk
smabarn
caroline
##derk
frykten
kum
##pas
##vester
##hre
kjapp
opprettes
refererer
asbjørn
antyder
markerer
##peng
birk
##ng
hovedt
slem
apos
ath
institu
avskjed
innser
gangene
sysselsetting
irriterende
##stendige
billigste
intu
prosedyre
talte
rasen
faser
konkurrenter
drammens
##don
vedlikeholde
there
frustrasjon
fren
##fk
spela
anstr
plassene
rettslig
mit
viru
##strening
videreutvikling
##stal
##ulf
jackson
##svin
bevist
dale
##cking
##sgrad
##utvalgets
hjelpemiddel
##ising
sensor
jenny
partiets
hardere
##resultatet
utdrag
##masse
##dige
##ан
skjermer
pse
oppfor
mekanisk
williams
heart
svim
##savdeling
##smakt
fylkesveg
utøvende
forble
potensiale
##45
avklart
oste
tempel
baner
indones
sigrid
metro
##bindel
##modell
republikk
peru
romaner
##plu
endrings
##reist
barbar
##abol
##stokk
satellitt
førde
arbeidstilsynet
prosjektets
næringsdrivende
stru
##øytnant
mix
bridge
view
arist
joe
produsentene
konsum
nerve
vor
##foreninger
oppgis
rif
##ution
prøy
karlsen
frag
godtgjørelse
gjøremal
modif
##sukker
spesialisthelsetjenesten
arbeidene
luc
konsentrert
papp
##ides
swe
tilkob
gluten
flis
##ertil
plantene
prioritering
godtar
underholdende
##irektorat
##uensis
societ
strukturer
vegard
kup
jørg
slitasje
nyopp
lønnsomhet
##givelse
kole
abonn
christensen
##alog
laten
##stoler
##motor
merking
##register
kjelleren
ortod
##malt
graver
flagget
cr
##styrken
busser
1896
taks
kommunenes
konkluderer
handelen
vakne
spesialister
økos
audi
olaf
palestinske
forsvunnet
##politisk
oppnevnt
##shire
vekter
antyd
straling
isteden
suge
##chsen
kinas
##begrens
##idd
møteprotokoll
tenkes
##esnitt
erfarings
tilslutt
##ni
heil
riksvei
wordpress
harris
auksjon
arkivdel
ungdomsskolen
##jens
sape
##iki
tove
fastlege
oster
modus
##øvelser
montere
##ranter
forme
church
kjede
##bibliotek
bekjente
display
overtak
fried
jarl
organisasjonens
##ious
##celle
tropp
oppussing
radgivere
sole
##sin
administrativ
slettes
rumpa
lita
kapasiteten
uenighet
destinasjoner
framgang
##forestil
lokalitet
##rød
enter
hukomm
forgjenger
kunstneren
gjennomsnittlige
alfab
bekostning
other
utstrekning
forstas
oppføre
landsmøte
brens
kommunestyre
menneskers
##regulering
fasen
panel
##reff
##lova
bankk
krystall
blas
turistattra
organisk
english
orker
betraktning
##isol
##kede
##ulykker
kledd
fagomrader
hardcore
##sun
henri
kartlagt
kjøretøyet
oppmun
etterfølger
andrea
representasjon
wolf
manns
egenhand
kulturell
næringsutvikling
preste
##ylor
francisco
##ofil
redegjørelse
##endo
115
ulleval
gledelig
##spolitikken
føltes
advarsel
eksistert
##skatt
byrad
moment
queen
##entrepren
lapp
svenskene
handa
##prisene
toppidrett
orienterte
kompliserte
##ilen
##samfunnet
beatles
##kla
##baner
##glass
luke
stjalet
##opplevelser
##norge
##pop
pedagogikk
##oss
software
##px
##alingen
fengsels
igar
bjerke
sophie
messen
ordninger
tynt
oppgradert
passerte
##aldo
##bakk
##delinger
oliven
kvit
samlingene
mastergrad
##lisk
tin
lovende
fødte
##anti
##spelar
torsk
slektninger
mul
jus
4000
##oppgavene
vekker
mature
parkerings
ambassadør
##cl
utbrudd
mindrearige
##ify
forekomst
innføringen
plasseringen
motstandere
##aust
innleggene
russe
lørenskog
##irer
##baten
dedikert
beaut
mørkere
prosedyr
singapore
##gebyr
kjøpere
brakt
##ninga
##espillet
##opplegg
sammenliknet
##draget
instruksjoner
eitt
##god
##bk
traum
tjente
skitt
utviklere
brukervennlig
champions
ovnen
møbel
##boende
gens
erstatter
##veiledning
steen
bladene
kvadratmeter
vansker
glom
##uge
klok
helvete
derav
forankret
leo
git
hjemlandet
ferdighet
##bels
vasket
velkomst
1899
punktum
basen
##fund
##onde
sveriges
order
ine
##inna
natid
ialle
filippinene
beslutningen
sped
brother
charlotte
senterpartiet
suppler
innspillingen
virginia
q500
skjenke
##log
likvid
foreslatte
instruktør
##iseringer
##blogg
##entar
##tenkt
karm
##estasjon
kryssord
femti
##65
##ategori
ern
forekomme
beit
kontekst
tarm
flater
wiki
matlaging
##dra
kjønnsorgan
reformer
##innsats
fastlandet
rimelige
##agon
forsterke
oversk
morg
##kehuset
##skart
rønt
passert
kvalifikasjoner
sarbar
motorer
lysere
##ife
##bergs
grete
##handlere
splitt
##farget
sebast
jugoslav
##smateriell
##smøter
contest
##amenter
særskilte
##redaktør
advarer
fryse
anklaget
##kjer
##cu
##elast
innenriks
motivet
løken
masser
blond
helsetjenester
skummelt
vint
centimeter
skuespilleren
fiskeri
offentlighet
##uropp
hovedkontor
brus
godter
##hosp
referans
sitat
seminaret
værende
dyrke
radhuset
venninner
##sche
oppgradere
fossil
##ypen
røm
##ivet
ekstraordinært
##edalen
rapporterte
##skontor
kildene
##jing
##sbilder
prøvene
##vos
##givningen
pasken
casio
forsto
oppnev
space
skips
selvstendighet
##ingent
hjertes
trommer
maltider
casinoet
##iction
registeret
follo
##spr
booking
##spektiver
kaka
samfunnsfag
sunnere
share
avisene
rullestol
justert
uje
maritime
##arbeide
sjele
iallefall
moen
##utvikler
tilskuddet
understreket
arkeologiske
mvh
##hø
padri
benj
bitcoin
##iling
konferanser
##taks
smug
trur
truleg
integrit
sjømann
eksternt
møterom
##gam
rammes
læringsmiljø
innholds
##hammed
##ismer
##formasjonen
hjemmesider
brak
##cept
mineraler
livsl
##shistorie
fremkommer
kulde
##chi
hjelpen
public
be2
potter
takst
latinske
amundsen
konklusjoner
mord
stens
samet
panikk
##ffel
##lam
barnebarn
##gitte
utad
nidar
fots
nysgjerr
bjarne
lastes
jot
wide
rangert
##ulatur
godkjenner
hovedregel
stolen
tent
usb
##ferdigheter
sonen
##smy
undertrykk
inkluderte
ansettelse
nederlag
basseng
trygve
ultralyd
##pu
##esongen
foundation
nora
vanskeligheter
marcus
johanne
papeke
ballett
##aldrende
##gert
damen
stro
##biblioteket
tydeligere
liberale
##posisjon
##artner
##mur
utrolige
proteiner
innhentet
##skirken
##sappar
arsjub
##ødig
##illing
anslatt
##elivet
avslappet
femten
sony
løype
innflyt
nova
index
forlaget
forsikre
handelshøy
##settet
oversetter
spion
teknologier
##sproblem
mangfoldet
sirkel
##rey
elise
expl
erkebiskop
gjenspeiler
##ssted
##hon
##alie
##ific
arbeidsmiljøloven
beord
lagmannsretten
##betingelser
##mets
##omot
plattformer
kjøleskap
lovgivning
##analyser
avklare
##vernt
##ileet
##avvik
jog
##blr
##rønn
prioriterte
assosi
skadene
verdal
##ningsvis
##grunnen
duft
utgivelse
##sterol
##skamper
andelig
bloggere
flyselskaper
##kommen
arthur
bitt
nick
innsa
begiven
forlenget
##elo
##avfall
reading
##sfly
fann
forvaltningsrevisjon
##fj
hypote
innredning
tykke
bue
cab
utga
any
perform
senket
utlys
dver
##klæringen
##versjonen
histori
hodepine
##derne
hjertelig
##uters
høstens
spirit
##29
innpa
smelte
fremgangsm
gjengitt
tumblr
angre
obos
utbetales
##faktor
##sledere
pics
year
sizeg
forplikter
slave
skuldrene
##steknikk
##ilet
##agere
jævla
antennene
premisser
##osten
jakke
formue
155
gjødsel
forstaelig
passere
industrielle
reness
rencont
tsjekkia
vokalist
erver
kven
journalistikk
##sordninger
fornyet
folkehøg
privatpersoner
kirurgi
1865
1895
motorsykkel
##endør
##pum
want
##strom
avreise
##ragende
klosteret
eple
uttrykt
lærling
##eks
cape
engasjerer
bulgaria
skrib
diett
spredte
innsatte
halling
visdom
anke
kjøperen
##assa
##ieffe
respekter
kler
systemene
##sfjell
sveitsiske
underfamilien
feirer
true
styremedlemmer
##dekk
##igan
baren
##gers
napoleon
##station
uavgjort
oppfordring
kunnskapsdepartementet
offentligheten
##kvent
sitron
sektoren
tantrisk
rar
##snummer
nederlandsk
innføres
##teringen
aser
rønn
dah
omstrid
forbli
institute
nff
utvikla
##krem
##stam
sprø
lur
##card
salat
##bevil
##avstand
##ørret
sjangeren
andelige
flykte
##skript
colombia
after
gjenbruk
paminn
##heving
°c
byrakrat
forutsettes
derved
laster
##temperatur
tidende
egentlige
forslagene
tilgangen
lesbian
chattes
##bie
databasen
cougar
##cation
sizegenet
hjørner
andsverk
førsteaman
metodene
##ssiden
##skunnskap
kombinasjoner
##unden
sjekkes
inneheld
##andet
diff
aksjeselskap
naut
##ulykke
hass
maked
tokyo
##seng
koret
##planlegging
taylor
eliz
blinde
##konvensjon
krypt
kjempefin
lisa
project
##odor
søks
disney
inkludering
##skende
vestlig
init
faen
søsteren
vitaminer
masker
veie
redakt
##odeller
chatte
clint
obligatoriske
samtykker
utprø
besvar
supporter
##arin
utv
blogging
##hoo
fylkesmann
manuell
konstitusjon
mentale
eliteserien
##ates
##sskiftet
undersøkte
unnskyldning
ansette
hamburg
lønne
mose
pavente
smittet
##shjelp
##cky
elef
##eldingen
uenig
historikk
sykehusene
klippet
nakke
overvakning
politist
omsorgs
##atorium
krom
einaste
høyttaler
##nerer
##utdann
frederik
##kake
merkes
amatører
##stabil
##hage
##smot
##ible
høl
arsber
helsetjenesten
foreningens
bevise
##økning
fryktet
##innholdet
samla
initiativet
##34
fotografering
##ional
videreføring
pict
##itere
##spa
##fry
tai
lukter
milan
##dahl
supplement
indikator
vederlag
##sproduksjon
konstruksjoner
##uttal
##vegg
fordelingen
statsborgerskap
##leb
##temp
tert
ensom
videreføres
familiene
manen
else
tvist
ue
reguleres
##hing
##istre
brut
breivik
##round
hovedkvar
##misjonen
tabletter
gat
rullet
##unes
gravlagt
beskrivelsen
snarest
pensum
kallen
anskaffelser
wo
website
##verner
##verdighet
moralsk
angriper
kjoler
medlemsland
østover
dialekt
##unnskaper
forbrukeren
##osisjoner
showet
##juster
ød
##house
##mak
##maker
kyss
bosn
fatte
trange
museer
##leng
##egning
animal
reisemal
##ments
lovverk
##bedrifter
dusjen
paras
hengt
urter
kandidaten
bindende
tiarene
model
marc
##stidspunktet
##utikk
utfyllende
klassene
svakheter
forandrer
mht
##ombudet
##rester
fremstilling
superh
renten
soldat
torv
malgruppe
ammun
stupe
##ер
prioriteres
##alingene
##vekkende
##sdrift
effektene
sydney
##administrasjon
forfølg
##antik
mia
##ssituasjonen
kupp
hovudsak
ferskvann
komfortable
trysil
skøyte
sizegenetics
vip
skjorte
henrettet
fb
innsk
##smedlem
ideell
ringerike
analytics
bedring
nervøs
namsos
trebukker
kandidatene
destinasjon
seire
romerike
##konferanse
belyse
gundersen
##menter
honor
poliklin
##itas
gb
kriger
annan
grieg
heftig
vedtektene
roser
rovdyr
følt
vestover
blekk
katolsk
##sbransjen
kulturminne
nn
nort
troppen
underskudd
høyskoler
##halv
securit
fremragende
møteinn
skor
tegner
æres
botan
kome
oberst
alexandra
gidder
syner
førerkort
advokater
presentasjoner
bestefar
halvøya
sortering
titan
stier
xbox
kommunikasjonen
fjø
teoretiske
puls
kolesterol
herreg
##treng
##reduksjon
##fari
jent
adri
extra
##vari
skype
alderspensjon
1897
##optimal
ultimate
##kongen
sigar
aw
hebra
easy
##air
lopp
pel
eksisterte
##mont
##semin
them
skotske
tilfredsstiller
arige
idyl
guy
grepet
resulterer
miljød
jung
kjølv
##virkninger
benjamin
rema
førstegang
##asa
bløt
produktivitet
svømmer
##iga
kirkenes
##entral
planten
privil
foreldrenes
##spo
naturfag
stine
pseud
mold
##apningen
##historien
policy
registrerings
adult
##ision
well
##how
bann
kjolen
##ningsloven
##lighetene
spesialiserte
bistar
need
kortvar
snakkes
dreie
##skontoret
flittig
ørene
force
blogginnlegg
lokket
treffes
skattem
bassenget
oil
##opplæringen
minuttene
gap
##olia
##bukta
central
##vans
##stift
##fram
forenklet
meditasjon
separate
omlag
gudbrand
desperat
##trafikk
søtt
##kjemp
slaver
opprøret
apnings
ct
engine
##kontrakt
kurt
##nis
##farger
##ray
linux
utstedt
barer
scar
elizabeth
than
place
costa
##37
prosentpoeng
inklusive
hyp
vakner
font
hof
tos
samspillet
jordbruket
iversen
fronten
##felles
handterer
servit
autoritet
oppfordre
card
intervensjon
cellene
vanvitt
mangelfull
innlemmet
trapp
høf
##sdtr
##sian
konstitu
framtida
hersker
sørensen
##uden
litteraturen
finansiell
henriksen
rediger
australske
##rigt
coop
bestemmelse
slam
nærmet
##skjør
ingeniører
##edisin
konstantin
carol
##esdal
regionene
stjernene
##uret
perspektiver
##historisk
##konkurranse
##prof
rykter
koff
lokk
lodd
halde
allsidig
cathrine
risikof
christine
##breen
fryser
heav
220
##vaner
##rell
apenbare
food
publish
lensmann
##kolle
za
##rekket
vesle
strukturen
kosttilskudd
sekretariatet
trader
committe
cry
##base
essential
røyke
##gjød
ektemannen
sjaføren
vestland
talenter
tony
kursene
barndommen
##install
##amo
berger
forlo
##ovasjon
opprettelse
##mmet
stamme
##kraften
##fiber
##stue
##strup
listhaug
selveste
kontrollerte
pakl
datak
fars
betydnings
tiltalt
spekul
drøye
nybegynnere
##bjør
karib
risikere
##bøy
##spraket
##sgod
blodsukker
visual
##kjønn
##tender
bend
krisen
gjentar
##skravet
førsteamanuensis
##best
overtar
snudd
instruksjon
lovverket
verdenscupen
portal
##fotograf
virkninger
##pak
administrativt
##eda
flyter
feilaktig
association
dead
##etts
tilbaket
##sone
maleri
##hodet
##medvirkning
##ques
erklæring
reagerte
##riker
kongelig
ande
gjerningsm
samsung
hier
##otik
resirk
##ivelse
##ingsmidler
##esterskapet
røntgen
sd
bremse
devel
##horn
psy
##vingen
bestsel
kidna
nc
knytt
spesifikasjoner
forestille
ordføreren
fansen
herman
elling
##blin
utlendinger
##shall
hovedfokus
uforuts
lus
1893
begeistret
naboen
pok
##frekvens
sesongens
cyber
innsend
kontaktperson
prinsip
justeringer
##saktivitet
##glede
##ettiget
erotic
##svirksomhet
chile
unnl
ext
sparket
dagar
stakkars
##ialt
vibe
pusten
zu
akademisk
jørgensen
##head
guar
retningen
##wich
mellomstore
næringer
vatt
kad
omegn
fungert
omsetningen
##lunde
buset
rs
kvitte
tettstedet
svendsen
preges
solveig
anvende
evaluere
moske
doble
1892
gruve
meks
kongressen
faktur
reparere
papiret
tingen
##yren
##grupp
skipene
papekte
inndelt
fagforbundet
750
feder
##fsen
##konto
vlad
suger
##svurdering
##cript
sanksjoner
innstillingene
oppholder
committee
##imp
fjellt
renover
støttes
##otering
resepsjonen
gel
utmerkede
massive
lønnsom
wat
keiseren
velgere
1875
eiker
røre
##formede
hey
utfallet
kobling
funksjonelle
kent
slass
sho
tinn
lagd
næringsstoffer
bærbare
diskuterer
fritak
ypperlig
hak
##maskinen
##svekkende
selgeren
1889
aksjen
sloven
##godt
kompakt
notater
##kelen
annonsen
##etabler
fungerende
lj
##kins
##ssjefen
##pra
usann
dominert
prevensjon
sekken
presis
betegnelse
prostituerte
banks
ratt
utviklingsarbeid
##hampton
vellykkede
bys
##kjenn
##rive
papekt
##uttrykk
uhell
rangering
stygg
arrekke
lew
folkemusikk
truer
##smetoder
involverer
terning
opplyse
##filer
velkjent
skuespill
##sprogrammer
brukerens
skatteetaten
pumpe
innek
haust
skyting
hektisk
born
teleg
fremtredende
##ensyn
notodden
messe
nou
##advokat
uopp
##dert
adresser
opphevet
finere
settet
leverandørene
dokumenteres
bast
ekspl
##trykket
hindu
skilles
frisør
soverommet
##shop
imm
##hin
nesen
##mping
brussel
beveget
##biller
avska
utvalgets
protot
abd
##sesong
##skab
tiltalte
##rock
##33
avklar
##nande
##sterke
hydra
observere
##66
##ovic
malm
forutsetningene
forberedelser
flyte
kenya
code
bemerket
sykk
##korn
utrede
bjørk
playstation
barnevernt
kvitter
sogndal
fremskrittspartiet
sank
filipinske
matri
urimelig
##inem
network
helsevesenet
skyldig
##førselen
1894
fox
folkevalgte
##gl
oppbygging
##avir
maritim
health
utenlands
##stjerne
lokalet
bryllupet
ekteparet
dk
##hunder
læreplan
gest
fagskole
vonde
sure
sortere
kjennetegnes
tatover
gote
mykt
disiplin
kvalifisere
gon
nordmann
styrkes
heftet
programmering
ice
##meldingene
irsk
poengs
linni
##rt
dv
##redelse
159
##teksten
fyren
looking
##radt
ds
leveranse
##kra
och
vinduene
##pend
##inntekt
rolige
etterforskningen
heretter
særs
solidaritet
bened
##president
hir
##mennesk
sprekker
karakteren
latterlig
ft
rekken
fott
##hamn
essay
##oca
hovedrollen
reparasjoner
søkemotorer
##xi
maur
hygiene
jet
##cen
soul
bosatte
gjerning
lekene
akvar
fartøyet
lase
standpunkt
gaven
visuell
skjelett
baller
stuen
##bridge
kompetanseutvikling
forsterker
nordaust
##faste
helbred
patrul
gres
hub
##buss
##ced
##kontr
vinje
wid
havnen
##skilder
kobles
mrd
dev
justeres
vang
##bilen
kraftverket
tres
udi
bron
##sbo
##spirasjon
dagtid
invad
jeger
sammenf
strømmer
##øtt
gjev
made
rencontre
alan
gange
listene
mors
##ao
pølser
##aktorer
ulovlige
slitne
dos
etablerer
##preget
gjenvinning
##yring
strekning
##sløy
##platt
##pi
irske
##ivaet
##elementer
anmod
roar
brekke
##ск
1891
juletre
kunstverk
helsehjelp
komplikasjoner
kjæled
radikal
##espillere
klimap
sekretariat
kongo
energis
##omsorg
##kin
operere
oppstarten
##anden
garantere
styrketrening
stall
solheim
bader
self
boot
##følgen
micro
datingsidene
intensiv
cappelen
oct
utvider
lyser
reuters
##assist
##lagene
diagram
begrenser
forby
##sby
sløy
teik
##count
libanon
##uks
gumm
grunneier
adress
mim
synonym
fuglene
sandvika
dynastiet
igangsatt
reflekterer
butt
belte
##relse
omorgan
konkurrentene
##sakt
##ор
drikk
estim
goteborg
##pose
foreløpige
##sides
flir
##intervju
##unet
videreført
##jerte
elegan
holmenk
alban
trondhjem
##vogner
vandring
begrepene
oversiktlig
sammenligner
stell
luftt
husket
returnere
##snittet
##ilbudet
##igu
stast
entreprenørskap
##hum
følgje
bjel
framtidige
progresjon
puss
forklaringer
##geland
vii
casinoer
lederskap
returnerte
trente
svul
friheten
palo
##illen
søkeord
erlend
temper
gad
1881
vedvarende
##iers
##cell
ullens
fortol
##brua
turene
beseiret
screen
##mennesker
sjuk
kommuneplan
php
namngje
##krevende
##shavet
aus
##italet
kanton
potensiell
anden
amin
##arth
mind
akademiske
strender
blowjob
nøyaktige
røyken
##itsj
##landskap
livmor
ropte
samferdsels
syklister
aldersgruppen
steke
poet
vektt
definisjoner
markedsførings
underlivet
brukervenn
plasserer
##skonkurran
opprettholder
randi
sydd
natural
sosialdemokrat
kringkast
stone
misforsta
wol
tilbød
sensur
hengende
drøft
##enheter
lykken
sportslig
vage
##icks
venezia
troende
##entil
betjene
community
##eser
##unger
muliggjør
gaming
ekspans
evalueringen
##idrag
##ego
spyd
##forbindel
porsjon
annonserte
fotballspelar
football
synder
behandlings
lukkede
ultra
distanse
kreftene
konsulenter
##eknikk
flaks
##amerikanske
utstrakt
##sbeveg
estland
knapper
##plassering
prosessene
utløser
nint
auster
lekre
økter
1885
##øft
debatter
henvendelse
vesteralen
##frø
systematiske
##høgskolen
søndagen
##komp
influens
byutvikling
efter
krøl
forbereder
lanserer
uakt
lørdagen
logisk
etternavn
##avik
brant
skjeden
røyking
varamedlemmer
begrensede
##terne
dyl
rekkje
tepper
fetts
##seter
tilliten
##bbel
undertegnet
hennar
adhd
solbr
parkeringsplass
avdelingene
sebastian
utvinning
rustet
society
irritert
fyrst
trail
jurist
raskeste
##uma
kran
manifest
##skjell
begivenhet
brannvesenet
##kommelig
ase
nuru
vekket
##jobb
kvam
tilføre
synkron
rødgrø
etterfølgende
høgre
##craft
ragnar
milano
lønnsomt
sekvens
mildt
folkeav
french
##emma
##svann
##læring
atle
##styrker
##kenes
vesen
uheldige
fantasy
##akh
monteres
kronprin
beskj
##pleier
bibliote
egge
stortingsrepresentant
beck
sunnmøre
##yle
valley
pleide
døtre
kvinnens
friskt
##srapport
##ione
energy
seilte
møteinnkalling
glasset
rasisme
folkere
plasserte
bosetting
gjenkjenne
##løkka
oppholdt
mentalt
skryte
qual
klassifisert
øks
assistanse
knudsen
rettslige
briller
##lesere
suveren
idrettsforbund
grenland
innerst
kw
excel
kjølvannet
hint
lanseringen
##right
##betennelse
coaching
oppsiktsvekkende
ønskes
##prinsi
varete
borgen
adolf
##bt
##oon
##sol
blab
##ilo
##seiendom
andelse
blaser
valen
##klubber
tyrkisk
##kroppen
##runden
##spotens
palestina
hevn
designere
jogge
blanke
generasjonen
radon
##abis
rygge
trommes
##strinn
oxford
oppgang
##iral
stabelen
bagasje
bayern
blomstene
##fossen
stramme
dow
##sinformasjon
##mers
##cho
millionar
##yttede
##optimalisering
##wart
forskudd
tiende
##ledning
saklig
senge
dokumentene
etterkommere
preferanser
shanghai
##elisten
##programmer
bønner
##bredden
middagen
forklaringen
##uttene
nidaros
høyrer
spillets
##beløp
mett
##fit
antid
teknologisk
raskest
##imb
##mpro
myndighetenes
turt
##rikt
oppdal
kvalifiseringen
serbia
holt
##ferden
flasker
belønning
##utstilling
illustrert
##risiko
behold
forsør
prøven
infanter
vindus
##boliger
integritet
betydde
##operasjoner
gammeld
scoring
tronen
##sium
merkevare
verktøyene
drener
ytringsfrihet
elvene
folkets
##strømmen
gjeninn
kalorier
helen
avdelings
kenneth
leire
listet
##web
turisme
stolthet
ombygging
##skrets
karmøy
nsf
pastar
##olis
utvist
##gelse
##stykker
pulver
forlengelse
use
optimale
taller
##skjold
tilfeldigvis
ups
engasjerende
søknadsskjema
symf
gitarist
feltene
skadelige
lord
godkjen
##utan
smy
##arbeidene
1888
##spsyk
produksjons
##sledelse
antibiotika
kontinu
##stren
grunnlegger
egenskap
##rekord
cc
##kassen
tyde
opplagt
gjett
pensjons
fortau
serverer
stryke
løgn
torp
mistenkt
toner
corpor
kondisjon
##ograph
teologi
tene
tiger
frakte
samhold
varetekt
overla
trærne
utpa
tropper
ammunisjon
##stund
uis
##bind
##enda
jager
glu
valper
overskriften
fremsta
sluttspillet
##delag
tribun
kretsen
anvendt
##sløsning
slank
gall
race
innehar
vaner
legendariske
essentials
grammat
##behovet
ovn
##leiken
syriske
primære
defens
dramat
##kol
##elskap
leveranser
##selv
skolem
##standard
wilson
jobbes
frittstaende
##rane
valgkampen
##mentet
##teknologi
problemstillingen
rings
vaken
implementere
terapeut
tvilling
##elskapet
##ikan
##røy
pay
##handlingene
##gien
sco
sammensatte
paven
##vanlig
mika
privileg
nettbutikker
when
##olt
##klikk
sammensl
skv
inje
##sfelt
skrifter
audun
sjenert
##cess
justering
øret
stigende
yahoo
kjersti
glød
astma
spray
bluet
savidt
gjennomgar
intense
they
guvernør
##drakt
avbry
entreprenøren
e18
##adel
##smuse
islands
##urin
stir
hein
karbohydrater
begynnelse
gruner
##røt
##viken
##ulent
klimagass
utseendet
##mønster
##inett
menstru
malerier
glimrende
hay
mestrings
##bye
forbinder
knute
artiklene
xi
syre
lærlinger
produksjoner
anmeldt
sensitiv
spenner
geit
sofa
eskort
tjen
##onerte
ukentlig
stimulerer
##feldt
forbryt
135
blog
plug
blase
fremstilt
applikasjon
lill
kjelder
avslut
fiolin
jørn
##ulært
hilse
satsning
porten
##aktiviteter
##eløpet
gim
forord
kommunere
##yin
roe
miljøvennlige
utpekt
##mottak
oppfatninger
pik
soner
##fys
ivan
firmaer
underkant
ingebrigt
##elius
sektorer
##produsent
danna
entusias
##ksped
##seksjon
##stilbudet
borti
tjenestegj
##marken
elles
treg
tibet
heldt
##onyme
exper
borgerkrigen
pafyll
sporten
tip
fiskere
##arken
morsmal
stokke
blink
##ommun
##risten
aga
##ørsler
farvann
erstattes
##emann
inspeksjon
restriksjoner
##mør
##rimer
innkalt
helgene
køy
reelt
loft
come
grate
##esco
##førere
psykologisk
avstem
oral
##formann
forpliktelse
eksperimentere
##adene
##modellen
pry
sæd
entreprenører
militæret
dovre
etater
doug
lokalbefolkningen
eksil
brian
##skrevende
##rener
spins
##planter
ferge
mobilitet
1884
servicen
folketellingen
byradet
reidar
sout
syntet
ræ
##elagte
kus
seksjonen
108
104
foredraget
oppfyllelse
byggverk
mistenker
nordens
tolkes
hipp
##redningen
hjelpsomme
rag
ulf
originalt
islamske
nærvær
jessheim
barnehagens
medvirket
løpt
##info
##regning
journalisten
løyper
ryddig
betre
tsjekkos
##egget
pekte
##iater
genetisk
##rydd
arkivet
gla
kommunistiske
skagen
##jong
bærekraftige
gerhard
omgangen
inntekts
##midlene
tilsette
##cted
##egjeld
unngas
illeg
konstruksjonen
vintage
##behandlingen
ingrediensene
storsl
spesialiserer
##¸ˇ¸ˇ¸ˇ¸ˇ
flokk
##ødd
vares
##skampen
##ierte
betraktes
bim
##show
barentshavet
dani
##poser
skøyt
samfunnsansvar
folkerepub
iks
##bell
dessert
forsyning
handteres
gaza
pakist
karakterene
fitness
panser
##ches
pusse
##skala
gamlebyen
unntaket
treningsø
handverks
##srud
ryktene
dab
radighet
sprakk
arbeidsvilkar
komplette
førstnevnte
gjær
etterfor
bruddet
trium
arig
langsomt
naturreserv
molekyl
binder
navigere
videoklipp
surf
improvis
##usa
##sselskaper
mathias
wow
special
utløse
right
bensinst
samarbeids
coun
utanfor
lasse
awards
irritasjon
##oppnaelse
heltid
magaz
strukturert
pm
klag
##smat
ektefeller
##aljon
ufatt
niels
ankommer
halloween
klimaendringer
##norske
investert
markus
drakk
fetish
gjenskap
bluetooth
allergi
orientere
##minger
##forstatt
talmodighet
formidlet
traktor
psykiatri
adopsjon
##sgrensen
omgjort
stefan
230
kabler
overveldende
forente
name
trygde
frans
##dress
gitte
jotun
normann
bandets
##32
koordinator
middelsstore
forveks
##etoder
kio
##ymp
##stro
rukket
sortland
##orienterte
sher
##stest
poesi
##sopphold
nærmiljøet
##ministeren
enebolig
##amlingen
appet
gruppens
##oka
logger
##rets
revis
farens
styrking
##fristen
myter
##ansom
##uleres
illusjon
240
høytrykk
1886
billboard
cher
gross
bebyggelse
##mangel
synker
style
bjørg
karakteristiske
arnes
##bestemmelser
nitrogen
destru
simen
spisest
reind
mats
heat
utenfra
utlendings
##stell
utviklings
libya
akv
dødelig
nd
##yldig
bjørne
utviklerne
eur
kompetansemal
innspel
salme
##odes
kalsium
western
lenn
##fase
navy
tettsted
sporene
trass
eiendomsmegler
##ftene
kokos
avvise
##sløpet
frelse
vamp
##ertall
wis
biom
##spilling
##bran
##cons
vannt
##rutiner
ceram
##ainer
##ui
avve
festivaler
##ril
hugo
dick
lena
brensel
##fartøy
##departementets
ideelt
innle
aske
fastsetter
##sforskjell
never
cert
filt
jordens
utredningen
torget
iss
magn
sammenlignes
integrere
##kli
image
julegave
##fos
##parter
industriell
brow
helsefag
rømme
##rate
##atre
##utbytte
rib
##revolusjon
snus
departementets
##holdig
##ynam
kvalifikasjon
dispens
statene
kevin
##anje
drop
1883
goose
stabæk
leiar
##elyset
ate
##ants
roald
koal
fordypning
pioner
plantet
søraust
seminarer
lovbrudd
blandt
atomvapen
cow
klyn
bonden
nis
varige
oppdretter
lotter
tysklands
stoffene
terrasse
fam
oppretta
##opel
ulykkes
engasjementet
ltd
bnp
##retningen
##belte
##moren
information
spraklige
involvere
landing
##fargen
fjellkj
##vilje
restene
sivert
indikasjon
sart
universitetene
mirak
klør
double
##ippe
støp
##sji
skyter
wang
vilhelm
##innede
transform
garnet
brukernes
jæren
koselige
empi
utlig
allianse
anmelder
pyntet
dl
##arkitekt
utforme
sertifisering
utsett
diakon
koder
fylkestinget
aster
arevis
##elær
rumen
hindringer
radikale
opposisjonen
innta
dublin
##klene
synn
planeten
logikk
une
transporter
forsiktighet
avslappende
##sselen
2030
##soppgjør
fotografier
fakultetet
xl
##ismens
fengselet
kretser
##ique
forvar
series
##sned
markant
sandberg
hotellene
##flix
daily
utnytt
##dea
##skostnadene
wur
popular
mads
##glem
turk
##vner
##iano
reserver
hurra
deakt
kommunesty
fiks
mytologi
ronny
tt
lekker
trapper
##slønn
##skjæring
boston
konsernsjef
renne
estetiske
##strakte
##ibet
lokalsamfunnet
uførepensjon
nøytr
pastanden
verdik
fredelig
lagmannsrett
pek
enkeltes
serveres
noenlunde
##bered
bevaring
usd
motvirke
edderk
tidsrom
skik
##ogene
forsamling
##sentre
relevans
belegg
seneste
letter
bite
dubai
optimalisere
voll
##furt
truck
giske
annonsering
6000
##stret
redu
komposisjon
gjentatt
##grader
alla
haf
aktivere
##ivene
gjerde
dypet
midtre
referert
##prøven
dark
stenger
berget
pornost
fangen
misn
##sspill
yter
##itallet
german
##kers
suverent
ose
##steinen
klasserommet
sudan
operert
survey
pyram
rotter
hjemmefra
##heit
gem
uib
anleggene
##østre
##dekket
holland
kurd
fagfelt
overbevise
idretter
skro
nytelse
blast
mora
nedgangen
rogn
marer
knutsen
innbyr
help
chall
##kaker
fylkeskommunene
forenkle
spotify
spesialt
utne
spli
kulturhus
##interesserte
vinger
##elia
forbedrer
stores
dykker
rekre
##interess
##iing
øving
beruset
##lyser
##friheten
religioner
##lagd
jarle
kommando
##lage
156
teppet
pall
##operasjon
##unner
##undert
nysgjerrighet
oppfølgingen
##egling
kommenterer
tidsrommet
brud
##blene
fasade
kategoriene
apparatet
kvinnes
##ignet
##itre
arnt
blonde
bakt
##bekken
##ienes
##orps
samuel
##levende
##lines
rekonstru
forbilde
##skyting
mccart
nyskapende
lm
stønad
dominerer
farer
jøde
skisser
##myndighet
slippes
praksisen
##statistikk
econom
mannens
sesjon
##vansker
kontrollerer
innsam
##ops
title
kostholdet
dumme
##rass
pick
##ront
##stallene
##firmaet
##produkt
158
driftsutgifter
##fangst
asian
##misk
##ava
anonyme
innrømmet
ambassaden
##pus
folkerepublikken
stup
##ovn
departement
##skontrakt
brukermedvirkning
inntatt
skaret
##inas
toppet
arbeidsgruppe
##panel
##konferansen
akkred
leksikon
##etiden
##stoffet
rikeste
hastigheten
saa
##ardo
langvarige
johannessen
tiltrekker
reservasjon
##væp
##reglene
dokumentasjonen
##apeuter
enger
doktor
forekomsten
photo
ydmyk
utforsker
two
toten
genser
avslørte
drøbak
##sbanen
figurene
vrang
##atøren
hovedpersonen
oec
herrens
artiller
krager
##day
engst
##stjernen
cust
tegl
##zhou
friedrich
brettet
tina
perler
energieffe
raff
rekk
parap
tingretten
konsekvent
cannabis
##arme
vre
preger
skoles
evangeliet
dnt
julegaver
kontinentet
kjekk
##rium
interkommun
##kammer
katastrofe
beordret
##hil
##hara
##myndighetene
##agede
russian
syklet
midd
hole
##varet
##medaljen
low
tomten
guiden
snekker
##ades
janne
hale
straffet
urbane
ernst
##sløst
racing
krigs
##egaard
ferdes
streik
1848
boligene
vannkraftverk
##spress
spørreundersøkelse
##giftene
gabriel
1882
jackpot
##ulasjonen
##sdelt
gambling
wel
bekk
finansminister
vegetar
subsid
matche
dreide
godteri
forkjøl
regime
drøftet
sri
løpene
vandrer
paradoks
martine
ilden
inntrykket
forlenge
clinton
##skjø
medført
##skred
malays
##steori
interra
tretti
vanil
##piller
kokk
koordinering
perle
##smøn
hindret
fylkeskommuner
medlemmet
orgel
jersey
funksjonell
##sdokum
tilegne
frafall
##olgt
høyskolen
britt
distriktene
toleranse
##administrasjonen
##transport
##blas
louise
ensomhet
baret
dagligvar
russlands
symbolet
##lukt
klam
menneskes
145
stemt
forhandle
parfy
undervise
##fabrikken
ruta
senger
videres
##ateriale
##ebær
kve
##kombin
marka
##sdagens
netflix
##røret
kombineres
brakte
høyttalere
turistattraksjoner
##stemp
klaget
##vinger
##ydig
biologi
##idere
firkant
arbeiderne
##stemann
presser
sjelen
gonger
##bury
oppriktig
emig
##bevisst
##alternativ
##infeksjon
##cean
fornyelse
tilpasser
føreren
##familier
konfirmasjon
##jemper
text
tippelig
straffen
ilds
importer
varianten
skav
knep
bestanden
vingene
algor
##ksam
etterkrig
gravd
cookie
##38
skadde
overflater
visum
tøyen
oliv
##vegger
utenriksdepartementet
konvensjonen
bevisstheten
bevilget
##но
##edi
##egninger
sykepleie
##korps
mindret
materielle
jernbaneverket
##forstyrrelser
wifi
##basis
lokallag
begjær
eksklusiv
kardinal
kjeder
##hotell
litauen
krø
akter
##sdata
##sykler
##bach
##ansvarlige
nintendo
støvs
slikke
##kandidat
skipper
skis
##leggelse
rush
testene
hhv
ness
nyre
nal
##dekning
##farkt
##bec
avbrutt
moralske
sept
##løshet
halvtime
benken
forsikringen
##jd
##italen
diskuteres
##ademiet
massak
oppbevare
##put
##skunst
skist
mane
##øbler
rusmiddel
2021
opphavleg
dilemma
tempoet
alfa
vektlegger
nærmiljø
sked
oppmerksomme
##hatt
##imir
gjensidige
##tegnelse
sørk
##kommet
tekstiler
statssekretær
artisten
vg2
vall
##prior
varemerker
##salen
spur
akseler
utspring
1801
krak
##utredning
##avgiften
billedkunst
##alli
difor
1887
ay
sjølve
uklar
1830
bomb
lamp
raste
havna
publiseres
moz
valgkamp
chattesider
utdanne
prp
##srike
treneren
cond
##lers
operative
hestene
velsign
øm
klæ
##spillene
years
luxem
##voks
##familie
svik
pink
obligasjon
ai
lott
volda
hyller
milde
skillet
centre
invasjonen
vurderings
innkl
##brun
kunstgress
passasjerene
##riter
mario
stevnet
styrescore
##ktt
skjuler
uttrykte
##sbaserte
feks
128
kjølig
sikter
vagina
avviste
##batter
##byc
risk
godkjennelse
rettssaken
##oben
organiserer
##200
valle
matcher
##oskop
nemnda
refleksjoner
bingo
plac
skjør
##felle
technology
##cd
festningen
notert
gjenkjenn
##ups
smalt
##elinjen
##enskom
onani
trafik
troverdig
dogging
##utveksling
søren
##bourg
##verdiene
duoen
##husene
##sreformen
##на
bruksomrader
varanger
##ksene
##konsent
dykk
dæ
##moner
stjele
margrethe
distribuert
##øe
##esex
identisk
skriven
america
##ekj
kontanter
amerikanerne
seksual
##ол
paus
andrew
klienter
tolket
mynter
russerne
anth
smakte
oppholdstillatelse
lekser
##støy
##hytta
nigeria
##brann
olsdatter
partikler
strømmet
##sperspektiv
travle
folkereg
##trene
##kostnader
borgerlige
154
malsettingen
gerd
antikk
burg
lansering
bei
rasmussen
##slivet
faktorene
nice
underviser
##stek
antikken
##enna
oljesel
##høgskole
sjener
utru
høve
kajakk
redegjøre
ortodokse
##boe
kostnaden
samrad
mega
##fremmende
ødela
folketrygden
101
definerte
##balanse
sjøfart
hanssen
rusmidler
konkurransedyktige
##ifisering
monark
##roner
##ree
beslutnings
puter
axel
løsnings
hockey
tørker
##ofon
##mane
tillates
utgav
autorisasjon
forson
forberedelse
trude
gulbrand
motstanden
pask
##gjengelig
##jenta
stive
pornostjer
rommer
opptaks
finansdepartementet
anskaffelse
nek
kollisjon
dylan
##næring
kommentarfeltet
names
savn
joda
elektrom
tønn
familiemedlemmer
gent
##omp
innbrudd
##sirk
##kje
reindrift
dommerne
tredjeparts
rena
pike
fiende
##forbindelse
##bestand
##styper
overskuddet
hørsel
kapitlet
etiopia
##ending
øde
##arg
forveien
kommentarene
personverner
putin
restaurert
prosjektledelse
tilført
integrerte
ofrene
herm
ekskluder
hovedsaklig
cerambyc
##terings
veksel
edel
skill
##univers
nikola
hevdes
inspirerte
fritiden
##forfatt
field
dreper
riksantik
broad
##kledde
orienter
rikdom
##bevegelse
avgrenset
domstolene
##overy
franco
behag
118
postet
lewis
##kapasitet
lanseres
smarttelefon
brystkreft
ric
tub
kreativt
resort
vinnerne
##statene
##andeler
steinen
følgere
ow
berømt
svekke
eke
lærerutdanning
marketing
keramikk
##soppgaver
chap
kommuniserer
titalls
protestant
##rente
sauer
garsdagens
##ivert
likel
adkomst
##fattende
##srettet
1840
pinyin
oblast
søstrene
poengene
inviteres
iris
##radio
yrkesfag
korrespond
itunes
##ordinator
##wald
##ettingen
fylling
organiseringen
innviet
##uleringer
sosialistisk
bevisste
samboere
dekar
avslutningen
prioriterer
##formene
desidert
##smedisin
gjerninger
##alsk
mais
gjeven
innspilling
padriver
1878
kritiker
stillhet
##jentene
fortrinnsvis
fiendt
petersburg
billene
deep
roi
flør
##olitikk
tredjedel
holdbarhet
movie
##yndighetene
stiftelse
spam
krigens
muslimsk
##serfaring
voldsom
utsmy
slalam
##sbøker
tøffere
søken
mystiske
paramet
hjelpet
skolestart
prestisje
algorit
##elekt
db
lytt
##irektoratets
hjertesvikt
##liske
altinn
fordele
tilslutning
dempe
##iev
157
instanser
##gjeld
velgerne
wenche
kostnads
109
mao
offiserer
nivaene
sylin
skild
nordstrand
foretok
førstehjelp
luk
graven
pv
territorium
trio
##giving
lastebiler
foreligge
##imentet
##sdato
menneskerettighetene
##uru
##prins
##revd
skulptur
##vor
utnyttes
thaim
##brettet
##hab
##stida
klatret
klargjøre
invasjon
##sønn
championship
fifa
##regelen
##instru
latina
indonesia
frigjøring
assosiert
marinen
skjønnlitteratur
knullet
naturens
pbl
##oider
carlsen
##kun
##atab
oppdaterer
sjekketriks
henta
fienden
herpes
skuffende
hawai
##ekjøtt
flyreiser
nabolaget
pierre
beman
arbeidsgruppen
emballasje
nixon
##ovner
berøre
##skjemaet
##akers
okkuper
antonio
estimert
##ston
garderobe
utdeling
##icap
pornografiske
monument
innsig
##roen
utøya
elbiler
testoster
pisk
paral
tidens
lokke
gott
stasjonære
##bring
klagene
nasjonalitet
mormor
kroniske
frelses
diskriminerings
menigheter
##skravene
##ammens
ledelses
##barnet
jugoslavia
selvom
##gjengere
biod
##alo
asl
kulturelt
##oseks
virkningen
##smyndighet
##uger
##stral
##pasi
erfaringen
bukser
##dagens
travelt
1877
gullet
##ittiske
oversendt
##festen
kvelder
epo
selvfølge
##fav
fredet
granny
##omme
niss
visit
##ра
bestevenn
sommerferien
##øen
avsluttende
spelle
støvler
tjenestepensjon
nig
konvert
undergrunn
klor
##kos
##gerende
korrekte
##mond
##fortr
inneværende
vedlagte
nasjonen
kommersielt
##olet
##hode
stillehavet
seere
##espes
elites
divisjonen
northug
kostnadseffe
##kg
malta
opptradte
guider
fosse
verdsatt
østland
##iles
plas
massa
jordskjelv
##sfristen
skylden
eil
seriem
emer
extender
emosjonelle
raud
##stap
lydsporet
control
klasserom
##studiet
gyte
seile
gwh
konfidens
##ctions
tsj
hviter
fold
##usia
hjulene
opphører
wet
ekk
##cin
##eringen
fjerdeplass
gangs
trendy
usedvanlig
##oga
##sbes
velded
møteleder
their
lukk
sut
framstar
##blant
imponere
##amb
boob
realistiske
1871
##lestad
##farlige
sarbarhet
prestegjeld
belønnet
odel
##slys
##plager
##blader
civ
ideene
##rygd
folketrygd
##any
ferier
tolk
##just
##ility
fremført
hjernes
skremme
lata
##syl
interaksjon
##debatten
apningstid
eksplis
##pil
lysb
106
nedrykk
##villig
marokko
##laus
koblinger
cola
avviks
kjennetegner
djup
conc
veilede
fornye
##to
jules
##sving
eger
nyanser
flyene
##hospitalet
grunne
##svink
nummeret
undertry
spillem
khan
nederste
##ysse
varemerke
norrøne
bryllups
##prat
##fem
story
##ademy
absolutte
hullet
langdist
svimmel
##ature
##partnere
okkupasjonen
kjæledyr
zen
##plast
moon
bilete
bruksan
##fro
tegneserier
deltager
besitt
##bourne
##finger
##wig
akutte
prostata
##rob
##skriterier
ekspansjon
##linjer
skatten
avgi
høgaste
##høyden
fedre
kartlegg
internasjonalisering
fingre
##saften
oppmuntre
forkortet
personopplysningene
ogs
endra
kypros
##nemnd
##endringene
psykologiske
taktikk
##uropeiske
syltet
skolegang
##byer
##atoriet
##elister
skyggen
##omsorgen
insister
gammal
##konse
viner
analysert
relasjonen
idrettsanlegg
askim
sulten
læ
##gjerd
ventetid
teatret
##skysten
erkjenner
ebon
bruce
##ners
fjeld
skiltet
samfunnsvitenskap
wergeland
fored
opprettholdt
lovene
##myndigheten
hes
##yke
sicil
valgkomiteen
direktiv
##stallet
handhe
statkraft
ytelsen
##koder
uit
##velt
##biner
reformen
klarere
vg1
tallerken
##stone
##pg
mediet
drøy
spraklig
charlie
propor
##alget
##hjør
skitne
manøv
testam
##ittelen
likesinnede
##rollene
##forsknings
plen
samtalene
sabot
maskinene
banan
naf
tuber
##beløpet
##ktere
skjegg
distribut
##historier
forbrukerradet
egyptiske
smilte
gartner
speilet
mjøl
##rs
svette
nf
vareb
migrasjon
##lementet
seiler
##etti
##æter
kjeden
##edek
kløver
blander
scenario
syne
amerikanere
skrivebord
ket
orde
sakens
silver
scanpixvis
kopper
boys
##sskolen
konsekvensen
##ommen
walter
ensemb
nikol
visma
hviler
fordommer
##somradene
gymna
arbeides
opptaket
mant
osmanske
viruset
##melse
##rukne
saus
tabeller
##modeller
##ough
pont
##øtter
lekkert
søkeresult
inneha
monopol
forstod
##ieber
markering
kaken
tradløse
robuste
gjemt
turneen
fetter
venstresiden
##spesial
risikovurdering
kjøpmann
talsmann
##splatt
##100
reale
bild
fliser
lovpal
forful
innlogging
befaring
livene
avklaring
mobbet
vedtatte
kirkelige
mercedes
1879
høyesteretts
ynd
sarah
finansieres
frekke
airport
##kspert
maske
107
følelsesmessig
ildsjel
hannen
koreanske
##ansens
fastsatte
datatilsynet
avrund
##lip
interracial
##estra
eggene
##stemmelse
etterspør
radene
imøtekomme
introduserte
leting
folkehelseinstituttet
viktigaste
ferden
isbre
fadder
ia
romerne
idrettsutøvere
stasted
hvaler
planla
uover
##format
tetthet
avvikling
mb
ther
auf
pirat
##iring
##sfisk
##inken
##splant
insulin
oversv
living
folkeparti
makeup
skys
##ikansk
##spartner
danset
ansa
grønnsakene
operasjonsleder
innvilges
##sfunksjon
iblant
##prosent
vestby
stridsv
forsinkelser
troverdighet
boliv
intervall
inntre
trin
sikrere
chatt
utvalgt
grafiske
##senhet
husmann
oppsøker
arhundret
høringsuttal
kongedømmet
antis
porter
hovudsakleg
kvern
1876
afro
academy
arhundrer
direktivet
ventes
##beskyttelse
veik
hm
kommunikasjons
##penge
rovvilt
##mangfold
tidligste
maloppnaelse
bronsemedalje
hete
pitt
##ignal
ørn
handverkere
kvarter
treningsøkt
##hockey
mikk
slitsomt
historia
sensorer
##egu
reformasjonen
dialogen
nerves
iverksettes
##inntrykk
##reisen
voldtatt
vertik
##trening
entert
betinget
##drevet
nemnd
forbindelsen
fosterhjem
eige
adobe
fotballklubb
##yon
##spolitiske
autorisert
oslofjorden
bestillingen
##kjøretøy
stephen
ebony
aggressiv
hegg
amf
besvart
anstreng
departem
blaste
ade
##ains
enova
maje
prøves
betingelsene
forfed
##etty
plynd
##hamar
knekke
copyr
eros
continue
##shov
framdrift
iall
julius
##lyd
##rough
kristelig
ordbok
##basseng
ake
jama
##styrer
scient
develop
nybegynner
##ilding
fotografert
forklares
fraværende
lokomot
##psis
tolker
1873
tiaret
##rome
undersøkes
rasende
stange
##anni
aldring
viljen
danmarks
pastor
davis
omvisning
vektlegges
insekt
tesla
##sjefen
gymnas
emilie
##kjeder
apart
henvender
skrivende
naust
tidsskrifter
transaksjon
stallen
##etthet
##smarkedet
vinyl
interiøret
sommerfugler
2500
##vakten
##had
amme
##ernes
lysten
glatte
reperto
rapporteres
pistol
prosedyren
lex
landegrens
bilag
smertene
konvertering
forlov
drikkevann
kompetente
java
oppsummert
brytes
samsvarer
ører
fagpersoner
##dokument
casin
kollap
spellemann
hjemland
innsjøer
tilbakemeldingene
generere
medvirkende
##jak
eventyret
skandinavisk
genetiske
##krefter
iallfall
hair
unges
sokker
forskningsradet
##vilkarene
koloni
##pete
demokratiet
stigning
##eleverand
spanj
skiskyting
nfl
##lane
vindkraft
sponsorer
hist
##eløse
##kalender
kompetansesenter
##ssykdommer
##svilkar
barrierer
##arealet
sukk
instruktører
visjonen
ride
knappe
##bestemmelse
kriser
tipsene
sop
noter
sankt
tretten
jordmor
##liga
opplæringsloven
ryn
##iber
leiebil
rytme
fedme
urettferdig
watt
frøya
krum
##sendringer
underlig
universal
makter
livred
snøs
##medaljer
columbia
##igurer
knuse
assister
ekstraordinære
byttes
kostymer
##finale
grener
zoosk
strake
merkevarer
factor
flyplasser
muntlige
uru
##hion
bilens
##ught
ulempe
inneklima
cham
chang
høgt
høvd
117
eiendomsskatt
##ingles
##idas
crist
grunerløkka
##antikk
##ssvikt
pinse
##44
##worth
spele
signifikant
fulltid
vanvittig
##sias
voldelige
##ainment
likeg
face
tomat
mentor
kragerø
organiske
gummi
##lien
lykkelige
ryan
utvidelsen
palitelige
partileder
melhus
songane
fauske
127
##historiske
patrick
nysgjerrige
hihi
tic
##leker
##master
##nytt
vane
116
biog
graham
lidenskapelig
##sbildet
bidraget
fristet
##wc
kontrolleres
søksmal
##eldinger
bød
##rakk
sesongene
anette
miljødirektoratet
nib
hakket
##skjermen
intensjoner
stans
##støtt
nevr
arktiske
##lab
radiost
utbedring
innbydende
avtalene
digger
odin
##hest
østsiden
skod
##urd
tranny
konsentrasjonen
intenst
##kose
trykt
comeb
##ration
hekle
1866
vaksine
konspirasjon
##leden
skrudd
ruud
##sfritt
woman
##ligaen
forvalte
##ildene
benytt
##deleg
mislig
studios
fingeren
popp
##sbegrens
##uz
sale
solned
lettet
lap
verter
røyker
##rikes
kongress
studentenes
korset
paradis
atlanterhavet
copyright
marina
vekttap
##utstillingen
amor
##ydelig
##sbedrift
orange
##levelser
trol
besvare
##sher
##prise
##ders
##slund
bestemmes
forskningsmiljø
##oney
tipper
##regnet
##idler
sølvmedalje
taushetsplikt
##tekster
##sgard
renovasjon
##psi
##edene
smartere
malingen
alter
##aksept
alm
arrangøren
##rapping
gunstige
##stim
løslatt
##ografien
regulerings
sensitive
toyota
##obil
tanz
##irektøren
##castle
asen
annenhver
##iren
##ould
kunngjør
##rose
##sendel
delstat
oldtid
random
##strategier
lagkamer
legem
menneskeheten
datam
##kjærlighet
sunde
følsom
undersiden
lektor
kapte
stokk
restaurering
guardi
##prosesser
kirsten
medarbeiderne
spennings
eh
kobler
nøk
jemen
##sig
##falt
##ird
mugg
daa
finnmarks
break
##skolelærer
nordlys
rundskriv
visepresident
rollespill
klaus
gord
fordype
benk
##kaster
irene
amming
gjennomsnitts
hack
farvel
365
noah
milep
triana
##skapende
søkerne
jeff
latvia
stempel
inventar
##kretsen
##rammer
tilrettelegger
##pek
kvm
rover
##irt
frel
myhre
##sparken
kk
ferg
leies
jeans
rekreasjon
klatring
##oid
utsteder
rundene
vits
##elas
produktiv
integrer
##benken
kronprins
##ikum
opplevelsene
ønskede
abu
rapportene
omg
gardene
ullensaker
pauser
vike
andreassen
##løses
skuespillerne
arbeidde
overlevert
##jas
kjærlig
sondre
manuskript
vibeke
##alin
walk
organiseres
##tegnet
begivenheter
sjør
innholdsfor
dt
nyfødte
narkotik
ritt
##oria
tidkrevende
karoline
samarbeidsavtale
##barna
ferdighetene
parkeringsplassen
snorre
##hend
##sfolk
kirka
lengder
##ici
##sfart
konkurransedyktig
oppstand
blac
illustrerer
veiledere
paraply
kikk
eter
lime
##fungerende
##punktene
visninger
oppveksten
logoen
arsregnskapet
##ities
##fect
##spraklig
brasiliansk
##kulturen
savel
risør
demonstrasjoner
gongen
##barne
ideologi
147
filmens
bakgrunner
fabrikker
##ebu
barneskole
ansettelses
unionen
##utleie
voldsomme
bøye
rend
varare
lød
privatliv
respektere
##yy
##gio
lungene
samordning
rail
maksimum
hjelm
1864
##esam
##stads
boble
portefølje
skim
inngas
tabu
##karriere
kikke
chili
østerrikske
rittet
##entt
dirigent
forbeholdt
tilrad
underlaget
realisert
surfe
##esystem
fastsla
verdensmesterskapet
humanitære
1861
etappen
skiver
fles
##sarene
reaksjonene
##rans
brunt
utsolgt
alliansen
overlevende
spontan
kalv
mdg
østen
##spoeng
arsrapport
fish
##sturer
lorent
utmatt
paføre
##sstøtte
alice
stereot
##dikt
arsberetning
søre
##leren
##verande
##ental
##uleringen
puster
rammebetingelser
flora
kamerat
##skyt
dagsavisen
betennelse
dronningen
##talende
immig
##infarkt
pornofilm
hotels
ettert
spelar
##passet
søknadsfrist
##wal
mangfoldig
performance
vervet
pusset
involvering
bevarte
korpset
operaen
psykos
artsrike
appels
kjekke
middelhav
##avhengige
check
cock
borettslaget
block
##utdannede
sponset
forela
##kommune
##strukturen
striper
installasjonen
utdanningsprogram
arvet
1872
dennis
stader
kraftigere
varaordfører
teltet
statsborg
rakett
stop
thea
##skrive
makro
stasjonene
hald
rekkefølgen
verdenscup
##ны
hareide
##strikk
brystene
fora
##kester
evige
terskel
michel
brukervennlighet
##igner
preussen
##yrket
intelligent
hasj
kontinuitet
yor
sovnet
handlekur
semifinale
tusener
framtidig
naturopp
matematiske
rykke
tunis
høstet
tilpasninger
djev
ping
provos
112
##rapportering
mystisk
sanntid
##sjekking
kronologisk
sissel
##region
koordinere
telef
hofte
kuleste
epidem
elias
opsjon
propaganda
mountain
##rix
##avi
##menyen
utløst
forutsigbarhet
##psyk
flyg
allmennheten
forbren
meiner
##plassene
guid
rollene
likviditet
astronom
##31
##angt
genu
##utikker
mottakere
forespørsler
##praksis
1868
aldersgrupper
lydspor
brasilianske
##sløftet
kognitiv
baneb
valde
rekorden
1867
##veileder
innlevering
tviler
flerkultur
##fjella
##ulvet
helter
tangen
platene
nygard
knip
##scorer
skjorter
innfri
leppene
giftige
##vas
##forretning
##skriftene
vladimir
veis
##ydende
frar
sortiment
volumet
##elk
vakte
##lerud
skildrer
klinikken
redigert
moderate
##sforvaltning
##apest
hovedutvalg
m²
vassdraget
##snot
##gy
##wick
##retsen
eksotiske
utviklingsland
færøyene
domene
vapenet
introdusere
kompatibilitet
sjarm
forvaltningsloven
##dagene
skifer
mygg
veron
nasjonalfor
##luft
ketil
##produsenten
spesifisert
erstatnings
rødgrønne
elvis
minib
shell
panor
##avtrykk
frøken
##edin
##heia
egnede
##svatnet
##hjelpen
refleks
##kledd
##geb
søstre
##ssamarbeid
alaska
##artene
leddet
fana
treninger
skyldtes
trumps
rørt
førti
##kete
##øyane
roper
økonomiplan
facebooks
bangkok
##ет
radar
reservert
etnisitet
##ams
sei
parten
palace
##jakke
states
##artist
vinen
ventilasjons
thr
winter
naboland
innvend
##inntak
medvirke
##mans
wit
##stype
map
vett
bortimot
misfornøyd
##hjert
hemmeligheter
vurderingene
tunet
tempelet
musikkalbum
presist
small
trøbbel
moses
sokn
berøring
oliver
##spenger
nøt
entusiasme
##uver
signere
##fyrt
##xxx
skuldre
##utta
rundet
markedets
klassifisering
malingene
energim
angrepene
daler
##neset
radgivende
buen
finansierings
muren
splitter
bølgen
landsbyer
vestsiden
##verktøyet
##øpere
##string
##oken
kjærlighetens
##portalen
oversettelsen
krenk
uunn
politif
menns
niende
lue
høgskoler
avbildet
##forbered
bacon
sluttspill
stammen
rabatter
dapen
jonat
##meg
velstaende
systems
kitt
nkk
undervann
##ryl
hovedtrener
pafallende
safe
aksepterte
550
134
snev
##gjødsel
fryd
magazine
forprosjekt
epler
kongeriket
##hets
fortjeneste
samtidige
forbry
isaksen
siktede
kortvarig
spesialisering
vararepresent
skjemaer
##hurt
##elid
spente
##viks
hamsun
okkupert
##zig
revol
administrasjons
bifile
ambisiøse
okkuperte
##skrit
##rika
vannd
##givere
arbeidstakeren
bevæp
##kton
210
gravde
instruksjonene
newcastle
setet
##sutd
##rustning
##hjelps
contact
##amm
uendret
kvantit
ear
##sidige
##sdy
forfatterskap
overstiger
skall
##flyt
apparater
somalia
allment
##hord
naturmangfold
postene
yrket
tvinger
##ennelsen
feiringen
##lyste
logget
##ettigede
hovedkvarter
terningkast
flekke
oppsl
##delene
bomber
kjel
røst
##riser
##stemperatur
forpliktende
sever
tril
##relatert
philip
animasjon
##idepartementet
etterlatte
dak
144
landsdekkende
fikset
mogleg
etaten
berolig
dm
vidunder
pumper
innfall
oppga
ekeberg
##rant
anime
##varene
##gjering
##klasser
velfungerende
##sommer
utgiver
##revolusjonen
tilfører
avla
striden
vendt
##galler
trek
innebygd
avstander
##smodell
harmoni
imøtekommende
##hea
##pengene
meyer
pensjonister
sadan
##oa
fashion
1874
avhandlingen
fastlegen
spises
##konstruksjoner
##ttid
formene
##aturer
torger
tilstrekkelige
borgerlig
##urderinger
ff
fame
lug
slanger
personar
119
lukker
trusselen
sard
##mand
statist
##ituasjon
##graden
deks
lørdagens
pon
næss
tl
police
snik
##svenn
hardd
##beck
##main
magi
dort
url
edin
kjøretøyer
p3
##ituasjonen
##fylling
pausen
maud
helger
plasseringer
##hardt
##olar
##ordre
neida
minoriteter
##cellene
svov
forstyrrelser
volks
1863
##ush
##spinn
uttalelsen
leik
guine
scorer
metaller
funne
##smott
keep
gjemme
uran
tallets
1859
oversette
core
smap
arctic
##runnlag
##holms
budapest
viktor
frankfurt
husholdning
bispedømme
cav
designe
sameier
##elem
forhindrer
##radrag
begrensning
oppfølgeren
its
naked
##snæringen
tradløs
##makter
death
elle
uaksept
##skt
##istenes
tropiske
lillesøster
sibir
saksliste
reservere
spektakulære
læringsutbytte
harddisk
seog
##ynes
nøyaktighet
appetitt
mareritt
opna
family
families
##sforbundet
utby
rost
delmal
julia
arbeidstakerne
fotballen
utveksle
ming
satsings
cloud
##rær
##uken
##regnskap
redskaper
##samisk
##løft
skulen
katedral
fortr
begrenses
##elven
##ningar
##room
snacks
rammeverk
okse
gjentas
gif
##rettigheter
skrivebordet
##amera
tipset
##kapp
##yter
diamant
hope
festes
vandret
frustrert
##sendring
buff
velstand
malsetning
skedsmo
anerkjenne
##sed
forskningsrad
mislykket
##inden
##smalet
aggressive
ufull
utskift
tiltrukket
intensjonen
##apper
banket
tverrfaglige
##holdelse
aggreg
sviktet
##sboliger
vager
##kab
bakte
naturvern
##spartiene
rumpe
##sprang
forsøkene
helsesøster
brutalt
underleverandører
valgkomite
hyllest
##logg
garasjen
##sstruktur
stalin
fremheve
pac
resultere
hunnen
rating
synspunkt
helsingfors
##ylt
eine
sending
bobil
bestilles
feed
##less
kennel
650
fiction
ocean
##sklær
##sbedrifter
tyveri
juice
arkitekton
##manns
konkurransegrunn
vu
martha
panelet
please
habit
nabok
kollektive
hind
##alia
religiøst
iranske
belgiske
gebyrer
isak
##mestere
avgiften
pint
##edien
beta
##skripsjon
etterlater
atlet
portalen
##instrumenter
mode
hjorte
likestillings
utvel
##avisa
ubegrens
##utgaven
tredjeparter
skjevheter
smooth
framført
sluttbruker
ferdsel
kuler
bris
testamente
kontingent
erfaren
douglas
##chus
latskriver
##rekning
fantasien
smerten
##ruk
##look
##ssamfunn
##byraer
morro
##pakken
vatnet
##sbak
digg
document
shakes
slekter
landskaps
useri
##fisket
tispe
ال
##itta
##front
drit
holmest
148
rimeligere
obligasjoner
##sklubben
board
reklamasjon
avlyst
objektiv
gresset
blid
websiden
etterlot
assosiasjoner
elsk
##indik
##shjem
##diagn
paminnelse
##stransport
konfront
investeringene
forretninger
##steg
klipper
kay
##yler
102
naboene
kikket
tryl
sirkulasjon
terminal
##pumpe
##filter
tillagt
##aktor
tilbringer
diskret
drog
leilighetene
##ел
strøket
##edo
##ameter
forutsetningen
##bokser
square
forbrenning
seoghør
##skrevne
eliminere
paa
##ssalen
visuelt
oppdages
forskeren
provins
##skolens
sachsen
investerer
feltt
dataspill
omlegging
##filosof
##arning
formatet
##rimert
twe
maxim
søknadene
##satsen
vannm
kondens
##denes
salv
illustrat
mikael
stekt
malaysia
stum
antrop
##tjenester
verdskrigen
linja
mira
ærlige
bokstavene
##type
kjøretur
##orial
høydem
mosjøen
hauger
##idde
##sfeltet
markedsføre
coc
resultert
##edrift
arsskiftet
forskjellsbehandling
vertskap
planomradet
aldersgrense
merknad
raym
##setet
hovedstyret
##øret
nordmannen
øyane
blokkere
fasit
hadeland
friksjon
kloke
volden
##retting
gjerdet
momenter
riksrevisjonen
##slas
forvirring
##spent
kirkelig
satan
israelsk
særegne
bekj
arven
finish
torstein
grant
review
arkitekten
##vapenet
sekundær
range
albu
##øyte
##ssektoren
##gaten
lock
avslatt
elitesingles
meddel
høv
sommaren
inntaket
##okal
sexdating
offensiv
innskren
teke
##skulen
forsvarsminister
##upe
bedret
henviser
jaja
forelder
rate
islandske
##rennet
been
ekspertise
fog
##skreft
##ertur
høykvalitet
##dog
seksjoner
freden
motiverende
oppholde
konkurrerte
galleriet
##debatt
##asjene
##vania
kvite
bukt
hjerteinfarkt
price
avst
##skillig
##radisjoner
mh
nost
sac
napoli
multip
##udder
kokt
orion
klepp
nautiske
bemerk
overskrifter
bandene
næringsvirksomhet
vipps
juan
blandingen
kompensere
ufrivil
selgere
terskelen
aksjoner
##assende
##remøte
gut
forvirret
##icle
lenken
myrdet
hits
days
##oping
##imen
barner
derby
##sdyr
sjøs
##skifting
rutinene
erklæringen
organisatoriske
saaa
##sbl
lokalisering
skoger
kronikk
lamper
borgerkrig
europam
##rama
ferdin
diagnoser
prince
##serende
##følging
monum
originalen
##elovens
fjerd
foredragsholder
holmestrand
##mil
##kkelse
lekte
asane
##forma
eksemplene
bittel
##næs
##renge
ramp
formulert
##acy
sjafører
serverings
oppfylles
marginal
ym
##uu
##slutt
analsex
bevilling
sakkyndige
kompetent
fossen
grammatikk
ion
skisse
utendør
##elsesp
brukeropplevelse
pictures
geologiske
informerte
plakater
##sølv
toronto
investor
##rif
volds
nominasjon
dance
aasen
isf
charter
anklager
usynlig
beviser
kunngjøring
lyttet
kara
nesodden
uefa
garderoben
##sbasis
metabol
forelesninger
muhammed
##him
griper
##egjen
##kjole
##itivt
peer
armband
sme
overfør
##appen
##onna
filene
##achim
superhost
##dtr
tillot
sofia
bunad
kyn
ubru
##iget
stanser
aksjekapital
heavy
sadd
fratatt
handbok
tømme
##stock
##statning
##øpte
tonen
spesialpedagog
##institusjonene
##advokaten
forbunds
fornærmede
bosnia
virtuelle
sjokker
jakter
duket
konfron
oppdateringen
electric
blø
larver
skamløs
oversettelser
blabær
damli
##sykehus
fagbrev
søndager
torden
membran
##kingen
##akademiet
skyer
pollen
roulette
##lektet
##kjen
baseres
innkallingen
skumle
##andy
sjeldnere
114
##55
forsa
rope
medikamenter
storhet
forberedelsene
##merking
##kritikk
##vning
varamedlem
##beth
smykke
##arka
kolleksjonen
representantene
publiserer
sørum
pølse
lanka
straffeloven
fotos
129
medaljen
filosofiske
etat
container
##inda
fullstendige
dverg
testosteron
stillingene
arstid
##bestilling
##forskjeller
ingebrigtsen
bede
##entes
##intens
##fuglene
lh
##ит
innledningsvis
kinn
1862
##ulus
tysker
##øsninger
##sender
minske
etterspurt
##tech
##utions
joachim
løpeb
##drøm
leide
meldingene
rain
arsmelding
antikke
krigsf
##alisert
strat
franz
##verter
kvartfinalen
kanseller
hebraisk
lampe
mp3
billy
greia
##bang
##sterk
nedslag
innsett
##filt
tannlegen
##wall
reaksjonen
budde
dennes
skiftende
tilsetting
grøt
glitter
overlevelse
luxembourg
##rier
anerkjenner
pit
tomas
ukrainsk
parkeringsplasser
tyng
noregs
tradløst
tiltale
smas
fronter
rbk
##foretaket
fremhever
##fia
##atisert
inga
overholde
leop
organismer
solar
kompan
kartleggingen
sportslige
erfare
##mannet
##stokken
støttespillere
which
kjedelige
shakespe
ayl
##ykket
kanalene
basil
droppe
utvand
ledninger
podcast
likeledes
skipa
tord
akademiet
matematisk
holoca
trofast
##upen
##nov
verdenskj
sinnet
medisinen
birkeland
pack
besatt
##ledelsen
##foreningens
istan
##junkt
helsefremmende
korrid
##forbundets
##orp
##ivisjon
hoder
visjoner
avvisning
balansere
papirer
offeret
besteforeldre
rights
##kontrollen
aktivert
##sporten
katar
lanek
drinker
##kostninger
opphavet
hentai
banebryt
lansere
skib
lagkonkurransen
tros
tower
boss
kvarandre
amalie
flekkefjord
##sand
avføring
arbeiderpartiets
due
praktisere
akseptabelt
arbeidsledighet
orket
biff
simpelt
##rikke
dybden
##isset
døv
##burgh
pilegrim
##ettverk
##aterer
handicap
inkass
bikini
##ølle
slang
kostbar
diskuterte
beleir
satur
##ize
merkelige
inflasjon
stale
##grip
##uld
konvensjonelle
##uit
rau
flex
##oksen
##ebra
slovakia
implementert
stay
komedie
draper
##flater
mottakeren
langrennsløp
yes
##turen
siem
forsket
elevens
edge
esa
quality
egersund
automatiske
sjeler
computer
##berry
##pakker
##kvart
##atra
bakfra
chatter
fjorten
##smodellen
##vakter
##oge
lien
beslektet
kompetanseheving
droppet
##atn
##agende
##rieren
amanda
ordner
streaming
vektlagt
1869
sprøyte
uregel
##uster
aver
lillebror
arsjubileum
istanbul
totten
transpar
explorer
##itus
##støtende
avsp
betegner
flyktningene
ungarske
snøsco
##trende
##gjande
rade
bidragsyter
innspilt
oppfatte
vem
makedonia
underord
identifiserer
kantonen
deigen
##bestanden
søn
betegnes
innredet
##rein
uformelle
tut
olde
##misbruk
##oldater
unorm
arenaen
hyppige
##hire
geolog
analysene
anfall
statnett
skremt
spedbarn
skin
##sfamil
##tiltak
roligere
skotsk
ppt
filtr
humøret
symfon
givende
enkeltvedtak
prestere
bankens
##fd
##skule
##oppsett
lukten
barbering
menstruasjon
samhandle
bagasjen
##inere
stur
##ringet
katrine
##kord
##emperatur
##ingsmuligheter
entertainment
jostein
##sfulle
askøy
ernærings
uføret
hja
##aff
rita
##oz
##erklæring
døve
akkum
tsjekkoslovakia
##perspektiv
##drevne
##musikken
airlines
diamond
pratet
##nde
kjerring
##lopp
##støtten
sosialhjelp
blackja
##bek
kjens
særpreg
kwh
##veiende
avver
registreringen
porto
##esystemet
giver
##entusia
asss
sandra
##holdning
##holdige
bakker
bakre
fosen
verkstedet
bah
størrelses
gruppespillet
##ipt
sement
gjennomfør
frokosten
fratse
katedralen
hawaii
sao
kritikere
scandinav
fangene
merkene
toppløs
peak
avgitt
ian
kunngjort
turnus
utformes
##adi
endrede
havar
tallrike
beretning
usannsynlig
kirkene
manedlig
avvikle
carolina
datidens
kommentert
dyrking
sengetøy
innflytelses
##pis
pagatt
avslør
swing
setningen
##gis
verdighet
tving
##ат
handlingene
##sdotter
##fester
hallingdal
comeback
paper
utbygd
profitt
kosovo
utlevert
tilbakebet
fallet
##got
##urist
##rager
##konf
dykke
stadige
ante
ergonom
informerer
four
ore
verkene
innkalles
arsregnskap
##distri
##bølge
##san
tilflukt
opin
traktaten
eksplisitt
imponerte
antioksid
published
##sfasen
huser
##eledere
haukeland
##egangen
##vild
smell
lydighet
beliggende
blackjack
##esett
bekjentskap
tastaturet
zam
stengte
handelshøyskolen
slot
betjen
matproduksjon
every
pest
rattet
author
simonsen
overraskelser
aggresjon
samstund
interessenter
126
majoriteten
##tun
vardø
bearbeidet
sche
otta
ulven
firen
overlegen
reporter
forskningset
##fradrag
synke
classic
development
barbere
løve
solli
birger
##ingane
homoseks
spilleautomat
##givers
##ræ
secret
tilhold
##sfordeling
voldelig
statsborgere
##lesias
opplevelses
fotografere
utgir
uniform
##ekst
pusle
statsbygg
samstundes
##seid
finanskrisen
##savgiften
cia
##deig
perifer
skjærer
tettsteder
eksperimenter
##eglene
##fjellene
kirurgisk
overensstemmelse
svinge
smule
børge
unntaks
lyt
fotografen
ondskap
tottenham
##skill
forbig
komponert
tilværelsen
##skinen
autonome
hukommelse
##jener
permanente
verft
##stema
skjønnheten
##fanget
flekk
##atus
beate
likheter
fastslar
##sdager
##sforum
delegasjon
tuberkul
ufattelig
##hud
fjes
spesialundervisning
reviderte
##hetens
naturgass
leia
utsalg
##harmon
thaimassasje
##ingsarbeidet
sundet
rehabiliter
innanfor
##cao
boe
vaskes
##burn
tilførsel
muskulatur
uforglem
oppsummerer
gjenv
synlighet
studium
ungt
##samlinger
distansen
morgendagens
rey
##freds
farges
##nementet
nøytrale
drist
bowl
forsiktige
tynnere
##forand
marsj
##couver
plikten
avtalte
utarbeider
gaus
stewart
nordmennene
oecd
gur
ettersyn
inhabil
løperne
##witz
likeverdig
##bygninger
aven
##ppes
kjøkk
byggherre
krevd
bearbeide
##stjenestene
forskningsprosjekt
pigg
320
fredriks
area
penet
##steiner
senatet
##budsjettet
gast
tsar
##pynt
foregatt
##invester
varmet
gjennomgikk
ukentlige
##utfordringer
bystyre
ranet
stevner
tilbrakt
##kjert
anbefalingene
sammensetningen
##talen
favor
trade
anderson
strong
##fortjent
utdanningsinstitusjoner
separasjon
##sforsikring
magic
##sikre
##letter
overføringer
reserved
nore
franskmennene
fosfor
naturreservat
ips
sare
springer
hate
size
svenska
konsist
korresponder
second
##angrepet
netthandel
rotasjon
##muren
hvete
kroken
##svold
batteriene
islamsk
jakobsen
sanse
instrumentet
biskopen
bebyggelsen
##ии
fader
##oppdrett
##ipping
##inspe
kja
##garanti
drastisk
tilbyder
trangt
snittet
klimat
nin
vennen
step
sikrings
dannelsen
husholdninger
##halvøya
farmen
barnehjem
zero
##plassert
datterselskap
australsk
##dokumenter
rul
##drar
136
uteksam
dominerte
ryttere
fs
henvist
lincol
pekt
sperret
provo
ferje
##utviklet
##aux
sagene
##ssituasjoner
sjokkert
verge
miller
miami
account
empati
maj
idrettsh
hjemmelag
arbeidsoppgavene
storfe
posen
vanilje
##steam
willy
alpint
mjøsa
1854
komiteer
utviklinga
rival
baser
kveldene
bjørke
salten
demningen
dokumenterte
løperen
gag
##brevet
oversiden
aksjonær
revolusjonære
ødeleggende
qa
##ofer
##rick
betegnet
pattedyr
nv
avinor
##aper
andresen
##lytt
puppene
##halvaret
erverv
handtak
vancouver
senja
upassende
finanstilsynet
battle
bysant
nøl
takler
kiev
transportsentre
nyttarsaften
##lyset
kind
##marker
slekta
lenin
margaret
vanskelighet
omstendighetene
romslig
##anel
helsereg
repetisjon
sluk
124
motto
magasiner
##anene
##styrte
sild
dramatikk
indikatorer
##grensen
brist
cass
skjerf
##gjennomsnittet
##ssykl
begeistring
utskifting
##sforstyr
##villa
belastningen
herjet
##ledd
vibrasjon
elegante
dekkene
sletter
salong
sjuende
##etilbud
kaldere
kullet
bustad
holocaust
rju
##elberg
sight
fjellom
steam
##slinje
kronen
strever
aksjonærer
komiteens
sorgen
kjønnene
##dater
varens
##alende
very
##hjemmet
agency
drifte
misunn
gassen
konkludere
utbetalinger
talen
tarene
skiene
karls
linde
##adron
##føreren
meningsmal
orkdal
##oppene
##hvit
##stilen
lymf
doblet
malgrupper
variabel
also
dagblad
sønnene
uformell
realesc
titte
avtales
betalingsm
ekspertene
give
##jenest
rever
blomstrer
svakhet
veilederen
korrigert
østens
fritidsaktiviteter
jen
tul
sekk
##offiser
fern
##siv
knærne
rekorder
malsettinger
misnøye
sært
##sendes
##ibos
##feltene
bevegelsene
arktis
guri
##øyne
##belastning
cambridge
dekorert
rettighetsha
##uela
trykkende
historikere
effektiviteten
erfart
##kilder
##ysen
træ
næromradet
nordmøre
abel
##guay
atlanta
pix
distin
quick
security
##slaks
anno
ferdinand
safari
kritisere
fd
glir
betrakte
##beredskap
grunnvann
bestikk
138
grensesnitt
minnene
storebror
##sas
likesa
koreansk
##kjøttet
##magasinet
rikere
regjeringer
push
tunneler
##iem
##bland
nettlesere
restitusjon
sparken
cha
ulikheter
overbevisende
skiskytter
kasse
##dar
##lerne
##unk
modig
##modus
booket
enslig
##stimer
fornebu
straum
vitnemal
##illes
effektivisering
kameraer
layo
nostalg
suppe
konsepter
sortert
##stasjonene
##ledende
##valu
nevneverdig
##ørrelse
##strøk
skryt
øyek
overraske
kloakk
boligmarkedet
helhetlige
rolling
kanoner
morges
mandel
forsvarte
##brede
negler
karakteristisk
disponerer
barneverntjenesten
formues
exp
##skrivning
lol
ørkenen
##hordland
utmerkelser
arenes
##faktorer
##gud
solskinn
uvanlige
##sbeting
tjenestegjorde
kem
velt
auka
spredd
utmark
seie
høste
mango
inspirerer
kredit
synnøve
rica
oppføringer
intellektuelle
identifikasjon
##jarane
banebrytende
ding
bukta
workshops
høgd
##myra
brøk
tynset
111
fuglen
pagikk
kapitler
reglement
marmor
bataljon
##mesterskapet
databaser
##sammenheng
jenn
innsatt
lyde
ypperste
##nasjon
##erfaring
1815
lide
overlevd
dynamiske
auk
##chel
forfrem
tilbydere
afrikansk
telefonsam
boller
##staur
fortelles
1857
pakk
helgens
aleksand
carlos
##akim
##gesen
bydelene
salom
think
outlook
##hoff
##ederlag
pameldings
sporter
##angeren
elementet
toalettet
lg
##boa
balkan
##aktivt
observerte
##ferdige
importert
konsentrasjonsle
fleksibelt
bolle
##stog
##alar
wy
##rammen
eksakt
utkom
cool
gjert
##nettverk
innfødte
dokumenterer
uskyldig
##abu
knuste
139
overlatt
sametinget
##sbevegelsen
##merkene
##chs
fenomener
glomma
##lært
landhockey
jay
multim
gammeldags
overenskom
phd
mistenkte
høyresiden
fremlagt
levealder
kosmetikk
balkong
consult
##keren
pubert
draps
estetikk
hugh
rf
##lesing
havs
nettavis
morgan
blogget
fylkesmannens
ellev
intervj
rekt
henrett
innvandrings
trossamfunn
emosjonell
##oi
responsen
instruks
tykkere
education
ges
##team
fotografer
##medlemmer
progressive
kloden
kathr
forhindret
##ody
brutale
uruguay
##ged
##eledelse
mikkel
diego
bryggeri
forbrytelser
verdensbasis
christina
presses
ral
regninger
plastikk
ohio
future
rører
##uly
motiverte
rensing
psykologer
kastes
##stiftelsen
jakte
##mappe
trinnene
##bag
arom
eksponer
##regnskapet
slim
##usener
talls
helheten
fotografi
framgar
morsommere
fremmes
fattes
reson
##sjob
rant
ustabil
##ressa
administrator
strek
##camp
ektepar
elendig
dall
##slinjer
castle
##støv
kunstige
datainn
##amn
verds
canad
hormoner
skadedyr
corner
splittet
klokkes
hurum
##møtte
##derte
innholdsfortegnelse
##vnet
paverk
anark
##sband
overnatte
geneve
##gede
utbruddet
##iful
barbara
mccartney
##sformen
laner
malin
##skyl
##kapitalen
##cross
sjans
bokmerk
##søket
apparat
prer
malmo
skepsis
idol
##elier
midtban
pakrevd
orch
smeltet
##fylke
ringsaker
agendaen
cong
##sekken
stormen
##sfeng
melbourne
argumentere
flyfoto
steel
psykop
mf
viker
lego
kafeen
overvann
appell
unødvendige
rjukan
division
anslar
karb
hitra
##imo
formelen
arbeidsutvalget
skreddersydd
avvikles
##rerne
tomter
champagne
##fellesskap
##imene
betjening
##belast
nytter
eksepsjon
##ktorer
vitenskapen
##inten
reservo
##stemme
argumenterer
skinne
regjerende
navngitt
##fett
triste
parkere
1856
##esta
gaz
##ringene
boliglan
##indeks
##alternativer
fjernvarme
lyngdal
##anga
nid
follow
##foreningene
tonje
ana
søkelyset
døme
anonymt
retorikk
xii
spres
##ief
utgje
ordtak
brannvesen
rutene
##manske
##murer
drukket
##pulver
startes
oskar
##bjel
arbeidsgiveren
somme
137
skyve
trip
jimmy
fornøyelse
fokuserte
venus
##sstaten
spilletid
##lignende
styringen
triat
firm
substant
##forekom
nødhjelp
effektivisere
insent
strømme
kutter
vraket
##streken
fredagen
babyer
fremstille
poste
radikalt
nøtterøy
bemerkelses
pes
nokut
frisp
talib
##osene
cooper
stygt
psykiatrisk
tykt
odda
erkjennelse
firenze
ix
veske
religionen
uenige
skane
planleggings
bonder
frelst
##jobben
##klipp
flokken
truse
samer
##musk
innhenting
supportere
statistiske
gudene
bedrifts
studiekompetanse
ferrar
roten
cin
holding
##ssammens
kennedy
##komment
##synlige
##instrument
anmodning
nansen
##herred
utdanningsdirektoratet
##egle
##nete
gregor
cerambycidae
##erest
konvertere
tveit
##obi
half
tilsluttet
##etab
slenge
krises
høland
##jekk
herved
opphørte
##estasjonen
landsom
cad
personbiler
hovedoppgave
skarpt
##byrd
##selgeren
tomte
attent
pensjonsk
sims
whe
##fjer
frelser
løypene
innklagede
ie
kunnskapsløftet
##melde
historielag
passform
opplyses
skallet
usikkerheten
kontroversielle
##akom
##sseremon
##platen
##snø
utøvelse
forside
estetisk
lincoln
hygge
konsol
trappen
##iljøet
regelmessige
attraksjon
mobiltelefonen
##од
history
##sfunksjoner
dosering
klagenem
##senheten
medlemskapet
moms
##sstudier
passordet
bowie
tertial
framme
boligkjøp
urolig
thon
kulturarv
søndagens
##sosial
tennes
##sman
##bers
##onda
breen
skeptiske
##ssing
dagbok
namdal
sonja
halen
tjø
##forsik
fæ
referere
##lubben
fresh
hio
vadsø
stek
makta
##kjøkken
valentin
banner
##polen
asylsøker
skuffelse
hausten
lub
pannen
##etak
##spir
##kretser
brook
inspirasjonen
permalen
##asia
##spres
diktene
##ower
hindi
nettbaserte
##førende
##smateriale
vanlegvis
##utviklere
justisdepartementet
hørsels
minimalt
##stillat
##veiled
bading
fatter
partik
færøy
flamme
trappe
mamm
afgh
nifs
skrap
arbeidsmiljøet
hverdager
avviker
##stillegg
tyve
landsbygda
1855
tidligst
mastercard
clean
laboratoriet
##byggelse
skulderen
stortingsvalget
korrigere
gahr
tanzania
palegge
dys
skogs
##jof
joakim
avledet
scenekunst
guinea
##ogner
baseb
##stoffene
kantene
##seminar
stimulering
rustfritt
kavaler
hij
nordsiden
##sarbeider
iglesias
##arte
varmer
##lock
tool
advisor
forventede
hab
##sbrevet
philips
eksistere
garantier
kvikksølv
avling
##stadt
plateselskapet
##blokker
appene
forfattar
oppreis
steril
##likasjon
##num
birke
dell
reproduksjon
aminos
spalt
luksuri
banglad
##miljøer
money
analog
##arker
slimh
feilene
##ал
arbeidsinn
inntok
modernisering
craig
1845
oppdrettslaks
fysioterapeut
##raftt
balanser
##pasienter
andeler
dødsfallet
portugisisk
antisem
##oko
123
tare
##odi
trelast
brav
kha
##prosa
##studium
umb
##ento
moduler
where
virkedager
tillitsvalgt
##istik
miles
darleg
hl
##forløpet
befrukt
spesifikasjon
##otten
surt
##ives
datag
veksler
##edelse
forespørselen
##aro
##anderende
##stjerner
paralymp
forma
konkurrent
sakkyndig
##stater
say
neil
erfarer
vedtaks
##bevegelser
##rele
eksplosjonen
##erty
hyllet
selvfølelse
omstridt
##ref
linser
bringebær
wonder
underskrift
materialene
enhetlig
##espesial
funksjonsned
ubehagelige
friends
trem
slur
##domen
drapene
gele
##alerne
##althe
miljør
vinkler
howard
##yrkje
lading
aure
hamas
verdifullt
utestengt
##sbakgrunn
lass
læreplanen
bydeler
##esektoren
bran
forund
bondevik
bega
lerret
dash
eksponert
sicilia
cred
##innd
bekke
nettbasert
##sjan
##ferdighet
1820
johaug
##gande
##sglede
1851
innkrev
offensive
a4
##ininga
anløp
103
kløe
cov
tenne
hundret
paføres
sink
skager
##attle
prege
beskyttelses
1837
aal
shet
##xy
anført
perfeksjon
iført
jas
ferdigstill
tillatelser
glø
havbruks
profeten
pagang
slovenia
permalenken
sunget
xn
fartøyer
daten
##synt
##befolkning
prøyss
##slov
##etiske
johanna
brennevin
hierark
##edagene
verksteder
corporation
##skrem
##snytt
##otekn
sugar
gjenskape
##ransa
kommentaren
##etilsynet
innvandrerbakgrunn
føderale
selvang
syltetøy
ustab
oppsettet
folkens
court
testes
##kalle
##sfrihet
skansom
mastur
appeller
diagnostikk
manedlige
bjørnar
felling
marthe
##quist
##materialet
laura
chip
klemmer
vanskeleg
earth
##produserte
##uda
likeverdige
vaksiner
##skjære
gynek
##vekten
lia
##universitet
binding
raymond
aids
##avhengighet
terrassen
nelson
poengsum
sark
##enburg
##essor
dyrev
fasaden
orkan
canaria
respon
kognitive
##maten
twh
motstrid
##offis
##egnelse
kneet
metodikk
##amus
matrikk
borge
skinnende
landeveis
proses
femt
unngatt
velkomne
beskjedne
demonstrere
##vidda
##alis
svol
evighet
gjenvalgt
sertifikat
slyn
eritre
fiskes
##monopol
forurenset
utløste
these
kiwi
artistene
sommerferie
illustrere
samfunnsøkonomisk
paber
operatører
hotellrom
spesialenheten
pastandene
underviste
evakuert
##alisme
hovedar
torgeir
foreldres
bølgene
tilpassede
utelatt
lekkasje
saka
forsikret
bakkene
smidig
forsking
hyster
kystverket
utførelsen
gjennomtenkt
eike
dyra
bursdagen
ensidig
##lica
##icus
##økonomien
eigne
aksjem
ærlighet
yoghurt
votering
##ар
##itan
befri
arc
tommel
jødedom
kombinerte
adams
familiemedlem
##esiske
slakter
##modig
##studie
agenter
helsetilsyn
##jande
##stes
cott
freg
inngrepet
signe
frustrerende
jonathan
##rib
førere
##lyse
inntekten
today
##iy
##kontroller
era
##høye
nordligste
holmenkollen
##mengden
flak
##pm
kunngjorde
knus
eggen
##iper
frida
embed
ingvild
sletting
antydet
benz
laila
kjærlighets
laurit
tv3
norrønt
##lus
##stillende
dammen
##parad
søkelys
belastet
##akultur
brukergrens
kostbare
sweet
gand
##isjef
kosten
aaa
samboeren
##rab
fullmakter
helsestasjon
aylar
zom
##sykt
##øyting
arnold
oppheng
gjennomgangen
konferans
foreliggende
regningen
nedbryt
paulsen
tippeligaen
##inf
framstilt
oppgitte
sovjetisk
hunt
whisk
machine
utfra
innland
tillegges
##media
uendelige
bk
##illo
ironisk
olivenolje
nygaard
grey
dødelighet
##oterapi
javas
genseren
##annel
farsund
sommerfugl
hotellkjeder
ruth
journ
avsnittet
##skaret
##shot
##sbesøk
forbedres
engineering
##utninger
desentral
løpetid
bøter
radioen
##chet
##seeing
taiwan
besittelse
mettet
admin
##skatten
enzy
##aterialet
lesning
##gripende
guder
inndelingen
146
##ibosome
preribosome
tilgivelse
kvalt
krys
##vinnere
##ctive
##ubben
negl
skarab
omfor
formater
##meldte
##utdannelse
##egruppa
samarbeidsprosjekt
koblingene
gjenn
arvid
##ization
##sforskjeller
##zel
forordning
demo
teologiske
mages
regnskog
klassekampen
sommerens
##sskole
hills
bonderom
kink
kommunane
evert
kelly
handfull
hekke
omsorgstjenester
støttende
lindes
weekend
bangladesh
rick
høyreklikk
jup
høydepunkter
granitt
cæ
angis
erkjenne
oppfatningen
slutta
helsetilsynet
##likning
forhøyet
sæter
##sforeningen
##merkninger
##ekret
fbi
nissen
##sek
##produsert
tillatelsen
mappe
##ykt
skuddet
brukar
##espel
##zing
mast
##organer
indikasjoner
##inettet
##sbeg
tamil
##gionen
skate
fredriksen
relative
erich
leietaker
kristent
bukse
teateret
pern
##brune
dies
promille
away
arb
operativsystem
nationalthe
##urser
tragisk
rakke
##stillingene
sivilis
mk
##stipend
helseproblemer
plukker
forg
nabolag
lojale
landsomfattende
##sevnen
epile
##sklassen
fettsyrer
nash
chate
skoleeier
##innlegget
nordby
##rip
unni
##sklasser
sovet
##ev
vink
ressursbruk
susanne
oc
##andaen
etg
kreps
advokaten
##tall
byggen
verdensarv
uller
googles
svikter
##valitet
presise
m3
nun
##indeksen
hyttene
pinner
##øra
forske
##ffekt
kommenterte
magnes
##roprakt
sitteplasser
##skvelden
utesteng
##ef
spilling
nedfelt
aurskog
kollektivtransport
connect
lum
dek
skrittet
regionens
fagmiljøer
herregud
ift
##mels
##sking
morris
frøy
arab
opparbeid
lepper
røttene
##smiddel
venezuela
gly
andy
kambod
jere
spørsmalstegn
brutal
lærdom
qatar
tilknyttede
oppskriftene
##wagen
dannelse
sparta
baderom
##nære
riksantikvaren
dej
vestkysten
##seksjonen
##poster
soldaten
##hopping
##come
##arna
kanari
beslekt
fastsettelse
butter
tretthet
kapteinen
vega
mistenkelig
##ogram
barneskolen
##strener
introdu
mislighold
vanskeligste
sjelevenn
fagomradet
montreal
##sprinsippet
##ites
forkjøp
##endere
langsom
wag
arbeidstiden
##lsberg
utredninger
das
##issa
##utbygging
politik
finansieringen
sykefraværet
##ortene
symmet
border
torped
kvinnenes
280
beb
knappene
##legaste
truende
brothers
lotto
sour
sporing
hette
uoffis
flow
forfri
change
støpe
##lesning
diare
impulser
utgis
mislykkes
adren
flyselskapet
hovedrollene
hule
##sspiller
##volum
punk
sammenslaingen
stemplet
##atem
kanadiske
undervist
klages
##student
artar
mekanismer
пр
eksempelet
eiendommene
mjøndalen
anthony
utfol
##serklæring
##unnel
trekket
##vedrift
utelukke
skysc
soren
oppfunnet
tyskere
majoritet
##mansk
arna
##svide
konsistens
misforstaelser
atv
skoge
identiteten
1858
independ
muller
uer
overvinne
messing
##sgrupper
halvannen
challenge
ubegrenset
##klund
pornos
kram
##porteføl
smag
talmodig
fullfører
##aven
##strinnet
argumentasjon
##inar
leverings
dave
merken
utøves
putte
##ilskudd
syden
gyldendal
1849
kaffeb
høydepunktene
kings
##apne
alles
##styrkene
markedene
skygg
variasjonen
amig
kurven
##bestemt
klum
videreformid
stjal
røa
sylvi
tilværelse
raw
arbeidsdag
##sag
løsne
massen
sanitet
hpv
##ologene
utvidede
misjonær
solutions
##søkning
landsgjennomsnittet
rutinem
nerd
smelter
flashback
##øla
geor
##videoer
flue
kontrollutvalgets
newton
betrakter
perfect
klienten
keis
regissøren
aserba
henvende
transporten
omganger
##senheter
handtert
bosetning
##ningsanlegg
presidentvalget
komponisten
drøfting
##ils
eliten
renset
uganda
forsavidt
dernest
kjempek
kirkegarden
##skonferansen
##raper
sofistik
##rurgi
shorts
budsjettert
koma
statusen
address
##ialisme
prater
konsentrasjoner
varsles
vennes
crazy
kristoffersen
ln
tettstad
intervjuene
##blokk
##porten
tilleggs
joker
nordea
høyhastighet
uteb
vitser
psykosos
##egro
learning
arrangørene
[...]
