[PAD]
[unused0]
[unused1]
[unused2]
[unused3]
[unused4]
[unused5]
[unused6]
[unused7]
[unused8]
[unused9]
[unused10]
[unused11]
[unused12]
[unused13]
[unused14]
[unused15]
[unused16]
[unused17]
[unused18]
[unused19]
[unused20]
[unused21]
[unused22]
[unused23]
[unused24]
[unused25]
[unused26]
[unused27]
[unused28]
[unused29]
[unused30]
[unused31]
[unused32]
[unused33]
[unused34]
[unused35]
[unused36]
[unused37]
[unused38]
[unused39]
[unused40]
[unused41]
[unused42]
[unused43]
[unused44]
[unused45]
[unused46]
[unused47]
[unused48]
[unused49]
[unused50]
[unused51]
[unused52]
[unused53]
[unused54]
[unused55]
[unused56]
[unused57]
[unused58]
[unused59]
[unused60]
[unused61]
[unused62]
[unused63]
[unused64]
[unused65]
[unused66]
[unused67]
[unused68]
[unused69]
[unused70]
[unused71]
[unused72]
[unused73]
[unused74]
[unused75]
[unused76]
[unused77]
[unused78]
[unused79]
[unused80]
[unused81]
[unused82]
[unused83]
[unused84]
[unused85]
[unused86]
[unused87]
[unused88]
[unused89]
[unused90]
[unused91]
[unused92]
[unused93]
[unused94]
[unused95]
[unused96]
[unused97]
[unused98]
[unused99]
[unused100]
[unused101]
[unused102]
[unused103]
[unused104]
[unused105]
[unused106]
[unused107]
[unused108]
[unused109]
[unused110]
[unused111]
[unused112]
[unused113]
[unused114]
[unused115]
[unused116]
[unused117]
[unused118]
[unused119]
[unused120]
[unused121]
[unused122]
[unused123]
[unused124]
[unused125]
[unused126]
[unused127]
[unused128]
[unused129]
[unused130]
[unused131]
[unused132]
[unused133]
[unused134]
[unused135]
[unused136]
[unused137]
[unused138]
[unused139]
[unused140]
[unused141]
[unused142]
[unused143]
[unused144]
[unused145]
[unused146]
[unused147]
[unused148]
[unused149]
[unused150]
[unused151]
[unused152]
[unused153]
[unused154]
[unused155]
[unused156]
[unused157]
[unused158]
[unused159]
[unused160]
[unused161]
[unused162]
[unused163]
[unused164]
[unused165]
[unused166]
[unused167]
[unused168]
[unused169]
[unused170]
[unused171]
[unused172]
[unused173]
[unused174]
[unused175]
[unused176]
[unused177]
[unused178]
[unused179]
[unused180]
[unused181]
[unused182]
[unused183]
[unused184]
[unused185]
[unused186]
[unused187]
[unused188]
[unused189]
[unused190]
[unused191]
[unused192]
[unused193]
[unused194]
[unused195]
[unused196]
[unused197]
[unused198]
[unused199]
[unused200]
[unused201]
[unused202]
[unused203]
[unused204]
[unused205]
[unused206]
[unused207]
[unused208]
[unused209]
[unused210]
[unused211]
[unused212]
[unused213]
[unused214]
[unused215]
[unused216]
[unused217]
[unused218]
[unused219]
[unused220]
[unused221]
[unused222]
[unused223]
[unused224]
[unused225]
[unused226]
[unused227]
[unused228]
[unused229]
[unused230]
[unused231]
[unused232]
[unused233]
[unused234]
[unused235]
[unused236]
[unused237]
[unused238]
[unused239]
[unused240]
[unused241]
[unused242]
[unused243]
[unused244]
[unused245]
[unused246]
[unused247]
[unused248]
[unused249]
[unused250]
[unused251]
[unused252]
[unused253]
[unused254]
[unused255]
[unused256]
[unused257]
[unused258]
[unused259]
[unused260]
[unused261]
[unused262]
[unused263]
[unused264]
[unused265]
[unused266]
[unused267]
[unused268]
[unused269]
[unused270]
[unused271]
[unused272]
[unused273]
[unused274]
[unused275]
[unused276]
[unused277]
[unused278]
[unused279]
[unused280]
[unused281]
[unused282]
[unused283]
[unused284]
[unused285]
[unused286]
[unused287]
[unused288]
[unused289]
[unused290]
[unused291]
[unused292]
[unused293]
[unused294]
[unused295]
[unused296]
[unused297]
[unused298]
[unused299]
[unused300]
[unused301]
[unused302]
[unused303]
[unused304]
[unused305]
[unused306]
[unused307]
[unused308]
[unused309]
[unused310]
[unused311]
[unused312]
[unused313]
[unused314]
[unused315]
[unused316]
[unused317]
[unused318]
[unused319]
[unused320]
[unused321]
[unused322]
[unused323]
[unused324]
[unused325]
[unused326]
[unused327]
[unused328]
[unused329]
[unused330]
[unused331]
[unused332]
[unused333]
[unused334]
[unused335]
[unused336]
[unused337]
[unused338]
[unused339]
[unused340]
[unused341]
[unused342]
[unused343]
[unused344]
[unused345]
[unused346]
[unused347]
[unused348]
[unused349]
[unused350]
[unused351]
[unused352]
[unused353]
[unused354]
[unused355]
[unused356]
[unused357]
[unused358]
[unused359]
[unused360]
[unused361]
[unused362]
[unused363]
[unused364]
[unused365]
[unused366]
[unused367]
[unused368]
[unused369]
[unused370]
[unused371]
[unused372]
[unused373]
[unused374]
[unused375]
[unused376]
[unused377]
[unused378]
[unused379]
[unused380]
[unused381]
[unused382]
[unused383]
[unused384]
[unused385]
[unused386]
[unused387]
[unused388]
[unused389]
[unused390]
[unused391]
[unused392]
[unused393]
[unused394]
[unused395]
[unused396]
[unused397]
[unused398]
[unused399]
[unused400]
[unused401]
[unused402]
[unused403]
[unused404]
[unused405]
[unused406]
[unused407]
[unused408]
[unused409]
[unused410]
[unused411]
[unused412]
[unused413]
[unused414]
[unused415]
[unused416]
[unused417]
[unused418]
[unused419]
[unused420]
[unused421]
[unused422]
[unused423]
[unused424]
[unused425]
[unused426]
[unused427]
[unused428]
[unused429]
[unused430]
[unused431]
[unused432]
[unused433]
[unused434]
[unused435]
[unused436]
[unused437]
[unused438]
[unused439]
[unused440]
[unused441]
[unused442]
[unused443]
[unused444]
[unused445]
[unused446]
[unused447]
[unused448]
[unused449]
[unused450]
[unused451]
[unused452]
[unused453]
[unused454]
[unused455]
[unused456]
[unused457]
[unused458]
[unused459]
[unused460]
[unused461]
[unused462]
[unused463]
[unused464]
[unused465]
[unused466]
[unused467]
[unused468]
[unused469]
[unused470]
[unused471]
[unused472]
[unused473]
[unused474]
[unused475]
[unused476]
[unused477]
[unused478]
[unused479]
[unused480]
[unused481]
[unused482]
[unused483]
[unused484]
[unused485]
[unused486]
[unused487]
[unused488]
[unused489]
[unused490]
[unused491]
[unused492]
[unused493]
[unused494]
[unused495]
[unused496]
[unused497]
[unused498]
[unused499]
[unused500]
[unused501]
[unused502]
[unused503]
[unused504]
[unused505]
[unused506]
[unused507]
[unused508]
[unused509]
[unused510]
[unused511]
[unused512]
[unused513]
[unused514]
[unused515]
[unused516]
[unused517]
[unused518]
[unused519]
[unused520]
[unused521]
[unused522]
[unused523]
[unused524]
[unused525]
[unused526]
[unused527]
[unused528]
[unused529]
[unused530]
[unused531]
[unused532]
[unused533]
[unused534]
[unused535]
[unused536]
[unused537]
[unused538]
[unused539]
[unused540]
[unused541]
[unused542]
[unused543]
[unused544]
[unused545]
[unused546]
[unused547]
[unused548]
[unused549]
[unused550]
[unused551]
[unused552]
[unused553]
[unused554]
[unused555]
[unused556]
[unused557]
[unused558]
[unused559]
[unused560]
[unused561]
[unused562]
[unused563]
[unused564]
[unused565]
[unused566]
[unused567]
[unused568]
[unused569]
[unused570]
[unused571]
[unused572]
[unused573]
[unused574]
[unused575]
[unused576]
[unused577]
[unused578]
[unused579]
[unused580]
[unused581]
[unused582]
[unused583]
[unused584]
[unused585]
[unused586]
[unused587]
[unused588]
[unused589]
[unused590]
[unused591]
[unused592]
[unused593]
[unused594]
[unused595]
[unused596]
[unused597]
[unused598]
[unused599]
[unused600]
[unused601]
[unused602]
[unused603]
[unused604]
[unused605]
[unused606]
[unused607]
[unused608]
[unused609]
[unused610]
[unused611]
[unused612]
[unused613]
[unused614]
[unused615]
[unused616]
[unused617]
[unused618]
[unused619]
[unused620]
[unused621]
[unused622]
[unused623]
[unused624]
[unused625]
[unused626]
[unused627]
[unused628]
[unused629]
[unused630]
[unused631]
[unused632]
[unused633]
[unused634]
[unused635]
[unused636]
[unused637]
[unused638]
[unused639]
[unused640]
[unused641]
[unused642]
[unused643]
[unused644]
[unused645]
[unused646]
[unused647]
[unused648]
[unused649]
[unused650]
[unused651]
[unused652]
[unused653]
[unused654]
[unused655]
[unused656]
[unused657]
[unused658]
[unused659]
[unused660]
[unused661]
[unused662]
[unused663]
[unused664]
[unused665]
[unused666]
[unused667]
[unused668]
[unused669]
[unused670]
[unused671]
[unused672]
[unused673]
[unused674]
[unused675]
[unused676]
[unused677]
[unused678]
[unused679]
[unused680]
[unused681]
[unused682]
[unused683]
[unused684]
[unused685]
[unused686]
[unused687]
[unused688]
[unused689]
[unused690]
[unused691]
[unused692]
[unused693]
[unused694]
[unused695]
[unused696]
[unused697]
[unused698]
[unused699]
[unused700]
[unused701]
[unused702]
[unused703]
[unused704]
[unused705]
[unused706]
[unused707]
[unused708]
[unused709]
[unused710]
[unused711]
[unused712]
[unused713]
[unused714]
[unused715]
[unused716]
[unused717]
[unused718]
[unused719]
[unused720]
[unused721]
[unused722]
[unused723]
[unused724]
[unused725]
[unused726]
[unused727]
[unused728]
[unused729]
[unused730]
[unused731]
[unused732]
[unused733]
[unused734]
[unused735]
[unused736]
[unused737]
[unused738]
[unused739]
[unused740]
[unused741]
[unused742]
[unused743]
[unused744]
[unused745]
[unused746]
[unused747]
[unused748]
[unused749]
[unused750]
[unused751]
[unused752]
[unused753]
[unused754]
[unused755]
[unused756]
[unused757]
[unused758]
[unused759]
[unused760]
[unused761]
[unused762]
[unused763]
[unused764]
[unused765]
[unused766]
[unused767]
[unused768]
[unused769]
[unused770]
[unused771]
[unused772]
[unused773]
[unused774]
[unused775]
[unused776]
[unused777]
[unused778]
[unused779]
[unused780]
[unused781]
[unused782]
[unused783]
[unused784]
[unused785]
[unused786]
[unused787]
[unused788]
[unused789]
[unused790]
[unused791]
[unused792]
[unused793]
[unused794]
[unused795]
[unused796]
[unused797]
[unused798]
[unused799]
[unused800]
[unused801]
[unused802]
[unused803]
[unused804]
[unused805]
[unused806]
[unused807]
[unused808]
[unused809]
[unused810]
[unused811]
[unused812]
[unused813]
[unused814]
[unused815]
[unused816]
[unused817]
[unused818]
[unused819]
[unused820]
[unused821]
[unused822]
[unused823]
[unused824]
[unused825]
[unused826]
[unused827]
[unused828]
[unused829]
[unused830]
[unused831]
[unused832]
[unused833]
[unused834]
[unused835]
[unused836]
[unused837]
[unused838]
[unused839]
[unused840]
[unused841]
[unused842]
[unused843]
[unused844]
[unused845]
[unused846]
[unused847]
[unused848]
[unused849]
[unused850]
[unused851]
[unused852]
[unused853]
[unused854]
[unused855]
[unused856]
[unused857]
[unused858]
[unused859]
[unused860]
[unused861]
[unused862]
[unused863]
[unused864]
[unused865]
[unused866]
[unused867]
[unused868]
[unused869]
[unused870]
[unused871]
[unused872]
[unused873]
[unused874]
[unused875]
[unused876]
[unused877]
[unused878]
[unused879]
[unused880]
[unused881]
[unused882]
[unused883]
[unused884]
[unused885]
[unused886]
[unused887]
[unused888]
[unused889]
[unused890]
[unused891]
[unused892]
[unused893]
[unused894]
[unused895]
[unused896]
[unused897]
[unused898]
[unused899]
[unused900]
[unused901]
[unused902]
[unused903]
[unused904]
[unused905]
[unused906]
[unused907]
[unused908]
[unused909]
[unused910]
[unused911]
[unused912]
[unused913]
[unused914]
[unused915]
[unused916]
[unused917]
[unused918]
[unused919]
[unused920]
[unused921]
[unused922]
[unused923]
[unused924]
[unused925]
[unused926]
[unused927]
[unused928]
[unused929]
[unused930]
[unused931]
[unused932]
[unused933]
[unused934]
[unused935]
[unused936]
[unused937]
[unused938]
[unused939]
[unused940]
[unused941]
[unused942]
[unused943]
[unused944]
[unused945]
[unused946]
[unused947]
[unused948]
[unused949]
[unused950]
[unused951]
[unused952]
[unused953]
[unused954]
[unused955]
[unused956]
[unused957]
[unused958]
[unused959]
[unused960]
[unused961]
[unused962]
[unused963]
[unused964]
[unused965]
[unused966]
[unused967]
[unused968]
[unused969]
[unused970]
[unused971]
[unused972]
[unused973]
[unused974]
[unused975]
[unused976]
[unused977]
[unused978]
[unused979]
[unused980]
[unused981]
[unused982]
[unused983]
[unused984]
[unused985]
[unused986]
[unused987]
[unused988]
[unused989]
[unused990]
[unused991]
[unused992]
[unused993]
[unused994]
[unused995]
[unused996]
[unused997]
[unused998]
[unused999]
[UNK]
[CLS]
[SEP]
[MASK]
!
"
#
$
%
&
'
(
)
*
+
,
-
.
/
0
1
2
3
4
5
6
7
8
9
:
;
<
=
>
?
@
[
\
]
^
_
`
a
b
c
d
e
f
g
h
i
j
k
l
m
n
o
p
q
r
s
t
u
v
w
x
y
z
{
|
}
~
¡
¢
£
¤
¥
¦
§
¨
©
«
¬
®
¯
°
±
²
³
´
µ
¶
·
¸
¹
º
»
¼
½
¾
¿
×
ß
æ
ð
÷
ø
þ
đ
ı
ł
œ
ƒ
ə
ɛ
ʹ
ˆ
ˈ
˚
ˮ
ͼ
α
β
γ
δ
ε
ζ
η
θ
ι
κ
λ
μ
ν
ξ
ο
π
ρ
ς
σ
τ
υ
φ
χ
ω
ϕ
а
б
в
г
д
е
ж
з
и
к
л
м
н
о
п
р
с
т
у
ф
х
ц
ч
ш
щ
ъ
ы
ь
э
ю
я
ђ
є
ѕ
і
ј
љ
ґ
һ
ա
א
ב
ד
ה
ו
ח
ט
י
כ
ל
ם
מ
נ
ס
ע
פ
ק
ר
ש
ת
،
ء
ا
ب
ة
ت
ث
ج
ح
خ
د
ذ
ر
ز
س
ش
ص
ض
ط
ظ
ع
غ
ـ
ف
ق
ك
ل
م
ن
ه
و
ى
ي
پ
چ
ک
گ
ی
क
ग
ज
त
द
न
प
ब
म
य
र
ल
व
स
ह
ा
ि
ी
ो
ক
ত
ন
ব
য
র
ল
স
া
ি
ে
க
த
ன
ப
ம
ர
வ
ா
ி
ு
ก
ข
ค
ง
จ
ช
ด
ต
ท
น
บ
ป
พ
ม
ย
ร
ล
ว
ส
ห
อ
ะ
า
เ
แ
โ
ไ
ა
ე
ი
რ
ს
ᄀ
ᄂ
ᄃ
ᄅ
ᄆ
ᄇ
ᄉ
ᄋ
ᄌ
ᄎ
ᄏ
ᄐ
ᄑ
ᄒ
ᅡ
ᅢ
ᅥ
ᅦ
ᅧ
ᅩ
ᅪ
ᅬ
ᅭ
ᅮ
ᅳ
ᅴ
ᅵ
ᆨ
ᆫ
ᆯ
ᆷ
ᆸ
ᆼ
ᐈ
‐
‑
‒
–
—
―
‘
’
‚
“
”
„
†
‡
•
…
‰
′
″
‹
›
₨
€
℃
№
™
←
↑
→
↓
⇒
−
√
≤
≥
─
■
□
▪
▫
▲
▶
▸
►
▻
▼
○
●
☀
★
☆
☺
♀
♡
♣
♥
♦
✅
✌
✓
✔
✚
✨
✭
✰
❄
❑
❣
❤
➔
⠀
⭐
ⰰ
、
。
》
「
」
【
】
あ
い
う
え
お
か
き
く
け
こ
さ
し
す
せ
そ
た
ち
っ
つ
て
と
な
に
の
は
ひ
へ
ま
み
め
も
や
よ
ら
り
る
れ
わ
を
ん
ア
ィ
イ
ウ
ェ
エ
オ
カ
キ
ク
ケ
コ
サ
シ
ス
セ
ソ
タ
チ
ッ
ツ
テ
ト
ナ
ニ
ネ
ノ
ハ
ヒ
フ
ヘ
ホ
マ
ミ
ム
メ
モ
ャ
ュ
ョ
ラ
リ
ル
レ
ロ
ワ
ン
・
ー
䄀
䈀
䌀
䐀
䔀
䜀
䠀
䤀
䬀
䰀
䴀
一
万
三
上
下
不
与
专
世
业
东
个
中
为
主
么
之
乐
九
也
买
了
争
事
二
于
五
亚
交
产
京
人
什
今
他
仙
代
以
们
件
任
伀
会
传
位
体
何
作
你
使
供
保
信
值
元
先
光
免
入
全
八
公
六
关
其
具
典
内
円
册
准
出
刀
分
划
创
利
到
制
前
力
加
务
动
势
動
匀
包
化
北
区
十
单
南
博
历
原
县
及
双
发
取
口
可
台
号
司
吀
合
同
名
后
吗
和
品
哪
唀
商
嘀
器
四
回
国
图
在
地
场
址
坛
城
基
堂
場
士
备
外
多
大
天
太
奖
女
好
如
姐
威
娱
婆
子
字
学
安
官
定
宝
实
客
室
家
富
对
将
小
少
就
尾
展
山
川
州
工
巧
市
常
平
年
广
庆
库
店
度
建
开
式
当
录
彩
影
律
得
微
心
必
快
怎
思
性
总
情
意
感
戏
成
我
户
所
手
打
技
投
报
持
挂
指
推
提
播
教
数
文
料
斯
新
方
无
日
时
明
星
是
時
更
最
月
有
服
期
本
机
杀
村
来
東
林
枚
果
校
样
格
業
次
正
比
民
氓
気
水
江
河
法
波
注
活
流
测
海
港
游
源
澳
点
無
爱
片
版
牌
牛
物
特
狗
玄
王
玩
现
球
理
生
用
田
电
画
界
登
白
百
的
皇
盘
目
盲
直
相
看
県
真
着
知
码
社
神
票
福
科
程
空
立
站
第
等
算
管
精
系
红
线
组
经
结
统
网
美
群
老
者
而
肖
育
能
自
色
花
英
葡
行
表
装
西
要
見
规
视
解
語
计
记
论
设
诗
财
费
资
赌
赛
赢
走
起
足
跑
路
身
车
软
载
过
这
进
送
选
通
道
選
部
都
里
重
量
金
钱
长
間
门
间
际
限
院
集
霸
青
面
音
预
食
香
马
高
黄
龙
ﬁ
ﬂ
！
（
）
，
：
？
ｩ
ｲ
ﾞ
𝐞
𝐨
🌟
🌸
🍁
🎉
🏻
🏼
🏽
👊
👌
👍
👏
💕
💖
💗
💙
💚
💛
💜
💞
💪
🔥
😀
😁
😂
😃
😄
😅
😆
😉
😊
😋
😍
😎
😏
😘
😛
😜
😝
😢
😦
😬
😭
😮
😱
😳
🙁
🙂
🙄
🙈
🙌
🙏
🤔
🤗
🤣
##e
##k
##t
##r
##i
##s
##n
##g
##a
##b
##q
##6
##3
##1
##5
##4
##0
##o
##p
##d
##l
##f
##m
##j
##u
##v
##у
##т
##е
##р
##б
##о
##д
##м
##c
##h
##x
##ა
##ე
##ი
##ს
##😂
##😍
##2
##y
##w
##9
##7
##с
##и
##а
##л
##ы
##ш
##ь
##г
##ф
##в
##н
##ч
##я
##ʹ
##z
##к
##°
##®
##ł
##п
##ю
##щ
##8
##ı
##ﬁ
##´
##¤
##¥
##æ
##ð
##რ
##♥
##て
##い
##る
##の
##か
##と
##з
##ц
##ᅵ
##ᆯ
##ᄀ
##ᅡ
##ᆫ
##ᄌ
##ø
##ا
##ل
##ي
##ه
##و
##د
##ᄂ
##ス
##ト
##こ
##レ
##ー
##シ
##ッ
##ク
##х
##ͼ
##™
##ᅳ
##ᄃ
##ᅩ
##ᆼ
##ᄋ
##ب
##ن
##ت
##ز
##م
##ว
##ย
##ร
##า
##ค
##ท
##ไ
##ม
##แ
##พ
##ง
##จ
##ก
##ส
##ে
##া
##র
##テ
##キ
##ラ
##ン
##і
##¬
##カ
##ᅮ
##ᄉ
##ᆨ
##ρ
##ο
##φ
##ι
##λ
##💗
##ி
##ப
##ு
##வ
##த
##ナ
##¨
##🙈
##ェ
##ル
##ワ
##ヘ
##ق
##¸
##わ
##け
##た
##ᅥ
##ᄒ
##ᅢ
##⭐
##ᅧ
##ᅬ
##ك
##ر
##👍
##س
##💙
##¦
##😁
##ж
##♦
##þ
##あ
##ん
##©
##ع
##ح
##ة
##フ
##ヒ
##イ
##ム
##🍁
##☀
##ホ
##に
##һ
##க
##ি
##স
##ק
##ו
##ס
##ט
##י
##ת
##❤
##ј
##€
##є
##љ
##サ
##ะ
##เ
##ล
##ᅦ
##ᄆ
##ᄇ
##ß
##コ
##ν
##η
##κ
##ε
##ς
##リ
##ニ
##ィ
##ミ
##ア
##🏼
##ロ
##く
##ら
##も
##ち
##っ
##し
##は
##せ
##อ
##น
##γ
##χ
##τ
##α
##ハ
##🤔
##ा
##य
##ャ
##ノ
##ま
##🙏
##🏻
##👊
##😊
##ネ
##گ
##ش
##ন
##×
##へ
##¼
##đ
##タ
##チ
##を
##よ
##う
##す
##ˮ
##υ
##😋
##œ
##−
##ض
##ى
##ذ
##ی
##ケ
##ע
##±
##ə
##ج
##ป
##ो
##ל
##ה
##😄
##れ
##خ
##な
##モ
##お
##ђ
##ュ
##ص
##ѕ
##σ
##ᄏ
##δ
##π
##😉
##🎉
##ᄐ
##ᆸ
##ᅭ
##פ
##ف
##👏
##ط
##र
##न
##ी
##ᅪ
##ᄅ
##り
##য
##😅
##マ
##א
##ר
##ח
##ם
##μ
##כ
##²
##э
##😬
##😝
##♡
##ک
##👌
##ґ
##ב
##☺
##ƒ
##🤗
##क
##स
##😭
##ソ
##💜
##💚
##💛
##オ
##ᄎ
##💕
##💖
##ா
##そ
##ω
##³
##ব
##🔥
##ウ
##メ
##ョ
##ツ
##ˈ
##🙌
##🌸
##✨
##😃
##ल
##エ
##🌟
##🤣
##🙂
##ि
##ᆷ
##½
##£
##º
##ต
##ᄑ
##み
##נ
##や
##บ
##ห
##ข
##○
##さ
##😘
##מ
##✔
##β
##ᅴ
##ظ
##ช
##→
##ъ
##♣
##ξ
##🙁
##โ
##ด
##■
##❣
##ர
##♀
##ɛ
##😏
##ক
##𝐞
##त
##म
##💪
##つ
##µ
##ˆ
##🏽
##ज
##द
##ζ
##✌
##ﾞ
##🙄
##😜
##😀
##ह
##¾
##व
##め
##¢
##ד
##え
##θ
##¯
##ש
##ன
##ল
##˚
##ம
##き
##●
##💞
##😎
##😱
##ـ
##प
##پ
##÷
##↓
##ա
##ء
##غ
##ত
##ث
##▲
##¹
##☆
##℃
##√
##ग
##ब
##↑
##😛
##ひ
##⇒
##←
##▼
##❄
##★
##ﬂ
##セ
##😢
##ϕ
##≤
##✅
##─
##𝐨
##😳
##😆
##⠀
##▻
##ｲ
##№
##✓
##□
##≥
##چ
##▪
##►
##ⰰ
##ｩ
##▫
##▸
##✰
##😮
##😦
##▶
##✭
##➔
##✚
##❑
##ar
##er
##an
##en
##or
##tt
##et
##ll
##in
##ag
##om
##ch
##st
och
##ig
for
##ad
##on
##at
att
##ed
##ing
##al
ar
in
en
##sk
pa
det
##ck
##el
##ill
##ra
##and
som
sa
##na
av
##te
vi
med
var
##kt
jag
sk
till
har
de
st
an
##as
##pp
##sa
##ning
##ade
##all
##lig
##re
##un
##it
##ro
##ter
##id
om
##il
den
##ang
##ol
##ver
##att
inte
##ss
##am
##ik
kan
ut
##ast
##iv
##der
##is
##em
##ion
##ot
##ran
##es
bl
du
ett
##ur
man
##are
##isk
all
kom
##de
##for
##ut
men
##og
##ande
##ok
upp
##var
be
##itt
##het
##ller
sp
##yck
un
komm
se
##od
##ent
nar
##ort
##ak
##us
ska
##mm
min
eller
fran
##ens
##fter
##sta
nag
##ta
##igt
##ul
##inn
##ska
bar
re
han
##ri
hel
##la
##ru
##ation
##ell
##ligt
##os
pro
##art
##ull
##ick
##gen
##da
nu
dar
val
##bb
##op
vara
far
fa
efter
##arna
##le
sig
under
kon
##va
ha
sam
##ir
##ram
kl
##ans
##dag
##yg
##ant
##ock
##ff
##erna
ny
over
li
##sp
##ud
##und
gor
ta
##ft
##jal
##era
##ats
and
##tta
##bet
##je
gr
kommer
fl
stor
al
##ist
bor
##els
##ark
##ost
da
##sl
mig
##ers
alla
allt
20
mo
tid
##um
lag
vill
dag
##ank
ju
##ga
##ika
##ne
##ass
##ma
##ycket
hon
##gar
lite
pl
finn
bra
vid
ann
##ju
##ov
vad
sl
fram
mycket
##est
ex
finns
bara
##opp
##bl
##aste
##edan
hur
fr
tr
lang
##iska
del
##eck
##liga
mot
or
mer
##ger
##ikt
sin
bil
sv
beh
gen
kun
##ling
##iga
##cksa
##ningen
##ic
##vand
kv
##ligen
aven
kr
ver
hem
ocksa
##ja
##jt
vil
##den
##ka
andra
##stall
er
##im
##kl
##ann
sag
din
hade
sen
hand
pr
##oll
sex
detta
##ker
skull
##ott
dig
mang
##ningar
##nad
##ack
skulle
arbet
ol
##org
jo
verk
##dr
le
##hall
##ber
blir
##erson
sy
fin
gar
samt
ser
##ssa
spel
sjal
##aren
##ord
genom
##00
sm
utan
##ering
anvand
##yr
##bil
nagon
##sam
mat
##ara
ber
##ekt
person
bet
ty
manga
##itet
th
##ala
##ilj
##orr
##ket
##ev
##satt
ch
on
201
sedan
##lag
##alt
nat
##av
nagot
##jting
svar
##ek
##per
##iskt
##ci
sven
gora
hog
##gi
##ress
barn
##pa
van
##jer
##omm
fors
satt
hall
##pl
gang
##du
##ygg
oss
##riv
##rad
fol
fort
tro
##asta
##ce
tank
res
##vis
##nings
ma
at
bli
##amn
##ster
helt
fick
##ring
##form
sjalv
forsta
##over
idag
sn
tva
##som
ratt
vet
vis
##eras
denna
gl
##ett
##del
##atis
##mma
br
##gang
hitt
##ende
tra
pre
ni
so
bes
##jan
##ighet
##ilm
##ys
##ug
hela
##lar
##kar
blev
dem
olika
##skap
##ets
##tal
vag
dat
inne
ga
##ef
##ote
##sm
gj
kop
##verig
hal
liv
##hol
nagra
dejting
jobb
sverig
##ult
##erade
saker
mal
##eri
fun
sitt
maste
##ske
##orn
gratis
##ia
int
19
##yd
##ader
##lighet
##ktion
nya
rikt
ro
##eg
##sb
inn
tre
las
##yn
ti
form
hjal
##ida
##if
reg
varit
##ie
##oj
##land
##ellan
kanske
slut
frag
va
inom
##bar
tyck
##holm
##etag
di
akt
##age
##else
kra
mark
dom
##nas
moj
##ken
te
##amm
igen
##jar
su
kann
##ars
ans
led
ja
##tern
##erar
kommun
##verk
mellan
per
dessa
tran
am
##amp
##veck
forst
lan
tv
god
mann
##get
veck
vin
##ades
##enter
hen
sna
##iva
##ella
##ont
ater
ner
of
vald
vikt
land
vilket
innan
mitt
##dre
##man
##ier
sverige
stock
kar
kor
hos
##aller
fast
##kel
lat
annat
##sson
##orna
rad
bland
par
just
bade
ov
stockholm
tag
##far
##utom
porr
ord
bok
##atten
tar
dess
sju
##str
stora
foretag
##nar
##erad
##aka
##ts
film
fakt
##fall
basta
##mar
##ingen
##lin
##ser
fatt
behover
ka
##pt
##pel
##takt
##unt
sina
##ej
kont
produ
skol
10
##ow
tal
svenska
ur
varje
batt
kall
kunna
kvinn
we
##vag
mass
tje
fall
alltid
##skar
##ien
nog
lig
sager
##gr
pol
eftersom
##ps
stall
##slag
##iss
ger
lin
ra
ingen
milj
##igare
##ym
##erat
plats
samma
varl
str
gick
bort
utveck
mar
##arbet
##ratt
##be
dr
valdigt
fy
lar
##dom
riktigt
##iken
kn
##bild
##anska
si
##samhet
##ativ
flera
bro
eg
ant
##se
bo
mannisk
pen
pass
##borg
sok
##ppen
##sc
tycker
hu
##kon
latt
skriv
fot
el
vart
##orde
##fr
##hand
snabb
inform
##sten
dock
##ada
hopp
grund
star
##fatt
best
the
ge
##eter
mina
##ha
battre
kort
plan
koll
##rekt
##alen
bak
enligt
##samm
##led
lik
##lagg
##komm
##sid
spe
hans
##ata
verkligen
200
stad
##stem
##rum
pris
exem
##br
##ytt
##ellt
hus
aldr
kontakt
##stand
tror
komp
komma
sak
18
anda
erb
intress
mest
tillb
red
##yl
behov
sal
##xt
forsok
la
##pro
##hus
galler
forb
mor
vide
##sak
##bo
sid
ok
em
im
skall
blog
##jud
sol
namn
##upp
sad
runt
information
##sen
konst
bilder
eu
svart
kunde
exempel
##vud
kvinnor
redan
##kom
##blem
##orgon
ad
##skil
aldrig
speci
enkel
sh
tiden
deras
##rakt
ditt
sla
##vet
manniskor
ung
##jekt
##sammans
jul
##ds
full
egen
he
lu
kvar
ligger
##iten
tog
tidigare
##val
tillsammans
##fl
tack
natur
##cent
15
##ationer
ag
##kter
annan
ele
hitta
fler
ab
##mark
##min
##ator
kost
##akt
##sch
##nes
trad
ak
svensk
dina
##by
##gor
gjort
bygg
pu
varm
sjuk
ly
##las
hjalp
by
##tra
12
##gifter
mus
##ings
kro
darfor
gra
##skol
##lut
ca
##pr
tur
bru
##ition
tillbaka
webb
to
beratt
##io
huvud
##ung
##stad
direkt
##par
esc
honom
stod
borj
tjan
lever
##uter
##plats
##agen
hemma
jam
kvall
lyck
gjorde
##rupp
fam
opp
intern
lo
folk
problem
##elsen
stud
traff
##berg
mojlighet
##lem
##ingar
typ
##ektiv
hor
##andet
##kv
##rat
##tter
##slut
##rar
gam
ute
##med
syn
nor
##aget
##anden
ofta
##orter
lika
##red
rel
##sh
##ubb
##rade
##illa
bild
##cis
dessutom
saga
##line
faktiskt
##iker
30
##giv
ih
##mmet
##sv
##tid
kanner
dagen
##ultat
##lek
##res
##dagen
sar
son
timm
titt
nast
haft
tjejer
gran
besok
fore
verksamhet
##rist
##ipp
samm
ste
mindre
##idigt
vack
hy
##bland
anvanda
vatten
precis
##nat
art
##amma
##ret
beslut
krav
##mal
escort
kanns
##ob
##rack
##istor
##ina
hund
ror
##nen
##iver
enkelt
prog
massage
##kop
fru
ev
11
##ct
##sfor
co
liten
##vard
sma
##sattning
online
pengar
##net
##lan
gote
##icka
##orer
##mo
##illar
soci
innehall
fant
styr
##rak
goteborg
forv
dal
ganska
rak
##olog
fel
##ationen
##ivit
henne
match
inget
##assa
##sn
part
post
fi
lok
tha
##ana
##heten
##asin
dagar
##skriv
##ekn
app
eng
familj
fre
medlem
nytt
stort
##river
##uss
tel
kul
##nade
infor
kron
porn
utbild
fle
##elser
##end
knull
##ydd
behand
kopa
##bart
varfor
storre
##kor
##rev
##inna
langre
##stallet
lange
nastan
vilken
samtidigt
##eln
borjar
ang
hoppas
##add
aldre
sj
##eb
alltsa
personer
resultat
org
##ater
antal
##anis
kna
vissa
end
tor
##vid
ned
senaste
vax
kval
##ny
##heter
istallet
fri
bi
##ard
start
ind
##int
##ionen
mon
blivit
##rik
sta
##ry
eff
jatt
##jur
##sf
via
##lingen
folj
vard
erbju
kat
fem
##des
annu
tillgang
langt
gott
##ons
##ea
17
##aga
16
vidare
garna
##andra
ob
hennes
##ice
fred
##lla
##naden
bel
disk
##film
nasta
##farande
##ister
##sida
##fekt
##sikt
ren
vilka
##jus
klass
##ste
beg
ibland
extra
igar
los
##raf
trots
##ender
innebar
vann
borjade
off
##lev
betal
varld
pres
##tag
projekt
##radet
stat
forl
haller
tekn
dejtingsa
##konom
##ong
100
##rot
##ust
vast
ekonom
na
##ligare
##yt
kons
sarskil
ot
gamla
14
##satta
tu
forsk
og
sista
tav
visar
id
##oner
lagen
papp
senare
##spel
fortfarande
snart
me
halla
##yk
##ian
samman
kur
ansvar
bill
##alj
##amt
kand
glad
##saker
euro
matt
sc
bed
##jut
##mmer
dra
inv
fantast
hittar
kred
##als
##inner
bost
met
bad
endast
gre
histor
manad
##hor
inga
##gift
##iet
lasa
##otell
13
po
kredit
und
pat
##ip
framfor
##igheter
gu
##han
lak
ne
farg
cent
##drar
dating
mil
finans
risk
##ux
##rott
yo
klar
##ider
rum
bank
com
##one
miss
fragor
25
is
##bara
##ygga
ihop
anvander
polit
samhall
sitter
50
##sok
blogg
spela
egent
kok
##unn
sang
##ocker
soker
##iner
##klar
##of
spr
ville
helst
ganger
sw
00
mamma
ener
bast
ovr
fortsatt
ytter
##ari
##kten
##ester
##oter
##ind
aktiv
##pen
ben
tyd
inst
forut
utfor
mojligt
hast
procent
natt
tot
bon
stark
sett
funktion
##ies
if
##erial
snabbt
mobil
##istr
trev
tills
##ternativ
hotell
##sdag
anal
borja
pla
storsta
fina
##lad
##cept
foren
perfekt
minst
##fe
##pe
her
sjalva
##its
##jo
##spro
##cka
rik
##dat
sidan
do
flesta
vant
system
bestall
klart
##lats
varlden
000
halv
##dejting
egentligen
##ynd
##gard
fyra
aret
##fol
##kan
viktigt
skolan
kult
visa
##ryck
gillar
bol
##band
flyg
san
##efon
morgon
publ
handlar
vecka
##alla
dej
jamfor
##ner
##nam
##ojd
ba
##ins
tem
mag
grupp
##cess
fann
vanligt
arbete
skapa
##edel
##drag
esk
minuter
nara
##bol
borde
free
ring
skriva
inter
bada
##sig
fod
dod
dan
tom
egna
kontro
fil
host
##ena
##under
enda
##sla
##ift
##ert
funger
utt
haha
##ona
tips
pos
video
##jor
hals
spar
##klart
##ite
kap
gangen
foral
natet
gatt
kund
##omen
##nader
ljus
##men
##ifran
valja
##lat
lilla
##orit
mode
lam
ens
bostad
##ension
veckan
hj
ho
alskar
ovan
ru
ide
##faren
musik
lagga
##rans
ku
##itu
##ograf
arbets
stand
aka
ins
casin
##fin
brukar
emot
go
moder
jan
massa
mid
organis
tjej
slapp
stra
timmar
medan
##arer
##lade
et
fraga
##ogen
bas
##ate
##ument
##uella
skar
##samma
alternativ
gav
serv
##varande
##fil
##sin
bid
skick
verkar
livet
##ander
malmo
##ots
natdejting
but
samarbet
aff
sida
##ond
utveckling
##agg
dejta
##alis
##fik
ing
##oder
##ystem
kring
kraft
lug
priv
##nande
##otter
##fors
erbjuder
erot
narm
pop
super
prov
##anda
gener
tanka
betyd
##ember
##bel
##anga
##ivet
sch
##ppar
##sakring
##sidor
kronor
##enskap
kvalitet
skriver
delar
cy
heller
sommar
borjan
internet
##annande
webbplats
##bin
##okus
##andring
passar
kopp
##aa
##bor
produkter
kultur
ter
##ivt
topp
##unda
nej
##bygg
##ningarna
stan
##amer
vux
dags
##lingar
##oden
fanns
log
vem
tryck
##kost
tillfall
ac
rod
sall
telefon
##ras
gol
##anta
bred
##raft
##reg
##uld
lor
sem
rapp
##bud
##frag
##sst
##ler
talet
forra
sveriges
insp
gud
##ine
##anter
aren
##anger
ogon
program
kanna
bal
sarskilt
##juk
dro
hot
viktig
varandra
utanfor
test
##koping
2018
nak
erfaren
##full
smak
kommit
##oc
otro
artik
sagt
as
kvinna
sov
tanker
ata
hjalpa
fordel
roligt
install
finansi
kal
##raden
resp
text
##aler
##ore
##unkt
fokus
ps
nord
##xa
car
rost
um
ry
rekomm
vagen
djur
##sett
ton
##ven
gem
sakerhet
##anc
marknad
##rikt
##ron
##ns
vanner
##ror
jon
sas
##olut
klock
norr
skap
desig
skont
alls
genomfor
sing
lov
knapp
##atta
ars
##tem
trott
forslag
##eta
akte
prat
fav
nam
elever
##ivers
nov
anstall
##splats
##jter
##jarn
unga
bu
##jol
##alog
skatt
##oende
##ille
kyr
miljo
material
veta
tankte
vit
tagit
arbetar
##egor
##ity
traning
##ankt
bef
igenom
avslut
imorgon
sek
pri
veckor
kolla
polis
annars
park
##rift
allman
24
rep
fisk
sakert
lamn
fint
##tre
199
ytterligare
flytt
ek
##van
skill
eskort
##vs
upps
last
karl
bran
##emang
titta
reger
##snitt
hander
upplev
framtid
##pass
##ren
##stid
kunskap
satta
##rag
##kort
2017
energi
##iz
lyss
##hl
40
forsoka
##varr
21
##emot
ost
event
barnen
vak
kunder
##staur
##bund
##rang
##fer
##xx
inlagg
hud
##rukt
##verket
tyvarr
popul
prakt
##ium
##tera
mis
ungdom
effekt
##batt
##mat
fly
##boll
##ng
ej
##ruk
fungerar
##samt
##ioner
fon
anled
jord
jobbet
nation
medel
gamm
##pan
##ex
betala
anvands
inspir
22
dit
hej
stund
cir
social
oav
##eringen
univers
erbjud
##styr
##ke
##ht
mand
ham
mys
maj
##skatt
##sg
ansok
spelar
slag
registr
bakom
omfatt
##up
##star
fyll
johan
liksom
nedan
ifran
dec
##bro
abs
utbildning
spannande
gall
uppgifter
it
roll
##bok
innehaller
##kur
kamp
lara
##strom
traffa
skal
##yll
viss
kansl
visst
vardag
##ova
hamn
##atan
restaur
indiv
lank
##tes
yr
fard
##ork
##ash
##los
funder
kol
##sidan
oft
varde
bek
##unch
recept
##kvall
bedom
forbatt
forhall
usa
##vik
boken
inf
max
skad
luft
favorit
##spr
jun
##skin
lek
sadan
dok
produkt
##plan
filmer
##aster
undersok
##assage
##skolan
lugn
rekommender
fra
hard
manader
utom
##uren
internation
##ish
##ab
beskriv
bud
presenter
kvallen
dejtingsajt
hogre
beror
##ph
inkl
chans
jobba
##mt
kropp
vanlig
fredag
speciellt
##mor
##back
sexiga
dagens
aktivitet
##uder
knulla
##bord
bit
##skan
##gaende
##uell
mots
##grund
##okrat
posit
##ernas
hjalper
klader
##uppgifter
folja
igang
fu
fastighet
mm
later
ford
steg
lamp
gro
tred
##staende
plac
##efar
lad
##aten
valjer
teck
thai
mak
fragan
##namn
forsoker
oavsett
ander
situ
pe
holl
back
date
stol
krist
rom
forh
njut
##osa
bety
##ital
my
driv
sport
somm
omradet
##fri
bilden
gemen
sand
hav
porrfilm
alder
ungefar
##dar
##sav
engel
lagg
##arnas
centr
##ruppen
uppdat
helgen
##oo
heter
soder
peri
mi
amer
casino
fortsatta
forutom
##agare
tyckte
personal
23
##ten
lordag
snygg
##ive
sten
tillverk
##ink
vatt
skydd
forstar
otroligt
##okt
##eringar
komment
##ita
service
resa
##itut
lon
2015
2016
lev
eget
uppta
qu
klubb
skon
##ey
dy
goda
kroppen
wh
##ca
dju
mott
sker
varldens
##edag
vackra
exp
##co
gym
meddel
jav
him
##qu
glas
port
fest
mu
od
ivag
forvar
##ffe
blod
ovriga
wid
vanliga
bilen
privat
##skydd
##stol
##kla
jobbar
kara
##kr
avtal
##ifi
absolut
##erande
ljud
sant
klockan
##ota
no
##deles
avs
link
arets
oftast
ww
amator
kombin
stallet
ingar
public
pati
landet
kostnad
##otek
dejtingsidor
lamna
totalt
cl
transp
lop
karlek
nod
krit
hjart
##book
##vart
pappa
##rust
##orl
psyk
dejtingsajter
smart
berg
tjanster
##ugg
ram
##skor
##ktioner
tol
60
vilja
##dde
godk
mog
massor
komple
ap
##agar
alldeles
spelare
##ure
mote
sil
arbetet
behandling
kontakta
##skade
cm
utman
glom
thaim
brost
aug
defin
arbeta
##emal
aker
swed
##llen
paver
lunch
##ffa
forsakring
behovs
##uellt
##otten
skog
lans
dejt
juni
ass
naturligt
miljoner
##lands
##yndighet
span
tak
effektiv
##skaper
www
2014
##betal
buss
darmed
slutet
betyder
deltag
##skad
##he
face
##any
skrev
mod
foljande
##rammet
##ide
niva
##ativa
rack
##bruk
##folj
kopte
ph
mars
##allt
forandring
kram
sur
intressant
##stor
anvandas
##met
vol
norm
##isar
apr
beroende
tredje
dubb
xxx
gammal
erfarenhet
sep
exempelvis
flick
design
kravs
gron
framst
##ktig
namligen
thaimassage
antligen
helg
hora
poang
##enn
vari
sitta
samband
okt
##oren
daremot
ko
kande
tri
universitet
##ern
dare
tradition
menar
prin
spring
##kommen
uppdrag
frukost
promen
##ko
fan
##skott
sprak
oppna
ikvall
sondag
filmen
tj
nan
##huset
fys
stil
##komst
invest
forfatt
##part
prata
sadana
##ations
berattar
##ferens
liknande
##iden
anmal
kora
ske
trygg
lata
##garder
forvant
##garden
tankt
bocker
darefter
##urn
##klader
fotboll
pal
##imm
tand
hittade
tio
laser
##icin
fas
##utveck
fla
##alist
klipp
##sattningar
##bered
##tering
##ge
klicka
uppf
##kta
bygga
##ativt
##nu
kam
##me
trafik
hit
sommaren
##tar
foretaget
gal
##but
valj
##cke
lagger
##bi
##skl
##foretag
##kring
##ild
interv
laget
##isa
sjalvklart
finnas
hemsida
analys
facebook
data
##itta
pot
oro
uppsala
plus
langa
##skr
skicka
huset
brott
##sel
videos
semester
##handling
sova
##yss
##ammer
vanster
##har
sjukdom
trak
regel
forsvar
##splan
present
middag
hum
varder
rut
personliga
fal
ensam
behova
##vin
sort
##jen
avl
##zny
dla
meter
##ober
klara
##produ
dist
##ith
##anych
bestar
##owanych
zalog
##oczny
widoczny
zalogowanych
allvar
process
poj
dorr
utred
delen
new
familjen
foljer
bj
##ongen
##hang
vantar
##ktyg
misst
##ocka
bla
##yld
con
chef
nojd
server
engelska
##ovis
26
##po
anslut
##grupp
##forande
lund
valkommen
dans
28
27
##af
fullt
besk
fortsatter
sim
katt
##utbild
amerik
grad
foraldrar
hant
##irl
historia
yng
##fess
lander
borjat
medlemmar
offent
num
vare
oka
dri
prova
ark
##ba
konkur
forsalj
teknik
reda
guld
##unnit
##verkan
##sd
##vent
##igen
ros
##stallning
htt
##repp
ul
jar
ban
byg
dejtingsida
daligt
samtliga
anv
dela
bod
vinter
fir
kri
au
rull
enskil
##fte
forsv
tillrack
lju
scen
forklar
ore
##garna
restaurang
feb
lagt
sidor
intresse
litet
visade
2013
tanke
lager
uppe
utifran
you
kommunen
stopp
##ktor
samtal
tidigt
##skt
bolag
##50
##skola
hogt
##stans
varen
region
cirka
tvatt
septem
dator
##rav
august
trodde
tavling
##lare
september
kontroller
larare
sist
umea
let
ont
radd
janu
tim
##ikation
##itar
##san
sasom
##mi
##inne
motor
svara
##ften
dokument
ras
##enten
omkring
drag
##janst
beratta
tex
framgang
##pol
dis
##raff
##sing
sadant
imp
##ora
uppmark
out
november
utmar
indu
nodvand
begrans
skillnad
leva
cykel
icke
inled
underhall
##ism
frukt
villkor
skit
halsa
oper
uttryck
hamt
fotograf
hart
##iel
erik
##ly
mail
profess
##vaxt
##fs
##imat
staden
fe
europa
29
oktober
tus
##arbete
kategor
##teck
##etens
##terna
exper
april
##fa
bakgrund
rec
kraver
kung
##iteten
sym
elekt
##urs
dalig
##ligheten
antalet
saval
drog
vas
skan
je
sociala
##bes
individ
##iat
kalla
bju
januari
dels
exakt
insats
##ach
utveckla
##seende
##rummet
ena
##ions
ret
bat
bloggen
leg
arrang
forel
ir
##ktionen
allra
##erades
##vall
engag
##slan
hoga
fores
salj
##bli
##mid
nakna
mej
skola
##blad
fjar
vader
vers
solen
samarbete
himla
skapar
fo
nyhet
avgor
joh
forek
kandes
upptack
sats
##medel
trevlig
fro
2012
mogna
onskar
autom
##person
mojligheter
##ton
##ruktur
kontroll
##ias
mera
##oms
##her
##pris
bonus
##ix
kuk
onsk
stalla
198
##20
anna
gast
80
diskuter
avsnitt
##aljer
ident
hang
kille
vir
kott
jatte
viktiga
500
##ktar
##centr
jack
mannen
##ban
fart
frit
sann
rent
##kont
31
##stri
rapporter
##kade
ed
##ommer
arbetsm
##gram
##ica
kata
ovrigt
##ips
##hem
##vara
butik
extre
##ement
senast
priser
december
stress
skra
tit
##ycken
tas
trevligt
##nytt
##perat
soka
erbjuda
##kes
##ump
rek
kart
tjanst
forskning
##bur
upple
##ald
profil
varmt
hoger
berak
##cc
##etter
seg
storlek
##ommar
lokal
brand
vitt
70
##ula
fang
princi
press
les
forstas
girl
trana
##kn
typer
bord
##still
helsing
dam
leder
##inar
medicin
resten
anser
##inder
got
##ektive
lana
##endet
kallas
platser
bekv
plots
stockholms
spelet
90
anledning
mun
##erier
lattare
respektive
##iens
dusch
##lex
nagonsin
mjol
kansla
kak
forvalt
##za
tab
##vagen
##use
enbart
km
list
bev
uppgift
##delning
fantastiskt
live
kaffe
mandag
atgarder
infl
ager
skrivit
##hal
natten
pension
knappt
satter
##trad
opt
anpass
##ting
sot
vacker
uppskatt
skor
cit
##oppet
lyckas
dryg
okar
njuta
verksamheten
sjukt
framtiden
##laggning
gay
produc
reser
lind
vanta
snar
sund
##ierna
sangen
fantastisk
juli
fix
agg
##mme
web
lokala
2010
bre
ladd
krig
saknar
oster
testa
osv
puss
hom
gymnas
tw
rapport
##hamn
##hu
lagre
syft
datum
byta
##oret
##verksamhet
regler
##enting
nr
dagarna
char
##yp
handla
hogsta
tis
leverant
arm
stang
ax
##ight
chat
resultatet
ah
integr
salt
regeringen
borta
45
##bon
oppen
utmarkt
##ningsvis
drabb
##igg
##skapet
##nos
undrar
##serv
sjun
##eller
ingenting
2011
augusti
medvet
##varder
yngre
bestam
os
inred
saklart
##rip
band
iaf
not
cook
##bolag
givet
inb
laga
lakem
omrade
##ager
lock
ital
omraden
vuxna
varme
cam
team
##skning
black
##fritt
stre
hosten
sat
paket
kostnader
marknaden
##vist
idrott
lyssna
lagenhet
##larna
af
##iment
boende
rid
##ii
verktyg
foto
spa
sign
hol
bilar
orebro
sluta
namnet
mjuk
##bilder
##iti
tankar
spara
##lam
neg
rabatt
##foren
dotter
starka
##orge
##entligt
kunnat
plotsligt
drar
boll
anvandning
##ologi
repres
platt
artikel
stam
tillrackligt
##onen
billig
eta
##kat
##varden
fantastiska
adress
bry
pan
##ssystem
##ogg
##ids
mart
kompetens
sno
nack
lack
digit
##isen
damer
##wa
##ckar
centrum
modern
tysk
kant
##visning
##ib
shopp
##onser
ligga
sms
arg
ses
##fort
197
blomm
naring
##ich
bur
halso
##oklad
samhallet
priset
special
finland
##orlunda
ihag
##enti
valt
utgor
vita
##givare
ekonomiska
##rit
timme
miljon
konto
tillhor
javla
tillstand
##eder
naturligtvis
slipp
##stav
harligt
framat
##hov
aktiviteter
ansokan
##ama
febru
enor
##edd
nyheter
##omma
mesta
standard
sasong
##klam
##itter
##ffan
##emokrat
andel
nagonting
utbud
forbered
medarbet
kil
##pport
##estall
narmare
##cep
vinna
##mer
antingen
##inst
klimat
kurs
visste
##ungen
##istik
35
##enta
rolig
##mon
##gran
enkl
vagar
taget
##ette
##slaget
valkom
stann
ordforande
minska
##lor
kommande
urspr
##uten
vuxen
##lande
tradgard
##spektiv
utnytt
fj
##mann
ersatt
promenad
skade
##sar
##inal
mangd
erotisk
##mmen
##bundet
projektet
vore
mad
##ue
##gren
betyg
vattnet
kyl
passa
##lo
formod
torsdag
##yra
serien
djup
bidrag
nummer
##len
##ista
februari
##iter
flytta
##ills
bygger
hd
##nummer
huvudet
##hav
##cy
##fiken
bransch
forening
bus
okej
malet
##gas
uppfatt
##ve
strax
utrust
nyck
kla
etc
datorn
##ors
##ansen
ladda
ekonomi
forbi
forhopp
anders
matchen
finansiella
##ammar
harlig
##usive
affar
fitta
tonar
tillamp
info
ursprung
dvs
##let
yt
hamta
myndighet
with
organisation
ill
##ee
##oga
##ppa
##ub
plast
vind
europe
stick
prote
eftermid
redovis
rev
##slagen
satte
yrkes
spelade
betydligt
arbetsl
triv
farger
##vens
##stalla
##ih
##atet
tube
italien
regl
kre
mork
starkt
hell
forlor
##ode
jur
intervju
snygga
horn
mask
##adress
komplett
strack
choklad
##edagog
tanken
maten
aut
ug
fonster
diskuss
programmet
##sdagen
korde
jes
underbart
kostar
gallande
##port
automat
amb
vall
marknadsfor
gravid
delta
##jon
viktigaste
glob
##lang
##pun
dest
bestalla
transport
tving
##una
fixa
##ila
tydligt
##ube
regn
mel
antag
pratar
studer
vinst
##ric
energ
##kant
vaster
skyd
grader
ansikt
frisk
normalt
jamfort
##slapp
tittar
entre
##vika
##ordning
riktig
smar
kast
skratt
lesb
##ros
##stone
##skon
##lov
goog
vars
dubbel
http
polisen
##farg
##kopp
##rast
##inge
underklader
are
staller
modell
rok
##ringar
up
sod
forsam
2009
monster
killar
roliga
##varl
bolaget
##erings
spender
veg
anstallda
accep
sexlek
cookies
brev
##spekt
##sex
maskin
landst
lage
koper
##gangen
##asa
media
underbara
##onom
reklam
svarta
fag
ytt
goras
makt
smal
morgonen
budget
lyckades
oppet
##pack
forhallande
##styrelsen
porno
period
vaxt
##uts
personuppgifter
##ben
##atch
##iljo
onsdag
forutsattningar
rygg
detaljer
gors
alko
bilderna
##bank
syd
ialla
visas
##rande
##utveckling
atmin
sub
numera
##uta
annorlunda
kopt
forr
##bas
vetenskap
vinn
##we
byggnad
skjut
dyg
##ligheter
dyr
inlag
##umark
##umenter
fored
lakare
norge
produktion
hallbar
fett
ges
##kast
300
jor
skul
##dern
bestamm
jak
studie
intresserad
##sratt
##ansvar
drygt
isl
etabl
slar
valde
rejal
sannol
formodligen
papper
singlar
vand
36
##assan
##fton
##sled
boka
lamnar
politik
##ola
begar
syfte
skil
drom
givetvis
##ele
konstigt
kompis
orkar
##ivan
##zz
naken
noj
ordning
##urser
jarn
punkt
##stod
01
stalle
mol
##kraft
relig
##utt
fordon
07
rosa
hogst
rummet
iallafall
##igh
varden
atminstone
##urer
##talet
internationella
populara
##leken
mg
skane
##lund
08
mogen
##ios
dol
balans
alkohol
langs
tydligen
gard
##aden
paverkar
institut
forsaljning
lugnt
personlig
##sorg
utover
##ologiska
underbar
atta
cre
##chef
helsingborg
nil
angel
hantera
konstat
christ
detalj
can
##ilt
serie
##roll
maria
problemet
flash
leda
klarar
##fard
minns
196
mamm
hort
bruk
pengarna
formaga
##anner
ordentligt
hittat
##ategi
sasongen
industri
overt
garanter
##xi
tala
noter
varumark
ungdomar
##skal
##terar
mansk
strand
anvant
talar
starta
herr
##lys
siff
soffan
tisdag
konkurr
salja
invand
princip
hojd
yout
forbattra
profession
##skri
kapital
peter
slog
##ase
##enden
##bu
saljer
sodra
funkar
fing
kommunikation
sorter
stabil
##kommer
##splatsen
##por
##ake
svang
##punkt
mik
milf
2008
utvecklas
lista
slakt
framt
partner
utry
inkop
##anen
okad
##brott
journ
orsa
ersattning
sexleksaker
forum
bibli
sent
##ise
aktie
enkla
manniska
##ction
sallan
skr
slutade
admin
##ori
##ansk
gif
##ular
betydelse
kem
inklusive
##kans
##elat
brod
asikt
ref
roda
foreningen
racker
##prov
forelas
##gj
lant
stanna
##ands
##ment
mojligheten
rem
olyck
##atar
##handa
##istiska
##klass
gratt
op
uppen
##spol
klad
##kning
##behor
temperat
modeller
##pren
gruppen
##ugga
vaknade
gladje
demokrat
styrelsen
utform
forsokte
bri
gjord
gett
finner
##mot
##hort
##fragan
varken
fyller
##ood
sprang
tun
will
##pla
patienter
##skont
singel
oj
vackert
mysigt
##itivt
##ivare
frank
losningar
avgift
skyld
##entyr
##amen
kommentar
amnen
magen
allmanna
leverans
##ec
studier
hotellet
##son
##stift
politiska
utvecklingen
##gt
dack
##fest
##halla
barnet
diag
##blick
losa
bom
city
livsm
09
rattigheter
play
##si
##ici
##skomm
sweden
mitten
##givning
tyst
stjarn
tunn
springa
litt
vaxer
hyp
konsek
total
tum
##press
mats
inkluder
ik
##ollar
andre
bestamt
torr
brist
genomsnitt
sammanhang
##gl
##oss
natverk
situation
ranta
tillvaxt
spra
funn
##ige
marken
comm
lust
tung
carl
##jas
faktum
kommuner
skid
enhet
laste
##ancer
nuvarande
##ower
skott
snarare
##ual
##ura
site
fung
##klara
sof
skogen
nik
resan
lars
utgang
tyg
grill
upplevelse
##hy
happ
##amin
##pet
vat
funktioner
bjuder
bete
sajt
norra
##phone
##pat
inspiration
##igheten
utsikt
orig
kamer
hann
valet
##server
omedel
##xor
mota
##delar
letar
kg
fodd
muse
##emat
lill
fungera
objekt
betalar
era
medarbetare
mojliga
##rom
undant
kill
grav
nas
hoj
hed
paverka
rekommenderar
jobbigt
socker
##fan
recension
##own
anses
kanda
utvarder
sattet
##les
syster
bilje
innov
musk
##agaren
##maskin
##klubb
allm
besoka
this
regering
##god
mord
pet
##arens
##llop
aktuella
oer
ack
youtube
rea
##ho
redo
stig
risken
synd
##aket
kyrkan
amerikanska
relativt
platsen
popular
##angen
##akning
kommentarer
utland
##hel
eleverna
32
##skrivning
ep
framforallt
illa
tekniska
inrikt
strom
kallade
ringa
narheten
hushall
personen
##roende
sikt
harliga
student
hinner
##30
##istan
slags
behovde
##osition
flickor
rock
kanslor
chansen
##natt
stal
kampan
motstand
##svall
enklare
brun
orsak
##elserna
handling
hjar
stycken
standigt
ideer
appar
don
nyligen
overra
tat
lyx
inkomst
##vax
drift
hyres
fardig
videor
gavle
##grad
skada
tapp
definitivt
exkl
undan
kors
##vatt
fack
jonkoping
##10
besvar
big
optim
2000
klan
botten
net
paverk
koket
grat
##laggande
intens
ip
pack
col
##omradet
aventyr
hundar
okat
grym
metod
undvika
##ctor
minim
systemet
##bran
hunnit
smarta
toppen
specif
brollop
havet
##elsens
##bler
pratade
respekt
##dex
##liggor
your
fredrik
##uc
bjorn
symbol
befol
relation
forsikt
sallskap
##lle
danmark
##aner
fig
forbund
nere
initi
##vatten
vasteras
02
chatt
##rike
##stalld
kanslan
erotiska
nav
forandra
vadret
mom
lyckats
##eriet
##forsakring
vila
pedagog
trakigt
struktur
vardags
##ral
billigt
kontor
rakt
samhalle
05
##betalning
box
kompl
losning
underl
##skat
position
bevis
tvungen
kallar
perfekta
##platsen
omoj
golv
hittills
uts
##off
rim
hjarn
perspektiv
riktiga
##skoter
falt
##barn
forhoppningsvis
##sor
sammanfatt
personalen
cat
##ssatt
debatt
##oker
john
andersson
gift
vastra
berattade
##sut
forvan
grundlaggande
wik
golf
##iven
famil
##edom
skatte
##demokrat
vd
appl
one
##bert
fylla
plock
##ledare
takt
##sked
fallet
pun
##sr
rym
##park
tillfalle
overv
dild
konferens
##bergs
jakt
lopp
2007
##ox
silver
##utbildning
urval
ingr
##assigt
sky
##erats
04
mjolk
japan
##sattningen
skuld
landsting
varma
55
##fta
gun
kollade
syss
avsl
mov
coll
listan
studenter
andras
grupper
straff
humor
motsvarande
knullar
avsug
fat
##varo
06
extremt
moderna
ryss
tider
funderar
##edes
anvandare
##till
hansyn
##bum
##delningen
##gatan
##takter
ordet
##niva
blom
kin
##hog
allmant
skrift
##pas
haret
fika
visat
block
##ics
glada
stranden
##ham
betalnings
##ycke
webbplatsen
##system
lanet
hyll
33
alex
britt
real
sortiment
annons
##ya
tjock
samre
matte
##fred
kapit
fodels
alskade
##hets
##ere
utomhus
##gav
lys
bidra
daliga
bir
##cker
##sats
fyr
utsatt
rund
langst
lagom
##bit
jobbat
centrala
mult
##stret
##arder
hamnar
pga
frakt
lakemedel
##ickar
tyskland
jorden
##ific
syftet
fragade
tju
blommor
skilj
vanligtvis
varv
parti
snabbare
huvudsak
handa
##pper
sank
befinner
akade
ifall
master
cert
overens
##ningst
tillgangliga
slutar
linkoping
sade
begrepp
vist
fork
tittade
uppratt
radio
ledare
langtar
sugen
enskilda
matcher
##fyll
mening
kontrollera
webbplatser
google
magn
metoder
##yggen
pool
sara
gill
startade
heta
lid
omfattande
##sse
grona
stral
renover
bidrar
##orerna
snyggt
tecken
narvarande
potenti
medier
hun
##ruv
dricka
ran
##df
gemensamma
strategi
bloggar
##skraft
75
vintern
pul
gas
konsekvens
snabba
martin
erotik
prem
erbjudanden
sens
korrekt
billiga
avseende
utlan
34
##ford
dorren
tillhanda
camp
central
garant
erfarenheter
stats
kallt
normal
##skole
naturen
moter
##janster
atit
##falt
banan
eventuella
##lak
mast
varan
##stallningar
03
het
##cha
rakna
positivt
pam
karaktar
##oteket
privata
cont
mangder
bestamde
nationella
leta
##ynt
separ
##fun
tuff
oerhort
besokare
##strack
folket
##entera
##draget
kunskaper
##hund
foraldr
##edels
hande
400
vanda
fakta
forandringar
sonder
driver
revis
ringde
pabor
tjansten
##shop
##omrade
kran
##uk
##ratten
nagonstans
forhand
major
tidningen
logga
svarar
jesus
##stral
wa
##fragor
##rim
konser
##djur
##gangar
domstol
##mos
omsorg
##valt
karri
##losa
##sport
unika
ogonen
akta
fria
##set
##imul
##filmer
anges
bekraft
fritid
flashback
politiker
hjarta
lond
ron
huden
##maktig
prest
damm
uppfy
mormor
kombination
##verka
##yta
##ytande
version
syns
##iteter
##organis
overg
hoppa
uppleva
belopp
forutsattning
hjartat
##intress
svag
resurser
godis
traffar
nodvandigt
betrakt
elektron
##oda
##issa
2006
lankar
kursen
skaffa
korta
handel
avgifter
##amal
##ometer
intressanta
lagenheten
daniel
##ior
fet
##laget
##fisk
langd
##andes
nytta
##ledning
##anvand
inlagget
##dens
hak
##fon
##program
stolt
avsugning
levande
##oster
undantag
porrfilmer
lycka
rov
##ologisk
postadress
bjor
statistik
##raning
##pi
smor
varsta
forran
forfattare
nyckel
seger
utav
kontin
traffade
##sform
foljd
skickas
avanc
lamnade
frasch
konstru
##eratur
por
dram
ryska
tvek
kollektiv
svenskt
##fora
mic
##lok
happy
overallt
##iland
##cken
194
##gande
##vo
air
grann
skiv
##spar
utbildnings
stallen
entrepren
premi
bedomning
##isch
##ess
potatis
stads
rot
valkomna
##verkar
administr
halften
blanda
beskriver
skickar
sakra
##sprak
osaker
##fly
##rodu
inc
mju
konstnar
saknas
sjo
fullstand
johansson
motiver
##ius
varav
##brik
##iosa
slappa
sadar
bb
aning
##stru
oh
befint
klassiska
karn
pek
38
onod
grov
##klag
ledande
##ile
##viken
##kall
##skrifter
vardering
badrum
former
39
uppfolj
betalning
bio
plocka
sover
organisationer
digitala
priorit
inre
##ange
ratta
##arbetet
show
##entet
##uga
sarskilda
positiv
##varlden
positiva
##eten
ort
fordelar
tillganglig
hunden
texten
resor
##fulla
anmalan
grunden
butiker
##agning
beb
undersokning
rader
deltagare
london
tusen
##sken
avstand
malt
artiklar
foret
anledningen
anm
fantas
anlagg
##lyck
##irekt
kans
##sliv
tillagg
dollar
tok
bredvid
overtyg
##visa
sjukhus
desto
relev
top
effektivt
##anten
narmaste
egenskaper
##ze
grattis
##angd
langivare
##gruppen
dog
planer
##qvist
##start
##arm
bussen
beskrivning
sags
gemensamt
lasare
##namnden
fuck
##lost
tacka
sval
uttal
europeiska
maxim
julkla
ange
flykt
funnits
iphone
produkten
pagar
run
framtida
mobilen
hanga
##jande
bodde
vagg
passade
misstank
okade
vr
genomfora
##th
##erligen
##opa
utrustning
nio
est
##ival
tycka
##vers
langsikt
insatser
##out
##cer
artikeln
minskar
##sprodu
stack
fritt
tillfallen
motiv
termin
minsta
##fot
rengor
##teras
bekvam
david
startar
arkite
samling
##ensen
dor
##resa
klin
##polit
ratten
1000
##ela
##rare
kommunens
kyck
asiat
##institut
##sakt
##derna
allting
sor
bag
work
##beroende
pil
##atorer
slott
##etten
tyska
##icy
varor
vaxa
hanger
digital
##smal
somn
glass
##lagen
expl
##ks
hundra
##hallen
thailand
support
37
##pon
motion
socialdemokrat
kurser
##grammet
##ose
ledig
konsument
pasta
##ugan
ofor
tacksa
##uer
##punkter
bytt
oppnar
agare
handen
##bilar
original
##ene
noll
lul
##stat
##olja
##hjal
vm
##ateg
kunden
verkligheten
skydda
##okoll
even
saken
duktig
slipper
individer
manaden
socialt
svt
48
varre
##entals
grej
alltfor
##fullt
fragar
ent
rekry
##forsalj
golvet
##burg
bror
national
##varm
lapp
##kommande
villa
forklara
hehe
offici
dildo
##alys
sundsvall
aktivt
tabell
sked
naturliga
finansiering
##varor
##fallet
##sprocess
motsvar
vent
tranings
restauranger
##haller
##pac
##edda
der
##skost
##lim
150
##inen
klubben
##hag
marknadsforing
vaga
speg
represent
##sbe
mikro
tydlig
familje
##uff
##flikt
mala
irrit
civ
upplever
##ows
varlds
jamn
aktiver
dn
teater
perioden
handels
kik
pin
patient
bestammer
##lades
swedish
##cel
div
##ams
metall
motet
utfora
##ockey
##isten
bem
bett
make
snall
##juter
eventuellt
##kra
uppmarksamhet
utbildningen
moten
tavlingen
##foring
##rarna
forskott
##platser
##ebra
identifi
fargen
stimul
hastar
fundera
volym
##ep
jud
rora
radda
arbetsmark
##vetenskap
butiken
alsk
fodelsedag
skyl
bestamma
fris
arbetsplats
##11
##byte
##jung
nerv
##umm
##fel
aktier
hemm
shopping
invan
affars
sexig
##ekonom
satsa
##stiden
girls
emma
skador
forestall
turk
##histor
osters
halvt
hotel
escorts
tru
sota
rena
##besok
##tekn
registrera
mc
elev
fastighets
alt
servic
assist
##sjuk
hinna
piz
##jobb
york
hjul
raknas
##vakt
fukt
65
kli
##kas
parkering
diskutera
beslutet
##yndigheter
##uv
avgorande
rant
vander
ledar
##ffekt
##matt
ingred
dekor
prot
stammer
##rades
##jansten
anslutning
##indra
samla
halm
sus
uppna
##speri
##staden
tillbehor
kompisar
horde
##irt
hyr
lart
##box
skadespel
forand
aktiva
automatiskt
felakt
195
balkon
##spa
utok
nyss
dos
##varde
sahar
sammant
tillfallet
##byggnad
situationen
##strin
fortroende
##liv
aterigen
##onger
hyra
fortsatte
noggran
doft
garden
unik
##ign
offentliga
jonas
check
##schen
exklus
sock
kameran
gaster
lamnat
ingrediens
anger
tant
amne
nyfiken
sd
##skrift
##ikationer
##vel
hypotek
gy
nojda
##ingarna
##schef
sty
behandlas
ky
##onym
##huvud
bjod
avser
faller
##agra
that
##uro
2005
engagemang
##bladet
latar
blas
introdu
efterat
informationen
##oft
karlstad
spelat
isra
##agram
behor
hemmet
angest
##risk
medveten
ledam
gat
##orld
##stallningen
prag
##ivande
organ
##hj
domin
hypotekslan
miljarder
mall
inner
onskemal
trygghet
##ris
##lu
stro
##ningens
kvinnan
##nare
sprid
center
utrymme
ig
##bra
bostader
helhet
skand
arbetat
bedriv
##kul
stefan
handelser
vinner
##fir
ryssland
##agande
##annonser
prop
42
love
tranar
franska
staten
kyrk
noga
sop
sarskild
##slos
##ema
##tel
##resultat
tall
##satter
dryck
fjarde
ansvarig
riktlin
boras
##upplev
presid
##kande
##fria
wind
##got
norrkoping
grans
ryggen
##mannen
presentation
enlighet
sorg
planen
forskare
framsta
sannolikt
skillnaden
loss
##omraden
fn
##mode
grejer
saledes
##indu
lulea
##mus
##ffar
skolor
##iot
totala
framover
anim
nilsson
mas
##ome
registrering
##ttar
slang
sel
ansvarar
lokaler
mos
##stra
relationer
kristna
##ladd
kris
lamnas
arbetsgiv
forsokt
frankrike
##ners
minne
##tryck
##fi
kry
##illkor
##tjanst
##ikte
andring
rob
##formation
44
##kningen
traffas
##rument
fira
omfattar
obe
tonaring
kristen
posted
marie
finna
angaende
blad
driva
##partiet
album
kalmar
##briken
##aterna
##terade
ekonomisk
vaxjo
forstark
fasta
forre
omstand
46
omedelbart
upptacka
koncentr
##ustr
rorelse
troll
##kval
snitt
formed
medborg
slit
##samling
toal
tomt
##ums
pask
##taget
49
summ
omgiv
##rep
regi
##mask
bull
hov
##lagt
kasin
eftermiddag
##ordningen
##kontakt
jurid
forekommer
svarare
rejalt
veter
##anser
gull
##handel
##savgift
forpack
lagstift
konflikt
flyttade
handlade
luften
foregaende
surf
sovrum
skiljer
oxa
halva
##cks
cafe
mysig
inser
hemsidan
##verse
##asen
##lekar
delvis
pigg
intresserade
pann
antar
skoj
strateg
afr
hag
##mmande
##spart
##maktige
##botten
rott
refle
bostadsratt
misslyck
exist
##ortt
##bak
##radd
styrka
##material
myndigheter
andamal
kommunal
kina
##sprogram
##vards
historien
resul
plat
##ripande
lagar
pra
intill
##12
avlon
forhallanden
situationer
diskussion
kortare
##urt
sjon
instru
evenemang
traningen
dikt
sekunder
dop
pyss
observer
cykl
lyssnar
##komma
##skvall
bock
inredning
amnet
omojligt
##go
faststall
redig
ledning
##000
underlag
##aning
riksdag
romant
99
belys
kamera
##domen
##icera
framgar
asikter
trapp
forsknings
barns
forny
troligen
##gards
##sbol
trivs
brett
jattebra
skona
##umt
set
innehallet
##mail
##kanna
jamt
erbjudande
##ley
thom
eld
##annen
rese
antagligen
trevliga
goteborgs
leverantorer
vanligaste
lott
avst
lax
svenskar
fattar
reserv
tidig
##bror
flicka
champ
cancer
vapen
##hi
instagram
us
dyker
visserligen
utomlands
knappast
guide
foll
enheter
kallad
presentera
hellre
bjud
inbjud
gi
anti
leka
narmast
line
arbetst
##tr
ris
initiativ
anord
gifta
ekonomiskt
skapat
benen
from
##ini
##ssk
##undersok
koncept
##ktiga
kollar
linje
planera
tvart
hin
planerar
##ommen
gemensam
mkt
##delen
akadem
samverkan
mac
kalen
##agan
svaret
behandlingen
sjukvard
inomhus
atgard
foremal
stift
##ble
##garen
order
##ingsdag
##klad
2004
manniskan
guds
##kal
##nor
allmanhet
tillsatt
jobbade
lordagen
vanligen
halmstad
##enskomm
appen
ald
##vide
overvag
definition
bott
england
forstaelse
tema
bot
linn
planering
paris
neder
eva
markt
motesplatsen
cro
##olf
frys
pepp
kontrakt
gul
arv
cyk
power
leksaker
eskorter
##omin
avfall
ovanligt
behalla
formid
annon
teen
raka
ventil
##brit
utmaningar
##stud
illustr
poker
stannar
pers
jamfora
mika
##boken
familjer
kass
more
olja
billigare
fjall
muslim
offentlig
##ese
##play
darifran
rit
prost
banken
henrik
paul
##jejer
##hast
landets
still
forsvinner
world
##bad
avloningsdag
##rog
ki
storst
kyckling
etik
ci
blogga
##forbundet
##minister
##ssons
osk
##sven
frihet
uppstar
klatt
##beskrivning
eftermiddagen
##landa
journalist
glomt
tradgarden
vardagen
karriar
troligt
alternativt
magnus
kassa
tjana
sec
##platt
grymt
koppla
axel
betalas
erbjuds
relat
##inarie
tycks
##40
##orget
##elle
inslag
##isera
annonser
##rig
fond
##lever
fora
wall
##vark
verksamheter
kritik
elin
tolv
summa
doda
##losning
modellen
##osof
repar
gyn
ansiktet
investering
obs
paus
##skort
progra
uppenbar
storbrit
##iller
##ms
##fod
speciella
rekommendera
##bla
##80
##spolit
bevilj
arkitekt
##ega
##behandling
manskliga
styrelse
blank
missa
##tiden
ica
vik
hinder
storbritann
emellan
lediga
hamnade
spark
svarade
pir
lost
tusentals
trend
laten
mata
referens
##rost
193
intell
slippa
apple
ler
##ino
##ikal
##ampa
cool
processen
lic
flyttar
index
##umer
stallning
##bal
stannade
dia
litteratur
##way
##rikes
##kopings
ker
ever
##rats
##grupper
oblig
##drade
smid
fysiska
##ogon
##batten
##onn
arsm
reag
traditionella
status
gren
##ikat
##smat
mids
sjalvstand
##fit
##bolaget
sug
##smark
anvande
verklighet
kraftigt
##projekt
speciell
##fu
umgas
##dal
slutligen
oberoende
trang
plugga
krimin
rida
##smak
lyfta
fen
marker
##ents
##ifier
gusta
faktorer
##rop
ostra
himm
##60
gymnasie
foton
bestallning
gront
emil
##ivalen
##lik
##ial
isol
##ads
runda
##kod
##erie
krydd
uppman
##gick
texter
##liggande
spanien
43
utstrack
blond
##sman
##rass
##sfri
##fart
praktiskt
foljde
forlang
moln
format
##js
##etar
dim
anvandar
iv
##banan
utseende
nick
yta
hors
viagra
smatt
##orse
insag
inkom
plattform
inl
##orp
aktuell
tillsyn
##lit
##ire
hamtade
veckans
jen
##xid
utgangsp
skulder
matemat
lagenheter
bekant
##sspel
##hals
bjuda
thomas
##valda
kos
slutsats
47
##vi
##een
dum
stader
lyft
utgar
lask
egendom
##sjo
##rek
besoker
##produkter
##oci
skara
https
flexi
varmen
forskolan
##gubb
rekommenderas
##otta
##fam
attrakt
dagligen
lut
apotek
##oppa
##kret
##porr
##lass
ikea
kines
syr
forslaget
spins
exempl
garder
sekund
uppm
##gra
kandid
snur
nyhetsb
forsak
overenskomm
karin
##kam
windows
ordinarie
##vagn
olof
karleken
##ssan
stoppa
##tog
publik
##hamt
##service
##orda
kus
mobler
uc
tavla
spelas
bibliotek
diverse
bubb
##meddel
gumm
##varme
##sbygg
imorse
cell
generellt
somnade
tillag
##skrav
lone
##byg
##oth
utlaning
undervis
meddelande
##skurs
##pacitet
kaff
down
##sfull
mr
lamplig
##rimin
##yer
forsamling
hantverk
##oten
ledsen
eskil
israel
intakter
rest
kapitel
gn
kontakter
##marna
rekord
alli
traffat
##bryt
mont
high
transporter
austral
sun
##passa
aktorer
fagel
eleg
velat
typen
imm
swing
aller
##fragas
##skop
##kro
lesbisk
avsloj
ringer
##ah
glomma
tacksam
##beratt
ting
blick
belon
kreativ
upphov
forlag
expert
representer
##pot
intraff
minut
fokusera
skoter
utnyttja
morse
##15
forest
##18
byn
flertal
##alisering
losen
riksdagen
##ationerna
livsmedel
##astro
##forvalt
linda
verkade
besked
upplag
personligt
tids
uppmarksamm
##nads
vandring
il
##aldern
##tack
harda
suger
kontinuer
leverantor
stallde
styra
temperatur
femin
##istisk
starkare
##rapport
klassisk
##forbund
house
vaggen
kod
beteende
##ap
##uu
figur
hasten
andas
##ekul
##skill
sjukdomar
spets
##osex
latta
regelbundet
konkret
storbritannien
bered
sutt
##anken
stav
##ansvart
sjukskoter
distri
##bana
ii
##mak
##sbyg
undersoka
svett
##vd
munnen
forresten
250
snack
##peri
bakt
anstr
roligare
ment
andelen
diam
##asy
klassen
pc
handlingar
juster
fott
##orj
ull
dialog
protokoll
suc
mell
hack
effekter
kanal
##lista
minnen
telefonnummer
##vete
affarer
sakerstalla
brudar
stada
lille
##rut
pren
avslapp
kannas
skonhet
syssel
##sprodukter
ago
pi
malin
pdf
##con
movies
##inav
##udd
hass
tyng
mix
##ision
ovant
avses
##inska
##isering
##bby
biljett
seri
192
riktlinjer
##idan
farre
likad
varier
djupt
larande
genast
##oja
##uch
halls
kull
tuttar
kompon
mobiltel
war
pap
springer
avtalet
galla
invanare
afton
##talje
##vast
kaka
deltar
##aks
vibr
mp
59
ult
intressen
jordbruk
andreas
plugg
##tav
##skam
190
tunga
kategorier
enormt
##70
blek
mini
##nast
tillfor
##vikt
synner
gubb
utstrackning
##yndigheten
musiken
##ummer
##omp
tidning
inspel
##ission
adv
gjorts
dygnet
dygn
recensioner
##och
denne
beskriva
koka
berom
##skrig
attack
raknar
temat
behovet
##alet
lim
suttit
saaa
lena
praktiska
##ney
verkliga
##ence
##ance
motte
strum
upplevelser
jamforelse
medfor
##sas
uppat
aspekt
behandlar
##reter
##gu
600
##spl
coach
civil
konsumenter
friv
twitter
##umin
nyar
bordet
utredning
datorer
demon
get
foljt
tvar
ell
cum
##stig
##uppgift
somna
sanna
lokalt
foretagets
gb
fredags
snalla
hatar
##sprojekt
ansikte
larsson
##log
motsvarar
lou
praktik
anlaggning
innebara
trosor
baserat
organisationen
anpassa
lanken
##rick
skarm
ugnen
fara
kyrka
til
shemal
goran
kilometer
mek
farligt
41
farmor
befintliga
premiar
island
hakan
bilaga
mojligen
##jun
##bef
samhalls
2003
##ned
bestammelser
pussy
##innande
##isterna
garanti
gemenskap
tranare
fasc
body
##skog
serios
lycklig
##rod
arbetsgivare
gjordes
arenden
duktiga
leverera
##rika
hockey
##dagar
planerat
fordju
gustav
##skyd
aterstall
handelse
anhor
forvand
rekommend
time
##otet
green
miner
hanna
stycket
##mast
##gin
arab
##our
levereras
cup
have
uppmunt
syftar
##avtal
besikt
##insats
undervisning
kreditkort
52
prenumer
varierar
##core
uppfattning
##flytt
skam
omvand
lisa
baten
gillade
tvartom
##fast
bandet
ask
vardet
##varna
samlar
inkluderar
legat
eric
foreslar
##bs
akut
##alternativ
smidigt
nad
charm
tillfred
tavlingar
kika
negativa
varenda
##rustning
arbetslos
cd
byggnader
ledde
nordiska
vett
##rin
##ares
##sna
svamp
aga
konsult
##forening
fastigheten
jamstalld
historiska
##skans
##skande
kollegor
bakat
##aktor
pod
reduc
taket
paga
framme
stott
arkiv
karlsson
atervand
express
##kak
harom
##lett
internationell
rank
forklarar
##ination
islam
##skolor
##bordet
aktenskap
##ked
pojkv
eventuell
##angel
resultaten
##stjarn
skett
final
smink
##formaga
penis
smaning
3d
##glas
##ismen
##dition
##ratta
ball
sakta
specifika
store
##ivna
ud
instrument
wal
himmel
halsen
minnes
turn
##ojligheter
##sall
fynd
bif
ambition
praktiken
siffror
pic
bryr
ye
skru
hjalpte
forandras
borg
read
west
victor
personligen
tydliga
fysisk
##emon
verka
overlag
hat
angiv
privatperson
fastigheter
fitt
##ologiskt
formul
lovar
materialet
gransen
##uf
ert
days
likt
##bat
snon
losenord
kategori
foredrar
foretags
##li
vantade
utmaning
##itim
diagnos
120
tatt
behandla
trum
has
##gg
kontant
##skottet
##pre
mur
bengt
foretagen
isa
##ero
bryta
dramat
##agna
vaxter
fonder
intryck
##familj
eskilst
##ografi
president
knappen
##somradet
baby
kvinnliga
riskerar
argument
inriktning
sondagen
sexuella
favoriter
religion
lopande
ht
##enhet
wil
dagis
ljuset
##elt
naringsliv
##ani
cialis
utvecklar
stadens
omt
spraket
##bocker
framgangs
smaningom
##anmark
##usk
frivill
##tet
sorts
kvitt
slapper
ec
##90
word
##syn
gronsaker
johanna
rapporten
levererar
##formed
bang
andro
##olution
morka
##domar
hundrat
kopen
foder
placering
95
##arch
mikael
drabbas
ogonblick
insikt
trav
aw
##fla
##rid
##hyr
robert
pum
storlekar
##butik
uppdraget
stanga
eleven
##jet
kniv
call
galet
tillbring
bomull
##ml
drivs
landsbyg
kladd
blandning
emeller
ovre
##sgatan
klanning
tvingas
parad
##itor
emellertid
avsluta
hammar
tings
jarnvag
micha
klick
kalas
rutiner
bik
##holmen
85
spendera
uppfyller
torn
##nades
delas
eskilstuna
paverkas
##pad
sanningen
##ansvarig
kommunala
good
vakna
lur
fragorna
##skick
##agarna
brut
tvatta
webben
##mans
##16
##ness
anmala
naturlig
forlust
minuters
##odet
mojliggor
pojkar
gatan
annonsen
riktning
forf
liber
cu
##varda
##ringen
sajten
observera
falla
troja
uteslut
badoo
medlemskap
handerna
tagg
jordgubb
gotland
##sil
cha
oppnade
abo
##job
kristian
manniskors
tjejerna
webblas
##unds
lade
##verkets
##ssam
brad
branschen
##spris
ken
hallet
larm
##problem
tillt
hoppade
nomin
internationellt
##ektion
kraven
trycka
andringar
hastighet
##upplys
foddes
melod
uppgifterna
landskap
barnens
dagliga
skot
ank
beakt
tang
##ones
##beln
priserna
hug
gymnasiet
presenteras
publiken
##ew
56
bens
##sstil
hantering
##ally
lita
forfattaren
nett
##kok
packa
##roller
fatta
forskola
integritet
station
infekt
stek
impon
market
lane
##ktorn
##koppling
skydds
jos
oppett
tekniken
##ioxid
cas
vinster
deltagarna
samlat
##landet
medans
##bru
##holl
sexfilm
vikten
slot
##center
##aker
korr
strid
vacc
reha
turist
##branschen
##igaste
cla
filosof
scenen
##efte
##pten
anstallning
##analys
farsk
ifragas
##ac
hjarnan
##opt
##ards
begransad
##vention
gitar
betalningsanmark
##skydds
##inspekt
jattef
formen
kvad
diskrimin
yoga
solna
kopenhamn
sed
rika
tillater
##ffs
sprida
baka
ytan
mangf
##cia
ox
##kommit
jer
##ivitet
uppdatera
reglerna
lordags
tip
54
fik
fotter
byggt
##fru
skinn
bitar
ved
##ingo
fjarr
##jarna
sinn
pall
##somrade
sexy
##sforen
feber
club
##slo
##stallda
64
look
tam
##det
##issar
orden
finaste
##14
biljetter
##light
marc
##dra
aktuellt
smitt
bredd
hp
ork
forsvann
hette
##unskap
##que
home
sparar
ideal
lett
testat
53
utbildningar
broder
oron
sakerhets
fiske
##storp
kanon
mangden
fritids
tillat
drommar
partiet
misstag
konkurrens
posten
uppfoljning
##bba
add
##ifest
##hantering
effektiva
rosta
uppfyll
##foreningen
mage
android
##cm
orolig
##text
begrav
##iserade
kronika
marke
##komp
##wood
##karna
cor
verket
stilla
our
arliga
atmos
studera
##attan
##behov
asp
granser
beraknas
##information
##17
##assiga
forvantningar
livs
dalarna
hyresg
julklapp
##best
##terat
smslan
vunnit
##stam
2001
mjuka
homosex
##bjud
##alder
utstallning
foreskrifter
nivaer
kryss
##sklass
##station
phot
arlig
yttre
delakt
mill
##jord
forvaltnings
bolagets
##bilit
watch
##skrona
##morgon
##teckning
teknisk
erk
serier
julen
bebis
avlopp
frid
shemale
gymmet
spelautom
osc
180
liter
garderob
betydande
##iff
##resor
efterfragan
innehalla
beach
gustaf
ve
protein
2002
konsekvenser
lader
##strand
##byggd
laggs
forvag
uppvarm
eriksson
alv
fyllt
grepp
800
terror
persson
danska
##sned
vo
telefonen
sjuka
phil
orter
impl
##fraga
dott
milit
##spass
skapade
separat
sthl
##produktion
fredagen
utga
##rigt
hallbarhet
kvadrat
kommunfull
##skra
act
##ubl
licens
##sfall
inbland
sprut
utsatta
ingredienser
##esh
front
##arium
bekvamt
##tas
##pporter
jakla
##aaaa
forman
finska
##bri
tillgod
identitet
kir
asa
vision
paborj
utlandska
godkant
malm
offer
kommersi
stodja
##inter
langsamt
sannolik
hoja
presenterar
passion
livsstil
forstod
underlatta
medborgare
##ransle
##chen
##iness
redovisning
##efoner
##kons
jeans
poly
signal
dokumenter
dyrt
placera
planet
spann
ledarskap
anonym
##iera
2019
##makt
agera
kampanj
##otika
1800
##anmal
midsommar
moms
##no
foreningens
##utry
vaknar
slots
trett
orsaken
karakt
fer
##smed
##do
togs
##aret
skala
tilldel
oppettider
##alism
fril
##vav
uppehall
paverkan
dyra
rosen
norrland
##sand
ryck
batteri
##yft
dricker
investeringar
norska
iden
affaren
holm
##ges
bearbet
##hen
uppfor
##ags
cal
##ison
##so
##vagar
##ited
nybor
vitamin
timmars
ovningar
##ancake
intresset
besokte
reson
##erien
##reterare
jap
alska
ke
pizza
##orts
foraldrarna
gammalt
diabet
kostnaden
##elen
yog
forbjud
sidorna
tillganglighet
kne
##paket
karta
spot
##entlig
##ij
professor
kvalite
arena
forsiktigt
##skaff
anstalld
insattning
aring
##forsaljare
##redovis
kvalific
hamna
kommunik
tillfreds
ink
bockerna
utmark
suga
##sted
rutin
life
gri
bd
##sbes
##hjul
brann
norden
samlas
kud
statt
hungr
klag
forhindra
##annan
skrack
regeringens
betalt
para
tunnel
##oppen
kommentera
##eftea
veckorna
##ament
beskrivs
misstankt
obligator
spons
##gym
##zon
sofia
risker
synpunkter
forvarv
larar
##visningar
dras
hundarna
ori
small
##dagens
##skador
##omb
tera
roster
##fre
specifik
##disk
partier
halvar
tt
##stillstand
radi
##19
faktura
hallen
dun
##idrag
ked
sticka
tram
berattelse
backen
allmanheten
57
personlighet
grand
amerikansk
paminner
ovanfor
sallad
forvantas
maskiner
##issionen
deltog
sthlm
berattelser
uppskattar
inse
##24
##priset
##hult
jenny
uppdatering
onlin
forsen
##ale
katastro
konsert
fonstret
##punkten
avsikt
##iam
soll
rakar
byter
foreningar
kategorin
##rull
fartyg
grek
bbw
legitim
##vardighet
stalls
pratat
##rycket
installning
sovit
patienten
von
dress
lung
brister
spanska
godkand
##hr
distans
##lott
himlen
##vald
##styrelsens
##spelet
aud
blu
migr
bollen
##meter
##kyl
perman
##akar
miljop
##ffektiv
##pool
gotal
##oped
fortjan
bist
acceptera
distrikt
symt
valk
##okl
restaurangen
valp
forsvars
aldsta
varda
betong
##handlingar
flyttat
ml
arrangemang
meddela
foretrad
##sket
enorma
inatt
##savtal
58
innovation
arbetsuppgifter
funktionsned
kim
##entering
tjejen
gilla
hih
sambo
##wn
ansoka
brittiska
overgripande
mans
trist
ramen
ven
avse
##casin
astad
korkort
installation
upptackte
lansstyrelsen
frida
jula
galleri
utfly
ansvaret
##bt
sonen
sci
class
pag
past
vantat
jac
detsamma
riv
videon
sana
omfattas
forvaring
bakgrunden
storm
besviken
morkt
skickade
oliv
ms
##ssjuk
infrast
missat
##arden
##duk
samlade
narings
sne
##cam
fotterna
gig
volvo
vistelse
guid
doktor
enorm
##stekn
##ira
okning
##kostnad
fader
##ool
pagaende
luck
variera
datab
hr
rast
forbereda
yrke
medbor
pamin
##konto
##dorr
ulf
##slin
##stolen
skapas
samord
##kram
asiatiska
moment
forlorade
##sby
##jort
##maskiner
advok
##antor
rante
lass
tjanstem
chatta
killen
fardiga
kommunerna
regelbund
innefatt
kasta
kold
##ydda
obehag
##former
##uti
meny
##massigt
##drom
varian
upphandling
mack
tjanste
loppet
parall
##funktion
losningen
##usen
##banken
##programmet
begreppet
spelarna
##artik
populart
armen
njuter
hardcore
##vig
##centrum
nyhetsbrev
knut
element
tungt
fulla
##istiskt
starten
ake
##13
politisk
##gol
befolkningen
fanga
cur
allvarligt
drack
agen
##tur
##verktyg
godkanner
##ath
##byggda
alumin
utredningen
enskild
##uggar
ljung
tempo
nervos
katter
avgora
##tals
overlev
menyn
budskap
byte
like
oversikt
##cern
rand
##22
gram
traditionell
kreditupplys
avkast
##halsa
skov
##sgrupp
##gatt
natter
spin
meningen
##eteck
transa
enst
navig
##´s
skots
roman
erkanna
##belt
##cir
inspirerande
michael
ledamoter
##sliga
##hydr
fruktansvart
69
avlag
cop
lampligt
billigaste
##hallanden
rorelser
ytterst
attra
##ces
lektion
tander
ostersund
invig
escortt
##stark
klas
##ylar
forekomm
forloss
journal
pappers
##sug
tidningar
saljs
##egrans
massan
game
fur
kapacitet
politiskt
sekret
gjorda
upptrad
garanterat
sammanfattning
minskat
lakemedels
negativt
retur
##kna
informera
##eman
faktur
fenomen
ana
enheten
forvir
skiva
loser
indik
leds
ri
vagbeskrivning
utforska
arbetsmiljo
##mod
##gjord
materi
##hoj
##innan
tillampas
fullstandigt
komplic
##slivet
miljoer
vaxande
chock
##radena
##varen
##dan
seriosa
praktisk
panik
fardigt
utslapp
##rov
aluminium
sammanlagt
banklan
vav
museum
##ili
tillgangar
##edia
##regler
banker
fyllde
bemot
lider
kollat
spanning
lyd
##alitet
nic
##lopp
what
riks
##iserad
yttrande
##ografiska
produkterna
globala
##orten
##uel
slanga
vinnare
skolans
##trafik
fungerande
fysiskt
business
sej
##oper
forlora
##lock
regionen
##lapp
minus
bestaende
steget
skamt
bind
##kvens
muskel
##jare
belast
##ningss
oslo
##temot
##backen
strang
statliga
rag
studien
##sarbete
petter
global
livsmedels
skarmen
skank
kick
olsson
##atgarder
trag
##igheterna
##fig
enstaka
##dt
remiss
krafter
aterstar
nodvandiga
unikt
asyl
snacka
mottag
torka
vinden
fota
fiber
register
utgangspunkt
byggnaden
kombinera
anstrang
satsar
versionen
##alten
##ugh
kust
##fym
##don
##oty
##fet
bondag
##somraden
##andan
efterhand
kong
talat
##bost
viktigare
konstant
ledningen
tull
kalender
smaka
anvandarna
certifi
narhet
sjukhuset
anmark
##amman
rog
smaken
##jam
##dack
kunderna
##orier
harry
deltagande
forstor
##formen
aterkommer
mobiltelefon
marks
arligt
##foljande
anl
erhall
cap
kortet
##regl
##sprocessen
rop
antik
mull
ida
vegetar
bea
pojkvan
skyddar
tig
manniskorna
overhuvud
identifiera
elit
grabb
sav
##anna
livsl
##ou
##prak
spont
prim
avsnittet
utvalda
##annes
tjanar
kulture
##com
##speriod
kampar
##25
##oka
kriget
##vardet
belysning
aterupp
motesplats
begag
usch
day
operation
##blogg
##staller
##ultur
sokande
mem
##ical
ordna
forvaltning
##rem
##hopp
skylt
utvardering
grus
vice
kvarter
##plikt
undersokningen
access
##visar
report
japanska
omstandigheter
arendet
undvik
baserad
stallt
##idens
##lage
drott
anton
forstatt
kosta
kommenter
##usten
cle
resen
##ssystemet
##imin
1990
konstatera
##rant
expon
##attar
gissa
##just
provat
inflytande
troligtvis
vaxte
citron
framja
##ikapp
vitlok
##skriget
rollen
balkong
forn
elva
simon
klickar
forvarva
lastbil
##ordet
##hjalp
outfit
variant
klippa
smyg
carol
rich
svarigheter
suck
##cial
jess
##marken
##ike
amnes
redovisas
traden
##ano
monter
##nitt
galen
begav
##sstyr
ess
larde
gunnar
##betyg
ukra
shop
##ye
omfattning
##tain
forbann
rubriken
missbruk
##ratter
fangelse
varderingar
lyfter
##ningsfor
byxor
##75
##skift
tax
##laren
gilt
##sajter
formular
##urg
##kansla
peppar
fac
mobila
##spelare
utfors
slappte
##inlagg
tekniker
##iew
svensson
##jej
##riska
##hh
rengoring
##industrin
alg
korv
##evis
speed
professionell
##bott
henta
skell
harmon
sken
##anke
centralt
rat
dimension
##lander
##kamera
tviv
klarade
auktor
party
##cell
utgifter
garn
lagstiftning
nyans
skri
hv
##ovan
titeln
##bell
textil
syskon
slutat
ursprungligen
utvecklats
utvecklat
dvd
fylld
kampa
schwe
white
utspel
krediter
relevant
##byggande
olje
mattias
fixade
##ikanska
forklaring
kj
omsattning
##di
nark
vanilj
tenn
arbetade
uppsk
aterforsaljare
##iering
forbattring
matematik
varumarken
pump
fokuserar
programm
hogskole
gras
lockar
##olver
kiss
skift
##stil
femte
titel
sveriged
cykla
kontaktannonser
##uft
##betalningar
bul
nut
dre
producera
##fen
ersatta
fabrik
##ikon
bondage
kommunfullmaktige
onska
dl
ock
avvik
##boende
##kyr
prestand
byggdes
installningar
##lakare
tillverkad
serveras
inlogg
jattem
##jack
##malm
hangde
##day
virus
vana
advent
##finans
##bildning
talt
##che
myst
gallde
militar
dynam
tumm
lasning
kostnads
##jorda
189
tele
##utrustning
tech
rester
pant
##sland
begaran
1900
arende
blatt
##klipp
hemskt
skandinav
toalett
##sakerhet
lakaren
##asten
premium
##resent
samarbetet
lagsta
delarna
mick
slump
vaggar
kru
##inns
statens
kaj
boksta
##ospel
sverigedemokrat
madde
frustr
foretagare
casinon
##rollen
debatten
overklag
orgas
##valla
fry
##cykel
##miljo
##ary
fungerade
##skall
##flyg
publiceras
vild
##jd
taxi
krang
##fo
pojke
email
term
##bandet
dru
normala
smuts
skarp
kontanter
pred
varumarke
alternativet
koppar
ast
aik
tankarna
barnets
naz
hyfs
##sback
satts
gest
##oom
##ampan
regiss
varianter
papek
uttag
kvinnorna
hihi
##redit
skyldig
styrels
mari
experter
aterbetalning
##verksamheten
king
rus
mex
##ils
abonn
forutsattningarna
bin
lot
diabetes
##kurs
##iljon
arter
negativ
biblioteket
##papper
##mote
vager
kontinuerligt
handikapp
prognos
lyser
italienska
kvant
boj
##inerande
##stal
koppling
arig
colle
##splanen
hop
##sattnings
hahaha
##cing
##bull
brud
rullar
action
gula
dubbla
1999
spelen
ten
bis
##iler
anteck
tidiga
kabel
##ytan
vande
dagars
prom
specialist
onodigt
schweiz
63
utrikes
##smedel
aftonbladet
diskret
tart
cra
##onerande
roy
##ljus
##ikan
forlat
66
majoriteten
##bre
##plat
upplys
##datum
ts
funktionsh
firar
##gora
orkade
vaska
sjunga
typiskt
dick
huruv
lil
effekten
usb
diskussioner
kristianstad
skaff
omdom
##tran
bron
gradde
##visor
namna
markligt
oand
huruvida
well
kallor
rakade
overhuvudtaget
leag
skjuta
jamstalldhet
aterv
ekologisk
malen
##samtal
allvarliga
##litt
tipsa
beslutade
minnas
debut
##effekt
##sperson
avslutade
hentai
##spark
berlin
dart
gom
trans
blott
tan
bytte
##bilitet
ekonomin
behag
arskurs
skivor
skillnader
##arn
officiella
repl
vint
lud
pig
generation
delade
##stallande
cyklar
##imeter
vardera
solid
australien
skepp
##peut
narmar
##shem
jonsson
potential
group
##rus
majoritet
sodertalje
malar
##stin
ensamstaende
kock
##skas
##steg
##ipend
##itch
resurs
72
##elar
tjugo
##kland
##emed
rektor
fixat
bh
tillfalligt
myndigheten
anvants
##stjanst
policy
julafton
micros
##ikern
medlemmarna
smycken
genomfors
##ole
konver
##undersokning
##atter
sjunger
workshop
##atiska
missade
teg
parfym
nude
##porn
komfort
67
##onde
lararna
kilo
badd
planerade
sva
metoden
funktionen
demokrati
flickvan
heltid
##ystemet
51
beky
sorters
kommunicera
##ygien
maken
punkter
filer
sokt
tillslut
installera
josef
kostnaderna
##orth
overenskommelse
exklusiva
julia
##sko
uppfylla
bredband
tvekan
##rater
gentemot
breda
##eled
##erv
skatter
beslutar
finalen
flertalet
1500
latin
bjork
open
stjarnor
ombord
##handeln
##knipp
vaxel
filter
christian
how
multi
konstruktion
bero
##kap
##rol
vakt
dep
dansk
mangfald
##grar
maltid
##mn
atervin
pay
galopp
##agor
sites
influ
ogat
manaderna
astr
international
legen
individuella
##celler
trycker
flor
riktar
lakar
belaget
##eka
stunder
rens
tacker
##bilje
##atur
hogskolan
##slok
##alisera
brasil
mojligheterna
##span
mojlig
tja
jas
friska
professionella
vardagsrum
testade
formagan
ekologiska
glommer
lod
temperaturen
koncern
pens
socialdemokraterna
skedde
##ssen
vantan
extrem
##yo
plagg
700
##hallare
avdelning
oftare
behall
ple
stream
##omal
microsoft
sr
granskning
intensiv
torg
kolhydr
foredrag
konsol
bdsm
squ
##marknad
##forandring
jatteg
##lon
kontoret
redov
tantra
brot
alexander
omgaende
anvandes
presenterade
imponerande
##hallning
foralder
ljusa
##dags
##meddelande
oscar
morfar
skruv
aja
##juka
##iserar
flygplatsen
investera
##sbolag
nationell
finansinstitut
roller
analysera
##old
muskler
talade
etn
league
##ane
skin
framtrad
##aring
brygg
marcus
##blog
mynt
storleken
matlag
narvaro
flygplats
lyssnade
##hallet
rehabilit
she
tackar
##skarm
godkannande
sokte
hanterar
jenn
privatpersoner
##ckande
bokning
processer
hoppar
##naren
teori
dansa
ful
skradd
##ous
##bbe
underteck
undersokningar
kvm
soft
ledigt
besluta
associ
##ati
decenn
gna
##teknik
xx
##pra
seriost
##agge
ratte
hogtal
forkyl
dyl
hastarna
##stran
valut
bevar
festival
##kott
##spe
##ico
kunn
blyg
fattig
tvang
blixt
lugna
ursprungliga
skelleftea
##tagna
synnerhet
bestallde
likasa
pick
##bile
tagits
leende
##atiskt
forvanad
ursakt
62
virt
arligen
ovning
##slar
jakob
vanskap
trafiken
##hs
tomma
vardagsrummet
kompens
portug
tap
##process
1998
liknar
glomde
tillverkar
besluts
uppenbart
##skolans
swe
placeras
servera
##bod
##stick
bryter
##ax
intellig
anfall
samrad
##upplevelse
##rund
dies
tomm
##itten
lof
forknipp
aterkommande
upphor
##jot
88
manus
snor
aldern
allsven
nils
##ooth
avsk
dyka
##supp
oversatt
auto
krets
gitarr
vaccin
filmerna
##givande
krava
68
arbetsmarknaden
talas
##sajt
symtom
##gjort
hemliga
kanaler
fit
odling
formiddagen
flex
ljuv
medverk
##ocke
##kaka
hallbart
lenn
moral
98
gry
armar
##65
mora
dragit
extern
##ymp
bokstav
sexual
uppenbarligen
utstallningen
befolkning
flyga
musikal
skratta
brotts
adult
##jav
##hn
bonusar
lesbiska
##olyck
ara
rav
##hop
satsning
talets
skovde
kopet
##sbok
nice
undra
##sniva
##laggningar
flask
medi
beslutat
kakor
bransle
arbetsgivaren
aterf
laggas
ola
bedoma
primar
##ago
neut
uppre
##ski
studio
##mord
##elie
spekt
##last
forskole
##sproblem
linne
skogs
reflekt
medborgar
perioder
##usi
havdar
tappar
nodvandig
bana
tryggt
##platta
skota
hmm
problemen
##rakning
overfor
fristaende
hundratals
street
##rafik
demonstr
dahl
human
varna
marin
stracker
##byxor
##ript
##styrka
elegant
ahl
79
##kontroll
kassan
intervjuer
namnda
salu
skugg
produktionen
tradgards
kemikal
uppgiften
##sforetag
radsla
seb
opin
##byra
##cancer
uppdaterad
##holms
foten
skickat
psykisk
pekar
bekymmer
188
sevard
exemplar
radgivning
may
byggnads
mins
vilt
vans
utbudet
oppnas
flest
varierande
flykting
##frihet
hjalpt
tillhorande
partners
cock
ovanstaende
ado
brom
baksidan
ugn
##21
institutionen
pon
studi
interna
book
##agne
wikip
orka
##sbo
mejl
##ege
##ogs
redigera
levde
infrastruktur
stanger
regionala
##enterna
gasterna
involver
##havare
##umtion
notera
kusin
hallas
diskriminering
egenskap
vardcentr
division
##ni
##elin
avancerade
relevanta
##ify
munt
##su
tillgangligt
##letter
darav
parlam
camping
tomas
##laddning
anne
##kanten
old
forordning
citat
##hard
killarna
hjalpmedel
knep
win
count
fixar
rekrytering
behandlingar
saa
ext
avslutas
menade
##uth
konstaterar
inrednings
kommunstyrelsen
##aganden
inuti
lampliga
sjong
##partem
slagit
halvtimm
##ynda
arbetsformed
samarbetar
kollega
stugan
week
permanent
betting
##srika
lr
locka
nike
##fund
depress
##varon
##fakt
kampen
##planen
tillverkning
sjukvarden
kreativa
##beth
matta
##leva
hamtar
utsatts
##unge
light
uppgrad
kvart
74
arbeten
kontaktuppgifter
europas
##sty
##vas
##km
##barhet
##okan
gbg
anvandningen
beredd
##koll
meddelanden
##oli
besokt
forelasning
skriven
specialis
ytor
birg
##sbel
utse
##annons
tarta
len
trotta
trygga
##ordin
anslag
besvik
bekvama
first
forord
amanda
stralande
##skare
doden
skrap
lantbruk
sanka
medicinsk
behorighet
##afil
##tillverk
avslutar
pancake
##zy
tranat
hogskola
forekom
merit
smakar
##iets
sticker
##bygga
anlaggningar
sympt
kallat
grafik
his
##pul
flod
huvudvark
tillverkare
onskan
introduktion
##pers
tron
vaken
##namnda
##fat
##resan
dorrar
##sledare
tumbl
flit
viktor
teoret
langden
psykolog
otill
avdelningen
kaos
bostaden
agaren
blue
sondags
73
rimligt
patrik
##stugan
##etch
78
tonaringar
upptacker
##stang
##profil
salde
##jakt
sajter
langsiktigt
helena
mjukt
prast
torra
dagslaget
tomten
smalt
##laggare
forverk
##sprogrammet
bedriva
forebyggande
tittat
berattelsen
vilda
stackars
##arbeten
parken
gur
biverk
anpassade
ib
ande
regnet
##pert
nyan
badrummet
vindkraft
parker
spelaren
forhandling
robot
vattent
ariga
##gb
##istiken
distribut
##skvallen
anledningar
##idor
landerna
accepterar
kinesiska
wow
enter
tappa
97
palit
kundtjanst
rummen
forlorar
##ages
forsakringsk
upplevt
##riga
marknads
flaska
##bilden
dottern
##oppar
olj
lednings
receptet
lova
slappt
gluten
##ulette
fm
##forsvar
befri
##site
graviditet
varu
shoppa
downlo
mia
py
lina
pian
altern
reaktion
nob
glid
nordic
apoteket
succe
sekretess
##politik
turkiet
buk
##gorande
lukt
sakerna
brinner
noje
duschen
ombud
orsaka
manag
grundades
adam
##kningar
gos
leker
parter
dokumentation
motorn
dubbelt
##ute
hyre
##lagga
introduc
iran
##vux
dyrare
tumblr
fortjanar
kladerna
mysiga
missar
passande
nyborjare
##ulla
jazz
miljovan
djuren
underhallning
narmsta
76
kraftig
##nost
grunder
tappat
staende
prestanda
forlorat
nedre
bedrag
beteck
was
ljudet
slapps
ansluta
mekan
infora
##atsen
externa
garage
kokos
dartill
gyll
mammas
##ican
sjalvklar
##ente
##foretaget
medicinska
##orjning
smaker
grekland
makten
##sakra
klassiker
sko
byggs
langvar
bestod
##igenom
james
padd
##motor
nackdelar
bedoms
cash
forbud
falun
indien
bekan
##musik
##ugor
games
ff
##ador
skrattade
mega
kampanjer
noggrann
##alerna
ond
varldskriget
konkurren
ped
tilltal
##stan
immun
##jorn
##inspektionen
##agda
hogkval
drick
tatu
##unna
skilja
samarbeta
##arv
##ekonomi
havs
##rorelsen
alskling
wo
skraddars
sandra
finger
buff
lakt
kvaliteten
ipad
frig
nedanfor
erf
##nats
##tagen
##laggningen
forskar
genomforande
##fang
flyger
##stock
##smode
bastu
baseras
middagen
jamna
hett
diff
berorda
justin
smaland
##nan
stuga
##iske
bab
halsb
hm
##board
herre
historier
##fram
terrang
webblasare
uttrycka
verkstad
manliga
robin
kontra
udde
djupare
##lager
1980
bekanta
stamning
##work
hyd
vandrar
##makten
assa
##anmalan
##offer
##rel
##inkar
arbetsmarknad
##teringen
jaja
overtygad
##skriven
avancerad
inkomster
##jod
varmland
skjort
hobby
tillkommer
morg
##ilda
spok
##atte
racka
sinne
##lack
arbetsdag
kreditvardighet
skur
chanser
mums
##atisk
artister
representanter
examen
##veckan
livets
forsvinna
seminar
900
##valet
forelasningar
rulla
idol
mammor
funderat
funderingar
sexfilmer
labor
johannes
polen
##eland
redog
uppger
moss
synas
bun
frammande
kondom
fjol
rytt
vig
abb
margar
hardare
omgivning
prins
oroa
holland
wi
fog
stravar
##ado
##istret
julklappar
spelautomater
chefer
vagn
fantasi
##spir
##sal
anhoriga
teamet
palm
##infl
commun
##faltet
wild
ungdoms
barndom
exam
##oman
appel
noggrant
katten
89
##sbest
tapet
##skomp
torsdagen
allvarlig
ale
mandagen
ping
personuppgift
cer
##uck
##jall
vetenskapliga
77
asiatisk
intyg
undervisningen
nivan
varannan
jacka
kontakten
desp
ze
fans
##ki
senior
##given
##edig
##skiftet
tradgardar
herren
lokalen
tufft
##anpass
natverket
tagen
##ektionen
betraff
##villkor
##skrivna
bestallt
##ced
mt
##omet
tredj
##hd
bostads
ostergot
lotta
##ilja
sper
kartan
hemifran
alm
semestern
forekommande
adressen
here
framgangsrika
provade
lats
overdr
ther
landstinget
##varu
provning
lit
##ionens
##ifierad
farliga
##skostnader
vuxit
myt
agna
ama
##stjanster
bund
##ball
urin
jacob
lch
##ights
110
fax
borgen
vagnen
gala
skivan
##ifik
##heim
politiken
syri
##marknaden
aspekter
egy
##butiker
##smet
sling
##cen
upptackt
lila
forsaljningen
put
night
96
comments
hustru
ling
plag
funktionsnedsattning
startat
annika
advokat
fatal
##ely
##promen
elisa
engelsk
kjol
spir
##ickor
nud
tv4
1970
utbyte
farska
##ektorn
##listan
kvallens
begara
helsingfors
inledning
##stedt
minsann
koldioxid
kas
personerna
rapporterar
any
odds
gru
who
utstall
##sack
snabblan
hungrig
uthyr
maila
rorande
tillverkade
stel
lyckad
ifk
konsul
skrivbord
registrerade
##rorna
content
mobb
##entliga
kw
84
drommer
rakningar
victoria
saljare
arkitektur
##itz
villkoren
ordfor
forvantar
##vert
##hamtning
head
tappade
namnden
##grans
aldrar
barcel
forebygga
##ankande
anvandaren
##poang
bay
medvetna
sams
##elsef
firade
anpassad
knack
prylar
##ove
stolta
deklar
##hotell
##dell
fodda
arbetssatt
paketet
haromdagen
tjansteman
xd
##forbruk
instruktioner
##rapporter
##tio
hamnat
innanfor
kav
##oritet
skadespelare
website
##enderar
##ippa
sexuellt
wifi
glatt
allih
##rister
gigant
##komsten
##traff
valfard
hiss
##ington
administration
valuta
hogkvalit
varst
##okument
orange
##33
anbud
museet
##svillkor
byggde
bedomer
##cted
minskade
xn
insidan
##rustad
##eas
##entuna
katastrof
mkr
modul
sjukdomen
gd
##akade
##kad
ljust
atal
foraldra
kanada
faglar
brak
hallbara
lchf
storstad
##eda
innefattar
betraktas
junior
##ywood
domstolen
smidig
producerar
telefoner
plant
rensa
lamm
##lamn
mandat
hjarna
genu
genomforas
varning
presentkort
hamnen
pur
##delningar
jimm
tend
##fallen
komplex
flygplan
ggr
slip
##berget
lappar
bagge
observ
##mjol
lyckligt
aktiebolag
##ures
##sbar
bensin
scand
specifikt
general
##langt
feta
psykiat
upprep
strategier
vaskan
upplevelsen
samarbetspart
##lada
samtalet
sanning
##smannen
balt
touch
realist
long
lampor
programvara
plockade
iii
categor
##stuga
saft
artist
turen
dnr
sjalvfort
kvartalet
94
borger
chefen
maskinen
disc
uppgick
kompa
estet
##junkt
tjocka
underhallande
##iled
underlattar
rantor
##ily
##parken
bergen
hornet
titlar
##ransa
akl
tillatet
stipend
##olen
javligt
hallit
noveller
fargerna
mist
tjeck
##forvaltningen
##konst
download
oversattning
hanteras
kolon
##komligt
tillhandahaller
avbr
strumpor
tidpunkt
kalle
anlaggningen
passager
gator
afrika
jessica
oga
bevara
forbruk
enk
##cernen
rantan
tillbaks
##viker
ingang
kasino
1997
nasan
swingers
wikipedia
##igger
ensamma
gla
##alar
fras
niklas
##sag
framtidens
webcam
konsum
konkurrenskraft
##iro
leksak
##data
finansiell
##ergi
about
lennart
somras
berattat
##underlag
kali
minskning
entreprenor
databas
##iviteter
njot
stamp
##amnen
##redning
kvadratmeter
uppsta
medic
##skrivningar
kommissionen
dumt
##sklader
arr
forsakringen
##figur
montering
##hallande
medlemsst
ryk
##pade
trakig
##eld
find
onsdagen
##ytor
skadestand
##garant
atmosfar
after
rumpa
katol
bam
forsvara
forstora
tranade
##natur
##bonus
abonnemang
varsin
forhallandet
sexuell
grata
##utbildningar
huvudsakligen
kanneteck
sokning
glans
lada
kungs
alternativa
lady
feed
##baserade
orsakar
ving
gava
jordgubbar
arsredovis
kreditupplysning
bos
##gjorda
lesbian
kard
##pg
nationellt
poolen
moll
hallon
favor
women
blaser
lagring
tavlar
utbr
talam
tanter
ikon
varat
inspirerad
ansag
iron
##inci
lav
ystad
##rock
celler
grannar
bilda
direktiv
laddar
escorter
##glad
oratt
filt
slapptes
halland
digitalt
alice
tillverkas
##namnet
raknat
display
aktivera
inflamm
anklag
##flode
unge
forare
hekt
ng
##ffel
studenten
forsiktig
avkastning
##atorn
##utbud
##vetet
avdrag
##ulin
kropps
handled
##utbildningen
##arbetare
vagrar
invandrare
##hojd
flytande
bokstaver
##smin
ihjal
##idrott
pizz
##plom
##emi
cirk
frukosten
morkret
way
myr
##bilen
godkanda
##not
inge
mich
symboler
##ttill
forank
grovt
must
##ligaste
##kann
skrattar
honung
tunna
andrar
semin
##organisation
##kalla
forviss
modernt
lands
sve
etablering
markte
magnet
##esp
smorg
mellanrum
bedriver
##cos
bow
##anas
farfar
publicerat
che
snick
bog
ambass
ovrig
bygglov
##lop
karol
##stroms
##plac
tekniskt
##adels
insamling
##klubben
story
##strad
sovjet
united
fransk
drottning
dire
az
##ituation
flagg
belagen
raddningst
proffs
lararen
overgang
##pump
ratter
kryp
##flod
linjer
##elaterade
tals
bokat
##ariga
tummarna
flag
skrivande
reste
##utvecklingen
bert
spekul
rutan
##cs
implem
kit
##alogen
beloppet
photos
vinsten
view
ending
##anslut
kostnadsfritt
##ibla
handlat
individuellt
klarat
ish
##sokande
samtycke
onskade
fiskar
analsex
##bete
##berga
##speg
luktar
##amet
lekte
bibeln
forbundet
beton
vegas
ansoker
kostym
redskap
hemsidor
konkreta
kvalitets
applic
diskuterar
degen
vistas
visby
##emedlem
skytt
html
kasinon
defini
sovrummet
reserver
tobak
batar
##bag
giss
pals
ova
##test
komponenter
djupa
klaga
recens
placerade
orsaker
begransat
##nyt
cykeln
sha
##elly
forvanta
rekommendationer
blot
platta
orgasm
lun
##lur
undrade
styck
##tagande
minuten
sprider
vaggarna
baserade
brukade
berattig
ambul
casinot
##skjut
##anne
##operat
##skningen
forklarade
now
klev
pm
bestammelserna
##iser
road
sanger
86
okanda
##position
oral
mandags
arbetsloshet
projektledare
##pal
forfl
tanderna
genomfort
##sy
school
beskatt
fula
diet
1994
kvallarna
uk
diesel
pastar
##borgs
fordr
##oklipp
glasogon
##cal
tydligare
bibe
##sforbund
revid
##ima
##vaska
##handlingen
integration
simm
que
william
verksamhets
damp
##muse
140
lacker
formedla
##peratur
videospel
##xamen
representerar
kjell
portratt
kross
doma
##kostnader
kanten
##iskop
expans
##forslag
panel
byggas
tabellen
bokar
##skval
nm
nyheterna
friluft
mess
handelsen
utnyttjar
##bek
mestadels
160
rattvis
helvete
##skada
##skur
faktor
##ami
nederland
##usion
trump
moderaterna
##ave
graf
overst
##uran
##systemet
##plattor
##ware
ventilation
##opol
kanslig
uppdateras
komplettera
tyder
roulette
alle
udda
genomsnittet
bryt
jobbig
##tten
toner
foreslag
##utna
avsloja
linnea
##iseras
wester
##emar
##ammare
##eden
kunskapen
##check
skorna
foss
svull
heder
##stallt
idrotts
manniskans
##emin
##onto
bildas
##nuft
paret
gt
miljopart
blow
indiska
bildar
vagledning
blivande
passet
halt
##ussen
allas
holls
minnet
##block
viner
bedomningen
kyla
uni
##stro
tester
revolution
betraffande
forrad
##langd
ebon
beaut
##uster
kontrollen
borlang
##anvandning
tisdagen
kid
tommy
relaterade
varmare
jackp
kostade
parterna
overleva
irland
##brod
##orin
fattas
83
arbetstid
beromda
hamburg
japansk
barcelona
hyfsat
##opro
##splatser
##pension
stodjer
utformning
##stationen
##skyld
kreativitet
non
##ikar
skym
##asyster
##okta
lunds
skrivs
forbl
nt
klubbar
pite
aggress
ravaror
verklig
stangt
missfor
hjartan
pyssel
leif
roligaste
##cl
##raget
bell
bm
stryk
wel
cross
ode
tillforlit
halsar
afg
bildades
ledamot
93
saknade
individuell
##gjorde
skrammande
hallow
valkanda
motivation
letade
kore
likadant
halvtimme
##sskydd
mental
rakning
130
rita
utdelning
##halt
skilda
##slen
##visas
vackraste
intakt
beund
##enser
export
##fordon
185
82
tillhandahalla
renovering
intim
##splaner
tuffa
bond
ansvariga
schema
instruktion
##ush
##ule
forne
nja
##ede
meddelar
agde
servicen
room
##gro
offentligt
sannolikhet
vacka
trakiga
jaha
##ningssatt
valdtakt
##okning
folkets
##astaende
##erierna
betalningar
kondition
##ict
##cast
tiot
paminn
sis
erfarna
amerikan
torrt
##cle
fordelarna
import
fastan
##idning
##uppdrag
forsakringskassan
kolhydrater
passerar
soffa
fittor
##maskinen
##stopp
92
##ningsm
pirat
lagret
mysa
utnyttj
##¤r
buller
ganget
ebony
skoll
##sang
ags
aland
palest
##dring
##itation
alp
vagade
peppark
gardagens
##livet
arsmote
##cher
##inerna
avsedd
konkurs
##skiv
konstiga
skadade
##syr
##anning
##tte
sverigedemokraterna
kontaktar
##scent
tour
kansliga
genomfordes
anta
skriker
##jerna
ohalsa
##omer
biverkningar
1995
##radets
61
186
mission
retro
sommarlov
tolkning
##fron
had
##tto
##fukt
birgitta
##osten
stamningen
trender
kandis
forma
konvention
vardnad
felaktig
##vader
flickan
lagst
##atik
stenar
matcha
inblandade
tillata
rabattkod
cos
##varld
vaxthus
komplement
montera
##fattare
repet
assistans
prestation
page
nacka
orn
175
##ilia
##ningsmedel
analyt
##zen
uppmarksamma
russ
##ologin
oc
diplom
sold
publicera
##itra
sektor
##eds
husdjur
science
fattiga
trakass
##bidrag
sparas
skarpa
vagarna
kvinnors
fornuft
##bilda
##ordes
omgang
diskuteras
festen
intervall
videoklipp
management
##mastare
##byn
onda
university
isen
margin
cv
##bottens
##vision
examens
##bul
stiger
##havaren
omdome
medie
187
begransningar
##samnen
blandat
skrek
matlagning
overraskning
bifog
potentiella
loner
##registr
##spra
sound
overlat
##stjarnor
hygien
##sperioden
blabar
ovantat
##enterade
radet
jattekul
1996
blekinge
reagerar
socken
omhand
migrations
rehabilitering
##vat
balkongen
adel
syl
kristus
christer
langsiktiga
uppvarmning
harifran
principer
bemotande
##tex
borlange
absoluta
onan
forskningen
tennis
##skytt
aringen
overgrepp
katalog
dari
enskilt
forvisso
respons
uppvaxt
schemat
genomgang
stracka
string
##lagda
##casino
solo
lopning
medvetet
garanterar
uddevalla
ash
##spolitik
asien
punkten
##smaterial
1700
magasin
skord
kvallar
religiosa
##scen
cirkel
stressad
matcherna
utforas
armarna
kongress
arbetskraft
latina
justera
drev
##vc
manaders
kundens
burk
utby
framgangsrik
##stalle
mamman
91
##side
gh
##tips
##slosa
##fars
spotify
##dragen
debit
hyresgast
testar
kostnadsfri
##varre
##kg
klokt
##design
ekologiskt
##oler
##renover
north
forkort
##strategi
##produkt
conta
##hattan
##massan
sankt
grasm
kravet
##kvar
##ekv
comp
##sbyggnad
##ansokan
sjutt
kopare
vintage
bakterier
vanligare
##ekreterare
college
87
size
m2
depression
etikett
fordelen
##dafr
there
premier
mater
meet
alltmer
rymmer
olag
tallrik
##ydde
klasser
##vit
neuro
talamod
konstig
##byggnaden
sjalvstandigt
##penning
badkar
vass
halloween
framsteg
##insatser
designen
##skiva
stot
shirt
laddning
forutsatt
visning
skjuts
vardagar
kyrkans
utrustad
penning
##vapen
bosatt
color
loper
opposition
onskat
##halls
taggad
nyfik
baren
samhallets
daglig
olle
expressen
xnxx
skrivet
##blomm
kanel
loj
krypa
##emark
erbjudandet
##mass
##gs
##ife
slappna
tredjedel
##ulen
##ovning
halsade
skogsb
##pati
spegel
review
floden
cel
years
##hogskolan
##dy
kundservice
overnatt
##front
variation
verifi
##skapen
##ankar
##itte
cec
latex
##jacka
##vor
##ward
gotaland
##marke
##ladan
##vaningen
##estad
lovat
##smassigt
sjunker
tarar
pix
kvinnlig
170
stjal
hemlighet
sagas
spill
beseg
1960
##viv
tillracklig
##brid
samsung
##mott
##come
##bileum
sammantrade
##ends
begransa
##massa
##cipl
irak
uppskatta
ce
##uru
fien
iak
forandrats
es
tes
uppror
karlskrona
forekomma
##ovlar
##perioden
piller
##gie
##handlare
fortsattning
##skontroll
sakna
juridiska
webbsida
imorr
##esc
omedelbar
##xy
##ungit
kakel
bilarna
astadkomma
##sorganis
ultim
know
stadning
mossa
##provning
betalningsanmarkningar
mach
##ungna
dessvarre
progress
passform
deg
nul
bestaller
##sluter
##avstand
##bind
doften
otal
stok
hill
##ampor
foretradare
romantisk
##hagen
##atser
##objekt
producent
iso
fotbolls
misstanker
wiki
kompet
haftigt
##ionde
landsbygden
agar
upphovsratt
card
fasad
##arp
uppratthalla
filip
republ
arbetsformedlingen
##akes
##kontor
promenader
resterande
##nis
forhallningssatt
ss
agerar
omdomen
##skorna
micro
stu
forfar
skyldighet
maximal
##mman
##dalen
rackte
oronen
engagerade
quiz
allerg
kallare
vs
dolda
rick
kopplade
partierna
profiler
pont
droj
##andare
refer
cirkul
esp
foreslas
hi
slutandan
allians
##partementet
##istens
broms
funnit
##amning
overvikt
shit
stry
##alm
stunden
##slost
pase
sjukskoterska
##gan
rang
torget
vantas
cast
##svar
##ryss
uppdateringar
##forvar
kvarn
vinet
##45
##ofs
mobl
##arig
monstret
dead
##modellen
rotter
naglar
##manland
utmarkta
betyda
##malt
dj
landslag
##vad
blandade
lanade
##splikt
talang
handtag
##23
utvardera
valkomst
hogtid
stamma
overvakning
jattes
1993
markera
sakerheten
vandra
aterbetal
besta
symptom
taby
rh
aa
lysande
##chefen
musiker
atervanda
runtom
maklare
flexibel
every
pier
gata
andrade
##umpen
jamtland
ic
handlingen
asf
##journ
narliggande
##produc
##ogn
tabletter
kommuns
namns
lillebror
dejten
faltet
granne
kungen
m²
aterfinns
forfall
fortro
natterna
kk
##ginal
garantera
starker
##sforsakring
narkotika
resonemang
miljom
herreg
food
##ding
##sbeslut
##stallen
oklart
chic
kitt
efterlangt
rider
nos
frost
ordentlig
detaljplan
klagomal
##etid
funka
##amerika
kristina
sevardheter
##gna
kliva
##sborg
ada
vinkel
##byggt
regerings
5000
sjalvfortroende
universitetet
forsaljnings
##svatten
kopplas
##bruket
##innor
berget
##vagnar
##tvatt
##agt
##addra
nacken
##adet
vispa
existerar
maja
##panel
historiskt
tenderar
found
cru
jean
##innar
##aaa
kroppens
##oat
snubb
##pengar
apels
torsdags
blogginlagg
##idering
##vackande
##inv
varg
##istrat
atl
##ption
nyckeln
morker
##smatch
##foljer
##aken
konsten
fullstandig
partiled
invester
##skostnad
##video
##avgift
##brist
gaming
duscha
##ityd
numret
grekiska
klok
belgi
##forn
summan
ovanpa
poster
industrin
besoket
##givaren
##savgiften
ratts
##ervice
sele
##brad
##nojd
wordpress
micke
##boy
resur
rose
##kapp
##foder
search
hemmag
camilla
##xis
uppfod
##otyp
isb
antibi
##historia
tomat
konsumtion
loppis
brunett
whisk
foreligger
flakt
tankas
muslimer
##stider
##glom
stodet
##stamm
pict
fund
smek
##briker
dejtingsidan
drabbade
amm
latsas
barnmor
casinospel
##byran
klocka
experim
350
##skrid
njur
engang
vingar
coop
blomster
vip
partik
##bedom
glod
varas
rattvisa
arbetsplatsen
jung
lektioner
sena
##ords
sovmorgon
##rukturen
regional
##date
parag
kopia
fororen
mild
kontot
institution
ursa
##plock
filen
utgora
idiot
kriminal
konflikter
explos
varberg
benny
omgivningen
##stadiet
plockar
utmaningen
utflykt
elect
##irektor
##vill
lasse
##icer
##espel
2020
##personal
snarast
##massage
##arten
##resultatet
domare
diskussionen
vatska
regelbundna
##gade
rymd
tent
terrass
anpassas
protest
fragestall
veterinar
resulterade
tankande
malade
cou
uppkopp
teckna
skidor
bruna
herregud
manat
##statt
blomma
poll
hostens
ukraina
##edi
##sgran
spray
bt
##sbas
elektronisk
kottet
flyt
##cket
falken
stolar
desperat
##skyl
naja
spridning
indirekt
bratt
rabatter
sf
arbetsplatser
experiment
skatteverket
##lampa
vaning
pend
stotta
bidragit
##lav
chips
##shistor
lex
##ple
koks
##ime
mobile
politikerna
utmanande
surfa
poangen
naringslivet
tillverka
hogra
great
iordning
hemmaplan
kontrast
genomsnittliga
ersatter
please
##iserat
utfard
hindrar
huvudsakliga
anvandnings
fisken
stallas
71
varnar
##sign
motverka
anknyt
fingrar
flog
less
drakt
kammar
see
##snummer
##grader
american
##feldt
##ilen
##eve
funderade
skadad
##ield
gold
##oe
##yren
##havet
##koden
##format
##etts
gris
##fran
kusten
elast
##deltag
konton
supp
traningspass
sprit
viking
psykiska
##bitar
sparet
melodifest
math
svarat
sakerligen
hamtat
nost
##asc
latit
gps
valda
bredare
onani
inneholl
fb
levitra
anvandarnamn
##steknik
##dahl
analyser
relationen
inhand
vinnaren
##reserv
##cht
emelie
stabilitet
arke
##terad
amatorer
##svikt
kvalit
##99
individen
mottes
statistiken
styrning
fotografera
hollywood
louise
##atern
manlig
armband
drabbats
##priser
blind
ostergotland
unger
resenarer
##kamer
##anting
fron
fire
manads
##yder
planeras
dopp
prick
ai
blondin
fortsattningen
trivas
plug
sammanstallning
##hamm
darigenom
kandidat
jens
##yssel
##shav
##skningar
lampa
name
##vardig
riket
kulturella
importer
nyttigt
##intresse
##spolicy
##plic
##omi
givande
klam
norsk
mandel
husen
miljok
ront
langiv
seni
spad
underratt
energin
kopplat
##ando
##lot
irriterad
attityd
avslutades
##vecka
360
menings
proposition
patag
kapp
forbe
vitam
statsminister
##artiklar
##onder
etablerade
alliansen
jakten
toppar
bortom
##tagning
##kakor
oskar
linjen
##alken
office
forenings
meta
kulturen
eur
kramar
karaktarer
bistand
elimin
kollektivavtal
behovas
##skran
gods
upply
##entar
try
blandar
metro
intensivt
homosexuella
rust
manager
traditionellt
ll
##dit
pitea
lunchen
institutet
styrelsens
samvete
delaktighet
fattade
carlsson
allergi
##konstru
pedagogiska
music
svd
pressmeddelande
myndigheterna
valfri
malgrupp
##krets
rubrik
industr
##stalls
narstaende
slottet
ligg
monteras
serverar
fingrarna
hammarby
vilar
vaningen
novell
die
125
break
forfragan
vaskor
fotografering
genomforts
turister
trettio
valfar
diameter
##smorgon
##dukar
darpa
fysik
hittas
##35
##ppade
deleg
bladdra
rykte
##ydlig
##agd
katar
kommersiella
batter
##skyddet
intraffar
portfolj
##ygger
latarna
avveck
lanar
stir
sommarens
slat
spelande
deltagit
tvungna
ngt
pics
keram
basket
##inrikt
##helg
mineral
utbildad
##file
svaren
branscher
aro
afghan
utbetal
tiderna
drink
##krit
landskapet
overd
oppnat
##lakt
okand
provet
##°c
delat
inbrott
##eger
maximalt
##traning
tryckt
journalister
##adem
inneband
##natet
nobel
scener
raden
trupp
effektivitet
andrat
young
flyktingar
teman
fak
engagera
kritisk
spell
reportage
##blom
forbattringar
innovativa
bege
##blas
gatu
##ree
bromma
ersatts
##bibli
return
gronsak
tegel
hemat
fastnade
##liggora
ataganden
minskad
1992
trafikverket
##klund
def
tanda
pettersson
fardigheter
operator
militara
utreda
synes
byra
news
levt
evangel
fyllda
kontaktperson
skalet
emellanat
##ppe
efterfrag
studerar
generisk
forbind
gel
servering
des
ansprak
laborator
langtan
3000
adoos
dran
thor
akademiker
tad
##stolar
firma
sortera
##fett
##nivan
##reen
anden
enkat
##effektiv
##vagnen
mv
biograf
befann
feder
uppdel
movie
bebygg
postades
framgangsrikt
skold
##ovningar
ingaende
eftert
race
##sklerna
skum
motstandare
konceptet
##pedagog
##kvist
##sklubb
imorn
##eback
lojal
rinner
##skons
kylskap
##ssaker
1950
arbetslosa
smala
##ated
forutsatter
##verige
inspirera
utat
sammanhanget
vansterpartiet
avgiften
sill
grot
ersattare
alfa
##hm
##kommun
marknader
##anlaggning
ladan
tidskrift
besoks
begransade
lugnare
kriterier
receptfritt
enklaste
vark
spektak
verkligt
intag
blicken
bekraftelse
##ynn
richard
trycket
nojes
christina
ming
svenskarna
##emester
1600
forestallningar
little
klanningar
frascha
##vagg
veder
##visningen
uppskattat
klimatet
rapportera
##smojligheter
hembyg
kenn
skiss
avslojar
femton
kallades
##sprov
vul
##rygg
##bias
##speci
samsta
betalningsanmarkning
prel
##bullar
njutning
##unskaper
stilar
quote
hindra
hemt
angivna
matning
##ves
mira
##elever
feedback
##ckare
forestalla
bristande
fordonet
##gorelse
koden
tyngd
##nastik
##beck
strikt
tillfallig
##ople
##ifikat
##ekter
##unnen
skotsel
##ters
##zo
utbetalning
soff
inbjudan
svan
##foral
samlag
misslyckas
##eng
mum
##hing
begagnade
yttersta
##nt
popularitet
elektroniska
forbattras
familjemedlem
sess
klassiskt
attraktiva
energik
pia
nina
##ete
elektronik
##ulara
##ross
beredskap
slakten
next
flyttas
##jning
slap
saljaren
informations
##angar
batterier
##hart
betalat
laskigt
sax
cons
genet
franvaro
stapel
rorelsen
postat
##quist
logistik
arsmotet
##forhallanden
stina
##sforvalt
##lings
intera
##rap
success
portugal
arabiska
korrig
tveka
krok
segern
backar
##lorna
foda
##period
fortjust
login
##sters
levnad
fangar
##rr
dyk
georg
naked
blanc
auktion
blandas
gifter
avslappnad
arrangeras
nyanser
kent
##vant
pp
##strar
##runa
##immar
##rea
timma
avslutning
vap
##skapande
apt
##olin
gummi
nadde
blodet
##bjorn
##beller
##blar
generationer
sjost
##formular
annanstans
granska
stri
hbt
##baserad
nedanstaende
sexstallningar
##dren
spis
klubbens
##hammar
##vind
fods
magiska
##ysning
siffrorna
koparen
##omsorg
utfort
care
##ses
utforande
anstallnings
forsvunnit
bonder
helger
category
##llt
skargard
lis
only
##sverket
sott
stjarna
hudvard
use
##atts
contin
enastaende
hands
boendet
##shot
##koder
rostade
valkomnar
namner
hojer
##socker
lt
irriterande
##eria
charlott
handeln
##regionen
jaga
stadat
##fyllda
south
forbattrar
valbered
##akim
vasterbotten
##belopp
creamp
huvudstad
offens
utmana
##ssnitt
roger
kosten
slutsatser
kartor
##lust
intellekt
tangent
uppr
za
platserna
##panna
konstnarer
##unk
arbetsliv
knappar
automatisk
##ty
insett
fliken
reflex
hostas
instrukt
historisk
droger
byx
##yrer
utsikten
livslangd
pussel
upplagg
##inka
cecilia
behovt
slass
bedrivs
flug
sydafr
bloggare
tolka
suver
passerat
anime
medium
karnkraft
sysselsattning
origin
trojor
funkade
olycka
husse
##helst
bomb
hiv
arrangerar
overvaga
anlita
##rer
givit
krankande
uppgar
##fattning
tandlak
imponerad
rattegang
mir
falska
bankkonto
##savgifter
inverkan
##ingenjor
##ikansk
formar
utgors
##ared
##stora
drommen
blast
fair
stamm
regioner
1991
##husen
bikini
ordnar
timmen
tillvag
##papp
slanger
##sbolaget
vasentligt
classic
rostfritt
##aton
varumarket
##tankt
##kalen
placerad
##alismen
byggd
##akare
satsningar
kroppar
svin
faster
tystnad
prostitu
kungliga
flackar
sydost
##jta
utarbet
publicerad
ordforanden
ingick
typiska
##stens
nedladdning
##varan
##sfullt
##medlem
forsvarsmakten
revolut
##artan
wars
meddelade
kastar
##smarknaden
jordens
rein
belagg
sommark
sektion
kemikalier
lyckliga
kombinerar
grava
strunt
utrymmen
##finansiering
disp
champagne
stretch
most
supers
##givna
##register
skanska
royal
trenden
jobbiga
##mel
##modell
##esen
utvid
##akor
kej
##illgang
privatlan
uppskattade
odla
finare
landstings
##ria
##ops
saab
maz
inleds
##umpar
##overket
dromma
spelades
##foretagen
##horde
##salj
vattenfall
fastnar
torde
spik
xl
osterrike
utbilda
sjalvmord
omradena
lasaren
ade
pjas
klassific
arlanda
##chat
joakim
rostar
biten
tankbara
prostata
uppsagning
cr
##ст
itu
kanslom
kylan
expand
##roja
framgangar
##dotter
syre
##sspar
##straning
fascinerande
gestalt
tvill
##vattnet
tvivel
hormon
lonsamhet
kemi
nass
anmalt
kollektivtrafik
kyrkor
##yrkan
anhorig
##ony
jattemycket
lejon
##sper
##drat
utdrag
##hlin
revision
jose
singles
utvecklings
ohl
tingsratt
##77
engagerad
##kron
frack
otrolig
bingo
##lasning
utspelar
provar
##gat
hult
uv
elevernas
narma
kraftfull
socialstyrelsen
nedsatt
kraftiga
smeten
blowjob
##shavare
##smiljo
jonkopings
tranga
valdes
romer
poliser
demokratiska
behovdes
smartan
konstaterade
unders
grejen
konserv
lidande
omvard
intraffade
##vardering
##hyll
graset
##iko
avsedda
forfog
koncernen
okande
studerande
hariga
##sidorna
bokade
##hts
funktionshinder
synonym
dolj
patri
foster
proje
stiftelsen
escorttjej
kyss
people
extrema
lador
billan
overskott
##ay
##vanliga
transaktion
##kondition
accept
kannedom
yes
faktiska
kalkyl
smartphone
##oplan
filtr
##slov
charl
huvudperson
##korning
##videos
##sallad
visit
##idas
spor
lampan
##rafta
kampanjen
lyssnat
##hurt
nyanlanda
telia
##skikt
medverka
##rent
oliver
heliga
##ory
##brand
pad
mastare
katarina
##innen
agnar
strackan
kerstin
overforing
utvecklade
konvers
##medicin
inledde
reaktioner
sakrare
rol
veckors
compan
single
paj
brunn
##linjen
entusi
italiensk
lagras
##stiger
bonde
japp
##loss
inratt
low
brostet
kompakt
mobel
morr
##eledam
##skonferens
bespar
genus
diagnost
kemiska
utstallningar
##umma
ignor
bokfor
##angden
##cykl
matchar
tillfalliga
konferensen
designer
##sele
##uls
gdpr
forestallningen
##dinge
##usch
nostal
drycker
chi
smut
kiruna
##kedja
markus
##stest
aj
paradis
##ledaren
##metoder
##sammare
felaktigt
forbattrad
##stre
##loppet
trojan
foresla
farten
bollar
antas
river
salong
ankomst
##odde
second
##pes
series
gifte
##69
biskop
##inas
##ckit
##pulver
upplevde
sangar
tvinga
paragraf
simma
foraren
hamtad
utfall
##ious
olyckor
##nation
albumet
##plar
odd
varandras
forlangning
stiga
##idningen
##dam
kostnadse
##forum
##intresserade
vasa
psy
vitaminer
tarm
##ordforande
namnd
dressyr
vikar
pok
soldat
marka
namnde
##bock
mangsid
corn
utk
attraktiv
sodermalm
##reger
vidta
forvaltningen
jamnt
meg
##ulera
publish
##ktorer
kastade
scenar
##stein
korning
skrevs
forkylning
viktigast
bekraftar
##oon
avsevart
##mas
orten
lux
blodtryck
harddisk
onsdags
vardefulla
##ofog
year
sopp
sammank
##fc
sjalen
oland
ungdomarna
tobias
seminarium
reform
dennes
ks
arom
##utrymmet
barnbarn
trekant
nodvandigtvis
askad
kritiska
kakade
tillskott
pressa
miljob
substans
laddas
sou
jesper
halvlek
norde
##kapital
svaga
erhalla
fortryck
batteriet
varmer
gruv
escorttjejer
amate
ultra
welcome
kontaktannons
##modeller
mediciner
lovade
bussar
forflytt
##bers
tej
##fag
##chester
staffan
##edition
bokforing
sortimentet
foljs
##struktur
forse
nyfikna
forpackning
##essa
tisdags
vel
##fy
##fas
hatt
##domstolen
dejtar
omvarlden
tillampa
##myndigheten
avn
gradd
##golv
oskyld
##skommun
psykiskt
##saret
##kvalitet
festivalen
publicerade
lanka
##alk
utov
infektion
optimal
turne
frascht
##ftt
skept
exakta
nedat
syrien
osyn
##oarer
##entre
##itution
engl
globalt
fallen
tavlor
##klassen
norrbotten
##brev
kronofog
stycke
dods
effekterna
##ektor
##univers
villiga
officiellt
snusk
speglar
halsband
kravande
betydelsen
djurgarden
##forbud
gabri
elits
research
transf
arbetslivet
forsakringar
jansson
ringen
syrran
##genom
belgien
fos
opera
forvara
##itiv
boy
##bis
lyckat
flesh
##bolagen
malsattning
##arerna
utova
##bom
##industri
tik
uppfattas
medfora
##ipa
mn
##oa
##vandring
##able
cyklade
stilen
skrik
skyddas
formiddag
##icia
ey
institutioner
##evin
kapten
familjens
##uen
skiner
discipl
vackte
varia
smorgas
##oven
taggar
nyfikenhet
##vanlig
forvaras
arige
##kit
##astning
anstalla
landskrona
##kategor
traffades
utmatt
##enheter
diagram
key
produceras
agnet
babe
##fylld
protester
allsvenskan
##sfest
kommenterar
cart
sander
kylen
##hastighet
valbef
skrib
revisor
brosch
tyngre
fullkomligt
##trafiken
uttalande
##34
odm
them
slangde
kyrkog
##ative
reparation
##rader
##ventionen
##kladd
tripp
upplosning
undviker
vagled
utoka
malvakt
sektorn
##27
skiten
##hc
hotels
##esi
frekvens
somnar
slav
##spapper
nagorlunda
kva
##ropp
##grunder
ebba
##arrang
bekamp
beloning
cc
##lunda
skadar
indian
asian
##ycker
ingrid
foretagande
pojken
komplexa
galna
##stren
##isol
sjatte
wood
##sgruppen
##ji
##ating
sattas
##ugen
##forsorjning
ray
other
arvid
dm
##dubb
akti
representant
##samlingen
forvantat
arbetare
##ration
inflytt
finlands
some
illama
kunskaps
##fack
fungerat
pappas
tina
letat
mattan
bekrafta
mul
dir
qual
##luft
##allen
puls
parallellt
normer
trail
##parlam
charlotte
nanting
##syra
hugo
maskerad
namnt
vardel
trotthet
##spersonal
tendens
miljopartiet
fjort
fusk
godkann
age
swinger
omtal
adhd
tyckt
saljas
mona
operativ
centimeter
anknytning
froken
tvaa
konserter
datingsidor
fantasy
uthall
techn
disken
sekreterare
xbox
vamp
sho
porslin
gissar
umgang
leveranser
leon
skyldigheter
##denafil
lapparna
snallt
luc
bk
##flodet
##nick
184
sanda
butt
inbyggd
##frisk
easy
fattat
##asongen
lagade
anpassat
##ws
beviljas
avsked
roka
styrs
sambon
leverantoren
nyttig
sildenafil
konsekvenserna
pt
##illverk
bitt
sul
##sstod
hyper
##vir
forskarna
forde
huvudstaden
erbjod
##rens
liver
##sforening
##ways
inleddes
smakade
forhin
grod
skjuter
toaletten
jattet
urban
utsidan
horsel
madrid
veterin
regnar
redovisa
070
##smote
pappan
ljusare
uppdaterade
##less
granny
otrogen
tamligen
##runda
##kass
coolt
lampar
dna
radik
tilltrade
##forskning
forfattar
chill
##inger
inakt
proport
exklusiv
scb
etablera
malat
##ofta
english
##ningsl
##straff
##sprinci
tras
##kunn
ryt
##angt
sebast
fotot
spenderat
domen
salen
stimulera
##garda
kompletter
moa
sjukgym
prenumerera
##korn
pist
doman
toler
kandisar
##iskor
amorter
registrerar
##rand
##glasogon
utlaningsprodukter
##artor
sjunde
81
rf
chil
positioner
##ungar
bust
anvisningar
stere
##bai
tusan
verksamma
naturvetenskap
ansikts
leveran
krona
jagar
receptionen
merc
onodiga
segel
rakenskap
ungar
angrar
kallaren
direkta
axlar
ansokningar
overflod
wash
##gilt
hemska
klanningen
##ljud
##saken
soldater
kum
helik
innehallsfor
tass
##arter
swedbank
maltider
imorrn
prioritera
daribland
skattem
flexibilitet
patent
arbetstagare
friends
goa
efterratt
kalk
prisvarda
creampie
pip
komprom
invandring
smabarn
rosor
nisch
##95
nulaget
polisens
skalen
strander
ersattnings
transform
obekv
stop
snackar
##inet
sprungit
bolan
place
##fotograf
##synt
solidar
stold
publicerades
##yter
utlandsk
##agang
##sjon
befintlig
trader
homo
oljan
fucking
skapande
ikapp
##oment
samuel
prepar
syntet
##kult
##skogen
pak
##berattelse
##arl
broderna
riksb
obegrans
##biljetter
inspireras
##blod
##zer
finansiera
##organisationer
signaler
##fiske
zoo
pedagogisk
hanvisar
##ierad
linus
svalt
##ines
hip
##album
##terings
mb
ego
tingsratten
##ifer
avklar
##sstud
kaffet
gladjen
toy
elisabeth
medlems
##utik
versioner
popularaste
##ygen
utslag
luftkondition
evigt
inlaggen
uteslutande
##olym
slu
horlur
flaskor
##71
upplaga
##ckning
gustafsson
##hemmet
##fiber
pilot
betydelsef
paminna
visningar
utebl
tomater
nufor
viet
marktes
nykoping
usd
##yy
##perspektiv
resmal
george
zon
##fix
##mojligheter
cigare
aaa
flott
aran
strump
##vil
elektriska
msek
trop
scha
##ient
stoppar
##nov
synen
muff
kommunstyrelsens
sarah
upptagen
klockor
##ør
##amatch
##win
nordens
studenterna
##list
##unkten
resulterar
realt
knullkontakt
hejda
forbjudet
uppnatt
##namndens
##omme
##ен
tvingades
##stader
storningar
kombinationen
##ikor
atervander
notter
proff
tillampning
##dokument
##26
##wer
##iggande
diar
koordin
bitter
uttrycker
ponny
##banor
tillats
hylla
lades
pastor
##vags
##elett
strategiska
nhl
##chi
folks
solsken
forsamlingen
brinnande
stabilt
##skaffa
slaget
want
packade
splitt
inledande
##butiken
stoder
stolen
fastighetsagare
##install
##slappen
nederlanderna
##shanter
manifest
vy
olymp
##vakten
##hot
tillbringa
##organisationen
jamlik
##tida
##stjarna
jimmy
kristall
omfatta
jull
tysta
flitigt
mut
migran
effektivare
vettigt
sjukvards
jattefin
##ов
redogor
fonden
papr
smooth
skram
fc
image
nufortiden
trakasserier
strider
drop
segr
dark
almed
bevisa
silikon
angeles
skulpt
drama
tillvaron
##uttag
densamma
kd
halsan
##departementet
bubbel
astrid
dokumentar
svagt
avslutad
gudom
sle
##ental
##forsaljning
ellen
##regel
arbetsmilj
harig
##sminister
hex
gardagen
inneha
fordom
differ
##match
bella
##skivor
spenderade
sjof
webbsidor
trelle
kukar
##elset
saknat
brant
enskilde
samverk
skyltar
brasilien
sofie
kryddor
uppsats
rorde
##akers
##forare
##skontoret
ledighet
##umb
biologiska
##jk
##rets
shorts
##rakningen
##kull
##sperspektiv
##tty
lyder
gnall
ekv
hero
##vap
fortare
##kunskap
##ame
font
tkr
texas
##sbehandling
lay
uppsattning
mens
medverkar
ingenjor
oon
drabbar
ster
##annat
##ripa
amateur
dugg
universum
tonars
##centralen
##vaxter
tolk
##tz
##card
##istrativa
##rostning
tul
##ania
erbjudas
handboll
creme
hook
utformad
ration
utskick
##stenar
janne
liggande
facil
skolorna
louis
graviditeten
tf
verksam
upprikt
styrelseledam
spels
morkare
bangkok
klim
nyg
tipsar
ringar
tagna
uppmanar
##ua
therese
promenera
##bryn
##fonden
felet
vastern
##grens
trangt
proced
trost
cola
grannen
##28
##nara
forg
tin
##klin
redaktion
omgangar
freesp
skylla
overraskande
right
distribution
emm
knullad
samlingar
##ombud
livstid
benet
langsta
##larare
fetisch
step
kompletta
##slosningar
##horn
davarande
##viks
rimlig
tripad
##usa
druckit
nyheten
europaparlam
gp
marknadens
deb
likvid
##forbrukning
brons
##ssyn
mottagare
uppmuntra
vanstra
##gare
historik
dream
makeup
##eby
garderoben
##haha
startades
herrar
vaknat
tablett
pah
uttrycket
skrot
pulver
##uge
fikade
angelagen
ulrika
fordelning
trappan
##attack
landade
riktade
##sky
sistnamnda
hetaste
barbara
avbrott
olivolja
##ierat
##agningen
gotalands
kup
bortt
kreditbetyg
felaktiga
##wall
kopiera
utrustade
##utvecklare
##cca
tugg
rt
hap
##alafil
traditioner
svea
pryd
##unes
##ology
##endo
hangt
hamtas
prover
rysk
skolj
sura
blackjack
forluster
samlades
##ird
##ampen
alf
forblir
onskad
behorig
forbran
##29
webbkamera
fjader
plockat
##arkvall
sakerstaller
prinse
inblick
ultral
behaller
quick
naturvards
monica
##sling
radgivare
##verken
sb
huddinge
runka
frysen
erg
##vardigt
bytas
uppnas
leo
lasta
ala
andliga
water
bosatta
uppstod
##spot
slaktingar
gyllene
moster
beskrev
##icitet
kontrollerar
style
arne
forandringen
motes
klist
handledning
koncentration
likhet
##minen
##emellan
samarbetspartners
erotic
melodifestivalen
utnyttjas
tillvaxten
sony
skapades
kliver
##udden
knyta
forfrag
overblick
carina
hemmal
detaljerna
disney
agneta
rekommenderade
standig
##universitet
principen
##manad
tadalafil
##shamn
pern
noja
aber
##inflamm
##tit
##smast
krom
applikationer
vansinn
genomtankt
pannan
kameror
dumma
elektr
coola
landar
##orm
borr
sparade
vert
hagen
##isterande
chili
fad
##kusten
##oken
##sbehov
##strakt
golden
grymma
tripadvisor
avslutat
##bang
tjat
etiketter
havre
valpar
fascin
nek
typisk
##storlek
geograf
##glada
kvarts
aterkomma
formaner
gjut
##parten
##forandringar
systematiskt
eh
##ffarer
exot
##phones
frans
##promenad
##ilar
framsidan
kortsikt
forbereder
siri
##olan
##skepp
osakra
##ammaren
flyter
fragat
karolinska
pel
clin
rosten
passera
klump
beat
paras
professionellt
blommorna
kraften
lovande
myn
##artat
smalta
beredda
motorcykel
stadigt
kopman
tillvaro
##spo
trollhattan
kosttill
sittande
dofter
##ssp
##sparken
##nik
##vinkel
dryga
##post
exponering
##utskott
##karl
##akningen
siffra
##kyrka
saff
iaktt
ultimata
planerna
ef
sollentuna
hogtalare
uppdrags
services
##house
handledare
##bbar
grin
vetenskaplig
jattel
##lighetens
##ident
hantverkare
##korgen
##ribut
halvan
##rorelse
##fargade
nordisk
avbryt
##ception
trumm
klattra
utlandet
##intyg
konstrukt
basen
forhor
kind
##king
minoritet
rud
##organ
sladd
##losningar
smas
ensamhet
rulle
semif
arbetss
giv
msn
bestallningar
##skot
statlig
vra
##oni
manchester
1200
frivilligt
antibiotika
##smass
##alds
ansoknings
kafe
sto
##alv
bostadslan
jour
regelbunden
apelsin
##chatt
rann
##riar
absor
betyget
tos
##sljus
flack
passagerare
forflutna
fatol
yrken
frals
gult
snow
evighet
ged
kulturer
agarna
bass
linkopings
menas
stationen
##familjer
tidens
pinsamt
1989
interra
conne
bely
pensionarer
fordons
feel
##ville
ral
beta
##yttan
foreskriv
regleras
psykologi
insatsen
##uffor
mit
krydda
##satts
laror
olyckan
smula
##oooo
##rice
slutt
##arklass
##bot
sommart
sved
sola
##kontoret
slutsatsen
hemsk
bacon
kakan
kollektion
generella
auktoriserad
wahl
hair
andan
grova
testet
forordningen
lekar
langvarig
##atoriska
##hub
##ups
vardefull
listor
investerare
product
lonen
##entrepren
sjalvklara
##kol
havda
salts
muslimska
aringar
hagg
##lans
vrid
djav
joel
##registret
grip
bjuds
dc
##festen
##une
vagrade
karna
##ojda
anmaler
formularet
installd
skry
kamrat
##goring
besokarna
fut
flock
##sinformation
uppskattas
##px
portion
dolja
tillverkat
avkopp
ryn
##aming
marina
butikerna
administrativa
backa
##sklipp
hacka
polska
misshandel
kombineras
objektiv
plattan
##blank
##urgi
##esultat
polar
precision
##sporter
snett
stadgar
godkanna
##loshet
hassle
lackra
skrivna
betalade
frik
fallit
milfs
hotellrum
vietnam
avstandet
kroat
godaste
falkenberg
##hz
frekv
forov
kvartal
ljusstyrka
bestams
offert
quest
##vitt
norrtalje
sorgligt
##olit
##linje
osakerhet
glidmedel
frysa
registrerat
skrid
raddningstjansten
seminarier
finan
plank
judar
fotografier
presenterades
rasism
foreslog
marginal
biog
##itiva
banor
lrf
##bben
skadliga
motivera
misshand
aningen
vred
hojden
deltid
staket
##psyk
prof
ruta
valbefinnande
landa
langtat
nasa
arenan
patienterna
##nie
wer
snus
nordvast
polyester
##okande
entreprenad
gradda
##garanti
anlit
community
tranas
rally
slicka
surfplatta
##eringarna
sti
##lagd
jogg
medelalder
stans
spenderar
kommunic
reflektera
##ashion
referenser
kalorier
fastnat
yngsta
stallningar
konserten
##skrit
tidnings
producerat
forlossningen
teckning
forkyld
grater
##grunden
knappa
##vare
boob
sebastian
zlat
arsaldern
berakning
hamburgare
##brygg
##car
insyn
sammantaget
skaffat
##36
##ymbol
korn
branna
arch
grundare
paborjas
oce
sensuell
forplikt
kink
bankerna
paminnelse
planeringen
##agasin
kuddar
##fari
begravning
klagar
listar
lindgren
hansson
detaljerad
langsiktig
matilda
kompletterande
soph
vinnande
unionen
arhund
flat
##middag
uppskattad
equ
bokslut
print
turer
budgeten
##forklar
bertil
gammel
##junktur
##tavling
fost
solned
pea
spana
##savtalet
##85
jesu
byt
folkhals
sanker
lagligt
##olo
barer
elsa
##napp
samarbeten
utses
rapportering
flu
javasc
jaa
forumet
##tjanster
atkomst
applen
bullar
brygger
upprepade
skadan
##rafiken
grundskola
forbju
myster
riskera
uppratta
skriftlig
behar
operationen
##ecken
pock
##von
manuellt
yoghurt
caroline
doc
egypten
vasby
sydvast
krono
smed
satell
agent
##stadning
planerad
javascript
meningar
skagg
forskolor
synliga
metal
intervjun
besvara
valma
##ifte
##interv
tyget
fiska
##alan
reagera
isar
bristen
omslag
tvist
riskerna
johns
lanserades
folkhog
nagel
radande
lektionen
galden
nyare
##rine
##adda
fager
uthyrning
##86
grundskolan
borgerliga
judiska
vibrator
freespins
blocket
##buss
akademiska
praglas
##gre
##bevis
skatten
##sbrott
handlaggare
husets
given
sperma
ist
##adens
byggda
##fore
##elius
##bella
mansklig
malning
optimalt
distribu
ons
##utbildade
bestamd
tinder
forratt
forsakrade
klient
##odling
applicera
destin
gunilla
akuta
uppfattar
gin
entreprenorer
atskill
1930
rumpan
netto
##skalla
##fonster
gymnasium
susanne
##market
tval
##iche
kapa
afghanistan
starkaste
##nivaer
medalj
##olycka
rakat
forestallning
betrakta
pink
styrket
rekommendation
kastrull
dagtid
fej
fotade
interracial
fylls
tillvara
kogn
ambulans
kretsar
##obi
##grav
dansade
gavs
haver
##igande
lss
skuggan
##ekon
universitets
smaforetag
##ifiering
saldes
##servering
faststalla
tvattmaskin
soppa
##version
forvantan
propag
##bestamm
##firm
healt
weekend
bohus
##gnos
teorier
beck
skaldjur
stoter
##farger
uppmarksam
gatorna
blaste
djung
gynn
fakult
unna
stravan
hittades
ups
##mes
frivillig
##room
soderut
##namnd
innebandy
nyt
snap
spruta
blommar
forsvaret
kvick
justering
axeln
illamaende
bn
konstnaren
regelverk
heltack
##styp
##krav
hudik
minimera
ios
utskrift
##flykt
##eliga
hk
organisera
livskval
transpar
slant
traum
registreras
planbok
slem
kommunikations
##order
genomgaende
tecknade
formogen
##upplevelsen
##mys
##sfon
energis
vera
avled
lillasyster
budskapet
beaktas
aktor
##rec
lofven
affisch
inlar
##esome
##jalp
gravida
agerande
brattom
arsskiftet
grilla
##arin
annonsera
sjalvklarhet
faste
upplands
nystart
ft
audi
midnatt
isolering
flexibla
forverkliga
tillgodose
##skarna
bolagen
blickar
bygget
forlanga
utbildade
krogen
lockande
##samman
##idare
magiskt
foran
450
fullmaktige
praxis
1920
havd
underlaget
koncentrera
tunt
ishockey
##sbi
langtid
forvandlas
##bjudanden
##aliseringen
existens
annans
framling
vardnadshavare
fullstandiga
##row
mattnad
formagor
kravde
##utan
hemlig
hjalpsam
sir
brit
rimliga
random
gramm
skrika
dyn
##ates
##utet
tidpunkten
bakifran
##inos
##inkt
homosexuell
nato
##inte
##aterial
skede
mary
##falla
aterhamtning
mygg
kb
spol
lagstiftningen
##scy
##funktioner
##peraturen
##dejt
jennifer
overlamn
##adel
##alens
uppslag
##assist
heart
friskt
rattvist
mojliggora
efterfoljande
filosofi
##ranschen
arsen
paverkat
##kladda
ribb
avslutande
spri
##invest
itunes
##monster
##emo
namnas
musklerna
rgb
rattighet
ordningen
informerar
forvantade
uppdaterar
tidsb
hil
socialtjanst
dax
ogonbryn
php
intra
kanin
argumenter
konkurrensen
parlor
gladjande
koksb
peka
intensiva
##leverant
otaliga
tiger
skype
skarpt
borgenarer
kosttillskott
dodsfall
neutr
sos
pavag
flaskan
##rummen
hjalpen
internt
dubbels
raff
forelasare
konfigur
inleder
when
forstarka
signifik
jorgen
varar
bakade
tapeter
##kropp
hets
##ky
##vanligt
##umret
thailandska
ericsson
mentalt
efternamn
rullade
ranking
##idig
avkopplande
kyrko
##fodda
kunnig
sfs
konsekvent
hosta
stadium
tjur
##lappar
##girl
arsredovisning
gymnastik
stapeln
helgens
beteenden
##zi
tub
skriftligt
nicklas
inger
inrikes
allihopa
track
##app
##ftet
villor
agenda
##agarens
##regn
borsen
##pning
akademi
forsakra
shir
verkan
##skalen
##fond
mmm
##upen
medfoljer
##ikerna
anstrangning
##smassa
frisor
oforand
smith
superbra
norrut
uppstatt
sjukskoterskor
omtyck
##spresent
gangvag
teknologi
gon
komplicerat
##emen
telefonsamtal
boenden
##unden
fasen
blaa
##egi
##olv
they
skugga
mort
##revet
varva
stug
argent
uppehallstillstand
reglering
##forsakringar
eskortt
##ply
godnatt
sala
##hin
claes
##studier
djupet
glitt
agil
##befol
oskars
destination
hassel
undersoker
##vsjo
siffran
programmering
skulden
mixa
farlig
slas
amerika
##gad
##arta
snabbaste
stovlar
lagts
besvikelse
sakrade
dorrarna
likval
kista
##partner
##grona
kopplar
nal
dance
tandlakare
urvalet
resande
grabbarna
##ligheterna
angrepp
hejsan
namnen
##44
fitness
tjansterna
pontus
tjus
magisk
registrerad
ramar
juice
dys
fashion
comment
automatis
hoppats
vata
volont
##sorter
iofs
##sbacka
cho
beter
sands
copyr
hunger
##pase
kanalen
beskedet
tummen
tackade
avstang
##orgen
##hack
korrekta
torkar
##vida
##rics
resort
overstiger
ansags
gavor
schamp
genomskin
omgangen
tyger
maxi
mottagaren
##him
##visande
zoom
##rotokoll
##nord
##elia
vardagliga
staderna
valmaende
foundation
glaset
##opter
svets
##egrip
oversv
avlid
berakna
help
##kare
domaren
numer
##rym
motsatt
ugg
bortsett
halsosam
glitter
foraldral
lilje
utgangen
forfogande
glam
hyllan
innehallsforteckning
gratiss
orim
katolska
fleshlight
##bestall
amp
forsiktighet
jpg
standiga
talan
cirkus
socialtjansten
formedlar
sparat
framtradande
angra
##metod
##tecken
funktionshin
##igar
##kalas
decennier
##orns
passerade
hjartans
rorels
dil
take
kroatien
bords
riva
overk
##ention
bibel
##count
##overv
##kompis
sallskapet
##innehall
forfor
##oro
lattillgang
dagbok
certifierad
medborgarna
hoppet
lir
olik
sned
medvetenhet
omvardnad
##politiken
##sersattning
attity
olov
motas
##avtalet
avsta
##aktorer
##oar
ostersjon
##gardar
##ason
viljan
campus
kub
##aktigt
klack
##latande
belastning
##adar
academ
rakor
##matning
salta
nyhets
stangde
oljor
separata
bob
lindberg
anvandbara
bjods
hamp
brid
analysen
aktieagare
kolleg
##stillfallen
fp
guiden
##cation
utflykter
self
omses
styrkor
##skolds
onskel
oste
jackpott
rullstol
##fargad
forklaras
##skul
utlov
ryttare
##rest
mineraler
piano
fodelse
nordost
##skom
publicerar
bing
underhalla
syndrom
gomma
##66
torp
##cyklar
##foreningar
laddat
hahah
tillval
##empel
hembygds
1988
renovera
aqu
obligatoriskt
svalna
inbyggda
arn
konstverk
cyber
##edin
##vaxling
chelse
flode
vaningar
atmosfaren
kampade
##elagen
redovisar
##arenden
inhem
fisket
rorlighet
firas
##even
##100
miljard
upprepa
fetish
##miljon
##rutan
copyright
mentor
##dec
ungarna
db
##forpack
anlande
meters
ingredienserna
ora
sundby
##skoterska
foreslagna
studierna
centerpartiet
lofte
law
tits
reading
misstankta
naval
##processen
mordet
hemlag
##ulation
laroplan
minimal
gubben
lise
##alistiska
skyldiga
vanja
tillkann
paborja
krasch
##odd
ateranvand
##skilj
utvand
##via
##sledam
gamle
modellerna
overlevnad
dvar
utsett
pub
slack
elef
afrikanska
liverpool
charlie
surt
stru
##sstyrelsen
##ez
canc
moun
ski
migrationsverket
sasonger
##spaket
snyggare
motala
pape
##tech
model
garaget
##illstand
dansar
terapi
ledsagare
litar
lab
rolf
tillbringade
lg
##skatten
gynnar
indel
##edon
ideella
##radande
##andets
latest
##sledande
frukter
oroliga
infordes
##slet
aterstalla
tryckte
tjuv
retor
blandningen
locket
inkludera
onlinek
satsningen
##beslut
##eknik
besiktning
##bris
kommission
lokalerna
true
nit
##ifierat
radets
visades
ifragasatta
hjalm
##hur
##osit
skl
streck
##32
kallelse
bryn
rattare
reservdelar
##hord
ornskolds
pyssla
xham
jubileum
ulla
forebild
kompetensutveckling
##forsakringen
##bunden
##ellack
##slutning
sports
gangavstand
skattef
ungefarlig
ava
grupperna
##88
barna
karaktaren
pornografiska
tort
##ext
##skigt
anat
timmarna
stolthet
underliggande
##svagen
mattor
##eli
opinion
sydafrika
verksamhetens
valbehov
##point
##ryl
brown
##relaterade
fibr
framjar
105
##bos
sjoar
skjorta
##anism
come
foregang
porrstjarnor
kraftfulla
jattero
tyres
avbok
utfar
truppen
##angest
##dis
stegen
heders
mannisko
##spolitiken
kompress
smalter
##vuxen
##ovic
glim
##elig
inlam
tillatna
##iction
queen
varens
hyster
anpassar
skotte
ergonom
rabb
protokollet
hsl
exploat
piss
ded
flyget
made
slos
pernilla
kritiken
champions
##potatis
knat
finsk
utformade
##krig
kvinno
##ingsas
soner
placerar
bekostnad
##plast
kombinerat
onlinespel
ersattningen
##ttid
arstid
skak
lapt
avund
lakemed
##aliserade
ds
kapell
radhus
civila
gross
##flickor
apparater
personnummer
mannens
oden
kaliforn
##filter
ingrepp
kartong
obligatoriska
markliga
arrangor
skadat
fordjupa
##ktigt
bidrog
tillgangen
demokratin
erkanner
influen
ridning
samhallen
blasa
##nack
acc
##roppar
bekvamligheter
sushi
##borden
##ituationer
busty
1987
##jade
genomgatt
moped
atervinning
##forbundets
hoft
signatur
##usal
jurist
kontrolleras
helgerna
hanvisning
vannerna
##farenhet
uttalanden
ores
anvandbar
margareta
isak
##sfun
##unga
skritt
anordnar
ansluter
petra
##krafter
rykt
studion
valjare
##vidd
##narna
nova
romantiska
##skunskap
kikade
overlam
grenar
examin
bf
forbannad
##altet
halsningar
##ize
##sanalys
avgang
svarighet
##ostern
prester
juridisk
anslutna
racing
models
fattigdom
balansen
pelle
elf
lidingo
erov
otur
halsning
genomforde
deprim
termer
forar
teorin
##flix
samspel
trappa
rontgen
##cd
innehav
##ра
flickorna
pojk
company
kopi
trosk
oar
upphand
kevin
dk
sluts
##skamrater
kandidater
klippt
alternativen
otroliga
realtid
styl
akvar
krak
sporten
##ekyl
lyfte
##media
##raph
brunt
flo
cover
vasternorr
adresser
##anslag
cookie
olamp
lyxigt
nuru
##splanering
tillit
intrade
intet
##kligen
hamm
potter
##vallen
##reppen
expansion
kolum
fadern
inskran
##цr
##anslutning
naglarna
snurrar
genre
figurer
anpassning
tranny
##miss
krisen
##synta
madrass
##grat
minister
brittisk
##64
##lador
author
rykten
bmw
utmed
zlatan
smartphones
mottagning
samlad
##sklimat
##kara
korru
branden
juryn
manu
kvarstar
##examen
strommen
bekym
gedigen
##iket
klippte
sweet
perform
strukturer
##anlaggningar
##givningen
utvecklare
##orden
radion
framstar
bors
bergman
##yds
forhallandevis
skiter
fordelas
##damp
medelaldern
##kultur
digitalisering
manskligheten
##drakt
##skoll
skrivas
##betet
##ippi
secur
flytten
heldag
avgrans
varmvatten
karlsk
vegan
##cet
snabbast
sjutton
visp
oarna
##37
boden
##saktiviteter
##varv
mellanmal
budd
##sbidrag
##89
drinkar
atgarda
##alle
##sforbundet
##gymnas
arbetsdagar
##festival
tycke
motsatsen
lyckan
enklast
sprids
##ito
lanserar
##utskottet
1986
omhander
prostituerade
turism
##undervisning
##smyndigheten
bollnas
##bev
fish
marian
ovantade
veckas
fester
aer
asylsokande
langsam
jamte
uppfin
##orren
lastbilar
simul
##sche
##cion
uppskattning
granserna
##ikas
klur
##sfordelning
attrah
##run
avsak
albin
##arkiv
##но
##ningsforetag
relax
avverk
##cin
lee
duger
gardiner
vassa
bekampa
##ody
forberedelser
antyder
temp
lasas
samst
befolk
persons
manip
uppdaterat
sexualitet
valkomnande
regim
anmalda
##eo
jackpot
yn
segrar
vaglangd
rikta
##usik
##ningstid
vandrarhem
dogg
spo
representerade
insulin
bisex
vegetarian
##die
ringt
lutar
##riper
chris
tell
generera
luci
uppkopplad
puts
tranaren
stygg
kliniska
##spriset
##hon
sasongens
##ranta
##slas
##imp
fordela
##agn
mellanostern
sparen
tony
dokumentet
spy
##restaur
elden
pitt
##sprotokoll
##pend
area
elias
wien
ligan
bilens
##bjudande
heja
vida
smoret
syntes
##reglerna
bjudit
country
maklar
ultraljud
permal
##adan
otrohet
brow
olycksfall
lydnad
rele
##ining
tarna
clos
##stars
huvudman
scandinav
exploder
oversatta
trelleborg
spen
deut
beslot
papekar
successivt
##fyllt
##smo
##firma
alingsas
##slager
bedomningar
skaka
quality
oskarshamn
balsam
##helm
anvandandet
mojligtvis
##allar
sture
##otera
bebisen
kikar
##ctive
handlaggning
##aktiv
aptit
benamn
tecknad
##stips
oversyn
##rosa
ojamn
blankett
onskas
##ving
##landska
vika
molly
kanter
badade
fight
##sund
europeisk
haf
kloka
tacos
pappret
##inda
indisk
handlare
utvecklad
##seg
##produktionen
albert
omega
smet
##hamta
korten
papeka
##istrikt
miljopa
##rud
jim
##oma
jattefint
##gener
poet
segt
##sknings
kartlaggning
##ful
vittnes
laros
blink
##cat
mp3
lake
dildos
arsst
kriminella
##aki
##starka
atanke
sannolikheten
##vardiga
anka
fundament
marknadsfora
inspirerade
##dera
netent
utredningar
agnes
laxor
##orry
##wan
lanets
##rix
##hett
##forordningen
berodde
vattendrag
snyggaste
landsbygd
veron
begransning
avdel
kopas
naturreserv
pojkarna
samverkans
fia
orkester
bakgrunds
kungsbacka
okningen
bluet
datas
##rie
grev
tata
240
certifierade
tempot
tolkas
spred
generos
tvattar
##gud
very
##visade
##umen
##55
provas
mcdon
helen
strategiskt
##fika
##stallas
kristi
##fect
kinder
p4
karaktarerna
forod
prenumeration
forsvarar
strids
##fabrik
antis
lura
reddit
nycklar
kompati
##redaktor
skynda
genomforandet
ross
meddelas
generosa
forfattarna
##jart
garnings
fritidshem
##upplevelser
dylikt
times
230
boss
projektets
pluggar
##dejta
kle
tandvard
gadd
##stur
arrangera
##edare
##fartyg
utb
utkik
bestammelsen
medarbetarna
atervinnings
friidrott
forhindrar
kristdemokrat
##revlig
utseendet
ansluten
brygga
##alag
glogg
vaxla
friheten
aktiviteten
biltillverk
leksand
##tabelt
##jorer
varifran
##uterade
##gall
##ommun
##ledningen
skynd
hane
utvecklades
##helgen
kopplad
hotar
skillnaderna
##asson
##fektion
hemmagjord
utel
synnerligen
##isont
##verkstad
manen
rike
##admin
valjs
excel
forberedd
cougar
uppfost
ifragasatt
lp
utformas
anlander
kostnadseffektiv
begransas
##desig
kunders
stallningst
varpa
likadan
##listor
genombrott
onekligen
##mart
aterga
##ktligen
ackligt
##artikel
##andning
syds
emotion
inspekt
bryssel
fakturor
fryser
##benhol
forhandlingar
##ysst
volt
grott
alfred
motsats
skamm
hektar
tvingar
stater
atel
bagage
kwh
rattfard
rasmus
phone
hydro
kh
assistent
##stationer
##festivalen
spanningen
energieffektiv
temperaturer
##recept
dropp
adidas
manatliga
hogskol
forts
collection
##index
tight
popp
##39
spelverksamhet
premiaren
vagnar
kvaliten
nackdel
##endes
tolkar
landslaget
utsokt
rutt
##erg
179
tros
rap
drabbades
sjalvkansla
miljontals
bie
##bredd
ingenstans
tveksam
jones
chan
kritiskt
onanerar
reflektion
cust
whisky
##heterna
mature
nanstans
##andringar
julgran
1985
behaglig
sco
jattest
rattigheterna
juridik
tjockt
##pig
fargton
##institutet
##sforeningen
inje
sald
overfora
miljopaverkan
lugnet
tavlan
##berry
fab
ledaren
##frist
spontant
kampat
snackade
umgange
##orf
medfoljande
##forsok
upplevs
zomb
syra
indikerar
oppning
##stemperatur
barbar
##enterad
hotellets
##burit
framkom
fars
1984
bern
vetenskapligt
territ
vardepapper
grunderna
msk
lagra
slickar
bengtsson
skattes
##omsorgen
uttryckt
cp
jagare
side
somal
filma
dataskydds
vardegrund
wc
klor
annie
750
mind
##ible
ojam
xhamster
fakturan
kret
snapp
sammansattning
dold
gm
boxen
pastaenden
##200
##frest
gent
arten
shl
alskare
fantasin
kvantitet
grundar
##shantering
photoshop
muss
bluetooth
##avgifter
slutliga
nyaste
blues
amazon
klinisk
spetsen
##skridande
foref
grafisk
bluff
##max
##status
saint
immunforsvar
##anien
torkt
ovanliga
ngn
##ffen
anse
kompletteras
##38
cyklister
omed
oversta
sokmotor
tork
anteckningar
##meddelanden
stimulerande
losas
##utred
korrid
washington
netflix
##biljett
uppkommer
##ized
tillstandet
tavlings
moderat
sallsynt
tilldelas
##ornas
pasar
jackan
parlamentet
valen
##eraturen
thr
matten
gubbe
beslag
aterkall
packat
forsakringsbolag
fackliga
medverkande
##klagar
##oser
##vanner
friskvard
certifikat
klyft
##ovet
nykter
ifraga
##tagit
lida
##usalem
##edning
integrerad
nagellack
##head
##sberg
##mars
cry
continue
putt
##cont
salda
##ebygg
##element
stangd
##cho
premie
investerar
##ragen
##sstor
helheten
foot
##fint
prestera
insattnings
alexandra
lanat
globen
kf
pell
hocke
##rapporten
##zym
placeringar
ilska
##ovar
cylin
##linjer
harmoni
##utover
titan
##bloggen
antioxid
kommentarerna
##floden
1940
##usentals
podcast
bars
harnos
##somhelst
knyt
##athan
nylon
stangs
220
mogel
sans
villig
strava
oralsex
##arken
guy
fargade
nynas
varn
##badd
brilj
osann
legendar
tararna
okom
diskuterade
nyttiga
bita
snurra
jerusalem
marklig
pov
##faktor
valling
vov
##smuse
##beloppet
##sjukdom
designad
hudiksvall
fortroendet
druv
chelsea
klassrummet
jatten
tillverkaren
ensamkommande
network
avdelningar
fraser
ideell
specialister
##bien
##almers
fluff
nordea
##litteratur
rada
langivaren
1982
kronofogden
##spre
eleganta
##slig
expedition
tvn
tjeckien
oforuts
dromt
beskrivningen
##utsikt
##svan
fortviv
##onda
drak
hakt
tackt
##lampor
gung
inkass
enkoping
transfer
chalmers
##rosor
dial
##peci
elektrisk
teoretiska
nok
skams
scott
baksida
##rester
song
iss
jocke
streama
forpackningen
##hed
their
dammsug
programmen
parla
streaming
konkurrenter
otillrack
vl
anfor
sekel
blota
##partiets
inde
trea
fornyelse
socialnamnden
handlingsplan
svarmor
toa
avslag
milan
infall
andetag
handduk
zo
radera
##kortet
harmed
utdel
cand
bindande
##ssamtal
jane
stigande
##spromen
johnny
deal
lives
##prote
elvis
rabattkoder
##oke
forste
skruva
##mjolk
tupp
tvars
evolution
agt
##iza
workshops
okomplic
tyckas
tradet
##vita
woman
##pter
viset
##smot
##stag
skild
##sat
fargglada
varvet
##foraldrar
skrivare
asfalt
forpackningar
veteran
pafrest
forete
inflammation
narmade
##wi
konsulter
chrom
reception
santa
berakningar
##anan
##stjarnan
undersokt
farga
obehagligt
##rt
vasen
layout
agnat
drojer
ern
p1
foljaktligen
strip
sjonk
julbord
family
##utrymme
beman
vital
gangbang
##well
##fflor
lyxig
##baserat
doftar
teatern
##brun
orat
angelholm
forsor
##field
tvingade
datumet
massvis
brodet
##iknande
falsk
medelalders
berus
did
##plattan
lekt
tyreso
forlossning
core
buck
nitt
kontinuerlig
bokmark
bly
pron
katrine
befinna
forklaringar
planboken
##anterna
detaljerade
e4
##juta
incl
inneburit
chicago
keramik
lopar
sexkontakt
pressen
frivilliga
utrustningen
funktionshindrade
geografiska
etiska
ointress
##oy
##peppar
palitlig
hybrid
sandviken
##aktiva
##gel
forval
primara
skapad
paborjat
##boj
cykling
besitter
frolunda
need
jonathan
carolina
texterna
logiskt
##ved
raw
erkannande
impro
droppar
konstnarliga
nora
pahitt
sudd
##vanor
betank
##artade
hastigheten
##ffaren
vaxlar
anmarknings
rosterna
##pri
sit
tacket
spontan
klamma
##agaz
pornhub
##kameror
sliten
##verker
efterlev
##slista
samlingen
lime
paprika
twe
skv
andrats
stadig
##ming
raknade
##spension
odmjuk
piggare
godare
morgondagens
kulor
##arav
abort
spack
##slage
mosk
##udi
spelets
##atorerna
anordnas
fastna
hemmalaget
foretagens
dragkedja
profet
uppenbara
fabriken
finish
##polis
forfarande
mentala
robust
##skontrakt
justeras
stjarnan
##boda
##intill
morot
femtio
vattens
byggar
granssnitt
exklusivt
lojligt
livmo
stekt
neutral
fittan
hydra
skogar
fullgora
ein
##itioner
patientens
slutgilt
brevet
kvalitetssa
##can
forber
kanterna
mobiltelefoner
undertecknad
short
##komna
utrymmet
svans
##ential
dominerande
laptop
malta
kajsa
##fro
two
atgarden
reglerar
dev
1975
oandligt
##skrivningen
##spen
kokt
beauty
soja
heltackande
sjalvt
scout
##bollar
ursakta
dennis
romanen
insatt
mes
rattsliga
forovrigt
amatorporr
bibliote
lucia
hipp
hogkvalitativa
##politiska
varnamo
fjad
forvanande
##filmen
vagat
vasentlig
vits
spegeln
energim
artion
inspelning
than
standarder
sande
envis
idrotten
konferenser
orsakerna
job
vanligast
vasentliga
timmes
##strum
ella
arens
orm
gangna
kronan
avgors
##ense
nyin
saaaa
hoppades
##ume
terminen
stottar
kontors
autent
partiets
befatt
##jat
avbryta
avkoppling
vardar
##shus
massiv
karlskoga
sallsynta
revisions
##drivna
##ooo
sanden
overdrivet
slita
##asinon
soligt
overraskad
##mad
datan
godmorgon
tors
##vetna
##garn
krog
konsumenten
umeas
forstarkning
##nd
stabila
dikter
##skamrat
vagde
meditation
##overforing
cher
upprord
malgruppen
stadsdel
hava
lovisa
obama
pannkakor
fornya
halvaret
korg
valfarden
##ders
matningar
stromm
ali
##tider
vannen
forfolj
tillfredsstallande
borsta
huvudmannen
surfplattor
utmanar
kurserna
avlagsna
altanen
sick
control
varorna
kalifornien
ub
##jul
oas
##arkite
##bostads
programledare
##backa
result
##hant
brick
likadana
fingret
bokens
##klaga
olagligt
drivkraft
lindra
utbyggnad
attraktion
pytt
fastighetsmak
##skrivare
##recension
charles
spisen
exemplet
invanarna
midsomm
horor
religios
skanes
ambitioner
##funktionen
edu
##central
infektioner
dokumentera
marten
hjulen
sif
korset
tuffare
lift
sysslar
##bus
donald
##imals
pedagoger
##plet
kang
storebror
osannol
siste
mazily
##strid
accessoarer
pomm
##insen
linser
antagning
funktionalitet
apparat
dov
##mg
##sbor
sortens
dispon
orkat
vackt
seder
##versi
these
stressa
ansvara
motsatta
mjukare
##folk
picknick
gards
turneringen
kommunikationen
##ampanj
hugg
generationen
tavlade
##sbyn
rengora
inleda
frest
etablerat
mountain
##rys
epis
boter
rymliga
insikter
overlagsen
clean
##manlands
prisvard
biogas
depp
sinnes
delad
wii
tartan
stimulerar
prestig
markning
blandad
halet
flygbolag
spindel
galaxy
##edal
vetat
styv
utgaende
##gron
medeltida
riktad
pocket
slitna
gis
meddelandet
lyrics
studerat
inlett
fordomar
inledningsvis
##master
##ifikation
bearbetning
ovningen
porrbilder
bakar
forsakrings
kalendern
fossil
##liknande
##provet
ted
##ience
idealisk
pala
##corn
tek
karriaren
savida
kee
inloggning
kvalificerad
fd
##fragorna
konung
laggning
##fina
roret
beakta
##balans
placerat
tillsv
ansikten
varelser
gota
skadas
##skarmen
optimera
buffe
##yst
hanteringen
upplysningar
knas
sjalvstandighet
forvirrad
##dorrar
##instrument
fult
tjug
##fj
forhoppning
hjort
genomford
skaffar
##sses
##miar
##war
ornskoldsvik
rinna
illeg
tunnelbanan
etapp
hemtjanst
philip
uteplats
formulera
##put
verkstallande
fox
##ssas
femt
francis
pus
orhang
transaktioner
##egas
adolf
##blommor
space
medgivande
bibehalla
respon
avsett
stannat
datings
avstangd
mottagande
alster
##gjordes
##iana
fynda
veterinaren
utslappen
##sstat
uter
ice
adri
##peuter
insta
jamforas
beskrivningar
kortfatt
kristine
sparande
##mera
livradd
kollekt
baj
somnat
##ekan
kopior
##uble
md
pill
doll
stories
nagons
oct
abra
##sverk
satan
forbli
vindar
styrkan
1973
hurra
rokning
##aliseras
naringsamnen
##optim
erhaller
tecknat
aktiveras
overnattning
chip
skrivbordet
##redskap
prisk
rymden
bnp
bring
##ер
rickard
joe
fragestallningar
napp
##webb
morotter
rapporterade
parkeringen
husbil
##belysning
glider
vardcentral
header
fikt
drivit
oppenhet
samfund
##matta
##nr
ambitionen
foga
##akon
inredningen
entren
##sfast
stul
calle
115
formel
vanor
yrkesutbildningar
lopare
kava
israels
lem
driven
##undersokningar
kennet
stralar
sorm
vyk
beprov
intelligens
loggar
hassleholm
onodan
lasar
lyxiga
spam
##ught
kirurg
modet
edition
faglarna
sluten
##umul
tillvagagang
darutover
##ctions
nb
fargmodellen
erika
lera
hjalmar
besatt
chass
motorer
arbetsgivar
fargutrymmet
##vinn
debiteras
foljare
hexdec
sunt
##fargkoden
##imalsfargkoden
hexdecimalsfargkoden
katterna
korsbar
lugnande
##ningsbara
atskilliga
sattes
##spack
siktar
masc
##agatan
migration
##sjukdomar
##inson
pagatt
##smyndighet
fickor
ryd
sinnen
ingef
sorry
kling
statistiska
##sindu
##slagna
kamm
##detaljer
foljas
##brytare
##skede
avvikelser
torkade
##scykel
malsattningen
syften
gavleborg
##motet
fangsl
nint
##deg
fyllas
originalet
doms
medelhavet
cupen
vardenafil
subjekt
otto
vastervik
brottet
sommarjobb
elevens
##cirkel
orsakade
rig
stoppade
##stund
benam
vardefullt
165
accel
##fal
bankid
utrustat
bonor
##genskaper
amat
skyddet
##sfulla
genererar
johnson
##museum
berors
ere
arme
forutsag
helhets
kopplingar
112
motionen
##godis
oljem
haftig
avd
fjard
##glass
utbrott
a4
##ryt
##haft
skapats
prelimin
finansieras
grillade
##korea
##tell
kollektionen
komplikationer
##itoris
loken
tove
##sombud
##31
lagat
alarm
certifiering
magi
zen
##ologer
##staten
spet
fk
sexshop
pa¥
vasterbottens
traditionen
tradlosa
##sprocesser
##esta
onskningar
verktyget
drast
lix
paron
fros
tick
inteckning
sud
kommand
##varet
horlurar
##bostadshus
rys
definiera
skyddad
grafiska
laddade
pluggat
ronne
##joy
1974
kals
efterlangtade
imper
ropade
grey
animal
##paj
east
sate
ay
##oid
##din
ljungby
penna
##linge
journalisten
##urella
kritiker
markant
penet
modersmal
payday
minimum
##atum
tillsvidare
skyddade
pedagogik
##innade
ypper
inifran
##intervju
innehar
dromde
sasen
konfirm
champion
##ettan
chokladen
dessert
kompetent
tipset
tillika
##skillnad
##direkt
diskmaskin
##lines
skapet
kunniga
##gryn
##rekord
kennel
obef
quot
##vari
kth
kanslorna
##eeee
forvalta
demens
blodsocker
gode
definieras
gemenskapen
nyars
levererat
sugna
brus
share
##sprakiga
motivering
grundade
lip
exception
pand
dejtat
ofver
##klade
legitimation
amster
redaktor
kreativt
fanny
older
hallt
intelligent
vips
brutit
##ometern
zink
##istans
forklaringen
oandliga
nackdelen
luftkonditionering
##ituationen
gir
gymnasieskola
maktig
soderhamn
besluten
lidkoping
jok
##forestall
tradar
upptag
lockade
skriftliga
##lader
##sacken
brf
sondagar
tempel
otack
##ssar
standarden
raddning
marianne
fordringar
##ferenser
##kir
lararexamen
vardcentralen
##shistoria
solglasogon
plikt
framre
##bedomning
telef
##nets
allihop
bart
synsatt
##ukt
main
##skansla
reinfeldt
moon
##elos
##ellen
tillhandahalls
stamman
bloggat
handelserna
dt
diagnosen
plantera
florida
picture
forstarkt
klienter
sjunka
vvs
andnings
omstandigheterna
upptrader
kontraktet
##flaska
active
opinions
handdukar
sliter
brynas
helikopter
intu
##hylla
##smodell
365
peters
trottnat
##knapp
##eligt
##rium
##andel
olivia
gabriel
lucas
riksforbund
playstation
stram
foredra
halen
bebyggelse
omne
strategisk
forfragningar
##edalen
sap
somliga
##ekvens
alsklingen
anar
seniorer
friend
vaners
cream
##dekor
##vaggar
beskrivas
##uropa
fren
##sforhallanden
##sspelare
tandlakaren
hustr
##bling
fantasier
case
##aland
##ydliga
arb
forstklass
##hangare
sistone
##studie
tillvagagangssatt
medelstora
tidningarna
webshop
bosse
fotbollen
deltav
##uppe
awesome
stroke
##noveller
kvinnans
##osystem
pas
skelett
upphets
domanen
##vagarna
##ssidan
klippet
published
##ssel
health
##jant
##ummet
expertis
lamnats
checka
panna
stjarnorna
mjukvara
morgan
morgondagen
koder
markta
tillrackliga
thank
forskollar
manadens
merparten
sammanfatta
perfect
fritidshus
forad
##slopp
eko
statligt
medierna
granen
gladare
rekrytera
seminariet
luta
raddnings
utgangspunkten
##atoren
synlig
##niska
filmens
stank
title
tillagga
##tig
address
tillhorde
##giro
##smetoder
kvarteret
traningsvark
timmer
summor
redaktionen
tvaan
##sdotter
##83
##klubbar
farje
##rena
kompletterar
arrangerade
##dad
summer
radjur
jast
skargarden
egypt
fonstren
lucka
rebe
hanfor
litter
rorliga
travel
leden
dragon
4000
##sgrad
kinesisk
##gladje
slarv
bevaka
ebenhol
rar
ersattas
oil
usel
hyresgaster
forberett
direktor
varldsklass
schack
farbror
state
pow
passiv
existerande
##dagarna
kants
##ocken
##etik
manuell
##rich
rekom
##sgrans
svalja
betalningen
##mont
grannarna
barnvakt
##egu
url
tilltalande
mycke
fjarrvarme
##avfall
elak
systrar
respektera
varianten
lv
lj
pryl
samordning
karnan
beraknad
##ни
basic
viktmin
##olt
##imension
jet
deckare
kio
terapeut
anskaff
##ship
noterade
kallan
session
karlshamn
##vaggen
nyttja
##ssor
bakverk
dottrar
karam
##oto
##ockor
##inspir
jatteroligt
kvalificerade
komplicerade
gangs
somnen
varann
hytt
dromm
##leverantor
brollopet
##spelning
sadel
kombinationer
fortydlig
##safton
##skrivet
##projektet
##prat
huvudkontor
lanseras
epost
orsakas
##bid
intraffat
point
##malet
omklad
olofsson
paborjade
bajs
kylskapet
##rogen
bekraftat
publicering
##vaskor
skandinavien
kapitlet
hotade
vastmanland
rostat
##paverkan
fiender
##fjall
eskorttjejer
rs
oljemassage
##iren
kottbullar
sprick
rio
kryper
smyck
##foto
##karen
pagick
onlinekasinon
talk
##ives
tackning
ekip
succ
forlorad
##bour
kvav
smutsiga
##horighet
hallning
##ream
framtagen
leken
ettan
repor
dagg
finansiellt
afrikansk
gunn
aterhamt
installningen
gina
logotyp
##roret
##ortiment
tillaten
##reglering
webbsidan
officiell
hojt
##iful
krigs
nig
ingefara
##sinne
midjan
omnejd
never
##schefen
grasmattan
storande
lundberg
tidsperiod
tradlos
provoc
rubb
##uktion
pumpa
##stammar
praster
kronisk
tayl
dill
delades
##tema
bladen
##lank
levererade
direktivet
##fristiga
facket
##pin
##sbro
volks
##jorna
##sser
haninge
##akan
forhoppningar
skogsbruk
##nyck
hojdpunkt
intrycket
anmarkning
lantagare
##dret
felix
##forsta
utford
##ро
salongen
halvvags
##arts
installationen
##skravande
avtryck
anmalningar
altan
kastru
stressen
1979
riksdagsledam
##riket
##unchen
soul
symbolen
spinn
stadsdelen
dani
generell
talen
forslagen
##fattande
bokstavligen
##styrning
##falle
##dorren
##67
framfora
torbjorn
tjockare
ordnade
##benen
kudde
kanadens
##kand
sagan
rollspel
dotterbolag
tillfrag
rabar
aklagaren
nyckeltal
##resp
ston
luftt
##savdelningen
##also
skickades
foras
seo
##veten
dansen
##ologen
ovanlig
##kallande
langta
excell
xxl
trailer
orientering
##guide
costa
prostitution
studerade
omgivande
stundtals
flir
1400
postadressen
a¤r
forhalla
saknades
overensst
hold
popcorn
atervande
haftiga
genuint
##syk
1968
traktor
revolutionen
fels
bevakning
tavlingarna
##formagan
happyp
##filer
glo
по
##okal
hovratten
##hat
##lyft
magic
loste
rytm
stugor
225
mercedes
regna
abraham
pion
##smassan
##unta
drive
machine
forund
naturens
dilem
release
autism
inspirerar
volksw
sits
screen
##ojor
jakligt
##oskop
##pasar
genomga
droja
living
##sbibli
##egrepp
medverkan
ropar
okant
miste
krister
ungern
##legg
##urb
forvantningarna
enkelhet
pent
knullade
##budget
guider
##drift
##parti
ya
fordro
lego
alltih
vykort
flad
##vaskan
svaraste
doktorn
universitetssjuk
ordnings
##kannas
genomsnittlig
pasen
klarna
nom
##oarna
overvagande
specific
hons
scenario
falu
##sbedom
##ifa
its
##banden
##klanning
177
overgar
deep
husvagn
overlever
##alans
##iotalet
cele
##alom
solarium
akryl
##sledning
parl
##ols
ingvar
slo
##ints
pensionar
obligatorisk
belysa
egentliga
sunda
onodig
liseberg
officer
rejala
taktik
##paret
##skraven
dekoration
##yle
tjo
monte
hier
gruppens
jfr
##administr
dur
grind
##ekost
trosa
oroar
permalanken
##mitt
##serien
##eling
vulkan
forandrade
##revligt
estland
aktien
##itas
##motorer
axlarna
##fokus
b2
gangerna
mulliga
attraktivt
lojalitet
##ualitet
valborg
varmep
grekisk
##chema
hbtq
fordubb
folkm
note
##ianska
valparna
mejer
##sfilm
##konsol
##iki
##harig
samtida
amsterdam
##lika
##iii
livskvalitet
forstarker
##ui
fyrkant
gradvis
solidaritet
##exper
##xen
ludvika
prisvart
henry
canna
booty
insekter
turnering
##bility
muffins
##skod
masten
##kedjan
mirakel
##fra
##behand
brannande
account
##circa
radslan
dander
##volym
##riktad
##vt
adekv
credit
kravas
gigantiska
adcirca
##rier
clar
##halle
spannmal
##resen
grillen
ound
entusiast
vt
fots
enkaten
osten
paramet
build
representera
skip
glida
pastas
yrket
clo
mk
##athon
##edagen
slick
##entets
forna
kosmet
kompromiss
##forvaltning
strategin
##jong
garantier
maleri
hemlagad
##asing
blonda
allergisk
##orrar
andamalsen
massing
wolf
##ians
##ites
gardar
byggts
forvanansvart
tulpan
kejs
optimala
befolknings
##hum
##inredning
##plant
veronica
##guiden
##odag
penn
lakan
forsav
mjolken
eliminera
nuet
plattformen
looking
rikligt
fordelat
sext
ceremon
valjarna
##skultur
riksdagens
##ensur
##sprang
kupong
nedgang
ove
luther
valkomstbonus
herman
##inflammation
##folja
akesson
1976
vinyl
##bron
skarmar
tillsatta
gles
##slokaler
vim
mejla
##nn
delaktiga
langesen
forsavitt
legg
sikte
tillfora
hydraul
##db
behoven
kuken
byar
styrde
##gott
##arth
forsorj
tretton
crazy
steve
##yllda
styrketraning
webbas
brevladan
solig
tales
beslutande
uppfattningen
edit
damen
##intakter
outf
agility
engagerar
intressenter
##progra
inat
eviga
individens
##mobler
##vakter
overvald
bitco
lindstrom
defens
hojder
gommer
##dringar
##varn
##etabl
stativ
faststalls
##mur
##erapeut
##dav
overtid
lyfts
antogs
uppmuntrar
bowling
##aliserad
tacke
##ullar
doljer
utskott
torktum
orsakat
volymen
meller
konflikten
ivar
##svin
walk
entreprenorskap
stalldes
gillat
redovisnings
isbn
kopplingen
arkiver
##firmor
gulligt
##vret
slutfora
##kontakter
porten
konsistens
##sgrupper
##ет
proportion
##lof
meriterande
##stycke
posta
happypancake
intresserar
behandlade
vagor
tradera
##oppning
klapp
domar
projekten
tillga
medger
lappen
hong
skanker
swish
segment
ordnas
##aser
halver
cen
hyllor
bandy
buskar
##inat
tavlande
##seln
domdes
##stillverk
bearbeta
##zing
sammanfattningsvis
##moten
##cert
slogs
##policy
##nek
forsedd
akust
punkterna
##shast
##48
refinansiering
understr
thro
svard
kot
mvh
##byt
presentationer
paulus
forenkla
##agga
dominerar
hb
nacke
plattformar
etta
blancolan
valgor
##overskridande
lukas
nassjo
sigt
click
villan
##storningar
##yran
hobb
##exempel
##artad
vete
insida
ordnat
trakt
##wh
slam
##ebel
dekorera
##appar
##varmen
frustration
dramatiska
hogskolor
naturvardsverket
handjob
motstandet
##svik
##gardens
##gaser
likheter
uppvuxen
byxorna
rundan
delagare
nynashamn
utforma
tapets
##rica
specifikationer
##erapi
kungalv
arbetslosheten
type
rekommenderat
basil
##uper
kommentaren
eder
##lasare
##poj
##dating
##ningsbar
also
anledningarna
matchande
salunda
graver
evenemanget
##vardes
tidigast
sannerligen
##umman
tut
##buffe
ljusst
##ekonomiska
##emor
1978
##ornet
portioner
keps
##titlar
begransar
kinky
loften
facit
navigation
##ilegi
omojlig
regnade
liga
regissoren
motivet
##lich
##smorgonen
burkar
knuten
tungan
project
halsing
medeltiden
keb
##49
interag
##iotal
hello
uppmarksammade
varldar
kenneth
##orre
cumshot
european
gedig
##imer
marx
exporter
bakre
##versionen
uttala
astma
ackredit
##ikyr
##forfattare
charmiga
##stitut
amal
1983
illustrationer
##slang
mario
forbehaller
aska
dagbladet
abstrakt
hogkvalitativ
##driv
##blast
##chel
uppbyggnad
knullfilm
biom
bestallningen
fotografen
rorlig
jamforelser
forlaget
regeln
##anderatt
ocean
faciliteter
##pappers
gulliga
givna
##utslapp
belagna
tacksamma
skolverket
lyn
vasal
tabeller
tradlost
##berts
medvetande
##rediter
##das
igarkvall
lankarna
materiella
promenaden
masterskap
airport
valgorande
folkbok
segling
marmor
1972
hemmafru
vivan
maff
behagligt
##effekter
anonymt
##sansvarig
lixom
kedja
##klaration
lakemedlet
vp
##besvar
town
##elas
regul
anvandbart
bestand
oppnades
forhandla
historie
giltig
##uthyr
pest
kommunalt
##andrag
hoppat
hovratt
upprattas
samtycker
foretrades
fartyget
smile
slitage
##hundar
##elekt
stralning
##kryss
sangare
##junga
oskuld
gymnasieskolan
strangnas
##ograph
##cium
pk
##slip
halsok
##enner
klitoris
alvsjo
sovjetun
tionde
emilia
sportlov
kloster
artionden
tillampar
gradden
krama
omkladnings
liam
##skram
bult
##planer
##mastaren
applikation
harnosand
##otterna
lyckligtvis
##ref
##skaren
##olas
##escort
##akta
##bloggar
varvid
vinklar
stella
residens
rebecca
##spsyk
paverkade
skikt
reglera
chick
##skonst
kassaflode
baddar
dala
incit
tvatten
bortskam
1981
##cit
kvalet
accepterat
avskil
prinsessan
##ores
sjalvfallet
frojd
##strafik
sprutar
##sed
##47
folkhogskola
##ymnas
felicia
vrida
eker
##aldo
sea
apost
##emedel
hjalte
switch
cams
##losen
devel
uppl
visu
stadade
varierat
landat
lym
partiledare
upphav
betalkort
##arkivet
leave
##plo
double
forandrar
##ylt
restri
vigsel
##pop
##prognos
##olia
borst
satellit
photo
automatiska
graa
atom
armat
sour
bakplat
hogstadiet
bruksan
pedagogiskt
##debatt
ofar
foreskrivs
##ego
moskva
ljuvligt
frus
level
psykos
gudstjanst
##alin
ow
bergstrom
ragg
##risten
berglund
upplagget
sum
tags
logo
biologisk
halsosamt
packning
agnade
bbc
mackor
trasiga
avok
##kust
forsvag
stationer
where
##cykloped
funktionella
lm
bokningar
##frid
##zar
casual
forlusten
forband
das
badet
##ope
matsal
intrang
##otte
bista
namnts
snurr
vinterdack
kvitto
roland
player
kex
##ssven
handlingarna
##sbestamm
sjog
ikke
forelasningen
multip
ct
utmarkelsen
##atiken
##sformed
##henburg
beautiful
##berattelser
##ods
stamnings
mobilt
forbundets
sjalvstandig
##rits
incest
##illen
bjorklund
false
prevent
dimensioner
##ansvariga
rovdjur
samlats
prestationer
tipp
byggande
uthallighet
##ktt
##fing
navigera
bostadsratter
##rett
videop
pensionars
prioriterar
modifi
disciplin
##smon
rasen
slatt
##hai
familjerna
binda
##stads
##aria
##sbranschen
langsammare
##anns
affarside
citrus
##uggor
fortid
formanen
##68
been
historiken
eli
##manniskor
mittfalt
clara
anmalning
inspirationen
raddade
money
mobbning
konf
godt
##sservice
knall
boost
regionalt
feat
kablar
nastintill
regissor
brottslighet
duk
byrak
parkerings
solar
kullen
ryggsack
teckens
forsorjning
vittnar
musikaliska
##sem
##hip
duss
konversation
rabarber
romantik
pie
lonar
apps
magnu
oresund
julkalen
lusten
1969
ordin
pommes
##ogna
strackor
stup
rikedom
skaraborg
##au
##aktiga
wr
##massiga
slutresultatet
kladsel
inledningen
fjallen
##ekom
betydelsefull
##bys
resultera
heav
##bostader
ackumul
chatten
integritetspolicy
##show
##formade
##besked
sundbyberg
##regeln
trade
vivanza
##stillgangar
sporter
##samhallet
cass
##naring
bryggan
##ль
##varigheter
##ece
vanstern
fronten
kondens
kare
battle
gmail
fortroendevalda
bolags
grim
tights
gothenburg
sjunkit
##historiska
##hyllan
##astad
fordes
timra
innehallande
mystiska
transparent
##dig
misstanks
##formar
joseph
kedjan
skanka
installationer
##verna
studiebesok
##jag
romaner
border
installerat
tont
systembolaget
requ
startsidan
filipp
artiklarna
allehanda
##teckningar
attityder
ogras
odes
nybygg
funktionerna
inhemska
union
dricksvatten
horisont
skadespeler
##paus
luss
nin
bostadsb
jackson
##splatt
##kyrkan
##ит
prioritet
trappor
cow
##unkter
##ury
utstallnings
creative
kreditvardering
101
skiftande
svep
##publ
hc
overraskningar
##marker
mike
##ilog
##osen
lovet
##pir
befal
blood
instrum
museer
skallen
lyckade
##stjansten
ebenholts
nykom
hind
meddelat
##familjen
omstallning
##korg
mobiler
placeringen
philips
famn
##notter
##ны
frageteck
smorj
presskonferens
##ollen
instammer
##nandet
##mund
behoriga
##anpassade
flirt
astronom
forekomst
genren
##stagande
zie
##drande
kontroversi
tomte
ernst
##resurser
##beteck
1977
aha
hotellen
hostter
##intens
botan
askadare
utbetalningar
##drommar
utforts
husk
hua
punk
informerade
cred
##regat
##osta
##ligan
irritation
spansk
jers
yl
eran
##ittande
backe
extreme
trasig
javlar
##lopande
##ningsuppgifter
lyster
eco
lol
finansierings
bant
zeeland
markerade
sylt
##moner
zu
dramatiskt
##lappen
cockta
nerat
besparingar
overvak
omsattningen
##alsekreterare
##nant
boobs
bidraget
troende
bonusen
##pann
tryggare
##amentet
trio
overtyga
##isarna
tatuering
malvakten
sokanden
galleries
forenade
satsat
daremellan
reparera
##sparet
sigtuna
apro
nedladd
erkant
##sband
dirig
korsett
skriftligen
turkiska
##omt
flodet
utkast
slappas
jarnvagen
##ierade
events
upptagna
connect
charmig
pallar
##halten
flow
sexbutik
hojs
##sforeningar
outlet
bunt
hangande
smartare
kostnadsfria
aldrarna
beger
vallentuna
beige
inbjudna
nintendo
skakade
utgivare
##itel
klinik
##turer
seriet
innebord
skruvar
##faller
##okningar
mapp
fikat
skipp
strapon
elite
##kursen
##sfrihet
mexiko
oskydd
willi
tiotal
doppa
##stodet
##igan
kannetecknas
arsenal
tidsbegrans
dann
skrifter
nyarsafton
uppmarksammas
skandinaviska
lotter
##stenen
taylor
knana
##ssprak
utstallare
##skontor
##damm
volkswagen
pastaende
ramlade
4k
forefaller
ombyggnad
hastigt
plattor
besiktnings
molekyl
propp
elektroniskt
##alas
##zonen
gips
bolagsst
ledarna
##enheten
kramig
##bay
kommunicerar
binder
likas
##ningsomrade
##kanslan
obehor
##hundra
kommunernas
dodar
producenter
bildade
gullig
formellt
skidakning
partiklar
western
##sdata
anga
antagen
arbetsgrupp
##usias
##ojt
##ssex
rubriker
##fjar
##bostad
##kurser
kids
kliniken
utforda
##isst
brevid
##jes
upplagan
attonde
##spels
hemligt
apos
##round
spand
identifierar
garnet
krock
balanserad
konsumentk
pyjam
1971
gle
tvattat
bulgar
##ка
kraftfullt
stone
enzym
domina
bryts
135
emitt
bc
skrapa
trakten
potentiellt
herpes
fodral
tillmote
overvaningen
magnes
testas
##golvet
repris
spelbolag
mors
##intag
lagenheterna
jad
missforstand
vasternorrland
badar
sher
tangentbord
##innet
jackor
##usse
saljes
riksdags
##uggen
hing
lattnad
humoret
listas
poesi
klister
framga
andning
ritningar
##41
vinnarna
organiserade
##alven
handbok
vastkusten
reply
atgarderna
insam
##ifta
mandagar
dd
motverkar
think
minskas
##ssituation
utformningen
utgjorde
tecknings
obegransat
forverklig
##propp
skinka
inval
##ues
predik
innovationer
##kostnaden
missnojd
arga
sie
otrogna
##stallelse
speltitlar
birger
cuck
karen
##pek
plantor
siden
presidenten
avskaff
undantaget
which
##konstruktion
lurar
uppvisar
##ivaler
stroms
eurovision
kompensera
planeten
catering
webbshop
familjemedlemmar
pott
elektro
fritiden
lantagaren
##sefter
huvudrollen
kumla
oll
vagina
##odor
pride
shoppade
elle
hemligheter
aktorerna
sprack
blam
oundvik
##onyma
laxa
##skifte
say
cour
ingemar
kvartsfin
ostermalm
##tor
##savdelning
anmalnings
##bage
##myndighet
##alden
flygande
##gransen
horison
##varmare
bemark
##utstallning
verb
hul
##svis
dagstid
designade
avhandling
designa
naringsid
skottland
uppgorelse
##foljd
svanga
ullared
karakter
hallbarhets
sofistik
eye
valfritt
procentenheter
mam
forsoket
arbetsb
##dans
##hallar
slutspel
inaktiver
##leden
fickan
hetta
implementer
uppdateringen
laur
niclas
etnisk
vg
bonn
tvattstugan
##paciteten
##coach
resulterat
vank
cond
valberedningen
reparationer
##mu
narmre
verksamheterna
stimulans
traningar
##porten
##kakan
potatisen
hok
overtygade
clas
aktierna
##uddar
overlatelse
verkstall
formogenhet
##evision
entusias
jattefina
handskar
uppfyllda
viktminskning
##overvakning
lanen
challen
desi
fortlopande
varmepump
##ku
##mala
##ief
rekt
forbjuda
tornet
tillhora
ceder
maktiga
frilans
ingangen
alig
sokes
roven
skav
joy
rune
signifikant
espress
uttrak
kompetenta
169
juridiskt
ryan
ogillar
##bibliotek
tillgangligheten
larom
jamlikhet
dirt
nybl
naromradet
##jup
palitliga
##dals
##raven
lattaste
##sbron
acceler
betydde
befogen
atn
##avagen
##givet
leveransen
##zu
revisorer
overvager
forberedelse
skraddarsydda
beraknat
gurka
##betala
framstaende
promenerade
stenen
skvaller
forekommit
bokt
##fotboll
##stavling
##urope
smidigare
sommartid
##endel
molndal
eftertrad
dykt
vek
profilen
representation
macka
helsingborgs
magnesium
tillmotes
##imma
##musk
forvaning
##nal
ronn
##skostnaden
pensions
##iddag
##ktygen
##laning
aggen
stay
mallor
bota
tankta
aterspeg
middagar
apart
##ventil
kravdes
klassrum
boys
trivsel
carro
snacks
tele2
vegetarisk
##sprincipen
kommitten
kungsholmen
stadsd
anlaggnings
##sasong
biff
dee
pigga
lysa
skeptisk
koras
peru
examensarbete
uppsjo
spion
##lige
svars
installeras
pornstar
orattvist
brocc
uppgradera
skrivelse
hygg
##inor
##nabb
jobben
trogen
tvingats
klipper
fangade
katalogen
##armad
lasaret
forvaltar
trill
1967
magnusson
utesluta
clips
watt
traffen
##leverantorer
ziehen
lordagens
lakarna
almedalen
##stillfallet
##innes
parkera
varumarkes
naturreservat
krukor
##saft
lustigt
##skots
utrednings
##pest
innlegg
lappstift
##losningen
logn
registret
vittnen
fs
inforandet
barbro
145
upplevas
##forstor
solens
valdet
stilren
##entusi
williams
##immer
skvatt
ivrig
##olyckor
burken
delars
forfattning
##sackar
kvist
socialdemokratiska
##jakten
##rera
secret
oforglom
interior
feg
pinnar
##aku
##smassiga
porriga
miljobalken
lanserade
##vaxten
ljuger
frisyr
##planering
logoty
##varldens
##roman
flort
gustavsson
riktas
stekpanna
chrome
omvarld
havdade
##igas
giltigt
anita
##relat
virtuella
##asar
##lleri
##forskare
##siff
utvecklande
tryckta
vansinnigt
##emjol
knark
formatet
##pendent
magaz
omslaget
marock
funktionell
ket
raa
##lagare
sugar
forskrack
forint
bedrageri
stamde
##87
##besikt
##fyllning
gaffel
##flicka
illustration
lundgren
##esterol
##faktorer
rymlig
specialiserade
fral
branner
protected
improvis
##sforvaltningen
##bords
##assen
soliga
##numret
trada
anvandningsomraden
overgangen
modo
##edjur
nostalg
yttrandefrihet
lagstad
alskad
stangda
hungriga
flerbostadshus
sympat
djuret
##46
performance
servit
sammanhangande
gotlands
##ralen
enjoy
avels
absorber
linde
obegrip
utskottet
parallell
kvallstid
fenomenet
better
##alistisk
tillbak
reservation
overensstammer
badds
##typ
adobe
produktiv
indones
bruten
elbil
gap
taste
##ough
wir
tidskriften
forskningsprojekt
##byten
##bed
tral
avundsjuk
avsikten
solljus
kalcium
prisklass
toppa
cad
hundens
delux
tokyo
##ather
kokar
btw
undvikas
##terande
mosa
bredden
##ordnad
ambassad
forteckning
stros
konspir
trevligare
##middagen
vu
realistisk
privilegi
gubbar
solskydd
utanforskap
##ostat
rackvidd
hitler
##fabriken
fortjus
enl
portal
##sfragor
radios
kuvert
utsedd
jasmin
apropa
##evi
inreda
kunnande
liberala
forned
forbattrade
overvaka
rapporteras
monument
hax
jordbruket
##rivill
vandrade
slutfor
wonder
amnena
trust
slosa
chauffor
gynna
rekre
lyhord
nutid
medit
dunder
oupp
skyddande
##eau
flagga
reagerade
##anol
overs
utomstaende
##to
alskat
##skyrkan
fjardedel
dubai
betalda
skippa
tonaren
p3
intervaller
bvc
medicinen
transportera
anordna
supple
bestammelse
skildrar
inriktad
lordagar
kvalitativ
googla
begreppen
##amd
forknippas
ritu
hasse
co2
motsta
rub
upphora
tenta
installt
obet
koh
vartannat
anvandande
rorelseresultat
joda
framkall
familjel
tunnelbana
forbannat
skate
kommissionens
fardas
reviews
foralskad
uppriktig
##ekort
dron
##plus
tvattas
##ston
##olley
##haus
fredagar
##fronten
##maktiges
##ido
spott
##iost
boverket
forandrat
koncernens
invigdes
sjofart
antisem
##sfot
##sallskap
##sfir
laka
##aktig
fracka
borje
##43
rodbet
analyserar
microg
uppnar
skickats
kommersiell
forandringarna
justiti
medlemsstaterna
angen
sakkunn
##injen
framstallning
rokt
private
##igad
arbetsutskott
##duken
kladdkaka
bristfall
halter
berord
stressade
rostratt
##undersokningen
##asp
noterar
forestaller
bios
##col
pund
##forlust
##frukost
patraff
logik
anvis
omval
hyllning
falkoping
kalv
passat
omtyckt
andamalet
##avorit
tacksamhet
mingel
v75
attribut
##safe
##ekont
german
##ransar
personens
rycka
viol
webblasaren
##ummi
##onus
makal
sensor
perspektivet
estetiska
samarbetspartner
snal
arbetssokande
1945
forebilder
anonyma
##juice
##ssall
trog
docka
149
biologi
stota
##omradena
rutor
skattemassiga
tillverknings
svettas
samtid
sjalvrisk
kate
##look
filtrera
##smys
kladda
sydsven
riktat
begart
pav
tokig
##benet
utlanings
talare
chefs
ahlens
canon
lord
##farliga
##porno
headset
vilds
showen
besvikna
sytt
stigit
steph
##serie
##irus
natural
##rads
##fickor
skicklighet
strong
##smastare
uppmarksammar
tillfredsstalla
prasten
##skylt
##odagen
acceptans
##gett
lagets
##traffar
europ
##ktions
guldet
tidskrifter
hyran
##stamning
vilse
sack
halvtid
motorfordon
laktos
falk
personbil
##lyst
omedelbara
klinker
arkitekter
miljovanliga
svagare
konkurrera
pasken
mellans
kontext
genomslag
lagens
vanersborg
uppland
omtanke
##arrangemang
rasande
##ato
##anvandare
malningar
delik
besvaras
pierre
##arie
strukt
##isation
uppfattningar
kollektivtrafiken
alger
julkort
smaksatt
forsberg
kvave
hostlov
svanger
##panelen
##driven
grundlag
infors
panor
specialpedagog
blonde
lonn
##fald
##slosning
stotte
save
##sbef
indexering
temper
jult
strul
julp
uf
##sporten
stryka
tempor
france
inram
##ansch
handelsbanken
##arkitekt
utefter
alva
harvard
maraton
eslov
sysselsatta
reporter
kapitalet
##has
aldreomsorgen
genomforda
myser
haga
gryta
toda
konfron
definitionen
vintertid
tillampliga
mastercard
spelning
supporter
oslag
lyr
##etti
##broms
sark
##omat
babys
helene
valbe
depon
##ttav
spektakulara
sagor
komponent
uppfrisk
forklarat
forekomsten
ahh
##senheten
patrick
winter
##spets
##fog
##jak
##ello
brorsan
exklusive
insattningar
stenhart
##beskrivningar
diamond
ifragasatter
tet
##amne
koping
yrk
massiva
tillverkades
ofrivill
##laga
trek
aklagare
huv
bortglom
strap
betonar
befintligt
delaktig
court
ryms
mattlig
upptrada
kunga
vardepappers
katrineholm
visum
markes
##sjuka
engels
##standard
ridit
beng
##museet
bagar
jarfalla
analog
selma
jensen
hl
##gam
avvikande
cia
atlant
chockad
##forbrukningen
incheck
valkand
aktenskapet
paraply
akademin
vyer
fiction
labb
konsumenterna
whe
##sformaga
psykotera
images
variationer
sorgen
operativsystem
energy
ate
latthet
skilsmassa
##vattens
preparat
2030
##husets
hustrun
experience
##bass
kontaktade
komplicerad
kortsiktiga
##bring
konstruktionen
hotet
hf
factor
nelly
mock
##edy
ljuvliga
##ique
oonskade
monetar
granskar
overl
##prise
inbjudande
##pelare
pyram
serum
lear
brydde
pud
deleger
##priserna
skrivits
fordelade
tl
##arg
integrera
price
##matare
pepparkakor
##ities
##smann
##spartner
psykologiska
kastas
overtrad
uttryckte
kusiner
krangel
##lektion
##naringen
##blandning
tox
##ansvaret
##stop
##casinon
idio
diamant
bann
mognad
handfull
singap
pilg
produktivitet
avratt
fullo
hofter
saudi
sprint
erhallas
##face
##ickan
fortsattningsvis
likabehandling
##forsorj
mcdonalds
gambling
cannabis
aterstaende
fцr
landskaps
chefredaktor
motivationen
industriell
reducera
jog
packar
basis
liberal
##anka
luftfukt
tunnelban
invas
forbindelse
framkant
konjunktur
skonare
isk
vetenskapen
valgorenhet
##itionen
noterat
trix
kartlagga
stadar
sommars
##42
##bransle
betald
##cafe
vinsterna
##otin
soffor
##rutiner
incitament
omojliga
lont
##sbud
begagnad
prickar
comeback
manual
container
steam
spinning
obest
valdig
jobs
lungt
##ansvard
##ressen
america
rehab
##ifikationer
bitradande
tillbygg
##shoj
##radio
semifinal
lattlast
angiven
sims
kryssning
##elefon
contact
singapore
forhallandena
hjalpsamma
##framkallande
distriktet
##rorelser
konstnarlig
hjulet
amortering
##barnen
fosfor
sjukgymnast
uppt
trot
balte
##buren
kaps
dominant
##tainment
trim
finansinspektionen
demokratiskt
adekvat
##shjalp
evel
forakt
##borste
artif
1300
mathias
anstand
orhangen
farden
##cil
leveranstid
traffats
##osyn
utspr
karnvapen
sponsor
##sider
akuten
##onna
##sker
##sforslag
gigantisk
farjan
avva
hemland
##kombin
sektionen
##uman
##luck
norrbottens
trovardighet
##ulan
##sorganisation
skylten
flexibelt
varmdo
kes
inforande
jungfru
riktlinjerna
fastighetsagaren
instruktor
flam
varsel
bagaget
arvika
slojd
nature
##strateg
bevitt
skollagen
raps
##то
1a
##ensionen
osakert
vardgivare
ovantad
ersattningar
fotografi
andrad
folkom
dosen
invanda
betraktar
##redovisning
##feren
##rala
award
rektorn
matas
utv
lona
##inkomsten
salonger
skaffade
inforskaff
lotus
proteiner
pigment
##snas
anglar
presentationen
##senhet
##utrymmen
logner
initiativet
sangklader
##odell
##hej
uppfodare
##rakningar
##konsolidering
alltifran
vegetarianer
monopol
seglar
##betalda
##brytande
mardrom
corpor
undervisa
sedermera
##spolitiska
tillratta
vegeta
drojsmal
jasa
rd
earth
##oen
kurv
на
underskott
lasarna
elektriker
engine
tecknar
diska
arrangemanget
strunta
palme
catalog
klistra
biod
palestin
schampo
edward
##videor
pure
universal
redovisningen
kaffek
forespra
iakttag
sido
mattet
berattigade
##liet
ashley
grillat
luktade
##ides
##elson
medverkat
attacker
defa
prioriteras
struntar
torsten
##skadade
inblandad
natal
avancerat
java
##hojden
nods
hyrbil
okomplicerad
puck
virgin
##uit
visionen
2500
grillad
forlangningen
prisbel
##iano
litteraturen
##dram
renod
##iar
wallen
sisadar
##mork
valdsamma
doser
##hallaren
porrsajter
rabatten
roker
larmet
skattebetal
##rostningen
##scentrum
betes
##flaskor
helvetet
lindr
videopoker
harstammar
forstud
##lingor
##rubb
##tefter
beaktande
kolesterol
##igade
##talande
kassor
andelar
korsord
omgiven
##sbalken
norg
snapchat
cuckold
tilltrad
greps
mugg
vittna
technology
skuldkonsolidering
valid
farm
##forbind
malare
bestallnings
##ssektorn
christoffer
##gning
bedomas
docent
virka
sammandrag
hordes
overlyck
grunda
##ollo
semi
studiet
phu
##angs
onskelista
eter
minor
canada
drojde
##plans
vidareutveck
bah
pulsen
##vetenskapliga
##odden
simning
tradde
##icyn
milda
##ebyggande
into
##ants
##seffekt
professional
fuktig
klubbarna
schakt
hardrock
gef
videok
ogilt
forhandlingarna
multipl
minist
frustrerande
forvaltare
insekt
bega
sjalar
##mix
210
##irs
behandlings
prioriteringar
forsamlingar
kulturell
##utbudet
artifici
##komlig
##bladets
reflektioner
viken
utsags
stickade
##ministern
pretty
fjorton
antika
teckningar
stampel
langu
same
majs
##nur
ofull
##unner
shad
avveckling
meriter
kappa
##ssakerhet
pekade
elaka
##entiella
underskatt
hamster
blund
magdalen
svager
avbild
uppfriskande
haj
##stecken
##wards
##iop
tillverkningen
anhangare
jerry
utokad
lattast
forsumm
doktorand
nakenbilder
##atal
##idi
uppges
rain
overraska
integrerade
fordelningen
utnyttjande
bakplatspapper
sahl
ear
slampa
twist
rama
hojdare
saffran
kalaset
helige
desc
kings
kemisk
graders
lansstyr
medverkade
klasserna
skammas
##anstallning
##sloshet
knacka
strukturerad
gryt
##asjon
panelen
tugga
##chs
foc
##pern
volymer
pinne
loptid
branslen
aur
luckan
##materialet
##ismens
forsenad
##iserande
smoothie
##esystem
kristin
elm
inredda
stens
diagnoser
forsorja
subt
inloggad
sormland
°c
synpunkt
inbju
mallorca
honor
fasaden
##shov
##omy
tillhorighet
orang
aberop
snabbis
slacka
##hugg
christop
regionens
nye
inspelningen
##kil
##leksaker
##sj
gate
shower
andlig
pts
truck
frigor
vaccination
blus
##ки
dialekt
##slokal
hyl
aminos
allen
antisemit
uppga
##aktivt
schysst
adopt
##gryta
knubb
eftertrakt
strumpbyxor
fokuserat
stars
nationalpark
jennie
##rada
visioner
kissa
brother
raddningstjanst
aldreomsorg
supert
komplim
inlosen
cafeer
partnerskap
beteendet
tillkommit
##tti
akvare
foranled
batterierna
handpenning
##niss
vift
##aron
servrar
##teckningen
kvarvarande
skickliga
barnvagn
##antal
linux
argentina
trium
##okort
nisse
##olar
skicklig
##skurser
festa
respekterar
##debatten
##strade
ockup
byrakrat
relaterat
komfor
externt
bitcoin
styrande
garning
amning
inforskaffa
fjarran
papekade
ekosystem
brukare
erfor
##sformer
utgiven
fotografer
installda
moz
litterara
##grunda
toaletter
orgie
##erian
##ery
arbetsmiljon
fyrtio
grasklipp
klappar
prisut
fragetecken
today
reducerad
tfn
utokade
burit
utformat
rall
##larnas
harj
forvarings
##fys
mete
##amente
rekommenderad
vetemjol
##slitt
utgava
sparka
fodelsedagspresent
ledtrad
##sbrev
ott
zara
kliar
##kvallen
miljovanligt
installningarna
munk
##ssy
##komliga
begravnings
primart
hembesok
##ficka
sega
sept
oseri
pictures
kruk
##torp
genomgar
kristinehamn
##hof
##umtionen
##cre
startsida
##nett
brunch
giltighet
ovar
upplat
innehavare
faktist
dynamisk
skumt
behallare
polare
anslutningar
##sbek
tea
varderas
talanger
##kontrollen
hallands
##nars
montage
pom
##ques
##ugna
ludvig
andrahand
malaren
sambandet
smahus
reklamen
maur
nell
involverar
vimmer
##skallor
experimentera
##etrad
akties
svenskan
upplysning
hemmamatch
pendel
kronikor
##prover
apparaten
annonsering
gosta
mekaniska
fling
##hastar
provtagning
bugg
angar
byran
hawa
ladies
brostcancer
medlemsstat
vards
markerar
serverades
matsalen
fixas
raser
##aling
pinter
##barare
pim
kycklingen
##rundan
matar
##massig
fou
awards
hursomhelst
##skv
isafall
omvax
goth
blanketten
##repres
kommentars
forlov
boston
krym
avskrack
faststalld
skalar
tillampningen
again
nudist
terr
##strav
fyllning
friluftsliv
##klan
krafterna
overlevde
beslutsfattare
inspirerat
##fallande
##aggning
webbhotell
##yper
##statistik
mascara
##skivan
function
##graden
##riken
skramma
##ла
agendan
byggandet
##lossning
anette
lounge
##gest
ees
##boenden
driften
stenkast
##ugn
vegetabil
##haver
mallar
microgaming
sog
##arke
imponerade
kongressen
journalistik
tragiskt
##gripande
##agenhet
krypt
biljetterna
##revis
##udde
eksjo
valley
francisco
arsta
presenterat
spanner
symp
##fodd
forstaelsen
inflation
bemota
parametrar
kottfars
konkurrenskraftiga
utovar
miami
skandal
flot
##starkt
visdom
termen
hudens
##grann
telefonsex
##tagare
##skand
danielsson
milt
intraffa
jersey
godsaker
misstanke
##inform
forrgar
kommitte
slalom
nervs
##bonat
brutalt
broar
##ysch
folkt
slakting
##miljoer
cloud
##eus
nyhetsbrevet
byggnaderna
hampus
adren
omvandlas
##menyn
tryggheten
medeltid
insatserna
tillbringar
ronneby
skakar
parlamentar
cav
##dagare
halvleken
hood
effektivisera
elevers
lins
anor
nordamerika
##forslaget
##andena
##ai
##rah
##forfatt
local
namndens
erhallit
##inkomst
daily
forsent
lotteri
suveran
atgardas
offentliggor
kungar
bonuss
##universitetet
##oval
etablerad
pull
dalen
samtalen
kompensation
why
forutse
##smodeller
schabl
torsk
linkedin
ideologi
##korv
##foretagare
sneakers
skulds
rattegangen
personuppgifterna
organisationsnummer
skansen
aterkoppling
forbjudna
tree
csn
kontrollerade
hsb
avbetalning
institu
relativ
operationer
sittplatser
3g
##utman
overskr
granskningen
##на
##ssats
##overs
underligt
pornografi
marketing
##slund
krangligt
roberts
##ramar
industriella
omrostning
adop
twi
xvideos
##sido
fornybar
fokuserade
frustrerad
unibet
tillsatser
botkyrka
uppsatta
babb
128
tipsen
lamnades
sammanfattar
logi
dansare
##spromenad
##basen
jeff
bohuslan
pragel
scra
organiserad
nojer
svarts
##info
casinos
zar
##huvudet
##yror
tranger
solut
sommarlovet
bakgrunder
mexico
##borna
##spunkt
bevaras
##spray
##ilable
kundernas
bestamda
aldrande
herrgard
transporteras
martina
550
vidtas
segla
force
tillgodos
##isses
##gorit
brosten
##attra
konvertering
##jorden
schemal
nybro
##karlek
uppgav
hostterminen
##iseringen
sexleksak
##vade
observationer
arsju
kruka
munchen
650
##sakert
formella
pumpar
valent
##smotet
too
ads
ensamt
installerar
scan
samtala
inventering
sik
tveksamt
systemen
hjaltar
kompetenser
svit
ramlar
##sbesok
mikrovag
trottnar
aventyret
rort
avesta
valfrihet
dvarg
obefint
pvc
utfordes
##brada
tillbringat
alltihop
##akat
vincent
##sakerheten
##bagar
reformer
mfl
##lers
inta
##vande
gyllen
2x
##amo
medelhav
bjur
##byggnader
lakrits
forskol
vattern
##ær
bunden
##ordnare
slum
afri
spag
##iance
avt
storasyster
##lagger
gratisporr
bekvamlighet
implementera
osm
territor
##ramjande
samordna
permanenta
maximera
fiende
osa
innerligt
finess
##tube
uttalat
tillvar
kurt
##utiken
tolkningar
brostvart
propaganda
##klat
tiv
##joner
malard
inventer
##yeur
plas
##aro
millimeter
trogna
association
toyota
##unget
##mol
bush
fakturering
generat
##asong
##assans
svenske
lingon
banden
##iiii
forvandla
utser
##ulle
undervisnings
noteras
bubbla
kamrater
stallda
oy
##styrkan
pastod
##agnet
minuterna
##smott
##entarer
##roda
reta
kakao
isabella
bromsar
dodade
saknad
herrens
fraiche
samverkar
hyrde
stubb
dagvatten
publicerats
invalid
synvinkel
kalsonger
luckor
lif
avvikelse
payp
custom
##sben
deprimerad
develop
nyrenover
##tras
fyfan
planlosning
sjung
grytan
##kins
lanebel
knepigt
klimats
svind
bucks
tvilling
avel
##avdelning
klassas
forskoleklass
understry
ober
##emote
tejp
dedik
##sock
fortune
kofta
##stot
155
minusgrader
mango
koloni
mulet
haven
##utor
faststallande
elds
designat
uppmaning
##indik
krossade
flyr
cs
avskyr
intro
overtygelse
sponsorer
gamers
##faste
##utredning
##ulor
utstral
##skoterskor
fordjupning
##eth
##otik
manskligt
strukturen
##ygn
fallande
marathon
kvalls
arbetstagaren
havregryn
stadsdels
portar
ipod
filmade
##centret
##personalen
##stycket
magister
dubbelsang
trummor
discover
##oterna
modig
coun
anlitar
entertainment
ramla
##kart
idyll
benj
medborgarskap
##tekniker
wilma
##assistent
riz
##jolk
prioriterade
kated
storyn
curry
drastiskt
producerade
##sco
arts
vattenkraft
koppel
geomet
muren
klang
avbetalningar
sq
##plugg
artikelnummer
bifall
ovningarna
##jandet
namnder
avsnitten
##xter
##gon
milano
paren
##umo
cut
kontinu
##odo
tai
malskytt
##ries
dagsljus
##choklad
123
robb
lurad
hyresvard
magdalena
definierar
slak
hanvisa
follow
nominerade
surfar
portugis
antog
##asi
fargat
nans
verktygen
josefin
1962
samverka
kansli
plaster
citr
konen
landstingets
##fota
arskurserna
uppforande
##imo
##hygien
semest
hemvist
databasen
##personer
##ementen
dialogen
bent
hoppning
skattskyld
lucky
bekantskap
demonstration
bebisar
sovjetunionen
accepteras
##steatern
beviljats
telefoni
##key
ogonblicket
kollaps
samfall
##read
guys
##bagen
ingenjorer
rikare
torkat
##ect
neon
fyrverker
##filen
realistiska
vatskan
huvudpersonen
##enda
ljuga
##ray
textilier
push
galan
uppgang
deluxe
vimmerby
##oz
##inalen
eventet
##amnden
campingen
aterfukt
##hushall
andringen
balansera
vettig
##varade
ingatt
safe
large
matchmak
omstandighet
##risen
##grupperna
##slagenheter
komposition
hastens
styling
mob
varmlands
sparkar
rin
##ли
pinterest
rakenskapsaret
sjalvaste
midja
jonna
##skapa
##ebrod
postnummer
board
omtank
director
ylva
smeknamn
ficka
madele
##zzi
patagligt
vetlanda
lokalisera
smidiga
mara
atlanten
traningsklader
##ovare
##atters
stressigt
##icle
##temperatur
chev
##skategor
bp
bokas
jatteglad
##grill
injektion
likasinnade
incid
motsvarighet
6000
##vetare
drivande
aust
dejtingsajten
maximala
asido
foraldraled
kriterierna
nicole
##bens
forvantans
arbetstillfallen
null
utlopp
erfarenheten
##fargat
would
dell
angelaget
systems
pyr
##borr
##gava
tidta
hah
##srisk
##skravet
##lanning
##iks
oskyldiga
tm
allsvenska
bostadsmarknaden
sandes
hogskolepoang
##stalt
pressade
trangsel
uppfoljare
##skapten
bemanning
dyraste
benjamin
aterhamta
taltet
ritade
1965
##befolkningen
procedur
justerbar
volontar
mossan
snig
varmande
forankring
utgift
okunn
laddare
##oljan
wide
vrider
##kommet
##oteknik
kuliss
##party
hvil
intakterna
##batar
##satte
avslappnande
menu
sjukskriven
1964
foraldrars
##sanlaggningar
nederbord
tacksamt
##smyck
kax
silv
uppge
inlarning
nytankande
##cirkul
inneborden
code
frn
intensitet
vada
mindf
krop
##placering
ridd
guard
uttalade
##slor
odlas
angelica
##blandningen
ignorera
##drad
jordan
trovardig
deger
rusar
obes
omfor
vite
ns
medlemm
four
##oh
styrke
emission
grodor
roa
skolav
tillkannag
##63
##profess
lagrar
transl
solceller
definitioner
fyrhjul
utsetts
##skedjan
arbetsmiljoverket
##starta
##iley
##page
hacken
shirts
centralen
onytt
vardena
europaparlamentet
select
bradskande
##fargen
104
##vaning
funktionsnedsattningar
tvivlar
expandera
atlas
##avdelningen
##present
utokat
pb
pw
dejtingapp
1100
valfards
svettig
kopcentrum
djungel
filme
##medlet
##hun
dejtingsidorna
##ampning
redovisade
berattigad
sondagens
##ganget
##friheten
nastkommande
prognosen
utbildar
forskollarare
##svas
##arat
barr
slappts
keep
##pell
forens
##ontroller
jattemys
##sdagar
listade
##paketet
avslojade
natts
jimmie
utrot
ekman
bankens
overensstamm
invandrar
hopplost
colomb
regelverket
##¤n
##ologier
##atin
##halso
forvanade
spec
sandberg
upptacktes
cigaretter
##cus
##koms
smalare
##aggande
wol
##uuuu
bilhandlare
##yng
telen
kulturarv
client
antioxidanter
knopp
sadeln
were
fotat
##rabatt
##yser
instruktionerna
##ssal
##urd
##acka
ljuvlig
##spraket
destrukt
laddad
oklar
samhallsbyggnad
bedrov
varefter
motiverad
##slon
figh
##mannens
independent
##yda
##antan
##otto
##direktor
influensa
female
bestallas
voyeur
pingst
##iljan
inkommit
granit
hits
myter
massera
rss
tsk
bastad
medicinskt
stormen
##instans
starter
underrattelse
sinnet
##varken
fruktansvard
tjocklek
pang
sjoberg
ltd
hoganas
varldsledande
eklund
marta
##bilderna
##ompan
kommersiellt
tv3
clear
rekreation
fysi
vardelos
##edu
tunnare
riksbanken
audio
np
nutida
viktoria
nostalgi
ogonlock
hannah
infort
brinna
##yna
available
##sspeci
##ansvarda
skapelse
##flyttning
jum
kontaktsidor
away
runtomkring
103
##allsven
107
organisationens
lukta
antagande
##rolog
##mmar
##olerans
nedbryt
##iderna
pornstars
##biten
najs
avis
bakteri
flik
##psykiat
appro
billy
lansforsakringar
skamlosa
##missbruk
resta
##sbelopp
##magasin
stadsbyggnad
sydde
motesplatser
spridas
tapeten
pumpen
avgar
##ls
##ydnad
avslutningsvis
kristdemokraterna
##nod
bokad
sahlin
129
neo
solleftea
glutenfria
idioter
cider
##shotell
anslagstav
progressiva
ufc
foljes
vinnar
hormoner
sic
##slandet
odlar
debattartikel
sammanlagda
anstallningen
##xten
trick
gag
resurserna
heminredning
##ali
haka
legend
rhod
##halsan
##natverk
friskare
##skotsel
##ufforen
strim
knuff
##sidrott
slussen
##elf
soderberg
##strarna
avklarad
peng
turbo
plockas
much
##stena
verifiera
avtag
strukturerat
angesten
##sugn
##attor
elg
mariestad
framlingar
mff
##pact
skogarna
firande
amerikanskt
109
mikrofon
##lay
##rupper
kottfar
malas
raddar
##iktigt
napra
onskvart
imon
##skona
plomm
berakningen
vavnad
dealer
tonen
begrip
foresprak
##fos
enhetschef
horas
varierad
kudden
radar
hojning
reflekterar
exploatering
paypal
lasningen
maje
uppdragsgivare
dad
vasterlandska
##rota
##lagget
mottagit
##skid
vikter
konstaterat
##osaur
##torn
elande
##alskare
scar
smat
byts
##bildningen
omhandert
fibrer
ambassador
102
##sgu
beraknade
socialstyrelsens
utvecklingsarbete
##ionerna
##snara
stoppas
ridhuset
komedi
faststallda
sades
uppstart
sjalvstandiga
##gangarna
duga
brors
smult
##cams
##medels
skulptur
##puts
smask
stangning
##61
##anza
grum
versa
gammaldags
babes
##skotare
forhaller
klappa
furu
olen
##intressen
cali
stiftelse
##smetod
ea
fusion
teat
sophie
##ground
overtygande
mattsson
entusiasm
darute
beroring
forbrukning
domd
##illan
atelje
tajt
retorik
smhi
verksamhetschef
##py
##esa
operativa
##skontroller
uppbyggd
provid
reality
demokratisk
kladde
lydelse
##malen
drogs
jr
preferenser
grabbar
utomord
inflyt
lanseringen
##underlaget
kragen
##bundna
bridge
##forordning
##hava
##smarknad
dimma
forvarvade
svek
missn
##halvaret
romerska
godkannas
##baren
olyckligt
celebr
invigningen
erforder
##prag
sfi
kanslighet
##sskyld
##offa
vaxterna
hogtryck
##uum
bjuden
##ancy
orimligt
danske
obalans
skadespelaren
##hallas
kvalitativa
elektric
akter
torrent
##agget
tilltalar
prestigef
farskt
judarna
datainspektionen
wilhelm
slock
fleece
pse
torsdagar
##online
loop
bunke
##ipe
upprepas
##plagg
##bespar
##sattas
paminde
gert
missupp
dispens
hona
organisations
koksbordet
##ursen
##stadda
evidens
scrap
##passet
##oxid
aktiverar
academy
organiska
storhet
understod
startas
vaxell
spenderades
valsig
slow
thorn
dataskydd
distinkt
kategorierna
##ningsformaga
television
styrelseledamot
##forlu
uppkommit
elen
death
akademisk
bilagor
jogging
##bransch
robotar
stods
centre
darvid
##icas
misslyckats
partille
folkpartiet
friday
##snor
uttrakad
##entligen
fetma
update
andrea
##zan
indikation
##meny
valv
dacken
##renovering
hyresgasten
##tjejer
avviker
branschens
##givnings
utvil
vilsel
1966
jaklar
riga
tvattade
hapnads
duschat
andy
##brunn
administrera
##iffer
synligt
kajak
mindful
##antalet
medell
anmarkningar
justeringar
allafall
backup
automatik
aterbetalningar
utvarderas
klimatforandring
ensem
gadda
##ells
##ruta
##antar
sockret
buda
savitt
exotiska
helsingor
##lunds
defekt
geografiskt
tratt
##food
koptes
##anor
##esis
bokstavligt
zero
kyrkogard
twin
##table
granskas
kronpr
pilgrim
##nyheter
nionde
ck
avvag
anstallde
besoksadress
ofatt
urvalsgrupp
##areg
##rann
dalarnas
overfors
reum
hour
humle
uti
kortfristiga
upphandlingar
##eh
##ples
innovativ
##lonen
##antik
##friend
fjaril
tillamplig
stallningstagande
ogonsk
kantare
born
febr
##flytta
turneringar
gruppsex
tb
##lights
ohlsson
hamtning
##sappar
##jans
##igo
rusta
##bent
alven
bris
vattentat
##forda
zel
##anvandningen
twilight
avsaknad
##strafiken
##mmat
##serfarenhet
orginal
oppositionen
##trycket
rentav
sexliv
##blin
formas
##tjansten
left
artisten
lcd
then
klarhet
##elns
biter
lew
##psi
putin
analyseras
##tekniska
##tunn
square
hapnadsvackande
##lid
##bun
##rall
slet
mangfalden
sensation
mossor
repa
inspektion
##edt
##ningarnas
##elag
manov
trendiga
kompetensen
inkluderande
beredning
sirius
pamind
slutgiltiga
datat
staterna
##stamma
spelningar
programvaran
tillforlitlig
##felt
##bockerna
affili
logg
##stiftning
akers
folksam
kompan
andrades
stipendium
safari
karib
harfarg
arkivet
rabbit
##ommaren
framtagna
aktiviteterna
miljod
avkastningen
handikappade
allan
maklaren
##strumpor
buren
spenat
bieber
##hatt
valjas
##kompisar
##snivan
##mansk
konservativa
storning
##lingarna
superhjal
graven
sanktion
##zel
##saljare
soren
bloggande
gled
knan
##xxx
tatort
##domstol
##representerade
loven
default
##icens
##nig
cigarett
##ija
likvardig
impul
palats
farsta
klada
collected
motioner
##sarbetet
320
##vinning
overraskade
virke
overlagset
##handels
grejerna
elisabet
##badet
##terapi
##ekonomin
knapparna
##iskan
sokord
jay
##sboende
motiveringen
interaktion
upphort
stickad
##spelen
damerna
googles
typs
uppsat
tvattstuga
halsovard
olympiska
##bladen
##uppfyll
tp
tystnaden
konet
##rn
parkeringsplats
##onas
rastlos
##sutry
arton
fansen
horna
##gio
bevilja
jisses
##stjejer
##foreningens
diskuterat
bestands
agande
belyser
ballong
##ankta
##steater
besokaren
nev
godsel
gripen
symtomen
##sanlaggning
tvangs
holida
##padd
##rok
visats
##hallna
teoretisk
rumanien
mailadress
scandic
gronomrade
podden
##kvarter
cupc
foregangare
kavaj
naket
misstankte
epid
ال
##ensor
##lubb
bey
##bolagets
trampa
forser
##burk
stephen
##skidor
edge
shang
things
smorja
elfsborg
involverade
mellersta
##arac
kalix
transporten
##raknat
soppan
chile
belg
dragning
dammsu
sammantrades
delegation
palsen
##lind
kompatibel
lukten
duo
##avdrag
barnfamiljer
##uttryck
initialt
pataglig
rebeck
kliv
kad
##ulturen
forodande
boot
firat
pyjamas
yrkesverk
##planter
studs
##mmets
omkull
mah
skrym
omtalade
inforas
medfort
busshall
prinsessa
naturskydds
arbetande
kommunikationer
sommardack
racer
##emanget
onsdagar
autonom
dubbelrum
##mmas
lonsamt
forstort
##bakt
##forvaring
##shund
societ
nervost
subvention
pippi
inhamt
##assig
trivdes
gf
kanslomassigt
alma
strejk
##endem
inborde
##ied
likna
hvar
superkul
sotnos
##84
##trask
replik
manipul
sjom
##arma
carin
garningsmannen
##wich
insikten
fact
lindes
##princi
symfon
##journalen
forvirring
norrlands
marsch
hindret
##inans
bruce
kebab
mcc
suz
motiverar
##kran
##grepp
varter
lackert
tier
hata
fiff
nur
##call
##hyttan
puder
doggy
omvaxlande
korthet
##smassage
gil
essa
##slot
vral
nattetid
makar
giftiga
birth
bim
bitti
##slistan
skutt
##lagret
##urch
ungt
butter
muntlig
minder
raket
skribent
magazine
studios
harbotten
pornos
##villa
skrammer
duschar
##ningsgrad
hotmail
##barande
horse
tillmotesgaende
##athl
unic
##smoten
miljovanlig
censur
##bytet
hiphop
malays
avseenden
uppstand
setts
##leby
ravar
knyter
cartoon
##bubb
##storps
orken
county
monterings
avrund
chanserna
avunds
1961
lansera
fastighetsmaklare
ortoped
gallerier
muntliga
hott
centern
lindex
slutna
##moj
sekvens
lekplats
underverk
##sbost
##valitet
##vern
efterfragar
elbilar
varade
##sapp
ansokning
##forhor
overtal
tittare
frekvent
##rapportering
redogorelse
ungas
##silver
pennor
##arka
##sasongen
hamnd
produktions
ledningar
##historien
##drarna
konsumera
##agon
booli
strommar
disco
kristendomen
affarerna
nickade
##ynta
##farlig
lyste
beskattning
##handtag
berattas
serverade
vertik
ritat
detaljplanen
kond
tesla
##aaaaaaaa
sa¥
harald
krut
dv
paradise
##leverans
faktisk
oddsen
##dhet
personals
bitarna
oxid
##feld
moraliska
napol
skrivandet
arrangoren
varsitt
svansen
dekorationer
education
meningslost
begynn
##skortet
dosering
mangsidig
funk
##burst
laa
bestick
metabol
tjanat
personbilar
##kritik
##represent
inbjuder
tidskravande
##backs
varmde
##stagare
rekryterings
omb
##skompetens
##vinst
solcell
##protein
utmaningarna
pе
utrop
grundvatten
##sanpass
overklagande
bevarade
##smedicin
trig
visuella
positionen
palace
##fox
##motstand
##okare
adams
aldreboende
##skyltar
mint
1918
finanskr
uppd
##roprakt
smultron
change
svangde
styrdokument
implant
ota
radde
1963
radon
##ovit
terrorism
varuhus
##astan
empati
##odda
paper
paborjades
riven
##pist
feminism
eliza
##marknader
inriktningen
samiska
sakerheter
mals
##spanning
smitta
pollen
uppkop
stranderna
fucked
stjala
##rakten
industrier
konvertera
##matchen
##hallandet
fine
lauren
anstrangningar
hyfsad
trilog
##konser
kritisera
motorcyklar
maskinerna
virtual
begrunda
liberalerna
rodgrona
foresprakar
coca
1939
uppladd
framstalla
##resultaten
167
tabl
cin
utgatt
skars
demo
tydlighet
stadningen
##osteron
fororeningar
heden
smyger
smutsig
##ersattning
tubes
krankningar
paven
korruption
komposit
stog
insjuk
skyller
renoveringen
brutt
##dd
ljuss
charter
spelats
ats
##ators
forkast
diss
bankar
hanvisas
tomats
##kontroller
##snittet
klatter
johans
##kabel
hardvara
upphandlingen
##kompetens
nordvastra
rencont
saudiara
##sterande
broad
undervisar
madeleine
puh
##laggas
utfallet
skapandet
brander
lindqvist
uppmarksamheten
terminal
chang
ankar
uppmanas
##reda
##kladerna
nash
malmed
vindkraftverk
jamtlands
narvara
bibl
##spriser
kondomer
isf
##skillnader
matkass
##62
ansvarstagande
mullig
beloningar
ansokt
ensid
miles
kommenterade
linj
simmar
utokas
tallrikar
psykiatri
security
##fic
##overn
gratul
##inerad
##formad
##mina
kel
arc
##ssjukdom
etniska
synkron
##lokal
kronoberg
femma
avokado
##smodellen
##noje
dirty
fv
investerings
gly
anmarkningsvart
yttr
##anpassad
own
sikta
outlook
##aktiviteter
framlingsf
##firande
rumpor
intervjuade
dilemma
##dryck
lysek
stigar
hambur
eds
##how
##cup
gluk
knullfilmer
##veckor
1944
##pit
husagare
garantin
##hua
molnen
matsmalt
##sburg
monterade
foreslagit
sexchatt
paradox
fullspack
overskad
##beteende
forhoppningen
gow
alb
amazing
kemikalie
##ко
bilds
utlys
skits
118
parten
evigheter
designers
fokuserad
kaniner
morgont
##bekraft
##ydate
hyllade
ukrainska
##anstallda
badat
##gjut
coffe
webbutik
sydamerika
stl
striden
vastvarlden
livmoder
varelse
besegrade
gnu
utsattas
erhallits
##parad
foraldrarnas
mormors
arboga
##klicka
##latt
bjudna
##havande
redigering
##arets
file
koren
leggings
viker
leop
kabeln
option
##erav
resist
knivar
chann
arbetskamrater
kristoffer
tavlat
lum
moh
informeras
terrorist
obehagliga
##ogram
teoretiskt
flugor
##fem
##riktning
##ementet
##krok
gentlem
##kin
give
lektionerna
deutsch
##ronik
generations
podd
karis
damms
omgivningar
valsign
iris
##sledningen
##aliserar
legendariska
omfattningen
##installningar
fossila
vibrerande
##dos
fornamn
inkommande
ramavtal
close
##roit
mio
##kedjor
gk
nathal
cf
utlam
kiroprakt
tilldelats
listat
##regering
norrkopings
kostenlos
flora
gynek
stigen
farval
byggnadens
bortaplan
parkeringsplatser
##skinn
valts
insattningsbonus
##jons
omvandla
##ssi
strej
m3
dokumenteras
##erare
kollektivt
ovarder
##enterat
##ranad
108
##olk
delikate
##infar
##skruv
##gy
sapass
fysio
dussin
inkomstskatt
monterad
musen
utsmyck
prospekt
tamp
uber
genuin
##hamnen
##byraer
internets
##skara
nansin
##icks
liban
inflyttning
familjehem
irl
rating
klackar
testamentet
utredare
##illas
destinationer
forflytta
lavendel
natcasino
kvaliteter
slapa
speltid
ingela
overenskommelsen
##olla
balen
##oversikt
muntligt
stationara
abc
##belle
theo
ropa
specialiserat
##orkester
slad
myste
hogupp
behandlat
lillan
##slagenhet
##inriktad
bageri
##hammed
evig
kramen
blinkar
medaljer
jm
##yrket
avfard
##kapten
lopa
varnplikt
fordjupad
firman
optioner
zum
pokemon
strak
##itara
##valen
leasing
brande
overlycklig
hala
explorer
peace
##uppdat
##yx
hyresratter
##ningsstod
##emente
##sno
institute
angivet
skadespelarna
challenge
powered
avsugningar
bygde
grubb
roja
kakat
polismyndigheten
uppfatta
displayen
##typer
1958
yrkande
##kunder
##texter
supergod
nyttan
inbjuden
browser
##sbord
##fortjant
attraktioner
##allor
sydney
tow
##partier
eken
garanterad
gripande
##journalist
langder
smasaker
tortyr
aggressiv
msb
vagorna
##atorisk
wat
forbru
invandigt
##nia
##reklam
solnedgangen
lantmat
vampyr
resans
##ilitet
barande
##real
tvas
1917
pricken
##uthyrning
china
valbes
alk
sammanslag
vaxthuset
doug
framkommit
arbetsmarknads
utmarker
malmos
##hjulet
gustavs
goss
bekraftade
##event
##stedts
pynt
beskrivit
upphorde
skadligt
forsvarsmakt
tjeckiska
ls
##sbad
golfklubb
mekanisk
kortfattat
avytt
overbel
masterverk
kvantit
osannolikt
befar
##fynd
petite
frukten
objektet
##gicks
##sbanan
mim
potentiell
sg
framstalls
paverkad
##aliserat
dopt
investment
bankkort
amy
diskuterades
##sstudier
matematiska
excellent
talman
fastighetens
rugg
upptackts
skalig
hogklass
spricka
##cts
bikin
inneboende
forgy
kope
skadlig
##bie
##ogonen
baste
spanningar
forbundskapten
appliceras
stord
##etiskt
##esson
mervardes
vinerna
pars
konstruktioner
ps3
crist
cod
nybyggda
##lasa
jordbruksverket
##jamt
halsof
klade
antenn
##mant
gallivare
klickade
pressar
periodens
omsattningskrav
generald
slitet
bevisat
busa
uttryckligen
spiral
rodvin
arbetarklass
registreringen
##sforing
litegrann
##otiska
##icon
oken
kvallsmat
##anismer
mjolby
lararnas
slata
omradets
sjalvbi
norwe
behandlad
vrak
##rona
eftertanke
vags
##planet
##uz
handtaget
korttid
##okar
obehaglig
eftersmak
farja
119
engagerat
tisdagar
##recensioner
deklaration
modem
boknings
##ante
personuppgiftsansvarig
##kunskaper
does
koer
konsolidering
xp
lagpris
myndighetens
dukar
unt
offra
guidar
guidad
wet
erin
fortjanst
uppmarksammat
##world
flaggan
graden
klimatpaverkan
slipa
skaft
tillstallning
##kamp
tolerans
##ises
barnmorskan
maka
omsatta
nk
##ventioner
spannings
ackliga
##gru
##illin
transportstyrelsen
strind
##tat
uppdelad
##vaxande
yah
svante
oring
vackrare
begatt
uppvarmningen
spontana
rebecka
heat
organisatoriska
adapter
grasmatta
kanot
##splat
hypote
tillvaga
bonnier
blanketter
dall
infr
##metoden
##skonsult
utlos
facebooksida
tacks
superb
##blankett
langsamma
kryssa
erholl
##unnet
eddie
rooms
uppsatsen
##stull
pseud
medelinkomsten
##wear
basilika
ypperligt
habo
akup
sodermanland
focus
investerat
##rotter
pensel
##slander
male
kyrkoher
uteservering
avgoras
paskl
allmann
##agel
2a
bestraff
halsosamma
sammanstallt
uppfordes
oz
smag
festivaler
hogstad
##korna
kompisen
roj
##brack
lead
##abla
vegetariska
trailern
underlatt
pelar
hogljud
byggher
enskede
blockera
##motorn
pluggade
grundval
benamning
generost
sexigt
sexton
falskt
vadder
sandas
##го
##sbocker
##burkar
##bbyn
liknade
miniat
slutspelet
likviditet
##foten
vildsvin
sluss
##atisering
milen
##ymnasiet
grundskole
greta
hemlosa
veget
presterar
lb
intellektuella
##piga
energide
vinbar
hanter
singeln
##stiftningen
harad
borden
halk
puma
hatten
smycke
sagts
plog
ideellt
##gers
bifogade
##modern
finansieringen
##verkande
braka
gaende
bonderna
bemynd
##neut
##skatte
forbunds
avi
##ricehamn
bergs
huvudsaken
publikationer
rymma
flyttades
##01
##fasta
malgrupper
underhalls
europeiskt
##favorit
apa
forbjuden
arsredovisningen
##spann
prima
##sindustrin
anfort
fullfolja
kattungar
gymnasi
##blo
lardom
koffe
harris
##skarmar
wis
ambiti
tillfors
glor
efterlys
klost
kardem
##ppan
##isternas
##dem
osterlen
##respond
renings
tartor
jury
1948
avdelnings
neurolog
vederbor
revolutioner
algorit
morbror
##storning
spru
##bort
tentan
onanera
##hos
smyga
##esiska
forenar
kompost
##matningar
tobbe
##attnet
rorigt
rp
spelautomat
forskaren
engstrom
svavel
kopta
##filtr
gravt
brutal
deta
##slit
rb
table
hjartligt
##sammanhang
diarre
norberg
agget
##formularet
##bloggare
inbunden
smakprov
##optimering
ofullstand
fransar
1956
taj
114
lockas
pistol
##platserna
##dusch
bacc
##undan
psykop
##sklubben
##ronic
kansliet
##area
komvux
bevarande
synder
ulricehamn
motiverade
marknadsforings
storslagna
##slingar
##vak
simpel
patriark
barnklader
##sstart
111
sprakliga
grundat
larandet
krage
ole
##zza
fotar
koreanska
hojde
debuterade
insandare
##iserats
kly
tillverkarens
bordsspel
##mil
socialdemokraternas
mocka
kungens
spadbarn
##skrets
pluss
vagra
##sons
##oba
stangas
##producerade
##pix
##ches
##idakt
varmek
##uret
fettsyr
formanliga
resonerar
nedfor
##strategier
rymligt
bevak
cott
kirurgi
skryta
boja
##moment
##vandning
results
forbudet
vitvaror
jelly
nyfodda
##jic
bukett
##sleden
arbetsuppgifterna
nerfor
byten
tillatelse
motgangar
##ografisk
sokningar
##jukt
##born
##pil
pensionen
dot
fardighet
omsatter
inkluderat
forsamras
sundsvalls
nutr
fake
militart
##farten
##rattsliga
lagkon
disa
norges
rynkor
huvuden
hissen
geni
allmanhetens
##lac
konventionella
nojen
traven
vatske
faststallt
christopher
##vos
buy
##ofte
tatueringar
##oge
tipsade
elektricitet
##skru
##jern
eman
##alo
##eligen
umgicks
fondens
portfoljen
josses
sorten
pastaendet
##samlingar
diskussionerna
amma
pittore
acceptabelt
obekvam
##oljor
danderyd
forsand
ladu
hage
hare
drivmedel
styrelseordforande
acklig
konstateras
volley
valpen
##temperaturen
kitty
##wing
##knappen
##skna
medlemmen
beslutas
manikyr
atagande
##fonstret
sminka
filippa
##sajten
tjugof
religionen
slagen
fniss
##rerade
##frekvens
omg
##rish
stringt
before
hdmi
israeliska
vandringen
religioner
svaghet
##sbeskrivning
natrium
##havarna
anmalde
lurade
skriften
norwegi
hid
nyforvar
##atra
linder
hittats
hackar
tess
##hojning
##jock
aron
tillfredsstallelse
halle
##boo
##portfolj
analytiker
inhandla
konsumentkrediter
hjalps
anvandarvillkor
broschyr
brita
##ebro
undrat
dessfor
bestallare
yttra
cirkulation
klattrar
uppsatt
columb
##procent
tilda
testosteron
eq
##57
trean
depa
h2
sandning
user
spola
##ofon
avnjuta
oversvam
utsprid
ester
vaninna
upptacks
unionens
##folket
kniven
krossa
##tabel
stralkast
##kvallar
##estud
kontinuitet
saw
flirta
дr
comfort
observation
investeringen
fresh
##sfre
##shult
avslappning
mana
skyddat
stenung
##odis
tjanstepension
kidnapp
teve
lamporna
sjukpenning
klippan
arbetsdomstolen
##skostnaderna
##utredningen
framkommer
econom
koranen
fortydliga
kis
offensiv
paradiset
##ijer
stipendier
##armen
mp4
hee
anderson
##lant
personligheter
uppfoljaren
##izer
oversattningar
vell
bifogas
overklaga
##operation
galoppen
rasistiska
satsade
nd
gissning
destill
skadades
terrangen
barnkon
civilingenjor
osynliga
##дr
lettland
bote
##havar
ungen
tilldelades
##sgransen
links
figuren
##sbudget
##isteriet
integreras
republiken
tums
fryst
klienten
1957
specialiserad
hotad
really
##tavla
vilade
##rulle
forundersokning
##delarna
metoderna
coaching
bromsa
future
outfits
badkaret
##sspr
bevap
1910
##plade
oscars
bisar
revansch
##skalas
fikar
makro
dova
stadsbibli
hyresratt
gravde
wine
espresso
jurister
bredda
forbattrat
egenskaperna
##hjartat
anrika
fruktansvarda
genomskinliga
##craft
spf
dessforinnan
##scenter
bedrivas
valkant
virtuell
casa
##forrad
proven
##inspektionens
vastergot
langpromenad
##tagits
##anca
wife
lotto
fakulteten
cb
##rate
derby
##bestand
omsorgs
inbadd
efterstra
##svenska
aterbetalnings
luren
besvarligt
checklista
broccoli
##365
sallader
medias
##gur
djupgaende
zombie
slov
garningar
dockor
portarna
automation
fern
otrygg
affarssystem
gnalla
##ekniker
dansband
kostymer
##iater
##sakerhets
benz
lidl
framstall
lases
##oaren
bruket
##ices
##glans
gw
views
##store
bastun
prognoser
frun
##libris
##dator
intel
##icen
##boxen
##polen
##anal
sjukskrivning
madison
jason
datingsida
##skala
garderober
overklagas
##skansliet
##manniska
finance
billigast
vafflor
forena
framtrader
etnicitet
nationer
10000
evelina
##ims
oregel
##hers
many
floda
badda
utvarderingen
socion
##komster
bricka
##restaurang
aterbesok
##ssamman
minuts
jamnare
vest
spank
rimligen
skrymslen
grejor
##dod
spratt
omgivningarna
##82
normen
tjugot
smaller
hust
valstand
detroit
franch
##ssida
decennium
##sproduktion
gaza
akvarell
produktutveckling
##ellow
mager
arsdag
antecknings
fill
beharskar
##okk
barnmorska
##frun
strackte
kombinerad
slangt
oanvand
sku
bloggandet
muskul
lundin
##bbade
number
cypern
##edande
##lots
systematiska
paragrafen
ume
producerad
pinn
bokmassan
virvel
vick
##emans
nyem
products
rundor
##sinter
existera
rensat
horr
tion
##eriella
installerad
uppdelat
##pson
hierark
bilresa
guest
slips
barnomsorg
##style
overga
falgar
cement
drunk
studiel
hansen
prist
##sparr
##ryd
fangels
knad
##shopp
idrottare
##daq
entusiaster
betydelsefulla
##torget
maluppfyll
axelsson
##analyser
##kvinnor
kommunalrad
metaller
##bordes
varderar
slemh
hmmm
##skytte
forvax
##kastning
##sboken
noggrannhet
langes
##nygg
systrarna
##sledaren
restriktioner
medarbetar
casumo
rm
konventionen
arrangorer
##isy
a3
##chefer
pakistan
svensken
##sligt
seriens
gladja
atar
midsommara
source
##etiska
pucken
jordbruks
ledamoterna
##ninge
forvarvat
##sprovning
primarvarden
sammankom
forska
faror
europaparlamentets
atlet
privatliv
##ransport
tredjepart
##texten
##dokt
##skuld
krus
overrepresenterade
karamell
blomman
henriksson
reglem
cyt
invid
konsultation
##rey
##lotta
##jala
##stegen
##kroppen
inbordes
##eler
porto
konsolid
havsutsikt
##rs
paborjar
##vadret
##stracka
##vana
nikotin
servern
ointressant
british
##rana
tecknas
ivan
##andamal
##cci
laura
vemod
barnrum
typsnitt
sloven
misslyckades
uppgradering
ananas
sparbank
kelly
skuggor
##skript
##smobler
##laggs
installerade
##mmel
vargar
wallin
##uri
foror
borgar
hoho
forskolans
dramatisk
##grade
prioritering
administrator
##rell
traningsmatch
skalan
##promenaden
sangaren
markering
##atexamen
framemot
freja
exter
ostr
##meddelandet
communic
nasdaq
299
##likt
##team
##jour
utmarkelser
franvarande
roligast
friskis
krim
chattrum
skridskor
##seftermiddagen
ibra
inombords
##eee
arsstamman
accent
aterbetalas
balett
muggar
lom
regnat
aktiespar
bestatt
##ejo
godkannandet
affiliate
##haw
skadorna
lekfull
##sformedling
lira
##iansk
akademien
genomsyr
kurva
kp
bostadshus
sket
##odi
router
cost
ponn
ende
hemmak
manuset
development
principerna
kraftigare
smaskal
##vang
##kompon
overbl
passag
cherry
forskjut
##ipan
ekot
##hems
mimm
matratter
spoken
##stolpe
bosn
##prylar
forbinder
utdelningen
##icit
parkett
##eriets
##kru
##ри
laglig
lobby
nathalie
pg
vod
voro
buljong
medlemmarnas
##tak
bidragen
alltjamt
sab
kostat
tomter
yahoo
elitserien
morn
bakning
##bygge
fotograferade
aah
##inens
##git
280
##sbruk
sparr
grillning
##spedagog
smick
moget
kompakta
halsot
##efa
##ovo
##ything
nokia
ryckte
##chanser
triang
backarna
palestina
kritiserar
kocken
olikheter
identifiering
argumentera
##kameran
flydde
##ekl
stunds
databaser
diana
mixer
while
forradet
rekl
nissan
nodvandighet
frage
##sindex
golvvarme
indikator
join
##bakat
karleks
spridda
yea
##radgivning
verksamhetsplan
159
relevans
affischer
skita
stickat
overensstammelse
hord
fjarilar
klasskomp
gronsakerna
brandskydd
rundtur
tillsynsmyndighet
##ysc
##ocol
##dog
##ylen
bytet
[...]
