[PAD]
[unused0]
[unused1]
[unused2]
[unused3]
[unused4]
[unused5]
[unused6]
[unused7]
[unused8]
[unused9]
[unused10]
[unused11]
[unused12]
[unused13]
[unused14]
[unused15]
[unused16]
[unused17]
[unused18]
[unused19]
[unused20]
[unused21]
[unused22]
[unused23]
[unused24]
[unused25]
[unused26]
[unused27]
[unused28]
[unused29]
[unused30]
[unused31]
[unused32]
[unused33]
[unused34]
[unused35]
[unused36]
[unused37]
[unused38]
[unused39]
[unused40]
[unused41]
[unused42]
[unused43]
[unused44]
[unused45]
[unused46]
[unused47]
[unused48]
[unused49]
[unused50]
[unused51]
[unused52]
[unused53]
[unused54]
[unused55]
[unused56]
[unused57]
[unused58]
[unused59]
[unused60]
[unused61]
[unused62]
[unused63]
[unused64]
[unused65]
[unused66]
[unused67]
[unused68]
[unused69]
[unused70]
[unused71]
[unused72]
[unused73]
[unused74]
[unused75]
[unused76]
[unused77]
[unused78]
[unused79]
[unused80]
[unused81]
[unused82]
[unused83]
[unused84]
[unused85]
[unused86]
[unused87]
[unused88]
[unused89]
[unused90]
[unused91]
[unused92]
[unused93]
[unused94]
[unused95]
[unused96]
[unused97]
[unused98]
[unused99]
[unused100]
[unused101]
[unused102]
[unused103]
[unused104]
[unused105]
[unused106]
[unused107]
[unused108]
[unused109]
[unused110]
[unused111]
[unused112]
[unused113]
[unused114]
[unused115]
[unused116]
[unused117]
[unused118]
[unused119]
[unused120]
[unused121]
[unused122]
[unused123]
[unused124]
[unused125]
[unused126]
[unused127]
[unused128]
[unused129]
[unused130]
[unused131]
[unused132]
[unused133]
[unused134]
[unused135]
[unused136]
[unused137]
[unused138]
[unused139]
[unused140]
[unused141]
[unused142]
[unused143]
[unused144]
[unused145]
[unused146]
[unused147]
[unused148]
[unused149]
[unused150]
[unused151]
[unused152]
[unused153]
[unused154]
[unused155]
[unused156]
[unused157]
[unused158]
[unused159]
[unused160]
[unused161]
[unused162]
[unused163]
[unused164]
[unused165]
[unused166]
[unused167]
[unused168]
[unused169]
[unused170]
[unused171]
[unused172]
[unused173]
[unused174]
[unused175]
[unused176]
[unused177]
[unused178]
[unused179]
[unused180]
[unused181]
[unused182]
[unused183]
[unused184]
[unused185]
[unused186]
[unused187]
[unused188]
[unused189]
[unused190]
[unused191]
[unused192]
[unused193]
[unused194]
[unused195]
[unused196]
[unused197]
[unused198]
[unused199]
[unused200]
[unused201]
[unused202]
[unused203]
[unused204]
[unused205]
[unused206]
[unused207]
[unused208]
[unused209]
[unused210]
[unused211]
[unused212]
[unused213]
[unused214]
[unused215]
[unused216]
[unused217]
[unused218]
[unused219]
[unused220]
[unused221]
[unused222]
[unused223]
[unused224]
[unused225]
[unused226]
[unused227]
[unused228]
[unused229]
[unused230]
[unused231]
[unused232]
[unused233]
[unused234]
[unused235]
[unused236]
[unused237]
[unused238]
[unused239]
[unused240]
[unused241]
[unused242]
[unused243]
[unused244]
[unused245]
[unused246]
[unused247]
[unused248]
[unused249]
[unused250]
[unused251]
[unused252]
[unused253]
[unused254]
[unused255]
[unused256]
[unused257]
[unused258]
[unused259]
[unused260]
[unused261]
[unused262]
[unused263]
[unused264]
[unused265]
[unused266]
[unused267]
[unused268]
[unused269]
[unused270]
[unused271]
[unused272]
[unused273]
[unused274]
[unused275]
[unused276]
[unused277]
[unused278]
[unused279]
[unused280]
[unused281]
[unused282]
[unused283]
[unused284]
[unused285]
[unused286]
[unused287]
[unused288]
[unused289]
[unused290]
[unused291]
[unused292]
[unused293]
[unused294]
[unused295]
[unused296]
[unused297]
[unused298]
[unused299]
[unused300]
[unused301]
[unused302]
[unused303]
[unused304]
[unused305]
[unused306]
[unused307]
[unused308]
[unused309]
[unused310]
[unused311]
[unused312]
[unused313]
[unused314]
[unused315]
[unused316]
[unused317]
[unused318]
[unused319]
[unused320]
[unused321]
[unused322]
[unused323]
[unused324]
[unused325]
[unused326]
[unused327]
[unused328]
[unused329]
[unused330]
[unused331]
[unused332]
[unused333]
[unused334]
[unused335]
[unused336]
[unused337]
[unused338]
[unused339]
[unused340]
[unused341]
[unused342]
[unused343]
[unused344]
[unused345]
[unused346]
[unused347]
[unused348]
[unused349]
[unused350]
[unused351]
[unused352]
[unused353]
[unused354]
[unused355]
[unused356]
[unused357]
[unused358]
[unused359]
[unused360]
[unused361]
[unused362]
[unused363]
[unused364]
[unused365]
[unused366]
[unused367]
[unused368]
[unused369]
[unused370]
[unused371]
[unused372]
[unused373]
[unused374]
[unused375]
[unused376]
[unused377]
[unused378]
[unused379]
[unused380]
[unused381]
[unused382]
[unused383]
[unused384]
[unused385]
[unused386]
[unused387]
[unused388]
[unused389]
[unused390]
[unused391]
[unused392]
[unused393]
[unused394]
[unused395]
[unused396]
[unused397]
[unused398]
[unused399]
[unused400]
[unused401]
[unused402]
[unused403]
[unused404]
[unused405]
[unused406]
[unused407]
[unused408]
[unused409]
[unused410]
[unused411]
[unused412]
[unused413]
[unused414]
[unused415]
[unused416]
[unused417]
[unused418]
[unused419]
[unused420]
[unused421]
[unused422]
[unused423]
[unused424]
[unused425]
[unused426]
[unused427]
[unused428]
[unused429]
[unused430]
[unused431]
[unused432]
[unused433]
[unused434]
[unused435]
[unused436]
[unused437]
[unused438]
[unused439]
[unused440]
[unused441]
[unused442]
[unused443]
[unused444]
[unused445]
[unused446]
[unused447]
[unused448]
[unused449]
[unused450]
[unused451]
[unused452]
[unused453]
[unused454]
[unused455]
[unused456]
[unused457]
[unused458]
[unused459]
[unused460]
[unused461]
[unused462]
[unused463]
[unused464]
[unused465]
[unused466]
[unused467]
[unused468]
[unused469]
[unused470]
[unused471]
[unused472]
[unused473]
[unused474]
[unused475]
[unused476]
[unused477]
[unused478]
[unused479]
[unused480]
[unused481]
[unused482]
[unused483]
[unused484]
[unused485]
[unused486]
[unused487]
[unused488]
[unused489]
[unused490]
[unused491]
[unused492]
[unused493]
[unused494]
[unused495]
[unused496]
[unused497]
[unused498]
[unused499]
[unused500]
[unused501]
[unused502]
[unused503]
[unused504]
[unused505]
[unused506]
[unused507]
[unused508]
[unused509]
[unused510]
[unused511]
[unused512]
[unused513]
[unused514]
[unused515]
[unused516]
[unused517]
[unused518]
[unused519]
[unused520]
[unused521]
[unused522]
[unused523]
[unused524]
[unused525]
[unused526]
[unused527]
[unused528]
[unused529]
[unused530]
[unused531]
[unused532]
[unused533]
[unused534]
[unused535]
[unused536]
[unused537]
[unused538]
[unused539]
[unused540]
[unused541]
[unused542]
[unused543]
[unused544]
[unused545]
[unused546]
[unused547]
[unused548]
[unused549]
[unused550]
[unused551]
[unused552]
[unused553]
[unused554]
[unused555]
[unused556]
[unused557]
[unused558]
[unused559]
[unused560]
[unused561]
[unused562]
[unused563]
[unused564]
[unused565]
[unused566]
[unused567]
[unused568]
[unused569]
[unused570]
[unused571]
[unused572]
[unused573]
[unused574]
[unused575]
[unused576]
[unused577]
[unused578]
[unused579]
[unused580]
[unused581]
[unused582]
[unused583]
[unused584]
[unused585]
[unused586]
[unused587]
[unused588]
[unused589]
[unused590]
[unused591]
[unused592]
[unused593]
[unused594]
[unused595]
[unused596]
[unused597]
[unused598]
[unused599]
[unused600]
[unused601]
[unused602]
[unused603]
[unused604]
[unused605]
[unused606]
[unused607]
[unused608]
[unused609]
[unused610]
[unused611]
[unused612]
[unused613]
[unused614]
[unused615]
[unused616]
[unused617]
[unused618]
[unused619]
[unused620]
[unused621]
[unused622]
[unused623]
[unused624]
[unused625]
[unused626]
[unused627]
[unused628]
[unused629]
[unused630]
[unused631]
[unused632]
[unused633]
[unused634]
[unused635]
[unused636]
[unused637]
[unused638]
[unused639]
[unused640]
[unused641]
[unused642]
[unused643]
[unused644]
[unused645]
[unused646]
[unused647]
[unused648]
[unused649]
[unused650]
[unused651]
[unused652]
[unused653]
[unused654]
[unused655]
[unused656]
[unused657]
[unused658]
[unused659]
[unused660]
[unused661]
[unused662]
[unused663]
[unused664]
[unused665]
[unused666]
[unused667]
[unused668]
[unused669]
[unused670]
[unused671]
[unused672]
[unused673]
[unused674]
[unused675]
[unused676]
[unused677]
[unused678]
[unused679]
[unused680]
[unused681]
[unused682]
[unused683]
[unused684]
[unused685]
[unused686]
[unused687]
[unused688]
[unused689]
[unused690]
[unused691]
[unused692]
[unused693]
[unused694]
[unused695]
[unused696]
[unused697]
[unused698]
[unused699]
[unused700]
[unused701]
[unused702]
[unused703]
[unused704]
[unused705]
[unused706]
[unused707]
[unused708]
[unused709]
[unused710]
[unused711]
[unused712]
[unused713]
[unused714]
[unused715]
[unused716]
[unused717]
[unused718]
[unused719]
[unused720]
[unused721]
[unused722]
[unused723]
[unused724]
[unused725]
[unused726]
[unused727]
[unused728]
[unused729]
[unused730]
[unused731]
[unused732]
[unused733]
[unused734]
[unused735]
[unused736]
[unused737]
[unused738]
[unused739]
[unused740]
[unused741]
[unused742]
[unused743]
[unused744]
[unused745]
[unused746]
[unused747]
[unused748]
[unused749]
[unused750]
[unused751]
[unused752]
[unused753]
[unused754]
[unused755]
[unused756]
[unused757]
[unused758]
[unused759]
[unused760]
[unused761]
[unused762]
[unused763]
[unused764]
[unused765]
[unused766]
[unused767]
[unused768]
[unused769]
[unused770]
[unused771]
[unused772]
[unused773]
[unused774]
[unused775]
[unused776]
[unused777]
[unused778]
[unused779]
[unused780]
[unused781]
[unused782]
[unused783]
[unused784]
[unused785]
[unused786]
[unused787]
[unused788]
[unused789]
[unused790]
[unused791]
[unused792]
[unused793]
[unused794]
[unused795]
[unused796]
[unused797]
[unused798]
[unused799]
[unused800]
[unused801]
[unused802]
[unused803]
[unused804]
[unused805]
[unused806]
[unused807]
[unused808]
[unused809]
[unused810]
[unused811]
[unused812]
[unused813]
[unused814]
[unused815]
[unused816]
[unused817]
[unused818]
[unused819]
[unused820]
[unused821]
[unused822]
[unused823]
[unused824]
[unused825]
[unused826]
[unused827]
[unused828]
[unused829]
[unused830]
[unused831]
[unused832]
[unused833]
[unused834]
[unused835]
[unused836]
[unused837]
[unused838]
[unused839]
[unused840]
[unused841]
[unused842]
[unused843]
[unused844]
[unused845]
[unused846]
[unused847]
[unused848]
[unused849]
[unused850]
[unused851]
[unused852]
[unused853]
[unused854]
[unused855]
[unused856]
[unused857]
[unused858]
[unused859]
[unused860]
[unused861]
[unused862]
[unused863]
[unused864]
[unused865]
[unused866]
[unused867]
[unused868]
[unused869]
[unused870]
[unused871]
[unused872]
[unused873]
[unused874]
[unused875]
[unused876]
[unused877]
[unused878]
[unused879]
[unused880]
[unused881]
[unused882]
[unused883]
[unused884]
[unused885]
[unused886]
[unused887]
[unused888]
[unused889]
[unused890]
[unused891]
[unused892]
[unused893]
[unused894]
[unused895]
[unused896]
[unused897]
[unused898]
[unused899]
[unused900]
[unused901]
[unused902]
[unused903]
[unused904]
[unused905]
[unused906]
[unused907]
[unused908]
[unused909]
[unused910]
[unused911]
[unused912]
[unused913]
[unused914]
[unused915]
[unused916]
[unused917]
[unused918]
[unused919]
[unused920]
[unused921]
[unused922]
[unused923]
[unused924]
[unused925]
[unused926]
[unused927]
[unused928]
[unused929]
[unused930]
[unused931]
[unused932]
[unused933]
[unused934]
[unused935]
[unused936]
[unused937]
[unused938]
[unused939]
[unused940]
[unused941]
[unused942]
[unused943]
[unused944]
[unused945]
[unused946]
[unused947]
[unused948]
[unused949]
[unused950]
[unused951]
[unused952]
[unused953]
[unused954]
[unused955]
[unused956]
[unused957]
[unused958]
[unused959]
[unused960]
[unused961]
[unused962]
[unused963]
[unused964]
[unused965]
[unused966]
[unused967]
[unused968]
[unused969]
[unused970]
[unused971]
[unused972]
[unused973]
[unused974]
[unused975]
[unused976]
[unused977]
[unused978]
[unused979]
[unused980]
[unused981]
[unused982]
[unused983]
[unused984]
[unused985]
[unused986]
[unused987]
[unused988]
[unused989]
[unused990]
[unused991]
[unused992]
[unused993]
[unused994]
[unused995]
[unused996]
[unused997]
[unused998]
[unused999]
[UNK]
[CLS]
[SEP]
[MASK]
!
"
#
$
%
&
'
(
)
*
+
,
-
.
/
0
1
2
3
4
5
6
7
8
9
:
;
=
?
@
[
\
]
^
_
`
a
b
c
d
e
f
g
h
i
j
k
l
m
n
o
p
q
r
s
t
u
v
w
x
y
z
{
|
}
~
¡
£
§
¨
«
¬
®
¯
°
±
²
³
´
µ
·
¹
º
»
¼
½
¾
¿
×
ß
æ
ð
÷
ø
þ
đ
ħ
ı
ł
ŋ
œ
ƒ
ɐ
ɑ
ɒ
ɔ
ɕ
ə
ɛ
ɡ
ɣ
ɨ
ɪ
ɲ
ɾ
ʀ
ʁ
ʃ
ʉ
ʊ
ʌ
ʒ
ʔ
ʰ
ʲ
ʹ
ʻ
ʼ
ʾ
ʿ
ˈ
ˌ
ː
˚
α
β
γ
δ
ε
ζ
η
θ
ι
κ
λ
μ
ν
ξ
ο
π
ρ
ς
σ
τ
υ
φ
χ
ψ
ω
а
б
в
г
д
е
ж
з
и
к
л
м
н
о
п
р
с
т
у
ф
х
ц
ч
ш
щ
ъ
ы
ь
э
ю
я
ђ
є
і
ј
љ
њ
ћ
џ
қ
ү
ә
ө
ա
բ
գ
դ
ե
զ
թ
ի
լ
խ
կ
հ
ղ
մ
յ
ն
շ
ո
պ
ռ
ս
վ
տ
ր
ց
ւ
ք
א
ב
ג
ד
ה
ו
ז
ח
ט
י
כ
ל
ם
מ
ן
נ
ס
ע
ף
פ
צ
ק
ר
ש
ת
ء
ا
ب
ة
ت
ث
ج
ح
خ
د
ذ
ر
ز
س
ش
ص
ض
ط
ظ
ع
غ
ـ
ف
ق
ك
ل
م
ن
ه
و
ى
ي
پ
چ
ژ
ک
گ
ھ
ہ
ۆ
ی
ێ
ە
ܐ
ܕ
ܘ
ܝ
ܪ
ܬ
अ
क
ग
च
ज
ट
ड
ण
त
द
ध
न
प
ब
भ
म
य
र
ल
व
श
ष
स
ह
ा
ि
ी
ो
॥
ক
জ
ত
দ
ন
প
ব
ম
য
র
ল
স
া
ি
ী
ে
ਅ
ਆ
ਇ
ਕ
ਖ
ਗ
ਜ
ਣ
ਤ
ਦ
ਨ
ਪ
ਮ
ਰ
ਲ
ਵ
ਸ
ਹ
ਾ
ਿ
ੀ
લ
க
ச
ட
த
ன
ப
ம
ர
ல
வ
ா
ி
ு
ల
ก
ค
ง
จ
ช
ด
ต
ท
น
บ
ป
พ
ม
ย
ร
ล
ว
ส
ห
อ
ะ
า
เ
་
།
ཀ
ཁ
ག
ང
ཆ
ད
ན
པ
ཕ
བ
མ
འ
ར
ལ
ཤ
ས
ა
ბ
გ
დ
ე
ვ
ზ
თ
ი
კ
ლ
მ
ნ
ო
პ
რ
ს
ტ
უ
ფ
ქ
ყ
შ
ც
ძ
წ
ხ
ᄀ
ᄂ
ᄃ
ᄅ
ᄆ
ᄇ
ᄉ
ᄋ
ᄌ
ᄎ
ᄏ
ᄐ
ᄑ
ᄒ
ᅡ
ᅢ
ᅣ
ᅥ
ᅦ
ᅧ
ᅨ
ᅩ
ᅪ
ᅬ
ᅭ
ᅮ
ᅯ
ᅱ
ᅲ
ᅳ
ᅴ
ᅵ
ᆨ
ᆫ
ᆯ
ᆷ
ᆸ
ᆺ
ᆼ
ᚢ
ᚦ
ᚱ
ᚴ
ᚾ
ᛁ
ᛅ
ᛋ
ᛏ
᛫
រ
ា
‐
‑
–
—
‘
’
“
”
„
†
•
…
‰
′
″
₂
€
℃
ℓ
№
™
⅓
⅔
→
∂
∇
∈
−
√
∞
≈
≤
≥
⋅
─
│
└
├
●
★
♠
♣
♥
♭
♯
⟨
⟩
い
う
か
き
し
た
と
の
は
り
ん
ア
ィ
イ
ウ
エ
オ
カ
キ
ク
コ
サ
シ
ス
タ
ッ
テ
ト
ナ
ハ
ヒ
フ
ホ
マ
ラ
リ
ル
レ
ロ
ン
・
ー
一
丁
七
万
三
上
下
世
东
中
丰
临
丹
主
义
之
乌
乐
九
乡
二
云
五
井
亚
京
亭
人
什
仁
仙
代
伊
会
佛
作
依
保
信
元
光
克
八
公
六
兰
共
关
兴
内
军
农
凤
刘
利
前
劉
力
加
勒
化
北
区
十
千
华
南
博
卡
厂
原
县
双
口
古
台
司
合
吉
同
后
吴
周
和
哈
唐
嘉
嘎
四
回
团
园
国
图
國
土
地
场
址
坊
坑
坝
坡
坪
城
堂
堡
塔
塘
士
夏
外
多
大
天
太
头
女
如
子
字
孙
孝
学
學
宁
安
宋
宗
官
定
宝
家
富
寨
寺
寿
小
尔
尖
尼
居
屯
山
屿
岗
岛
岩
岭
岳
峡
峰
島
川
州
工
巴
市
布
帝
常
干
平
年
广
庄
庆
库
店
庙
府
康
建
式
张
張
彝
彦
徐
德
心
成
所
扎
拉
政
教
文
斯
新
方
族
旗
日
旧
昌
明
星
春
普
景
曲
書
曹
會
月
有
望
朝
木
本
朱
机
李
村
杜
来
杨
東
松
板
林
果
柏
查
柳
树
株
根
格
桃
桑
桥
梁
梅
楼
横
正
武
毛
氏
民
水
永
汉
江
池
沙
沟
河
治
泉
法
波
泰
洋
洛
洞
津
洪
洲
流
浦
海
清
渡
温
港
湖
湾
源
溪
满
滩
漢
潭
灣
火
热
牛
物
特
玄
玉
王
玛
珠
理
瓦
生
田
甲
界
白
百
皇
盘
真
石
社
祖
神
福
秀
秋
科
秦
空
立
站
章
竹
經
红
纳
罗
羅
羊
美
群
義
老
胜
胡
自
良
色
花
苏
苗
若
英
茶
草
荣
莫
莲
華
营
蒙
藏
虎
行
街
西
观
角
語
谷
贡
赛
赤
赵
路
軍
车
达
连
通
道
遗
那
郊
郎
郡
部
郭
都
里
野
金
铁
铺
错
镇
長
长
門
门
阳
阿
陈
院
陳
陵
陽
隆
雄
雅
集
雪
青
音
顶
顺
风
香
馬
马
高
鱼
鲁
鹿
麻
黄
黑
龍
龙
##a
##h
##r
##m
##4
##7
##t
##u
##2
##d
##0
##p
##v
##n
##i
##g
##e
##o
##s
##f
##x
##l
##æ
##k
##b
##ø
##z
##c
##j
##y
##1
##5
##−
##9
##6
##е
##д
##о
##к
##л
##а
##н
##ل
##ه
##ρ
##γ
##ο
##σ
##τ
##λ
##ι
##w
##q
##і
##п
##я
##с
##в
##ر
##т
##р
##и
##و
##ا
##ش
##ن
##ᅥ
##ᆼ
##ᄌ
##ᄃ
##ᅩ
##8
##°
##م
##ی
##ᅡ
##ᆨ
##ᄉ
##ᆫ
##г
##3
##ð
##ط
##ب
##ي
##ᄋ
##ᅪ
##ᅳ
##ف
##ß
##ᅵ
##ł
##у
##ت
##ʌ
##ə
##κ
##ν
##ร
##ᅢ
##ᅮ
##د
##अ
##र
##м
##ɑ
##ɪ
##ز
##υ
##η
##ე
##რ
##ა
##ნ
##ი
##ե
##ր
##թ
##か
##と
##の
##ε
##α
##ш
##μ
##ς
##з
##б
##ч
##ك
##ى
##ᄐ
##ᄅ
##þ
##מ
##ר
##վ
##պ
##ա
##տ
##ո
##ի
##ц
##´
##ع
##ն
##ք
##х
##ە
##ج
##ı
##خ
##ژ
##گ
##ф
##ւ
##ו
##ל
##ם
##π
##φ
##ᅧ
##ᅣ
##ᆸ
##δ
##ω
##θ
##ь
##ة
##ძ
##ᆯ
##đ
##ย
##ˈ
##ː
##ɡ
##є
##ю
##چ
##ᄇ
##ح
##ء
##ث
##س
##น
##า
##ы
##ᆷ
##ᄀ
##™
##ʒ
##う
##ि
##न
##ध
##ी
##ү
##œ
##ʁ
##ม
##เ
##ก
##ต
##ᄎ
##ق
##ב
##ᄒ
##ᅴ
##э
##ხ
##უ
##მ
##ะ
##บ
##ท
##ส
##ด
##จ
##ს
##ლ
##ᄆ
##غ
##ช
##य
##श
##द
##भ
##म
##क
##ा
##स
##त
##ղ
##կ
##ս
##ξ
##ᄂ
##ص
##ק
##ן
##ਿ
##ਤ
##ע
##ז
##י
##צ
##ח
##ћ
##щ
##ک
##پ
##ᅲ
##ж
##ђ
##ј
##ᆺ
##ி
##ன
##ψ
##ɔ
##ん
##り
##き
##い
##ɒ
##ŋ
##წ
##ъ
##ʊ
##ɛ
##²
##մ
##հ
##ʰ
##ি
##ক
##া
##գ
##β
##ɾ
##ɣ
##ɨ
##¨
##ᅬ
##─
##®
##ン
##シ
##ה
##พ
##ง
##յ
##զ
##ᚢ
##ט
##נ
##ห
##ᅦ
##ო
##ש
##ᅯ
##ד
##×
##⋅
##ܘ
##ܐ
##ܪ
##ג
##ハ
##ー
##ト
##ـ
##χ
##פ
##א
##ᄑ
##ड
##ह
##ス
##ন
##ম
##জ
##ظ
##ө
##ʃ
##€
##ذ
##ס
##љ
##た
##し
##ʲ
##ल
##ɐ
##ல
##ம
##£
##դ
##ց
##ζ
##ਾ
##ਵ
##ਦ
##ு
##ா
##ர
##ᅱ
##ਇ
##ਆ
##⅓
##க
##ப
##ட
##ラ
##อ
##ੀ
##ᅨ
##დ
##½
##ᅭ
##イ
##ہ
##प
##ट
##ण
##ʿ
##স
##ত
##த
##³
##ज
##প
##ਰ
##ܝ
##כ
##ת
##ყ
##ਖ
##ਅ
##ਹ
##თ
##ბ
##შ
##ो
##ग
##མ
##ਣ
##ტ
##য
##კ
##ܕ
##フ
##テ
##ナ
##タ
##℃
##ʻ
##қ
##ク
##サ
##њ
##ʀ
##ਗ
##±
##ʾ
##ض
##ச
##ਨ
##व
##ਸ
##ᛏ
##ᛁ
##ɲ
##ʼ
##բ
##ვ
##ᚱ
##ᚦ
##ᛅ
##ʹ
##¬
##ਪ
##ɕ
##ც
##ད
##ག
##ფ
##ۆ
##ष
##₂
##ล
##ཕ
##ལ
##ھ
##ʔ
##キ
##ア
##გ
##រ
##ា
##¼
##ᛋ
##ᚾ
##ィ
##ル
##ᚴ
##ʉ
##≥
##∂
##ħ
##ロ
##ల
##→
##ব
##ল
##র
##ী
##カ
##լ
##リ
##ว
##வ
##ਲ
##ზ
##џ
##ێ
##ब
##¹
##ਕ
##ས
##ә
##≈
##º
##ে
##ང
##♯
##շ
##レ
##は
##ף
##দ
##ヒ
##オ
##∇
##ཁ
##ར
##ਮ
##マ
##ホ
##ป
##ქ
##コ
##ッ
##խ
##ค
##♭
##პ
##¾
##ན
##ᄏ
##ռ
##འ
##≤
##ˌ
##⅔
##エ
##♥
##˚
##ཆ
##÷
##च
##¯
##♣
##ܬ
##ਜ
##ཀ
##લ
##བ
##µ
##ƒ
##ℓ
##ウ
##∞
##∈
##★
##√
##♠
##ཤ
##●
##པ
##en
##er
##an
##ar
##et
##or
##st
##in
ar
##ed
##om
##at
##il
##el
##al
##ad
##sk
##on
##ig
##ra
den
##ch
##tt
en
av
##un
med
och
##kt
##es
##and
##ing
in
##am
for
##re
##ol
og
som
##te
##le
##ste
st
##la
##id
til
##ord
pa
##is
##ur
var
##li
##ter
om
##og
19
##ver
det
##der
##eter
##ri
##ag
##eg
de
##ro
##as
##av
an
##lig
##ade
##us
##ning
li
##pp
##ang
##it
##de
han
##aden
##ik
er
un
##eder
ing
##isk
##ck
##ud
##per
##sn
##em
##kten
be
##ak
°c
sk
##ler
##bord
man
##ederbord
##itt
##are
##art
##ger
##od
under
del
##na
##ent
##tem
##ion
##ru
##ne
##ast
gen
tra
##ot
##att
over
##aste
20
##ber
##ul
##land
##unt
ut
##ens
##atur
ett
ble
##ør
har
till
trakten
##iv
##ns
##os
fin
genom
lig
##ia
##uv
##ist
at
##jen
km
##ran
sam
al
of
##ska
##peratur
fra
##um
##peraturen
runt
##eltem
##eltemperaturen
##uvud
##lim
##snitt
manaden
land
ligger
mm
sy
reg
genomsnitt
nederbord
sp
huvud
##sen
##sm
##all
kom
da
##se
att
##rev
##ke
##ov
af
##ari
ingar
##ut
sla
##op
##amil
hav
##ue
nar
##ok
finns
famil
##be
18
##for
##fe
##sa
##sta
##ktet
per
meter
pro
##ometer
el
stor
##ilometer
##ene
##ir
men
kv
besk
##ic
familjen
##mer
##rat
##arter
##ell
kal
kan
nord
##ust
##ug
inga
##est
##het
##ost
nor
##ien
mil
##atal
##maste
beskrev
et
der
slaktet
underarter
##und
havet
delen
beskrevs
list
##van
##ek
##ft
life
##atalog
##ande
##jon
catalog
catalogue
##olk
##yg
landet
listade
fran
##ær
##sp
##va
##rad
##ser
200
##ep
##ant
##staden
kon
##ark
tor
##ere
kalla
jan
##del
ch
##ab
##yr
syd
komm
regn
huvudstaden
##ske
vid
##fter
##ann
and
sin
##smed
invan
invanare
janu
201
blev
##ss
ju
##red
arsmed
arsmedeltemperaturen
varmaste
medeltemperaturen
kallaste
or
eller
##im
kvad
##ge
kvadrat
##ende
##ard
##igaste
##kilometer
kvadratkilometer
##limeter
millimeter
##arna
##ling
tid
##ett
##raste
pl
##folk
genomsnittlig
arsn
arsnederbord
torraste
regnigaste
sv
##ort
##ap
##limat
##ster
ma
to
##00
ber
juli
januari
kommun
##end
##eb
##ader
##vin
##ala
##ation
opp
##ede
ved
##ub
##sak
##iske
##je
gr
##net
efter
##ock
##angen
##men
##ember
##iska
##ind
ter
##ac
##giv
##ier
##ly
upp
##ks
sig
##ades
##vast
mar
ver
th
##befolk
før
hog
##lag
##den
vast
##heten
##ax
199
provin
aug
##ød
##skap
ny
august
##ry
##ron
##hol
mot
##rig
ku
##ma
sj
huvudsak
so
sa
vil
ind
le
##kk
##gen
inn
terr
##tal
##ve
hel
kun
re
##ta
##ner
##ige
##res
##ka
ty
##ikk
sl
omgiv
##ae
##man
##ring
terrangen
##ie
##kke
##ob
pun
rader
provinsen
##nings
##son
art
##yn
##ill
198
##ick
narheten
hv
##ningen
lang
ogsa
##jer
##yl
hans
##me
lag
##alt
bl
mo
etter
hogsta
##rag
197
vax
##hal
des
##amp
##var
##ikt
bli
augusti
##rin
##ionen
##ygg
ud
bar
kl
dar
kilometer
##befolkat
##ets
punkten
##ip
##iser
##if
##ppen
##ib
17
ha
dan
best
##ningarna
##sh
by
196
##jar
##else
##org
jun
##rit
##io
##sl
##sart
##ina
##ket
##oh
op
##lem
##ott
##radet
ikke
oster
pol
##ebru
hon
febru
kar
omgivningarna
la
par
##ian
her
##ater
ap
fl
fil
##entr
gl
juni
mell
fram
berg
##amn
##ken
##ogra
##nes
br
fors
seg
am
##anska
se
sydost
##ale
##oll
##sb
##ake
tva
sen
##ong
ne
te
##uc
bland
samt
##iet
vaster
fler
bor
##adde
##asjon
tal
sid
##lige
val
##vis
andre
forst
hen
the
mang
mus
##ff
##øy
194
vatt
tre
nov
195
my
ein
##lar
sep
##ats
bet
gra
##ire
ad
##ligt
##ober
hun
bru
##old
dec
##ingen
tv
nordvast
##øl
##ou
soder
sven
dag
gj
mal
##rem
##aten
##ung
##vax
##ah
##klimat
februari
far
pr
16
##ane
##ulle
ant
##istor
fol
##ker
storre
193
aven
første
##unn
##rade
beg
15
nordost
##skog
centr
##eng
december
##bet
septem
##rist
hadde
norr
september
##da
ser
##ans
##iver
##ult
sitt
##ligen
fod
tr
##elt
bestar
##oc
##igt
mind
191
192
##ert
sydvast
sh
november
min
##akt
##ce
##ningsom
##ten
##ow
##des
##ore
##opp
spel
sel
##itet
##ay
##las
hade
##øn
inte
hand
mars
tro
##gel
lake
mindre
##aren
okt
##ril
narmaste
##utt
##ts
mon
##berg
mat
kuper
bas
oktober
hvor
form
kuperad
##iskt
##ild
##leg
jord
##halle
he
me
##up
##olog
##kte
##ata
rep
##rik
klimat
fød
samhalle
##ada
ex
ganska
sver
ann
##ich
##ret
folj
maj
histor
##orde
hal
##riv
dette
toppen
##aw
joh
van
co
##ift
centrala
##min
##elsen
ge
##idae
##onen
gu
##ære
##ister
tat
##ess
##liga
amer
fly
##ys
##iss
all
sm
##kon
ost
is
kall
##enter
april
##omm
gles
sch
##bru
##edan
##iller
kommunen
inter
##alen
regionen
utb
glesbefolkat
nara
##hav
##ella
andra
no
mer
født
##allet
kj
vaxer
mest
nog
##mark
omradet
ab
190
##sam
##erna
omk
stad
ste
bra
bu
##elig
##ara
##smark
##entet
##emp
##ine
led
##ha
##endrag
##yd
##fl
hj
kuh
forsta
gru
vattendrag
kra
skulle
##kl
hov
##inn
##før
##ull
fick
##vik
ol
##bum
##hor
forb
rom
platt
##her
nav
fodd
##he
##els
##ack
amerik
mel
denne
##met
##yrk
bygg
vis
vart
delst
foljande
##ass
##ningar
res
##hus
##mp
##yt
##mar
omkring
##vand
eur
##ial
eg
##tart
##ja
mod
##hold
##ond
##anger
antal
##holm
##rom
san
ord
10
polit
skal
bo
##nas
plat
grund
car
are
talet
rad
tatbefolkat
kor
##dag
hem
sc
12
delt
mellom
utg
ag
##bar
liv
##tter
ned
dem
##ansk
##ben
##sten
sverige
sav
folk
tysk
##cket
##ct
##ium
##æn
##kel
frem
huvudsakligen
gam
##fatt
189
##rid
namn
##verk
fri
##fta
mor
fa
##erne
on
##ana
##yp
##ald
gar
rik
dod
##ogram
rikt
tur
bes
##gar
##ivers
##ren
##uk
bro
sammen
##of
ta
##ide
##skapet
person
ham
##jaril
##by
##lass
14
end
flere
##istri
prod
mycket
##tid
##ings
stat
sedan
##iker
##igh
dei
##ral
##rinningsom
##rak
##ille
ock
##ograf
nag
##par
##atte
##uss
natur
syfta
##bruk
univers
##jan
##ris
vær
##elle
##awa
##hi
##sklimat
stra
##ld
lov
##ga
sal
##inge
13
ott
vin
mellan
gjen
##bl
col
ho
forsk
arbe
##atter
dis
bak
sør
##ven
medlem
##get
##nen
##pl
stør
lu
em
norra
band
kat
europ
bred
##ius
bade
ph
##stem
##ktiv
##dom
mange
11
##øm
ocksa
##med
tidlig
##nar
off
ur
##stad
storsta
##befolkad
inne
##osa
##hand
sod
##ica
aust
ca
188
##stand
##bag
hol
krig
##gang
vest
##form
hø
part
##rett
kir
stud
##au
##kter
obefolkad
blir
sodra
nu
ans
gal
utbred
sol
new
hoved
konst
##lin
riktning
fot
##over
dom
sjo
##lik
fjaril
delstaten
000
stock
##app
##sson
usa
##urg
##val
su
distri
##ytt
##som
mark
album
##anske
mid
alle
lan
##cer
svensk
##eld
selv
arten
antalet
##ef
##skol
kont
##ester
##ii
##iga
ve
##int
##iz
vilket
po
##ite
##ora
dess
##rod
stockholm
wil
eks
##iner
jordbruk
##far
detta
##zonen
##rike
##vaxter
##ativ
ly
gang
##qu
##borg
mag
hos
sydostra
##lighet
gre
##ile
klimatzonen
##vaxtart
##ator
slut
lø
##lande
frank
ben
senere
fem
##iod
god
lar
187
bel
##ym
##th
186
met
##oph
enligt
##uder
##ton
plan
##ræ
##ban
fjarilsart
##jur
##rakt
##rum
##konom
##ford
##gan
##lands
fle
fj
lac
##empel
##ula
##led
di
cer
død
nam
savann
store
anvand
##piskt
eit
##nom
##lingen
platser
byg
##rer
##az
tvav
si
##ph
as
##enn
kanada
##our
##satt
##gt
skol
##pe
annat
rek
##kom
##elser
skrev
##ukt
##ity
lat
eng
##ninger
##ensis
ro
være
go
tidligere
jordbruksmark
##isjon
##fors
##af
hus
ele
##ach
fikk
havde
byen
ei
##kar
film
##spel
siden
##sv
oli
bi
gjorde
tvavinge
tvavingeart
##sil
ed
##hall
con
inom
##agen
##let
##sf
##nad
tog
##ec
intern
ingen
int
grupp
ottawa
##sjon
dra
kunne
inst
ang
lin
gener
##pt
bil
##bygg
##orn
##ida
pres
##ers
kyrk
vann
sn
norsk
kraft
norge
utan
im
##rukt
ater
##era
du
fort
son
cre
krist
engel
klub
vastra
tek
kn
##les
gjennom
##ya
##ultur
vir
vi
ital
pre
##aget
grunn
avrinningsom
##indel
red
mu
##iden
musik
ek
##ilt
##bo
##sj
sak
ostra
finland
ald
##ho
rund
kort
lok
##sy
svenska
##rift
start
organ
styr
befolk
ry
sjon
ga
##ate
bok
komp
##slag
danmark
sine
ak
sag
nation
tem
##ioner
##co
##ern
barn
id
samme
sar
gav
arbet
kol
kommune
do
ob
fun
##rar
senare
##hed
trad
##nem
flera
kamp
##fer
2010
sas
slutt
nær
##inger
##ingar
##veck
christ
øst
begyn
prof
stort
disse
##han
sek
185
##ham
##sel
vikt
tidig
kr
##vet
30
repres
blant
austral
ye
ort
period
pal
##ena
##æl
25
fast
##partem
forts
vaxt
mens
tallet
creek
##fly
##etter
flytt
##klar
kand
kong
count
hver
##ont
arbeid
sand
brit
##ca
kommer
basen
ke
pop
##rich
##minist
na
##ura
2008
lite
ban
ger
##mal
verd
bredden
##gr
2007
fred
kin
##mans
medel
omgivande
dock
kro
tidigare
##esp
##reg
##øde
##sing
samma
2006
brasil
##oss
tropiskt
denna
##lø
fyl
inse
olika
star
moder
administ
##ander
div
fotb
##ubli
jam
høy
kap
2000
str
kultur
kam
ofte
sina
føl
hemib
##ager
##stall
##byg
tran
mount
##oreala
hemiboreala
ac
##ba
##partementet
deres
##sch
##øre
##ones
bergig
pla
utbredningsom
ko
##ighet
que
nye
2011
ra
##eller
vara
##gj
num
##rep
vaxtlighet
##cker
##oner
mart
alt
##uld
universitet
##ira
john
dansk
amp
filmen
##ondon
artens
carl
##kes
sø
dal
##har
##ola
karl
sted
frankrike
2009
##ratt
##one
egen
søn
region
tot
tok
##ationen
##fin
##rog
london
namnet
jap
syn
utbredningsomrade
##oma
hennes
forl
100
184
bol
##gende
##ktor
##lagt
blandskog
##ongen
##tes
tred
##ografi
sant
von
##kn
bed
##elen
##alp
tyskland
mex
##uter
##arden
bild
2005
##ges
deb
halv
##skrig
januar
fire
##ksjon
2012
tan
stil
skog
cerro
arean
manga
##arta
fer
##set
gran
sang
##mann
ov
gift
##kur
ark
inv
tilb
##yra
amerikansk
##flug
sjal
##sd
##ish
##ley
avrinningsomradet
skalbag
storb
port
##ey
##sted
dav
21
milit
sommer
oper
forsam
##este
klimatet
##ace
##20
##erat
##jd
can
##ive
jak
##gte
enn
stora
meg
##band
cir
busk
italien
##ologi
##ident
sub
tillsam
##aler
tillsammans
##undet
staden
##ins
program
##flugor
##arbe
##ons
navn
kø
##tte
##ition
##ork
alla
kunst
departementet
jar
if
rundt
mad
dessa
##kker
dire
vit
##jet
##ritann
##ros
##mus
storbritann
##bia
stads
##ført
##mel
kron
pri
##slo
ville
ven
##gere
##ucer
24
##ij
vm
##lan
##och
satt
2004
savannklimat
oly
##rop
##vn
helsing
innan
fr
karri
cal
aret
blitt
samtid
kop
sing
pe
foret
tar
pat
noen
##edes
##raden
profess
norske
ale
##ors
ses
##orter
verk
2016
nya
##ipp
##sc
forf
sma
wal
riks
stapp
kina
##lev
##orden
##blad
ung
vand
##djur
flyg
natt
ekonom
insekt
##smarker
leg
##ekk
##ette
##endt
##vid
##hel
forek
com
##iva
##rupp
navnet
studer
tri
char
representer
22
tim
grasmarker
ep
ford
bla
varld
stappklimat
23
først
vok
kallt
##br
##len
dog
##ice
skalbagg
lever
russ
helt
skalbaggsart
##strom
kvinn
ru
##istan
exempel
##olf
2014
kjent
største
hold
##part
ars
##ksam
england
administrat
je
annet
##che
il
omfatt
bj
mann
vært
##kket
verden
##cent
##ori
oppet
183
internation
##sker
##landskap
##skar
1990
##vi
iran
dj
soc
qu
tiden
##raft
##stil
##jade
ul
albumet
##til
sock
##rang
##atet
2013
##atus
ev
vag
##ering
##pa
##rott
pers
olymp
fisk
aktiv
##its
bri
insektsart
##aster
ka
fatt
##fj
tit
##hj
##ix
##cher
ros
##legg
##ota
##tor
##eln
##age
ig
lo
lj
2015
##ops
uten
sær
vatten
1970
mellem
##vag
popul
##ommer
##sfor
gallande
bety
stod
mas
forsvar
vant
dy
sydlig
##ider
peter
##ico
sim
samhall
park
fik
hele
##ationer
##ksom
kval
divis
kung
span
utt
##ært
dam
##landet
##we
historie
##ars
##alis
kant
##esh
sten
spill
1980
ba
distriktet
##æg
oslo
busklandskap
##lav
##ith
##orna
##styr
johan
cor
nytt
gun
28
europa
sov
##cia
slakte
sil
26
gud
jos
##ika
bur
##bert
sit
##ash
februar
##enskap
##ona
indones
##burg
##skab
##mat
##spr
kulle
arg
27
##jø
svamp
##lassen
air
prin
##ele
##fil
##bol
willi
##mo
menne
##vær
oken
skap
##rut
fal
##ides
sydvastra
##fal
vastlig
2003
gor
laget
kateg
##sar
personer
ska
##ua
##za
rio
teg
muse
##bin
2002
nordostra
##lad
ret
bal
borjade
##esten
hur
pas
##off
helsingfors
los
organis
##abler
##ux
tillhor
1960
gikk
##ila
##ellt
okenklimat
noe
neder
tekn
hot
kines
##lam
serien
bandet
stand
lev
##esi
##trad
hjem
##ynd
vel
mari
##eret
2001
od
ander
mun
grad
fan
##landsklimat
foren
##ører
##sg
##inga
sjalv
2018
city
forsamling
spiller
nok
stracker
rett
william
##utom
##ise
##stra
##iar
##alist
sle
luft
##under
##uvudstaden
skri
lovskog
tredje
rh
lav
rod
ni
##ffe
indonesien
island
kur
fag
klubben
181
ofta
skj
2017
rak
las
##ote
##iken
##adem
tav
##heran
##ensen
ir
naturlig
##vir
utvik
kvin
##otter
gro
tyske
gruppen
nagra
kjen
##bel
##det
bare
etabler
jakarta
##vit
1999
cirka
samhallen
rol
sist
ram
##hov
konkur
##ustri
stekel
##odes
medelhav
rel
##uth
teheran
##okrat
##ric
sprak
##ies
##rol
##vo
##oren
29
##yc
utveck
ast
##uler
##illa
krit
medan
danske
arkite
paris
mac
nordvastra
stekelart
bon
christian
##pel
##rond
verdens
##iens
sovjet
##pet
roman
ovrig
ass
##iel
persiska
##iro
temper
musikk
bron
klad
stø
50
##like
full
##ng
klass
general
##unkt
vinter
fe
totalt
bid
##oden
siste
##ellige
##skri
forfatt
##sø
større
##asjonen
allt
langs
bag
elekt
like
##shuvudstaden
paul
ganger
gard
vanlig
bruk
##yll
ekonomiska
area
rock
##kv
##jo
arter
sem
##una
##steklar
##aga
##ure
##oni
landskapet
slik
##ps
##benhav
fyra
##stre
bog
medelhavsklimat
langt
##orer
sty
inns
##lade
##aceae
##ogn
##gav
ren
31
derfor
leder
hall
##heter
kh
##unds
##sun
##isen
##sert
aren
inlandsklimat
amerikanske
##gard
hy
gamle
stift
##aka
spec
fransk
##andet
mich
københav
varier
døde
inkl
result
svar
bort
mand
##jerne
##album
1998
mosa
##use
##lege
varit
pan
180
stam
spelade
samman
priv
gick
hor
##dal
##ias
matte
2019
kunde
ti
rev
skriv
##ita
teater
bry
##ølv
honom
australien
tilbake
system
##rika
jo
1992
thom
perioden
##uren
##ago
##vest
nasjon
##roll
##hl
offent
mai
ork
hu
##delen
##ward
slag
dare
forhold
borjan
##ress
nummer
##aria
national
1994
bev
##erte
igen
johann
##sprung
omrade
##anter
rum
deltok
tel
tempererat
betyd
mont
litter
##elige
grav
und
##serv
##alder
1996
viktig
engelsk
delav
kladogram
##oth
gennem
pass
ursprung
182
##gi
mosaik
georg
##aland
##kop
##inister
##spiller
unge
delavrinningsom
##naden
##ilte
##ze
##rede
##egron
tom
fore
ky
##sby
ras
stadsegron
##handling
ytter
##uel
##ath
##teborg
verksam
ii
1900
##djursart
forekommer
##laget
##igheter
darefter
##ain
tak
dann
myr
post
##chen
fang
bay
##upp
turner
prakt
storbritannien
bill
ligg
hela
##kj
fotball
hvil
##pen
ib
##idler
næ
administrativ
milli
we
goteborg
bara
##lo
gjort
nom
york
##lagg
plats
##cis
sett
president
1997
##iter
guld
##udd
##ænd
meget
mak
##ign
chile
pos
mc
roll
delavrinningsomrade
##organ
##bb
alex
##atan
##ko
phil
##bro
##isert
##delse
innen
1991
alger
1995
kab
aller
bre
professor
##helm
dr
besl
##erade
kirke
sad
kategor
fall
##drag
##forb
##asta
##lit
bul
cent
fjell
##anden
##svar
socken
##ommun
##arbet
1993
##itar
høj
##abri
bran
##rader
tru
øy
##iko
fest
##eph
pra
##ood
lind
overt
##iat
innebar
jur
1950
via
fjer
song
ratt
mø
40
varm
gunung
##ino
lou
##hund
slapp
bos
afg
##foren
##delig
igjen
svart
deltog
##bil
rober
pse
##ama
##bu
##kkje
grev
mol
pen
fyr
relig
bib
##onia
pet
##str
fanns
instit
kvar
##amer
tilh
kring
##ktar
len
arab
sex
ok
begge
##olit
skar
lik
##delt
ungdom
##rav
kust
monsun
##orge
1988
fre
ton
##vel
historia
europe
tex
##vig
##sport
vol
km²
##yttet
lange
ikkje
middel
tillegg
prob
##vatt
delstat
videre
mater
dermed
bore
try
forsø
##skil
##oster
regnskog
##50
##gor
##ceae
eld
freder
monsunklimat
##sst
ist
##tra
don
akt
##slut
økonom
##ios
##føl
miss
1800
##port
##eren
##dt
##ney
##ept
##alet
county
##igen
spor
##staende
eftersom
1989
sur
forbindel
##arkt
deras
brun
##æng
##fordes
mott
erne
orkide
blad
fleste
yt
mitt
##kken
desember
mur
tall
republi
arkitekt
stre
##roducer
est
##ani
bir
ten
##ces
##rob
##que
##stein
##ole
romer
##endte
##itz
anna
##unde
vaxtart
##meh
##sket
hed
klar
nederland
arene
jon
eksempel
##si
været
##osof
sku
##ument
sym
##sminister
bygget
bod
pseud
##heim
##erv
dok
##dann
1971
erik
prem
##øst
finnes
offic
dre
##ense
henne
anvands
##bor
1984
enk
##iges
##ockey
skip
##ini
1920
ide
hum
spindel
vet
sasongen
##ærer
kil
glob
179
pros
##oder
langd
hett
vill
brukt
veg
imidler
delar
imidlertid
ons
##iger
vic
seks
##bec
psy
##jarn
idag
##ram
jern
framst
kantonen
robert
rec
folket
##ht
motor
berlin
side
norrut
produ
gt
##nam
effe
regnskogsklimat
handling
præ
forfatter
vik
500
##uer
countyt
gi
##iana
##usjon
##rinn
nagot
##amen
##arbeid
soderut
1987
george
##iteten
lt
1986
sat
vert
1940
##uden
##ox
jac
sentr
saint
chesh
fortsatte
tab
maria
endast
fotboll
super
boreala
hvis
tatt
cl
ansvar
beste
britt
1930
##omen
fir
stem
##sag
mexico
##namn
##uli
##endes
slaget
##ete
gora
##ras
##stemet
kry
mere
fas
##ski
øv
hund
##ruktbar
bat
dat
##ism
1972
##cus
industri
jarn
have
lam
##akter
1985
##ror
typ
mulig
cheshmeh
uk
colom
##seende
skrevet
##kan
gull
sæ
##iskop
mis
redan
rekke
ster
##adi
blandt
rich
hektar
##omy
##ea
arrang
strid
alder
tag
ring
##ementet
os
brasilien
##bold
##dig
vap
1968
guver
1974
sidan
plass
sport
sveriges
##arande
københavn
##vard
1945
##tro
hast
nat
##ikken
##ublik
iuc
##stor
angel
##byggere
samband
##huset
##plan
tilbag
stedet
cap
gangen
ofruktbar
##als
inkluder
##ny
##ellen
##opter
thomas
1979
spilte
bror
iucn
alf
rid
gla
forv
sna
##ubb
blom
##ions
##amot
tap
liten
aldre
##isering
indiv
placer
topp
cy
1982
quebec
befolkningen
mic
2020
##gick
##ikker
aut
argent
##ourn
spanien
##osp
bør
##sat
##yrka
##sprak
pris
grand
lak
##kning
social
fordi
filosof
david
60
##elli
insp
tjan
us
direkt
regjer
1976
blevet
##kor
##ativt
yng
1983
koh
ent
##ria
##lat
slott
##uten
vers
##iserar
##asa
sta
familien
##yo
tj
camp
ulike
1973
##heng
bus
litt
franske
##eth
bad
nr
uden
parti
vad
lud
vidare
cup
1981
bek
lund
##anten
samling
spar
##fall
osterut
##lasser
##ci
produkt
vasterut
##inen
nuv
##dem
##inal
##hen
sold
leng
mester
politiker
##jekt
kjø
lille
1964
jag
ener
vissa
dri
fukt
##eh
beskriv
stav
##ima
imp
west
bom
##anda
1975
##eta
##utveck
litteratur
1978
bakgr
tjen
##skrift
178
sum
1969
britiske
amb
disk
biografi
hert
##ifl
alli
konf
samtidig
1967
anden
moj
lokal
hit
rab
##mester
inf
krigen
##urer
fys
hom
latin
hær
publi
samf
1977
jean
sista
##nade
##skole
##isten
cm
pot
produs
colum
nagon
##dte
##orea
##aller
ner
nil
tilf
##histor
##ario
forskj
enda
##espiller
177
egent
##liv
træ
fart
university
finalen
kons
norm
tol
##arktis
##ev
##jor
infor
prote
gamla
##rim
les
lys
afghan
tillb
verdenskrig
##rettet
##bart
##holdt
##ange
distrikt
bada
begynte
japan
##cken
godt
opprinn
##uch
allerede
førte
##ads
##wa
brev
wor
hvert
##vist
1952
stats
bø
##film
##adespel
enkel
##famil
arm
egyp
ovrigt
traf
slutet
##eri
##anth
##førte
##hu
borg
norges
##mos
##usen
job
cla
##ball
riket
arhund
ytterlig
##ruppen
##iti
ful
magn
1965
overs
varje
bergen
##fekt
##lov
ish
##øver
fakt
##smann
utgav
katol
fant
reger
partiet
eget
kyrkan
befolknings
cast
mexiko
##ebel
1962
friid
martin
representerte
##ifor
bern
blei
hard
serie
forbindelse
strand
flod
##øj
stockholms
sjuk
##grupp
landsk
universitetet
afghanistan
radio
karriere
##tet
tilbage
skil
##forande
##lades
##istisk
##bane
##emat
perio
##stid
charles
kategoriserar
sju
internasjon
andet
kalt
stall
isra
##ano
long
adel
rob
øn
handel
##nast
bliver
##ølge
krav
##stan
delstatshuvudstaden
vilken
##komm
grek
##bi
james
deretter
lagt
just
##isi
##rada
1966
mos
sw
ran
##enten
##fi
eksp
gul
mannisk
dor
##bladig
særlig
frederik
hjalp
fortsatt
##reb
dikt
høg
pu
væ
istallet
jes
##otten
midt
ror
##bild
museum
##ific
river
gir
kallas
##egn
##asjoner
##lipp
##ifte
##mon
tyska
wilhelm
gol
louis
ræ
upps
dig
##ty
##enser
##fest
##sid
##ael
##utveckling
darfor
war
landslag
##tr
djur
pil
##kta
kristian
##isme
prins
studier
funger
lyck
journ
##ova
inden
##elp
##vnt
mik
##jde
datter
mes
jer
##nader
##oppet
##hjart
laten
##bok
south
hvilket
opt
##eland
bestem
nattfly
##ema
utanfor
svært
um
hill
henrik
##aret
dø
##ugh
moderne
##skilt
##oj
##andra
400
kul
##ds
central
##skolan
barr
formula
rost
indien
##ague
dip
300
utgiv
british
##iri
skadespel
lek
##rup
##way
tam
chef
bud
kre
heter
divisionen
fru
kej
sund
1948
mye
##opsis
ovan
##ismen
gruppe
##isa
##joner
70
##horningar
##sut
nattflyn
division
1963
uppt
alb
gym
dyr
forskellige
gust
1956
##bas
nogle
##elses
eneste
##fot
##innare
vind
vapen
##holder
ordet
##ynt
avvatt
80
##øya
belg
fær
landsby
sølv
##dan
##asit
utbild
græ
fork
##plass
##formen
it
##icus
fel
øya
spindelart
##edon
1939
ze
utseende
delas
utgitt
##los
##krig
##stilling
##ente
##ighed
##indlar
politisk
trol
got
alter
inform
##istiske
max
##ordning
madrid
##zz
cro
##rans
anv
spe
arrond
arrondiss
##ool
##isp
##iste
app
arbeidet
##skan
mennesker
sent
ont
ker
##ærende
kvinnor
johannes
gustav
##iere
uttry
fried
##nene
##verket
landets
1961
##hjartbladig
grøn
privat
##smal
sangen
##deling
##iy
brasilia
beslut
##ador
eli
##ener
israel
periodiskt
dub
startet
##vert
##bur
##hoj
alv
##olut
##iella
prim
schwe
##inget
league
##jarvi
dagens
##inst
wien
richard
parlam
##ogs
orig
titt
tillverk
##rot
65
millioner
sesongen
##ved
##urt
uppsala
nadde
##liote
##illet
dels
##ji
skole
1958
bosn
1944
reproducer
medlemmer
skiv
bestod
aldrig
svampart
sos
orden
rapp
ox
back
##stroms
folke
##yer
##fri
colombia
ober
##stero
##tak
lamn
luc
1912
klassen
az
skuespiller
boken
##ordes
kas
##medal
kallar
kabul
hopp
debut
##æt
problem
riksdag
dotter
##ital
##delige
mask
64
ljus
spelar
hyp
matt
pap
franska
columbia
##orten
##ringer
hitt
matare
1936
##skriget
deltag
salt
##sland
befolkningsutveckling
1941
saledes
vandt
viser
##ival
samtidigt
sommar
##nor
##ight
pi
sanger
##øv
joseph
##out
##skraft
klubb
refer
##cel
##sek
valg
fuktigt
##skj
1938
##omyia
ali
##opro
##unnet
udvik
vat
subtro
regel
subtropiskt
nast
ifølge
##sman
medverk
##havet
1918
##iaceae
black
##rør
es
##hr
tradisjon
barrskog
##cha
##skaper
medal
arrondissementet
##pan
mynd
fig
##fatter
##bergs
framfor
argentina
debuter
1910
herc
##olen
176
##ktes
vist
akadem
svenske
psyk
suc
huset
reproducerande
alexander
kendt
mountain
kustklimat
inspir
##mast
##oret
##unta
1957
fekk
konge
blod
##jør
tidleg
annan
findes
##inde
sovjetun
karriar
santa
gammel
kart
globalt
##oper
##lek
spesi
henry
##iforn
##rov
demokrat
livet
sab
##وه
##oen
ou
række
provincia
fleire
eu
ontario
lab
tett
sluttar
borger
framgang
##stam
##nat
##erer
##igheten
##isse
pin
motstand
kast
1959
fc
ej
slutten
##adels
1946
oversatt
##pper
##spelare
vas
stal
##ement
##back
##oe
enkelt
##ode
mestadels
35
##risk
##stod
1947
##iteter
not
1914
sve
##fart
francis
rud
konta
ytan
forest
##veg
amerikanska
sik
løpet
haft
##organis
exp
skul
fredrik
him
schweiz
grupper
areal
##eck
##oter
tids
fur
ori
##iale
deler
##staf
tu
afrika
##læg
jack
stein
por
##spindlar
fodbold
friedrich
resten
anton
##ington
engelska
erst
ken
au
##ose
brand
##vok
1942
producer
ungefar
koud
##vs
##mask
##ited
##ior
foreg
##cy
skott
vilka
kolon
cam
nab
set
gitt
tradition
##elles
santi
bost
cat
drev
1928
bildades
basta
##fol
dol
resta
vattnet
kinesiska
utgor
ped
følgende
leon
elva
##ogen
but
##shus
holdt
inde
rød
##gren
smith
##rades
##iserte
kropp
1955
byggdes
1949
blivit
hyd
1924
1908
north
omtal
sønn
iii
##lom
ec
##usa
1943
hust
minst
##lden
ax
##kraft
valgt
olympiska
##star
resultat
##try
bou
roy
regering
omraden
rit
##orp
##sty
kanal
garden
ytterligare
allman
##ment
##cke
bot
##sett
1954
territ
##wn
##ologisk
hamn
hab
##lund
##ingene
##uta
##gangen
gem
ibland
artik
##lant
bevar
langhorningar
ident
behov
1919
michael
90
##sal
##gjorde
kri
edward
forn
armen
hatt
represent
##agt
1917
punkt
nic
gitar
savannskog
spillet
kyrka
programmet
kost
##nd
##samling
santiago
brukes
##spe
##ørte
##haller
##insk
kirken
sjø
stadig
##ords
##inia
loma
vari
alp
##aris
##fte
##do
victor
lid
nuvarande
##30
neg
trots
meste
##ye
##ju
##cka
nem
gik
station
##ktion
##agn
biskop
1953
##oker
virksom
1933
versjon
##roller
##fen
ordningen
djup
ledamot
individ
##ocker
ri
jud
##æld
test
##une
slekt
fo
##anen
##ydd
interes
udgiv
1937
tillbaka
fla
1913
##ilis
innbyggere
##ville
1932
##ado
forklar
##ovina
international
##edel
dagen
##hojden
##ito
fordel
dessutom
skot
1911
stab
flyttade
fug
friidrett
modern
##ope
##lede
##ytor
politiske
bidrag
makt
queb
fylke
bab
familie
holl
32
mord
mek
herceg
varierad
marock
ple
##orf
offentlig
##gu
##mens
sogn
lands
##onst
1935
heller
symbol
skyl
foran
vald
defin
##senter
##anus
1700
journalist
nik
##erad
##isjonen
fron
øster
mare
##ritar
##oul
##arken
lad
world
marie
##urner
astron
behand
flyttet
1934
##itets
uppstroms
sasom
1951
##ellet
forskning
medic
slatt
##allen
hovud
ordforande
beratt
##kir
studerade
##jas
snart
##stritar
rolle
foretag
##avn
nett
##60
trond
portug
##ony
gh
1929
lapp
##likt
##edde
kirk
kanda
arr
karakter
##cip
175
jab
##tn
united
##fra
sein
quebrada
##last
##bat
##jev
dokument
saga
darmed
enkelte
lær
oppdag
engelske
smhi
horn
##fører
##rene
sor
forskjellige
bosnien
kallade
flor
tron
jawa
##yggor
##delsen
jacob
marocko
##skola
##jarnen
forbunds
##uen
ara
rabat
##40
spela
bygd
##oka
metal
støtte
publicer
studio
##oides
osc
##pris
udde
oprin
storbritannia
##fag
marts
1921
polen
kunna
student
hercegovina
##hang
gron
reser
punta
##ivet
tvahjartbladig
##rost
##omrade
menn
finans
##hamn
##ela
##heder
respe
eup
arbejd
vetenskap
antarktis
vattenytor
produksjon
fylkes
1906
##oprocent
skrift
inled
##illing
sjoprocent
institut
historik
##unden
##osten
##alte
wh
1927
periode
ole
spillede
tang
##stopp
##wood
vide
raknas
##ule
##mes
##skt
1925
anders
jeg
sovjetunionen
sidste
medelhojden
##ulus
sall
45
vaxter
1926
kvart
##arar
silver
##iment
1922
finn
##omradet
melod
kongen
forfattare
buk
ryska
##maren
fok
##plats
spilt
emb
ledde
vars
spille
##øg
italia
driv
##alla
annen
##prod
##holl
ske
ishockey
##gift
rus
##fug
dob
slapptes
familj
1916
direkte
tack
##mot
##forening
indtil
##ful
iv
1907
lett
1905
master
##horde
anne
kla
liber
##hop
status
##own
teng
##jektet
##wan
##ologiske
##fisk
rig
frit
australia
##aly
nød
1909
lars
ain
upptac
##inus
##sky
mør
1931
ryss
##tag
##ktive
##ifik
##hard
soldater
kontrakt
##arp
skild
undervis
kjente
##cc
redakt
miljoner
##spunkt
kontroll
staten
villa
maur
##partiet
##endig
astero
befolkning
##person
##jung
ungar
##ative
ron
ledet
##skabet
##svis
utfor
kampen
tunn
sarskilt
delvis
hein
log
cha
pier
filmer
##svaxtart
cas
##aner
tet
##ni
gri
bogota
district
##farande
##esl
gas
flesta
bifl
albert
drift
militær
champ
utover
irland
rot
standard
##ansen
galler
##etten
arbetade
farg
arrangert
##avax
1923
##mor
##ierna
malmo
material
hind
rog
##øder
gjerne
##fjaril
kandid
dens
kompon
##rasjon
##arer
##ttet
##ringen
##hur
##oa
##ank
fiskart
nas
orkideer
tjanst
##ytte
##edal
##ms
ill
##rys
1915
blive
170
sara
##rus
##jder
150
##ugen
##loss
japansk
slekten
unders
lander
gil
leve
ot
##omet
##jef
##fjarilar
kraftdjursart
##skriv
matemat
saman
##ves
##mere
کوه
##slutt
gifte
songen
civ
vux
kvinner
ukra
algeriet
avslut
##vei
relativt
##rest
top
mob
rub
##iop
mosk
fader
gram
arke
drag
##ckor
stjarn
jul
##inne
anstall
gustaf
##nsp
1904
scen
##80
##aker
aker
diam
russisk
##10
oft
tour
##inder
fortfarande
##uan
brook
restaur
regist
##edd
venstre
##eds
langre
slutade
yngre
alltid
provinshuvudstaden
##zo
bjor
omrader
spra
##atten
##ses
sankt
##hora
nordvest
##rige
##ike
stan
##mid
##ict
##chus
arranger
desa
##atisk
følge
numera
bergstopp
hojd
1600
kem
lokale
fi
##sla
point
betyder
fokus
##lia
linje
##pro
##vers
varmt
##stav
satte
ersatt
##con
desuden
basert
innehaller
##irk
##lor
otto
##ennis
##klub
sign
##hou
hendes
mala
##rogram
##flyt
noreg
##azz
trom
avrinningsomraden
##plat
altern
lut
records
##angel
37
forand
profession
cra
varldskriget
##varg
##vent
bjør
##sked
##heden
observ
selskapet
##vej
kors
gren
##oven
kongel
##ese
niva
##istiska
##ampar
konstnar
delhi
kommuner
bakgrunn
viss
hurt
##ute
mast
##arten
skall
##minister
nordlige
varav
##jerg
undersø
publik
republiken
##øk
##bra
##forde
maste
##myggor
arbeider
orkideart
motsvar
##reh
gott
##add
1500
##muse
wales
angrep
union
ovriga
kos
##oy
##ulata
##spelen
mass
##bus
hag
produc
kroppen
religi
kommand
##ylla
posit
tidlegare
##ilus
avvattnar
##enes
##skip
flodar
jorden
airport
rekord
regeringen
33
##sberg
##koping
major
##gaende
##cht
##iidae
##dde
tolk
domin
bebygg
steder
##uba
sky
##ruktur
foretaget
ris
##mene
canada
##banen
liban
##menter
valde
##san
##onger
##ætt
##ink
kopp
##korea
hustru
samarbet
bodde
bah
dominer
jabal
##onom
##øb
let
##iftet
biflodes
biflodesordning
##elv
livskraft
amerika
event
##21
you
##got
ski
##føre
anses
varlden
semif
##syn
##iff
kallad
guvernem
bank
praktfjarilar
##oli
bef
lyd
italiensk
arro
flertal
svampar
grundades
mig
##mod
##fjorden
arets
##demokrat
saker
mist
snabb
1902
begyndte
transport
king
sendt
døm
feder
brok
fu
ursprungligen
##ump
inat
isl
anvandes
latt
##bon
##lement
bibliote
betegn
rap
russland
byr
##ations
##ming
##omer
sentral
thor
falt
##opa
##imer
##kast
exempelvis
##emplar
##wer
##ahl
##rets
adolf
nap
dvarg
174
##gjort
arv
barne
buen
1901
##efter
##mare
ball
stark
ja
magnus
##rument
amt
##win
viste
prag
passer
lande
va
##tiden
fab
1903
##wig
ah
ute
##umenter
lager
rej
utbredelse
læ
pel
henhold
##fort
nesten
riv
midten
kommunal
comm
##ament
hak
##cens
poang
avtal
##kro
real
##sborg
##unge
boh
konser
kontin
##hem
##zer
dagar
dep
herr
##rikt
1890
kinesisk
kriget
##enden
##ogne
##ania
##olia
dron
##kester
erob
peak
osterrike
naz
oftast
medelt
normalt
##oda
##punkt
##alderen
handels
manu
vej
spelades
skad
keiser
vek
##ids
ting
femte
75
intres
nomin
##gruppen
##rek
procent
##ystem
straff
##ison
medlemmar
run
politik
##yst
begrav
##lingar
endte
seinare
##utter
kna
livskraftig
oscar
jarnvag
situ
daniel
internationella
likn
varen
##ali
russiske
##sning
##itte
lil
##okk
tas
komme
kraftig
sej
##familien
angeles
stig
##atum
omtr
36
##urs
matcher
ore
betydning
fabri
sjølv
liksom
omtrent
##sburg
internasjonale
tjeneste
##mak
ank
##mand
ferd
##raf
sæson
skolen
spesielt
##satte
wadi
##parasit
idrett
##erede
rav
##no
das
strat
geografi
##olin
kontakt
fjerde
vor
##ision
blan
##deles
lim
##iets
brokparasit
belagen
##dam
brokparasitsteklar
##hallet
##kant
offici
brons
##elia
##skolen
egypt
##zon
##tnant
samarbeid
##ppet
##slandor
hart
##hopp
vore
cru
##bak
skill
##full
teck
##vene
gall
##tere
##gs
##ude
800
spes
sof
offisi
tredj
##ibet
skand
prefekt
verksamhet
##sida
peng
britisk
##abeth
forlor
##bj
lamnade
tilkn
special
##skapen
manniskor
##dar
beskri
##serien
##uts
same
##aldt
ganske
##ivt
##nende
##ales
##svaxter
##vere
asp
rem
##næ
##ordan
egne
bob
centrum
171
##mas
kroat
klart
##eden
foreningen
##anga
slo
kombin
##komst
##cho
##ato
instru
##rick
syv
##nede
##vil
egna
skadespelare
##col
nastan
territor
kjem
##ime
ødel
mitten
39
samlet
sida
##isseau
unn
bord
##ues
arb
##ivalen
batt
jazz
##tog
pens
##asen
vansk
arme
stilling
marg
vigt
utne
indre
lep
ruisseau
dannet
hjelp
gje
trondheim
bestam
34
##emb
##zar
##fan
unger
myn
##ai
##nst
innenfor
nan
tyrk
sadan
##jord
tilhører
symp
omfatter
begre
prest
##ømmer
forsamlingen
cur
opprinnelig
##ender
##zi
omfattar
##raff
gode
##ary
avled
1898
1897
elektron
up
gjør
fon
##ringar
##skaber
dim
160
##aca
fartyg
former
jød
##uelle
boliv
nev
##oba
prot
nig
floden
##urus
##ophila
lept
separ
##ape
arabiska
visar
fotbolls
utviklet
energi
moskva
historien
bast
##kje
##amin
173
live
ene
kg
kungliga
popular
##kamp
music
tje
riksdelen
##eten
##ktene
tilsvar
laur
holland
stopp
rollen
lyn
##erk
600
drog
moh
statens
bis
##ogon
erstatt
##rack
##lex
##ransen
##ame
berre
##gra
landskommun
ack
dro
##xamen
miljø
##siden
pul
##cen
hvordan
tung
plasser
lista
bevis
##valg
yta
grevskapet
167
innbygg
##vnte
ash
sasong
##gave
old
opera
##omp
##væ
##blomm
##terna
forvalt
rosen
##arie
##slande
brittiska
##sne
hovedsak
##loppet
##anse
##oende
kompos
lans
##angd
stader
1899
1896
lor
##sbe
turneringen
##amo
parlament
169
##ømme
avsnitt
bedre
ala
##fang
prov
tildelt
poly
gatt
utenfor
slakt
vanligt
mj
olympiske
forutom
##field
avstand
musikal
1880
##riks
##ygt
befin
##inav
rov
web
indian
##roc
##lie
##etta
produktion
##itter
etablert
likevel
ghar
rac
##former
uppgick
styrk
hev
##gas
##vande
##ege
ansag
##bre
skottland
cd
regler
opprettet
##ots
brig
##stads
klipp
##delser
last
##ssel
orsak
##mest
##jevo
skov
##hog
meddel
gammal
kunstner
harad
##øren
insekter
forbundslandet
##stol
byggnad
anda
ug
##kall
broder
##stal
version
flock
##ega
##lene
sul
##kam
##kre
aar
match
konstant
##asin
1895
regis
##essen
djebel
desse
hører
##falt
vuxna
sud
mi
viet
gange
langa
ins
##but
rand
skulpt
##nu
aires
yr
jose
##andre
award
diplom
californ
mult
##ase
heinrich
##sma
##bry
premiar
artvaxter
buenos
speci
starten
38
college
jane
##engt
##ftet
##lats
##forbundet
alfred
massa
##edet
##vd
##can
kore
##act
troll
utvid
uddann
##garden
high
konserv
singel
##sjo
##riske
pian
tekst
royal
gjekk
##cks
##vek
dur
fremst
168
wester
tør
##industri
guvernementet
##deligt
##ards
kok
##sbyg
##slandeart
##rikes
sommeren
##ati
titel
felt
stj
##yth
nasjonal
ray
temp
##asjer
love
gast
##bud
behandling
##maskart
##chi
##bach
følger
##my
##øse
kritik
dramat
vard
museet
pub
annu
##mi
regi
##skl
maler
little
kle
trich
styre
##huvud
##ovo
typer
fotograf
islam
##lasse
hogre
svan
forlag
systemet
##bland
##otus
hertug
planer
47
##dagen
ges
spred
##forsk
##nades
bang
##pert
felles
ask
skick
klim
uppdrag
##zen
##aph
konstru
##andt
che
165
1870
adam
##anthus
sir
##ønn
##gje
bosatt
show
især
danmarks
##ømmet
kalles
glac
respektive
##rast
emil
laguna
bit
elis
##valget
innbyggjar
school
vul
neste
##arane
##sund
stille
##ologiska
##odor
fjar
tio
gunn
net
funnet
big
historisk
sosial
valgte
darreh
jakob
initi
tand
arbete
manus
##ollar
##rens
lagen
militar
##sled
##idens
##alj
tolv
##ephal
55
aur
kyst
##ky
fagel
myt
##aea
utveckling
origin
##lemer
##fa
sprog
seoul
mente
east
mah
##feld
energ
virk
##ummer
fos
##okte
##kare
fard
vall
din
forel
bestaende
hack
styrker
##ffer
bind
1000
lyckades
##vens
bow
indel
yo
uav
spør
udgivet
##bara
aldri
bem
##ingo
pod
##iang
liknande
##felt
lika
orten
sikker
##rust
sommaren
hens
brack
comp
##ørende
164
##fjord
bedste
1893
fjord
##esen
juv
##ques
politiska
lant
musiker
##kontor
forening
##ervat
forh
##upen
##elin
lis
hang
illust
goteborgs
monte
##etes
##illo
lærer
byn
olympisk
##uz
mul
stammer
johns
dun
vak
design
utgj
mennesk
almin
##følgende
lappland
religion
klock
atta
ryssland
uts
1889
forekom
innsjø
anled
betrakt
acc
sydney
##list
strom
##sons
mong
##pun
trafik
nils
1892
##ois
muslim
virke
##di
mary
belig
##øs
simon
æld
##shire
sarajevo
læn
##ulter
hil
##itut
##oz
utvikling
##tre
pierre
##olusjon
libanon
act
kvalif
##inea
##derne
junior
statsminister
plant
brød
1894
sier
nordøst
42
atte
##omyc
forkort
##tradde
gymnas
bygger
dir
wash
smal
nob
sjalva
mekan
fli
##kap
eksister
knut
fen
sveits
rest
veien
type
##skal
##arnas
artvaxtart
kim
##skript
##uda
hansen
utom
##emal
timur
vise
cand
landslaget
byens
##marker
##pass
lom
##itionen
tillhorde
noter
how
##kopings
hod
regjering
landskap
maneder
##rien
dele
1862
##fold
##vant
utbredning
eric
eksped
mit
ref
ludvig
utdann
poeng
tanjung
##ppe
pavir
dynast
##nelsen
doktor
##go
walker
sto
##unda
opphav
republik
skrive
##agne
##iven
eldre
dvargstritar
##inte
arroyo
divisjon
uppfordes
agg
green
##ance
spelare
derim
revolut
bart
##asp
olav
kjøp
lod
typisk
romerske
##amerika
biart
meir
konkurrer
##byen
brom
##veien
gras
##ush
##emon
betydelse
ambass
frig
##esel
##sene
##sens
##nsyn
slog
dekk
##ther
kommunik
minister
##iene
parall
pak
forhal
benyttet
hjer
nest
kategori
1891
##ines
holde
prop
irak
##enta
##ista
apnet
##yk
spansk
carol
48
##dalen
##ulerade
166
enten
henri
funn
syk
skriven
øver
gresk
##otte
##bred
uppe
noget
vestlige
##sor
presenter
sun
kloster
##botten
dronning
grande
##brid
##hver
axel
##smannen
nes
byer
gyl
##forbund
militære
roma
forslag
ør
arhundrede
##test
konsert
vitt
1888
##ischer
##ørs
##gerne
suks
##somradet
##olon
græns
chil
##hy
feng
##baggar
drott
rut
##nere
regnes
siv
glas
1885
skolan
##udt
americ
funktion
liste
172
turk
##vat
tjeck
harald
##anes
margar
ansprak
spring
miner
holm
##ernas
ljung
kontroller
120
##akk
vanligvis
##mad
##delag
##orum
##osc
konc
teor
grens
center
##period
varandra
levde
titeln
overlev
##rh
startade
##etts
ferdig
peder
sesong
jug
##elder
spelte
##ppar
##sw
leuc
grekland
brann
die
cu
##esjon
hug
besø
ving
##parten
##vann
def
##splan
epis
##eres
manader
##sven
##avnet
pastor
europeiska
traff
gent
##aki
##uksjon
elever
washington
finska
##ome
bygning
##vapen
whi
##chef
utstall
medvir
konse
tross
##ical
autom
##mond
vold
sentrum
rym
queens
41
knyttet
heb
sker
##alus
strøm
tittelen
sydkorea
spelet
##nis
eldste
lanet
fulgte
lita
medverkade
ettersom
serv
1860
nominer
rø
stjer
bracksteklar
coll
cry
ludwig
jør
##fyl
dans
bygge
bell
tsj
##mun
jakt
##ual
##nik
forbund
fus
may
kob
stiftet
filipp
wind
##ensam
lee
##klubb
##leder
karakt
##spinnare
##eda
temperatur
scott
##stant
##ssk
størr
sjukdom
shan
direktør
##axa
selvst
##uell
##ave
naturres
49
##amerik
aten
inkludert
ingick
kard
##gjen
fjorden
ernst
##opus
minor
historiske
##offer
runde
##skont
bruker
vilhelm
bakom
delta
rapporter
##skon
##usten
jurid
sib
foddes
##ding
##vagen
brug
graf
frankrig
minnes
sommarspelen
turne
effektiv
wa
##tale
##sent
##olo
final
kamper
arn
overfl
##sidan
studenter
gavs
##iket
##rattades
opna
##aen
tilldel
modell
mate
##retær
##tatt
brukte
##oarna
hin
##board
44
selve
43
corn
instrument
tun
ænd
sammens
##agare
paverk
dit
dia
has
nytta
italienske
##ifer
##war
pur
arbets
togs
seier
dari
##ui
##ruk
kongelige
##uf
##marksam
utnamn
##øen
utbredt
gjøre
hæ
##inske
##spart
hud
effekt
##slatt
##gifter
##anser
heg
romanen
##apt
beteck
kav
##unc
begynnelsen
organisation
roller
##tz
1887
spesial
##emann
føre
jesus
uppmarksam
##well
hjæl
victoria
interv
solgt
valk
orkester
##stiden
##iph
##kkede
data
grunnlagt
##ctic
avl
line
mog
##ærk
##blom
verket
##ental
vattendraget
kapit
66
1884
byggnaden
atlant
malm
repræ
sørvest
sed
stol
##kyrk
blomster
altsa
flockblomm
antall
harry
##spolit
##iler
##bod
##lus
virg
anvanda
##tar
##steg
ss
##flyg
##sand
gn
anvandas
munchen
storm
##abet
white
##umb
##dere
invig
fien
kopen
advok
sok
##ativa
trop
##ften
vare
##igheder
oh
##pas
##iddel
syl
samhallet
økonomiske
derefter
soci
valet
1886
antag
diameter
dennes
##risen
kjend
##skatt
afrik
stefan
wood
avdel
slottet
##øt
hell
##ettet
1878
isa
##eligt
beveg
pir
voksne
##eme
etn
minne
##cin
##akh
perman
cham
skjer
lilla
##fær
##alia
hoff
700
aks
prisen
##icola
bei
flott
##system
##emot
##albumet
##sey
##yllum
utnevnt
romersk
registrer
spraket
##po
taget
resulter
##retning
##rivil
tidningen
vanligen
svarte
innbyggjarar
lige
jim
olof
##ates
##illes
alto
skandinav
ackum
63
##endom
radi
##makt
##ics
semifin
##adens
nere
pon
socialdemokrat
##kh
##tus
trupp
eurov
betydelig
tving
total
46
##skat
1882
dager
##løp
##uma
geograf
egypten
##idium
betyr
rat
slags
57
##uca
lamp
starkt
løp
##isc
strax
børn
landsbyen
kysten
trøn
vig
##bit
vitenskap
latar
jens
kred
##anien
##horn
##sav
52
##iseringen
kallades
omfattande
strateg
team
staf
levevis
funksjon
finner
sao
india
##stat
tavling
nødv
nova
opprør
artene
samarbe
malt
komma
skift
bass
##rip
##lys
inspel
bronse
##chy
##ressen
andreas
forut
arbejde
spelat
forsknings
gemensam
##gaard
##ston
beh
nedre
charl
københavns
jernban
vei
##unst
fjarde
##reter
chic
##zhou
##lager
ens
information
mam
67
handlar
arthur
prix
spania
dic
1863
##ukk
malet
trans
framsta
##rover
##linjen
sach
##fon
##holmen
##cos
artist
##museum
ves
##anna
kalk
##olis
systemat
upplag
##iserade
frag
serier
pek
resultatet
erkl
1879
hir
will
elev
eurovision
kans
##ava
##ower
alvor
sus
72
##spar
solen
##stedet
##beg
##chester
##acker
budd
vita
win
normal
kampe
##kjent
utbildning
sterkt
kejser
##hæng
barat
##slaget
pter
skydd
##idea
##olas
##biner
ackumulerade
##vide
##uella
##edonien
1864
yder
##ckan
lenger
fotbollsspelare
##belt
##ante
steph
##vern
diale
dist
skriver
##por
##inand
clar
##atorer
##spass
møl
##skrifter
##ami
studerte
1881
gunnar
gransen
club
##brott
##aktig
entiteten
samtliga
vaxte
finne
1883
pave
retning
bruges
opprett
røde
publ
dop
hva
flag
##nande
##hn
france
hop
benytt
assoc
nm
anvander
##cess
figur
fro
mcc
71
tha
hæren
##valet
spanske
##ugg
##egard
##rac
katolske
stallet
had
51
00
utsag
bulgar
##mund
fører
cop
##iserer
uavheng
##mir
##fru
francisco
py
kristne
økonomisk
premier
##orth
sann
##sident
viden
tidigt
ekte
hosten
##bes
##ckning
##uck
##spelar
163
overfor
skane
##regionen
##svampar
idrott
danne
fac
##bt
reform
sjalvstand
aldsta
##ifolia
##kene
ende
ler
moss
sentrale
chrys
kandidat
kot
disp
##ægt
250
bilder
beliggende
vib
beskriver
befinner
bytte
vietnam
berøm
##skott
emp
##isch
visade
krimin
brott
##grund
franco
okk
hann
ferdinand
tida
takt
##bad
##skij
##ows
##stedt
tyd
bygningen
lære
##byggnad
forbundet
##unns
laga
##ystemet
sider
1865
invol
1875
vagen
forsok
noko
menneske
danska
stasjon
øk
cel
personlig
hyl
lit
dvs
made
##føring
69
##uri
cit
##fig
tale
tren
styrke
##riar
##ørt
##skaff
lanser
klost
tw
inklus
1200
bocker
##ipes
pala
hjel
simp
kontra
faren
erstattet
gjer
inneholder
##oslav
gon
ts
nun
stadion
ihop
seri
1850
##folj
##mannen
forlorade
stavanger
klok
indbyggere
##dy
kanalen
byggnader
1877
bergspass
talets
##iret
agde
fjellet
fry
steg
##gitt
artiller
##iør
finst
syster
56
73
canad
rygg
utdan
tele
juan
stater
offentlige
##gatan
gjordes
##terne
bolivia
spin
avgj
##revet
##haer
ross
produsert
klarte
dollar
##lip
andersson
infanter
idet
dæ
omgang
##strand
klassisk
giftet
davarande
##bour
##reformen
sort
rein
søster
brukar
54
##rix
##mastare
##ifran
##flytt
nak
saval
problemer
dets
priser
##chn
omfattende
##sende
queensland
anth
stral
mir
bruke
slike
suksess
wer
##oria
egenskaper
astronom
enbart
tac
utgang
atervande
rang
##ussen
arbetar
american
62
ach
forald
dest
skipet
brown
bam
##kal
##sack
##aljer
53
bris
civil
##oi
melan
hap
85
trøndelag
guy
time
##rester
tema
arkitektur
pron
betegnelsen
##somrade
zag
##itioner
reserv
##vare
midler
godk
gong
##sti
kontor
##oo
tusen
##hark
linjen
pad
viktigaste
troligen
turist
tider
front
vanskelig
tilsvarende
løbet
##beck
##holms
utgjorde
enhet
pasir
1874
arts
##enez
##æss
senter
text
hitler
tunnel
larare
fuld
lenge
##inska
##umet
biograf
vent
forber
abo
##musik
##ره
68
konger
##atar
##ship
##iae
##stud
ungdoms
fiske
arch
1866
##elius
##ierne
japanske
##ao
##ti
formal
##skomm
varme
viktigste
brugt
contest
law
norden
##eps
wolf
##visning
skrifter
regiss
she
##rollen
##ligere
media
1876
aud
##lop
ola
##holde
antar
hovedsakelig
dos
glacier
stadens
##huvudort
imper
trin
bund
shah
##kvarter
##inc
##endet
kvarter
upptacktes
1871
##uva
tillgang
inc
eid
##tera
balt
##osus
mongol
##lans
scot
##departementet
inntil
bukit
isol
lon
inneh
ledelse
##ان
franz
herred
shu
##qvist
brad
##spun
##kas
ellers
ljud
##verka
telef
rag
##gør
assist
janeiro
##skild
##skade
tapp
struktur
western
projekt
##jak
##sere
##saker
østlige
beat
stemmer
nrk
ryg
##ido
##istrikt
alban
sec
napole
##laktet
162
bolag
nogen
##lest
banen
damp
grat
esp
##sutøver
harris
antonio
doc
##kreis
santo
korte
endnu
parad
##ory
##lever
hermann
anal
##ilia
fyrste
##lagd
##onym
metall
stortinget
ordin
58
dater
golf
##ylland
##orus
firma
##skiftet
hamp
##foret
kompl
nokre
bent
##oca
##mant
##ingart
##inae
130
kronor
74
herrar
##rey
sagt
##ungen
##æst
##ares
hvad
nikola
##riere
1848
bach
drottning
parken
ik
plads
jamt
debuterade
##ove
konfli
kopenhamn
161
open
california
##teg
##umen
josef
skedde
alltsa
akten
valget
framgangs
serb
krigs
##ifier
##xi
##rona
##iland
herunder
mera
allra
hotad
##ienter
marin
##omrader
patri
##biskop
fog
tidspunkt
##egnet
kroner
eri
mem
##orm
##repet
regjeringen
prad
etiop
europeiske
meng
##wald
element
dokumentar
dynt
lengre
1868
##ælles
klima
kungen
##bal
##verksam
barcel
##bom
svenskt
jebel
brittisk
##ophyllum
dyntaxa
reakt
avslutt
##affe
##eras
##løst
tidlige
ekstra
administrasjon
##sforen
1872
fann
##arg
fav
parlamentet
khan
##uh
interesse
slutningen
##arn
oppna
##rankar
obser
rudolf
overtog
elven
smak
hockey
spelt
##reterare
blot
sjoarna
##atoriet
gronland
##unnit
selskap
seb
hjul
vendte
solo
fn
##landske
styl
utloppet
##bebygg
##ration
frivil
universitets
##liggende
tekniska
##nspinnare
##still
##halla
##urder
##bruks
atom
reklam
bjornspinnare
##kret
orgel
##hast
59
jones
forhind
asteroid
##ætning
##harkrankar
##vakt
ivan
sap
filosofi
1869
1867
asia
##foreningen
sørøst
##inna
##emang
##fs
##iansk
cab
one
naturreservat
oss
##ollen
nordisk
lord
sr
phyll
ama
sula
lage
##brun
flygplan
##otyp
##skriften
##icum
anger
ال
moderna
affar
##uktion
fotballspiller
melodi
snabbt
##idia
1873
chal
##holdet
venn
##du
konstrukt
varldens
##fallande
initiativ
beseg
kaz
forvar
vigtig
lib
159
raskt
skib
lade
ribe
fodboldspiller
norska
bonde
##æk
næsten
viking
##bladet
##værk
lignende
arbejder
hverandre
hemm
##nan
sprid
##avaxter
sitter
##riska
##livet
##sol
alko
egentliga
kinesiske
compan
modeller
1861
inklusive
original
osm
##ligheten
##ej
drama
##ningsp
høje
introducer
##osia
##ligg
akk
##ønt
##rel
mykje
gat
##lah
befal
avg
bygninger
##stone
##vika
ursprungliga
##slutning
guvern
oppk
##isere
platsen
wat
dokumenter
##eman
nep
edvard
integ
##eleg
manuskript
##ipend
portugal
##agog
##gaver
##mera
##lopp
chicago
out
##bc
61
borjar
festival
advokat
##sforb
pula
nærings
nod
stri
bestemt
77
cord
##jonen
##ih
##utsch
140
##yrer
texas
mangfot
hovedstaden
erbj
##itten
nielsen
##rackligt
##faren
tyder
ledare
##sken
individer
flav
##sle
hoga
planter
aqu
sterk
jensen
utsatt
lew
reiste
hende
kunn
bildade
klasse
gate
bøker
finsk
infl
##entlig
ønsket
##ardo
##dyr
høyre
110
vo
##yang
utform
beroende
anat
pic
finansier
##skje
oph
##plassen
##ums
kroatien
##assel
kilder
pere
chap
gabri
##sang
##ello
##yi
##forsamling
kull
##strøm
ech
bull
modellen
ager
##ytning
smaland
##ов
leker
lokalt
##esvig
tillfal
analy
alternativ
##iji
##havn
bakgrund
studie
installer
derimot
snar
##emi
dong
introd
supp
vekt
##borgs
elisabeth
elv
pall
frukt
##program
##adel
153
vanster
spen
hob
flam
marevaxter
eig
overtok
##lassert
rey
driver
desig
##menn
bibliotek
flest
##sattning
redus
##abad
bydel
##mossart
antik
##rof
fris
##manland
mød
radik
peru
dessuten
fandt
lem
##bare
præsident
phou
tengah
sendte
representant
øvrige
hovedstad
populære
##ask
##viste
vere
formann
generelt
##lare
private
mynnar
##litter
populær
mangd
berak
arena
##oten
##avaxtart
kolle
amar
bygga
bladmossart
##prin
##gotland
sannsyn
##giver
formel
fylkesvei
oc
venez
tapte
##kst
##øret
varv
lades
varian
tredjep
pyr
luther
##yre
længere
høyeste
verdensmester
prast
sporsack
##serne
human
##antarktis
tavlingen
##ernes
biller
##tein
##sko
scien
chang
##jekter
##esse
sovjetiske
forhandling
barcelona
gib
valdes
##kvens
holls
danner
stationen
sporsacksvampar
##skold
høsten
##lyst
wall
##abrik
koudiat
##ytter
natten
##konkur
##grad
kongo
drept
##iseret
##emente
kæ
dott
qar
orebro
foljd
castle
##sporter
teori
kallor
million
rike
##ylus
permanent
##ningene
spil
900
##yet
##uttet
##rarna
liges
tings
kaliforn
gold
##slin
##iteen
brisbane
##ornis
young
lot
serra
beskrevet
99
##kin
jung
lykk
nasjonale
dersom
oftest
##ission
95
pav
anerk
##akadem
battre
ført
##anne
##lista
##com
##oto
##fald
arbeten
redaktør
##ods
hjal
nøy
##ellig
arne
##aksjon
##standen
viktige
##ero
##bard
##vald
inflyt
sri
kapp
##systemet
##yla
williams
water
gutt
wilson
mener
##ient
##fo
##skrigen
sørlige
bolig
deg
##amper
kommet
##adene
marknad
abu
icke
varde
sekund
##atta
historiker
1858
pabor
heile
dobbelt
##avet
##sim
kommersi
nhl
##vingene
samuel
rug
allmanna
##legget
1859
here
##hets
prefekturen
kaldes
debuterte
##ferd
petter
syke
gab
grekiska
hurtig
##anta
meller
dekor
gur
artister
##rert
formen
omd
dh
##ieb
ledning
##ordin
prom
jackson
##tekn
##festivalen
anvande
holder
##arus
uppkall
musk
##tradte
erov
##skor
##leks
##serna
grundade
eien
myndigheter
risk
variant
##kort
##don
##eles
abra
##ampa
roda
##bs
76
resultater
##otum
beirut
utn
##emark
rester
##æring
cle
flat
##js
##brug
alkohol
##sprogram
##bott
bisp
kalmar
kanskje
emot
johnson
avrinningsomradena
##gara
skab
dry
##erades
guat
##imus
maskin
komed
jesu
nuværende
##so
direktor
pulau
forste
mission
stafett
##alpark
dominik
##ningsm
societ
stang
motiv
157
uppskatt
tsjekk
bøn
##uras
##lu
møtte
kongens
champion
butt
##dommen
color
ecu
mats
##landsk
hk
het
spillere
pant
bong
tibet
terror
arist
##ence
##jat
kanon
arrester
##omat
lenn
##itat
planet
bandets
teksten
marevaxtart
plassert
brdo
koping
##geren
##aneh
makten
magnet
julius
lokala
betal
sønder
sikre
ce
vice
drabb
beij
##styret
##ilien
kari
begyndelsen
fores
##run
##lost
bilen
landkreis
##taget
køb
pradesh
##samlingen
nad
riksdagen
larvene
##ksis
fordelt
samarbete
##uelt
hof
##iensis
##mord
blues
156
##skop
german
correg
##ped
##yx
sprin
##elvingar
økonomi
##aya
angri
##atre
walter
##kul
tip
##rud
##odon
sound
øvre
kalifornien
##umin
paret
1840
##zirk
makedon
vac
##sterne
##rea
hipp
botan
evangel
ungarn
##itor
publikum
fund
dahl
78
lago
##osh
samle
##19
##forsvar
gør
##pter
bergsked
fattig
grunnleg
##agon
##iah
ringmaskart
komponist
##dis
##ræns
aleks
anti
heim
mill
oleander
mort
orm
1857
ungern
sank
##urn
87
angreb
sunn
regnet
costa
sammenlig
##bury
dato
##skede
##ktioner
bostad
##rekord
athen
lux
##backen
##strid
1830
jugoslav
estland
##arina
bryg
group
##iation
cruz
emeller
nio
##hvert
skapa
##iki
heder
sofia
mangfotingart
88
##øyene
instrueret
fø
hodet
emellertid
mr
##elsene
utnamndes
solgte
succes
ever
lej
company
##lighed
##kerne
##aben
skillnad
##medalje
##otes
##svag
juvelvingar
trag
##fød
alm
ensam
##oga
##eli
baker
kapell
##erar
kungar
1300
hek
depart
##vas
##optera
kejs
fak
flagg
##aux
##roph
skre
konfer
kaldet
##skilda
aarhus
foreld
##olax
foresl
##lic
##antus
utkom
fars
rent
##skov
##unnen
klubbens
lagre
utgors
mall
eftertrad
medeltida
avs
##ylor
82
tig
##lok
tilldelades
elektrisk
tills
organisationen
ridder
sonen
##kningen
kræ
tyn
sats
##konst
##dad
##boll
skop
medis
kak
##parti
marken
tegnet
##usal
1400
##eler
ligesom
152
##edom
ela
jr
ansatte
andersen
egentlig
utsags
varldsm
katal
##arder
##arm
snak
rim
hjemme
kraftigt
parish
avvattnas
84
tempel
døy
##varande
##arch
inrattades
kvalific
portugis
skrivit
corrego
greske
høyde
##fred
exemplar
revolusjon
##olonth
melolonth
vakt
tyr
mojligt
sydlige
skade
ovre
dend
daremot
##inner
jacques
##ble
johansson
##oft
socknen
##issen
##gade
darpa
profesjon
torn
gy
##asi
nordvastlig
historiska
##styrelsen
unga
##elly
napoleon
kent
ankom
marks
beijing
##tysk
benyttes
##ando
street
##larna
ytt
syrien
eksper
tennis
##agus
house
dru
##illi
holly
##omraden
tilsk
virkelig
79
tax
skepp
foljde
ender
italienska
vanliga
mellersta
##bygd
prosent
##ume
vinteren
ecuador
stær
##ligvis
filip
rektor
kub
##fora
##træ
farger
bin
##berget
##kommun
detaljer
##omus
##stift
##apa
naede
diplomat
utgjør
forfattaren
regisser
dagg
gruppens
155
##landska
##kins
sene
pont
##alam
pred
greve
forhand
##skad
##esund
##krigen
##radets
oblast
prog
##spill
flyt
fælles
chur
orn
zo
vlad
lock
##ray
##ninga
##spillet
erk
forbed
fortal
##ryd
visse
##skilde
##stemer
fored
##uge
trolig
parasit
##emala
partier
##uds
rene
tvang
støtt
mandat
##draget
opført
billboard
##atret
##ellus
##halland
spekt
ay
kendte
##uper
##liste
##shov
##bygger
##elis
eksemp
dram
gis
دره
lovfallande
##bank
internationale
oarna
tai
wol
helst
##ktør
officer
tub
vinn
sakalte
##bolaget
projektet
korea
ment
henholdsvis
romant
endret
##alo
1856
dage
besok
udvikling
##vak
play
##otta
oppdaget
landst
kvinder
fjader
gord
##bø
giver
##namnet
svarta
etapp
avis
aterupp
##ancer
##delingen
##gruppe
konstantin
dubbel
sette
statist
##oro
lanka
##platsen
gruppa
albummet
##iffer
verksamheten
##aran
seger
folkem
finlands
##ulen
bug
press
sot
##ili
forsøk
produkter
robin
##jk
efterfølgende
hundre
##rym
neb
##grupper
1855
udgav
##brud
##gelig
##øve
skatt
vanleg
##ophora
handler
##emedal
princip
##meb
slutligen
timer
tidiga
monter
ling
##litt
anim
hat
##zig
##skamp
eksemplar
monark
tage
andel
##vap
##iku
daværende
89
97
helse
pit
1852
philip
linne
ext
invigdes
##sbl
158
##dige
synes
overgang
vurder
hertig
##ennene
sac
##dra
ægte
kone
darlig
spanska
francois
undervisning
utford
flytta
honor
##fron
typen
dirig
##unget
nilsson
##medlem
hid
deira
melolonthidae
##bla
oppført
##uni
##uga
vokste
udnæ
##stolen
hay
jobbet
ki
1100
fjarilar
perioder
##jiang
##redakt
bac
eugen
##manns
bapt
zealand
##sin
hosp
lengde
liter
##ledare
sachsen
høyere
ansatt
formand
##ocarp
turnering
##yder
##bygget
##yph
varianter
antallet
##rium
fril
philipp
teknisk
filippin
tenggara
##jes
##pool
informasjon
86
sz
kvinne
squ
##vaxt
##lers
motset
merc
semifinalen
raf
anledning
##aton
bygde
##kont
atmos
##sha
kum
##ckel
##ynam
##asan
udtry
japanska
østrig
utmark
mannen
##sdal
##mea
monten
##marna
##imeter
frid
polsk
linjer
foot
oppt
europæ
oppos
krev
guinea
sande
dekkvingene
sic
guatemala
arlig
belag
##hjem
mørk
81
nordland
starta
manchester
giv
utstyr
##hai
with
##ulatus
morro
##ologen
##klubben
skjedde
kombiner
fritt
kjemp
##liggande
karn
##leis
medaljer
bebyggelsen
96
trett
states
grod
benam
reguler
##rah
##atør
1849
dator
oversikt
83
##hoe
lug
minutter
separat
annon
ria
zar
##fabri
halla
##fard
lidt
beach
isb
kammer
bestemte
vunnet
uppgift
##ularis
hamburg
inre
##gelsen
psal
augu
pans
##øp
theodor
##endal
skargard
##yen
savolax
avvik
soph
kristen
flykt
##jal
haw
anlagg
konflikt
feil
tyng
bayern
skopje
##eton
##cu
ther
##stallning
musikken
##rater
oppkalt
##elsens
exped
bond
tror
middelsst
sasonger
##melse
myndighet
dhar
fat
egg
underarten
##forfatt
komponer
1851
##jeb
deutsch
##xt
ub
forsokte
termin
overra
sekunder
øen
##ibliote
##jorden
modstand
burg
mw
##tain
hjælp
middelalderen
##rul
##mede
rose
##oer
varia
inget
##spunktet
piz
sandes
##bolag
##egg
blue
##avik
arabisk
palest
##station
korn
##tning
##fran
myrten
##dre
##viken
dræ
##atning
##iers
##ctus
sloven
skrevs
praksis
herman
##avling
##endørs
abd
programmer
tillkom
para
niger
fiji
##see
##mis
##zy
reich
##atorium
##traf
1854
omtalt
trekk
##grens
finnmark
branden
nusa
erholl
roger
vokal
##fyr
florida
##omycetes
doug
ivar
monteneg
range
##tina
vunnit
crypt
##usalem
##rand
kalender
folkrak
##lere
thailand
##ligheter
barnet
from
##forbindel
skold
vii
##ianske
maxim
eh
kommunist
passager
møn
larsen
##idi
ng
vinner
hyper
##bul
daglig
hvite
##omi
tavlade
##vikt
lunds
##klass
cyc
mænd
lob
prøv
mim
##dens
##atis
hammer
rasmus
berom
webb
##mur
##agu
later
senaste
nedlagt
framtid
extra
##dr
kus
##arl
##afrika
revolution
##svenskan
wik
opprinnelige
torel
##ommet
folker
undant
tilst
##aman
tjeckien
service
98
oar
skid
taylor
##uft
provins
diver
hend
##slet
##spil
ersattes
visa
##sakadem
organisasjon
størrelse
##riket
flygplats
brag
great
##rata
slesvig
hellas
##imir
kret
##jente
championship
sval
lei
pronotum
bjerg
##sbygg
##wesi
154
tidsskrift
sager
flyttades
nordmak
jarl
vass
zagreb
##ikere
##osoma
##iew
gom
##oly
hammar
chah
bea
gregor
eier
kott
olsen
##hea
yang
jerusalem
uttal
ukraina
øverste
magasin
##snit
belgien
republikken
nedan
##eger
madaga
##inas
##gari
bøl
tillstand
intens
sidst
yrkes
##bandet
##irektor
##aldern
##urneringen
bjer
1853
##onsin
##ianus
pok
domingo
nattslandeart
##su
polis
##føres
##aro
samfund
religiøse
morg
vulkan
nyt
operation
##olle
kommit
alene
billed
bergskedja
utred
##janst
nordmakedonien
##forhalland
91
bengt
kenn
nyere
##urd
##bell
skalbaggar
skivan
finan
boy
manit
##formet
##schef
matchen
##iane
arbetet
##innan
nej
sende
nør
##vey
##igan
offisielle
madagaskar
##perioden
##ury
gjenopp
##herre
##dommer
myror
##edy
##spor
stjerne
grenser
##eldig
##jtnant
hong
##rock
innsp
##bek
##chia
krets
##leve
tank
##ravet
##ills
92
##vad
ogon
science
isla
##ssam
##ssystem
likhet
friidrott
trum
##ningens
##ijan
93
##teck
grun
##bot
##senteret
malv
##row
scenen
transporter
##rere
venner
sulawesi
##atene
brist
slov
basket
internet
##ular
card
begrans
planen
oberst
lun
forfattar
vasa
##escens
nederlanderna
seder
exper
chi
poet
renover
##wart
##onde
##mil
bjorn
sher
primært
##snamn
ytre
box
otte
jonas
##ylon
##rane
##viet
skola
skriva
dokt
himmel
andrew
oprindeligt
##sjtina
tus
##oslov
spindeldjursart
##erto
mach
frihet
endelig
bokstav
main
gøre
##perio
##linger
grasart
proces
koudyet
##edia
stru
tilgjen
bark
cyr
kw
##ælde
kvalster
mut
studioalbum
hotell
lave
saldes
uppf
sierra
##ephalus
khor
##oken
kristiania
kated
stu
nationella
fortæl
mening
døydde
plassen
nit
næv
sens
##spelet
aer
huvudstad
cr
aph
botten
sult
styret
##iot
karaktar
akantus
##iba
pjas
amster
##finalen
##iget
reise
##phia
road
jas
##hag
ip
utbygg
##pre
##skom
##stø
amsterdam
nordiska
cri
christop
dc
erklær
##nare
landshold
nut
foljer
##bridge
##iform
bjørn
wang
##valgt
sogne
trakt
konkurrerer
konged
##oki
forbi
academ
ff
morgen
##halv
##icer
pag
valen
aktiviteter
##ryck
##ction
cont
##lanssteklar
malar
##bør
dvd
##strup
##verg
ath
bulu
tysklands
##amento
examen
esc
##ktig
##bourne
##vise
forsy
##ites
signer
stabil
##ocer
get
##smuse
listen
##altet
reservo
disc
helg
##ving
kairo
past
scotia
ortod
undersok
virginia
vinde
knapp
##arius
nasta
##uster
eksempler
hul
forsvaret
viv
##angden
ansags
grim
aktivitet
etablerte
##rant
##rence
##bror
ull
bolaget
anvendes
lopp
genet
##urnering
tagit
arbeta
antingen
##kkel
##fugl
##oslovak
erhver
##kirke
male
##smil
baserad
kryss
omgivningen
lill
##ovic
forbatt
tropper
særleg
damask
uppfatt
eva
stemme
conc
sadana
##ahr
overg
pip
ruf
##frag
tokyo
##king
kyr
cach
plante
1814
chlor
day
digit
##oke
rosa
darah
centimeter
##kysten
sønnen
trods
drygt
gabriel
hvorav
sog
viken
professionell
hoh
good
vetenskapliga
liver
brach
uly
erfar
patraff
inledde
##idar
posten
tittel
efterhand
##dera
##ells
carolina
##atra
mete
nederlandsk
handball
reserve
nick
##stens
##jn
##onis
maned
##apest
orienter
sjæl
innflyt
country
yderligere
##sblomm
##juk
##pol
kod
knud
fikt
yu
##imb
nich
##mass
##stjen
##entes
##ophor
##løb
bun
##elden
kyrkob
betydande
møte
##acken
faet
mork
manitoba
forster
diskuter
plata
##car
##rie
malare
mistet
##kong
metoder
fundet
glad
tum
invester
bakter
vundet
give
damaskus
overført
##atern
##listan
plate
tjanstgjorde
renn
##agua
##smand
##icia
vera
intresse
islands
enheter
marit
hjør
ranger
niels
støttet
dalen
lie
avlade
lewis
agu
grundlagt
mottok
dum
##usk
konkurransen
association
##esa
voks
##agner
metod
nominat
trebu
buddh
anvandning
jøder
aal
krim
engager
odense
cos
##otrich
nue
warren
precis
gig
reformer
udkom
gods
##mess
deltak
pand
sax
##aco
##oppor
ansvaret
##ordenen
##enfor
##fiskar
##kede
##elva
##kraftverk
##real
##ikan
budapest
middelalder
moore
tilknyttet
dyp
erke
##itis
koncer
tromsø
hotel
daribland
##log
pengar
occ
flyet
forholdsvis
##ologien
##sels
bomb
indust
baseret
faste
kilde
faktisk
##vart
stund
##itu
khal
bert
politiet
teknik
ribeira
bane
skatte
forfatteren
##yns
##jene
slappte
##handel
##18
priset
udbred
wen
##naren
##ieg
accep
nel
telefon
tronen
mine
mali
grader
dublin
snack
instrukt
indeholder
hette
utvecklades
kronprin
partiets
##bildning
buss
pig
##komp
##nt
ambet
bevæ
skapade
anklag
utdannet
##aterial
inrikt
gad
hals
verkade
##polit
##fast
rekna
stro
##ængde
##skriver
##ikkel
fremdeles
1847
bredt
pent
##gers
trakk
church
grensen
anven
##ukas
fardig
##fir
syg
##vetenskap
kli
naturen
singelen
eliz
nominatformen
milj
##nus
fed
fastlandet
position
partik
##organisation
##løse
##icol
syft
night
94
hvilken
brat
guer
##banan
##lis
avse
federationen
football
##orda
ledd
drevet
etterhvert
##utvik
utga
asteroiden
gross
##pr
materiale
angiv
motsvarar
##ksomhet
hurtigt
oppen
##shall
departamento
cell
##hjul
fox
way
##ifisert
##zan
startede
davis
##agar
delarna
myc
politikk
##filmen
key
uaf
##vinsen
##spro
modtog
monster
officiella
##itel
uppgifter
hest
antarctic
gamm
elect
saken
did
passasjer
tæt
komment
##stillingen
stallde
statsb
fange
roth
##løs
##ipennis
sno
##ands
##forfatter
flyttede
call
tilknytning
##dater
kopte
gavle
##num
utviklingen
##moss
##lander
schmid
kvinnliga
##sprod
elit
filosofie
##allt
kampene
valkrets
sjef
naværende
##mær
attende
##lea
utmer
##olph
nødvendig
mira
samlede
##edlem
drive
##isera
parasitflugor
##verks
gly
##fabrik
kenya
##obius
1842
tir
veget
utøver
cens
opdag
preussen
##iserades
##resident
smaharkrankar
kvinna
bulgari
sucre
psych
kris
##pla
salg
skiljer
barndom
base
##ei
fern
born
demonst
##hein
pac
hollywood
cav
fragor
mansk
kryd
dømt
æres
##hatt
##barn
micro
løs
asien
preste
marx
##serie
hvem
mesterskapet
maten
veckor
##aterna
1846
skøy
astronomen
spr
perth
avheng
cec
observer
hond
kvalitet
##opt
bakken
wild
lamna
scha
singeln
##snes
##sdag
fair
bidrog
##aket
formod
umiddel
forny
kardinal
inkluderer
kid
hvid
bibel
fack
emer
lavere
##ough
marc
monument
rhod
##æv
grac
##kka
hier
kjær
##cupen
luxem
##zel
sakerhet
igenom
hogt
minuter
muller
##ekan
føde
sterke
za
beskrivs
suva
myrart
forbered
##nens
##lyck
egentligen
##natt
ombord
sangare
umea
leop
næst
joe
moral
forhallande
udvid
skreiv
tiz
alber
ældre
miljo
sebast
##anan
slot
##stendig
leir
kungariket
talen
slovak
##ireg
organisasjonen
mikro
udgave
oce
tarn
fald
føder
##verksamhet
##anni
michel
haller
##svall
produktionen
##stadt
arkitekten
kolleg
viborg
stone
louise
coc
kanske
kjøpte
elfen
##enne
dominikanska
georgia
##issa
synd
1838
begrens
bure
jama
fakult
syns
omfattade
1845
enter
sjette
mix
dalarna
masse
liverpool
ena
##kanten
elizabeth
herrarnas
medborg
##ryp
tib
##uela
##anj
overl
uppratt
oprindelige
oven
##derna
ifran
friidrettsutøver
nordamerika
nordiske
fullt
##oppen
tvingades
domstol
##satser
##ield
chen
##ppa
klubber
avisen
romaner
##yah
apen
centre
##yan
givet
piper
##vejen
paven
ødelagt
larsson
kyrkja
rysk
hoger
brian
østerrike
berømte
kult
ansl
framtrad
##etning
gum
##deren
digital
##resp
149
tradgard
forlang
##resent
uru
magt
kraftige
svt
##sekretær
ribeirao
1844
##rande
arkiv
##alven
##rette
ytterligere
hamil
##shand
##jades
jødiske
##asj
mytologi
##antha
##jylland
igar
##aa
utnytt
fylumet
stoff
##inden
manager
misslyck
fx
##akes
interesser
varfor
##sats
dubb
zeeland
##rina
##bygning
iris
##iev
uppkallad
osterrik
sags
kyrkans
mørke
opk
ønsker
##shistor
##inet
forp
##farg
inner
##bajd
begreppet
kvalsterart
##onoma
regioner
forteller
hegy
sedermera
helik
scor
stræ
haug
beord
##vari
##skydd
##ls
##ellan
##vania
forsvars
tros
kirker
vokser
##yrkan
montenegro
##arkite
arhundre
##mers
aktivt
forlot
mess
syfte
##opel
ordfører
##wick
foll
volk
brother
kallat
sluttet
##hof
##inter
cher
##institut
begrepet
lagene
forholdet
##elling
hyr
##bana
teoret
oppst
##lagde
værker
##vor
##iserede
igennem
##motor
rok
plast
hoglandsklimat
rust
ledende
grunden
##wich
##omot
utrust
handlingen
alg
##kopp
kinas
viktiga
kuba
verkar
posisjon
##ische
overd
innled
foraldrar
byggde
autor
##pere
resa
landh
##viks
##iano
begravet
shuiku
##meter
placering
unntak
##deb
herre
vorte
stann
##tjarnen
##wall
lakare
allierte
fenomen
utrikes
brid
folkm
cykel
eksempelvis
arbejdede
##ublikken
snackart
##arez
konserter
hemma
kran
##nia
dna
kraftverk
aktive
##styre
tatbebygg
vanligtvis
##yin
senior
##aldte
syr
##vision
ow
gymnast
##sbo
##quist
fengsel
involver
labor
kru
##ki
##arig
##eks
##mane
okade
normand
wu
apost
##historie
##ار
nø
bestyr
beteg
riviere
offisielt
##edyr
hjart
varierer
rymd
makedonska
##stillinger
bosatte
##hire
skan
maz
diagn
innsjøen
smitt
ix
vog
amph
jørgen
regim
batter
gett
ideer
1839
administrer
##kat
##tall
##via
##rute
zam
høyt
portratt
muligt
flockblommiga
##aba
signal
avdeling
hvit
##furt
vr
##grav
molek
liga
territori
eksist
##edag
##12
##ollis
abs
fej
humor
videnskab
indenfor
##dende
inflytande
officiellt
##ique
##spektiv
christopher
beskytt
##nets
##ligste
##arbeidet
administrativt
##ttes
##abil
steve
ældste
tilhørte
##enda
vaben
utdanning
##ocera
selskab
ligel
##icip
klin
skyld
kriminal
rusland
nieder
titlen
sard
video
##partement
tow
jiang
rib
igarape
##ness
internasjonal
douglas
arig
##jus
atten
boka
forg
inndeling
finlandsk
ordenen
stylt
##fjell
##kyrka
##eborg
##finns
bryst
howard
slakten
stadsdelen
tver
alan
havn
fantas
##viser
##ckte
##rupper
oxford
kullar
finde
nederlag
undantag
##mag
cupen
uttrykk
kurd
ligeledes
forekomm
society
##orh
cross
betrag
melbourne
livs
figurer
jurist
uh
##ranse
order
invas
wur
lokaler
##line
kyrkog
kannet
hamilton
uef
ces
town
jobb
amazon
presidenten
lof
tromm
rør
low
ambassad
kontrover
festivalen
favor
##right
forblev
kamer
##øns
skala
heil
bbc
##ych
##osi
##vants
1837
kristendom
##strakt
hellige
anser
upphorde
##maskar
bildar
fing
gene
state
færø
gilbert
##melser
hevdet
##emer
##yting
banan
akse
meddelade
etiopien
tatbebyggt
dick
##angare
server
beck
blek
fylket
byrja
##hallen
##eslut
say
bronsemedal
##stoff
##ikkert
##kultur
windows
telemark
starter
##arth
utvidet
motiver
arabiske
nationale
lop
sman
dommer
inng
##ætte
grov
guvernor
bezirk
hugo
##ple
dømes
wars
bonn
guds
stortings
otill
##forhallandena
autonoma
prost
sprang
##steder
tiln
jamtland
##ophagus
##følger
cant
tres
slav
forsøkte
jin
##sfisk
zur
##adet
vider
##endige
kapten
vinna
sønner
##kelser
omkom
anlegget
koreanska
gaz
samfunn
kyrkobygg
valle
ryt
lavart
indfly
avsluttet
single
karrieren
mottag
##hoven
##sjøen
##syk
stanley
##lagen
##ego
utført
##apar
abraham
##raket
sarbar
##alli
##sex
spelas
offens
sammanhang
##ogae
##ophilus
underfamilien
koloni
blomst
hakon
jbel
now
nærmere
iron
kurs
viol
overbe
menar
##etus
levnad
partner
elfenben
halvt
centrale
kanadens
salde
##iflora
##rykk
forega
varierar
leip
rena
kollektiv
damer
songar
##icornis
anlagt
care
##elberg
utslatt
objekt
pam
xi
finske
##kunst
orth
anvants
schle
selvom
planlagt
##16
jordan
herefter
quad
##baltet
avancer
ey
utd
##oman
selvstænd
##isterna
kejsar
blind
oppdrag
##jøen
drep
andreplass
timmar
##ielle
militara
##iell
neut
##issionen
allvar
unionen
urval
diverse
skapades
indled
jernbane
##ube
hinanden
cover
##samma
mastare
fangelse
that
personlige
mike
##gelse
tekniske
##fallet
slaver
##anc
##uellt
##uro
bedri
##ylind
##ikal
##udover
kristna
##eti
##yeong
##jing
tod
##ckar
##opol
kastilien
artikler
olje
stasjonen
sha
wel
##ikon
regional
lufthavn
debatt
##olag
chris
vegen
clark
##ekamp
senator
rese
##feldt
tappeh
jav
samfunns
konsul
anmel
overgick
handbold
valdigt
eb
polske
##ssons
##kol
##skin
deltagare
##cast
frederick
##fallen
oversattning
mans
##itus
##alpa
##esia
atter
jamfor
kaldt
##shoppor
spelaren
boston
##edo
saf
myst
anderson
radet
##iction
palm
klassiske
puerto
##lende
aften
stiftelsen
taiwan
##tom
speciellt
##losa
125
triv
##vall
##spring
piano
charlotte
##andid
nederlandske
publicerades
arida
##ctor
brygger
urban
motsvarande
##fod
##æd
stipend
##unga
aterfinns
agare
##jam
schw
stick
manad
##gelser
halvdel
##ulas
##fur
##shuset
tin
##urser
##ople
personen
kritiker
##iende
skilt
aktenskap
##atak
##iten
trebukker
grus
reykj
dyrk
gjelder
##fat
parc
teolog
skaff
vanlige
radd
representerad
batal
bebo
agder
tanke
bulgarien
kommunens
nerv
optræ
##estan
foregar
##bran
##ous
ledande
populært
bys
foreb
forskare
##utan
forsalj
ess
##jel
allen
ranun
preget
misjon
cass
##værende
cli
##uning
##bottens
aland
shar
renner
løy
loven
##løpet
##iserad
forret
##illinger
musiken
fysisk
##sforening
bagdad
##assa
kaptein
forbj
aik
letter
beror
distan
jersey
##ovit
##vind
rolf
publicerade
vladimir
representerade
##valt
##ønne
opplev
tillat
##his
studiet
1815
shang
##fartyg
pitt
##tur
kjell
dekker
hardt
intervju
gw
plag
##sætning
harstam
namns
baggrund
bebyggelse
petersburg
##aeus
upphov
navne
baron
sports
gill
##prisen
1841
korre
debutalbum
guyana
golden
frist
model
##jut
saknar
reykjavik
poul
sop
still
##17
ric
sikt
##mu
forvand
##nevnte
heilt
nemlig
datab
##recht
##oland
##oser
narings
yor
rattigheter
honduras
##klart
##obe
mika
tomm
tekster
teatern
mom
cay
sprint
gjeve
genop
##alisme
non
internationellt
skyldes
sannol
1843
##domm
grott
##lerne
mode
your
##idus
hvoraf
antennene
##edere
luften
omradene
muham
##reds
sociala
systematik
##aust
##estad
##ffen
##lanter
fabrik
nominert
##ikar
vasteras
aalborg
midlertid
commun
##malm
cin
stykke
##skning
marked
kjende
versjonen
##skommun
##bibliote
ahl
##egaende
moren
##pur
##figur
awards
eleg
røy
veter
##ourt
retten
1820
honan
##sbruk
beskrivelse
xanth
ryggen
##skyl
##alan
##endron
aj
frans
##erie
##ifera
varer
kad
trav
siah
mobil
europam
deleg
##lak
##byggnaden
baserat
scoret
protester
trykk
head
minim
automat
##vans
medier
##ubben
løb
konver
oskar
hogst
tyskerne
##eslag
##akon
2021
##lings
lege
##mont
stadsdel
##miral
##kelige
avslo
lavet
tradisjonelle
##oeira
##irus
##made
eksemplarer
##brog
##ssatt
pedro
ryd
gradvis
indiske
oprettet
foremal
litauen
dich
blok
##lut
upplagan
tann
klimatforhallandena
møter
##kron
org
##shavet
fremste
avskaff
heid
sankmarker
utgrav
protestant
samfunnet
cob
kommunerna
kel
rica
##ellingen
skiftede
##ættelse
schiz
mineral
committe
pist
curt
artikel
##stig
innført
##givare
wi
##park
##anke
dialekt
350
##asitet
bif
##formede
texten
meteor
##shan
administrative
stycken
epid
asiat
eksterne
bjork
løv
##smakten
scene
legend
skyd
fadern
osterbotten
montreal
svend
pakistan
##bun
reservatet
##ckt
genomfordes
##hara
havs
beet
bruce
fyrst
katolsk
guitar
bens
send
##23
##ione
adskil
representerer
##acka
broad
nobelp
ordning
process
underlagt
motte
mynt
pach
##lod
##stalt
##klare
oued
huvudbaltet
khorasan
marine
scar
metrop
sammenheng
flockblommig
fremtid
starka
varldsmaster
beng
vinkel
##elag
term
##stj
demon
alfabet
pinyin
##fulgt
tony
flate
rapids
##ining
samarbejde
##zj
næste
arsak
vrh
##yle
regerings
representanter
##yret
##alistisk
mt
##major
rou
##smedlem
funnits
spir
europæiske
committee
nærheten
##laggning
##høy
##jed
##innen
##70
##skib
heav
##aspis
fortsatta
forbud
torg
sli
personal
sæsonen
introdus
angrepet
utok
##asia
nærmest
bour
søra
##filmer
abe
##cta
varmland
halm
beatles
baden
##ruz
##bruket
hentet
##hammer
##haus
oppdaga
crist
guad
anstallda
##amal
levande
bock
##rage
prosjektet
referenser
##straf
nicola
05
protest
teleg
tydelig
tilfælde
##faglar
saskat
##ree
##jektiv
maleri
sche
vester
imod
freden
##sgatan
##chewan
nævnes
##hs
##isar
noksa
power
##ringe
sja
uttryck
##krit
##ktionen
##inidae
altid
djib
savel
##ingsm
natura
09
strang
##lon
rotter
##brand
arbetat
kold
farge
grønland
filmat
læg
##tek
##øyer
ernest
saskatchewan
disney
##givning
uefa
luis
positiv
tranare
##ður
##amat
yngste
##imar
was
##osen
strav
colorado
tidens
skarab
koppar
svav
##ilde
prefektur
##ан
moham
stilen
fødd
splitt
journal
buttu
##ogloss
hæn
##15
##ionens
korall
##cio
antas
##forfattare
##sped
jordens
schles
##talen
uafhæng
allmant
syss
sange
cort
##handler
##agan
bened
cachoeira
##ætter
##uka
##intend
imm
narmare
definer
produsent
finder
dm
##oks
etc
kjer
høye
tvunget
1835
manen
geomet
##wi
leipzig
uker
utgavs
##slagen
forsøg
##jinga
##rap
##maktige
1836
##høg
cyk
elementer
lung
down
hørte
##idion
##rong
##ønns
##fulla
##iber
anom
løber
ordre
djibout
ps
heart
vigtigste
make
eug
sammenlagt
dyre
##sjuk
graham
institutt
hastighet
##arv
##ittel
##astro
##eby
amerikan
euc
fungerer
giov
##worth
infordes
##sblad
plassering
okkup
glav
reis
roskilde
videregaende
oct
pom
##otis
gula
##baijan
municip
alta
ostantarktis
##ipe
##nos
forretning
øyene
ordinarie
bortsett
bist
##egen
##havare
##essor
fisker
sydøst
systematisk
xen
##rare
frø
##oun
dør
institute
##result
stens
ild
sammanlagt
laste
fame
colonia
phyt
tackt
##ovac
##bourg
ekst
begynner
oversett
laurent
##sledamot
leonard
volley
stallning
##asje
sorter
##idan
gjeld
konvent
srp
fæng
##jarne
navy
stephen
ær
staende
virksomhed
meters
aukt
vd
inspirert
##ogaster
cyper
tasman
utforde
sydvest
fotballspelar
usas
ekv
##skaps
adskillige
utifran
falk
##plant
##takt
europas
forar
tegn
##agh
##elserna
tegel
kanoner
neur
valley
adri
penns
anord
1834
##yne
liberal
internasjonalt
regissert
##bent
tatort
leda
inbord
##uy
aner
spi
foræld
prince
hospital
dres
konkurs
skulptur
##tyskland
medeltiden
##hagen
##floden
##itiv
##espill
politiskt
ich
times
##smy
forsoker
##perm
amnen
sakaldte
donald
trig
aterigen
expedition
##uther
alexand
belgia
lap
##biller
rykket
08
blomm
mojlighet
##bjerg
carlos
cambridge
##ifa
erobret
stjerner
pahar
skiftet
uran
camer
##ukter
##ll
lp
##emen
##tel
##jande
huvudort
uen
##aks
america
havne
cerat
bærer
estero
##illverk
fløy
##udi
katolska
##onius
kristiansand
##ungebin
holdet
firmaet
##cla
##haf
inleddes
##somt
mindst
strandlinjen
polar
##vandring
arsen
cet
hors
reste
nedbør
##adsen
forsvin
##phy
dash
klasser
mund
##aj
stry
tong
##omon
##ephala
oka
kyrkoh
lakes
tiar
##stekn
lincol
gjennomsnitt
pyra
einar
doda
pha
organisationer
berget
##kore
##idd
morris
semifinal
##inata
storlek
liknar
republika
##gik
qal
##qi
ligaen
##gras
korsblomm
##iveau
offentliga
1829
##anum
metoden
bedst
hvilke
1833
tala
##stilt
##itud
politischer
sade
##smalet
##skjold
##irektør
##ofon
pennsyl
##ifol
series
##renn
ic
utvecklingen
##rine
skon
cong
væl
##rill
elli
formelt
administrativa
kvinde
dah
##spartiet
kvarteret
ingeniør
##ters
paulo
##imenter
nordaust
vanner
kortare
titler
frik
krat
tilsyn
stillingen
exister
stilte
djibouti
gordon
tul
lansert
hamnade
##platser
verne
likt
parker
nationalpark
queen
##stasjon
bakkro
##døde
offer
colombo
fet
##klassen
helsingborg
bureau
hass
##pal
hydro
massachus
definier
gest
marcus
svampdjursart
pga
antyder
foster
betydligt
tuber
behover
rah
borgen
kamar
apote
ifk
folkerep
partil
urugu
uddannelse
##icolor
##elidae
agua
##iks
##okt
##ledes
##arbejder
##orpha
lyng
##ocke
massachusetts
nyg
tømmer
##lyn
kurt
##skontrakt
##hv
bæ
oppnade
##cera
##skusten
beford
leo
1809
trodde
ansat
nelson
koll
##ebo
penge
##vekt
slogs
praktisk
originale
##arium
avslutade
##aktiv
##ræt
fraga
berattar
uppror
mull
christensen
motsetning
miljon
##stag
osv
reist
lykkedes
doktorg
klara
samla
bohus
##86
srpska
inngar
edu
rute
lata
beskrivning
ulf
semin
##ordningen
ceram
oprett
verda
##fried
##breen
bogen
kæmp
##stander
befolkad
fond
ekt
vende
betong
hugh
##uropa
##ratten
romerska
derudover
##rogen
##igg
vem
##skottet
##iseras
##ahan
fiskar
avholdt
##reger
linkoping
##inos
##sakademien
holsten
avhengig
aktiva
rapport
##museet
styrelse
generation
##ocephalus
fjernet
##bitare
##stalldes
papir
riacho
kef
vejen
##stri
bott
accepter
##oler
##ularia
##omia
##fiske
overens
flade
utvecklade
##bed
generalmajor
margaret
installert
hip
##vatten
jen
holstein
##reich
##ross
grans
dimens
intresser
##ingham
sjukhus
uavhengig
karet
##resse
##agna
rott
vastergotland
##char
inneholl
originalt
dicran
tenu
utov
param
djurg
eriksson
##æde
veck
uruguay
allsvenskan
pia
##ylan
internationell
chamber
kit
##ksjonen
##roblem
guang
levende
##fakt
##hias
konflikten
##kommer
katarina
kulturen
invader
obe
urin
progress
##dene
rask
1832
betraktas
buset
##ulf
keram
bydelen
bk
kulturmin
odd
breuning
profil
anstalld
##start
troms
fria
delte
##valdes
##cal
bulb
bisped
##periode
kjøpt
##trykk
clin
igang
tryck
yttre
##rana
besatt
##ocha
##aville
miller
##abi
##uki
angre
konservative
##okar
europeisk
##kende
##odi
etym
imot
##ysia
radhus
##vitenskap
nyheter
##festival
##ophaga
##bog
##forhold
expl
pedersen
##shavn
anten
##ikeren
kommunikation
sidor
##varig
##ikern
alberta
sorg
kommunes
##head
145
adela
umiddelbart
forskere
##amf
##zin
spørsmal
##vede
sosiale
trafikk
##agg
##tran
##uller
skjold
koret
spilles
##riften
medicin
##brudd
omfattning
##low
styrkene
namnas
varlds
##anthes
##hogskolan
ayn
aring
betegnelse
patt
avhandling
trener
ligan
sigurd
tverr
versionen
hvore
taler
bibli
opprinnelse
hvorefter
##etti
ingenjor
tanken
nordre
damm
party
kyrkje
buck
synner
##reen
munt
omvand
femin
##vav
chin
baptiste
##tok
##ск
derib
##bygningen
hills
iso
soner
teologi
rejse
flyv
brazz
vinne
nepal
tredjeplass
rovflugor
stjarna
##bos
gratis
produksjonen
##ici
popularitet
overvin
sjeld
serge
##gran
##abel
studera
mario
oms
højeste
pow
##rund
##ftea
math
møller
cub
##osphaer
##satta
##sforbund
stærkt
borde
sebastian
rige
skara
##ksjoner
bh
bundes
##mennene
guvernør
hensyn
put
tend
lyder
##latt
inslag
enhjartbladig
polyp
xii
##13
middelsstore
arbejdet
bernard
finale
maksim
##omyza
##talje
højde
pedagog
ube
##aring
##adt
##chis
udtal
##ologer
almindelig
pale
##jun
##klin
micros
##bæk
regemente
mey
stadium
skapte
tizi
korta
flug
tilfeller
ere
##div
dynastiet
skogen
pavirket
##sattes
christiania
repræsenter
##14
koordin
skoler
asa
lane
##rons
upplost
##ilj
temperaturen
anvendt
forma
fugle
oav
katt
##illon
lyst
doub
synlig
institusjon
smab
##gene
##ygge
##tu
##edra
wagner
##schen
##oneura
##emus
ejen
##olus
##ulu
illustrat
forlaget
miguel
hale
jatte
##ingom
##sjonen
lagger
gle
atlanter
tegnes
fossil
##egarden
##ulin
besto
namngje
konsekv
##dare
##eus
operasjon
kunstnere
skotsk
gule
##høj
bath
eventyr
##cidae
sond
jom
olsson
##pec
assistent
brandenburg
brot
##linge
uttar
1818
bard
cari
##ussel
johnny
revs
autonom
hendelser
munk
visst
hull
avsnittet
computer
gitarr
fartyget
ping
trupper
pennsylvania
faller
opnaede
##ahn
##onto
folkerepublikken
##ologin
øvrig
overrask
glavica
gala
kristus
06
##nelse
acanth
gransar
afholdt
flytte
svøm
kritisk
##urope
##norsk
ansvarlig
brazzaville
morne
sejr
administration
sydafrika
grense
##iseres
leb
##amnet
##skrev
amf
euro
arbeide
##igi
##hausen
romsdal
##nummer
samlingen
spets
offiser
1810
udsen
preuss
##odendron
indflydelse
skel
vannet
ekteskap
varefter
celler
hes
grundlæg
veldig
##æren
leopold
filippinerna
cost
##wal
##skir
patrick
##amus
##vol
##ogel
harmon
04
##kow
qing
##ellidae
nordover
##chang
##emin
felix
gotland
rick
valer
hellig
krys
helikopter
##fc
hovudsak
##avdel
##api
giovanni
220
extrem
belon
viktor
seil
ude
optaget
refle
##ocarpus
smaningom
trak
##die
kiri
maske
belaget
##ovs
tecken
mangler
##smedel
##skytt
baten
innflytelse
##ures
##rosophila
prinsesse
nunatak
kerman
repar
medverkat
walt
ult
##produksjon
dyg
fjall
konkurr
even
##lack
##folket
ekonomi
fageln
##sekreterare
gunt
pastorat
ile
bratt
udviklet
147
##any
lucas
foregaende
##rier
##svagen
##arkitekt
publisert
virksomhet
utgangspunkt
##ianska
##arbetare
kang
##idaceae
##ifikation
bayer
ejer
##ex
bereg
goran
bold
dak
forbindelser
##neum
spek
##fr
##stock
##istene
fut
nass
dyb
avbild
akershus
deltagelse
rette
pereval
##ches
##uterade
3000
##ija
anlæg
##sme
##yrus
basis
##bjør
halften
snø
##dals
anbe
nordkorea
##ners
hoch
sovjetisk
skarp
oppnades
otillrackligt
glest
forsv
jevn
cape
bandy
kiel
lens
spre
##25
##dorf
##occus
syftar
dirigent
adgang
fremme
##amb
trip
utgivet
fugl
udgør
fritz
fangen
polska
sophie
milano
ansett
stim
valdemar
lara
##ensson
karlek
utdannelse
arnold
sjun
hawa
carp
sorte
shi
##enga
##enia
global
rytt
søndag
ohio
##kov
1828
skotske
reder
pupp
##iao
atlanta
kne
##meister
producent
versioner
sich
force
ranunkel
##hamns
utgiven
derved
##aku
begiven
petersen
vestre
ral
inneheld
forlod
habitat
##lagte
grunnla
##burgh
dream
redaktor
##erien
tradisjonelt
dial
pabeg
##lot
bevart
efterhanden
styltflugor
##onus
oliver
brem
fynd
premiere
soldat
oks
forran
1824
teorier
dannebrog
musikvide
tyrkia
dikter
elfenbenskusten
tonn
eftertraddes
##edig
fungerar
grensa
karen
relater
pt
hvide
##færen
sne
##varer
etableret
edwards
litet
##betet
##yton
##handlingen
tegninger
premiarminister
mccart
menade
minutt
invest
##amm
##ression
##loven
genombrott
kaw
fjadermyggor
auguste
##yu
bered
illin
straks
##ody
norther
institutet
sala
atmin
koal
sug
halsing
##fram
##ukkende
nagonsin
lip
anc
rail
atminstone
larver
bidra
brant
##onne
sundsvall
artiklar
havanna
07
zap
ekspedisjon
adelaide
vie
grashoppor
dynam
##byn
argumenter
vartbitare
skete
oppl
anto
bruger
dil
latinske
public
danna
loire
fasc
haj
##kommande
sikkerhet
ekspedisjonen
yam
##ophylla
rogaland
frankfurt
krom
framforallt
##hafaz
maurice
studerad
fullstendig
gæ
xyl
##alism
##uset
##utz
foredrag
peg
##forskning
##ely
medlemmene
søraust
##ryt
skibe
enhver
pus
fortsat
##alismen
glass
##elm
beina
besøk
northern
148
ceramby
opptil
##ukta
##ementer
kalle
khar
##espel
##nea
agent
corpor
repræsent
##inda
sandsyn
dev
cote
økt
braun
hebra
tropp
trium
fritid
maja
studere
##elef
pansar
benj
who
beethoven
vack
##kra
bladet
hord
værd
anfall
alice
forslaget
framleis
midd
1812
knytt
fragan
forde
##banken
identitet
gifta
tidskriften
markeds
heste
boede
blu
ønske
krigsf
statt
##day
##ithe
vidt
##litteratur
hvorfor
overst
avgor
sf
##aric
##hon
kreis
##ogi
studios
peppar
##oglossum
##tav
##ningss
sattes
cum
##sna
##status
brost
kritikk
pensjon
##itze
##fas
unna
mani
ouadi
horde
##imo
olig
snor
nærme
højere
strekker
##enbar
##boken
narvarande
sørover
##amerikanske
misstan
##kyrkan
fiction
##aderna
frie
lyse
tipula
##arens
##stallningar
1831
his
beholdt
lost
sidi
##ytan
##to
legge
fallet
taung
##rorelsen
byene
##zburg
regent
tillfallen
homer
##fli
margret
schmidt
norrkoping
sølvmedalje
tidning
ophi
##instrument
##skoldloss
##mossor
##ilm
scener
##industrien
mora
jernbanen
##hug
oppf
1821
bourg
hør
folkets
sallan
##hafazat
erit
revet
ian
borte
begravd
aleksand
innsats
##hort
tilstand
##ocar
arterna
cow
narmast
tjug
##oller
faglar
besluttet
##oar
##leik
##rende
borr
uppdel
dek
fyn
##centr
brøt
mio
135
brede
motorer
##namnda
omfang
landene
aus
grammat
klassiska
goda
sluttede
territoriet
mulighed
opsjtina
##tering
lady
##nav
silke
trygg
vestfold
styres
ære
##ileg
##skans
kass
##ioides
onth
fylkesveg
norman
##karriere
##entyr
bøger
illustrer
nuuk
uddannet
arvid
kemi
draa
helena
elias
##stral
montana
tattingar
warsz
##ils
misly
klare
avsl
##smot
betale
##liknande
kyrkoher
##ders
særligt
lith
externa
traditionella
zan
##hes
eryth
paras
minas
##dahl
ags
##oon
bysant
##ashi
slipp
mikael
marshall
tillbring
##hm
##umentet
1808
##cas
cov
handboll
loren
minsk
tillrackligt
##manuel
framat
arhus
##amar
1816
elektriske
skader
chel
nyhet
bernhard
operativ
intill
##rener
orient
more
unes
begræns
kjelder
storting
valt
jenn
utp
apoll
totale
roh
##house
ideen
gos
##inella
##she
emig
prosjekt
gjennomført
territorium
skape
##jah
##на
koptes
profesjonell
benjamin
##22
##cou
##andes
kash
smy
populara
karelen
dolich
##skipet
four
##ruppe
##yllis
potent
parap
##uez
buff
havd
penger
teknologi
cten
hampson
garde
illinois
##økonom
1825
##kjemp
ress
##ako
kaj
skargardshavet
ligner
##staver
##linje
nejlik
nevnt
turn
shet
##fordel
##ipper
fastighet
østerrik
satur
fischer
##ypen
reb
census
##amoter
##manlands
##ains
utvikla
elver
chan
##rej
1819
bevarade
strukt
academy
møre
lisa
##tern
cot
anis
konstruktion
hemmelig
##side
befri
kunskap
potatis
kvadratmeter
trafiker
##sling
relation
antwer
olj
zard
##jin
mohafazat
##enteret
##ellia
azer
dow
punkter
##visor
##eiret
##foni
146
filmens
oro
##oris
atervand
sekretær
research
osl
nay
rolling
dokumentarfilm
1826
staff
oversk
fjerne
perspektiv
##vara
naturlige
sentralt
klaver
politi
beslutade
grønne
inborde
meyer
orange
butler
minut
##illingen
##lika
gass
medalj
##studier
##beveg
##uensis
uppstod
placeret
##ileum
tacker
presse
eau
udnævnt
##yon
landskamper
hertugd
alpes
racing
##ovi
odont
mitch
framgangar
tah
normandie
##hot
##smus
siger
115
antagelig
spelen
tvilling
144
tillhorande
bald
visades
only
block
karp
##linjer
funktioner
##asis
barnen
pension
træk
ded
##olaget
##ynch
garn
starte
tull
nato
iz
##ulosa
landhockey
munn
cirk
patraffats
tillamp
##samt
fis
##hald
##latsen
##esprak
qa
death
##ieri
banks
formid
samarbeidet
##holt
anges
erem
##lend
onthophagus
bodø
strauss
pund
jordbruks
fysik
lette
kapital
134
phys
influ
##jern
bruge
fargen
pyong
cou
##ionde
petit
brugte
loch
##oco
treng
tenn
##halt
##kot
kommunhuvudort
schwar
soft
##uin
inviter
oleandervaxter
kalte
##arda
innte
forband
##eto
##odia
jeff
kontroversi
oppmer
coch
højre
##føringen
##vesen
##amas
ms
kombination
sannsynligvis
avveck
##givet
framstaende
medførte
skogar
juridisk
##lang
##sniva
##able
jonsson
fonster
mick
##24
##itusjon
light
##køb
vanligaste
##esser
##emoni
skivbolaget
##stru
delades
##oua
opkaldt
bly
foss
##rats
##konkurransen
##iserat
boris
kirkes
talent
##marken
nedenfor
hjemmeb
##raget
##90
coel
besej
avtalen
administrasjons
host
rif
rival
lepid
familier
mordet
##ango
kortere
tegne
##reder
##ommern
mov
nk
uppta
cheng
shel
cyp
byar
værk
sjøen
designet
##won
##shog
helic
hode
utgave
##burn
##ussou
hovedkvarter
ønskede
##ritt
mesterskap
kvinnelige
sump
agnade
brødrene
karin
nash
peking
##ер
panser
forfattere
nouv
##qa
##bei
departement
guldmedal
folketinget
tilgjengelig
slar
mountains
##opogon
samlade
claude
##hera
tanker
gotaland
billene
demokratiske
##مه
svara
polisen
tager
##sfjorden
gerhard
hval
##saari
medlemmarna
erkebiskop
esper
werner
##kkelig
regionale
zu
domdes
##bere
##sjub
anthony
##resentant
##mande
problemet
hagen
كوه
oberoende
forestall
field
##smat
##amt
##personer
øl
capit
abnede
placerade
##cell
frances
matematik
vive
##ksomhed
rhin
bidro
jup
vokalist
##historisk
thel
##fugler
bredd
grant
vatn
##adelphia
skiller
moz
tob
kommunreformen
champions
##usi
tæn
himm
kazak
##kkes
naut
discip
finlandska
##stab
underjord
lagoa
draft
tanger
eksamen
##glanssteklar
##11
stewart
hogskolan
materialet
observatoriet
##ialis
maskiner
##oidea
tillverkades
milliarder
##iculata
##ikter
##stjarn
upplev
kunnskap
wright
tabellen
upplostes
1827
lankar
podgor
nært
attack
statsrad
television
##bærer
innspel
fulgt
row
##itas
mexic
upptrad
grunnet
enskilda
bedrev
##musikk
døden
cours
##smiljo
##matt
benamn
vaxjo
representert
diesel
##foss
poesi
##olution
gymnasium
thunder
1813
kontrollen
listan
##immer
predik
margareta
##alistiske
spredt
##antes
karriaren
bete
##grunn
##mia
jules
holmen
torp
##sattningar
rain
ci
##celler
rodrig
wy
##frid
naturligt
nodvand
addis
geolog
##ktige
tilgang
folkrakningen
##igalpa
shakes
##strad
##orps
210
##bryt
##witz
egentlige
##ев
erich
##nadde
produceret
##bergen
operan
engasjer
240
##odont
##orte
143
sekreterare
satelli
aw
##ieu
truleg
first
##fødte
utlandet
kirkens
font
##ttog
format
styrelsen
bildas
class
magnitud
podgorica
soul
tilhørende
rekkje
ked
levu
rorelsen
flo
##kjer
bedom
##fre
persson
krog
programledare
##aken
samtida
mg
embed
varte
smed
tyrkiske
230
klosteret
amal
konig
banglades
lektor
##lich
gjeven
tvar
forum
antwerpen
inspiration
laos
trukket
væsent
kombinert
microsoft
theatre
##kandid
frederiksberg
##stræ
##ospora
bergs
dekket
ekstrem
##mæss
##lakare
bm
##kirken
minist
128
##sprakiga
meldte
philadelphia
shakespe
##uret
utel
lagde
jørg
jungfru
psalm
##auer
##iza
##ucigalpa
tegucigalpa
##orget
biler
fare
vedtatt
intelle
asm
forord
127
brasiliansk
omtales
1801
hydra
rast
infrast
wrest
billy
rasmussen
styrt
stilla
whit
højt
grunnlag
buch
##fid
##acitet
manniskan
##asjons
jorda
oriental
harde
##say
rigt
##forsamlingen
resp
hamar
klassific
stren
anslutning
sever
konkl
marknaden
kay
sæl
gros
brud
##more
deles
hero
bekraft
medvirket
##orkester
spørg
dren
adams
øverst
sjatte
##retten
##umann
##rica
analyser
105
foreslog
etablere
##ird
##rero
##onotus
blanding
prist
anpass
framgangsrika
##mænd
stationer
studerede
uke
dead
1790
børne
hannen
orch
gale
##fos
overste
##byggerne
##øne
ae
moritz
anslut
klokken
floder
##fel
##ostoma
hovedsag
begrenset
pyongyang
landbrug
poj
litau
##icta
kolla
gallmyggor
tradte
halvparten
##indust
diskuss
religiosa
##onien
##malar
nærmeste
##alum
1823
##ippet
økte
eftertradde
bombe
##nett
atlet
##idad
##artist
terreng
storstad
skikk
flora
meck
hooker
ake
yorks
bær
koncent
##endomen
##cea
utenrik
sistnevnte
kyrkor
talar
fordon
beslutt
forhalland
venezuela
fjen
##ور
piet
##foretag
brænd
returner
tvaa
fødsels
skinn
kompan
revolutionen
experiment
æg
bangladesh
trump
gray
##oce
kirurg
skapt
betydninger
##stro
vild
docent
effekten
opphavleg
ariz
##rass
bilar
nuevo
barna
rin
tilbud
recens
robinson
deltatt
home
##elset
##quin
næring
##iso
termen
stur
kommunest
##ligaen
##espillet
fyll
isen
##rypare
uvan
huse
##ouri
pum
##kelse
alc
##pson
##landa
samtlige
intraff
tilhen
arrestert
eskil
corporation
##somraden
cad
halle
libert
marinen
hjelpe
gunther
##anken
kriter
friluft
##somme
koch
##onica
##maler
andrades
skat
karlsk
eiendom
##arbejd
##spros
##blo
kampan
free
fortalte
##okan
##np
names
rekonst
kær
hex
oprør
omfattet
##messig
aspe
##inspe
##ktorer
##omataceae
##ortsvaxter
1822
abeba
nfl
eksisterer
voksede
##samf
tapt
hastar
##ional
kommunale
trang
auster
markedet
jæ
parac
##tagelse
konflikter
fanger
##delar
##ioc
polyn
##bella
tad
fv
sadant
gyn
kvindel
##ware
huvudet
fornlam
uppmarksamhet
##lysning
damernas
##yte
##skam
hjort
##selen
rull
tep
##enz
indiker
betød
skytt
yamo
game
besegrade
##ommen
##værker
individuelle
konstnaren
136
hundra
upptackt
##præ
european
##zero
##huvudstaden
chaet
##fronten
redusert
##ology
book
tomas
morgan
intet
ronald
##okal
dresden
klot
borja
sykehus
minnesota
ddr
##ype
##lock
frat
enkla
mulighet
tredjedel
integrer
katedral
bilde
fatal
slægt
udel
1807
landsbyg
##aminer
christina
sovjetiska
drom
parv
yamoussou
fk
verkt
##asien
riddar
yamoussoukro
vancou
regionhuvudstaden
hamt
masterskapet
install
akra
dobbel
helge
trommer
ww
radgiver
vinst
sikkerhed
lh
biblioteket
nis
bilda
viktigt
parlamentar
lawrence
enden
pick
rhone
omg
angola
organisert
##tert
##ekon
svag
birk
crass
##forbindelse
tone
vu
irsk
faktor
studi
106
tvavingar
ritningar
sonder
osak
##iologi
thur
kontinent
##kontoret
##munt
##byr
##اد
canal
##lenburg
turkiet
bana
##grev
helhet
kjerne
regul
prøver
yong
##varlden
pue
sydamerika
innlem
##box
aber
eus
einaste
baseb
flick
##ligan
##eser
##jursart
##provinsen
##yper
##ligaste
slam
anlegg
barbara
##gus
##falz
tril
##ianum
heat
##uru
betra
##iceps
heldt
hongkong
kunstakadem
bruken
bladhorningar
hitta
dark
zh
##ivan
banken
##cial
kirkegard
kontinuer
##ikring
besta
trapp
selskabet
##listen
##ants
##dor
##lane
##løper
underhall
augustus
samtal
filmp
tjock
taket
##rell
erfaren
##sslaktet
elef
kulturelle
minska
##elserne
cano
mongoliet
bop
vav
sjost
##løsning
regelb
etymologi
opstod
sev
vancouver
formuler
visat
##cle
snarare
##hild
##kla
polyg
bygda
frankrikes
utbildade
##ally
conne
##vatnet
##sler
steng
latarna
tommy
##etenskap
##ache
##ighetene
broderna
boll
zhang
ridge
allmanhet
##edda
plut
##fjellet
shaw
##varo
##komsten
##posten
##chter
byggd
##orium
hort
##æs
cour
jupiter
gris
bekre
##gata
##ssy
cypern
dylan
sagen
##stænd
##historia
stum
##flott
pafølgende
ordens
spirit
##sdotter
avtale
hant
privata
brod
texter
##skogen
foda
action
##ouz
farfar
forsøgte
vader
rune
##asse
##astare
03
cho
lulea
gymn
skadet
##forord
korrekt
##skrit
shin
propag
##stog
##eliv
kommunistiske
tingslag
omedel
##ragte
##regler
tjanste
fredriks
oleandervaxtart
##mets
grænser
venst
##cz
overle
1803
##organisasjon
esk
race
1817
##bilden
lør
opfatt
blomflugor
##ralen
##olla
meister
skadespelaren
dags
afslutt
see
spis
respekt
skaffe
svalbard
uro
differ
kaffe
##tten
mant
franc
redig
bisk
reservoar
privileg
hjalmar
orle
lagun
overord
##sleder
##lakt
##gener
##gjør
ilha
penn
forsvann
##ights
bunt
techn
charlie
minste
situation
##industrin
##upe
lanc
##organisationen
rhein
azerbajd
450
held
slæg
folja
foretog
nyland
##ismens
punk
##ifrons
irske
darwin
admiral
ruin
##navn
##avlingarna
verker
punct
1806
##mastaren
albanien
##rif
chia
flottan
høgaste
##omo
prøve
speg
nektet
##ief
tarnet
jernbanest
tis
mote
væk
groddjursart
##inis
kammar
besokte
##bøl
##hew
cook
##jov
ostergotland
songane
intellekt
arligen
benytter
quito
hypp
hennar
statliga
toronto
nah
##obia
##dags
konstitut
musikkalbum
sparris
##osum
fullstand
##latser
fand
tettstedet
apne
færdig
forandring
hordaland
lagga
broen
lillehammer
forlust
tillhorigheten
1789
fantes
gemensamma
ægteskab
gardaneh
overlevde
arige
demokratisk
eduard
##yske
gand
trev
##vampar
##laren
litterære
rele
leva
stok
almindelige
lakem
cond
##anas
games
overgangen
##behandling
derfra
##tah
høyr
registrert
##sche
skibet
##spir
innanfor
##ores
360
catal
چش
##ssjef
herrer
##idis
uans
oppstod
emma
dart
dance
fortsette
begrepp
##ор
##omys
##has
folkmangden
dagbladet
##ledning
entertain
lagstift
##berger
imponer
produserte
##ligare
proc
invand
##sklubb
dagh
kopier
stranden
##wang
alumin
vintern
griff
##bakken
trekke
##smet
vises
vatmarker
underart
##varet
ledere
cart
##jarder
felttog
##distrikt
##flode
kosovo
dominerende
##haug
##sette
betydelige
striden
##sfull
rasen
grekisk
jimmy
##slev
herbert
jamfort
egenskap
belgiske
##anner
regissor
pict
municipal
enc
reaksjon
ekonomisk
akademien
hovudsakleg
##berga
officielle
artsrike
drammen
overfordes
korresp
tennes
eksisterende
loppet
##ienne
sjoar
lincoln
halls
hender
##istriktet
michigan
##otria
kanaler
smer
indisk
brøn
##ynchus
hyll
##ич
sammanslag
##olep
##ocy
miljarder
carlo
survey
birger
oppretta
fakultet
##gart
utvikle
assy
##sprog
kobber
chart
gel
amne
konstater
##tred
##nie
##forma
##videre
absolut
debuterede
spare
levert
fans
multip
konstantinopel
dz
elleve
kalde
##skrevet
##varen
rettet
##slangd
چشمه
harold
beskytte
##hers
høst
paus
skanska
indiska
fersk
##æft
forble
eugene
##iren
tilsynel
karlskrona
murray
landskamp
medalje
##urat
svid
conf
##arkar
theod
nac
utstra
##ulo
##spris
skuld
andres
torelvaxter
forbinder
akter
##uil
rorelse
kavaler
utveckla
kommandør
blekinge
utspelar
størst
kongres
sphaer
##rion
bergens
heavy
##visninger
sykdom
##ningsvis
rejste
foruten
##stillet
arlige
ombygg
leif
akademi
atel
udover
myrtenvaxter
trær
##arbeider
fell
familjer
##emberg
jonkopings
rødt
hits
##angar
entertainment
bøkene
medicine
cuba
oversv
fortæller
roster
tsar
##hert
##sau
fysiske
blas
singlar
morten
stup
medaljen
map
##selskap
##landt
##isjoner
kravde
##sas
##fulle
##sgard
barb
kjennet
mecklenburg
avsked
sparvag
pointe
metode
representerar
unnga
##lisk
##iktet
utlandska
vekst
##jt
##oge
##opez
halvgras
begav
syntes
endringer
kund
oliv
esb
flad
modsætning
##sdistrikt
must
volleyball
ocean
##sexamen
##garder
##iversitet
rosvaxter
##arb
##spør
##lysninger
enorm
vagg
##igenom
sivile
papp
askad
punktet
raka
1811
forklaring
deriblant
pend
mangel
##upt
fødte
startades
middelhavet
lader
sporter
kapellet
##hyd
tobak
sivil
orleans
skelle
namligen
lover
##kninger
##rio
regiment
studioalbumet
nevnes
pc
varg
udviklede
ørken
singap
hoppspindlar
##omyces
gera
gota
swe
##west
##foljande
sarskild
johansen
hanna
sukker
##omb
cac
##essa
landerna
tatorten
this
aluminium
##epar
##flygplan
delene
tøns
##sjoner
gemensamt
gan
##derkopp
moon
hovedrollen
militært
nicolas
jødisk
##vingar
##inum
##forvalt
bush
##passet
raj
##istans
##umer
##scupen
##ophorus
##regel
eta
drikke
driften
kommando
faldt
ledelsen
linux
raymond
##itaine
tydligt
##jent
##edt
##ikum
reiser
##umt
tornet
ammun
kompani
skrivna
molekyl
hunnen
skabe
drives
bois
kompet
##verden
cephal
kande
kongelig
nikolaj
nicholas
bene
radios
##arspindlar
##ilen
##asc
antatt
assister
millionar
##lads
fronten
vogn
busker
##esterskapet
fabric
##feltet
innehall
harstammar
abbor
##uere
manuel
sige
valent
ersatte
totala
##pat
antio
amazonas
dus
kusten
gifter
roos
reducer
##oniidae
##medaljen
##bill
sjelden
##skiold
henrettet
bidraget
metropolit
##non
##uman
sultan
eitt
place
camil
samisk
adrar
##ingenjor
bakke
glim
##stof
129
verdenscupen
cun
historier
##bladiga
forvaltnings
##tea
gitarrist
involvert
somme
##repren
##fulde
1805
doro
tandspinnare
salv
claud
##krigstiden
1793
kommunalforbundet
kha
framtradande
##etningen
##familjen
jet
skru
lasi
erhverv
steen
##fuld
magdalen
brett
kongressen
cien
virket
##arra
robot
demokrati
##befolkningen
##iyah
spesielle
flertall
sho
elektronisk
kortfilm
utøvere
dys
formaga
sikret
##ortsvaxtart
##bli
##lej
##ælder
##stallningen
##hæn
papper
marmor
shir
boys
guadal
cann
parter
nybygg
karlsson
positivt
##gjer
##othe
efternamn
##ampton
##slott
##sbro
skor
cooper
optag
beromda
##hra
##uti
##bær
##utbildning
sender
beting
fine
ringen
##roit
##officer
nintend
lokomot
jor
##annen
onkel
xin
##ento
puc
arendal
adsk
følgje
republikk
slappt
kvarn
##onder
pamin
byttet
deltar
hannover
##stalld
sanka
musikalske
##ommar
risiko
statsk
østre
importer
kaf
chung
litteraturen
1802
##ways
gjev
hybrid
kanneteck
medvet
genomforde
##byra
rank
utmar
##alpus
molde
gravid
plac
tabte
##agram
panama
##arena
133
venedig
potens
valencia
tasmanien
glava
##elus
magasinet
##ires
innov
bowl
rekt
allan
##ømt
lettere
arkt
plus
##etisk
tidsskriftet
##rena
##yler
137
døg
##odrom
vincent
##estra
138
ragnar
løn
kennedy
siff
warszawa
solens
##storp
alvorlig
myrtenvaxtart
jay
##ар
##entris
fjordane
bronsemedalje
##igma
##anmar
graden
identifier
bio
##eni
anlades
haiti
##slor
tankt
symfoni
##arat
foretrad
henning
smalt
cylind
hanen
##bete
kronprins
sving
tsjekkoslovak
##yga
faktum
slaet
sea
udtryk
teorien
##edalen
jamaica
sannolikt
##skolor
pals
derimod
##parken
ard
##skoler
##adser
huvudorten
kend
sjunde
længe
magister
læng
##ол
enkle
1792
virker
campbell
##etia
##schild
mack
verdi
jarnvagen
varvid
##avtal
##endorf
##stallande
population
nabb
randers
fungerte
##vapnet
lede
lærte
##imen
billeder
wo
komite
manglende
partis
intellig
frivillig
talte
konda
##jaure
kommunikasjon
##smeister
##lax
bulgariska
kazakstan
arbeidde
##ekn
##førelse
fredag
sale
foreldre
instrumenter
hessen
##ال
##iserings
malvavaxter
lørdag
finger
keith
##jaren
aff
tilstede
distribu
##etty
verka
vastantarktis
##owr
##idenskab
##knott
##aft
prout
oblig
tore
kansas
anker
##braken
zurich
flen
grundlag
suz
konkurranse
kastet
stutt
snyl
donau
grona
paragu
##blod
negativ
##ulum
army
innefatt
##opht
##leiken
zen
##vannet
bestand
hjerte
stannade
kraver
##hammar
##water
##etz
##moj
##hult
overv
##ciata
##ardi
truet
rigs
jugoslavien
fortjen
hjarn
aventyr
egendom
bonus
klockan
##lister
halde
mojligen
beskæft
##ians
kopa
cym
pfalz
##skibe
##ellene
svidknott
bue
gert
trollslandeart
dræbt
cyrt
fullførte
dup
myanmar
ansikt
eksport
inkluderar
##klus
alaska
mossdjursart
##arum
1775
aquitaine
psychotria
anslot
pes
sis
konsekvens
beton
##anlegg
akta
forandringar
##zia
104
109
beseiret
##løste
musikere
##bis
koncept
##foljare
evans
inratt
##lunda
testam
stjarnor
##fun
olden
pilot
beregnet
forkortet
bulbophyllum
##oko
##øyane
hymen
alternativt
sjalvstandighet
##sammen
arc
navig
langtungebin
svensson
leeds
139
resulterade
bend
##elde
scop
grunnlaget
##arin
leiar
saknas
bres
indelning
1804
øyer
sark
##kod
domstolen
geografisk
løper
producerades
rinner
##junkt
##tajn
ovanfor
##smenn
halvøya
##ize
our
sverd
forstaelse
drap
##edi
smaort
torelvaxtart
##lac
engag
akust
mississ
israelske
luk
massak
forbli
##tit
chor
bret
nyare
sangene
##hattan
oppstar
claus
allmanheten
tøn
zah
korps
##licer
idrettslag
##ilum
officielt
avlag
##ettix
koncentr
edin
professionel
halsingland
kond
enor
filmene
##arier
eksil
alpin
arsjub
##skepp
sokte
daghi
##irasjon
frekvens
fortid
korp
religiøs
sichuan
##rach
avdøde
søren
##vitj
halvgra
ghana
palats
astrag
vinterspelen
tunge
ringer
stenen
##lj
##skiner
ellen
hms
##ен
##okse
borjat
ukjent
##onn
spons
afvik
tidvis
vagar
træner
flem
torr
faktorer
besluttede
hunt
##ee
bredere
prat
##vux
eide
særs
reaktion
sygdom
ji
pampa
chann
balkan
##forest
##shem
avgjordes
trist
trog
distribut
tradde
behovet
##embran
vardera
insatser
provinser
hobart
bære
##atnet
##verande
traktaten
stærk
kontrol
masterskap
skabt
frost
##plads
definition
##acruz
teik
hjalpa
##usta
##pos
jager
126
bagh
dannes
mønster
cameron
tillag
textil
##yta
ledamoter
118
vægt
sallskap
tart
grundlagg
scand
roter
kniv
kai
basketball
omdann
tolkning
tennessee
exakt
anstalldes
heidelberg
konkurren
##produs
beskyttelse
halvgrasart
bestamde
georges
##steater
kommande
orter
sovjetunionens
dent
##smod
aviser
brutt
sagde
tanz
lc
##saga
akantusvaxter
##icollis
jacobsen
kotal
##staten
disciplin
detroit
bahia
coron
lennart
##nell
##talt
##actylus
##osaur
mississipp
myster
volvo
synnerhet
tubu
bryll
friidrottare
##iness
##ingane
hogskola
englands
koln
bronsmed
dahr
basil
stykket
fabrikken
##ips
gruva
phnum
cafe
finansminister
socknens
oldtid
varvades
##itri
hekk
fandtes
##ægelse
fuj
eritrea
conrad
episode
innehade
introducerades
beraknas
fjellkj
##igheden
ml
nathan
kamen
newton
paborjades
##rug
##bruck
angaende
##nævnte
ande
##ος
forr
osta
endvidere
vecka
apple
prøvde
schlechter
heliga
vanns
##fotingar
sper
##emia
ponta
bønder
østfold
##vne
##bler
insjo
##eltet
kolonier
##uo
fungerade
innendørs
omgangen
princ
found
gult
##kkene
##found
##stationen
##ilda
obsc
doktorgrad
tillige
omv
animer
australske
juris
##angs
signerte
platesel
burde
stump
traditionellt
paverka
##otal
mottatt
bein
##eback
skolor
internett
snow
fragorna
grænsen
hyg
sjæld
kah
resor
123
##iodes
##attslandor
##ylis
##karriar
bentham
##gatt
elles
aragon
fasta
##ralt
broren
wolfgang
fager
nos
avgick
##sher
akut
megas
upper
inomhus
framgangsrik
##ew
evne
prosessen
cons
##rops
tallinn
svavflugor
##ku
falls
##kammer
baz
##sborgs
hassel
nim
avgorande
kelt
##havs
wit
tonsatt
buc
##enting
forvaltning
historiskt
brin
langst
rens
##hin
privatliv
osmanske
byggingen
bip
mum
##ulium
cly
##work
##eled
child
##rapp
endem
##skrivare
shanghai
ingrid
flaten
hersker
akte
gatan
komplex
jub
flu
##ocephala
boe
rytter
##iya
##øjer
revis
flens
tillverkade
svømmer
##uppet
mud
udført
kommunalreformen
##iac
thompson
##sok
syria
verde
pleur
forfrem
##firma
veracruz
angermanland
newfound
brødre
fordes
##aparlam
narkot
torped
kinsh
avratt
antogs
moll
nept
riga
europaparlam
nouvelle
katastro
bridge
##pad
reh
hypot
flyr
samlings
##tallet
eigen
spark
personliga
legger
astragalus
##valla
kristina
harrison
##navnet
##sakring
##pis
drakt
inbland
placeras
rau
##gaven
industrial
tilby
tv4
spart
##visa
##ryss
brothers
inred
##aser
afsl
##hode
##givende
turister
##osterreich
jylland
##unnelen
##iras
tos
##førsel
studente
malningar
##lay
##roner
tønsberg
##zzo
tecknare
forretnings
##fond
datteren
bohmen
stuart
##ygen
upptradde
##veis
diskografi
ruten
##svetenskap
##gro
##sunds
paz
kungens
kopinghuvudort
attra
spredte
##igny
invaldes
fredrikstad
sjok
lagets
##py
##sver
##svik
asker
skiva
lasse
pico
grasvaxtart
jason
##zjan
##ipa
tavlingar
betydningen
blatt
anbefal
##xa
engl
forenade
laser
talt
brachy
gymnastik
nasjonalpark
boras
##verkan
##leden
##punktet
luxembourg
scarab
province
forbudt
verdskrigen
gentian
udbredt
overvak
fortsatter
hi
ode
babylon
staderna
cerambycidae
##opet
##linga
malade
hakan
forvarv
ishockeyspelare
benytte
hittills
sete
##asaari
opptatt
ejendom
##ilo
1780
##færd
##alitet
##sej
sjøl
effektivt
##nord
##horax
marker
wikip
##krets
valja
invent
ukrainsk
touch
naturliga
restaurer
##chin
##opod
##nerne
annars
gallde
muslimer
nørre
##arskontrakt
varden
tradisjonell
episoder
##akning
prøy
baku
bredde
113
selvmord
elvis
antrop
hawaii
filmografi
venus
titan
lus
##plasser
##bevar
##gavs
paraguay
##møl
decenn
##enske
riktig
1795
drivs
violin
##cium
inger
mødte
##kest
mær
lukket
smart
russell
relativ
##ithecia
##vane
graven
##formis
occit
kinshasa
##ordforande
take
foruden
##ypt
nicar
119
##ulturen
arsenal
carter
##ffet
##ældende
hok
katalog
124
magaz
##sattningen
##owa
hackar
endring
dalt
vg
##ojtnant
##punkten
##punkter
##eset
##gangar
metro
spilleren
baby
skogs
kevin
llo
lyckas
andalus
##ffs
gata
##ned
trommes
##lett
diego
lanserades
aden
##نگ
##ogg
verb
søkte
260
isted
##ekom
kunder
##uve
comte
gyld
nigeria
gonger
domsag
drosophila
##rafik
##skul
##splats
dave
ira
lagar
##oide
##adas
negro
natal
##tex
##essan
symfon
debutalbumet
diet
##tede
##kton
svær
mold
##voll
datidens
tillverkning
eupithecia
##ondo
livstid
substant
rosvaxtart
##undi
motoren
newfoundland
##andare
kara
angust
muslimske
emir
konstmuseum
dame
##redaktor
##ppel
kvalifisering
rothschild
##idu
##roy
##rigen
##larare
fjern
##smuseet
##lude
gade
udgang
##stalla
##opul
##fjall
sup
maraton
stillehavet
statistik
bearbet
automatisk
inbordeskriget
møde
##pros
psykiat
stjarnbilden
##personen
##halvøya
dengang
##oti
legat
tillbringade
hora
klas
whe
##lage
afro
allierede
ll
upprep
arkitekter
porte
uppgar
fjerns
##saks
aksepter
drar
pastoratet
statsbor
arct
befordrades
fland
##gow
##alon
finnas
eksperiment
suver
bladene
utman
aser
##ekonom
husflugor
kanadensisk
kvant
kejsaren
dale
endelige
andrea
##coides
##fullt
##kors
hoj
akantusvaxtart
harvard
nomos
producerade
lopez
kis
godset
nivaer
##leton
##gjeld
formellt
inspe
hytt
lamnat
##brakenvaxtart
##vog
opf
lena
##yds
bekym
lub
##ilder
stammen
lax
mao
six
digt
##adan
##ayer
##peg
##athan
kommenter
##jara
antog
macro
bille
potter
##athus
##bring
visas
ez
well
sefid
bruks
ibn
##ols
wurtt
##rador
##syche
malvavaxtart
kyl
##rantz
motorvag
1770
ds
##27
##uktionen
bærum
ace
##radande
##indi
##øyet
##enberg
##atoren
havnen
bestall
opposition
utstyrt
kjærlighet
hjemmebane
skisk
hisp
torget
kamera
paso
erovrade
##ænder
varum
neu
##alistiska
##pi
##neumon
eut
gjaldt
aggress
anhang
lengste
primær
stalin
normann
rikets
mjuk
erklærte
agen
fruh
117
sarskilda
caroline
##valgte
kvit
raz
etterfulgt
konkret
programleder
##achim
udenrig
kravs
mina
stap
arbeiderpartiet
eck
gors
vob
##leken
##ibi
lengst
ward
##lines
sjakk
##wor
eleon
##xen
##lussteklar
##hir
utstallningar
nintendo
ding
kraftdjur
nou
##zarbaijan
##esch
ostazarbaijan
kendes
##lanten
107
##oxa
##naderna
landsting
styrka
##anal
gosta
lilje
gerais
1794
offentliggjort
mojlig
uppfor
patent
oz
meta
komposition
foreningens
wir
##28
thomson
what
niveau
oppe
them
1798
stjarnan
syssels
hub
##gede
rykte
kongedømmet
##role
aq
dk
arizona
##tan
foresprak
hotellet
studentexamen
##førelsen
planeten
lol
forman
drabbades
kanton
situationen
tunis
ombild
vilkar
spencer
lec
##nica
glen
gaet
##cup
##ryl
majoritet
##varden
##sham
ambassadør
rulle
##bost
##bocker
##spraket
fundament
01
anerkjen
korallart
##ags
kommunene
##asset
report
##æmp
march
graver
definert
fiender
mitchell
utsmy
ambly
institution
underhold
hovedt
##iley
kjønns
hebre
##strukt
julia
verkstallande
ekologi
effekter
##romer
hevder
##skonst
arkebiskop
init
##opper
hedder
##øjet
glans
sjælland
seh
artikeln
ogat
veier
krem
mennesket
myndighetene
sarc
specif
bryter
uppland
paulus
jørgensen
oppnadde
##amente
##satsen
jomfru
levet
sodertalje
##staben
##stemning
tilnær
##kopf
util
systemer
##kogel
avgrens
stere
grunnen
5000
tynne
sater
seriens
##sele
ovanligt
pianist
##sigt
pang
utgaven
infrastruktur
krevde
franklin
kjempet
##orgs
advent
statlig
toll
##26
##outh
asyl
melast
dannede
drew
furst
musikaliska
##østen
ferr
wahl
muligens
##etown
##uly
utstallning
winter
euphor
two
sikkert
1799
##ал
##edonia
afric
##centrum
##ifolium
vamp
offentligt
270
girl
##fys
heraf
mottak
##vogn
##skinn
pack
toy
mulige
##republi
planten
##ptus
fangst
##opteryx
protok
specielt
otter
arve
mile
konson
gha
efteraret
##kommende
paminner
skille
forsoka
hc
tidningar
kraftverket
##jab
glaciar
elektro
mccartney
##skra
##teh
formodligen
sociale
1758
##smass
regeringens
vend
##iscus
##acia
hindu
aleksander
ef
##kjø
skipa
##landshold
midlertidig
htt
krag
bataljon
suk
##istent
towns
##dning
##اه
nationalmuseum
prosess
##rolle
mengder
deutsche
##lier
##illus
##oura
##uddann
besøkte
aster
ced
##øring
gyeong
walla
sundet
add
ond
fral
svea
##asjonene
noveller
borgerkrig
##ffel
antis
asc
forældre
larven
chat
immun
flekker
channel
opptak
beskrives
##orienter
##brev
##leart
kani
levede
joachim
varmlands
##include
attent
serg
palmer
##utvikling
kings
##xia
deh
afsnit
konung
##forsker
oplev
##agnet
##retter
satta
høgd
fornlamningar
svard
##flaten
sammenlignet
cyn
nedslag
##vergne
etableringen
etniske
##material
##prest
nal
leh
##sku
##udvik
dete
unik
##format
dou
utsikt
tanzania
formalet
habit
annonser
wurttemberg
japans
hittades
servic
##alais
takson
kompositor
gira
##ovis
hels
restaurang
pec
##isser
ratten
ingenting
##opon
merke
hindre
omstrid
danse
mobilt
arbeids
kreft
iver
gjent
artilleri
##haver
ulov
cocker
koudiet
virksomheden
skudd
tvungen
##følge
keiseren
##annande
boet
uttalte
anlaggningen
skelleftea
era
okar
##jav
zel
norte
haute
inneholdt
##skift
yout
##anti
snitt
##kons
spele
betydnings
ana
judar
dialog
##aming
borgerkrigen
wim
##geland
sakalt
folkeparti
saw
schult
organisasjoner
tomt
silvermedal
musikalsk
portugisisk
ansvarig
mia
belgisk
psykologi
norrbotten
hjemmes
tene
edgar
##legging
##familie
tipp
##holdes
news
korg
linkopings
bask
aktenskapet
uv
barrage
geng
flyktet
wid
forvant
skam
senast
##heh
radda
##storfer
grænse
utv
plynd
vekk
detalj
##rimin
anark
##ualitet
størsted
116
testamente
##istens
handelser
umm
##myr
kacker
coast
bachel
borrflugor
dragon
##arbejde
tilfelle
##epresident
vistas
institutioner
##donald
beund
skada
dug
lum
kald
##atha
huvudrollen
hendelsen
##onenter
forlov
mesteparten
lombard
upplaga
langror
hult
farm
herrgard
##sbladloss
lyon
##dern
103
virksomheder
##istiskt
doden
langrorsbladloss
skivor
manskliga
syrsor
kirimoj
verds
bromsar
##lackor
##deleg
sudan
1776
##cock
utvecklas
summer
forekommande
øyg
##unnan
sham
handlinger
##egang
forsvarets
ødeleg
forhallanden
##quia
grann
##stader
##ligevel
auvergne
selvstendig
##bøker
kag
teatret
##asjonar
pensioner
lennon
ya
##aculata
parana
brow
nederlandska
kompletter
##esis
fint
fruhstorfer
##øyd
figuren
lloyd
paa
mangder
ida
##øte
indt
federation
darifran
fantasy
##drift
fora
alligevel
rekru
tilpas
##onso
##avlingen
##ariidae
interess
##isionen
partiled
##sea
løse
##korp
uss
øyane
folketellingen
singelli
iden
pressen
stridsv
overvint
rt
##vinger
##regiss
tettsted
##verd
skrid
##namns
klostret
porter
medie
##iton
##light
##hals
salzburg
argument
romania
bala
avrinningsomradets
utvikler
georgien
sallskapet
skildrar
utfard
##afrik
særlige
##lid
year
borgmester
mata
gyllen
##ovich
kva
##bir
butik
oreg
##stans
skin
leds
antoine
##eka
falken
retur
##skalk
sirk
##stjanst
enheder
simulium
fogder
perm
##neth
borgere
tau
##resser
vagn
atlanterhavet
velly
##endent
##angdong
##cata
liu
skatter
spid
##entrum
amir
riksvei
koncert
tilltradde
forklarade
sate
syftet
kommissionen
##sblom
stoppet
strackan
##fect
takket
ortodokse
##arde
##pers
##biograf
gravit
forsker
markerte
pseudony
kaukas
skildring
invald
uavhengighet
anvendelse
duss
##kost
delade
eag
##omorpha
broll
##vekst
klatt
vasterbotten
strekk
##uger
##sik
jamn
halland
##graden
ratte
bibelen
uttrykket
##imon
##issima
vejle
organist
##zh
##slan
redde
##gam
hebraisk
ice
##assen
styrte
eksplos
##stjarna
missouri
verdensmesterskapet
hiro
flydde
medlemskap
golo
##aha
aterkom
##anderende
samtidige
forflytt
tiltak
##slov
gitarist
##ccion
schaus
##arskap
##skill
bagge
ditt
##antik
flyfot
lenker
##egr
##irer
sistnamnda
berber
kep
foraret
##olet
feltet
bytt
kyrkogard
levnadssatt
diss
tales
abel
##miljø
##fader
medisin
##sse
##omma
vasil
##utte
sakrist
jesper
##ilian
utflode
##kkende
høyrer
##akare
karel
atskil
sarah
##mende
##alten
kjenner
##rius
medborgare
kamerun
edinburgh
##bey
1797
##stjeneste
magdalena
##bind
lister
politiken
gammelt
oppmerksomhet
personlighet
clem
valuta
coen
labrador
##fu
##uria
hovet
lup
yaz
lagkonkurransen
minskade
orientering
gaten
##gis
kunnat
brygg
radikale
instruktør
oversiden
egyptiske
sjong
forleng
utstilling
##neri
museer
odleart
gardar
##ademin
byggas
tilbak
280
##arbete
##chs
manag
tort
lex
##cao
entrepren
##priset
tower
forhindre
størstedelen
##alth
guden
melastomataceae
kelly
emner
##nin
belle
##skarriar
1788
rafael
fredet
elektrom
undvika
seneste
##jem
grammy
bryt
beteckningen
##ssystemet
##avs
##shamn
eriks
triang
quin
##igo
watson
##inosa
##asser
centralt
dukket
lederen
mjolk
optradte
romerne
jury
konsekvenser
##esisk
tilg
malta
1796
singapore
##foll
indire
sørensen
souther
kanner
analyse
karlstad
wan
114
raud
viii
enke
##jol
skarabider
sork
fabricius
ili
domen
fjernsyn
##stuna
naturvard
medlemsst
ytterst
praktiken
##sklubben
folkrakning
##stjan
vigtige
##roch
etablerade
kropps
tell
ari
##atts
eksperimenter
eun
halvdelen
matthew
jura
souss
budget
fib
bulgaria
##itsch
utara
haver
gjorts
stuttgart
artar
usikker
betala
##ichth
umu
##shovding
hallen
bevegelsen
loi
bevil
leia
isot
##rustning
##kandidat
sti
##universitet
##akken
##uco
##mesterskapet
turneen
##ikkens
qarah
##stande
ming
banker
finna
linda
stones
playst
flack
anledningen
##lopare
##ка
##romy
distin
cem
##center
##stur
erfaring
##stør
tidligste
space
rach
boc
##ries
variabel
mozart
chem
lasa
##medel
skapar
tyrkisk
tilsammen
anka
##ivo
rubus
gogae
sjof
carn
gonz
legendar
tobias
teat
flit
skjut
utvalg
huang
##funkt
##cum
##heid
kristendommen
##forda
##amerikanska
##heit
vinden
opptrer
##eksam
##brød
holdes
fanget
##programmet
hinder
##skomp
##kampen
malerier
scorede
insjoar
længde
##pes
##user
##ktoren
clav
##garde
##attle
##oldater
ideal
aman
##acan
frisk
oak
chu
kardin
opprøret
##omradene
##stin
skule
troligt
playstation
ændret
wald
##rummet
kontrast
azerbajdzjan
markant
giftede
bryssel
##iset
tillfalligt
clement
##dik
synonym
mexik
stamme
ovansidan
grundlaggande
kie
medi
##arsus
passerer
medarbetare
##antis
larde
fangats
skydda
##ftt
traffade
andy
radsomradet
hverken
samfundet
##kann
##ensk
##odet
##rins
salja
kartlagd
konstnarer
begynder
græsk
750
erstatning
revol
parallell
oppfatt
##rone
##ocal
australian
broadway
##artik
oppdater
situasjonen
bidrar
galleri
engang
derby
##rera
frivillige
hd
##yggen
besitt
aterkommande
sarp
##orra
geneve
scarabae
##yna
alesund
kanna
edmund
utenlandske
bremen
namngjeven
##oud
forvir
hansson
aben
##æle
##ømte
skandinavien
kyrkoherde
reager
biskopen
avslutades
kiev
spur
traditionen
utgangspunktet
##sfall
sangaren
placerades
velge
døds
elsker
tekstil
chiapas
##iox
##gelige
##sjø
farver
udviklingen
utstrackning
cres
##partiets
luxemburg
grundare
foten
dykare
ljungvaxter
tillfalle
aux
bedrift
kunt
dominerande
skador
neil
wikipedia
korde
##forare
##landslag
business
oprindelig
##area
jal
sip
##leri
tidskrift
utmarkelser
##orin
##ulis
følte
##cessen
karib
##ahu
fattige
vækst
nur
##iert
##neren
tier
skifte
fett
rop
##essel
stjart
##galler
generall
##bladsvaxter
katedralen
##ml
radiop
lantbruk
cic
most
nordostlig
skøyter
spion
præget
sognet
magall
undan
introdusert
kandidater
proje
##æder
##ymnas
##knipp
kyrkliga
saret
##ents
##irs
zem
##eo
amatør
løsning
burma
gotlands
inspireret
elim
fren
chate
##borough
trondhjem
eud
##atu
kontakter
mb
bokstaver
##inett
ordfør
nærliggende
paborjade
##ellit
olja
##uke
philos
##cula
utgava
opmær
slutar
utbildnings
nordvestlige
##redaktør
anhangare
##herine
allierade
medicinsk
tidspunktet
opph
dods
søndre
llan
##gtede
eumen
kvall
forsvarsminister
herfra
clara
memor
##seri
##iman
haag
##chan
guan
mader
1791
grønn
##utskottet
utvecklat
megaselia
gut
ozero
##cept
ifrag
bird
undersidan
gabon
avst
##domen
deltagit
wis
trio
defens
blandet
økende
senteret
netop
iss
poec
##vang
breda
kammaren
tetra
angrebet
##astra
nedgang
tilskuere
##jning
saab
sidene
vaningar
knight
kyrkobyggnad
ahmad
becker
1660
##styrke
brigade
bourgogne
baserade
beslot
mistede
nordøstlige
fremmed
liberale
yan
##mart
forsvare
norrøne
garna
##ieres
##angeren
##spolitik
dion
magallanes
##eir
##bukta
stillinger
##armen
##riller
rytm
islandsk
kosm
beau
agnes
sundhed
##29
##ienten
##ages
behandlas
pim
guangdong
arenan
##othy
bryllup
planerade
##ckta
indiana
absol
stoppe
deep
##azi
##nit
##rax
beholl
lejon
fløj
cetoniidae
psil
ufor
skur
##ady
##weg
##rema
##ichi
southern
320
køre
##stenen
##bibliotek
##ogle
rodlistan
glem
##stjer
betegner
##okken
karls
##alpolit
præst
##faltet
nairo
megal
ungarske
augusta
##onna
enhed
clad
ledningen
##dotter
kjøret
kaptajn
kulturer
##kvist
##dyn
1772
essa
##hastighet
meyrick
aleksandr
##umi
jobber
amaryllis
dottern
occitanien
underviste
harp
stigende
verken
roberts
restaurant
1750
elisabet
hoffet
svans
kidna
omedelbart
equ
utstallningen
utvecklats
pard
ubat
provfiske
ink
##obi
residens
##illen
filmerna
##egal
##hiz
ramme
mesterskab
motsatt
##atera
streng
optim
unionens
geografiske
invasion
##rogrammet
##skjer
##ested
##apan
##ograph
jonkoping
tungt
serbien
hare
iber
##ranter
torv
never
##skjut
revid
betjen
##ouan
soka
108
bygnings
okat
spørgsmal
##direktor
##yes
skje
johanna
alfabetet
kristi
judiska
racer
vitenskapelige
primar
primære
noll
##gens
hvorfra
prototyp
##vavarspindlar
nasseld
push
##sterna
hander
tackvavarspindlar
undersokningar
asper
##sforbundet
nina
اب
vatmark
kitt
yunnan
cancer
##illy
proven
seat
yn
##elet
nylig
##løjtnant
kategorier
##court
oppløst
utbrott
mesta
kvinnen
balsam
##remedlem
framtida
##ningerne
##arkiv
svak
journalisten
lattare
dendrob
##dingen
##løy
radiost
lust
arbetare
##anza
kommersiell
ingeborg
fæst
storsl
herald
##anea
høre
youtube
chir
##sdalen
fantast
gottfried
desto
erling
court
nogens
trykket
snyltro
##ules
ryan
nasjoner
##kriget
##ingsb
elmer
vannkraftverk
kind
kenneth
naw
##oloph
vandring
##straff
strekningen
forstand
deltager
konverter
perifer
artikkel
schon
klubbar
1787
amarant
opptred
zyg
##lava
hemmel
hut
illeg
helgen
venezia
collins
roland
##kanalen
##trafik
aeg
##elte
tillhort
##smuseum
onlyinclude
women
##lach
libyen
bekost
pyg
##alar
tavlar
halsa
processen
##nac
barbar
trekant
læge
ockup
semi
alab
##rei
##ulla
behovde
kurdistan
malaren
tradisjonen
helen
begr
m²
##nick
miles
##ebok
demografi
##ctes
virkning
##bock
##bein
antikken
tapet
##resjon
bildat
konserten
##vende
familieg
tik
capp
##fjella
holger
jerry
xiv
##drakt
##icz
##istik
##ammen
styrkor
konsent
##gotlands
rutelidae
##olar
##avis
tjekk
##fagel
double
fm
revolusjonen
##gru
##eksped
norrbottens
kec
##iem
##sikt
amnet
byggt
organismer
##stykke
pask
helm
skien
versa
village
inriktning
yorkshire
stumpbaggar
utfordes
alk
austin
vanlegvis
rets
afton
touren
berattelser
dov
flyplassen
tjente
knappt
##niva
chelse
##uston
fotos
marknadsfor
##azar
arsskiftet
litterara
##produktion
skildra
fifa
overk
marina
##owski
##vingen
bebod
rant
maritime
##nek
adolph
##oclad
clarke
jonathan
handlingar
menneskerett
omt
##svær
fabrikk
##ulon
##radde
luftfart
frog
hager
##ranser
##inspel
plattform
groß
nede
overlever
tidligt
sibiri
berømt
nt
chry
tian
overen
suff
nogensinde
stoffer
##otisk
bygges
svein
##raten
hushall
forknipp
##emy
utpe
##gjande
zab
##komiteen
##dikt
##deler
nasa
##enhet
##ateriale
##sja
kann
minde
stalldes
warner
##ronen
aka
##ligheder
##snavn
clo
##gate
samst
kommende
tviv
astrid
lindberg
zhe
claes
rist
##bund
daw
##roman
vinnare
##bbe
##reis
tes
##uno
chong
freg
##elege
sainte
##kommit
nicaragua
eumenidae
##ininga
##deltag
verkstad
avancerade
eskilstuna
vista
tendens
begrep
borta
brune
hammarby
connectic
##repp
##egu
klan
kjøl
daligt
airlines
##alu
garcia
rummet
##enbach
esf
strider
gm
nynorsk
brent
hvorved
signatur
købte
tidene
vals
##sfri
okad
tørre
trommeslager
eventuelt
dygn
græske
pauli
##formand
sjukdomar
mottagande
##sud
##øye
oversatte
##gh
mez
##anstalt
margin
##lemann
vingesp
##adin
segrar
dix
australsk
folkemus
aure
avhandlingen
atal
garder
britene
stykker
trigon
mandag
##version
##sbru
nurn
ekskl
carlsson
##tegnet
##lob
spissen
barns
fristaende
##hoff
hardy
syndrom
##uridae
godkjent
##ittiske
nytte
vite
bronz
##oraceae
fries
baner
tev
vinrute
betyda
skabte
nairobi
##uenay
inspelningen
copa
arden
saguenay
morf
loph
##orph
##rommet
##ariga
utrym
huvudroller
##skare
puckel
tide
falun
korsblommiga
visby
##ukke
##arka
know
##igheterna
##itan
##opio
bates
adrian
asb
losa
wes
##hojd
kambod
konsept
rekonstru
sah
edmond
kackerlack
##stern
##undervisning
snyltrots
udvidet
osterrikiska
oppsto
##købing
##anlæg
stiftelse
budde
##ин
##forsvaret
buntu
magazine
##asu
halvan
radar
virus
##roder
trask
latlista
produserer
bowie
##vanns
##ibel
karr
##øyt
skutt
nordlege
success
##usse
samlingar
oppgaver
langrenn
musikalbum
sørlege
patienter
alexandria
naturskydd
constant
akademisk
restaurering
##leh
varpa
##mingham
##horns
visste
##ropis
librett
hidal
wah
overtatt
##entligt
handen
bronze
olavs
##lapp
vardag
##ococcus
forenkl
medverkar
##castle
dallas
ghowr
kategorin
titlar
forskjellig
borgerliga
##bjørn
tofs
mercedes
hauts
tegl
bostader
uger
laura
rudolph
sekret
georgetown
uppvaxt
amm
møder
driva
genomgick
ultra
svarer
perfekt
uppstar
drepte
forstordes
shand
weber
villkor
tettstaden
skulpturer
kut
pep
##chsen
##hallande
hunder
bruket
fullført
skilda
kackerlacksart
dendrobium
imperiet
fitz
ragn
speciella
blag
publiserte
fødsel
vagrade
##elos
socker
lamnar
flertalet
laborator
kostnad
øke
##roe
##stallda
potosi
moske
mini
kronan
forvent
ata
##pus
##elo
vestover
alliance
##ratts
week
##handa
tiger
antart
##xx
##ynene
nasjonals
individerna
etterpa
##talende
culi
##geri
##arkivet
sigism
tyran
tjenester
avgjørende
online
begransad
##ible
havdade
tox
##endor
retor
rettss
hedmark
utomlands
muhammed
tut
styrken
østover
ektemann
##uw
##slen
##hua
##onserv
##forslag
ljungvaxtart
gjø
tunnelen
passerar
02
raff
sandsynligvis
kravet
parlaments
nack
fjellene
okand
skadespeler
##ulation
##ettan
vilje
##øje
innhold
##sband
hedvig
bockerna
klag
maud
hvori
arkæ
forkast
bevaret
fangenskap
hebreiska
tord
##ordet
##snas
##uls
halmstad
ove
##لا
##artade
joy
isaac
laht
emile
resterende
##amba
symmet
dhaka
neph
esbjerg
rammet
mande
pong
pioner
rita
representere
alfa
pors
eil
##viv
gry
##gaet
melodifestivalen
mobiltelef
##jup
typh
blood
foundation
##dele
barang
walk
begrebet
bakkroppen
flandern
##følg
indep
##ław
forsvarsmakten
finglanssteklar
gator
##hao
express
kavaller
anomala
age
##ech
aboland
birmingham
cyan
lur
eksisterte
nominerades
kyrkbyn
##værelse
upptackte
chilena
wallen
##reng
butikker
arkeologiske
formet
christoph
høyester
gennemsnit
avgrans
cert
##snack
##ygium
analys
bakterier
euphorbia
##sje
##annon
fortell
##espil
myrdet
kentuck
##stater
##inns
enna
fodelse
##belte
kuk
rettigheter
1781
malaysia
oax
søen
chapman
foder
fungere
konfron
raven
isbre
motstandare
pacific
doh
kaldte
frihed
caes
flint
##uelo
##opl
støtter
##organisationer
varianten
eik
##endrum
uppman
legem
kretsar
##kommere
##skrip
aktiver
tens
vang
##sholm
neo
halsen
galile
grunnlov
helsingborgs
##ockeyt
##uu
anj
dialekter
rip
##esiske
##opis
satellit
canadisk
gracilis
voksen
merk
##eprod
ration
zheng
genren
granit
kusin
##skur
forfattade
dolok
bergman
skihopp
afrikanske
##redet
sodermanland
##formann
arrangeres
sverre
mississippi
qor
##osom
krum
uteslut
darigenom
salvador
malte
christine
##رد
presset
munster
moln
oprindelse
ericsson
seieren
veckan
rektang
ruter
##stierna
##vold
##smin
##jong
fremstilling
datama
ule
spet
fortsetter
nasjonalt
glasgow
socialt
næringsliv
opphold
universal
eies
landbruk
bars
##samisk
micha
punt
afhæng
lic
##spark
okkupasjon
##synt
zhejiang
330
skra
territory
##motorer
inngikk
##eleder
undergr
kongress
vattenfall
tammer
majoriteten
##melig
##bered
##ugan
julian
##ibia
svampmyggor
##historiska
##navne
jel
pest
##lingarna
henvise
kvinnan
ungdomar
##itive
wei
doll
milan
##isterne
record
patriark
##shogskolan
chelsea
pry
##igu
evner
stev
kortvingar
falster
nicolai
norrland
nautiske
##slø
dramafilm
##ethe
anvant
jarnvagsst
##god
inloppet
turisme
utrustning
positive
##tager
yrke
##italet
frakt
##gau
fase
dartill
manliga
smar
richards
succe
fres
opgave
lorra
langhus
forlate
antartica
##arige
unter
innbyggerne
matematisk
bertil
vokse
pion
##ologiskt
##bygging
kommandoen
##ygd
##lagda
livsmiljo
1760
nin
##uis
arligt
kora
##orr
indbygger
peper
ivrig
behandlar
skyte
##iformis
rangers
noth
##ulatum
benz
##acht
mesa
begynne
##cat
##unct
behandlingen
eke
##amia
spyd
mojligheter
##bruddet
mæng
##jek
gruv
munch
svagt
##ubbel
late
regissør
sut
stord
gary
##standet
##quet
cathar
##ulidae
sele
klaus
##akar
tilbyr
foreslatt
storby
vagbin
landsbyer
##atorn
tjenestegjorde
konservativ
##angan
fortet
skuespilleren
konvention
##steori
##yng
##tyske
jae
ligge
knock
betydelsen
gravlagt
fysikk
vetenskapsakademien
teoretisk
##kok
##smæss
halden
undersiden
franche
vitenskapelig
duv
laz
symptom
ralph
frod
kf
avgang
##havnen
diktet
alderen
auktor
lal
oec
##kler
##bba
##iskan
indgik
steven
market
færre
andalusien
nyslott
stallen
##uku
##hardt
aristokrat
hidalgo
pjasen
motsatte
generelle
athlet
stærke
konsentrasjon
omnamns
##anto
tunga
ankn
tillverkas
##struktur
elites
intermed
phoen
tillatelse
##ktorn
søgte
zimb
##eringen
##osition
half
gælder
jess
tech
birgitt
##møre
##ingarna
phylla
flyfoto
##ivi
albin
julie
saknade
utomhus
orb
##apolis
##swick
hudson
anerkjent
##stran
huvudsakliga
boende
##række
sandnes
garnison
##gul
##yren
##tida
##advok
jule
forsor
juridik
##visar
trea
gutta
enheten
counc
coh
##svenska
dalton
##akers
blandning
produsere
forelas
initiativt
passion
1783
register
steiner
papua
hs
pump
øer
##rake
forud
cienaga
bella
nassel
darlige
deltagande
oppgave
generalgu
borgmastare
pink
kyp
##kjen
festning
refererer
##pid
##stillede
vord
tillhorighet
skrives
##vatn
nek
inndelt
##kendelse
##atorisk
tilsvarer
##asinet
gymnasiet
voss
##ulasjon
sket
baj
engagerad
fejl
sammanslagning
vinder
liby
borne
daglige
##pladsen
halvon
isabella
##journ
##chten
dani
uppdraget
cod
##utton
embet
perry
svek
søk
##ebli
##aktige
##ند
##bilder
økonomien
fungerede
hersk
minskar
foregangare
sympt
##aplan
##ucent
kross
##bladsvaxtart
blanco
forekomst
vegas
regjeringa
gramm
hjemm
napoli
##sforeningen
##yss
##riter
##opar
##kommen
motorn
spillerne
sidder
galli
kvalificerade
ombildades
stevens
afgørende
karakteristisk
destin
##imens
senat
speed
carex
askadare
puckelflugor
utvand
rorande
hittas
utfora
reka
diamond
spesiell
konstakadem
##rød
##berne
##ampen
kapacitet
omfatta
blodet
matematikk
##idt
##sbanen
forskningen
rana
orlog
gjest
guvernement
xian
paral
materialer
##staka
##varn
foretagets
limn
samarbejd
connecticut
ikon
phae
historikere
tammerfors
slalam
larvik
##zzi
gress
udelukkende
baseball
##polen
kuopio
##ylum
foljdes
odling
##debut
##ssven
biologisk
##rox
lastbil
##verdig
endra
##acea
clinton
overtogs
bomull
administrerende
færøerne
##him
##ymer
soundtra
##sjæl
mekanisk
##bevegelsen
tbil
import
ravin
perd
jugoslavia
##udet
sind
seine
veliki
betraktet
vedlike
immig
kiss
##idig
fusjon
beløn
margrethe
eisen
##ems
##ellata
##talbum
tvær
##ference
utrikesminister
bunn
hr
konsentr
klein
zon
sæd
wisc
##oras
berlins
tjanster
dasht
nurnberg
ege
dertil
vilja
morka
kvartsf
paverkar
mølle
pyramid
buksam
returnerte
##etninger
stik
##selskapet
kalendern
polk
hvitt
bren
bedriv
forholdene
gestalt
bohuslan
sture
traditioner
snorre
gau
slem
stern
eddie
portugisiske
epidendrum
tsjekkoslovakia
zer
##igar
##ophus
forstyr
israels
chop
1773
##alg
cole
bilden
sack
latskrivare
ophold
##ession
obsjtina
ansa
sektor
sportsutøver
okkuper
segern
patrul
##riget
døtre
electric
konkluder
##varm
tach
gjennomførte
people
yards
##onent
##shi
sanskrit
##permum
##kun
relationer
##idde
skær
fattigdom
slægten
pis
ted
##iche
sola
soloalbum
##jeneste
storharkrankar
klat
export
1778
krever
alvorlige
##ouch
##amatcher
##iaren
skud
##undes
comeback
##angrep
ockuper
##quel
oval
##ecken
##strang
vender
phyllach
stadsb
skytter
dennis
avsatt
##areh
kabel
hiphop
buksamlar
hax
huden
##alle
intress
##brune
natverk
##egaard
nott
##oridae
grunnlagd
buksamlarbin
##odden
arealet
typiske
mck
nice
kilo
enstaka
miljøet
xia
##uj
##dat
1782
##datter
marcel
krigens
petrole
##steatern
handelse
stalla
##vering
houston
##setning
medvirkede
kærlighed
oppford
muligvis
sord
høgre
##rykning
##kers
skapat
symboler
klem
della
harda
keyboard
##bie
filmin
kompleks
populart
marius
djurart
vinger
kashmir
bretagne
slave
andrade
framforde
passet
diagnost
øjeb
##ellem
kommission
1785
kentucky
gim
hei
lyktes
brunswick
katalonien
stede
grundat
##lips
omf
overta
##svoll
hamnen
korrespond
boeing
##fell
klader
##alparken
flygplatsen
champagne
##mex
ostergotlands
##ksamen
brenn
vandet
varken
platen
dynasti
zimbab
##roblemer
##kval
licent
spænd
innvand
krone
aktuelle
ritades
vedtok
beordret
##orerna
louisiana
##smænd
spise
turen
forføl
ekman
komplek
##skanal
tempo
avisa
riktigt
hovedsageligt
##teckning
##apel
##vinkel
fiolin
tyngre
##bys
flygplanet
##veld
echin
##pil
##angi
senatet
##selva
medvirkende
kommiss
femt
doner
ruth
##utbild
segel
utgivelsen
sjukdomen
etnisk
akvar
ged
##mine
##sfj
kombinasjon
eftertradare
fiktiv
oversattare
##osex
##jep
denis
svarade
stundom
uansett
##lekt
##opsyche
##sfart
fraser
protein
alternative
syvende
cockerell
##vægt
elitserien
tripoli
bau
produktiv
emblik
mtv
guangzhou
presenterades
komedie
##krat
##adar
##rekk
##leby
mauret
grunnleggende
##rygg
##bid
##ilin
##ivaler
##denes
##representant
legenden
##unculus
##haven
voksende
##ии
paraly
inspirasjon
forfremmet
rover
inhem
berattelsen
hollandske
ait
loh
antarkt
undga
##familj
myndigheder
atervanda
##leker
schne
ljusar
##otiske
linde
samlinger
##skyrkan
krigsfor
moderat
##schaft
ibsen
arrangør
olaf
ket
universiteter
ltd
optræder
ht
##idaw
##ropp
##oshi
friherre
burundi
skoldlussteklar
korset
endre
rhynch
strategi
innlemmet
##ikh
##stach
##qua
intel
fangar
ankomst
utlan
navnene
##ason
rykkede
antioquia
sesonger
ambetsman
modtaget
##maskin
scel
islandske
unntatt
palestina
muren
utspring
achille
benamningen
##fle
##lima
debatten
krediter
##xaminer
##arit
igna
infekt
forrige
bedrifter
council
overvag
franca
klor
1774
##bron
kjøre
stephan
bae
framført
kiruna
avser
##alk
avdelning
strategisk
www
##ardens
##achal
westf
udenfor
650
##busjon
##entz
##entrus
sieg
karol
##instit
##sig
licens
provincial
shen
##sministeriet
##nastin
##alyp
tilslutt
prosa
##span
ekonomiskt
vega
anlit
##delses
karolin
kram
triumf
##vækst
omhandler
##læ
ingaende
marion
merrill
virksomheten
skots
engasjert
##aktiga
##gy
muhammad
orchestra
##orlunda
enige
##klok
##kommanderende
statsborger
befatt
dela
haus
newcastle
harm
abc
bevare
demokratiska
##ingeniør
ungerska
nære
ulik
##kina
##andi
faltt
fjerdeplass
##isto
vackte
gigant
sykkel
provisor
tyg
marse
##estrad
##ryter
##acher
lise
anlande
##artiller
1777
##prefekt
##regjer
horison
regisserad
bust
beskyl
##delinger
befann
carpenter
nærheden
kriterier
cran
gongen
##zeh
##ittene
amator
kyrkobyggnaden
karakteristiske
mohammad
rack
##stit
abne
penins
ufc
##ryn
belast
tabanus
serbisk
senest
##igede
udgjorde
fodda
mein
dramatisk
##hat
##adisk
##laggningen
daggflugor
belonades
wisconsin
cox
forvek
hertugen
embrik
blommor
naypy
##hart
##berry
blade
ansiktet
naypyidaw
forstad
1763
benedikt
oppland
##iteruss
##abo
lyset
##orier
##olan
indgar
drae
barangayer
lorraine
##lau
regementet
guilla
##romis
saks
givit
vasterbottens
bevegelse
forhandlinger
bornholm
bruno
lakemedel
beskyttet
##soni
diff
##olata
##ratter
identif
celle
norrønt
bjorne
utgivelser
fabriken
##bong
laus
elaph
kjøpe
##celli
##roth
boz
hamna
rumanien
ceder
kakt
##ulære
##jarneart
fremgang
stammar
ritade
djupt
atmosfæren
##omme
kome
hunger
stemte
havnet
##yllus
temperaturer
second
plater
break
faderns
##huse
nettverk
erbjuder
guerrero
tilpasset
forarsak
publiken
##itra
attonde
danser
absor
forbedret
discover
nip
serp
generalsekretær
oland
##allskap
omradets
brønd
##nats
##kos
pagick
stilt
underteck
1786
##emonien
##itation
parallellt
##incta
ptol
schwarz
dn
##kred
##heus
natural
kinestrad
ukrainska
ersatta
mk
chri
##hail
avgjør
huvudrollerna
ntn
p3
##cktes
##virksomhet
avlid
vennskap
koudia
fremstillet
beteende
salomon
okant
pott
##ingrad
alge
regner
svin
##roma
adopter
##union
høvd
secret
kvindelige
crem
##stallet
smek
beskrive
schleswig
frigjør
canadiske
straling
cordoba
cirkus
sjølve
pite
##planter
medarbejder
styra
##sgruppen
tbilisi
##opot
betalt
shek
hjælpe
##obel
fugler
civila
fængsel
oste
genomfor
slett
##rettede
skyldig
##arene
##regering
##chard
##temot
saud
krafter
wick
regionala
frekv
##ilden
juridiske
gaden
jus
trach
##sparken
##iera
mottog
##typer
undervisnings
databasen
nitt
skr
tamil
steel
luck
bmw
ostersjon
guard
operas
dakota
sigismund
apent
bevisst
yukon
utsett
mild
tegner
##bidae
##skrid
##alls
rekorden
##væsen
##45
##lect
##ischen
duc
omrada
##attning
gruppene
folketing
behandlet
ion
##bow
##andro
isid
særdeles
1784
fungera
sosi
utexaminer
lejlighed
##gir
##ст
slutspel
history
##faller
originaltitel
forra
steklar
gadda
##sverk
##fera
wallace
##anz
landskab
leil
##ibal
##aktigt
calli
anstallning
parallelt
bragte
strekkjer
##ocent
##lieb
selatan
silva
skribent
ovenfor
oron
vegne
##opterus
##emeinde
prev
kaller
berger
##oux
##thes
##tradt
hornet
fuldstænd
samstundes
##komma
justiti
##ctis
virt
styrels
##ijk
størrelsen
##snackor
astad
##andel
##kek
traditionelle
hua
devil
markert
##styrker
##ious
klimaet
uge
##anor
afdeling
praster
bolagh
isk
rundmaskart
uganda
trummor
misslyckades
kau
##key
vedkommende
vektor
willem
rakt
tycks
lovisa
skilsm
340
ect
three
farve
backen
##rations
manniskans
nordir
granser
evaku
lavt
nævnt
rosterna
bobby
jamtlands
##iermark
wayne
wul
##sdorf
sd
##lein
ell
opplag
kongsberg
peters
##opteris
##rocer
parkering
prinsen
joao
kvartfinalen
dottrar
aphod
linn
##okko
orsaken
##other
perfor
freds
##joki
anse
syge
varldsar
reness
trenger
##platt
gond
etterfølger
deltakere
middelsstor
##inan
storst
besvar
godkjen
eugenia
raw
kasakh
hamnar
versjoner
innførte
kenora
hangar
oregon
##lamn
##meld
politikken
##driv
darav
pulch
tina
stiller
playoff
##ilet
ostersund
hovudstaden
skillnaden
rup
parat
##essig
##runden
tiderna
levi
geoff
kosa
birkaland
jemen
##avut
liberala
##rice
##nev
##slar
gjens
toget
emanuel
##ams
globe
numer
sjunger
fisher
##unne
skak
menes
plur
conserv
sjalvmord
anklaget
pettersson
lott
amund
edwin
tavla
annex
eleonora
kvalifiseringen
sammensla
træn
beteckning
mengde
skod
##harmon
thun
campus
plots
artisten
fastigheten
##sporten
radikal
setter
atgarder
karbon
##beratt
##iserende
bildet
##stipend
pladsen
##ampe
##historiske
jah
boliger
viti
oklah
vakte
tryg
astana
utokades
##administ
klassif
westfalen
fay
forbru
slutspelet
foreldrene
skvad
##kerna
lubeck
væg
beliggen
kolding
overgiv
desc
reda
ultim
550
##rationer
##ationerna
##mani
udpeg
menneskelige
##verksamheten
brigad
scler
offensiv
reflekter
##evelt
forsaljning
oaxaca
##akan
##fyll
##oso
innbygger
veta
oy
##main
blo
identisk
arte
##ovan
##varende
kvalifik
madsen
##resultat
opptradte
fiskeri
ambassador
sannsynlig
bestyrelsen
roosevelt
ns
fjellt
microp
##ættes
##adende
utvin
palsen
nokon
##ichthys
popp
thy
betegnet
sammenhen
##fotograf
gotalands
marianne
musikkonserv
repert
##vattnet
dækker
##oas
##steins
bakre
insats
talas
atmosf
poecil
##hay
##gat
##gning
##osial
plum
advis
hew
solna
charter
lamb
grovt
brunn
utbredningsomradet
gog
kog
##ridae
##vogne
spiser
##flok
cemeter
##jakt
chok
skaper
##fulgte
innledende
sekel
rugby
enorme
101
likheter
als
kommunala
management
##skogar
naringsliv
##kust
##onium
singlen
##cheong
##forenings
northwest
##aborg
flyter
quer
##ulering
##ikten
living
##iona
##jeva
pargas
simpson
##finn
tvil
agdes
hensikt
cuc
tiv
udn
mangfold
round
makedonien
mesterskabet
##lementer
kanten
isle
signaler
adresse
##amling
stof
afsked
fortel
undervisningen
maximilian
cemetery
##aq
riksdagsledamot
herib
flygvapnet
##ocerus
##lington
##sjob
universitetets
skjønt
innsbruck
ydre
##yris
demningen
konrad
byta
##icha
##eldorf
##stilen
##lekene
##fla
moter
pommern
##remiar
gap
torino
pilg
kvalifiserte
##byggd
rosenborg
##pot
bergstra
porto
overtaget
betegnes
trass
sph
bispedømme
andorra
##till
##lica
garanter
pasta
galt
zetter
thi
1740
latinska
lhasa
##jeh
kristine
hæv
bitt
lae
##kob
##edie
##snittet
presley
bitradande
parag
flickor
lavede
huidu
isak
thal
nationell
armenien
tecknade
gylden
vinnaren
ora
##stend
##ulær
historikeren
##shast
episoden
overstel
shakespeare
fish
##quen
bryta
nunavut
pavirkning
strukturer
##kert
sallsynt
regelbundet
shandong
vingene
##sakt
##stena
1779
overlevende
undersokning
domsaga
nationalt
hyal
utendørs
##mour
funk
singler
repræsenterede
google
maryland
kommunistiska
omradena
øvrigt
østerrikske
##stick
##sporet
kollega
1720
monaco
roer
akademiet
##illas
##amma
##reform
framtiden
minsta
mors
##ukar
miami
##zal
theater
jordbruket
hallands
beleir
##forsy
prester
kringkast
roten
bokstaven
coqu
grundad
scout
expans
uvanlig
##raftverk
##rumentet
##ropus
hep
##elø
osb
skrog
topograf
forlorat
tiende
##iak
##vidde
kommunesenteret
sans
utrop
havdar
basel
brei
grenar
trening
forhindra
boldklub
page
fods
sangerska
##jarv
begravningsp
sanddyn
styremedlem
latinsk
andelen
syre
schack
arkitekton
##sfiskal
komiteen
normale
drevs
##ruten
anast
##ansvar
fortro
kontrakten
nymp
##amnen
olle
kate
edderkopp
product
##cion
aftale
hunde
monica
soldaterna
##color
##yar
##raea
##visades
##reps
##alene
forsamlingar
færøy
advisory
##oid
komiker
aktieb
telegraf
filmprod
lima
byggts
raske
armens
virgin
prøyss
tillater
koden
arrest
##omar
langvarig
##oberg
nyttar
profesjonelle
forvax
##rollene
bringe
##vitt
chr
verv
##rings
##ynes
novell
smor
mojligheten
leddes
##emble
fernando
landhockeyspiller
##etid
merket
francesco
##statt
stop
haf
stadsplan
greg
overlamn
witt
##leveland
##ogenhet
##hogskola
stars
erstatte
##tegn
forfattarskap
husk
lenin
landskommunen
kordes
##skadespel
##akry
##fullmaktige
##ption
funne
alltmer
sangerskan
cecilia
forson
gay
hellen
##eminister
there
sørget
drepe
lese
skickade
##krypare
himala
afrikansk
nøyaktig
tropiske
uber
##utdan
ranunkelvaxter
asmara
kaktus
##saktiv
##effe
##sfield
flytande
koncernen
fujian
##jest
lorenzo
rend
##ionidae
##vaben
##rerade
slikt
##istar
kapasitet
slekter
horsens
##atiske
##bou
lojtnant
grove
etablerede
##rs
basid
gesta
huvudkontor
torra
fakta
aristot
utarbet
diktsamling
konferens
utah
indhold
innvalgt
bomber
1771
tyckte
boul
bevægelse
osterrikisk
zhu
komponisten
ear
niss
strind
batar
stickmyggor
##itta
ledes
komponenter
invasjonen
beslutet
rush
vesentlig
niende
sydafrik
datert
kild
##inar
##inensis
helle
##qui
renault
stravbladiga
mane
flyplass
teknikk
rapides
knudsen
stoffet
atskilliga
##legge
##oche
mængde
##sno
##ungs
mamma
renovering
opplevde
paralymp
##vention
eige
egnet
britann
resulterte
##grunden
regeringstid
befalhavare
hertugdømmet
##fog
forsvant
krøn
krok
##historiker
##igera
##spitze
serbia
democ
##sunionen
##qing
##lits
##opoda
##ocial
##værket
lokalisert
hardanger
veksel
stemmene
kib
##ichte
slutte
istan
erobre
nasseldjursart
obl
vern
ungarsk
passasjerer
##هر
delstatens
null
##skud
##akim
garnis
oran
##dale
##elk
##rimer
##opia
deltagere
løpeb
sevilla
sarpsborg
##ammer
alls
zach
shad
bygging
kontinental
konstitution
esfahan
kill
varldscupen
bakgrunnen
##sbyggnad
barry
pollen
290
##oplan
kona
justin
##acus
lyc
borgar
uz
##videnskab
##acris
upplos
uppfora
prinsessan
##orelsen
overtal
buj
ifra
sære
soren
##øvet
##adiske
geologi
weimar
forskjell
kreta
fost
føres
kannetecken
behalla
terra
distrikter
komplicer
amerikanskt
mannskapet
##hjel
ih
sept
##stemmelse
##levande
landskrona
eum
sparta
foto
testamentet
harnos
fara
sporet
lagoon
##digt
indviet
uppmarksamm
shelah
alabama
reddet
storbritanniens
##litz
appar
##asso
##pta
##caceae
##ين
##enen
##alm
##maktene
reservat
føderale
bibliografi
colomb
genomfora
meningen
nationer
branch
elektromagnet
konvens
chungcheong
inkop
syst
steiermark
vatnet
nøyt
pattedyr
ifragas
hou
rora
##allas
nyligen
##komite
chamberlin
##acupen
framstall
bokser
digter
##igner
medforde
lia
losning
montagne
turkiska
kieffer
iw
##unk
##eptor
##stadion
inbj
fjella
fotballklubb
drøm
kapitel
bekreftet
istanbul
##ße
fjort
ulv
akkurat
pare
##riet
exc
fjær
konføder
kejsare
pistol
heriblandt
##varld
mcg
perez
##uber
legit
##tryk
##skrivning
bakkropp
reed
omfattede
nilsen
hjalpte
traditionell
culicoides
byggede
dodades
##sgarden
angelsaks
##nitz
##æm
seattle
manuskriptet
etik
tilfæld
varldsmasterskapet
##edels
forfol
##skarriere
fyret
pieter
besokare
##bah
omlopp
##laggningar
dasy
intraffade
##seg
geir
besid
psyko
befast
elegans
landa
familiens
varierande
gesner
dramatiker
teorin
tuberkul
hope
hunter
tilbragte
inforliv
##slinje
ringe
##betal
nettopp
sjalvstandig
hjerne
xant
##jevitj
hovedkontor
organer
spektral
utforda
unescos
dul
trent
suf
inkluderte
ljusare
kare
sendes
genre
##ruktion
opgaver
verdsmeister
syntet
entre
andamal
albums
rejser
##stjarnen
##riker
##ostern
carly
krysset
arsjubileum
##latta
##ratus
vila
columbus
mp
##amatan
elvene
tilbød
habsburg
wrestling
sert
trække
tjeckoslovak
##mit
##idda
omoj
byttes
festningen
nødt
fortalt
kof
stadsfull
galla
##offic
muligheten
cornelius
liturg
##ræts
oj
venstres
udgangspunkt
##zie
##varns
arrangement
brevet
moser
rapporten
aserbajd
##skifte
##ossa
synsp
straffe
plect
korsblommig
forars
republikan
selde
botsw
bensin
##idet
observator
blanca
bemærk
inge
##ovice
##ikkelen
begran
##ondi
manniska
swed
alleg
story
##iserats
palme
spy
spott
makedonia
negative
tropisk
##ikat
smale
evolution
forkortat
##vuxen
##emet
thess
friend
turneringer
##vegen
morgenen
gentemot
opin
biv
##uven
##minton
opprettelsen
bicolor
tess
stiger
spann
stoppa
kretsen
landes
##nerus
minnet
##rise
palindi
1766
fotografier
kecamatan
riksvag
crow
neutral
##atsen
barber
##gde
##arbejdet
##laus
##ffar
fodan
motorcy
antisem
bokfor
nix
##areal
tatorter
specifik
magnusson
manhattan
scut
##burger
akademiska
##sledare
##amph
##hiza
nødvend
reformationen
buskerud
liggende
##retsen
##tta
kalif
indik
platy
velika
bant
java
taw
glatt
tørr
enklare
subt
mauric
nobelpris
##renes
loft
tjene
tilgæn
##estes
##ofag
guadalupe
cath
gyll
seint
##sikten
fasaden
vivlar
dusseldorf
##opal
##lagga
kongeriket
##fabrikk
forcip
høve
kører
mard
saar
blank
##weig
afrikanska
tydlig
##not
##stema
##etiske
dukker
oklahoma
villan
framfordes
kopt
ønsk
fodboldklub
agri
elektric
sumatera
omgangar
osaka
utexaminerades
myk
songs
konservativa
nødvendige
dad
hent
##yy
landsfiskal
nym
##minster
grey
seriet
campo
syz
graub
##sdyr
##iye
skulder
pittsburg
##otor
vilar
boiss
conakry
lidingo
##bte
##ømet
parret
martine
interessert
sibir
selskaper
1767
square
ai
aub
##jeg
utslag
innlandet
spelarna
utenriks
kommunistpartiet
autonome
stumfilm
memorial
##ninge
mota
motala
sjons
cecil
lyngby
vager
utførte
standarden
bildandet
##born
kafe
bonder
lyckats
bolog
engasj
overtyg
allmenn
administrasjonssenteret
pachy
##anteles
journalister
##skirken
scopula
eph
##gal
##olje
narvik
mato
bistand
oil
løst
##elekt
badminton
##koreansk
mab
alam
##beh
godse
flyttar
##ierung
tetouan
vulk
haugesund
ferrari
##uet
##klasse
hey
##heimer
##baner
##syra
##asteroide
##sforhold
storhet
##yrmex
livsmedel
virkelige
##down
pause
slide
teen
common
gif
pius
##loc
##skolleg
sander
##sgiver
forskel
arrangerades
gengæld
challen
##ophthal
siyah
sæt
network
##iggins
##teri
##sner
ødelæg
basidies
skik
fremført
present
psykisk
##veksling
infanterireg
##cli
nora
nedover
petro
kristianstad
byggnaderna
##niska
##aru
torsdag
##ulert
rocky
tirana
mojliga
døme
sidstnævnte
døgn
##urop
##flu
flex
preg
bali
rommet
##pu
understø
guder
sony
tofsspinnare
wad
##rain
puebla
vastmanland
historikk
pyrene
##horus
svansen
habitatet
##bant
##uns
##lies
firkant
##fus
infe
##teater
##chez
dannar
##enze
fergus
##mah
meh
hamm
##atexamen
jang
##aven
pann
##itch
opphe
km2
skolens
##mitt
##overk
diskusjon
voj
##kunn
1680
organiserade
##sformer
leddet
##figurer
forestandare
##olt
abnet
kaukasus
##øyen
##ervatet
hangzhou
kogn
##cheng
##stabil
toro
lansvag
forgjen
##skomiteen
anta
regg
##ocken
##ungan
antenner
udstyr
##onomus
##sprogrammet
##sproduksjon
vilt
modifier
fladder
##direktør
##serier
alliansen
bassist
petrus
hittar
gjøres
fienden
peninsula
discovery
lox
##søen
sundby
##rakech
earth
##uit
inder
##entene
##appa
##sidig
##lærer
mannlige
osmanska
tilhengere
naturvardsunionen
alper
##organisasjonen
zak
##eppe
##smaler
lukkede
konkurrerte
mauretanien
fight
ern
teke
sorkh
utse
solid
filmregiss
##gass
##stene
enri
politim
motta
armst
##ariat
##icin
chand
butikk
tilsynelat
omorgan
##entals
##aldi
palace
##sfiskar
propaganda
stef
deltage
hjemlandet
nedanfor
lasioglossum
380
arkeologi
##cs
##lio
kode
individuella
californien
vande
##udad
##otet
##revne
##sbygning
basidiesvampar
brens
henrett
delstater
##quer
hjemsted
skjønn
##ulia
##iast
priori
##chet
christoffer
bestemmer
##entus
stadsteater
indelat
##ekspedisjonen
lower
marrakech
##værks
omsorg
johanne
familiegruppen
lunde
indført
hemmelige
##iliteter
sluppet
##boy
##boende
sko
proport
europaparlamentet
skjø
beth
##forsok
fasett
toler
##smar
##لی
strim
narliggande
oversettelse
##ла
##ograd
310
nomineret
trupperna
asteroidgruppen
foreslo
software
##ukket
##lof
spindlar
paradis
##vass
than
motivet
kroppens
##39
again
sagan
##shah
innebærer
homosex
romantisk
jamforelse
verktyg
eger
motion
lagret
##rostning
##iep
##talande
bolivar
##ated
##ididae
birg
jungfrulin
noc
farbror
skickades
barnes
##icht
stednavne
vanligste
ronne
matematiker
sæsoner
cris
##ordfører
##ims
kunsten
interner
osman
norrkopings
##hui
uavhengige
##ragt
kommandant
dyn
##wen
pagaende
##rella
##gol
minner
vigtigt
volksw
##igne
maine
##foretaget
myndigheterna
rodriguez
wimbl
individuelt
##aet
elsa
røtter
hitlers
pie
##ronic
steget
markus
forsvara
##lossa
elite
notera
ornskold
gorg
forbe
skug
nobel
dverg
##ragende
holmes
middag
##teknik
##belteasteroide
ulla
standigt
jenny
øj
##antan
##skapasitet
støv
rockeb
folkmangd
##lius
##manna
##æreste
kendet
qol
##ostom
vesten
##sfrag
oxy
botswana
cleveland
haven
handelen
name
lojal
empire
poh
lah
landslags
vatikan
##eliaceae
##riaren
##icks
kompens
##musiker
loc
rond
sies
##sbron
uppenbar
##yllands
##sles
vestkysten
husen
muc
pik
##oms
##versjon
amts
tankar
##bildade
manuset
yazd
aphodiidae
kov
manusforfattare
cyt
##stoffer
vestsida
domare
pige
rettigheder
kvarandre
lambert
operaen
sodermanlands
østsiden
##skrigets
skivbolag
cock
utmed
cirkel
hasten
nkp
varet
##rieren
martins
kallats
##falla
harvey
rex
frugt
riksdagens
konstruksjon
druce
jing
antip
renass
mesterskaber
offentliggjorde
##vejs
euch
tillverka
##merke
##klam
lyden
biologi
øyebli
politikere
xer
menneskelig
cornelis
arvet
overn
##reville
##sachsen
gjord
arrangeret
disputerade
lingvist
eter
luz
museets
tryk
professionelle
nidar
##slok
nations
look
firenze
arrangementer
riksdags
gymnasie
memo
powell
besejrede
forsikring
kulturminner
innefattar
betalte
##haugen
##styrelse
edel
gave
kje
møtt
seriem
koncerter
##ictus
snarere
bristol
pelt
wies
uniform
chass
##marke
grundt
sluta
sideelv
sif
##eben
joakim
negativt
##lasten
inspirerad
##iventris
backhopp
maleriet
avlang
churchill
graubunden
##qq
menighet
sommerfugler
##middel
pena
kjønn
rox
foreningar
vs
##stenar
nordsiden
kolonien
intressen
##lef
##verdige
##landsoarna
medicinska
##arrang
##asy
tillforord
græken
monopol
##osaurus
idræts
kunstnerisk
hampshire
ranunkelvaxtart
##hant
##job
ofor
##korn
##buss
olat
##stilte
nanjing
abdul
nobelprisen
##angreb
elong
##laga
##ffa
persiske
marieh
joel
manifest
poeten
kategorien
overstelojtnant
##malet
cocc
##eie
rorelser
qatar
##ukten
##lei
slet
conference
martha
dalig
##ᅩᆼ
##adelse
sammenhæng
##produkter
sveitsiske
tup
##haw
jamte
skilte
##forand
amager
fylt
motsats
indspillet
herreg
kungs
hornstritar
ntnu
grise
kaiser
guddomm
omhand
timmer
rij
lute
begrænset
soldatene
leslie
avlange
opplæring
petroleum
gius
membran
##rukket
##sloven
mason
kyrkogarden
bring
##jot
langren
quint
munningen
hib
##hugg
##ик
grave
bombar
beslutning
lucia
oppover
skilja
##amerikansk
socialdemokraterna
##ampo
##sbygningen
##post
poz
koz
nationals
1769
angripe
utredning
ivag
bestammer
eber
##leys
##ittet
ligga
##song
##rerte
undersøgelser
##høgskole
##uar
underhuset
redaksjon
grosso
##gon
abstrakt
fysiker
udlandet
##historien
md
kveld
##sdaler
hunden
370
eich
fns
tant
vander
imellem
auf
aspekter
orat
##buk
1650
##ups
belarus
avstanden
##video
evenemang
##øtet
##ætningen
hollandsk
muskel
##ulat
karleks
carmen
omtale
celt
##quis
arabia
maurit
bergstrakter
underord
dab
##ksem
##placer
##ningsomrade
halen
hovedrollene
##lokal
zimbabwe
tidskrifter
wehr
##blomflugor
breg
##oger
santos
leger
##stationer
skilde
gammalt
asplen
تل
pah
pafag
franskmennene
##medaljer
casey
##saft
parentes
framover
utgaver
urinse
idaea
phillips
landmal
##angaren
##utus
##unnel
persisk
##iterna
inforde
##tti
##ouf
rhinen
##ubbelfotingar
##ير
##skær
nederlaget
fremtidige
##prov
følelser
dud
toner
small
mottes
gibralt
intresserad
regierung
paverkan
pittsburgh
##kee
##orts
belys
##kommet
##lægning
masters
analyt
morgon
cliff
fjernsyns
##ez
##ocnem
##ologier
forsøker
innbyggjarane
venet
nuk
##stasjonen
##bygge
populationen
overflate
syzygium
kortt
spect
digitale
geb
kallavaxter
##sbeslut
dessutan
##spelaren
objekter
ambul
producera
cæ
forrad
spiro
verte
innslag
nid
praktiske
møttes
hannene
uppdater
ratta
indeholdt
hesper
##alom
##perma
slanke
fragment
taxonom
arsaken
##illede
nederlandene
nabo
drogs
socialdemokratiska
##landor
tykk
##ytes
korleis
difor
kulturella
1768
grip
benamns
m³
pud
atlanten
religioner
skips
skovde
silkeborg
anonym
##enson
fremtræ
dio
##nius
##paret
##seln
tjugo
kirg
sands
regionalt
beskriva
ændringer
flagget
tønder
bruka
vestsiden
vertik
udnævn
seter
nyckel
seinere
licentiat
##lert
storeb
objektiv
pirat
eksistens
##oensis
##ensch
##sbet
##ymbol
slutter
gradina
dyrket
gottlieb
##olig
proton
novgor
##uchi
##enburg
##arme
minder
rash
atp
marokko
kallen
plattmaskart
omring
##rou
##oped
medverkande
avsikt
##gud
inrikes
landbruks
kompakt
##faktor
chengdu
vitskap
kejsard
sandefjord
provence
e6
foljt
##født
sicilien
##roa
##icata
agaric
kym
kraftiga
kroppslangd
kemisk
engagemang
forelig
udford
trelle
fremmede
kraften
masterskapen
bitter
pine
majest
værende
##sdam
walis
ruiner
myndigheten
technology
##pton
henviser
gjorda
strøk
gok
wing
##35
##ogramma
karolinska
gesneriaceae
##runde
undersøkelser
dygt
##aver
##lub
##wat
##cki
offisiell
presenterade
railway
utenriksminister
iowa
nub
latskri
##hjalp
argentinsk
søm
##rhein
##etto
terry
instift
maken
eux
##itos
1730
internationalt
elektriska
1719
daggdjur
vingespenn
##forklar
udstilling
frukter
komponert
bic
uppford
thorn
utgar
salam
planeter
##vidd
##planen
grenen
##gil
devel
resan
forbindelsen
##ocarpa
moc
stodde
joan
fanga
implementer
##umbura
sjalvstandigt
##abiliter
sart
##tas
minus
svarmare
sci
grønt
videnskabelige
##agi
motet
sjos
hovedrolle
utgivna
catherine
professionella
antikke
wimbledon
##unus
bildad
teleskop
betyg
øerne
##gl
##اب
hunan
strids
ekteskapet
utdel
byggandet
##loea
##ensee
instrumental
vestlandet
horns
##maskiner
ago
gruppespillet
søke
nueva
curtis
pog
sammant
sætte
forna
nordic
efterfoljande
forstar
beni
##fragan
øker
kupp
##iphora
##sbok
scol
jagar
##tryck
fiss
rumæn
diskrimin
arkeologiska
##halvon
hild
##sis
halva
musikalen
hughes
miste
##domar
venskab
mikhail
4000
##mol
##opung
hierark
begivenheder
trit
wed
avfall
##asiat
skept
##ffield
##skaret
baba
selskapets
nagu
##hoved
##skulpt
regierungsbe
##brede
##utgiv
##obergs
##legger
##ulte
lagring
hausten
prosjekter
erstatta
naturskyddat
tric
montg
benyttede
avviklet
hjørne
##skyrka
ornam
giuseppe
radgivare
studerende
igjennom
opret
glam
pseudoc
soll
avgift
ogift
##ellum
farlig
militart
nødvendigvis
indikerer
lion
hovratt
særskilt
kommentarer
##boe
skuespill
bekræ
deporter
stillede
##yia
brudd
hja
institutionen
krysser
buffalo
bundet
##narna
magten
borga
kaste
soker
##ping
elf
##sving
forente
##bay
##orno
marta
alexandra
##rib
linder
sjukhuset
hue
##blik
opford
ordene
##ypter
##sselskap
rheinland
hage
jol
skrack
##dels
jordskj
veit
remix
twin
spad
sumpmark
strenge
git
##lyste
byprefekt
##bergia
namnen
##sdatter
gerne
##unna
trykt
brooklyn
kug
forstas
malcol
##stadsregionen
##bisp
##ridge
egyptisk
##botn
http
vedtak
reporter
chefen
birgitta
lykke
##slutningen
##sjan
fremtiden
##dekket
##ariet
##sfjord
helsingør
slaktingar
##epartem
marco
larry
##bygde
pabegynd
##rips
##ificeret
vanskelige
##enc
scient
lufta
etappen
##tj
##olid
##rovinsen
##uto
lagervaxter
##sselskab
indsats
emellan
hhv
mathias
skuespillere
samarbetet
byrjinga
puppglanssteklar
stravbladig
religionen
nassau
factor
##strafik
pakt
beholde
utryd
##obar
forstark
jordlopare
noens
jeffer
##skontor
bing
alskar
sahara
onc
militæret
skyldtes
##assistent
repræsenteret
##slinjen
afstand
##horighet
skjel
##rollslandor
jiangxi
3d
atlas
klø
abbey
vestland
femton
holdning
forsvinner
pagar
##sprin
maling
engine
arliga
manip
fusion
eidsvoll
diskussion
gou
egenskaber
revy
stigning
processer
cul
gue
grieg
komplett
nd
##quez
brandt
namnda
سر
##artar
taza
statlige
##asterskapet
kulmin
konstruert
sosialdemokrat
abborre
kommitte
fremragende
kansler
imperial
apostol
econom
nordsida
gjennombrudd
gustafsson
stanna
forbedre
project
##sfag
sakalla
studerat
zor
ange
mazar
##marck
##bye
belej
berattelse
storslalam
avskj
ramt
oksygen
drak
##jud
personar
hojer
astronomi
pafagels
##løbet
stenar
biologiske
sommerfugl
##vidst
##moen
skulptor
goth
##mig
##edning
kjørte
##plate
mueller
instituttet
sadanne
medisinsk
##indes
##ofte
undergrunns
##øres
høgt
horse
templet
##nok
##oplus
##icauda
fortrin
sars
##radio
##sbolaget
battle
betragtes
levetid
duk
pli
arsaker
##iserande
##sdjur
udtalte
devon
oppfyl
luke
kath
##vidt
##ruppa
positiva
gjeste
oavsett
lest
##idas
artier
exil
vikten
assos
sjukvard
chefredaktor
rekorder
redusere
filippinene
pepparvaxter
tvers
skran
showet
selvstændig
##entin
##ruter
hasan
asen
##gin
formentlig
mariehamn
ane
utføre
##skala
grind
leddjur
generell
kemiska
kannetecknas
hubb
##problem
storhert
norfolk
livets
grafiker
pyram
oul
religios
billedkunst
##islav
løg
omvendt
aragonien
##ikos
skotland
pafagelsspinnare
cron
uci
##itære
helene
giro
##elea
##idon
minskat
##elskab
fylkeskommun
earl
##sbeg
atlantic
prestegjeld
ulrik
craw
bromma
pepparvaxtart
##nelig
##idene
##veri
estimer
##nattslandor
regement
informer
##iphon
##ripande
##olds
hvorpa
ordnet
forekommit
brua
ranunculus
##inho
valjer
##fritt
artem
##olutionen
niederosterreich
onde
canter
##skansler
##hteh
##amensis
forventet
labour
vingen
motors
hembygd
gjenværende
ign
initiativet
nejlikvaxter
flensborg
malloch
gjøvik
##entlige
##hale
blivande
poc
dean
##othea
pladser
invasjon
##odesmus
reserver
vuxen
kly
##ithi
colin
tonsattare
fact
##riga
visepresident
grundlagde
fotografi
jobben
passagerare
pay
egil
lekene
cere
langvar
antib
vestlig
sweden
##jl
scandinav
bub
rico
##elas
scb
femten
##sji
indledende
vivevaxter
chateau
##karen
##baten
grace
generellt
verkliga
avsedd
tay
skett
ekstremt
trott
falsk
varierende
tabell
høgskolen
1765
##messige
##rian
##ettes
australiens
tillverkningen
##stykker
kredit
##entral
satan
##pin
kvalifikation
frey
thorvald
dw
forklare
##ruc
##icula
konspir
klo
opius
forsøks
kolonial
jy
pich
##inert
nordens
flan
huser
##følgeren
altertav
bujumbura
romeo
1759
afviklet
bann
##formation
willy
epil
hindra
rogers
breton
overflaten
inflytelser
bologna
besøg
##brot
hundrat
ekspert
johnston
megach
quarter
kontinentet
grensar
vinneren
##ints
##istes
derpa
##onga
vient
##romyza
avrinningsomrade
english
cott
##keley
forlæn
udvikle
nevø
tunnelban
ural
haut
nei
udenlandske
utmerkelser
krater
zac
##kere
varade
filt
##regementet
ciudad
##eledamot
mv
##rito
herz
backslandeart
##kirchen
utsedd
tillvaxt
##rering
kristoffer
varldsp
ridley
noensinne
oue
osmann
stengt
metam
folketings
unesco
##stille
##agaren
saudi
##vandet
lærde
ugg
willis
carlyle
ate
langsta
talade
viola
##ily
dact
raket
ekspans
bromeliaceae
ejet
ideologi
koalition
veder
thecla
farens
kronologisk
skipene
frykt
etappe
##bh
##steen
##obium
armstrong
lukas
yuan
knop
alltfor
ahmed
brodern
rehabiliter
##eksamen
##othorax
projekter
polyc
annorlunda
##hallare
fortolk
hidtil
kallavaxtart
##issus
løfte
dronningen
##hill
##ielt
##ون
##slund
brah
grundet
overraskende
mok
tilstre
cauca
omtalte
observatorium
##iata
kvelden
savo
distribusjon
observationer
portugisiska
##olleh
##eon
##iles
##umat
##stemningen
bibe
ljub
divisioner
##nadene
audi
floyd
latskriver
oscars
bum
##smyggor
beta
instrumentet
lagervaxtart
erklært
byane
tent
fremover
eirik
madh
loew
gardens
oden
oswald
riddare
charlotten
nodvandigt
overgav
tekne
jødene
ekvator
##eno
##ørsel
listar
haouz
dalmat
##handlinger
rollerna
bamako
nøg
riod
##esn
jordb
magist
palma
øvelser
hærens
hydrogen
officiell
hilde
##adh
##odus
sanda
presidentvalet
mobile
speciell
sønderborg
bundesliga
trengte
stadsfullmaktige
berry
sapp
co2
troligtvis
##iou
polens
øyne
kunstneriske
skandinavia
singer
##foring
framtradde
andras
lepanthes
spridning
graph
adler
tjener
##jang
vaner
office
##ович
behar
gjenstand
##arian
##ylen
##yndigheten
austerrike
øre
variere
##avisen
torre
statistisk
##block
imago
utenom
##ægter
doctor
##pha
atac
invanarna
kommunane
ettertid
##kraften
berattade
dubbelt
misten
ohl
pile
davies
trinidad
philippe
hyppig
medverka
##ænomen
komposit
##roppen
##forkort
kvarvarande
gnagare
niedersachsen
djurgarden
nahr
utgora
matsum
beit
##splass
gjere
personligt
robust
##lubb
deport
lecan
billede
fysi
regerande
##biografi
102
betydde
##hti
erobring
bordten
billedhug
skiskyting
grafisk
taoun
synge
miconia
##jia
##seksamen
ulykken
fristil
sjældent
##serer
##achi
velger
foregik
##sklassen
##klad
visuell
værdi
idol
utbildad
skandinaviske
holmenk
##rationen
torsten
##abd
marne
folketel
mancha
##irkel
##rediens
annekter
stipendium
pushtah
wend
##relse
##sley
tildeles
china
organisk
jagt
lauren
heng
bunden
tillfang
meinte
entom
1762
cycl
##joren
##ismer
reprod
busser
almindeligt
ændrede
fia
##enea
forenede
##bbspindlar
satiri
##zu
##artiet
radie
dreng
dmitri
cold
##anthera
sour
minimum
kemp
oen
qolleh
##ædag
##skot
hogland
mangden
ungarna
verdensrekord
nivaet
cler
##jare
avseende
##saf
##sprang
##abilis
terminal
lucien
##adion
vedrør
lokomotiv
hym
##midae
##iyan
spreng
innspelinga
cus
hess
##ра
tillkann
##resa
bandmedlem
gerd
forbattra
phoenix
skive
avledet
ammunition
kartlagt
rayon
opposisjon
##srad
generasjon
slutta
##vapenet
tsjekkia
grækenland
##cinia
##ekont
hente
vapnet
eventuellt
lorestan
purpur
##zuelo
##banks
knapt
##uhrer
regierungsbezirk
doth
hviteruss
trafiken
traffar
##hos
handlade
sporten
roc
malvakt
kompagn
justit
doptes
gibson
##forbindelser
innledet
moment
felttoget
vingar
##bisk
##ættelsen
intervj
tilnavnet
hjemmeside
vick
valut
tretten
bryte
strømmen
endel
lagos
væske
dicranomyia
mikk
##imi
finansiering
##kritiker
hantverk
##olophia
nasjonalsosial
##base
fabriks
rhe
flet
kopi
##tredende
tara
##raz
##egel
##rosa
abbas
##sbygd
fenomenet
taounate
mh
##fia
hoce
rur
luigi
skjult
##kvart
mesopot
volkswagen
##akker
##barhet
##prof
##erier
##ouard
##beth
fogderier
tillforordnad
snick
republikansk
fark
rika
undersøkelse
innviet
uppfost
mauricie
tilt
samler
utgjer
synger
portrett
##gorit
kørte
antyd
fjeld
dannelsen
symptomer
bik
cut
omnamn
benamning
vientiane
##allskapet
affin
##yrtus
hvorvidt
duck
utbildningen
bosatta
hoceima
crom
##arias
##ibil
westminster
ia
##emar
rednings
skillnader
sorts
macqu
industrien
snabbare
nancy
uteslutande
fæ
foral
bear
##ografiska
sari
##deri
##agarna
##ichus
forfatning
fangsl
sirkel
mekaniske
rangert
##korporer
aristoteles
sunde
tyskarna
tillverkad
chahar
hester
##ovskij
##abol
framgar
sanchez
sommerfug
mercury
bever
apnings
udgivelsen
highland
fide
##stret
##egler
##redning
blotta
##sbild
kompositioner
kirgiz
kriger
jarnaldern
sammenhæn
##styrken
microc
##batar
lærere
aa
bølge
senegal
bredvid
operatør
sikte
tensift
##igur
saur
##ellaceae
tabt
kontinuerlig
five
generald
sopran
##virke
middels
##republiken
girault
keb
munner
bernt
##hk
forgift
mads
mannskap
boissier
filosofiske
##nde
utøv
langfilm
halvk
varmek
tavlingarna
nacional
jour
##isha
tidpunkt
desper
udstyret
domkyrk
skarpt
situasjon
territoriets
elefant
rw
opsta
mekaniska
reichenbach
vivevaxtart
emmy
bransle
##arbeidere
naken
skolans
kammare
sulli
##itsa
##allsvenskan
ladd
komposisjon
kansli
forebygg
dekorer
##ел
oppnad
diana
syskon
##syre
sweet
aceh
nidaros
##massigt
lahtis
brak
bukta
foresla
##55
acacia
justis
risken
pyc
omgitt
glo
vaning
konkurrence
greven
færøyene
kjempe
##avirus
finlandssven
sykl
engler
1761
kvartfin
xiang
verdenscup
skrivet
starkare
ventil
kou
##ofer
colleg
centralort
anatom
komplekse
riodinidae
##how
##indien
talrige
##horst
albrecht
1756
hudd
syner
##spat
##antrop
##loder
ecole
fornuft
1755
nevada
##slinjer
montgomer
mental
##etil
byra
##sfil
chrysom
staud
actin
belagna
salen
##murer
inkorporer
##verken
nordligste
seilte
stortingsrepresentant
##sjælland
cue
##skolans
##fangst
##grader
##athea
##scher
##slapp
forsyninger
trus
kristin
blake
forestillinger
sheffield
malcolm
varor
lyft
macroc
gennemført
helgon
##life
##send
##kjem
territories
##ignal
tettstad
himlen
kroatia
curling
contin
##roen
##avi
abit
##hjæl
##leir
luftt
numre
potok
melodien
hash
told
forsakring
rosenk
krep
skald
palp
klarer
bevarte
##sform
angar
efterfulgt
karos
##elsesp
epic
hittats
pryd
tons
studert
ibm
##oeurope
##stider
australis
##norr
##myn
##yb
turbin
fisken
turnerade
muligheder
##etet
##snamnet
1640
furu
yok
##opsylla
sadd
sasongerna
##dans
##vesi
##leb
##udier
jansson
vanda
germanske
ortodoxa
protokoll
##æringen
##imet
framstallning
formed
drake
fotbal
forlade
ishockeyspiller
ombud
riktiga
##bilis
organiserte
##malningar
lindgren
industrielle
ritu
hyres
##universitetet
##odip
faderen
favorit
##rø
##vning
##skost
pastod
##ciper
butiker
framre
boj
høge
kik
wells
##keh
panzer
puck
dansflugor
observert
annexforsamling
stir
underratt
chev
##ipalp
trussel
hjemmet
veker
##skran
torshavn
dagblad
bukt
fysiska
1757
indelad
##iplin
1764
bygningene
yes
alma
alba
rekommen
##ladsen
pelopon
regimet
ellipt
sharp
porten
uul
##sem
##yge
spellemann
konsthall
begravdes
abort
reduc
overtag
krisen
##slig
##smag
eine
##bruna
pitea
proteiner
burgund
strukturen
##attes
sou
herb
come
##ladser
##usion
nordmenn
valp
quart
nashville
forcipomyia
##mm
##66
rostratt
fusc
sockenhuvudort
sofla
bryn
anvendte
##vokst
snakker
kottflugor
spont
opprette
1710
uttrycket
strangnas
konstakademien
nba
flyger
bros
anslag
fjard
##yndighet
øvelsen
craig
oprettede
##usch
vasttyskland
digte
interview
spetsen
cia
##distri
##odde
##varme
brass
santander
slovenien
adal
loj
##othrix
krypt
stangdes
uppfattning
fortjenst
loy
##stammer
##figuren
cc
##fjellene
himmelen
hader
myter
rode
portezuelo
kypros
urinsekt
lana
##alter
##itiska
##ekene
eriksen
toppar
aksel
artistar
omdisk
theodore
strong
##idius
##akch
generationer
ignat
utelukkende
urinsektsart
bater
##aktive
konstitusjon
debuten
rammer
østerriksk
##the
sluttspillet
falder
novgorod
bons
##wo
##ittisk
samre
read
domkirke
auka
politikar
fum
##skule
##sbolag
catarina
peloponnes
dort
rall
##ræn
overlag
juarez
##veit
senaten
braunsch
##skyrk
##ishi
nordafrika
sauss
##oble
hermel
byrad
piedra
1658
kvalifisert
styrelseledamot
dala
tøj
##isma
##svir
occident
##avan
oversat
after
teologisk
bortset
##orphus
guillaume
hede
pater
##put
cen
##forskare
gli
lakt
expert
gjennomføre
algebra
aas
jenter
yun
trafikken
alpint
##biblioteket
tch
seven
ischn
##afa
okkuperte
variet
blokk
formell
##ieren
honda
psykolog
rotterdam
##lott
##skudd
leic
luer
dinosaur
knap
lykkes
vell
anthur
bakover
filosofisk
##skiv
helvet
skadade
kroatiska
elae
when
##asterskapen
##moz
wiener
hustrun
##kulturen
eliteserien
burton
sjalvstandiga
megachile
bari
oder
trinn
##distan
##osis
##ogo
normer
##givande
##havaren
hoveds
##ykling
mots
bystatus
filmfestivalen
fattiga
trafikeras
drum
##etik
##ssjon
langsomt
monroe
1648
anatol
##kommunen
varldsmasterskapen
plotsligt
##iinae
##imore
hansyn
prefect
cbs
rhiz
svenskarna
socknar
flitigt
##atz
atra
ellis
##ocen
schen
resurser
snabba
funksjoner
omdannet
##deh
##veje
flyve
##mannia
kurser
justicia
kanarie
##000
lance
laveste
produksjonskapasitet
nazity
øjebli
##xe
##core
underlag
##bevæ
reid
board
nationalekonom
spesialiserer
opmærksomhed
leicester
barken
inrym
nordlig
berkeley
debatter
produktioner
sportsutøvere
##hil
##skaja
luanda
kæmpede
higgins
tillagg
anskaff
harj
dagbok
schweizisk
privilegier
##enaria
##urens
##veier
##biler
hoppade
##snummer
##slosa
arhundreder
braunschweig
integr
riksantik
inhemska
malningen
##styrka
skapad
sachs
musikvideo
skull
betre
romansk
urskil
producerat
classic
portræt
vente
orsakade
hjørnet
henderson
cn
##ystemer
tilltal
perse
heltid
middelhav
rancho
skaffet
##anvand
##esor
##utgav
framt
tafil
vinyl
tilfred
ghaz
erot
inver
##obus
##illan
mejer
lancer
##ovia
##iris
pung
singles
minerar
##orhynchus
henvisninger
posisjonen
komponister
avdelinger
protestantiske
chrom
reyn
utformning
livsstil
loper
misfor
republikanske
##spolitikk
##logs
oplysninger
##ayo
kronen
sparrisvaxter
waters
dybde
sodermalm
hushold
armeen
ærke
aedes
væp
fritflugor
diap
erklærede
riz
##kab
avrattades
konk
slang
haakon
herm
glenn
personene
##sgrupper
performan
minerarflugor
spiss
uppna
talang
bryggeri
slip
##enthal
##iani
korru
uppmarksammade
betaling
kham
##tage
##alin
##tei
##ismat
drapet
germain
raseborg
nejlikvaxtart
endemisk
a3
teller
##bing
##skred
##igua
##klund
halvor
##uvida
##obry
score
##ferens
kjøtt
lettland
##antia
##ylinder
different
ula
zeb
##utten
beslag
sokn
regissoren
anatomi
aguada
##filosof
øystein
miniat
olga
godar
rundet
flackar
morgonen
##rinus
baal
hjernen
domsagor
##hæ
kontorer
operationer
cæsar
lemp
wint
##lora
generalen
varldskrigets
spesialiserte
kongeriget
metropolitan
##gitar
##ather
somal
uppat
synkron
springfield
sylind
##lera
afc
tyst
samtiden
interiør
kandidatexamen
##versionen
tana
uri
##dannelse
##front
##less
##vandt
goras
huruvida
##storps
tjansten
##wait
gjeldende
aet
cule
gow
##osaari
hole
referere
tillgangliga
##bebyggelse
gracil
bordtennis
klov
christmas
kritisert
territorier
gurk
definieras
##kreds
##enus
##omac
##pedagog
sjeldne
pablo
flatt
##visade
ukendt
fy
##elaget
##esdal
##skampen
teph
sudbury
fiat
fredsav
danny
tjue
konsult
vrid
##kens
meksik
euploea
tropiska
hoppet
spraken
overflade
oslof
##arpa
##ornas
##blommiga
##muren
darleg
dikten
acut
premierminister
tyngde
binder
##iellt
samm
onsdag
##konkurranse
skaraborgs
vedrørende
ness
qas
pappa
krefter
alvsborgs
helbred
placerad
behovs
tud
##oscel
intryck
##otrichia
bronsmedal
konsten
kondens
##anset
##gruppa
forstor
camping
##skysten
emery
invasionen
tionde
##atia
friher
##anterna
kristianstads
staudinger
##etting
bladbiller
stimuler
langrenns
sigrid
frygt
maskinen
avdelningen
##upert
##adena
uppmunt
##adalen
##egener
terje
malning
aktuella
alberto
tillfangat
gover
qe
##alez
korsar
##ænger
magi
fortplant
ekspedition
dhabi
##chel
##aturen
##given
desert
apanteles
rhododendron
oco
##bass
##give
carin
beromd
melodier
plateselskapet
gutter
##zak
##avia
alexandre
menneskene
##azarbaijan
tilsynelatende
forgren
##eker
vastazarbaijan
moe
formue
federal
##ating
##skende
turnen
provsti
institusjoner
##illos
divisjonen
besøgte
vade
##ijer
##yya
dekke
##otiska
advar
holst
krona
##hjør
bedriver
ogonen
jude
##obal
skaber
bestemme
skulpturen
tyrolen
galax
foretradare
##aut
##oum
torne
thriller
farao
fremmet
jobbe
karpfiskar
##skuespiller
##mud
inta
##nsen
##aps
vilnius
italiens
vagnar
##været
poster
girls
varldsrekord
##fø
##له
##skaren
sie
##yat
##handlare
sacc
nouakch
nouakchott
##atører
##ittelen
mjol
##atiska
##lemen
##snavnet
percy
##hallit
##fallende
yd
##uana
andrena
interi
brahe
innehalla
galliv
verdier
føn
##hum
##æb
revir
volcan
jere
##chwitz
utgje
bygden
kommersielle
geological
french
##stang
ogruppen
1741
charlotta
storstadsomrade
palatset
kardinaler
nionde
skøn
landshovding
##talet
##skritt
kontakten
##riser
##ikerna
huvudbyggnaden
##vakten
reson
gjenstander
støttede
kanarieoarna
etienne
##sbr
applik
oum
##jefen
##rætter
boca
family
##icea
hundrede
foraldrarna
optræden
recensioner
adelen
##uum
##adia
utspel
shim
##flykt
support
mister
##hak
samiske
##redes
omgivelser
edouard
tillganglig
##kjempet
ose
##inalen
arna
##optil
riksdagsman
##slaktet
teckningar
spørsmalet
vellykket
stores
agt
swan
##frihet
ester
##liber
radhuset
112
##ognathus
geografiska
##tekst
samferd
veje
temaer
morfar
kontrollere
##olab
chak
svømming
omstand
skjær
##fragor
420
odlas
castro
##rotis
prefecture
buken
legges
karez
##imentet
utbrot
mellomalderen
ambassaden
associer
bøy
xbox
varma
musikt
pete
##ohus
forfal
arrangerade
hf
##idy
hubert
rummer
antagligen
doping
vaccin
schlesien
kick
##øe
##observ
inspelad
cabo
##brua
passe
settes
muslimska
snakket
gallivare
øres
##lidae
##reakt
tyskt
verkligen
aab
emne
##farten
kanadensiska
community
grundlæggende
fit
nummeret
molophilus
kirkelige
forluster
tekniken
blanke
##ugou
sved
stalle
definisjon
dominert
fjarilsmyggor
naturreservatet
drabbade
##forkortning
padd
spd
koma
deltagarna
fiende
bale
glom
beslakt
bradford
krise
tint
ventet
##stjerne
forbruk
krus
patron
grensene
##ædagog
##kyst
teologiske
markerer
typiska
hannar
##vina
edge
develop
moses
civilis
amerikanerne
inntekt
##ansens
rundan
##inka
##rekning
##sonen
udsat
klang
##quil
##bilar
turkmen
kunstakademiet
livsl
morkare
folketal
tempelet
dress
##berland
##opo
monotyp
kronet
##saret
##anos
stikk
stjør
traning
kunstig
##perioder
regne
utgangen
sakaldt
calc
marseille
##erob
##ogly
anita
kino
distansen
##ovitj
opgør
link
stodja
##iderade
kritiske
bostads
##olusjonen
presentert
facebo
fott
##etere
understod
uppfoljare
##icka
undersøgelse
serbiska
aksjon
ombygget
##fore
##ferdig
kulturell
vakre
minoritet
morrison
##ussa
aless
kvitt
upplands
##røret
##stykket
lærar
390
statistikk
andrej
vestlege
presten
1754
##eselskap
mav
##skyd
utlandsk
oluf
##uppdrag
felipe
vistades
fremfor
autoritet
valerenga
pels
pret
vanua
sarcophaga
##verdi
##egrad
navarra
bilj
gravbin
sparre
foregikk
middle
dall
jum
##orien
avsett
varder
elin
forlatt
byprefekturet
##ttene
opfyl
friis
bibeln
indirekte
bjarne
mette
høyden
##fjarden
midtøsten
fylkest
barnebarn
erobrede
cornwall
medfører
##bers
##ansas
sicilia
tyngd
##epartementet
slim
##manden
kommitten
##imil
sidorna
innspilt
intresserade
umulig
##iek
utkanten
landbru
nybildade
nærleiken
uttalt
##olepis
wain
##anthe
vasternorr
høne
galic
kvinnlig
vicente
tillbak
redaktion
drottningen
dsb
skansen
##shed
folketeljinga
##oub
vastmanlands
##alea
martyr
kunglig
arkitekturen
fuktig
uddevalla
pokemon
ade
ruta
##arerna
pojk
##sprojekt
tillkannag
##entuna
kule
artium
##hielm
sakra
tomten
uppehall
sergej
##ulator
selge
vision
demo
##thonius
##sete
forhandlingar
demonstra
auktors
somalia
else
mec
besle
bennett
kongep
1670
scarabaeoidea
cuch
ombyggnad
reuter
adrien
folkom
works
prinsippet
konstnarlig
erbjod
annoncer
dothide
retter
##byt
samlar
dagligt
forsøkt
producenter
konstruktionen
catharina
aserbajdsjan
sigt
natrium
apollo
##yter
##imod
teken
sandvik
ridd
sees
raknades
kræver
atacama
skenbar
hogtid
##gary
##stemt
arrangerte
designer
nir
code
austsida
olie
##øvrig
##cliffe
##skvin
happ
evig
retninger
auto
mose
meknes
repræsentanter
ballet
##onte
##verv
kaos
kjemiske
io
enzy
##ikor
##axter
##shoved
##iosa
##bri
fauna
##komster
frug
femteplass
tegneserie
korgblommiga
rekommender
##sum
##losis
repræsentant
stub
##ript
mussel
forestilling
julen
byggnads
keramik
christer
auktorsforkortning
unifor
sprit
tortur
kup
sean
aston
kunstneren
bess
##sbergs
inkomst
sviger
praha
anmeldelser
væsentlig
pionjar
fd
plade
sittande
tatbefolkad
aterin
kroatisk
filosofen
innspillingen
kæmpe
gaster
anhalt
##odactylus
landsfor
colle
molekyler
##have
aterforen
##sarbet
grop
##irt
laver
utdod
ptolema
eub
##75
aro
schumann
nansen
pamp
right
##yros
prosti
##levende
##loo
infanteri
##agere
##ariaceae
pabegynt
martinez
skum
vedlar
secur
##sliv
##oney
bedriften
alek
udgivelse
daggdjursart
havsytan
uafhængighed
##iopsis
##gades
##idos
##rose
##ppo
##rilus
kvalet
1751
progressiv
##øvar
##asten
##ekar
nuaf
djuret
nikolai
konsulent
norway
brannen
konsonant
tou
benny
bryan
warwick
sibirien
xv
##avu
grunde
sjunga
annie
##melia
petrov
baptist
bachelor
amundsen
kommunfullmaktige
moten
herning
aga
recept
vapenflugor
##ckningen
##landslaget
kampanj
frol
samlingsut
eiendommen
avant
##otrop
kanter
offiserer
fortellingen
meddelte
tilstræ
engagerade
prøyssiske
##ktt
ave
##engde
sørsida
flash
kommersiella
partiledare
##fanns
libanonberget
infanteriet
##ingens
norrlands
vanskap
schul
jammu
pearl
burn
robertson
fartøy
massiv
##mekan
##tillverk
##isia
bey
galak
solidar
verksted
albansk
both
gus
uklart
##agin
regjerings
##kontrakt
want
##mok
##oktor
aver
plades
short
skjeb
maskinge
bish
hiller
kampar
fallen
tenner
lisens
pallid
##odar
synet
##ifas
hald
byrd
##avdelning
##dow
##ysse
gennembrud
kontraktet
tragspinnare
pilgrim
unix
kvallen
##ryk
##selskab
##foreningens
konstnarliga
opdaget
miy
vardet
hertil
##byggda
allereie
tamligen
utpekt
##icalis
gammar
erebia
niz
##iol
##erats
svov
1723
##verker
hanter
##eki
##eba
##ografisk
kristendomen
kour
sunget
##ahar
##iales
corps
falla
tekniker
##sbyen
##ospilus
leiren
aske
forstod
portland
vanligare
##verdenen
forøvrig
blott
vaxa
trem
molt
faktiskt
anerkjente
blokker
landsm
flukt
flykte
halvo
eigne
annonserte
stelis
##ogna
jarv
fortroende
##vinge
##chon
seccion
naturvetenskap
løve
lindley
leningrad
aktion
##alyx
##onymus
substantiv
katte
##skibet
##chem
proff
vidar
neoc
olympic
undersida
bombefly
enlighet
##idrett
1721
ulrika
webbplats
jefferson
development
slavar
##icularis
tree
formelle
##inering
uttag
partiene
befint
fuzhou
munnen
avla
registrering
##fargad
samlades
avskaffades
##stell
framja
##synet
framgangsrikt
wied
canterbury
##rasket
##andør
forsikt
rovdyr
wings
work
##mouth
gonzalez
omdiskuter
##arts
maya
indonesia
rhy
1690
fletcher
##zt
unikt
bram
burns
##undey
stjarnans
##eria
varnp
kanot
osten
forskar
vitamin
budsj
potatisvaxter
zhong
taksonom
fortellinger
flight
listas
##formaga
sannolik
samferdsel
##ogryl
##asar
spelats
stadionet
kortvar
kirkegarden
beaver
tjansteman
##journalist
odes
efterfølger
apningen
##førtes
korstog
##seth
lauritz
sotsji
vulkanen
gyllene
##atom
harbour
paralla
rotation
virkede
hjalper
plock
kongsv
ingvar
##matning
##order
woman
##analy
armer
##rae
smelte
##klæ
##ochilus
klubbene
##smiljø
kompaniet
saussure
niv
##ws
##olp
holt
jeolla
tagits
richardson
orientalis
##ullen
roberto
zarago
komponerade
##kolon
##arke
mma
forskellig
##opera
spillefilm
##36
kommunistisk
vilda
price
teaters
este
##arant
##strat
pax
##ommunik
##stjarnor
##assan
##hani
hardrock
kingston
dramatiska
utbygging
wellington
fraktet
meriter
rikard
inneband
møtet
eastern
gyeongsang
gag
##aridae
##ivision
##spett
grabrun
midter
acant
##ignon
akademiske
cesar
temmelig
dotterbolag
soloartist
ajax
##open
utbyte
starr
essex
mandeh
sekelskiftet
luks
startar
pasienter
muligheter
##forband
penning
nordirland
kling
forre
sverig
##festet
civile
hjulspindlar
namngjeve
##sheim
konkurrencen
mængder
gob
##sanger
##umont
springer
##okon
hotade
bayan
kampanjen
##flokkur
gibraltar
bett
##kusten
manens
##otettix
smør
interna
edition
temat
##espolit
forfat
flytende
ingrediens
##otho
syne
##ylli
spaniens
prestige
landsbygden
tosc
##atti
##byran
##venn
topps
1742
##din
##ovica
##jarnarna
##huang
sikrede
vurdert
bragt
phytose
stip
genetiska
favoritt
folkhogskola
lamiinae
1748
fiendt
veld
##craft
seng
køl
koster
sjog
flog
utgjev
##garh
værket
sandy
festet
brandes
inndelingen
##visningen
taman
referanser
ghundey
kritikere
susan
ryggrad
oppnadd
##idningen
delph
filial
won
##rorna
solokar
knott
sparrisvaxtart
##seng
kjeller
universitat
wein
lillestrøm
kristiansund
cheil
overenskomm
##pip
husets
fabrikker
udvalg
katrine
##boa
calgary
gunst
konkurranser
elektris
situationer
lanserte
klokke
kalenderen
jamaic
spat
##isset
##porten
nazitysk
sg
##ια
vaxande
trek
flotta
##ogy
##icera
utgi
dommen
beno
mørkt
##apeut
brøndby
##opptak
handverk
turin
##angeliet
chalmers
fænomen
##skyting
##egionen
underk
walde
stjernen
zaragoza
forvan
frammande
aldste
sønderj
kirgizistan
##opan
kanslor
platon
##loppor
næstved
##resultatet
øverstkommanderende
yell
##osk
##spol
universet
grevskap
tallrike
borgermester
1746
##omphus
byggnadsm
pavirke
celeb
spektralklass
410
jokk
##smer
rekrutter
##urum
maleren
##flod
judisk
muk
oman
##virksom
##kroppen
facebook
##amisk
ljust
simpsons
fremtrædende
sullivan
850
anerkendt
digitalt
##legaste
biel
richmond
medisinske
løpebiller
nadd
##asaki
bevap
pasient
industrier
kommunestyret
hojden
##styrk
somers
##vaningen
globale
noregs
befinna
hanner
##ibo
##skriven
skadades
##iering
##heterna
energien
europave
allianse
index
boule
libreville
##stjenesten
##arkarriar
u23
sandberg
dreiv
jente
tils
utal
##smon
##oway
krystall
melodin
##hyl
##rekke
perkins
##sbas
inledningsvis
slovakia
munnar
gin
mennene
andes
neol
##kontin
suv
varede
varifran
tham
udm
hemmet
nationellt
sammanfatt
covid
kinn
##abar
##erty
verdien
##foreningar
gour
##alens
jubil
maus
abbed
straum
daliga
købt
##ospor
befinder
##kyrkje
avdelingen
bulgarsk
hedersd
##ðurland
montgomery
##ية
##sbanan
##uaq
omstridt
##batal
##rab
konvo
artikkelen
opdelt
folkeg
producerar
kommentar
peperomia
##isj
milton
trup
baltimore
##stillstand
eden
pyeong
##oning
##osma
##ospermum
adskilt
##aneus
guide
##regist
##sdistriktet
1743
440
røn
ornit
mits
hvile
##ræner
opererer
budskap
skulen
##amfund
lolland
##chal
stød
tidigaste
blat
schum
forhallandet
sediment
høyesterett
biz
##esson
tiltradte
##ikerne
solle
søsken
lufthavnen
vores
##regeringen
bands
##ioxid
##ærket
halvbror
grotta
intelligens
bjur
kock
##yana
franken
##utta
pool
##svard
olyck
introducerade
landsfiskalsdistrikt
foreligger
##ugu
##rington
##kloster
campan
kjemisk
pietro
430
urs
lissa
porn
vinge
##ruta
##imot
scap
vitja
avtalet
eskad
nipp
##46
kvite
amy
geologiske
londons
##goring
##ced
1630
endda
##rostningen
foreslag
##amarca
ormart
##skort
troppen
forveksles
paralympiske
strig
bevidst
##amoto
depress
utro
gjem
interne
agaren
klinisk
fid
kiv
##pens
##iulus
tilladelse
angssk
tenor
castell
omtaler
##øbt
frigj
dik
medlems
mogens
##lind
vernet
foretatt
blackburn
bengtsson
homof
forklara
##igor
novo
##caena
##regemente
alvdal
##text
ulrich
møtes
##stavlingarna
omdø
geometri
##asjen
thra
endres
fleet
reaktioner
introduserte
##urahan
nabok
##chefen
finaler
##retninger
##husen
krop
relie
pengene
tafilalet
yl
omgjort
marm
diosc
forsøger
accra
##kna
kontoret
##strakte
jakten
citer
formatet
syng
køge
irene
christiansen
anknytning
##odel
levere
##oniscus
oppgrad
##varder
handelsen
illa
sideel
separata
strategiske
okkupasjonen
mullbar
grundtvig
hørt
##gota
##emo
tilbudt
bogstav
inspelningar
involveret
slekta
sexton
bonsyr
binde
##hynchus
##ionerna
utnem
patient
populationer
##institusjon
jævn
berge
quis
hanger
yar
anac
kalv
banden
albania
##sbourg
clemens
##chtenstein
forarsaket
kk
loss
stress
runda
breen
lundberg
pekar
krævede
kelurahan
trade
##ked
uppsattning
kronobergs
murphy
bekant
tilføj
gitarristen
bnp
hanne
##udo
husdyr
##sgade
##relater
fetter
mian
tjer
erind
##forl
##abl
brock
lokalpolit
bolsje
forekomma
##sfly
etablering
##spraklige
##juka
dietrich
nøj
##skoter
pasc
krakow
riksradet
480
ballen
odin
##foreninger
vadstena
undervisade
1718
meddelades
reformasjonen
søl
##stida
skyt
alten
hiv
##hia
utval
mektig
flores
lutz
auschwitz
##oksid
oppgitt
sidney
strø
##gjøre
##elb
##raderne
handlet
##useum
qornet
##advokat
gne
##ulara
henan
høgare
ejede
anthurium
iak
##frem
tillika
elektroniske
##iregemente
tramp
##vester
##skrav
medium
dalsland
truppen
fengslet
##anserte
##arro
omar
afløst
eury
programvare
stoppede
skodespel
##ssted
bracon
ceremoni
profet
suksessen
isabel
bøndene
dothideomycetes
##odidae
overalt
chester
##atsu
veil
fastigheter
frei
##kommando
##alyptus
##mansk
##varde
mindret
tavast
liters
varumark
##otan
ligget
##eburg
##aho
madison
##anere
##onda
##emidler
##skapten
dyker
koreograf
fusioner
strækker
kaliber
inspirerade
versailles
##mons
##aleh
faust
namibia
clear
mixed
intervjuer
nacka
##rama
##unes
intog
medeltid
separate
stolt
phyllanthus
apotek
foruds
fransmannen
vanlege
frimurer
1747
nathaniel
angsskinn
tander
byggda
##into
##ization
asikter
uttagen
systems
nigric
teamet
##48
##ados
##nah
oppvar
dypt
oklart
tari
##rigt
caud
##stallde
armenia
erhvervs
tov
##ransport
mindste
østlandet
fortsætte
etablerades
erobra
satter
##alv
##idge
##roskop
duo
skaret
antarktisekspedisjonen
matcherna
minoritets
##rakte
##delte
svæ
tals
skjedd
distribution
##bunden
omslaget
ching
kuwait
vetenskaplig
menneskets
okkupert
fuldt
##jm
##itivt
kortvarig
##arbetet
indianer
ocampo
djurgardens
bronzemedal
##arti
antika
mons
innehar
diskval
1709
koncentration
spidsen
##itum
##spra
forstør
kirch
pear
kryp
##iformes
istedenfor
forsen
trim
sjom
nanchang
##skurs
etasje
vaxel
garm
solberg
##virkning
opnaet
aftenposten
jaz
stack
dicty
auk
datorer
jot
nsd
domkyrka
bronsaldern
mordades
semifinaler
diplomatiske
trettio
##neys
##ongo
talman
##issel
kongsvinger
mf
huvuddelen
koord
feber
grafik
##fabrikken
ehren
begransade
bratte
phyllachora
inskrip
##leman
skram
haz
fulv
statsministeren
jiangsu
phor
##esiska
##emiddel
totten
arbeidar
sprida
angsskinnbaggar
sess
##irig
internt
styrer
kurfyr
saturn
##fris
slank
##iful
##render
##ileet
edith
skrivs
maiden
barrio
bokt
datum
woods
##isel
utkast
##offiser
beslektet
##skiva
hau
testa
##ellerna
appel
yak
sonson
ichneumon
spinn
albumets
pehr
falc
tiber
##trasket
avstandet
typiskt
mys
rhodes
eksporter
studierna
arving
gwh
jennifer
nixon
hydr
1749
sønderjylland
##nation
karm
##ineata
glauc
sykdommen
reklame
nud
vate
##rytter
pompe
oppvekst
##menne
sjopung
ordfor
nicol
fartygen
lofoten
fullstandigt
##fuhrer
upphoj
##sbana
airways
##rorelse
forestillingen
regisserades
specifikt
hank
kunskaper
legitim
##lum
ofre
bismarck
dækket
karb
trel
##alisere
lederne
fokuserer
bjørns
utslipp
regulering
owen
##arep
##aec
##ymmet
referens
athletic
hesten
pern
bekendt
##konsul
##isont
unions
chip
sinn
blanda
henriks
parten
kryds
oppdager
gottingen
intresset
purp
##rukne
varldsmastare
underjordisk
pelle
##esystemet
grunder
##matidae
utnamnd
nutida
gart
##zsch
kirsten
legg
fangelset
nevner
samp
##okker
tidnings
terrang
bestandet
hjuld
##ængere
arkansas
##sgrupp
forklarer
arroio
##ambi
sau
elevene
representera
##nytter
zepp
skildrer
greatest
operativsystem
avvecklades
etterfulgte
antikkens
gerard
leks
overnatur
butter
##lens
##departement
lazar
##rikespolit
##systemer
amfib
##byrdes
kassel
tarm
vurdering
sæn
bernad
verkligheten
skicka
noir
taip
##jørn
dramatiske
voll
##atidae
harror
##rysa
##brygg
1745
##sworth
ferskvann
##ил
##odz
tillfallet
paraf
sterkere
mycosphaer
##vesenet
lard
telen
salmeb
##domet
objektet
hirsut
rederiet
##astrof
provinsene
australiska
fiol
affarer
##jedalen
algorit
##arica
##ices
toc
##ypha
##ricus
##buch
usikkert
motstander
utformet
##slesvig
neapel
farre
baserte
grep
feir
sveitsisk
vikingat
mycet
##oparmelia
##amps
fah
karta
sue
##allande
allike
##opolis
klær
lyman
prior
##tepec
##lignende
liege
split
##undin
##erea
haemat
similis
bolaghi
kollap
pictures
beskytter
snur
grunnloven
##onyx
brollop
##sopp
##lær
##اغ
trot
højester
arrangementet
midtjylland
brooks
flicka
vassdrag
nj
larar
lagtinget
studieresor
sejl
tvingade
ungdomsskole
bonnier
upptrader
upprepade
##iculatus
klassiker
købmand
nebra
voblast
fremmest
hood
firman
variation
florens
inngatt
##rebet
##øyst
krak
epit
tender
gres
etterkommere
##otti
personell
greide
styring
piloter
fordom
##aldo
benito
##scorer
##stillverk
radde
##klipp
##sslut
1620
##beteck
shep
spelets
##ografiske
nestleder
brotts
oldtidens
legendariske
##ais
##atel
træer
pavirker
##otrema
coach
kraj
metaller
fasad
##spillede
fernande
hedersdoktor
allikevel
##ammar
opphavet
##formade
anset
arkivet
medelhavet
##athon
frederic
stridsvag
tuberc
manns
##ologie
platyp
deltaget
debat
impro
acer
##ljung
enskild
exklus
yngsta
ersatts
schneider
konkurrens
aktier
kasta
ture
##hord
navnlig
explos
ptolemaios
##ibus
tv3
##ønster
lukt
virid
akustisk
berberis
solleftea
##vend
##ophis
synlige
lily
insign
stabilitet
smerte
سی
##skader
##chichte
##ikki
##izhou
##ransje
berk
##owska
komprom
intensiv
nottingham
##utdanning
plund
anglik
kvinnorna
svarigheter
##inspektør
##ouk
##betegn
mista
pjaser
asiatiske
vacker
##sbanken
##coe
klarade
##kropp
genetisk
kord
wander
ystad
statue
brukade
producenten
uppmarksammades
##gah
faststalldes
hapl
vackra
enighet
slass
prel
transf
betecknar
symfoniorkester
tippelig
utrecht
brasilianske
baha
cuka
storstadsomradet
##greve
sion
maw
russerne
clarence
tusentals
veteran
innebandy
nyck
skoleb
intag
ekonomin
##ardia
flyene
øye
brorson
ersattning
valkanda
##ulykke
silvermedaljor
qala
##lake
lau
forsin
##design
fortsætter
atelje
jubileum
##eson
syds
johans
albuma
##ymus
simplex
successivt
wonder
##etiska
harstad
kalder
marknads
utmarkt
jyske
##ulina
tresteg
shay
##dagar
##ophil
##byggnader
fullbord
##øper
understre
styreleder
true
kilden
##sagt
sydvestlige
##skadespelare
##33
##iban
diosp
peace
produceras
bourbon
##splatsen
meld
forsking
##forsalj
leverte
##ostylis
##spindel
mona
##svatnet
midtre
diamant
uavgjort
engelbre
diktatur
spesif
transform
kolk
##ozo
tilsett
beskjed
chim
reelle
uppskattas
sateri
omfatte
vorp
##itiva
seni
arecaceae
##bjorn
ssr
##kretsen
pyeongchang
##xis
##ᅡᆫ
##ogh
skolek
epig
##strekk
byte
taj
keny
erobringen
##flyttning
radikalt
jesuitt
kb
kommunikationer
volleyballspiller
##eling
##acion
tydelige
anvandare
tagg
1752
montert
##institutet
kidnapp
ike
kow
ramp
##verne
##behov
fotbollsklubb
##zzia
##næs
fragmenter
chelonus
gestapo
##prem
##obo
sosialistisk
mørkere
nade
##itlan
langden
bemer
flagga
rachel
cove
##sviks
##orca
111
redd
tata
liberia
voice
zeppelin
mug
usd
vod
landsvag
kommend
sabot
sammenslut
thuringen
kasakhstan
feld
myl
##kelsen
##bang
stell
periodisk
lasar
##ognos
bevara
jarnvagar
indledte
ferguson
indig
##betes
##zealand
utgivare
highway
zw
##ostomus
makta
smala
roche
duett
##oreningar
trycker
tallets
campyl
plasserte
sydøstlige
##iling
##rikk
hogra
husene
begynt
tilbrakte
vesle
pyth
##avar
amman
##rary
##shistorie
slippe
##away
1753
1734
erfaringer
forebild
besøkende
shakespeares
gp
brunt
hunner
##nads
omtalas
hemmaplan
hogkvarter
negativa
due
##allus
rekre
kooper
kræfter
folkemusikk
tilstrekkelig
indspil
##værd
arrangemang
latta
kirimojavaxter
sædvan
##tagen
##stu
greta
##ohe
disco
petri
mogleg
frilans
fornyet
langsamt
heath
koranen
##ytta
fortsattning
referanse
tydliga
gavleborgs
cannes
jat
##arns
derav
universum
planlagte
angrans
municipalsam
abitibi
nyc
abent
worms
narkotik
augustin
##ocentrus
temisc
kapittel
bahamas
korrup
konkurrert
ensemble
modtager
##ukka
zhou
managua
##osjon
herren
altar
frederiks
borgerlige
marginal
1697
haga
nann
heli
noverande
##hirac
##ktivt
pseudo
##isaari
snakke
grunner
fulle
yard
forare
##ogt
##yphus
##izer
satts
##foljd
underholdning
engasjement
ravn
dognin
arkeolog
supporter
stamp
##oton
##konomi
bidratt
samarbetade
læse
tsa
søvn
joens
leksand
##lunde
##jenko
blast
duncan
##løsningen
vasternorrlands
##reta
##klokrypare
dib
kola
fiktive
lyg
##agra
atferd
##verkets
besoker
passagerer
indbyggertal
biot
sagas
skriftlige
1744
kontrollera
signert
landhockeyt
amalie
alands
p1
##terte
nordsamisk
##mændene
huddinge
yi
avt
filer
prastvig
##mæssige
bian
fow
tuc
anmal
redovis
##stamning
orsakar
selvstend
promover
jf
innom
glets
segl
sakert
forsvarte
salto
##backslandor
insister
##elinjen
##hius
malawi
##snamnden
##amet
finansk
##kehus
flygflott
forvingen
busett
ørn
innspilling
tagen
attacker
##inds
##sveg
semifinale
kreds
tund
##embl
utbry
fremskritt
##virksomhed
schweiziska
##skytter
etapper
rincon
watt
marsh
omgivet
visser
##farget
kyrkorum
##undersok
rocks
gravfalt
sofie
digitala
huk
##egra
##emum
tillats
##sae
tidende
holdene
mcdonald
toledo
##dansk
##eper
##rennet
colon
rejst
bestammelser
yin
infin
##amilien
standley
forventes
heinz
hjertet
potatisvaxtart
sades
nordsjøen
flertallet
takht
lyssn
affinis
##fuglar
##aphis
[...]
