[PAD]
[unused0]
[unused1]
[unused2]
[unused3]
[unused4]
[unused5]
[unused6]
[unused7]
[unused8]
[unused9]
[unused10]
[unused11]
[unused12]
[unused13]
[unused14]
[unused15]
[unused16]
[unused17]
[unused18]
[unused19]
[unused20]
[unused21]
[unused22]
[unused23]
[unused24]
[unused25]
[unused26]
[unused27]
[unused28]
[unused29]
[unused30]
[unused31]
[unused32]
[unused33]
[unused34]
[unused35]
[unused36]
[unused37]
[unused38]
[unused39]
[unused40]
[unused41]
[unused42]
[unused43]
[unused44]
[unused45]
[unused46]
[unused47]
[unused48]
[unused49]
[unused50]
[unused51]
[unused52]
[unused53]
[unused54]
[unused55]
[unused56]
[unused57]
[unused58]
[unused59]
[unused60]
[unused61]
[unused62]
[unused63]
[unused64]
[unused65]
[unused66]
[unused67]
[unused68]
[unused69]
[unused70]
[unused71]
[unused72]
[unused73]
[unused74]
[unused75]
[unused76]
[unused77]
[unused78]
[unused79]
[unused80]
[unused81]
[unused82]
[unused83]
[unused84]
[unused85]
[unused86]
[unused87]
[unused88]
[unused89]
[unused90]
[unused91]
[unused92]
[unused93]
[unused94]
[unused95]
[unused96]
[unused97]
[unused98]
[unused99]
[unused100]
[unused101]
[unused102]
[unused103]
[unused104]
[unused105]
[unused106]
[unused107]
[unused108]
[unused109]
[unused110]
[unused111]
[unused112]
[unused113]
[unused114]
[unused115]
[unused116]
[unused117]
[unused118]
[unused119]
[unused120]
[unused121]
[unused122]
[unused123]
[unused124]
[unused125]
[unused126]
[unused127]
[unused128]
[unused129]
[unused130]
[unused131]
[unused132]
[unused133]
[unused134]
[unused135]
[unused136]
[unused137]
[unused138]
[unused139]
[unused140]
[unused141]
[unused142]
[unused143]
[unused144]
[unused145]
[unused146]
[unused147]
[unused148]
[unused149]
[unused150]
[unused151]
[unused152]
[unused153]
[unused154]
[unused155]
[unused156]
[unused157]
[unused158]
[unused159]
[unused160]
[unused161]
[unused162]
[unused163]
[unused164]
[unused165]
[unused166]
[unused167]
[unused168]
[unused169]
[unused170]
[unused171]
[unused172]
[unused173]
[unused174]
[unused175]
[unused176]
[unused177]
[unused178]
[unused179]
[unused180]
[unused181]
[unused182]
[unused183]
[unused184]
[unused185]
[unused186]
[unused187]
[unused188]
[unused189]
[unused190]
[unused191]
[unused192]
[unused193]
[unused194]
[unused195]
[unused196]
[unused197]
[unused198]
[unused199]
[unused200]
[unused201]
[unused202]
[unused203]
[unused204]
[unused205]
[unused206]
[unused207]
[unused208]
[unused209]
[unused210]
[unused211]
[unused212]
[unused213]
[unused214]
[unused215]
[unused216]
[unused217]
[unused218]
[unused219]
[unused220]
[unused221]
[unused222]
[unused223]
[unused224]
[unused225]
[unused226]
[unused227]
[unused228]
[unused229]
[unused230]
[unused231]
[unused232]
[unused233]
[unused234]
[unused235]
[unused236]
[unused237]
[unused238]
[unused239]
[unused240]
[unused241]
[unused242]
[unused243]
[unused244]
[unused245]
[unused246]
[unused247]
[unused248]
[unused249]
[unused250]
[unused251]
[unused252]
[unused253]
[unused254]
[unused255]
[unused256]
[unused257]
[unused258]
[unused259]
[unused260]
[unused261]
[unused262]
[unused263]
[unused264]
[unused265]
[unused266]
[unused267]
[unused268]
[unused269]
[unused270]
[unused271]
[unused272]
[unused273]
[unused274]
[unused275]
[unused276]
[unused277]
[unused278]
[unused279]
[unused280]
[unused281]
[unused282]
[unused283]
[unused284]
[unused285]
[unused286]
[unused287]
[unused288]
[unused289]
[unused290]
[unused291]
[unused292]
[unused293]
[unused294]
[unused295]
[unused296]
[unused297]
[unused298]
[unused299]
[unused300]
[unused301]
[unused302]
[unused303]
[unused304]
[unused305]
[unused306]
[unused307]
[unused308]
[unused309]
[unused310]
[unused311]
[unused312]
[unused313]
[unused314]
[unused315]
[unused316]
[unused317]
[unused318]
[unused319]
[unused320]
[unused321]
[unused322]
[unused323]
[unused324]
[unused325]
[unused326]
[unused327]
[unused328]
[unused329]
[unused330]
[unused331]
[unused332]
[unused333]
[unused334]
[unused335]
[unused336]
[unused337]
[unused338]
[unused339]
[unused340]
[unused341]
[unused342]
[unused343]
[unused344]
[unused345]
[unused346]
[unused347]
[unused348]
[unused349]
[unused350]
[unused351]
[unused352]
[unused353]
[unused354]
[unused355]
[unused356]
[unused357]
[unused358]
[unused359]
[unused360]
[unused361]
[unused362]
[unused363]
[unused364]
[unused365]
[unused366]
[unused367]
[unused368]
[unused369]
[unused370]
[unused371]
[unused372]
[unused373]
[unused374]
[unused375]
[unused376]
[unused377]
[unused378]
[unused379]
[unused380]
[unused381]
[unused382]
[unused383]
[unused384]
[unused385]
[unused386]
[unused387]
[unused388]
[unused389]
[unused390]
[unused391]
[unused392]
[unused393]
[unused394]
[unused395]
[unused396]
[unused397]
[unused398]
[unused399]
[unused400]
[unused401]
[unused402]
[unused403]
[unused404]
[unused405]
[unused406]
[unused407]
[unused408]
[unused409]
[unused410]
[unused411]
[unused412]
[unused413]
[unused414]
[unused415]
[unused416]
[unused417]
[unused418]
[unused419]
[unused420]
[unused421]
[unused422]
[unused423]
[unused424]
[unused425]
[unused426]
[unused427]
[unused428]
[unused429]
[unused430]
[unused431]
[unused432]
[unused433]
[unused434]
[unused435]
[unused436]
[unused437]
[unused438]
[unused439]
[unused440]
[unused441]
[unused442]
[unused443]
[unused444]
[unused445]
[unused446]
[unused447]
[unused448]
[unused449]
[unused450]
[unused451]
[unused452]
[unused453]
[unused454]
[unused455]
[unused456]
[unused457]
[unused458]
[unused459]
[unused460]
[unused461]
[unused462]
[unused463]
[unused464]
[unused465]
[unused466]
[unused467]
[unused468]
[unused469]
[unused470]
[unused471]
[unused472]
[unused473]
[unused474]
[unused475]
[unused476]
[unused477]
[unused478]
[unused479]
[unused480]
[unused481]
[unused482]
[unused483]
[unused484]
[unused485]
[unused486]
[unused487]
[unused488]
[unused489]
[unused490]
[unused491]
[unused492]
[unused493]
[unused494]
[unused495]
[unused496]
[unused497]
[unused498]
[unused499]
[unused500]
[unused501]
[unused502]
[unused503]
[unused504]
[unused505]
[unused506]
[unused507]
[unused508]
[unused509]
[unused510]
[unused511]
[unused512]
[unused513]
[unused514]
[unused515]
[unused516]
[unused517]
[unused518]
[unused519]
[unused520]
[unused521]
[unused522]
[unused523]
[unused524]
[unused525]
[unused526]
[unused527]
[unused528]
[unused529]
[unused530]
[unused531]
[unused532]
[unused533]
[unused534]
[unused535]
[unused536]
[unused537]
[unused538]
[unused539]
[unused540]
[unused541]
[unused542]
[unused543]
[unused544]
[unused545]
[unused546]
[unused547]
[unused548]
[unused549]
[unused550]
[unused551]
[unused552]
[unused553]
[unused554]
[unused555]
[unused556]
[unused557]
[unused558]
[unused559]
[unused560]
[unused561]
[unused562]
[unused563]
[unused564]
[unused565]
[unused566]
[unused567]
[unused568]
[unused569]
[unused570]
[unused571]
[unused572]
[unused573]
[unused574]
[unused575]
[unused576]
[unused577]
[unused578]
[unused579]
[unused580]
[unused581]
[unused582]
[unused583]
[unused584]
[unused585]
[unused586]
[unused587]
[unused588]
[unused589]
[unused590]
[unused591]
[unused592]
[unused593]
[unused594]
[unused595]
[unused596]
[unused597]
[unused598]
[unused599]
[unused600]
[unused601]
[unused602]
[unused603]
[unused604]
[unused605]
[unused606]
[unused607]
[unused608]
[unused609]
[unused610]
[unused611]
[unused612]
[unused613]
[unused614]
[unused615]
[unused616]
[unused617]
[unused618]
[unused619]
[unused620]
[unused621]
[unused622]
[unused623]
[unused624]
[unused625]
[unused626]
[unused627]
[unused628]
[unused629]
[unused630]
[unused631]
[unused632]
[unused633]
[unused634]
[unused635]
[unused636]
[unused637]
[unused638]
[unused639]
[unused640]
[unused641]
[unused642]
[unused643]
[unused644]
[unused645]
[unused646]
[unused647]
[unused648]
[unused649]
[unused650]
[unused651]
[unused652]
[unused653]
[unused654]
[unused655]
[unused656]
[unused657]
[unused658]
[unused659]
[unused660]
[unused661]
[unused662]
[unused663]
[unused664]
[unused665]
[unused666]
[unused667]
[unused668]
[unused669]
[unused670]
[unused671]
[unused672]
[unused673]
[unused674]
[unused675]
[unused676]
[unused677]
[unused678]
[unused679]
[unused680]
[unused681]
[unused682]
[unused683]
[unused684]
[unused685]
[unused686]
[unused687]
[unused688]
[unused689]
[unused690]
[unused691]
[unused692]
[unused693]
[unused694]
[unused695]
[unused696]
[unused697]
[unused698]
[unused699]
[unused700]
[unused701]
[unused702]
[unused703]
[unused704]
[unused705]
[unused706]
[unused707]
[unused708]
[unused709]
[unused710]
[unused711]
[unused712]
[unused713]
[unused714]
[unused715]
[unused716]
[unused717]
[unused718]
[unused719]
[unused720]
[unused721]
[unused722]
[unused723]
[unused724]
[unused725]
[unused726]
[unused727]
[unused728]
[unused729]
[unused730]
[unused731]
[unused732]
[unused733]
[unused734]
[unused735]
[unused736]
[unused737]
[unused738]
[unused739]
[unused740]
[unused741]
[unused742]
[unused743]
[unused744]
[unused745]
[unused746]
[unused747]
[unused748]
[unused749]
[unused750]
[unused751]
[unused752]
[unused753]
[unused754]
[unused755]
[unused756]
[unused757]
[unused758]
[unused759]
[unused760]
[unused761]
[unused762]
[unused763]
[unused764]
[unused765]
[unused766]
[unused767]
[unused768]
[unused769]
[unused770]
[unused771]
[unused772]
[unused773]
[unused774]
[unused775]
[unused776]
[unused777]
[unused778]
[unused779]
[unused780]
[unused781]
[unused782]
[unused783]
[unused784]
[unused785]
[unused786]
[unused787]
[unused788]
[unused789]
[unused790]
[unused791]
[unused792]
[unused793]
[unused794]
[unused795]
[unused796]
[unused797]
[unused798]
[unused799]
[unused800]
[unused801]
[unused802]
[unused803]
[unused804]
[unused805]
[unused806]
[unused807]
[unused808]
[unused809]
[unused810]
[unused811]
[unused812]
[unused813]
[unused814]
[unused815]
[unused816]
[unused817]
[unused818]
[unused819]
[unused820]
[unused821]
[unused822]
[unused823]
[unused824]
[unused825]
[unused826]
[unused827]
[unused828]
[unused829]
[unused830]
[unused831]
[unused832]
[unused833]
[unused834]
[unused835]
[unused836]
[unused837]
[unused838]
[unused839]
[unused840]
[unused841]
[unused842]
[unused843]
[unused844]
[unused845]
[unused846]
[unused847]
[unused848]
[unused849]
[unused850]
[unused851]
[unused852]
[unused853]
[unused854]
[unused855]
[unused856]
[unused857]
[unused858]
[unused859]
[unused860]
[unused861]
[unused862]
[unused863]
[unused864]
[unused865]
[unused866]
[unused867]
[unused868]
[unused869]
[unused870]
[unused871]
[unused872]
[unused873]
[unused874]
[unused875]
[unused876]
[unused877]
[unused878]
[unused879]
[unused880]
[unused881]
[unused882]
[unused883]
[unused884]
[unused885]
[unused886]
[unused887]
[unused888]
[unused889]
[unused890]
[unused891]
[unused892]
[unused893]
[unused894]
[unused895]
[unused896]
[unused897]
[unused898]
[unused899]
[unused900]
[unused901]
[unused902]
[unused903]
[unused904]
[unused905]
[unused906]
[unused907]
[unused908]
[unused909]
[unused910]
[unused911]
[unused912]
[unused913]
[unused914]
[unused915]
[unused916]
[unused917]
[unused918]
[unused919]
[unused920]
[unused921]
[unused922]
[unused923]
[unused924]
[unused925]
[unused926]
[unused927]
[unused928]
[unused929]
[unused930]
[unused931]
[unused932]
[unused933]
[unused934]
[unused935]
[unused936]
[unused937]
[unused938]
[unused939]
[unused940]
[unused941]
[unused942]
[unused943]
[unused944]
[unused945]
[unused946]
[unused947]
[unused948]
[unused949]
[unused950]
[unused951]
[unused952]
[unused953]
[unused954]
[unused955]
[unused956]
[unused957]
[unused958]
[unused959]
[unused960]
[unused961]
[unused962]
[unused963]
[unused964]
[unused965]
[unused966]
[unused967]
[unused968]
[unused969]
[unused970]
[unused971]
[unused972]
[unused973]
[unused974]
[unused975]
[unused976]
[unused977]
[unused978]
[unused979]
[unused980]
[unused981]
[unused982]
[unused983]
[unused984]
[unused985]
[unused986]
[unused987]
[unused988]
[unused989]
[unused990]
[unused991]
[unused992]
[unused993]
[unused994]
[unused995]
[unused996]
[unused997]
[unused998]
[unused999]
[UNK]
[CLS]
[SEP]
[MASK]
!
"
#
$
%
&
'
(
)
*
+
,
-
.
/
0
1
2
3
4
5
6
7
8
9
:
;
=
?
@
[
\
]
^
_
`
a
b
c
d
e
f
g
h
i
j
k
l
m
n
o
p
q
r
s
t
u
v
w
x
y
z
{
|
}
~
¡
¢
£
¤
¥
§
¨
©
ª
«
¬
®
¯
°
±
²
³
´
µ
·
¹
º
»
¼
½
¾
¿
×
ß
æ
ð
÷
ø
þ
đ
ħ
ı
ĳ
ł
ŋ
œ
ɐ
ɑ
ɒ
ɓ
ɔ
ɕ
ə
ɛ
ɡ
ɣ
ɦ
ɨ
ɪ
ɫ
ɯ
ɲ
ɾ
ʀ
ʁ
ʂ
ʃ
ʊ
ʋ
ʌ
ʎ
ʏ
ʒ
ʔ
ʕ
ʰ
ʲ
ʹ
ʻ
ʼ
ʾ
ʿ
ˀ
ˈ
ˌ
ː
˚
ˠ
ˡ
ˢ
α
β
γ
δ
ε
ζ
η
θ
ι
κ
λ
μ
ν
ξ
ο
π
ρ
ς
σ
τ
υ
φ
χ
ψ
ω
а
б
в
г
д
е
ж
з
и
к
л
м
н
о
п
р
с
т
у
ф
х
ц
ч
ш
щ
ъ
ы
ь
э
ю
я
ђ
є
і
ј
љ
њ
ћ
қ
ү
ә
ө
ա
բ
գ
դ
ե
զ
թ
ի
լ
կ
հ
մ
յ
ն
շ
ո
պ
ս
վ
տ
ր
ց
ւ
ֆ
׃
א
ב
ג
ד
ה
ו
ז
ח
ט
י
כ
ל
ם
מ
ן
נ
ס
ע
פ
ץ
צ
ק
ר
ש
ת
ء
ا
ب
ة
ت
ث
ج
ح
خ
د
ذ
ر
ز
س
ش
ص
ض
ط
ظ
ع
غ
ف
ق
ك
ل
م
ن
ه
و
ى
ي
پ
چ
ک
گ
ھ
ہ
ۇ
ی
ێ
ە
ܐ
މ
अ
क
ग
च
ज
ट
ड
ण
त
द
ध
न
प
ब
भ
म
य
र
ल
व
श
स
ह
ा
ि
ी
ो
ন
ব
ম
র
ল
া
ি
ਾ
க
ங
ச
த
ன
ப
ம
ர
ல
வ
ா
ி
ு
ం
క
గ
జ
ద
న
ప
ర
ల
ు
ก
ค
ง
จ
ช
ญ
ณ
ด
ต
ท
ธ
น
บ
ป
พ
ภ
ม
ย
ร
ล
ว
ศ
ส
ห
อ
ะ
า
เ
แ
โ
ไ
ນ
་
ག
ང
ད
ན
བ
མ
འ
ར
ལ
ས
ა
ბ
გ
დ
ე
ვ
ზ
თ
ი
კ
ლ
მ
ნ
ო
რ
ს
ტ
უ
ფ
ქ
შ
ძ
ხ
ᄀ
ᄂ
ᄃ
ᄅ
ᄆ
ᄇ
ᄉ
ᄋ
ᄌ
ᄎ
ᄏ
ᄐ
ᄑ
ᄒ
ᅡ
ᅢ
ᅣ
ᅥ
ᅦ
ᅧ
ᅩ
ᅪ
ᅬ
ᅭ
ᅮ
ᅯ
ᅲ
ᅳ
ᅴ
ᅵ
ᆨ
ᆫ
ᆯ
ᆷ
ᆸ
ᆼ
ን
አ
ក
ត
រ
ស
ា
ᴧ
‐
‑
–
—
‗
‘
’
‚
“
”
„
†
‡
•
…
‰
′
″
⁄
₁
₂
₃
₤
€
ℓ
№
™
⅓
⅔
←
↑
→
↔
⇒
⇔
∀
∃
∇
∈
−
∙
√
∞
∪
≈
≡
≤
≥
⊆
⋅
─
│
└
├
═
║
╔
╗
╚
╝
●
◡
◦
☆
☉
♠
♣
♥
♦
♪
♭
♯
⟨
⟩
ⴕ
ⴰ
あ
い
う
お
か
き
く
け
こ
さ
し
す
た
ち
っ
つ
て
と
な
に
の
は
ひ
ふ
ほ
ま
み
ゅ
ゆ
ょ
ら
り
る
れ
わ
ん
ァ
ア
ィ
イ
ウ
エ
オ
カ
キ
ク
ケ
コ
サ
シ
ス
セ
ソ
タ
チ
ッ
ツ
テ
ト
ナ
ニ
ネ
ノ
ハ
ヒ
フ
ヘ
ホ
マ
ミ
ム
メ
モ
ャ
ュ
ョ
ラ
リ
ル
レ
ロ
ン
・
ー
一
三
上
下
世
东
中
丸
丹
丽
之
乙
九
事
二
五
井
交
京
人
仁
仙
代
份
伊
会
伝
体
作
你
保
信
元
光
克
八
公
六
共
关
内
刀
分
剣
劉
力
加
勒
動
化
北
区
十
千
华
協
南
博
历
原
县
双
口
古
台
号
司
合
名
君
吳
吴
周
和
哈
唐
商
嘉
四
团
国
國
土
地
场
城
域
場
士
夏
外
多
大
天
太
夫
女
委
姫
威
子
字
学
孫
學
宁
安
宗
定
宜
宮
家
富
寧
寺
将
小
尔
尾
居
屋
山
岛
岡
岭
島
崎
崖
川
州
工
市
布
帝
平
年
幹
广
庆
店
府
康
廣
建
式
张
張
後
徐
御
徳
德
心
忠
愛
慶
成
战
戦
戰
所
手
拉
拳
政
文
斯
新
方
族
旗
日
昌
明
易
星
春
曆
曲
會
月
有
朝
木
本
朱
李
村
東
松
林
柔
柳
株
桥
梅
條
業
極
樂
橋
機
正
武
殿
民
気
氣
水
永
汉
江
汽
沖
沙
河
油
治
泉
法
泰
洋
津
流
海
清
港
湖
湾
漢
漬
灣
火
無
焼
爾
物
玄
玉
王
球
理
甘
生
産
田
由
甲
町
界
疆
白
百
皇
盟
直
相
省
県
真
眼
石
社
神
福
秋
秦
空
第
節
米
精
約
紅
級
縣
红
羅
美
群
義
者
聖
股
育
自
臺
花
英
茶
草
華
葉
蒙
藏
藤
虎
蛇
行
術
西
記
象
貴
路
車
軍
輪
辽
通
造
道
郎
郡
部
都
酒
里
重
野
金
鈴
鉄
銀
長
长
門
間
门
阳
阿
限
院
陳
陵
陽
隊
際
集
雪
青
韓
音
風
飛
飯
香
馬
马
高
魂
麗
黄
龍
龙
ﬁ
ﬂ
（
）
：
￼
##a
##r
##c
##n
##u
##e
##t
##y
##l
##h
##d
##o
##z
##i
##m
##k
##s
##g
##b
##j
##p
##x
##æ
##v
##f
##ø
##ط
##ل
##ي
##م
##و
##س
##7
##0
##w
##י
##ר
##א
##ן
##´
##ش
##ة
##₂
##4
##α
##ι
##κ
##q
##τ
##ρ
##ο
##λ
##ς
##6
##5
##×
##°
##1
##9
##ه
##ا
##د
##ト
##ル
##フ
##ロ
##ー
##ラ
##ス
##3
##8
##ం
##2
##ᅥ
##ᆫ
##ᄉ
##ᆯ
##ᄋ
##ᅳ
##ð
##ن
##ج
##ى
##³
##в
##я
##щ
##е
##н
##а
##ה
##ת
##ח
##ד
##ו
##ß
##ł
##₁
##у
##м
##і
##ı
##д
##и
##ᅵ
##ᆷ
##ᄀ
##ᅧ
##ᆼ
##ᄒ
##ᅴ
##ッ
##р
##о
##ф
##キ
##た
##ち
##ʿ
##к
##−
##®
##þ
##ε
##υ
##γ
##π
##η
##ћ
##з
##μ
##ع
##σ
##т
##ב
##ע
##л
##г
##ч
##خ
##đ
##ი
##ლ
##ა
##ძ
##ე
##ɾ
##с
##ν
##θ
##ω
##ز
##گ
##ر
##ю
##ш
##ᅡ
##រ
##ា
##ស
##↔
##ᄇ
##ᅮ
##ミ
##ク
##ف
##ی
##า
##ช
##ม
##ง
##ค
##ล
##ก
##ส
##น
##п
##ж
##²
##⅓
##ɐ
##ᄐ
##ᆨ
##レ
##リ
##ᄎ
##ь
##ت
##ب
##ʹ
##ᅩ
##ᅭ
##ᄌ
##ᅪ
##β
##φ
##ﬂ
##⁄
##ζ
##δ
##ʔ
##ʰ
##ː
##ప
##ల
##غ
##յ
##ո
##ւ
##մ
##ր
##ի
##ы
##б
##ц
##ᄅ
##ə
##ɪ
##ɛ
##ब
##ा
##व
##ल
##ʲ
##ɨ
##ŋ
##מ
##ל
##¾
##ש
##¼
##ᅣ
##£
##ン
##פ
##ᆸ
##ᄂ
##ᄃ
##œ
##ʊ
##ʾ
##ξ
##ʃ
##ɔ
##ק
##ʒ
##ि
##म
##ท
##ร
##โ
##อ
##х
##տ
##բ
##լ
##ນ
##ᅢ
##カ
##ˈ
##¨
##ʌ
##ض
##ャ
##½
##こ
##て
##ん
##つ
##き
##º
##イ
##☆
##ق
##ɑ
##か
##け
##ɣ
##≈
##ј
##ʏ
##უ
##რ
##ბ
##し
##ま
##ם
##χ
##ˡ
##स
##क
##त
##タ
##ح
##コ
##נ
##र
##ी
##ノ
##ァ
##ध
##ա
##պ
##ս
##կ
##ょ
##う
##ゆ
##ग
##ɡ
##の
##ү
##ә
##ʀ
##ك
##ө
##ะ
##ว
##ด
##ต
##₃
##あ
##っ
##ъ
##ס
##ʁ
##±
##¬
##ウ
##ム
##њ
##ᅦ
##द
##ო
##დ
##კ
##ห
##ย
##ˠ
##な
##り
##サ
##ਾ
##э
##ᄏ
##ɫ
##ᅬ
##ɲ
##న
##ర
##シ
##ョ
##ʻ
##ས
##ན
##כ
##ז
##る
##ナ
##ड
##य
##ང
##エ
##ն
##¢
##ソ
##ˀ
##ு
##ல
##ம
##ء
##ゅ
##ᄆ
##に
##ե
##թ
##ɕ
##ᄑ
##ट
##ظ
##ホ
##♭
##ص
##マ
##ি
##บ
##ธ
##→
##न
##प
##ʼ
##த
##ி
##ர
##ச
##க
##श
##ფ
##ण
##ज
##վ
##ˌ
##ˢ
##メ
##€
##ツ
##ヘ
##￼
##ە
##ვ
##თ
##ら
##ニ
##ो
##র
##お
##∞
##เ
##テ
##は
##オ
##ག
##ハ
##ہ
##շ
##ذ
##∙
##ʎ
##च
##と
##◦
##≥
##い
##แ
##ھ
##˚
##צ
##ᅲ
##া
##ম
##క
##พ
##™
##⋅
##ג
##ュ
##ץ
##く
##ア
##ψ
##བ
##འ
##მ
##ნ
##ტ
##ﬁ
##ไ
##ப
##ன
##గ
##ป
##ா
##ह
##ט
##ব
##ল
##ɒ
##མ
##چ
##さ
##ひ
##ィ
##─
##қ
##み
##ヒ
##れ
##≡
##♯
##پ
##チ
##ª
##©
##ک
##ێ
##ほ
##ۇ
##ふ
##գ
##ხ
##セ
##ญ
##შ
##ʋ
##ს
##ภ
##ᅯ
##ณ
##հ
##अ
##µ
##դ
##ศ
##จ
##զ
##ங
##љ
##ন
##வ
##ħ
##ث
##₤
##ు
##ケ
##モ
##ద
##¹
##ን
##ネ
##є
##∈
##☉
##జ
##भ
##す
##♠
##ɦ
##ក
##ђ
##გ
##ɯ
##♣
##÷
##ⴰ
##ត
##አ
##♥
##ზ
##♪
##ʂ
##ց
##¤
##∇
##ɓ
##ĳ
##ܐ
##⅔
##↑
##≤
##ལ
##ქ
##މ
##わ
##∀
##ར
##♦
##═
##╗
##╔
##╚
##║
##╝
##¯
##ᴧ
##⇒
##⊆
##ད
##◡
##er
##en
##an
##et
##or
##ed
##st
##ar
##in
##el
##il
og
##ig
##sk
##le
##on
##de
##om
af
##nd
for
##al
en
##ing
##at
##re
til
##ra
##es
er
##and
##ol
st
##ne
den
##ter
##te
at
##am
##ag
pa
##id
med
##ede
som
der
##ik
##lev
##ør
de
det
##it
##av
han
##is
blev
##ere
19
var
##ion
##ver
##un
##se
##od
##ske
##og
##ær
ud
##lig
##ru
##ste
##ler
sk
##ning
##ur
##eg
et
##iv
##ad
ar
fra
##ke
##ende
##ens
##ang
om
op
##ist
20
##ul
##kt
##us
##der
##est
ind
har
hv
##ent
##ræ
##ab
al
##fter
##as
##ej
##sen
##erne
##ri
##ov
sam
sp
ved
##em
##dt
##del
##ir
an
##nder
in
##land
##kke
dan
##ch
##ro
efter
##mer
##ber
##ation
##sa
18
##iske
##old
##ge
##ill
men
##um
hav
over
##ord
kom
##isk
##ger
##ks
##hed
fl
##ut
##ige
før
##ud
kon
##for
be
##op
##ot
and
bl
##ft
##sp
##ser
hvor
##lige
mod
##und
##ic
by
under
el
##art
sig
200
##lem
ikke
sin
del
##me
fr
##else
##ien
##men
sy
ogsa
##ort
##os
kr
##ene
kun
201
tid
pr
##æl
##eret
##igt
havde
##ade
kan
##ød
##gt
##avn
##øb
gen
##kk
##ie
##øj
##pp
man
fø
##00
##yr
sl
eller
##ark
br
##gen
##by
##kr
##ff
to
da
##ind
##skab
kl
##æn
land
##im
##ers
re
##ale
her
hans
stor
lig
ch
pl
##rem
##ard
##iver
th
##eder
ty
##ange
##ner
sa
gru
##ling
sid
første
##ub
##det
##ok
##ret
##yt
ma
se
##ære
hun
##sv
beg
##ug
##age
##ier
##ive
##ib
##end
##ss
vær
sø
mel
##ust
hel
##org
sel
##ap
##nes
fin
##ille
17
##ac
##sl
##ant
##amp
komm
tr
nord
##jer
##des
##bej
bet
##tet
199
reg
ny
##irk
##let
##elsen
##net
##eri
un
##hold
##sm
or
##den
frem
##æt
##ast
##mp
end
##get
sen
##ia
bru
mellem
##ningen
##indel
##ak
##rev
##agt
##je
fik
udg
##æg
##ets
pro
##iller
##tal
##ob
##nem
andre
##kl
##vær
selv
##elig
##hol
##ker
fil
##ket
##før
født
le
##æng
##edes
nog
form
of
##yl
##oc
##tag
##øl
dansk
##ingen
samt
##vis
sammen
##ian
høj
syd
##elt
ad
##oved
##ken
flere
##gte
te
##ire
##ten
##els
pol
sv
198
grund
køb
deres
danm
##istor
vand
hj
##ligere
197
kar
forb
fran
##æv
##eter
##ninger
##ann
16
##erede
hoved
the
##iet
mar
ver
##rad
##havn
##sat
hol
denne
fa
##ift
##uc
jo
hand
navn
##br
##øn
senere
kv
##if
stør
forsk
##byg
gennem
byg
##ly
##ster
##sten
mange
være
##gende
ligger
dette
##alt
##ester
##pr
spill
alle
dag
##be
arbej
##yd
##rig
ham
udv
##ligt
nor
##ide
##ænd
##atter
is
kunne
kal
##ce
##len
##lad
##ynd
##inger
##bru
##af
hen
15
tilb
##gel
##ember
##met
##kom
##ktion
196
tidligere
dog
##ater
par
mu
##sø
##rik
histor
far
##tr
val
bland
##yn
bes
##up
inter
194
##ult
siden
##itet
tre
##stru
lang
##anske
##ogra
##ighed
##øm
danmark
ned
best
øst
##iden
mal
##borg
kamp
fol
død
##elle
været
dis
##eget
præ
tal
nu
mus
omkr
eks
##tede
##enhavn
am
sit
gr
##ve
store
omkring
danske
ro
københavn
##rede
##ivet
omra
vil
fort
skul
##olog
##ald
dem
stat
##endt
##io
##ban
sm
##res
##ine
blandt
##son
ab
##ern
mid
amer
polit
mat
##kon
##atur
##ager
##ip
samme
##hus
##inist
mere
la
##tog
##ræn
##aget
sted
10
##ansk
blevet
vest
erne
have
des
hvil
forskel
##ys
##til
ne
uden
off
##ow
tysk
meget
skulle
##ering
##inde
##øde
##endes
byen
##ga
##ole
##yk
mens
195
12
##of
tilbage
##hand
føl
##bold
##all
medlem
amerik
##elser
##erson
ser
træ
chr
##au
193
besk
ret
ol
##tes
begynd
191
##stem
bed
alt
##ren
##ition
sal
lu
##ess
##føl
bar
mind
ek
hold
jan
andet
bliver
000
anden
##urop
##ell
fod
sch
mart
192
##ans
##ich
##red
disse
kor
kommun
##ass
inden
##var
##gang
christ
##enter
bade
næ
opr
prod
ber
gang
sh
##sæt
##ække
##eren
grupp
sine
##jor
##tem
forskellige
hver
##ay
bo
##reb
nogle
ge
##ring
##irke
gam
##rav
jul
##une
rad
musik
##les
##este
14
##na
skal
##ande
aug
11
rom
jun
##uld
krig
joh
##ron
film
##inder
##ue
tv
##undet
##bum
person
##uar
god
ofte
august
lav
ben
##sh
##ges
im
##rog
km
##med
13
##læg
po
vej
vandt
lands
##esp
ang
##øre
udvik
gener
nye
##ykk
##over
##ode
##endte
##sb
##stand
hal
##still
kendt
hjem
europ
##ivers
kunst
##lighed
##uden
##svar
ca
findes
nation
nov
række
maj
vis
skrev
##sted
mest
mil
hvilket
##alen
fly
klub
##sf
##form
##berg
ven
##ec
##ins
sang
sep
em
juni
hvis
##arbej
tur
##ld
slut
vi
univers
januar
190
##ægt
##vej
sc
verden
bør
##per
fodbold
##ført
igen
##ond
##ef
sæ
part
art
nær
plan
led
søn
##lag
##oden
bor
sol
kommune
fe
hele
##ioner
##aet
##ograf
tog
##amil
fire
først
juli
kn
gik
forf
hos
bag
okt
##lagt
freder
##ober
stad
cent
rep
##iss
nar
dec
##ou
lø
gar
apr
met
car
he
septem
oktober
april
##lik
september
##ævn
##aler
marts
oprindel
historie
##kn
##att
189
##ogn
peri
kirk
liv
ville
##lø
gu
##dom
str
##mel
spillede
vid
##sel
##unkt
komp
##krig
sidste
usa
##æld
mand
eg
##olk
menne
##æk
bef
##ial
res
mon
indtil
album
##ina
tra
##stat
derfor
##ionen
november
styr
##ationen
ha
##ksom
##ven
##ationer
##erer
##urg
##ktør
kont
##urt
ban
##rim
##gru
##tid
##olle
min
186
kat
frederik
december
##anis
navnet
188
##mand
##bo
##jorde
stud
##he
mor
blive
rus
tit
##lands
kort
##skabet
##sker
tyske
##lerede
kong
eng
##lin
##ah
##jen
band
##skri
##ium
##ben
famil
fær
natur
##ite
##lede
lov
største
desuden
187
hendes
mindre
##dag
kirke
forhold
##ksomhed
løb
jord
##delse
##pt
ni
febru
februar
fri
inde
christian
##ktiv
skib
na
##ral
ant
mark
##bygg
instru
##nede
engel
##elige
fem
bog
prof
##riere
##som
##pe
ekse
begyndte
sær
plad
##øt
hus
##dens
##terne
co
##ave
gl
mo
##efter
##taget
##ultur
intern
eksemp
##ma
##hund
##int
start
##ensen
##teret
##kker
##ammer
udd
##di
##stad
mot
##idt
tro
##set
##ces
##under
##ock
##led
##gar
større
lille
enk
30
teg
spiller
##jet
forbindel
sæson
25
per
##yg
##nings
soc
##ister
læng
ital
##raft
org
ev
jap
arbejd
rej
##man
##træ
##terede
spillet
arhund
dom
##satte
##her
kil
vir
omf
bill
omradet
internation
lin
forl
##konom
##oks
red
new
tallet
2007
##str
vigt
##styr
døde
sej
##spiller
gift
sven
gra
##cer
bas
saledes
lok
ord
sat
##andt
rig
##off
com
##jerg
##are
##ta
##pper
##entlig
##ars
##riv
##ator
samtid
##elses
sik
##pl
verdens
##iel
##use
##minist
##ost
##yst
ark
luft
##ører
##fl
##skil
185
italien
##ader
##tere
sku
halv
profess
##holm
forsø
brit
opret
mag
fast
##sn
##iz
skab
ba
dire
##sid
amerikanske
stedet
##hav
national
gange
gamle
##ogram
##ærk
bev
side
2010
##ek
anv
kultur
bety
filmen
opf
krist
184
##hæng
tilf
##ilm
star
##jord
##holdt
##uder
fal
ra
sn
fun
2008
##anden
fle
udgivet
karriere
##reg
jern
bra
kap
##itter
##nen
##ativ
ingen
alm
allerede
produc
##vest
bedste
##uktion
di
##iker
##sy
offic
##agen
##ton
##sam
bel
dy
gav
ter
fred
flyt
sommer
cl
økonom
forbindelse
##ivis
##ved
spec
sprog
deb
især
21
##øst
lande
##eligt
sand
##virk
##ts
æld
2006
læ
stadig
ele
##ck
##rag
let
hær
##ærer
##ry
tyskland
li
pop
helt
##iner
2009
##ummer
tab
betyd
##ym
##skrig
børn
afg
milit
kommer
##rer
mill
arhundrede
##aret
##kur
##val
gjorde
græn
ot
noget
sogn
opg
dermed
##rum
ta
##uk
##olen
bro
græ
##mester
forfatter
2011
tred
##ity
##lertid
##kket
skov
##ha
con
sver
##omra
du
matte
bestar
folk
lige
trad
##skaber
prov
begge
##burg
##ack
und
videre
##oder
##ore
vel
frankrig
##følge
##ius
oper
fjer
ed
ti
24
100
brug
universitet
##ph
##ings
ænd
kol
2012
##spunkt
##øg
##stit
general
all
##unde
2005
forsvar
sj
vin
##anter
22
##ppe
##rakt
dr
hjæl
rest
##jort
##krat
plac
repræ
virksomhed
skrevet
datter
peter
følgende
##ologi
indbygg
støt
##nu
stort
ga
##plad
organis
stand
skuesp
id
sad
##æst
##gdom
##alder
derefter
##øv
john
##one
angreb
##asse
23
##nævn
##stre
port
egen
##arks
##akter
befolk
me
amerikansk
ste
so
norge
stem
meter
beteg
mester
muse
almindel
landet
samtidig
hurt
arbejde
benyt
pal
##we
su
##oner
##ons
##lingen
deltog
dyr
still
##værende
sov
##rige
##delt
##sc
syn
##aben
vm
ars
slag
##elm
yder
ej
rum
##vand
europa
efterføl
bu
kampe
bruges
##ate
##bert
voks
mad
etab
##opp
virk
##sident
##sch
##ært
seks
fordi
regering
##ise
afsl
##æmp
antal
##anc
station
ac
amp
grøn
##rift
ob
##ong
bygget
##ffe
ful
##hver
##kte
##fly
divis
##ific
2013
lev
foren
ka
johan
##sta
##lut
priv
##ty
guld
2000
dra
folke
##ild
dele
ak
bi
##ktor
2014
tem
indbyggere
##idenskab
##orn
leg
danmarks
bred
##gard
##isen
##inge
inv
england
øv
motor
##eneste
eksempel
##holder
##isme
russ
ph
stift
skole
##tor
stra
##vik
##telse
##skole
sag
imid
##foren
fleste
san
løbet
ander
28
##ach
sverige
imidlertid
##film
dav
183
##entet
##eller
ifølge
kraft
brugt
##syn
ly
##istiske
##æss
##20
spille
##skib
turner
prim
##yld
belig
middel
27
bil
##kal
26
##ografi
##stænd
##førte
##giv
##ublik
##sd
##heden
1970
administ
verdenskrig
tru
2004
##æs
aret
endnu
plads
##ods
##bar
konge
ho
nogen
##handling
2015
##tagelse
rev
##mus
sovjet
folket
##aden
tor
##bane
##iser
##øder
kval
ir
landsby
von
slutningen
norm
program
fæl
181
##ørg
2016
##igh
##aver
hvad
gruppe
##ustri
eneste
hed
##ktur
vigtig
##ørte
##ps
##alet
##heder
pat
##æd
##stitut
næsten
##kken
omrade
ul
##amer
##sminist
ag
lond
klubben
tekn
lej
##grund
##brug
uddann
øn
##abrik
##serv
elekt
tredje
medlemmer
##adem
tran
franske
popul
##bred
##ork
##to
##gaard
kej
dens
##ung
københavns
##ice
##ider
opna
set
aktiv
##eds
fodboldspiller
##fund
we
mennesker
##trol
præsident
##aen
handling
fandt
180
carl
##iger
##fra
spor
pen
##cent
can
##revet
nat
il
sing
29
##iens
fransk
tradition
krit
længere
##igheder
stod
##ielle
suc
london
result
##klub
social
amt
aut
##snit
##fin
##ies
godt
beliggende
liges
eksp
##ringer
50
samarbej
park
engelsk
##rang
kejser
betydning
skuespiller
aar
##dem
dig
##arer
sma
ram
konkur
kaldes
beslut
##værk
##sfor
division
##kter
rol
magt
rund
tæt
##urn
nuværende
##iste
##ses
hende
bø
lever
karakter
sten
region
grad
skift
##ræt
##løb
2001
idet
begyndelsen
arkite
slot
##pa
##ress
omrader
char
net
administr
2017
konf
landshold
##ielt
##esse
on
1990
ald
bestem
kvinder
##ham
perioden
personer
##mon
ses
##ile
tj
instrueret
periode
##okrat
paris
arbejder
##ative
produktion
fir
succes
kaldet
##landske
aust
##elte
2003
mang
ligesom
##ori
nyt
##ragt
dat
ægte
valgt
fyr
leder
##leret
nordlige
britiske
##kv
##erg
2018
naede
langt
##ng
##ifik
ko
gud
foret
midt
krigen
hert
hit
nummer
neder
manu
##ogne
serien
##bol
ren
herunder
##okum
opført
kendte
jac
via
ju
##itz
made
typ
opst
rel
kræ
kro
##ppen
##jekt
##ørende
udgav
##stra
##rej
tek
##gr
albummet
stær
modstand
efterfølgende
følge
udvikling
##spill
##mes
2002
##ith
pass
##rest
prob
##entlige
##osition
mich
ur
opt
##ines
##anger
hjælp
relig
bib
##fær
sup
ide
##fik
dage
##ræk
##ash
are
førte
nød
valg
fuld
undersø
formand
mænd
##kendt
mulighed
østrig
##spil
rolle
udtr
borg
##ital
##far
##bet
bol
##ula
##isten
vers
enkelt
40
ass
##hj
taget
##ika
##vig
europæ
##co
as
##qu
dokum
moderne
tiden
giver
##part
jeg
kompon
31
##endom
ep
blot
slaget
aldrig
tale
millioner
##la
fælles
hvert
stil
##rab
##eld
##ick
lidt
tilh
klass
gruppen
do
dist
##mest
sæt
cirk
sport
##skov
top
akt
##ure
##vent
##lerne
##avne
imp
##mens
aarhus
##ont
øen
dræ
182
##høj
col
fortæl
##bro
langs
miss
sydlige
##ij
##olit
medvirk
##az
udkom
##deling
kron
tidspunkt
politik
mun
ger
##brit
politiske
##komm
udnævn
##yttet
##iseret
studer
##istisk
will
tar
sidst
litter
ken
familie
ii
parti
gør
179
##jerne
dæ
fc
1980
##mann
sadan
borger
##svis
sty
sør
sim
##kaldt
##olut
internationale
##elen
##rup
ale
##hverv
##kor
##atte
thom
storbrit
##ernes
haft
oprindeligt
##ometer
##sning
##banen
storbritann
##ze
gøre
næv
teater
##kar
##tale
##eriet
professor
hovedstad
karl
grav
fortsatte
sangen
henrik
##olf
##ikker
##ations
sønder
engelske
##sport
##strup
##yp
##ign
##svig
##ligvis
foreg
slægt
##hen
holdt
repræsen
##ish
kur
##inget
gammel
syv
austral
kirken
##ley
##øres
møl
viser
##ott
ene
rød
prins
hin
trods
lag
go
lys
svenske
##slag
bandet
væk
mennesk
##van
yderligere
##jorden
##kald
##agn
henvis
lykk
bal
##ælde
##dig
##eres
##vid
adskil
vundet
direkte
faet
##stilling
vol
fundet
##ct
##lesvig
##atin
dels
profession
baggrund
betyder
super
##histor
us
gard
ru
##iteter
svensk
##gade
insp
system
tage
baseret
##vend
frederiks
##lv
herred
ungdom
grundlagt
udf
tan
##derne
##entar
##ødte
##chen
##atet
fisk
indeholder
##vist
kommand
1998
vind
##uss
sym
1999
york
roman
##helm
##50
blom
samlet
radio
udbred
unge
tel
sikker
industri
model
1960
romer
sor
afslut
samfund
##ba
##bl
##rit
dar
startede
modtog
yng
##bu
floden
##sætning
pan
uaf
flyttede
venstre
hurtigt
kontrol
##ipp
2019
##ix
##ete
bevar
udgiv
##ful
delstat
storbritannien
erhverv
wil
##aende
prem
##ødt
steder
støtte
fej
dv
bos
##ment
##ylland
##ica
fo
##obb
bjerg
##ologiske
##annet
##smand
##ance
hjemme
##iam
manuskri
rundt
enkelte
fru
udgave
materi
sav
bestod
comp
bad
wor
##itt
178
##skede
videnskab
lo
gro
##stillet
nr
hor
oprindelige
grev
##eringen
stammer
hertug
##ane
##ions
brød
ældre
betegn
##tek
privat
177
rock
erstat
##vel
##landet
##ikk
komme
lange
##kkede
here
canad
næst
##river
igennem
elev
institut
danne
værker
arbejdede
befolkning
##uth
vaben
##brud
byer
##par
##lam
##wa
anvendes
##oen
museum
##sigt
byens
kommunen
fest
arrang
muligt
##ja
coun
indenfor
##kaldte
##mat
dron
politisk
##han
##ward
ligel
give
tri
##tager
opd
1996
militær
kæmp
post
rusland
je
titlen
##bygning
kilometer
ældste
begrav
##assen
##huset
særlig
sølv
hansen
1997
##ose
bek
##urner
bevæg
forst
##bog
ligeledes
mist
bygning
cal
##ierne
##bed
nok
##iddel
fx
bron
kongel
##præ
skr
##mark
500
fore
finde
##rich
lær
##dte
lod
##tage
##va
bestyr
funger
##ink
##ytter
vestlige
um
##sent
klo
international
bid
sold
fys
hoveds
tids
##samling
eget
indfly
##inal
##øjt
tom
##po
færø
selvom
1994
udvid
genop
##egard
##ya
pet
herefter
##ugle
##ikken
##rænd
nør
middelalder
##mar
betydel
familien
##che
kampen
##rale
##siden
selvstænd
##ace
##udd
##ny
inspir
hinanden
##udover
##igur
energ
##ames
kaldt
inkl
bom
ras
##th
offentlig
erob
sil
no
mer
1992
ex
norske
lou
fag
besæt
span
##sens
rand
vinter
##køb
metal
##forb
##lio
##bt
##ris
koncer
kolon
optræ
prote
landets
##osof
ring
ref
ødel
sem
##ømme
paul
##ky
lokale
##ymn
oden
overtog
dets
adel
aner
##ael
erik
##ænge
stats
sas
##iven
don
typisk
hu
normalt
##gede
sendt
av
##mær
1995
vendte
vist
tyr
linje
viste
hvoraf
##ktioner
##fører
gre
##akt
bon
rid
otte
##gtede
odense
kryd
indled
fre
##gik
afsk
##ns
kunstner
ende
jur
fj
60
##rene
formula
##ander
##urnal
skiftede
hører
oprettet
sommeren
debut
lavet
kongen
sjæl
konkurren
mur
lar
##nende
rich
jorden
##rop
finalen
wh
##radte
eksist
central
gal
1993
kongelige
##ola
##æde
blad
arter
alder
##sminister
artik
bedre
forsøg
##iat
starten
lokal
##vet
japan
latin
samarbejde
handbold
ansat
##fe
hot
##cen
sæsonen
nem
europæiske
##inc
resten
serie
thomas
berlin
næste
##jø
##abet
valgte
nævnes
tilfælde
bus
hum
vold
læg
ry
slesvig
hæv
##tra
##plan
##lo
1991
gjort
van
ps
cup
imod
##ampe
176
titel
##merne
##itar
arkitekt
fordel
ke
parlam
fer
uafhæng
##our
direktør
##skrift
altid
omd
bror
##ana
1945
##iment
##ivil
omfatter
vigtigste
pe
##ague
mask
##reis
avis
kontrakt
##amen
givet
##offer
undervis
republik
air
flade
jensen
##inden
fæng
##ias
minist
billed
##ordan
##vor
stam
##oler
int
hust
nielsen
cor
svær
georg
##har
sange
samlede
vor
russiske
mc
1950
sakaldte
##uel
##iserede
##lov
finder
formal
styrker
##prod
rejse
fald
1900
selskab
1920
kø
litteratur
mindst
areal
stru
##stid
sund
##stil
afholdt
holdet
##mede
spil
league
aal
maler
gymn
bedst
##ka
##iveau
tjeneste
foran
kommunal
hvordan
alex
chef
##formen
##ino
##ativt
##forening
kvinde
##terer
##rika
##lemer
kul
##unn
ann
anven
adskillige
betragt
##anten
uddannelse
bay
sar
højde
midten
2020
mæng
væl
##ykket
primært
nordvest
##radet
##aff
derudover
##ball
journal
1989
eu
william
##ood
berøm
lykkedes
fot
##lagde
world
provin
oph
løber
arg
effe
fors
##sj
egne
##øret
bruger
jon
dannet
cyk
##sser
##hal
real
centrale
handel
bem
enten
grupper
manuskript
hvid
pres
##talte
##imod
##iale
##havet
##ykker
projekt
##ineret
lærer
##mænd
##dere
##uer
dobb
arbejdet
disk
øvrige
besø
ober
foræld
oplev
vejen
city
##utter
vib
stig
holland
beskriv
tør
##smal
cm
schwe
bogen
samling
hvorefter
bort
##kret
##iere
##nant
lud
island
fabrik
vik
højeste
aalborg
arene
##bjerg
scor
##plads
michael
##park
##ifter
stærkt
##skolen
##ugt
1800
centrum
turneringen
##arv
skot
##øs
lave
skyl
konger
##sil
##album
##ærende
rige
henhold
##andid
ford
##onen
filosof
##stant
sydøst
##ima
##ram
opnaede
##inen
dronning
jacob
##spor
##blik
nom
tour
niels
##væg
##iget
hæ
##kan
grundlæg
##øen
##ele
kred
hustru
##elserne
##talt
ten
overlev
##ørn
##mal
indflydelse
##ikere
fyl
##spillet
optaget
lagt
almindelig
lan
##hl
##øjtnant
##sterne
fortsat
##handen
##ologisk
psyk
nordøst
holde
##ids
##ival
##delser
phil
sydvest
qu
udviklet
alter
1988
ansvar
##bygget
oly
##stemet
beh
belg
##øse
krav
olymp
kem
landbrug
sejr
##ismen
##gelse
##lere
##uelle
anlæg
##ytte
kina
træk
forlod
##ric
##orden
efterhanden
gode
akadem
værd
etableret
vok
jose
røde
kines
##oll
##station
##nis
dvs
##orer
##dede
##aur
østlige
cirka
##za
endte
ting
oply
schweiz
1940
##sson
##mere
##port
##asser
skete
stilling
tidlige
hy
show
tilkn
##ight
##jylland
nødvend
udsen
altsa
væs
##li
ejendom
##okus
sandsyn
maneder
hjer
trom
80
point
##isering
skibe
bind
##menter
repræsent
##jn
størr
værk
begreb
##kort
sygdom
ude
boede
##ssel
##rom
##unst
klar
sovjetun
pri
robert
kyst
japanske
pre
inf
##emat
solgt
##hr
##retning
trafik
##omrade
højere
rek
tropper
##illa
oplø
##mun
kateg
arab
##brog
1930
km²
bjer
vide
uk
fulgte
hvide
ejer
##orth
##my
dam
##ena
##rak
union
##sg
##øver
jens
norsk
sluttede
uddannet
##lej
bygninger
##uter
bøger
##omat
sasom
##tiden
stock
særligt
##skom
1986
##nere
anvendt
forest
meste
begræn
300
##kkende
stille
1984
##riske
martin
begravet
vinder
ident
brand
##navn
gt
##ænger
ankom
mør
##sket
stationen
bold
hund
penge
placeret
hens
##bygger
udnævnt
lyn
fac
bj
fokus
174
højt
banen
marie
##ierede
højre
##da
høje
##gaende
japansk
forkl
vinde
indv
regeringen
fortsæt
##rat
champ
brugte
##ney
mis
maned
guitar
opkaldt
pris
mik
medic
besej
bruge
dokumentar
skolen
##stræ
selve
##vejen
##mod
kammer
##aus
angel
##gelser
arig
##deles
##skilde
ast
##holde
møn
##blad
indre
alvor
spanien
ky
##ifte
dre
maske
175
##fred
økonomiske
retning
premier
mente
udgang
##bæk
isra
but
##uterede
version
bur
70
1987
abnede
##klær
jernban
west
##alje
holsten
##telsen
##æsen
##liggende
rasmus
forud
dobbelt
##orge
##oph
hab
##olution
##æb
peder
##rid
##enes
wal
lt
bygningen
transport
thor
sek
##stal
1985
##ko
##ho
tager
##edition
##fald
restaur
produceret
ordet
snart
sort
##yde
partiet
demokrat
##fal
had
roy
udstyr
gul
gent
##alg
1979
nationale
tot
##færd
offentlige
##esser
slog
marked
soldater
1972
##ura
##sprog
blod
##ales
ledelse
historiske
vic
studerede
styrke
figur
udgør
got
pap
udsk
tyrk
hovedsag
ris
##organis
problemer
rigt
it
spørg
1982
richard
pavirk
##gjort
skj
bri
halvdel
##attende
spillere
##spr
david
øver
svar
brænd
runde
##rib
##orf
my
##aner
fler
udtryk
if
voksede
børne
ønskede
##ico
fød
##oss
rec
forg
type
følger
app
grand
##cel
vægt
fjerde
##iti
sanger
afsnit
daværende
35
biblio
##aer
kær
university
90
bul
cat
##lod
1973
1978
lit
bre
barn
sub
ær
sikkerhed
forekom
##ona
visse
dren
hom
county
frank
##iskop
hard
lyd
##iets
ap
viborg
drift
sammens
kast
opstod
øje
politiker
##æft
##givet
bir
##dende
hof
lejlighed
inform
##beg
forsøgte
sæl
special
ungar
##holdet
##oven
handels
rigs
##byen
orig
bebo
stockholm
nævn
##vede
##føre
##cher
##ørs
tillad
defin
##ligste
james
forh
test
1944
1968
indsat
##ereg
##ifor
kvindel
od
##vin
##ælder
##als
##eland
katol
1974
sankt
kvalifik
pil
skøn
just
italienske
##ca
##aten
lund
finans
rapp
grænser
derved
udel
ægteskab
##ett
music
grænse
omfattende
færdig
##landt
nab
tilsk
deltagelse
ridder
sogne
##ask
single
forv
forskning
##stein
1971
##fart
##bygningen
##sbe
brasil
##risk
skibet
##idens
lignende
flod
est
173
knud
center
funktion
1976
savel
debuterede
adgang
maria
orden
event
elem
hels
##gør
##ette
bygge
navne
distrik
eur
##pen
##ford
##teg
pra
almindelige
jer
##ørt
modsætning
kj
felt
virkelig
mynd
##aktion
32
stab
##ony
udover
1975
rejste
pot
ekstra
##band
##pro
officielle
fortæller
dyb
roskilde
##yske
##rund
him
bis
##ænk
1983
johannes
##fon
endelig
frit
##kamp
##min
intr
##smed
##ran
##ats
forbund
udviklede
##ledning
jes
##yder
forbed
##bart
##ynder
oftest
ør
overd
##ple
400
føde
skabe
israel
selskabet
1981
satte
faldt
livet
interesse
religi
symbol
rosen
##gruppe
##reformen
strand
sovjetunionen
aflø
finland
landsbyen
militære
##ht
##vers
hem
anne
dannebrog
heller
portræt
##punkt
bydel
kilder
vari
##skl
##ringen
forsy
resultat
ze
##ugl
hvilken
##omrader
lad
brev
##esl
klubber
##ledes
staten
sta
skrift
komb
tabte
andersen
##anlæg
1969
poul
1918
introd
plade
##yer
##sty
ganske
danner
george
alene
##ningerne
45
temper
slaet
##rol
ut
lufthavn
mm
mex
##aly
derimod
##nævnte
##øjer
1977
bern
isl
1967
##hv
prisen
standard
deltag
vilhelm
gymnas
længe
fand
##eks
##bra
##tajn
##ages
##ømmet
antallet
geografi
award
##melse
fund
##oy
sikre
kolle
fakt
dræbt
fang
##que
miljø
##lende
design
oversæt
arets
##ificeret
beskæft
præst
konserv
økonomisk
situ
##skibe
princ
##æger
1943
befolkningen
fremst
lære
opdag
charl
bund
##iblandt
erklær
mio
brig
professionel
svend
officielt
problem
##videre
henholdsvis
##arter
bygger
##ension
minutter
##ekt
betød
##aktør
##pladsen
war
##fel
afvik
kirkegard
øster
fløj
tjen
##bil
besluttede
elektron
sider
##60
æg
##aljer
##lav
matemat
skabt
##egn
sige
ung
træner
stærk
hurtig
laur
##gere
overfor
##ame
hul
##stillede
historien
udelu
##ath
tildelt
forsv
fandtes
valget
##melig
##otor
##værker
portug
1964
bare
len
##vægt
log
##fabrik
endvidere
##its
trak
solgte
##attede
reser
bank
rod
sjæld
##æssige
grænsen
##key
tillige
##kvens
ekspedition
##sninger
##amerika
wien
live
##stande
strøm
##iør
##svær
frederiksberg
kg
dagen
jør
##itets
udført
havet
britisk
indiv
##entligt
168
provinsen
huset
##heim
##cis
##ante
##uler
sagde
amb
##cep
studie
huse
##stof
bestemt
##ited
bud
struktur
##fer
lars
##uen
hosp
##omen
171
jød
spred
##way
##oppen
udbredt
kommuner
170
teor
osl
historisk
atl
embed
tun
##ænder
1965
vester
##ama
rang
disc
opfør
##veret
mol
polen
lade
1966
behand
bla
mødte
landk
canada
##irksomhed
romerske
nic
##igheden
##ældende
foruden
##ømt
##kast
##væk
fader
kongens
længde
serv
kir
##ape
kandid
udst
##maet
##musik
##ement
allierede
love
prakt
##ukt
syge
møde
komponist
folketing
gennemsnit
nemlig
proces
dj
ku
jørgen
##ros
1941
##ygt
indt
tje
##tion
atter
33
møller
sorte
sker
forening
programmet
##lic
tim
##rettet
hotel
konstru
ellers
##ield
niveau
scen
kas
regionen
mig
1948
kendes
##ugh
mener
##løse
##insk
benyttes
##ala
##æder
north
hvem
##ata
journalist
mesterskab
louis
vansk
##omer
naz
##aland
fyn
menneske
konflik
##arbejde
sammenlig
forel
begiven
passager
mas
##udt
krigs
digt
skrive
marg
osc
stjer
ludvig
##ano
vært
krim
##inet
udenrig
spanske
efteraret
teat
hedder
heraf
specielt
former
##cht
##abeth
søster
interesser
##svarende
##landshold
forældre
150
##spro
##fri
black
hjør
sign
##former
##stemer
##agne
forhind
1942
##iteten
økonomi
luc
skand
fjern
stiftet
##bens
levede
virksomheden
##rækning
ryg
slags
##ission
##udvik
hid
sovjetiske
oberst
aben
##iforn
##lan
wrest
desig
instruktør
##ev
##bus
mort
royal
tekst
udp
behandling
bolig
##kel
storm
##own
stemmer
##ington
##ligevel
dannede
1939
dyn
hast
stal
californ
ug
##svej
alligevel
##leg
kop
##osit
regn
betegnelsen
kristne
ub
udn
##unget
yngre
##rives
timer
anmel
kob
##raget
##flad
grønland
##folk
hørte
##splad
##ykkede
cykel
##forsk
kritik
stopp
handler
##omradet
tilg
172
organisation
energi
hk
strat
stemme
publik
resultater
##ior
arhus
anna
oven
billeder
los
inkluder
##isterne
forblev
##centr
##azz
foraret
fører
generelt
sociale
1962
gran
kontakt
tilføj
effekt
##oer
gram
private
russisk
socialdem
græsk
borgmester
##ara
regist
optradte
##ii
størrelse
arv
kommunalreformen
1963
vigtige
##urder
os
liber
##dal
##inske
forbundet
##kvar
##ønd
si
##rigt
##kretær
anders
titler
##aft
stre
eksempl
nap
##illes
klasse
flyve
fatt
gust
167
ændret
fas
placering
randers
##liv
ill
##ini
1946
oslo
position
up
giftede
berømte
##sels
hall
##kraft
begynder
oprør
biskop
orke
islam
bereg
stræ
##ski
1919
##iftet
nav
##rus
uger
jak
sammenhæng
nik
udviklingen
mosk
wilhelm
##40
##muse
eksempelvis
skil
oprindelig
##dik
##wn
cro
##imer
iv
præget
##somt
##sej
##hu
australien
tol
viden
trans
kold
sog
inspireret
lind
sagen
scorede
##ingerne
tilsvarende
##etter
##abel
styre
##uren
operation
venner
##ystem
gade
jernbane
larsen
cam
rot
opmær
angri
kaptajn
angrebet
##sende
regel
##valget
##værd
foreningen
enhed
universitetet
##bi
##bøl
##ool
united
37
invol
netop
epis
mistede
introduc
##inav
##spolit
pok
køre
pun
##ords
enheder
skar
computer
umiddel
rh
læge
møder
##løjtnant
student
##fyr
1912
spørgsmal
nut
##ep
##alget
##smænd
stop
religion
garden
##ira
delt
##dagen
##angreb
infanter
punkt
aften
##delsen
vækst
##ykning
##skud
1917
jøder
##wer
studier
75
dengang
konstant
1958
italiensk
##erende
tjekk
##jekter
mont
bestaende
sendte
##ipl
kone
ib
cast
fæst
flor
revolution
arme
foregar
##viste
cand
nogens
1947
hvorfor
##ida
ole
tvær
##nerne
##ient
##dam
##ukter
siger
##urnering
##ouse
landkreis
flag
undervisning
sur
geng
betydelig
rob
liste
atlet
bryg
##jon
36
1961
38
##ai
##adet
populære
omgang
seri
beskyt
middelalderen
nogensinde
tidligt
##usion
færd
altern
museet
rac
1956
planter
##tigheder
##somra
stærke
##ksis
købte
farver
##standen
autor
##iew
##valg
eksempler
bun
kommet
pul
tegnet
##reder
##gu
folketinget
##fil
pga
##ægter
skyldes
dann
kons
morgen
##foreningen
masse
græske
line
ri
skabte
##vern
1864
sundhed
kærlighed
fjord
##formand
##angel
##æssigt
kost
stav
max
##igen
##ror
##uddann
son
##sede
udvidet
havn
forfat
skol
abs
virksomheder
##ms
glob
1908
##ives
gaet
##skamp
1936
fugle
glas
flyttet
spid
socialdemokrat
##out
born
verdensmester
##istan
territ
tus
##oper
south
gas
##hoved
melod
##navne
##ffer
##fa
fried
##stor
169
kanal
sandsynligvis
bronz
ungdoms
##best
##sbjerg
bevaret
##aling
##ockey
origin
##mir
1938
arkæ
1914
ros
statens
1949
##vogn
1935
charles
reform
helsing
passer
##ail
##mund
##støt
num
##30
nedlagt
begrebet
leve
plant
bat
##ønder
stadion
artikler
hjælpe
søen
##handlinger
kaldte
##aven
king
##kendte
##flade
1952
afhæng
organ
opgave
bemærk
jagt
##ellem
posit
dyrk
kvart
information
jar
open
sant
uh
##afrika
forkort
dal
##fjorden
##irken
udgangspunkt
oscar
##wood
oprindelse
mit
slottet
1955
indbygger
klubbens
ern
##test
otto
sw
ton
##skon
##minister
bronze
##ømmer
carol
##ago
1910
kilde
blomster
fejl
forvent
farve
semif
indgik
##unt
kloster
jazz
civil
frugt
taler
hvorved
##slev
materiale
victor
efterful
egentlig
48
gælder
mob
##mo
søgte
nyere
##otte
##øve
34
gi
meg
dennes
##ibe
erstattet
vejle
status
tilknyttet
nordiske
hvilke
##edel
##komst
rem
hovedstaden
##sler
argent
##10
165
provins
koncentr
fungerede
old
invas
##kendelse
temperatur
albert
kra
hensyn
afgørende
skel
neg
1924
rester
resul
##uf
##rifter
behov
seneste
anlagt
##tel
foresl
fjorden
##række
sidder
##strøm
betydninger
song
##ls
##person
forsta
udelukkende
bøl
##sti
nordisk
1921
hø
beskrevet
1959
spænd
##iro
##esten
##rien
rasmussen
bebygg
dep
astron
##ydning
frihed
bogst
fremtid
##gaet
havne
1953
ker
ske
1957
øer
færøerne
##delingen
yd
##bor
moder
særlige
##ianske
##kred
omtr
##ank
varme
##bund
trin
fart
school
##bered
benyttet
ens
600
slægten
stations
lyng
1937
medvirkede
ophold
stykke
##slut
flertal
1916
boldklub
myt
typer
praksis
##ilde
vise
træn
gods
##illing
overvej
kunstnere
kam
##ussen
1700
dokumentarfilm
##skende
hovedsageligt
1933
kristian
##slet
1906
##delte
øjeblik
lut
mac
køn
resp
hvori
boks
##huse
jean
berg
##zen
cd
vent
55
fodboldklub
1954
optræder
olie
vandet
eksemplarer
dk
##lek
rykkede
##gangen
##ios
modtaget
##fulde
##omb
##seende
800
beret
##skr
prinsesse
landskab
##vok
ankl
tegn
##staende
olympiske
##cept
##chsen
reduc
mission
nederlag
hæren
skær
##øger
optag
delstaten
minister
udenfor
udgjorde
mund
##ender
lagde
##iplin
abne
##ination
ox
##ual
nærheden
jakob
indgar
##taler
moskva
minde
indien
##enden
hitler
søren
##købing
assist
salg
parlament
39
you
grundlag
malt
die
##oft
ori
muligvis
tydel
base
kim
lanc
##kap
##instru
medarbej
##aw
betegnelse
jørg
##ned
uly
bot
knyttet
soph
##industri
regnes
gold
brigade
##ensborg
malet
##alske
panser
individ
borgerkrig
alexander
##ters
turnering
joseph
salt
adam
1928
##øbt
vurder
##ificerede
hvorfra
virke
##urs
rollen
omtrent
160
beskrivelse
kroner
high
parret
##ule
nævnt
supp
traditionelle
##gjorde
strateg
166
afdeling
1890
henvise
colle
1932
##ux
##ærket
##emed
fuldstænd
kategori
territor
dest
kontin
ukra
fad
fordelt
##fatter
pabeg
publikum
##tende
gaden
##handler
team
42
fremstillet
artiller
petersen
skandinav
##dyr
fængsel
cas
lab
##ella
camp
rent
por
frivil
pladsen
observ
##parti
biograf
##vard
1870
sum
symp
rut
aftale
hill
mødt
##arn
dækker
dipl
personlige
##oli
1934
mord
omtale
##laget
##uelt
internet
tag
bane
1911
##gruppen
mesterskabet
ki
litau
##yll
1913
##lade
##vogne
##stillingen
dor
##smedlem
##gem
tryk
##historie
kvindelige
silke
cap
##atten
harry
##ville
holder
osm
ære
anvendelse
brun
164
intet
lavede
liga
##fundet
christensen
officer
##ude
repræsenterede
##ert
##vejs
##ærke
uge
##vækst
øvrigt
##lænd
bord
##ye
##ppet
kre
##jeneste
bevis
1905
afsked
hart
bestyrelsen
##ary
##mi
1925
1929
wind
umiddelbart
firmaet
##center
kirker
sognet
tegne
dyre
tider
bayern
garde
##bill
frig
##ikke
##essen
partier
##ræft
##ship
projektet
modeller
##lund
##alerne
1909
##orien
iii
##ighederne
fotograf
registr
##møl
anton
allian
harald
etablerede
##pel
synes
populær
##sborg
##ase
straff
beskriver
##bud
##go
##gene
overv
kors
kore
##efon
##skrifter
bod
sports
løn
time
tarn
##ipper
tidlig
data
elever
erfar
indhold
eksper
bevægelse
mængde
##kommende
pub
emil
ish
1901
opera
øverste
cy
cop
##ove
##stillinger
##arbejdet
dø
##ita
skud
margret
dør
indviet
tæn
##spe
records
##selskab
plante
komposition
festival
##gra
efterfølger
stigende
47
sne
kh
##ming
kalk
##serne
ec
korte
ja
nøj
##kerne
konse
heriblandt
fant
elementer
##steder
##isere
takt
byggede
omfattede
front
bang
##arder
vice
væsentlig
play
koncert
##ladt
friedrich
##rieren
1951
##iler
1915
1904
trække
ansatte
dim
##angen
klart
produktionen
##videnskab
major
##bach
strid
##aks
esk
programmer
enhver
straks
##sjæl
41
not
accep
##elin
religiøse
gæ
##bare
elis
højest
tilgæng
1922
##ci
forklar
størsted
digter
faktisk
##akadem
##onstr
anses
studenter
def
tekniske
1880
saint
skild
##vernør
sjælland
tyskerne
##anerne
afrika
es
forars
procent
stjerne
etabler
tilsyn
##førelse
##ding
##21
assoc
##tedes
horn
sidstnævnte
##see
##lim
ødelæg
##urer
##hn
##ads
##uck
rejser
fon
##fuld
cit
smith
nørre
indbyggertal
arm
##usen
sønner
trakt
kommunik
overtaget
abnet
heste
aktiviteter
##spring
neut
bornholm
planer
ført
##ypten
femte
forp
##medalje
stater
##ninge
##umb
##mene
gengæld
##ykke
hjemmes
pag
lim
medførte
##ston
##stør
stof
deltage
damp
esbjerg
nederland
californien
hospital
male
##atør
dertil
anledning
belgien
indført
dir
mexico
præsen
forslag
nomineret
undga
johann
pension
##por
mult
sæsoner
##ped
##værks
kører
##ivt
claus
65
skade
olsen
last
atom
##garden
stednavne
##famil
##linger
vigtigt
1500
champion
##ike
kendet
##bevæg
club
##lægning
biografi
##bel
##produktion
##ds
flygt
parken
bærer
##ues
domin
ledet
skriver
klima
størstedelen
jack
lee
arige
##skriver
##navnet
besejrede
ron
spansk
1923
levende
##kirke
pedersen
##last
fel
andreas
##visning
fn
##kunst
værdi
1907
##æge
mos
stren
flad
##major
ungarn
##gelsen
skyld
arrangeret
##miral
##tryk
munchen
43
wash
græken
##urneringen
koncerter
##somme
nationalpark
##bur
benz
rumæn
##ktionen
korre
fungerer
priser
indspillet
##iter
redaktør
hind
mary
begrænset
##ones
##atis
midlertid
##kore
klassen
flyv
tidsskrift
##offet
ingeniør
##kkes
1848
gyld
professionelle
##uller
ryt
##anen
undersk
##ypt
vende
opmærksomhed
spir
##aard
##oger
etn
##byr
ent
rud
klassiske
udlandet
egentlige
##forbindel
##ødet
##inter
nærmest
##dr
kraftig
tilhører
44
##nam
##onom
korps
imellem
indeholdt
ønsker
##grøn
sønd
out
eftersom
##liste
ild
##forhold
firma
##ari
manch
neden
kandidat
##ydende
satell
##svalget
knap
steg
modellen
ændringer
katolske
##forbund
fremtræ
jurid
##ustr
1926
1903
tradte
##ows
simon
bidrag
bredde
pabegynd
##edet
bosæt
magn
undersøgelser
##reds
##position
##isse
sæd
udford
##irektør
omfang
spring
##herre
arkitektur
##skær
deltager
opfatt
gustav
ødelagt
henry
øerne
ender
mek
##cy
##stiden
hein
##fladen
hollandske
disciplin
washington
internationalt
videnskabelige
forekommer
##kæmp
vidt
dygt
terror
angeles
sætte
symfon
tilst
opgaver
bibliotek
øl
føre
adsk
##ellen
magten
stillede
##hjem
kinesiske
##institut
venskab
##orges
bab
job
##usa
##alsk
##slen
annon
##vo
lukket
##gin
##vind
00
filosofi
opford
##pris
repræsenteret
bass
##erium
demonstr
bugt
ube
arligt
politiet
omgiv
forretning
va
gerne
##feldt
afstand
administration
valdem
relativt
papir
belej
krat
120
##lagte
1927
betragtes
gem
udtalte
##formede
##løs
##bas
risik
##eten
skrifter
##værket
##program
##tain
stræk
systemet
selvstændig
lor
##grupper
hertugd
varet
viet
fat
##brød
##uropa
fuldt
kysten
kw
1600
generalmajor
##sministeriet
49
hovedrol
##yb
udm
blade
frø
grundlagde
##sætte
pladser
1902
##fru
indledende
konkurrence
##okk
que
1931
tvang
jørgensen
skotland
afviklet
eksterne
kolding
##tegr
tilby
##offic
##søg
##struktur
##fisk
hede
##any
##iks
sla
udenlandske
sadanne
64
1000
ejet
##hard
##ippe
##mor
besøg
52
##ska
##ommer
sophie
##hug
##gn
##uble
udvikle
##dele
studerende
fortr
pav
lavere
tøj
radik
##ieret
##itel
jævn
norges
pak
mølle
##polit
##giver
##skland
holm
##ime
analy
hidtil
ræ
vo
##itte
##ætter
indsats
resultatet
##schef
##ænomen
1896
ramt
##yre
grønne
##kreds
700
##ragte
varer
billede
##bladet
sjældent
lam
bob
bevid
##sund
##igede
foregik
##board
egenskaber
ændrede
benyttede
championship
##voks
##elighed
pers
teori
grækenland
brønd
ydre
myr
hellig
nas
indian
dramat
miner
##iges
tennis
pæ
svært
##hjæl
46
ishockey
##bes
1860
ligaen
konservative
organisationen
aktive
##idler
almindeligt
designet
##kvarter
finale
alf
plat
lege
nob
##partem
veg
geograf
kørte
forret
mulig
diam
rør
kanon
kontor
horsens
generation
sab
##uds
alb
ax
natten
udgivelsen
drag
osv
ple
##sem
##efa
1898
bragte
vul
finske
gri
toppen
##ves
kæmpe
sus
formentlig
##forfatter
##anne
svarer
udstyret
153
54
gennembrud
talrige
elisabeth
##chef
hverken
kos
hyl
##kurren
##vaben
dokumenter
dommer
##ulde
kirkens
1850
patri
tabt
rappor
gennemført
1899
##anke
planlagt
hænd
flensborg
##view
##ytning
napole
##inas
stjerner
irland
##ova
##strækk
##oter
radi
viol
overbe
flyet
fange
##but
efterfulgt
##rende
##holdes
##mos
##omet
klost
rekl
##formet
##ligaen
##karriere
oversat
artier
##hur
regler
sende
primære
integr
medier
##kes
tilhørte
##gav
oprettede
rets
gj
web
##una
##erence
bonde
college
##arig
jacks
arten
aller
bestemte
##hi
fed
mass
163
forbered
kommerc
hammer
tvunget
ss
osmann
##ordin
ærke
##istik
vokser
hjal
musikken
kend
ringe
roller
bortset
ska
pin
##80
lyst
overflade
gren
lyngby
##slin
##din
aud
kraftigt
##givning
orkester
turne
##fte
forand
vill
finan
##inerne
##egnet
56
kæmpede
kvalifikation
##yen
lis
##system
press
1897
kristendom
væ
##stog
##alog
bogstav
effektiv
drev
herre
arbejds
##cess
lib
asp
##oster
##alderen
##isterende
ve
vig
forbru
##vil
##manden
asien
back
hop
uefa
kvad
hjemsted
kab
##tt
##sberg
erklærede
##ktar
hardt
rekord
53
##fest
føder
uen
skoler
ukendt
afd
francis
posten
øk
##ute
serb
kru
##elskab
##varer
##yldte
brasilien
astronom
væg
anset
forholdet
mog
##telses
##ision
jødiske
##ics
##issionen
premiere
tønder
1863
east
golf
ball
parlamentet
##kommand
green
oplysninger
klaver
##ellet
ler
pige
##bøger
##inn
##ivl
##utsch
kinesisk
offentliggjort
dm
##dagog
engang
france
talent
##bal
mem
##talen
##side
sønnen
ønske
1888
vinteren
leon
inklus
udsat
grundet
sed
prøv
besøgte
51
##ican
landsk
forestill
overord
talte
##ræts
varier
doll
bibliote
fusion
river
##shavn
##sløb
ordre
poly
dynast
##line
1885
hyd
ing
1894
mesterskaber
##agede
sket
optræden
##ain
##anda
1895
studiet
##prisen
##handel
falder
romersk
arrest
linjer
tilp
interview
silkeborg
drik
grundlæggende
advok
##ligheden
big
indf
indvand
angiv
teknisk
161
drevet
smal
barnd
##enburg
fremme
daglig
kompagn
forenede
foretog
mening
kongeriget
che
rummer
##redes
##bror
sørensen
isol
##retten
mak
##iansk
avisen
jor
##ota
barndom
sakaldt
kronpr
civ
diplomat
veje
1884
hest
schw
##agere
##oe
grader
lem
provsti
##krateret
akk
##nar
##orm
##aster
louise
overra
udval
virgin
57
till
tilslut
illustr
tegninger
jesus
faderen
faste
esp
##ktorer
bandets
jub
##zer
##sey
250
##lager
1892
forhand
karrieren
##pet
##oslav
##feld
gymnasium
##rere
automat
kræver
street
scott
##virksomhed
initi
repræsentant
anerkendt
##skibet
rab
##zo
##antz
tekster
hypp
fro
yo
emb
greve
##ralt
peters
##spart
##istrik
anti
##lægt
samle
vild
##holt
prædik
##edrag
uafhængighed
adolf
marc
##kammer
øj
produkt
undersøgelse
spilles
##las
forløb
magas
##kost
##sku
##idge
alp
korn
1889
udgivelse
menes
understøt
rit
##kant
udbrud
soci
1866
one
##ora
group
##akte
opdaget
dømt
##eringer
vag
kampene
lyse
ernst
kanalen
edward
artikel
forlade
forlæng
162
kunstakadem
ner
##etisk
kanoner
tw
##ae
reaktion
arabiske
nikola
idræts
##unkter
oce
senest
medicin
tak
1879
skat
service
##ese
produkter
total
##inar
##skriv
parall
scene
daniel
virkede
##ordenen
hundrede
polske
perioder
##ani
teatret
##ental
##pladser
##bon
henvisninger
kreis
##ementer
##mord
retten
egypten
##chel
##delinger
betjen
##samlingen
##telser
anbe
spej
forholdsvis
##eser
##ware
konkurrencen
milli
mængder
##ahl
sejl
85
hug
##ikt
##etiske
##væsen
klassisk
annonc
røn
arhundreder
nordamerika
##fløj
antag
##skol
##asien
universitets
kommandør
##øy
gruppens
fænomen
video
##atisk
##leks
lukkede
foot
##ikeren
monark
las
pave
1893
util
##erslev
grundlov
amager
hon
mikro
##melser
regiment
guvernør
fremtrædende
varede
##sky
blok
##løbet
##sjælland
hellige
tex
##sburg
sikrede
støttede
awards
##bte
1882
repræsentanter
##gener
sky
lens
##ænget
befinder
eventyr
dub
fremstilling
##ligheder
pic
opdelt
hertil
købt
muslim
1883
frie
fris
værket
vokal
##indes
modern
semifin
foretaget
perman
fattig
nøg
sir
##ikring
les
rettigheder
##æssig
##iber
##onien
mader
ww
##aker
##lyst
sagt
##frem
afrik
udstilling
1872
emner
slav
udvalg
##liga
administrative
endda
kobber
dekor
naturlige
##ides
loven
tilladelse
bevidst
vas
bekræft
##ykt
forsøger
grunden
##veks
medvirkende
involveret
kav
##dan
##skal
##aterne
digte
budd
1891
arn
specifik
##col
##eriode
##ife
skulpt
krævede
human
##sse
alko
vores
omtales
listen
##yllands
##teres
seg
østers
musiker
betale
prom
##tte
public
##endens
##uch
aff
præste
##atorium
levet
zo
ledende
ejede
sædvan
##bord
##organisation
halvdelen
afløst
helsingør
myndigheder
##hm
kreds
starter
##mændene
math
brygger
valdemar
##delses
stabil
forsamling
##bevar
1871
strækker
deltagere
stoppede
tilstand
drog
vogn
##melige
morten
numre
95
feder
mø
bronzemed
manglende
##hjul
tarnet
##wald
udgrav
mindste
originale
broen
fortsætte
situation
##ologien
##stedet
spidsen
##jern
linjen
##eløb
opnaet
omtalt
main
##baner
##ahn
american
preuss
##fir
fjernet
##deren
konvent
bergen
premierminister
ost
##inerende
##have
uds
##eger
beskrev
romant
1875
edvard
jernbanest
##raf
sex
rute
58
jernbanen
forfatteren
##amin
lid
1862
wrestling
##ua
dækket
bekendt
brede
##cern
##well
anim
jylland
sun
told
uf
##saf
baron
hektar
99
##elsens
birk
vit
jug
komed
andel
##klæd
##hæv
anvendte
##somrade
definition
##spillede
tidens
beting
arve
gall
##ox
lette
jim
##hof
##stol
offens
million
kommunikation
instrument
forstand
glad
paa
##ada
deltaget
fremmest
##ældet
forbindelser
rat
besid
derpa
mobil
##skiftet
##tekn
ideen
tredj
##adende
overgang
købmand
gyl
træer
stoffer
hjul
konsekvens
##amerik
afh
aks
idræt
59
mikk
##anere
sachsen
##ower
fylke
tilt
finn
tilbragte
cre
soft
##kende
frederic
fortsætter
##bestyr
##jev
nordøstlige
##leder
##stater
sof
fos
##agde
tunn
lol
navnlig
1865
argum
metode
fur
biler
separ
baden
##ical
##jo
eksisterende
##runden
begivenheder
##esper
hjemmebane
1887
63
##uere
debat
indledte
balt
nærme
branden
kære
tu
broder
forskellig
ribe
##ærker
72
havnen
løs
fortrin
inkluderer
##zy
##endørs
mørk
napoleon
stol
producer
atlant
kvartfin
long
##iation
bif
kræfter
passagerer
beord
bulgar
ophæv
departem
fiske
tilstrækk
1867
##aede
flest
dies
eb
##øje
##stemning
house
sent
##vendt
amal
junior
familier
romanen
nordvestlige
gott
##ania
minder
indspil
##ressen
abent
##ofte
beskytte
##ips
deutsch
steph
##aren
##ejst
kapital
sound
dru
##værelse
døds
forlag
turist
indiske
befri
vanskelig
1881
udseende
rejst
##agas
vedtaget
##iverse
marine
herfra
holdene
brødre
##spej
forfattere
bart
flygtede
##ilæ
##andet
palæst
kvalificerede
borgere
brugen
arsag
telefon
tyrkiet
opfattelse
##ørsel
holly
1840
virkeligheden
##stan
67
madsen
civile
##udvikling
bell
dannes
159
fiskeri
bjørn
66
medvirket
##sud
##eth
##ogen
skatte
##delige
93
resulterede
football
østrigske
fab
##aller
##ivalen
retss
##ekter
white
krop
erobrede
1886
spl
sønderborg
1861
##stam
udførte
##ump
##vise
##produc
døden
##sættelse
##sons
ok
##agten
planen
muligheder
##jyske
vedr
liter
initiativ
held
##astik
##ynde
udpeget
87
gab
##enhed
inddelt
offent
1873
engag
læse
##bc
statsminister
monum
basis
siges
udsendt
opløst
heinrich
wales
manen
europe
##field
alkohol
1878
varm
##stedt
##arbejder
singlen
wolf
##ækket
##espiller
bære
##geren
##skomm
øverst
besked
##ear
tang
sejre
1849
##onym
sekund
##sterdam
arthur
fan
byerne
ekspl
hhv
kle
##edyr
alfred
1868
solen
mr
##vide
kommende
fødsels
enke
hann
amsterdam
kart
1874
157
tegnes
mærk
1876
158
opgør
dun
##ibet
##slaget
flytte
ferdin
portugis
##stab
att
sf
61
bilen
voksne
jesper
##oke
henviser
næstved
71
##træk
bladet
bær
portugal
beskrives
preussen
arlig
##rive
tilhørende
##verden
forskere
organisationer
62
bryll
152
skoven
##gas
##fort
fjerne
midler
opfyl
sydøstlige
irak
løv
dybt
##tegn
tolv
dirig
kog
##su
hjemmeside
mic
##eck
alliance
nødvendig
undtag
forhindre
satellit
forbi
falster
udbredelse
##usalem
undtagelse
vælge
maskin
presse
ferdinand
margrethe
bredt
##føres
she
##ippet
skønt
##eladende
evne
##ancen
sydvestlige
nyhed
bundes
##recht
155
traditionelt
77
samfundet
fyrst
pier
past
inspiration
tilknytning
spredt
##maler
##omp
samtlige
##veje
magnus
tilsyneladende
##ksim
fulgt
##ois
##sere
##sættes
diale
1877
##fold
udtrykket
##kirken
søge
1200
invasion
manchester
##tering
kommando
kiel
##fod
##saft
tron
uddannelses
højesteret
##ament
##bær
betegner
mi
mulige
tele
skive
dsb
sud
##skar
slet
88
##arken
kender
studiealbum
##æden
hval
kant
##ji
sammest
##otten
chic
130
##lægge
##bergs
kontro
run
rap
theod
maleri
scien
##ædvan
meddelte
##æller
betydeligt
mole
athen
##rul
bent
##ison
arlige
yngste
##kontor
europæisk
greg
vejr
nødvendigt
sveriges
formod
alexand
pavirket
##skyt
##enten
kerne
fortalte
##radt
sammesteds
arrække
overført
massa
##sken
##okse
solo
købe
partiets
##instruktør
virginia
74
delvist
luther
##gol
sjet
##sstyr
frygt
##atorer
opløsning
jackson
skifte
##ovre
sydkore
jugoslav
mia
##ryk
##ras
debutalbum
##avnet
##aku
##konstru
sukker
##mende
##gerne
sikkert
84
##gor
etc
republikken
bombe
opdagede
hent
fuldstændig
##rod
repræsenterer
forny
##ibi
nærmere
97
##motor
herning
norden
thail
jordens
##ble
##riget
##ction
flg
69
1869
##æren
hastighed
##byer
brud
jerusalem
##delig
98
dur
admiral
hamborg
bered
kortfilm
ges
delvis
fysisk
etape
bønder
79
lun
kvadrat
advokat
ocean
##eremon
##resund
evner
ophørte
resterende
køret
lic
##vandet
hævdede
night
trond
##afe
renæss
ideer
mcc
pad
900
##cell
schm
skaber
oblast
usædvan
##back
indspillede
mose
##hagen
##kkerne
ekst
indlem
lighed
hovedperson
fisker
armen
##iana
##sdag
skane
stri
populært
megen
nærmeste
styrmand
teksten
protest
angribe
forfatning
hir
##astro
forvalt
osmanniske
##stud
amts
mørke
prot
dræbte
harde
##mond
klim
jones
##able
formelt
lux
##strid
fanger
##omot
aktivitet
luften
spræn
kriminal
inn
tvivl
fredet
popular
formel
versioner
##kredsen
prin
fikt
benytter
angriber
96
rette
lede
rene
with
henning
156
spe
stum
markeds
modsat
ledere
gule
serier
##ianter
medarbejdere
udnævntes
champions
68
ligner
cub
##urne
##arden
gennemførte
hunde
henri
##ivision
##skoler
kalder
##garde
prix
°c
bekæmp
hog
##sko
karet
##stadt
magnet
skader
botan
brøndby
gældende
##bruget
betegnes
handboldspiller
##ils
enter
##stoffer
elektrisk
bidrog
vedkommende
##ische
medlemmerne
##skrigen
az
##ands
hør
##kas
kroppen
beat
minim
fysiske
ic
##arere
##førelsen
teknik
pædagog
din
##iem
##ftet
madrid
##fjord
fantas
##kop
malerier
myst
villa
kulturelle
##somradet
##ukke
felttog
##reger
transpor
##lerup
##ression
lægger
hemmelig
##gers
blanding
##ulære
planten
afgør
simp
øget
vender
stan
##bank
##wig
charlotte
opstar
autoriserede
##oth
søer
mandlige
##roen
køge
udgaver
politi
endelige
naturen
##yttede
mæl
præm
betydelige
ray
##krigen
landsbyer
rødder
##iteret
##slesvig
atmos
fodboldlandshold
##ystemet
udøv
140
bydelen
kombin
73
gad
særdeles
briterne
82
##aldt
##isch
svendborg
batter
##ati
afslutning
oversættelse
hyp
##skij
oldt
manuskrip
diverse
lader
tand
##gange
oprettelsen
renover
down
beskyttelse
vedlige
polsk
eksamen
jacobsen
jane
sæde
opfat
motiver
mangel
##ote
bran
ik
modsatte
hovedet
##største
##ato
vinderen
##lader
nægtede
overvejende
forkortet
##pperne
##smalet
hjerte
scenen
tilstede
##rov
udby
modtager
besætning
drenge
mødtes
kronprins
##æle
figurer
kongelig
76
##bygninger
jyske
hjalp
fond
##ererer
ærkeb
86
matt
forsvandt
##rytter
medie
wo
harmon
dominerende
vælger
78
ment
købstad
træning
##præst
##øjet
finsk
selvmord
sejlede
##bæl
##agner
skuespil
potent
how
arena
berømt
naet
stationer
##rettede
prop
81
rytter
##akiet
steen
undervejs
markedet
##rage
maksim
##nets
musikere
rapport
konflikt
##græn
trommes
vend
##brudt
##gter
##arm
introduceret
tillæg
hovedkvarter
producerede
forsvaret
zealand
bakter
##publik
##agtige
landevej
virkning
bevarede
eurov
##iblio
nicola
pian
barcel
halvt
##fen
vestty
##parten
##okol
forlænget
koll
virker
udsigt
musk
toky
radhus
110
##æm
systemer
##sværk
1859
1830
distrikt
##anset
bladene
##zig
darligt
eksisterer
rim
gæst
netværk
bands
argentina
tegl
hæder
##øya
førende
indsk
##valgt
demokratiske
##chi
opgav
drives
##ors
drej
helbred
rak
##bad
sætter
win
##lers
sind
livs
cher
##sammen
1855
hob
##fj
##sejer
##fugle
hollandsk
##uz
bestyrelses
distriktet
himmel
##museet
##gi
vare
holger
aab
formalet
##føring
nobel
sjette
##næst
kommandoen
ambass
cra
aftalen
grunde
misly
ændre
angiveligt
milliarder
konstantin
##alisme
##udstyr
1857
græs
strækningen
kund
wall
##igelse
alban
jam
tysklands
nærliggende
kurs
afhængig
driver
derfra
musikalske
avanc
cover
klare
butikker
92
jag
producere
stillinger
##stens
##blade
bøg
kolde
##indt
institutioner
##runde
normal
##orff
1852
##ull
##illet
eliz
##æne
##ræner
company
mej
mine
karen
##konkurren
landsholdet
83
hov
ort
kørt
ov
##forsvar
sec
##revne
voksende
samarbejdet
lub
afholdes
konkl
##rette
sher
mennesket
ruten
midtjylland
afsluttet
##mur
formid
##byggede
folkeparti
1856
lolland
ah
gir
selvstændige
##rin
##esen
moh
funktioner
optradt
radighed
svarede
##uddannelse
lie
præc
##atiske
eurovision
samtidigt
##dtes
##gøre
tilhæng
##ienter
law
besluttet
##ni
orienter
mødes
##eme
ansl
bow
forfrem
gor
##asset
konsul
offentligt
lokalt
udføre
skaffe
prøve
rose
##ques
underlagt
non
##bs
mekan
filip
jom
frat
jesu
##fron
lægge
##spolitik
saret
##mets
wat
##stjeneste
##ome
##smet
##no
##put
projekter
cla
piger
##ards
malm
arsager
##ssam
smag
ager
indrettet
bryst
##can
##viser
forbinder
wa
skyde
reformer
1814
mads
atletik
wester
forsknings
tilskuere
##fors
befæst
fængslet
midter
ægtede
##ingle
stykker
færge
association
##low
højskole
tank
barcelona
##dorf
skæb
arabisk
sejren
halvøen
sønderjylland
hovedsagelig
lord
bragt
gennemføre
partik
skyg
arist
##holdning
##medlem
fugt
##win
dernæst
eksperi
fav
##rolle
slam
##ificere
jud
beslutning
##styre
udlø
##smæssige
kvalitet
has
sult
oh
##cia
##tu
##spl
sangskriver
elektriske
reserve
rub
##kultur
anerkendelse
styret
signal
##urch
tronen
langsomt
##rut
prøver
metoder
nummeret
rigtige
radikale
wer
kult
ufor
nykøbing
##givende
handlinger
fron
##inspe
pant
gratis
forstærk
##museum
road
mec
##ælv
batal
91
gn
amerika
sydafrika
##søen
victoria
opstillet
joe
besat
##melt
##rager
nederlandene
axel
##iserer
from
henblik
nieder
##iseringen
tanker
##arts
stamme
thy
##organ
##smark
1854
revet
##splads
##stalt
##igr
##ædt
indd
89
officerer
interess
hud
kød
foredrag
tech
børnene
svarende
ansigt
beholdt
maur
nedb
følte
ramte
bjerget
tværs
##fæl
##alte
grundt
øvre
##fat
ændring
respekt
varierer
##olket
studere
skove
##rejse
tokyo
##grav
albums
naturligt
lettere
specielle
princip
handværk
kated
##kysten
##klar
##varende
betydningsf
afskaff
##sret
##adt
franz
chicago
fak
##økonom
texas
tegneser
##rust
evangel
administrativt
uheld
udmærk
##fr
omgivet
spur
1853
administrer
fu
##arne
##partiet
oplevede
##wan
##chs
tilbyder
##imb
vokse
jubilæ
fæd
veks
jen
##turnering
##skj
fremkom
##ømte
kapel
bunden
koncern
hvorpa
ballet
intel
stu
fry
kalender
detaljer
##splan
vises
trukket
stoppe
##ætning
##bogen
##ory
regioner
afgræn
konkurr
dæm
nødt
1851
erstatning
regelm
thailand
klokken
ukraine
##hov
bebyggelse
forinden
philip
begivenhed
##mølle
##inens
bæl
eksport
dvd
traktaten
sul
##uleret
etap
dreng
tons
##italet
skjold
sko
##klasse
tilbaget
iværks
distri
sælge
amatør
##shøj
julius
1842
##sklub
anvender
##aut
afled
bestyrelse
hil
oplag
frivillige
komite
##uropæ
forsvars
folketæl
udløb
fare
##sekretær
sekretær
kontra
skudt
patt
##row
flam
##ængde
opbevar
hollywood
##otiske
modstander
fugl
støttet
kemiske
sympt
##smuse
great
litauen
##okke
##xe
spar
##bry
assistent
udsm
opholdt
##ulær
tilfæld
etablere
##gørelse
hag
##ikop
landskabet
##acitet
christop
betragtet
kammerherre
latinske
contest
stein
##bragte
fremgang
egypt
sekunder
marx
##vare
tunge
##19
flugt
stillingen
rektor
march
mongol
##fugl
drama
1858
skiftet
##iliteter
##skop
kamer
##aktiv
normale
kategor
##distrik
benytte
foreslog
vilkar
umu
palæ
##østen
##ente
metrop
kapit
munk
mogens
##hor
opposition
konføder
diskuss
benzin
##dy
##jarv
tjente
raf
tiltræ
##serien
belgiske
life
elsker
litterære
materialer
landst
##aka
lærte
absolut
mytologi
##osh
leds
emp
optagelse
##spænd
##vald
sax
leop
haderslev
begyndt
erobret
fans
##rel
##ffen
eskad
##ksamen
meldte
##bygge
##selskabet
organiseret
forbud
154
##kampe
kampvogne
eksisterede
##uteret
drejer
overtage
senior
riget
luxem
##genhed
hits
australske
dit
ever
forbudt
##redaktør
brødrene
juridisk
mode
##æste
forar
key
fyldt
opførelsen
øjne
##ous
sammenh
indenrig
##bourg
##teborg
##olph
##øren
beslægt
hensigt
elizabeth
##hej
##skraft
force
societ
kritisk
omkom
##elsesp
norr
yderst
institution
##ysk
##kyst
afgang
##sliv
nævnte
sager
may
##sar
##bragt
##sters
indførte
##udvalget
gh
deraf
musikvide
pir
minut
##linge
anvende
darlig
galler
alternativ
##lement
deler
amtet
ilt
hovedsæde
corn
##lunde
##atoriet
matematik
##hausen
muligheden
##kil
1400
temp
academ
##jent
##barn
fysik
##rur
ombygget
##konserv
troede
ff
stj
placerede
##spørg
bry
bringe
1847
billedet
køkken
prag
rio
herreg
drive
anerkendte
nabo
skin
##ordning
starte
online
##mil
##fang
invester
digital
fabrikken
##bj
##ologer
forladt
breve
cru
fremhæv
fredericia
##ampen
digit
##sbevæg
sic
byz
##uft
romaner
adskiller
wild
løsning
dro
løg
smukke
mangler
##pool
##edig
konver
godsejer
øens
##ystemer
##fag
lufthavnen
praktisk
daglige
##lene
##arkt
forn
skilt
tolk
##ique
##skap
fortrinsvis
æres
##ensstem
merc
delte
anderledes
stigning
##ence
genstande
permanent
apo
høre
##ners
udgivelser
windows
indkøb
bevægelsen
jernbanestation
tam
1845
##systemet
provinser
genstand
løse
##mæssige
erind
forgænger
dæk
opførte
##log
au
##app
kommunistiske
udsendte
besejret
køl
barne
caroline
bit
historier
borgen
##stykke
stumfilm
##uh
oversv
tav
invest
##shistor
ramme
labor
indsam
blue
regionale
science
doc
##anes
##rute
##agtig
kortere
frederiksborg
bjerge
##nik
svag
british
vokset
guitarist
spredte
##blom
##æring
tror
hitl
robin
tone
##mas
##kær
vakte
##rør
skak
##sau
adfærd
statsb
freden
dna
perron
opvar
##lænderne
lot
grundtvig
##rykning
##ineres
bibel
overlevede
element
heav
kristen
##bod
afslutningen
##felt
##aga
##shire
kvindelig
bemærkelses
forbry
guldmedalje
drikke
ekstrem
##bræt
##hjælp
meckl
lil
##kræ
1100
ansvarlig
cykl
##sforhold
##grev
tung
filmens
dvær
##tim
ins
holbæk
##furt
##stræk
kommunerne
trommeslager
støv
##inspektør
hiller
veget
teen
beregnet
singler
beskæftiger
##illere
##industrien
##korps
værdier
cross
pi
bakke
##stykker
undertiden
kup
sydslesvig
krydser
##zz
nev
letland
##sselskab
rumænien
tendens
wood
##utere
folkes
##øber
islands
teknologi
arkæologiske
##ateret
indga
##olutionen
intellig
rug
##sgade
udtalt
søndag
##opg
##ommern
cu
ped
##adel
oprette
schmidt
tilhængere
##ulation
efterlod
begynde
94
##tv
##pset
inder
indtog
##aya
##tav
##oto
godkendt
guder
producerer
##hovedet
williams
rigtig
melodi
jomfru
church
instrumenter
##strand
fungere
dokt
ørken
graf
christopher
jæger
##ume
garnis
##sprogram
##skilt
##horn
##gelig
intens
fremmede
personlig
cur
synd
ledede
kontrovers
kel
holste
anlægget
inst
torped
##rek
opkøb
rail
uafhængige
pig
##sløs
##grad
fen
roc
forhandlinger
ekspeditionen
ægteskabet
brod
fase
ansvaret
vedrørende
hvidt
sorø
driv
medal
##ifa
islandske
opstaet
nedenfor
gylden
##datter
canadiske
showet
rul
##ador
young
fog
indgaet
disney
længst
syntes
ross
trold
1300
wol
skyldtes
nato
usikker
fæstning
##dest
##sætter
snarere
##cks
inc
formaede
##elles
##erencer
euro
burg
møb
øresund
##riter
færøske
hvortil
chris
##historiske
manager
##akon
selvstændigt
jager
personlighed
##øtre
blomstr
rune
fis
##figur
parad
stiftede
sjældne
episode
mecklenburg
cr
veter
##kede
frederikshavn
øjeblikket
##oo
afdelinger
heavy
dalen
##øerne
anat
spare
ejes
liver
##ævne
nørreb
benævn
metro
byggeriet
omvendt
##isted
cafe
beton
trav
wars
genind
laver
næring
estland
rettet
##kommun
vad
trop
ond
fremad
##givelse
selvstændighed
offentligheden
deriblandt
ans
kæreste
ash
rede
act
nødvendige
software
##ssystem
koloni
høv
##ður
##ube
1844
modtag
##førtes
navngivet
buddh
tydeligt
popularitet
flem
1815
bræ
malede
fortolk
double
tibet
##resse
billedhug
fornem
omgivelser
forhandling
##krit
125
mexic
##ots
skibene
gene
omstænd
søger
lew
motorer
brian
##skan
uafhængigt
fladen
tilbud
stranden
kristendommen
##ege
kraftige
##lets
dræbe
dynam
punk
celler
kid
##cc
dagens
katastro
omdannet
besøgende
nationalt
oberstløjtnant
tidligste
##bek
##komp
atlanter
##lærer
##real
##olde
dans
frim
ress
##smanden
fremmed
kent
danse
manden
markant
blomsterne
kurt
##biblio
##ilen
hævder
##rey
flygte
ambassad
nul
##spræ
##svæsen
##lads
fællesskab
##arl
klin
olav
py
##kne
##sak
tynd
akademi
hovedrollen
##ædet
pas
startet
##andidat
mix
fox
##oni
sidde
præcis
irske
guds
fjendt
eff
##ria
##dann
##aux
gæster
ligge
udgiver
lett
orgel
holdning
term
liberal
forstaelse
smer
uru
##scenter
army
##ason
selskaber
grant
match
##forbindelse
forveks
omdøbt
##inem
##ragende
straf
udbredte
tusind
##asen
##ænket
149
krigens
1846
nomin
indvi
spr
##ifikation
##historisk
##acc
fulde
hjørne
involver
##udselig
##korn
##udg
mellemtiden
tyrkiske
slov
blandet
times
hjørring
vietnam
rens
##itat
pludselig
muller
sognepræst
fanget
hass
restaurant
##jun
efterkomm
##forskning
nikolaj
tilsammen
##aki
dokument
##ilien
afspej
mindes
oplysning
forsynet
leip
fars
heden
afsluttede
spørgsmalet
santa
blues
##bran
obser
undersøge
bosatte
næstformand
lejligheder
##vinder
identitet
døtre
nad
talt
##svirksomhed
germ
bekym
registreret
copen
##stjen
flygtninge
tænk
wc
##ged
##holdelse
vilde
medaljer
ansa
inse
poulsen
##iseres
bomb
jordsk
granit
betaling
##mid
##fris
sproget
analyse
##ti
jura
situationen
##olas
vilje
jubilæum
jr
udenrigsminister
udarbej
##egaard
opvækst
##gtet
margar
konstruktion
##sang
tiltag
reich
fastsl
landbrugs
anmeldelser
centralt
argumenter
hat
hentet
uci
##sind
stik
arch
##otisk
nutidens
gun
varianter
##ultet
##ption
bast
hovedparten
mestre
samtidige
forsvare
kolleg
interesseret
nationer
skotske
rust
wwe
151
jule
bjergene
##tar
##imeter
pokalt
tillid
race
##isc
##arten
danskere
præg
kritiseret
##ikkens
døg
##osc
kejseren
hænder
mah
afviste
strækning
ophav
angiver
offentliggjorde
planet
skibs
forlaget
##plant
tilfældet
roger
##eler
trup
##amente
1839
traditionel
folketingsvalget
wik
jarv
##bak
sloven
kortvar
pierre
spis
syvende
superligaen
##værdige
udr
##egen
plynd
glem
##udvalg
##svidenskab
overlevende
underskrev
kaj
hau
##nas
##rader
krog
fyret
abd
##ness
tilladt
gib
uanset
krater
helle
forbedre
syrien
##bring
foreslaet
østersøen
gunn
teleg
aftenen
francisco
prest
##lens
gehej
filminstruktør
længste
##ionens
udt
forbl
motoren
sværd
gil
##don
krone
modstandere
ceremon
##kins
##kser
eksil
hjælper
fødsel
cell
fortid
helikop
testamente
##ugen
jødisk
muslimske
stef
##ardo
løbende
redde
arresteret
overgik
seb
##brand
københavnske
filmat
##vende
##inus
erstattede
færøsk
humor
walter
##vokset
inklusive
##forsamling
menneskelige
leveret
besættelse
moz
##haver
catal
##æver
indtryk
##lins
dybe
bevare
internettet
komedie
##orger
arts
afghan
aer
2021
day
lavt
sangene
grim
##kens
flydende
ekskl
betegnet
kemi
religiøs
##byrdes
byzant
##foreninger
objekt
sens
##cast
##mper
japans
ordenen
##nat
vikinget
##hou
##bom
europas
boliger
kgl
hillerød
##yge
sygdomme
way
overg
klit
skaff
flo
holdes
partner
næststørste
josef
iron
udtale
dato
herman
that
##præsident
tat
##och
indbyrdes
iver
iran
copenhagen
fjen
als
vade
##agter
udsp
udform
vides
molt
sygehus
##fæst
##ileg
musikkonserv
plader
motiv
anbefal
medens
1841
gymnastik
carolina
moderen
historiker
goteborg
hannover
høst
##arige
overalt
master
##eriale
valut
kræft
butik
##ela
slaver
dannelse
skandinavien
##tug
##gs
sydamerika
##styrke
autonom
ddr
gives
johnson
pastor
fla
dagligt
mette
arsagen
##sproces
landskampe
forstad
løbe
uafhængig
dybde
ere
gammelt
klosteret
ts
inddeling
stillet
eksperiment
##ila
abning
vulkan
ressour
##itation
ludwig
split
jugoslavien
##kirk
1843
fødselsdag
##gren
##atre
militært
foregaende
liberale
pokal
##stød
##stifter
##ado
ulov
agf
kredsløb
08
ce
modtage
franco
leje
munke
kombination
holstebro
greb
##alition
##sleder
samlinger
09
##hein
##eliv
vedtog
tema
fattige
irsk
kommunens
mes
115
fakultet
optog
hurtigere
##elag
sættes
ufc
statistik
halvø
##parken
roer
##flugt
forsøgt
bond
vog
##zon
##skat
værende
hertugdømmet
##alitet
##raham
##spunkter
##limer
vlad
naturvidenskab
##amester
##stationen
fremtiden
##ylvan
boy
slutter
erobre
mess
meters
besættelsen
gentofte
uv
##domme
elektronisk
##spladser
myrdet
helst
folkeaf
reduceret
konvention
##kanten
##ikon
myndighed
afl
##ami
ledelsen
aktivt
leopold
luxembourg
røg
##gift
##itj
spekt
##etten
tegner
federation
rødt
##eje
chile
værts
tayl
væsen
staet
##ested
sender
##fran
indb
menighed
nedre
barbar
##lægger
herrer
good
støtter
dater
##umin
hjemlandet
udvidelse
pilot
divisioner
erklæret
forventes
##løber
##smæssigt
henrettet
##boldt
##ansen
arne
basket
motorvej
efterkommere
gest
unes
##fun
town
kommission
##ulering
pu
##oma
##otorer
##ografiske
##spillere
hyr
rav
stæng
fyrste
bevægelser
brem
kompleks
bryllup
##iop
##rett
sydkorea
litt
##iness
1837
turneringer
leipzig
##atret
udtaget
bryde
monte
baner
diameter
omhandler
##anna
tilfreds
agg
akademiet
##pligt
##banken
1836
lykke
volks
væsentligt
trommer
staende
frankrigs
1820
##ancer
afb
inge
seminar
forlængelse
beskyttet
##hertug
drab
kirkes
moun
##filmen
højst
anth
budget
liverpool
hale
hænger
##umen
##smod
fremragende
indbyggerne
##lys
scener
##ays
##virke
##verne
udstillinger
nordsjælland
diagn
mike
##vi
##urd
tanke
olympisk
##gterne
infl
broad
karakteristiske
kass
##reland
muham
beboere
gæste
elite
slagelse
ration
begrund
abraham
faldet
foretage
reformationen
indik
##speriode
udvikler
vinkel
kau
##aleri
##itten
rost
udgangen
teorien
oppe
lake
1808
##uge
##afrik
pagældende
##sætninger
ministeriet
##othe
lokomot
sølvmedalje
tilføjet
udstillet
nyborg
følelser
operationer
olden
redaktion
rækker
hessen
##pal
##ætte
sydney
bygningerne
bald
##dæ
##orme
positiv
befolknings
patienter
skuespilleren
florida
aage
##iff
##oslov
columb
jeff
tydelig
dygtig
spillefilm
##srad
##istol
bosat
bjergk
##talende
komplet
apost
##somrader
bøn
bah
nedsk
antarkt
dahl
musikalsk
alvorlige
teorier
spirit
##hs
forbill
skuespillerinde
##kat
skikk
infra
generall
##bat
besiddelse
øre
##stret
floder
##bringe
middelhavet
neutral
##kommanderende
ivan
sande
1807
busser
beordrede
gader
vagt
omkost
sving
kvæg
rø
##hel
begyndelse
##onsor
navy
fall
rammer
mellemøsten
personligt
korea
andrew
server
udvalgte
urugu
steve
byrad
nedsat
billboard
svøm
1810
tilbag
besatte
##ægtig
alvorligt
bam
formue
dame
##ribut
128
lovgivning
levetid
bug
fug
##cho
indust
##ording
koordin
trium
##bade
##egede
##ksh
##opol
##sfolk
skolens
søj
147
romerne
mete
tages
væv
##du
##ieg
##skes
evt
hip
indstillet
datidens
færøernes
cir
forvand
skt
baggrunden
wcw
malmand
pse
##mu
##yldt
voksen
kvalifikations
tjekkoslov
turister
kroat
afløste
tømmer
##læge
##ough
igang
udspring
skræ
##ksp
##bridge
falde
rummet
1838
pac
##ires
farm
kok
##drup
##ommun
eric
##rie
joach
nært
opføre
1835
tjene
burde
søskende
mov
stemte
lyset
dialekt
øge
overfladen
##arth
cykelrytter
føres
148
læser
passerer
fremtidige
oxford
##svalg
invad
stillehavet
vesttyskland
##iva
bestand
agent
værdif
morgenen
theodor
kancell
##imir
styres
bin
nak
global
kontinent
##ssted
##elius
darlige
artilleri
joachim
##cil
##hab
##ief
alger
venedig
landbruget
hermed
centre
##færen
##aljerne
##cert
1801
##jyllands
hvider
færre
servic
etniske
preussiske
##car
##stjerne
##nettet
lektor
sangerinde
fasc
eksplos
cab
vestre
defineret
taylor
05
##iction
sygdommen
##orter
hovedrolle
kredsen
brændte
generalløjtnant
##ulf
mari
loy
privatliv
original
faderens
dollars
sendes
##chus
1803
sammenslut
brandenburg
bio
##direktør
##pol
##haven
bist
##act
proje
tilbød
##landsk
berling
terræn
airport
wel
næppe
udvidede
frekvens
##sproget
kjær
etableringen
moleky
indlemmet
genud
##kont
vidner
johanne
noteret
##lub
##sholm
antik
dream
fonden
kard
pur
samlingen
rosenkr
kern
##kin
1809
wilson
350
aktion
##yper
grundlaget
brad
utal
##zburg
##utt
domkirke
patient
territorium
ded
nig
arsen
fine
variant
##skridt
individuelle
oversigt
mindret
hadsund
jung
stemmerne
sammenlignet
gøres
skad
truede
brasiliansk
gens
sea
optræde
pseud
forføl
##klin
##mærke
forsikring
tilgængelige
entertain
##essor
semifinal
trykt
thomsen
protestant
aviser
skæbne
døbt
lat
##sol
tyder
dages
bou
##mask
beskrive
primær
ortod
endeligt
udstrækning
forfremmet
lør
indst
chi
marsh
##bunden
nede
##byggelser
forretnings
enige
stone
hangar
modtagelse
statsk
119
dannelsen
fjender
officiel
elef
thorvald
døb
##edia
friis
koalition
##marken
normand
golden
nørrebro
##aktioner
##nie
##ækken
##otel
amerikanerne
ledte
gerning
mir
##æson
##klassen
løsl
stev
##officer
petersborg
##aria
ulrik
skridt
##fektur
##mæssigt
##roy
##auer
##uan
##kul
##ovic
tiv
justit
kunstakademiet
##verdenen
komponeret
kolonier
pleje
lom
water
##kir
america
sammensat
charlotten
rend
##omi
bevæger
jarl
erfaring
lewis
cyl
topp
##nummer
hamburg
07
##itch
beij
regerings
pabegyndte
##kol
##øft
indgang
elvis
sløj
østre
automatisk
polar
trondheim
godset
score
afgjort
##sloven
1828
##oseks
##bevægelsen
##berne
##skreds
fremgar
##vold
forum
##yrer
101
tempel
processen
##stationer
##agnen
driften
##fronten
søb
udgive
konkurs
dres
##ades
industrial
afledt
eger
##ejer
nich
##ope
forskelle
filmene
tørre
frankfurt
ric
nyop
faktor
konged
1813
guddom
forø
see
vandløb
##dags
lincol
politikere
mistet
prog
beløb
sop
skru
værkt
svømme
marokk
amtmand
zur
##wich
spise
krigsf
1829
prøvede
##try
arbejdere
##rejsende
sælges
##biler
##dalen
##klass
comm
drøm
medfører
1812
ambassadør
zar
##do
skrives
##rækker
##skjold
dække
afvist
indkomst
privileg
gentagne
medstifter
forlov
punkter
historikere
muslimer
1834
lejr
danish
hersker
hjerne
##strom
risiko
gabri
society
##strakt
opbygget
portrætter
geografiske
##ße
week
jonas
##skyld
festivalen
introducerede
juridiske
##zirk
turisme
grønlands
sarede
skotsk
##ih
##sev
betydningen
juel
kæmper
arkitekten
micros
bbc
lager
førstehold
koret
tegnefilm
dirigent
##ensstemmelse
tir
frik
kanton
kommissionen
israelske
korrekt
bundet
sard
##ariske
mars
skibets
##amerikanske
upp
##alis
##illinger
komment
##rænde
menneskets
sjælden
wwf
afhandling
politiken
dab
##die
##bolig
little
##blemer
##krater
johnny
beredne
sebast
microsoft
##iers
##ito
advar
infrastruktur
##sven
forsøge
afghanistan
##celler
spart
enden
teologi
##klubben
pladeselskab
fremstilles
konflikter
##jan
erhvervs
lærere
beijing
kinas
##visninger
kontrollen
kastede
statsborger
fætter
kende
##førsel
bygg
matth
barnet
##hjel
sene
bret
bure
typen
das
kub
ringen
##ovl
vildt
adskilt
udskift
overdraget
zone
kredse
almen
arrangementer
pabegyndt
uret
henseende
medvirker
kunstneriske
alvorlig
annoncerede
hr
##børn
##edom
##ødder
sammenlagt
kommunes
business
kredit
racer
siddende
universiteter
naturlig
natura
tales
lærde
##spris
regnet
opgive
uddannelsen
præsenteret
hoff
##ulerede
plast
##tagelsen
##ifer
karakteriseret
##danmark
tillod
rekonstru
fremskridt
profil
pladen
##rummet
velfærd
##trafik
isen
##iy
klaus
km2
forfatterskab
operaer
fortælling
utilfred
rett
svenskerne
cens
##kj
komplek
opfundet
moltke
nogenlunde
sammenhænge
oversvøm
bop
ged
hong
pyr
opvokset
huser
egenskab
dublin
sejle
læste
ødelagde
gyldne
licens
ynd
your
##ray
meddel
##ury
fril
##linje
komponister
departementet
rosenkrantz
dus
uss
##vning
##erske
castle
##familien
entertainment
rov
##eta
forker
##avik
embedsmænd
##vidt
##esi
underviste
videnskabelig
princippet
ein
##forsy
thisted
parker
succesfulde
fremstille
rib
kryst
##upe
135
cirkus
donau
forsyninger
skarp
mordet
forstyr
##ido
sak
danskerne
hærens
ultim
refererer
06
nordt
afsløret
manuskriptet
##adal
trækker
løst
dyrkede
academy
tilgang
##uster
##beskyt
datteren
##iserende
kaldtes
##regel
##slov
positive
dieselm
##mans
##reen
endog
##hai
gravid
##uit
undertr
milj
nævner
japanerne
nick
helhed
boliv
mv
speciel
##haus
##stitu
bremen
episoder
bebyggelsen
mærke
##skred
krige
kanaler
menneskeret
gæld
127
bredere
##skiold
##middel
forsker
vidste
museer
drage
fælle
keram
pund
udfor
skan
##styrker
##grene
mønt
optagelser
##uropæiske
indr
abningen
beliggenhed
##iderne
regent
arkiv
brown
afslør
rolling
individer
offensiv
mom
etage
##ums
hvorvidt
krise
118
mors
johansen
cheft
administrerende
veste
spek
##mad
oluf
skala
franskmændene
##ied
medalje
1831
carlsberg
stenen
østrigsk
maskinge
grundlægger
##munition
##eriets
##sider
nicolai
væb
anal
##ropper
oprykning
##sætningen
1832
##sdal
praktiske
tidsskriftet
sædvanligvis
##ype
stede
##ffel
christoffer
forsvarede
landsbyerne
imm
vejer
verdensarv
elektric
traditioner
kombineret
european
venst
redig
suver
forbunds
forklaring
dol
##iano
udveks
skuespillere
sønderjyske
pavirkning
knudsen
kostede
haven
besvær
##broen
afdøde
tæller
pause
kendskab
meteor
##omon
etager
opsamling
emne
brugere
regeringens
seriens
##erioden
tekstil
ringkøbing
##mærket
vegne
overordnede
cer
dum
hoffet
pod
##sig
familiens
redning
##familie
sans
##ægte
mount
colomb
bataljon
basketball
##eria
onkel
dougl
bølge
fædreland
tony
meyer
1826
birg
kunnet
##vision
svære
maked
gregor
christine
##styrelsen
vanskeligt
midlertidig
##dansk
##kning
snor
##kampen
##tz
##arup
##reber
brændstof
tjekkiet
monument
nag
slutrunden
tegnede
legend
ef
##reserv
filipp
##styret
corpor
konflikten
fedt
europamester
temmelig
gjaldt
forestillinger
##endal
grene
tanken
##ais
bach
truet
roll
##deligt
145
udvalgt
##aton
##aser
columbia
platin
##lings
hovedt
##plade
bue
##cker
##hem
##amo
kapacitet
1806
soldat
tilgængelig
kendetegn
tod
shak
##bury
smalle
hier
power
##hast
states
hæm
udnyt
medarbejder
cheftræner
dial
pans
##bedste
avancerede
rein
##ingeniør
rejsen
vælges
##udstilling
spilleren
1816
##kob
ligget
##lægningen
fortælle
gly
lak
opdager
kemisk
charlie
beviser
##general
undergrund
##artet
davis
bosn
islandsk
tig
præster
angivet
alternative
kommercielle
maskingevær
yor
##okken
bebyggelser
deleg
##inton
##sprod
tjener
##ylvania
##græ
neur
conf
operaen
forsvarende
kejserlige
besætningen
##cos
##hf
##gl
syg
favor
betydningsfulde
gy
##ulere
state
tennes
ejendomme
lincoln
##serie
kvar
kunstnerisk
selskabets
kompagni
afrikanske
tide
##tre
##vang
anker
generelle
##regiment
idømt
virkelige
eksistens
dynastiet
lp
stifter
##ops
cha
tilbagevend
rigsd
eksperimenter
nam
##ogle
omgange
blød
gennemgik
##uki
metropolit
##api
størst
pont
skander
harris
##ejl
hovedbyen
frugterne
rykke
##nor
##kkedes
vestind
beskad
##torp
undtagen
sørg
##bærer
stoffet
##kterne
afvand
udtal
klasser
bygges
1818
helsink
parag
normann
##ili
123
producent
##syssel
##fast
##isation
finansier
radgiver
demokrati
alfabet
##eng
##ates
##ænkt
instruktion
penns
efterretning
højder
kristus
douglas
udendørs
overensstemmelse
altertav
sovjetunionens
semifinalen
gunnar
ran
ryd
ali
##ello
maxim
##geme
formodentlig
hero
game
opsta
kunde
opfindel
takket
##ævnet
smed
lederen
hellerup
##niveau
bruun
##somhed
##skove
udføres
canadisk
skød
slave
sektor
slutte
kronen
simple
##undborg
##stenen
##boldlandshold
kommunist
forholdene
##træden
tryg
unionen
stones
cham
ammunition
##ells
torshavn
mængden
defens
regeringstid
1824
##øer
##levende
nordafrika
nedslag
##sfilm
kvalificeret
kvalifikationen
hemmelige
##spar
blandede
117
04
##kørsel
##ærd
##ationerne
hermann
kalundborg
lauritz
berlingske
freg
løjtnant
##olis
##ovo
glo
forsanger
semifinalerne
kunder
overskud
ell
riga
embede
##æderne
##ener
enorm
udvide
1833
warsza
##elskabet
##skirken
vedvarende
vesten
##nuft
hurtige
##ilitet
reelt
synger
typiske
maskiner
regerede
facel
stærkere
kirsten
aqu
bk
paven
skifter
##rix
slutspillet
opgivet
bombar
digitale
##nens
##gning
foruren
##issen
132
frue
violin
##ungen
init
koncep
minor
homoseks
køretøjer
##præsent
underskrevet
vore
##wick
opl
beck
genre
slar
saga
karakteristisk
unionens
kratere
forvaltning
##olie
hvorimod
nordjylland
grave
sikret
##forbundet
atlanterhavet
##anstalt
lægges
drengen
tunnel
##anon
light
katedral
blomst
analyser
##apt
##vad
##reich
##ipend
139
##omraderne
ringsted
##fyrst
rival
kommiss
mandater
##bourne
manglede
kommunalbestyr
jersey
cyp
genren
ofre
norde
foreløb
grammy
tiltradte
##hag
##fond
##urin
##essel
137
1790
symptomer
krag
etats
indfødte
##sningen
##edal
etiop
dukkede
##chaft
braun
dram
foreningens
lanceret
nødvendigvis
##bul
mane
liggende
113
fordele
dc
##fære
folketællingen
##dage
##stren
afhandlinger
##abe
##bestem
julian
##mands
action
antages
mikkel
herres
##barhed
1819
præsidenten
stoppet
##skuespiller
##ierung
regerende
bygnings
fortjen
boston
1825
geografisk
separat
circ
##ava
lyder
refer
bulgarien
genv
herved
##ants
boet
morris
schweiziske
borgerkrigen
stiller
befandt
fæstningen
frej
vendt
##elærer
afsat
slutning
østerbro
fronten
hørt
##edag
##isp
##ush
anh
fint
146
##floden
trussel
##osev
##drift
##alm
##egang
hell
knæ
processer
nutid
hovedrollerne
##rif
opgaven
legat
##vidde
høn
ving
indendørs
beløn
sammenhængende
nit
##amfund
urol
field
oster
ugen
æst
##nord
indg
instit
orange
hovedkrateret
undsl
##stitution
skiftende
nabok
##ki
turen
stammen
væsentlige
##spektiv
coc
adop
##kond
138
sovjetisk
borgerlige
okk
##ulu
klipp
asiat
inklusiv
sibi
##non
##hørende
##agerne
konst
besiddel
sidenhen
kampagne
kongres
##linjen
otter
statslige
manuskriptforfatter
nø
##lich
udlev
##ija
almindeligvis
bjør
##smedlemmer
##publikken
##rurg
1805
finansielle
##abnet
geomet
144
1811
##organisationer
cob
lane
enorme
##iki
spør
##kommen
grevskabet
##sprogede
problemet
videnskaber
walt
##ault
##ofon
optim
##vendte
##edo
##imentet
sammensætning
magasin
sicilien
##allen
manens
monteret
tax
leverede
bage
formen
instal
##holdende
##ireg
nærings
##issipp
fredag
indflydelses
mønster
tilstrækkelig
julie
##inkel
##egarden
filosofiske
sebastian
##skifte
##egru
kalde
105
129
##aude
lørdag
fornuft
format
originalt
stationsbygningen
flemming
camer
##bind
##enz
##stjer
##rafik
dance
resterne
mississipp
erobring
pend
markeret
kategorien
principper
hvornar
reglen
##værdig
109
##lines
conrad
demokratisk
ungarske
##uin
danser
radet
metall
guine
##takt
ble
kæl
##befolk
##elløb
toget
militæret
kendetegnet
sunget
atp
##sled
isab
##byggeri
www
institute
rog
yout
fortællinger
exp
lady
piet
øste
##brev
plot
##afdeling
singap
##fekt
ryggen
pianist
gum
loc
mødet
sna
##endorf
dannebrogsmand
##hyd
##fyn
##ero
stillehav
fjernsyn
khan
pigen
onde
krimin
afgørelse
stefan
pioner
vene
opbygning
##attle
##posten
alderen
udnytte
opfattes
kroatien
##uppet
udstillingen
frans
##sfri
stadium
spilletid
kapitel
1804
##mont
german
##stallet
amalie
ihjel
uld
mach
skuff
yderste
##hosp
##lejet
##ampton
henret
banken
##anisme
hertugen
tillader
##punktet
afst
forløber
104
viking
ryttere
stephen
ækv
##ology
rhinen
##billede
konsekvenser
deles
ravn
skriv
fritz
##ateau
vindere
hvidovre
jorde
##rier
deltagerne
sygeple
##ologen
digtet
rudolf
skanderborg
dikt
##shus
slægter
##æves
##shoved
løfte
gradvist
desto
##olo
værne
regierung
amter
106
##elli
1802
eksisteret
forbedret
queen
wurt
##aj
varde
##udi
benj
kirkegarden
ledes
och
##worth
##avet
##imar
korstog
##færdig
omstændigheder
jet
ops
sche
class
distrikter
skandinaviske
afhænger
tennessee
death
australian
##rium
henvisning
betingelser
fus
fut
pc
moders
pennsylvania
htt
stænder
udarbejdet
orlog
natural
markerede
kritiske
parlamentar
simpelt
udryd
##lor
##junkt
##stæder
stro
passende
normandiet
ci
##mis
##gten
##kong
akties
dronningen
myndighederne
##idel
##ident
##skaberne
faktorer
bygden
shar
flyver
viktor
niedersa
øgede
##rukket
##ibo
kampvogn
opmærksom
uruguay
ege
ride
##litter
##kilde
##wo
##utz
##ænke
naturligvis
home
bureau
ove
wagner
##vande
##start
somal
samler
betalte
107
##ways
ødelægge
nobelprisen
##rud
##arkite
kirkelige
come
1821
voldsomme
reglerne
holstein
##ellan
milano
dukker
##parret
##kvarteret
tusinde
serbien
##regering
lubeck
fiction
gig
##osp
mandat
premierløjtnant
forpligt
hugo
##bælt
##rogen
kongerige
socialdemokratiet
hur
nark
rast
##mning
##opel
kampagnen
regierungsbe
face
jyllands
##olin
##erencen
mands
intelle
helsinki
gord
liters
kollega
bronzemedalje
##magt
svagt
medicinsk
forvir
djæv
##arat
herudover
læder
trinbræt
wed
##oul
adresse
besta
lukke
##dommer
økonomien
1817
fjeld
faciliteter
forsyning
korresp
dresden
bekl
period
guy
englands
objekter
##højskole
rigsdaler
ane
##etts
##retninger
##anni
domineret
foreninger
administrativ
124
kenned
bokser
bille
omring
##ista
alice
##sene
overhovedet
michel
progress
fame
kode
##quar
opsat
indholdet
haver
beboet
##livet
##11
##elov
retninger
korsf
##planter
legem
ferie
forgæves
navig
etatsrad
##itive
samuel
blat
sekond
trekant
nederste
distribut
vogne
##aco
##akh
langvar
##sbo
voldsomt
fi
##undne
hjort
hovedbygningen
tyrkisk
beskæftigede
entre
tredjedel
kin
smør
1795
soundtra
pens
##con
##cyk
##fødte
stiger
konstat
krøn
122
kaffe
samfunds
accepterede
##ilt
##skade
##oller
##istent
##aps
##kender
1789
lægem
embedsmand
etym
maleriet
engl
opretholde
bønd
dames
lide
skatter
bevæb
##ced
##onder
forhøj
134
cec
##wen
##leans
affald
romansk
bøgerne
vladimir
##leve
##ismens
katolsk
fuldstændigt
western
tort
##ax
finlands
domstol
##sche
uddelt
hei
brænde
ess
##gro
##værn
handlingen
bachel
##mærker
fabrikker
reklame
##pat
omsætning
ønsket
1770
gottorp
dværg
udkæmp
lokaler
sporet
vording
fork
udvand
book
fredede
læger
sagn
aktiver
1827
benjamin
03
fifa
reder
tip
##orteret
##ammen
1660
oplevelser
bekræftet
vordingborg
cav
fødte
udstillede
kulturer
bibli
kommandant
##præget
koncernen
tøn
omkringliggende
produceres
##scyk
palæstina
selvbi
##inister
##sher
binding
ærkebiskop
gifte
##ulus
nej
brudt
haw
dækkede
clem
##etz
spin
frist
final
leo
forbindelsen
rekrut
hms
rik
##pas
ath
##søkonom
forskellen
togsæt
##undervisning
tai
udnævnte
free
ørsted
ohio
##avisen
skytte
ye
kran
nordligste
1793
##ration
arvede
##sendt
hebra
christiania
##ragelse
potter
kandidater
antonio
anbef
aksel
cuba
corporation
media
anmod
##lementer
##sbeg
##havende
billedkunst
##ular
seng
materiel
instituttet
socialt
beslægtet
bønderne
##vere
præsten
bened
administrations
mønter
strenge
handle
offer
136
##arbejdere
udskiftet
cov
overgangen
##hvert
aleks
lykkes
fjenden
kammermusik
nabol
indtradte
episoden
bugten
malmø
##vag
##sby
anfører
##komsten
##søe
126
jurist
deltagende
suveræn
indones
verdensmesterskabet
midlertidigt
stykket
ott
enev
##fferent
bød
##lande
##aterede
blæ
box
tegning
fastlandet
soul
patrul
prædikest
buk
fight
gejst
##ræer
flitt
glim
eva
fredrik
møllen
shows
floderne
fødevarer
grammat
ressourcer
##fo
flys
koncept
tyve
##ualitet
##sand
##pan
##oge
##kron
tyng
shang
repar
oprettedes
midtban
sælger
forelæs
bøj
krom
træet
##faldet
departement
kør
##punkter
##inos
##oko
arbejdsmark
arbejdskraft
portugisiske
fischer
##ettet
juan
1799
bisk
mg
##røder
##kse
udrust
##ppede
helm
massachus
dbu
alumin
beklæd
sideløb
##medaljer
adskilte
viggo
kælder
hvormed
forskelligt
ledige
tætte
trafikken
ask
mul
##stekn
##spille
##ureau
psykiat
skjult
aur
##zone
##krigstiden
kulmin
palæstinens
bakterier
antarktis
call
kit
##ao
ethvert
sponsor
##holmen
totale
bull
sammenligning
nedbør
gave
##ængden
cert
kugle
##bre
##igan
begreber
orleans
##atoren
bevæge
aktuelle
akademisk
pakistan
vendsyssel
niedersachsen
m²
##steg
karakterist
totalt
vanskeligheder
sideløbende
450
referencer
massachusetts
nyeste
##ocial
##jorte
##ect
eventuelt
beskæftiget
##politik
cuppen
fern
202
brux
ruslands
begrænsede
01
ubet
##behandling
richards
##firma
regierungsbezirk
ulige
##cl
forvejen
##ism
omeg
omend
beach
##areal
nederlandske
orient
sænk
##blev
blan
##repræsent
##agnet
##ssund
vente
industrielle
erstatte
##sværd
rønne
vikingetiden
intellekt
ral
hjemmet
artus
regional
gymnasiet
##cket
klippe
landene
universet
antyder
brændt
skulptur
venez
dark
oprøret
peru
imperium
astronomiske
ling
##anien
##ævnes
##løst
sned
##ktoren
traktat
overraskende
volksw
ey
##magas
affyr
stas
konges
klubplan
revent
socialistisk
##skriften
bolden
##falz
fritid
udsagn
umuligt
bac
women
beund
parter
indebar
omradets
velly
ejere
uddannelser
##eksamen
##ppel
løve
christiansborg
gavn
mika
tilvækst
##raa
##ikler
carsten
temaer
lejren
##mperatur
yde
skor
##slund
serg
omraderne
1788
mindretal
##hul
first
##mestre
forlader
folkem
komponerede
georgia
symfonier
finger
begejst
senatet
imens
1792
tidsskrifter
landes
aen
ukendte
sørgede
bruxelles
##him
efterladt
##saks
##ængt
smule
112
vinduer
badm
ejendommen
hjørnet
series
##billeder
belejring
konfødererede
##wall
##espil
opgrader
tættere
inspe
gennemsnitlige
spræng
elektricitet
hovedturneringen
##iregiment
aflev
plus
regi
fair
kommunale
strategi
effektivt
##pil
##rot
ellen
laves
##ahr
synge
damer
tæ
fortalt
##admiral
værste
indebærer
1776
who
hospitalet
billedhugger
gret
##oro
svage
143
hals
##head
##skoven
kevin
##bag
##star
##stolen
tilnavnet
##itor
vestlig
komplic
antwer
udgifter
amerikanere
##book
voldsom
##sporet
virkelighed
nøgle
##grim
demo
traditionen
install
mærket
strej
opstand
efterar
##alth
konkluder
techn
aaben
ernes
##elson
116
party
brigadegeneral
føderale
hypot
maleren
repræsentere
country
##fried
benævnt
02
##ivaler
##prom
perform
##plader
##produkter
efterfulgte
albrecht
afbrudt
wiener
ip
pum
varem
##forsker
planlagte
indeholde
billy
1797
arnold
propag
anhalt
wimb
##skaff
##oged
##illon
søv
fremstillede
fiktiv
forhandlingerne
krum
verdensplan
parkering
cambridge
was
##hum
##eda
##ikum
arkt
evaku
behandlet
##sreg
handlede
omfatte
clausen
landevejscyk
##iko
##rof
##illen
nordfris
glæde
spillerne
kopi
##storff
negative
dollar
komplekse
celle
filmp
kate
kristensen
forhen
##rukne
boe
emma
modstandsbevæg
1822
tub
##skampe
præfektur
##strakte
found
##skor
1794
sara
##forbindelser
pattedyr
arag
ion
nfl
##skere
dead
guer
ordene
organiserede
mortensen
erfaringer
tjekkoslovakiet
sekondløjtnant
hæng
##itiske
omtalte
indføre
laveste
##ledon
1780
stavanger
downlo
betyde
middelhav
forældrene
rigtigt
ekstraordin
##væsenet
sydpa
roosev
medlems
arkitekter
hundred
alperne
byradet
##kka
organismer
##typer
forklare
jernbaner
musical
tilslutning
roosevelt
##dle
##ideret
udlænd
langsom
##sbet
##box
##hara
bisp
fland
giv
##com
elit
olaf
sporvej
forstas
bush
værksted
iagt
lik
##zi
skjern
##deret
marmor
presset
##greve
dedik
melbourne
tilbudt
nemt
introduktion
egyptiske
utilfreds
list
p3
##gender
tilbageværende
placere
adelige
youtube
wurttem
##relse
##oda
sydstat
østty
sha
jordan
##centret
keyboard
christiansen
rejsende
annonceret
bark
##stue
##uten
##ians
togene
markante
##smuseet
midtbanespiller
##cken
##hallen
##stamning
wimbledon
##stegn
frag
ansøg
##oldater
##ugler
##lagdes
torben
beslutninger
gunst
pel
tænd
zu
overgav
herc
erhvervede
##hrine
##stræner
pulje
rok
##skel
efternavn
reag
108
##stemningen
imøde
##kratere
forsvundet
arsenal
##etab
##insen
##avi
banens
medicinske
hay
##lok
trone
##hew
allan
kvindernes
inkluderet
esc
præstation
114
missil
logo
bogstaver
francois
aus
eje
pip
udkast
bytte
##ible
##sministeren
indtægter
bombefly
lunge
doktorg
insekter
singapore
tet
enighed
nordpa
kvarter
bram
mursten
bemærket
##ilog
ombord
##kkel
nyheder
attra
forbe
biologiske
udrab
##landing
nordsiden
dagbladet
holdets
lyde
skønhed
situationer
flora
nederlandsk
bly
syddanmark
nedbr
grov
ottende
konkurrencer
maneders
invasionen
anklaget
##12
##itu
hovedkontor
##radition
##brun
dateret
badminton
ked
tøm
##listen
##plac
transm
hotellet
marcus
ji
afv
##olet
ansættelse
##værre
sammenlægning
##irekte
bestræ
centimeter
##selskaber
anderson
globale
adams
opfordrede
hej
udformet
brøn
handelen
personen
guadal
color
##oga
##emask
betalt
baserede
oblig
manuel
klokke
##tj
afstemning
anbragt
albummets
englænderne
antikke
1772
identificere
nutiden
konstantinopel
district
ortodokse
skæl
skub
interne
parallelt
mikkelsen
musikkonservatorium
##tur
##ariat
indh
spids
strakte
ankomst
napoli
kommerciel
kb
##sal
nedkæmp
salomon
christianshavn
common
hidtid
dorothe
hævn
stk
svæv
##rong
konfron
ms
nære
torn
##eredes
##atører
##shj
##arbejd
deutsche
diskussion
ekstremt
indsatte
anført
tyn
selvstyre
eleverne
baby
innov
cem
krab
##atra
kunsten
franc
hovedby
valgtes
slesvigske
belejringen
mislykkedes
##zar
udbr
##intend
divisionen
##betegn
hjertet
vicepræsident
antwerpen
wurttemberg
cass
ht
tap
##isa
inger
helgen
heat
uddøde
oprettelse
bodil
##spartiet
kavaleri
hære
##ey
##ting
##kugle
##sex
manag
chart
##lægges
australsk
hyppig
tegneserie
kennedy
##rens
afstamning
##itim
##berett
buch
1798
##fuldt
elektroniske
##saftale
indskræn
hakon
øjen
##odes
bryder
##tagelser
valby
universal
glat
kritikere
cirkel
stammede
chefredaktør
patrick
churchill
mut
gennemgaende
cecil
pon
##yse
##periode
stim
##light
bruce
##uez
news
belast
##øvede
##ificering
aluminium
teologiske
grønlandske
##loven
forklarer
strategisk
integreret
tilpasset
cos
##amt
medierne
udl
hverdag
##slinjer
telegraf
aabenraa
##16
kommen
##icus
##version
resultaterne
dyrkes
optagelserne
gladsa
##ingrad
##imet
##prov
smab
træde
portugisisk
##kester
undersiden
##syre
asyl
1796
bekræftede
kortvarigt
wald
##work
##sfjorden
computere
cæs
wen
yam
##overfladen
arbejdsg
bibelen
spænding
kategorier
##sala
##itiv
navnene
##olleg
relation
##sselskabet
fokuserer
##programmet
klein
##status
embedet
besiddelser
satur
forslaget
indirekte
genvalgt
##holdte
theatre
carib
cour
1823
efterspørg
nordre
##phy
kvinderne
kontrakten
rigsdagen
ovenfor
forventede
tænkt
skagen
forgren
fattigdom
##ylon
##stemm
different
##historien
##fektion
ophævet
felttoget
anthony
df
##atik
##lignende
##spur
##apo
##burger
volkswagen
##enze
##phia
california
kopier
dimit
venskabskamp
##kontrol
banker
##skærm
heg
##lon
##øe
forber
underholdning
process
hallen
##ragter
hjemmehørende
airlines
hyppigt
renæssance
prestige
warszawa
ay
ach
biv
##sgaard
modificeret
##enterne
radar
##scorer
rumfær
jacques
##hardt
##gørelsen
##grønne
##estaende
studios
pavirke
kvartfinalerne
protot
##dækkende
porn
begaet
hovedgard
samarbejder
datab
menneskelig
grosser
indledt
kasper
tilstrækkeligt
sparek
rif
##artner
##bye
nordsøen
rockband
skaffede
faren
##sblad
broer
samarbejd
jøderne
bestyrelsesmedlem
tivoli
aps
bestemme
##ashi
folkeafstemning
##kle
##adset
alan
##sving
folkere
ida
infanteri
forandringer
biblioteket
##oman
##itterne
##sbøl
metoden
kunstneren
himlen
færdigt
karakteristika
##steori
##spir
sigurd
##atorisk
bredden
islamiske
mitch
kristiania
venstres
tyngde
##nedes
##witz
forlig
landskaber
bert
scient
lovede
dyrket
bidraget
destroy
howard
folkeslag
##sord
##oten
søgt
sydsiden
kaste
forbrug
sr
##ense
spær
bour
perspektiv
lejre
udgaven
opvarmning
tul
##hammer
##seksamen
##odi
brandt
##renes
court
levere
præcist
helikopter
firk
gon
storhed
luks
frederikke
mangfold
interesserede
platform
orkesterværker
udgravninger
engageret
skrib
##kkelse
seed
sve
hawa
bassist
facelift
card
##opr
desværre
solid
moske
termin
donald
aggress
nash
##lie
##hatt
nordkore
udgik
magaz
kaz
hjernen
matematisk
frygtede
uoffic
##sas
##forsamlingen
tidende
##ælles
malays
smidt
bakker
hukomm
hidtidige
##sul
##vat
##amper
busk
firenze
odder
tunes
muhammed
forhenværende
lyr
##ischen
overgaet
protester
ankommer
bevidsthed
germanske
kof
##mæssig
##avis
retter
rækkefølge
afsnittet
stalin
did
##ið
##liggender
beholde
neu
centret
uddannede
relativ
konservativ
udmærkede
margaret
søvær
nordir
midtbane
kompositioner
tennisspiller
##illy
frisk
stemning
carlos
firer
forsink
##maleri
kjøb
konsulent
guden
##jd
antog
medlemskab
styrede
suz
stationsby
øverstkommanderende
marokko
jf
##ku
dødsf
russerne
##brogade
animation
ign
afstanden
##agram
adri
##stern
monten
urban
audi
##andede
genskab
##beck
hjemland
bevirk
motorvejen
ærø
justits
bernhard
jel
##stone
##union
filos
relationer
bomber
##ensens
##slivet
landsdækkende
##burgh
count
fersk
socialdemokratiske
forbillede
gladsaxe
year
formet
smuk
generob
evolution
##onerende
besættelses
##lejr
##num
##fre
##oren
ligest
munder
vurdering
aske
arealet
##manns
endestation
belgisk
reventlow
##fi
udsted
reyk
##linjer
fjerd
overdrev
uppsala
fortet
stue
fragt
102
fangen
biflod
##alon
stub
##ione
##ejle
##rings
kongressen
infanterid
negativ
drejede
fd
##inges
##søgte
christen
commun
elect
fundam
anklager
observer
nil
##oz
##kø
##ikerne
##kloster
handen
folks
klubkarriere
middelalderlige
fib
hugh
##hit
indførelsen
1750
sho
motion
kejserrige
aktie
balkan
sandsynligt
færdige
burn
fiat
space
##uto
sviger
behøver
pladeselskabet
rykket
##analy
##arskrigen
##smæssig
generationer
voldt
fremstar
observationer
rendsborg
##skin
luftfart
buen
##straße
fornyet
dick
##rine
forrige
vandkraft
beskytter
tv2
arhundred
reklam
##how
##gg
##agon
svampe
##ession
længden
forsvarer
inviteret
ruter
kelt
##nit
##ju
mellemrum
isot
antrop
apple
kjeld
bydele
afskaffet
barnebarn
nabokommun
clin
uro
##ikal
oliver
##sfart
dommere
import
ulykken
atlanta
buck
##ophold
##agtigt
positivt
giov
jævnligt
##skrivning
binde
dort
kansler
wta
##np
blood
franklin
mini
torv
ekspans
restauranter
opførelse
ekspert
##festival
specifikke
stanley
initiat
bokse
##astrup
museums
mælke
##canal
herregard
skikkelse
reykj
undert
##ændelse
hente
salget
1787
oplever
kollektiv
opførtes
beskyttede
##mentet
stok
##iceret
##bec
##thers
skjul
birolle
inkluderede
trængte
kaukas
gabriel
agen
##umer
staff
##vering
thur
##svin
endt
heart
schwar
##shistorie
eftermid
reb
marian
laura
acceptere
##æsonen
must
vacc
##igter
udlejet
##usik
overn
tower
##roner
straling
bridge
##rick
foden
##meligt
kulturen
beslutter
fejlagt
pressen
copa
slovakiet
mississippi
guadalcanal
##ralen
hovedværk
næse
kai
danmarksmester
inspirerede
ulykke
wikip
monteneg
fy
gog
glen
pligt
ædel
##rerne
aren
this
implementer
underviser
bernard
sieg
veksel
pyram
kig
frances
retur
omdann
ventede
magasinet
fing
elim
##rone
ivrig
boys
knog
provst
museets
philadel
vast
##ree
133
##systemer
sjællandske
fortsættelse
dramatisk
jimmy
##itlen
flanke
kryb
synspunkt
sjællands
aspekter
##gens
##edy
head
mandskab
palle
herredømme
sorg
##ando
stige
opp
##delen
nationals
fungeret
restaurering
pilgrim
apote
peger
##aljen
##aborg
deling
føler
##ologier
fantast
risikoen
shakesp
gol
##misk
fordeling
##neth
yngle
scoret
beboerne
væske
weekend
forkert
dia
kontorer
socialistiske
ted
##kers
forøg
allen
marin
##havnen
verdensrang
austin
dokumentarisk
fynske
##byrd
##malerier
byzantinske
bm
bjor
##bræ
##bir
thi
reguler
1784
##mægtig
##kow
##kandidat
##xid
indvend
toy
sekret
##ømmerne
størrelsen
vanskelige
##idae
indbyggertallet
##bjørn
put
##edygt
medføre
misfor
fundament
smerte
immigr
arbejdsgiver
kf
##war
skit
byplan
1791
holstenske
kastet
socialdemokraterne
forarsaget
opfordring
minimum
understre
##ifest
salzburg
halle
220
psykologi
regnskab
tilstedeværelse
marshall
##ml
anark
##unden
søs
##sløse
scot
planlagde
afslog
elektrom
arealer
udgives
rækken
usædvanligt
hobro
lød
##isser
udskilt
##emark
##ppens
gensid
dorothea
##tens
##ensrad
##komite
coupe
flytter
##rar
##osen
dev
hang
blind
tob
virus
studeret
uafgjort
temperaturer
ara
##leje
##ternes
modangreb
novelle
lyon
gert
fysi
northern
janeiro
hub
mick
nan
uover
trykk
fodboldt
##ribende
margrete
jup
##reret
##meter
##itære
##ræder
undervand
##kryd
sadant
restaureret
##grave
##institutioner
fiktive
##miljø
div
vinger
##outh
##ødning
retfærd
velhavende
##korder
##itime
baseball
##bevægelse
egern
værktøj
##berts
1771
cykelløb
##imeret
tronføl
##alj
##reste
##ople
vejret
sporvogn
kod
##unsten
ordens
essa
tyskere
gustaf
stopper
øjeblikk
etablering
##cykl
pow
stiv
omtaler
anlagde
undervist
##yth
sev
schles
##staten
ændrer
##vention
protein
streng
tas
##wart
storhertug
regeringer
reddet
imponerende
artiklen
##konkurrencen
##uet
##pot
udbrød
planlægning
magi
forkortelse
temperaturen
fartøjer
##opgaver
bager
tin
enestaende
opstilling
##ografisk
market
forstander
now
##ingham
##attet
##korpset
##materi
##marskal
gel
samles
##base
factor
teoretisk
behovet
krateret
døgn
grosserer
##house
##xt
##valt
##ørste
skam
vidne
frederikssund
1775
dop
hæd
komiker
byt
##ysse
partis
moral
læses
kritiserede
odin
infanteriregiment
effekter
philadelphia
rantz
tiderne
manøv
besejre
behandles
sekundær
mountain
anse
##formation
opleve
tilføjede
nøje
spejder
get
##ench
skra
skrog
sydafrik
christina
gangen
rigets
grønt
konference
hyper
##faldende
opfattet
distribu
hviderus
elleve
##asten
republikanske
##bjergene
stadionet
opsamlings
flandern
oc
##stik
##ional
omegn
anholdt
søfart
vesterbro
skildrer
fjendtlige
værdifulde
aven
##pommern
##arnet
##skunst
udfører
indførelse
child
103
koch
borgerne
1774
undervisningen
pavirker
queens
skygge
hf
##post
alask
##asa
##result
##ministeriet
attent
hemmelighed
mtv
##hør
##17
sydligste
dags
andenplads
aktier
fængsels
dragon
railway
nurn
##run
##uerne
uddeles
opnas
##ders
brune
studio
stadigvæk
huller
bekæmpe
dialog
##raden
baret
##valter
1777
##projekt
beretning
##kilometer
triumf
lant
mitt
##aa
##jæger
##fyldte
##arde
##agning
valley
interessen
holdninger
novgor
usas
identisk
hyldest
konceptet
bitter
##luf
##jektiv
##herred
renault
folketingets
fusionerede
løsladt
undersøgt
1783
indtægt
hyg
##nok
udbygget
##user
valent
know
1781
begravelse
bekost
management
uregel
##agelse
enkel
nationalmuseet
1773
cathrine
stockholms
tænke
gø
kabel
ragn
skadet
sigende
##sset
svæ
scand
fyns
stærkeste
frost
raket
##mag
##mager
##15
enge
else
recept
##isternes
##skommun
##branchen
boulev
giovanni
pump
##onto
##iken
##nement
hitlers
##slinje
engagement
pia
romanske
tiende
stram
teknikker
##ikkerne
behandlingen
##møller
fantasy
360
cel
kasser
##uri
indspille
blik
selvføl
emigr
naturpark
invi
forstod
kolonien
rigsdag
##fabrikken
autoritet
kendeteg
utallige
wikipedia
cad
tænder
overfl
demografi
markeder
videregaende
ændres
1763
frivillig
tilpas
dieselmotor
cow
nie
swe
sigt
##apir
arbejdsløs
fotos
##halv
walis
bronzek
organist
klimaet
rantzau
##hmen
##si
ophøj
##ktive
fremrykning
byggeri
udbruddet
##hastighed
isabella
bestræb
beder
mam
regne
emnet
hovedpersonen
sug
##viet
##anterne
grena
luftvaben
folkets
panzer
playoff
musikvideo
##inere
##ilton
##istens
kontrollerede
niveauer
ubad
bornholms
ritu
##kendes
##ærede
##ssag
##right
udvalget
generel
forlang
revolutionen
##lejren
##organisationen
hend
males
##miske
##mien
oversk
##forslag
turb
##scent
kulstof
reducere
##blomst
istid
low
nils
##ulin
koln
psy
##ogt
constant
lyden
hohen
foretages
1760
forelsket
skilsm
##studier
landsting
kelly
kad
summer
##riller
##18
reelle
##oker
lune
poke
poster
overleve
bjerre
forbedrede
sportsgrene
750
kus
vrede
##cha
##spær
##ønt
korru
##boe
##synet
##opperne
illeg
storbritanniens
kontrollere
atmosfære
wy
##terende
langeland
immun
haag
speciale
cont
virksomhedens
phill
romerriget
##tekst
skriftlige
konstrueret
##hop
##ovs
anser
lauen
hverv
sandhed
signaler
koncentrations
##orienterede
stridigheder
søndre
forbruger
lap
leget
analog
slap
##ydningen
stiftelsen
gerhard
##kors
##penge
##spladsen
arving
forretninger
hændelser
forandring
honor
varmt
forelæsninger
##cke
elle
heri
chelse
shep
geologiske
##skript
administrationen
hogan
gehejmer
regner
østsiden
grove
akust
fjel
akademiske
##bibliotek
##junker
kvarteret
øjn
##inien
reaktioner
##klam
abner
planerne
##play
bestemmelser
ditlev
##osa
maribo
kompeten
mandag
kvadratkilometer
indflydelsesrige
##xi
storfyrst
dommen
etymologi
##bjer
##fæ
##skad
forord
##itus
##imp
førstepladsen
nylig
egnet
##kvensen
værdien
ibn
dygtighed
sammenslutning
hockey
##ensis
underjord
142
rødovre
kryds
persiske
anslaet
sultan
##kontrakt
##avl
chap
saudi
komponisten
klarede
dreje
symfoni
charlottenborg
øjnene
æra
##assa
seværd
adolph
optage
bernstorff
discipliner
uenighed
eck
komprom
augusta
enkle
evnen
kurd
appel
respek
rah
rick
##okes
historikeren
marker
uran
bowl
kræn
##division
resear
210
vincent
figuren
rigsradet
fødeby
given
##jar
##oret
oversiden
udgøres
strategiske
forklarede
werner
nevø
blomstringen
reykjavik
##edrift
ster
skyt
##stilstand
firmaer
##ely
##skur
anten
genrer
tilhør
four
vistnok
3000
afslørede
tortur
foundation
##uktiv
##lot
##fot
##onne
##sliste
##ansler
personale
graham
##sdatter
mobile
nurnberg
aser
##nær
##næs
##fader
##ffet
tykke
senator
farvel
valen
overdrog
symboler
nicolas
midlertidige
autonome
aleksand
kier
kriter
indgangen
kvæl
stedse
shu
niende
rapper
improv
kenneth
installeret
værnepligt
##sop
##orv
command
##bakken
montreal
accepteret
kyl
passe
landgang
husdyr
forenet
patent
##straf
munch
##aktive
toppede
italia
krydsede
oversættelser
diplomatiske
geneve
sod
sammenbrud
pengene
territorier
nationalparken
##sstyrelsen
hvorledes
sever
##ydere
##ichte
antikken
præsidentvalget
##ctic
herredo
lodtræk
variation
kjøbenhavn
##egade
##beret
malmo
games
artist
##kalde
forstærket
besøge
rekogn
informationer
##akker
##unge
spiser
konig
##ægterne
dagbog
1766
sarah
sælgende
rapporterede
overordnet
##grænsen
bede
kæde
##esc
erich
støj
indtage
søstre
moon
drømme
forgængeren
vang
##oir
##ænkte
stores
norman
klassificeret
frivilligt
efterfølgeren
sløjd
sygeplejer
##annes
leif
##borgmester
##undersø
generalsekretær
bestyrelsesformand
hist
mister
##hall
##wal
##skelse
gend
herlev
svan
magister
industrien
paulus
1769
forhindrede
helsingborg
udformning
guinea
##loden
##agte
udmund
##smu
schl
terra
eleon
##ificeres
##ellerne
bonus
matematiske
fossil
##kjær
pern
##hyg
##bac
##stav
devel
nedrevet
angar
reference
effektive
isoleret
ingeborg
ice
brint
eman
sejler
kulturel
240
##givere
grevinde
dynasti
zurich
storby
maling
##havne
rekorden
##ground
asf
pest
##stammer
stød
underord
chance
##klubber
##stræde
oversætter
anmelder
præcise
##dahl
##arius
bech
smit
keith
hørs
meningen
unter
operationen
edin
lettiske
eisen
##rænet
byr
230
colum
betragtede
strækninger
bæredygt
lac
##tagere
holmens
kvinden
forful
jordbrug
sætning
bidrager
asm
lise
vestsiden
forfæd
folkemusik
##skonkurren
kancelli
kernen
protestantiske
##oh
tildeles
udpræget
svin
farven
ordrer
riis
sød
##anken
##arriere
##iljø
beslag
styrtede
1778
##igennem
bosnien
firkant
dos
miller
##læ
skære
##forsøg
klæde
##ersøn
chann
handtere
angives
rækkevidde
##givningen
google
videnskabernes
cig
cart
##bot
stødte
disp
##allas
knock
##skibene
nederlaget
flyvning
girl
chelsea
##enskom
##onn
udbet
indisk
flaget
heim
almindelighed
1782
##rænding
kvindefod
1740
ladet
warner
udarbejdede
landskamp
##sfly
trump
bronzemedaljerne
aristotel
fortolkning
witt
##ibel
trykke
formelle
krydse
whit
besøgt
forbedring
hartkorn
ian
##ellerup
habsburg
jøde
lasse
##oniske
ombygning
opdeles
##icap
seksuelle
1785
##produkt
oplevet
rygter
performance
jay
##aber
##uga
##assistent
godser
kunstmuseum
co2
italiens
jonat
forsvinder
hills
aktieselskab
##mose
##ylde
samtgeme
ordin
foretrækker
tilhænger
kirurg
mariager
korrespond
cle
pam
##bue
hvede
##indhold
kompens
virksom
fastlagt
libert
imperi
israels
forventet
##fløjen
involverede
søvn
boeing
fæste
##uste
##anet
chop
begik
trilog
betragter
advent
##weig
##forenings
##busser
albanien
due
##kere
grus
teolog
rachel
omdrej
dannebrogordenen
overbevist
prøvet
beatles
renoveret
landstinget
bemærkelsesværdige
broderen
##skift
##værelsen
samtale
##perto
knude
##højskolen
fysiker
##frihed
afhængigt
suppler
digteren
##bibliote
utrol
##oa
##etik
##oria
##igning
ensem
efterlig
##uma
french
##ffic
statue
accel
ideal
vabenhv
lancerede
permanente
dødsfald
##bahn
forreste
##ego
##umann
plak
##strafik
##historiker
cykler
variationer
designer
grønlandsk
claud
forveksles
broadway
sz
##sje
##endømmet
##obi
grind
trænet
##issær
færgen
rigdom
illin
udtrykk
##kanalen
strukturer
behandler
dyrkning
porte
forblive
gordon
pfalz
lucas
litauiske
felter
integration
emer
knut
##anlægget
islamisk
indvandrere
##skarriere
##melsen
indsigt
##lington
iso
barok
tabet
brock
turnerede
kronet
fjende
1682
satellitkratere
herregarden
aktør
vamp
##ture
tiltra
hamilton
rosa
##iversitet
##staelse
nytar
hitliste
proteiner
##dalene
eksklus
##gest
klip
heide
1768
videoen
##pleks
opdagelsen
##produktionen
østeuropa
høg
masser
spyd
##berger
slippe
chau
##vært
##tring
##rebet
traged
##iza
eddie
1786
loft
skelne
ikon
sænket
##names
##ures
##bard
more
##staden
kristi
##rekord
gehejmerad
develop
##jub
aftaler
##isor
##artede
midte
kathar
svenska
præsenterede
romantiske
okkup
antaget
##iverne
svovl
##resser
missour
calc
finansieret
trænge
illinois
##uke
##sgard
opsigt
##riet
##inding
turn
vii
kniv
residens
edu
vorpommern
computerspil
libanon
betjenes
research
gis
gast
hipp
niss
##edele
støb
omløb
opbak
##ummet
begav
##apar
unikke
##ellow
flyder
falsk
religioner
nævne
gulvet
unescos
pansrede
hviderusland
stipend
##iak
forbød
ekstern
benævnes
##ygdom
##atoriske
kurser
materialet
massakr
shanghai
foss
kæden
uber
chang
helge
##pren
break
rotter
nasa
dramatiske
jordskælv
menneskerett
lost
##skirke
stur
##idan
##anget
herbert
leh
leks
tommy
sandsynlighed
nedenstaende
forstærkninger
seminarium
kardinal
novgorod
jin
##sor
middag
løven
libyen
relateret
henriette
linde
morgan
##mars
##inationer
udkanten
##uda
ork
andres
udenlands
##rond
personal
topscorer
udtrykte
matematiker
camping
galt
kri
##hat
##stine
##odel
inddeles
sørge
opdagelses
##sejr
kijev
partikler
jess
##sradet
chan
##tages
abc
##læggelse
tredjeplads
foretrak
murray
forestilling
ovennævnte
protokol
taiwan
magazine
opsamlingsalbum
auktion
bilm
##ali
landings
##smiddel
instruerede
skran
bayer
effekten
flygtning
nid
##kyl
##undskab
nedrykning
##samfund
vinderne
##uddannelsen
studentereksamen
http
kørsel
lister
afpr
følges
##stillings
trade
elektro
beslutningen
ungarsk
##mingham
vulk
kavaler
retssag
renovering
interessant
bok
bnp
viv
##uv
toil
grundspillet
hovedbygning
interval
##sha
lillebror
falske
bomuld
ambition
respektive
nakskov
##gam
##jud
udbud
købmænd
moore
universitetets
stilen
metropolitan
legetøj
dave
detro
##administ
blu
delstater
mann
##smat
købstæder
poesi
fotografier
hertugdømmerne
mikael
kaukasus
rhein
##røn
##bringer
følelse
gravhøj
1730
afspejler
asiatiske
sibirien
bange
hi
##oon
##arch
udmærket
titan
sank
missions
faglige
bisped
mobiltel
venezuel
nelson
savn
aflej
omhand
opstillede
##oca
tallets
comedy
andersens
##sministerium
##gaards
##gran
systematisk
køber
ferskvand
hald
kuld
toner
##saktiv
herluf
karol
##tron
bedt
nations
løsninger
brow
##ificerer
what
skulpturer
bachelor
xx
##era
##orp
##orum
##lege
##forest
them
benny
vidnes
forsøget
##støtte
##hattan
justitsrad
##fælde
havets
overst
##ffa
chok
fastholdt
placeres
defineres
undertrykk
dømte
##sturneringen
medreg
karel
holmen
arrangement
handboldlandshold
felix
erindringer
damesingle
haf
kum
soder
ustab
afric
##amet
hanne
smelte
gradvis
##italien
kontroller
trib
opførsel
terrorangreb
hjulpet
##grænse
stasjon
nice
##ei
spion
udvæl
maden
boldspil
birmingham
mælk
mexicanske
ig
tiger
ukl
##bay
##ederne
##visende
##tran
stadigt
højdepunkt
nazistiske
varierende
debutalbummet
pels
pistol
##mers
##rence
læst
eleg
anvendtes
##vilje
matthew
spurgte
emanuel
udad
ariz
##ffin
##uglen
##ucks
abel
emmy
synlige
nytt
vinden
forekommende
adelen
etnisk
boulevard
vab
##meret
famili
motorcyk
jules
impul
##kommune
##sprojekt
beretninger
tilbagetrækning
bagefter
ski
##uli
##ulykke
##irv
henven
godkendte
lovgivende
konsol
væsentligste
##gart
tillade
##emen
fremført
russell
mixed
omkostninger
cann
rung
##esla
springer
##deler
anc
anskaff
##otter
brothers
missionen
##ypen
skarpt
antagelig
robinson
balduin
tilbagevendende
tynde
eid
kyr
mp
steget
indlagt
##krete
##konf
ydermere
1658
originaltitel
jason
##rea
##rock
beau
elben
monopol
mød
pent
vs
storkreds
politim
vestkyst
krigsskibe
mathilde
sudan
kvalifikationsrunde
##rød
##esej
##udstillingen
brat
viln
emir
fastholde
1765
rapporter
sofie
baltiske
650
slagt
sammenstød
salv
planeten
arabien
##etti
specifikt
vidnesbyrd
##fac
andy
theres
vandret
tallin
flyene
allieret
tilskrives
revolutionære
globe
frigivet
glostrup
alaska
pokemon
hørsholm
liss
sunn
squar
##sger
##sorg
samledes
andrea
##ladte
rader
agnes
1767
ministre
schweizisk
homer
forfatningen
idrætsforening
indslag
indsamling
##bers
østrigs
maskine
bjarne
estiske
understøttelse
invaderede
forøget
##gørende
##bureau
enstemm
saks
add
næb
##reben
tabel
bidrage
walk
indvandring
romantisk
finnmark
udtales
name
##lar
##wor
fravær
oliv
duo
carlo
mændene
udkommer
teaters
tilføjelse
forplig
keramik
infanteridivision
##dinge
afbil
destru
anliggender
konkrete
herfor
dagblad
andenpladsen
styrken
syntet
kritiker
nettet
##sakadem
##dist
##weg
chem
hunnen
journalister
bispe
fb
##elskaber
erkl
betal
##konge
olde
##type
leverer
manga
##rejser
passede
passere
færdiggjort
regelmæssigt
garnison
vesteuropa
##ols
##ensch
geark
kulturarv
nytte
ryan
himmer
dialekter
kriminalitet
aster
pommern
væd
##ryg
##ee
klint
##iernes
orch
schle
vejledning
minnes
christiane
slots
hentede
syndrom
folkerepublikken
gate
##anner
bringer
søl
1720
nedlagte
naturreserv
fleks
bevaring
angelsaks
suppleret
wolfgang
laborator
ulem
##etid
##eden
##arerne
##ængere
farlige
##byggelse
husum
habede
##sklubben
selvfølgelig
edinburgh
nintend
overlod
maz
fremover
senat
højden
##brydende
##laden
kronborg
remix
econom
etaper
miljøm
breg
gill
##blem
##ementet
statist
clar
clark
true
mønstre
fremstiller
bak
enzy
sto
##itis
flot
herz
tryl
##sfabrik
ordning
fastland
synspunkter
lyser
krydset
opdagelse
ronald
mineral
dekoreret
##konkurrence
braunsch
ira
wu
##emal
##agerer
milan
venus
##arealer
dyrene
præstationer
##sværker
development
døre
##bla
##øster
##arrang
opad
##abon
##skild
landevejen
yngler
tørv
habitat
miljøet
reklamer
##fremt
##forsyning
fyldte
isa
lob
forlyst
salling
sluttet
husene
repræsentation
dominerede
kvartfinalen
detroit
baker
kasse
like
##oser
##sing
##inst
genopbygget
besøger
afløser
djurs
sedan
##spræsident
ækvator
##emann
faaborg
fredensborg
##virkning
landsholds
##harmon
maneden
himm
##billedet
tilbyde
diesel
usædvanlig
intelligens
kriminelle
##yle
blog
maner
landbo
chokol
triv
middelfart
apol
udpegede
flertallet
ukrainske
facebook
hawaii
jos
mma
pitt
##13
##erie
overflad
overenskom
##rets
bonn
forsin
krudt
##firmaet
##oscering
harvard
blo
byomrade
nærmede
forfl
egnen
bakken
arrangerede
brasilianske
finansminister
gesandt
ekspansion
##mæle
##lee
erkendelse
indtræ
indkaldt
solens
folkelige
forarsagede
bosættelser
opfyldt
opbakning
braunschweig
##nene
##iderede
skæv
##holz
samtiden
mare
producenter
drager
tempo
##ache
##iley
videnskabeligt
stationsbygning
channel
køres
lock
siv
##hær
##foged
slette
claude
dybere
nazi
dimension
gribe
speed
cylind
nm
##ctor
##elund
udstedt
##ienne
udenlandsk
conne
slagmarken
simpel
erobringen
##onymet
##nan
##usk
##alv
##følgen
magdalene
hærs
lisa
jagerfly
m2
nim
##agende
besad
##uderende
kvinders
kommunalvalget
##ollegiet
##nesøn
guderne
##stadion
specialiseret
tjenester
destroyere
##uger
##hjer
##slisten
teologisk
grun
##handlingen
træt
##stjenesten
pande
##relser
##inte
##advok
kanten
dyrke
ægtefæl
fyrster
rosenborg
statsborgerskab
mav
sut
##arin
##eloven
##alo
udøver
people
skyldig
disciplinen
mekanisk
valuta
indikerer
birgitte
##gyld
##uret
elskede
##lyn
nedad
styrer
datterselskab
rigsrad
dygtige
sardinien
væbnede
aristoteles
nin
##more
##ansvar
##eto
tils
plud
unger
borde
moham
kræve
blodet
organisk
molekyler
høres
sild
##avej
omhyg
hansens
safremt
##seligt
fastsat
selskabs
koncentreret
beslægtede
elefant
forberede
kay
six
tilværelse
##andel
stald
variere
##spekt
##aturer
passage
fødslen
missouri
cod
gur
miste
pt
##kræft
##piller
forelig
akut
doktor
tuber
jagger
sherman
herresingle
##kro
##pu
##pad
opbygge
small
rain
rask
rele
forestiller
timers
møbler
torden
##litz
##motorer
stang
##agers
##usse
##arkiv
noveller
strø
genoptog
hoteller
pastod
squ
##jas
##født
say
##ynam
holding
anto
##reres
buske
##bugten
parallel
mercedes
anbefalede
nordtyske
##perioden
##artikler
##vey
halvkugle
mesterhold
etiopien
preben
sony
##sst
##igende
landede
row
sønnesøn
katteg
newton
##hail
michigan
silver
##plante
##værdigt
bryggeri
prince
##smetal
ves
##æus
mans
brom
seni
amerikan
virt
place
foretrukne
assens
rodnettet
forestillingen
atmosfæren
aber
##bos
##debut
indtaget
flash
svækket
vision
##vejr
straffe
undersøgte
hybr
identificeret
1759
##proces
konstruktionen
boksning
stuart
medaljen
nationalsocial
arizona
atel
##ødende
cho
##ends
palace
##korset
betragtning
bundesliga
mejeri
lawrence
##befolkningen
nade
landomrader
proklam
lex
afgøre
##ffekt
biologisk
udkommet
dobbeltturnering
aristokrat
vegetation
udspringer
indrøm
##midler
##intet
skur
##rosser
##serklær
abu
##olley
##jente
epide
hævet
anvendelsen
ubade
organiske
grundloven
prædikestolen
mitchell
fig
koden
opmun
##eman
##ended
##elsess
nedgang
nova
##selige
magiske
afgift
rumme
grundlæggelsen
biblioteks
investeringer
unesco
##arkitekt
nes
##stider
##tern
alab
##slægt
statholder
##shæren
##pert
stewart
ligesa
ideologi
komponenter
ansattes
ejeren
semifinale
##hospital
##leb
udstation
##oka
nedsatte
brahe
synonym
ulf
##blod
forstæder
eugen
børnehave
lip
##zhou
afsted
##ches
##imo
verds
kalmar
sno
sump
galleri
a3
##kelse
##fet
##ivende
##otika
engine
grænserne
torvet
bekendte
koncerten
elektronik
instrumental
eksperimen
tyndt
##hoff
##komster
##konsul
desper
carbon
palid
rekre
længdekreds
mundt
begivenhederne
lauritzen
nordirland
nabokommuner
##yin
##kov
##pass
overtræ
helium
kvante
##kommer
kongem
brook
palads
porcel
fladens
lorent
sofia
forbrydelser
##viv
##estyr
konrad
lignede
##smotor
##ysning
##strat
leveres
skarpe
strengt
katedralskole
gm
pere
tch
skaret
indbygget
landing
##rettigheder
akse
lagtinget
1755
laurent
hindu
##kshire
hebraisk
cant
dob
keg
lassen
opdeling
sao
##yng
newze
nominer
philipp
argument
burgund
nyoprettede
fide
pink
versa
##ograph
miles
fodboldforbund
størrelser
##romerske
foruds
forudsætning
racen
limfjorden
##baserede
templet
friluft
cypern
vilnius
square
bapt
udsatte
##sperson
##attra
elec
psykisk
plantage
kursus
jonathan
gag
mold
##steret
nyligt
holl
farum
rente
1779
tilskuer
afvikles
registrerede
simonsen
regelmæssige
kromos
aja
uskyld
afs
siddet
politiets
sangeren
arhundredes
afgik
jeppe
presley
turneringens
vurderet
turneen
mathias
krigsfanger
hamp
sass
forkast
træf
short
næstbedste
kæmpet
tenn
rotation
hænderne
forlangte
cum
krak
vels
afdelingen
##iret
##icismen
hunger
##antiske
drabet
erhvervet
##marked
ebbe
insist
seværdigheder
##cus
##jser
oversatte
krypt
heldig
nordens
nordland
##afdelingen
heft
karakterer
makedonien
udlændinge
tum
##ws
##orte
##adi
alge
fiktion
##ægtige
stemt
ulrich
minutters
louisiana
dannedes
kings
wint
zulu
##folket
##delighed
elver
manifest
reperto
holst
fods
luftwa
ingeni
stortinget
casper
kunstakademiets
orientering
##sfrihed
3d
##loder
aflyst
overvin
##mek
syl
manhattan
##uston
følelses
##flod
##givelser
tropiske
bing
ou
pastand
##ema
##brig
dagmar
nukle
guard
inventar
balance
symmet
montg
mekanis
bombardem
jp
zag
##core
radios
edmund
##planen
forbedringer
møbel
##beskyttelses
##etto
##aro
##aderne
opholdet
produktiv
landsret
##ouver
suður
network
vindende
kyster
rettighederne
administrationsby
columbus
##allet
konkret
##jordes
gear
##ergi
faldende
bemærkede
depression
manuskripter
udkæmpet
kattegat
gartner
hagen
wi
malere
videreudvik
afslører
graven
beskrivelser
malta
ulykker
opfylde
##aq
##onna
sele
indehaver
evans
##weight
##spolitiske
bosættelse
foreløbig
##nordisk
bræt
##cyl
##drag
##frit
udsl
##ejendom
##fore
##icks
sati
fjernes
ulv
playstation
privilegier
gett
usd
##vas
##stift
##onia
##alu
##entes
##lemania
betjent
hovedbestyr
##shosp
##raling
accept
spaniens
passerede
bølger
1648
hydro
##ssamfund
gær
røver
zh
##aum
##falen
##atz
strik
alfa
brande
dale
##imi
##varme
##sbroen
##usserne
vikinge
##ænkede
##feltet
diplom
oldtiden
curt
##ykl
##ruter
indtra
##chts
kilden
nathan
berømmelse
kastrup
tilsluttede
vestindien
bøde
cement
dkk
hænge
morg
ture
æren
øgruppen
##hes
##mind
skyder
kvant
arti
trusler
##bredden
forega
eventuelle
strømmen
folketingsmedlem
omgivende
ritualer
einar
lært
##gow
##stop
hanse
vedblev
angaende
omfattet
legene
missiler
karls
udefra
hitlisten
beskadiget
vort
##iant
##kab
forson
##amenter
andelige
tyk
ernest
styring
markerer
jernalder
oversættes
separate
kontrast
tusindvis
indonesien
mærker
##pit
##fatt
##walt
##enen
##illo
seere
parterne
##ious
##gau
tvill
##skrigene
##øvet
akvar
leverand
stenalder
regionalt
1761
organisationens
##sprocessen
afvanding
comeback
##trup
dennis
seh
fotografi
behandle
skilte
eksperter
barbara
glets
##ui
##reform
##revolutionen
svig
halve
redskaber
ordfører
gaver
revy
bestemmer
menneskers
fødevare
fartøj
multip
stribe
handværkere
filmatiseret
spekul
legendariske
##judant
##cirk
ingr
delta
landstræner
##værdi
shad
borgerrepræsent
avant
absor
produktet
##kommuner
habet
##arium
##elej
##idsen
mario
##yntes
femin
operas
samarbejdede
kurfyr
hule
dobbelte
sammenlignes
##programmer
##shjem
øde
##bit
##øven
enheden
dansker
##gelige
##ioxid
antis
ordbog
opfinder
1758
##personer
memor
prinsen
dn
ræv
##hers
##atus
##abelt
meth
resolution
##styrken
speci
betegnede
slægtninge
nemmere
vibe
forekomme
wrestlemania
montgomer
fold
piz
##iform
##møn
##skydning
##smade
filmet
shin
livets
bogtr
cooper
lagting
ugift
tjekkisk
udfordringer
##vindere
lutherske
##regeringen
##distrikt
slovenien
##søerne
majest
færger
cong
dukke
netværket
udfald
fungerende
##bandet
reserv
armst
550
age
sib
##rade
indførtes
helene
urte
anlægge
##borough
oe
sunde
##leys
forsigt
frid
##ælden
dak
##søster
trænings
rome
generalforsamling
groß
læring
##lejre
instruktøren
straffesp
babylon
forsamlingshus
udløste
cape
mud
##zel
##fos
skind
opsø
samsø
overh
##førende
##radio
##sbro
eksistent
coron
misbrug
##sprøjt
ll
llo
##dder
##oneret
##rapp
##ssystemer
##obe
farvet
stedfor
schack
dræber
##fonden
høvding
spises
##stitueret
ajax
forvær
##ikation
harp
##optræden
##æner
##gesen
guit
monaco
auto
autom
udtrykker
kontroversielle
bolivia
lug
ples
ruder
væld
tilløb
sac
never
foder
eminem
moser
sendtes
oplyste
##bøll
##guvernør
diagnost
riks
ydede
##bass
##ilian
##skandidat
medført
anime
storebror
##iche
banden
basel
letlands
filosofisk
flyveplads
indspilninger
barken
eh
menigheden
elv
frod
##ævner
hovedban
børge
tropperne
fjernede
hedde
genoptaget
##ugten
teoretiske
laser
sparta
apollo
##mier
##orterede
krisen
udgøre
##main
##strene
velgør
allier
kræves
passet
pavirkede
varieret
##skrater
two
fænomener
##castle
fangenskab
##so
##ensee
##staben
syddansk
katalog
conc
acc
guldmedaljer
divisions
micha
1754
##ænkning
tungt
##kaptajn
alexandra
præmie
hukommelse
samtgemeinde
wing
##stæt
##ams
##retningen
billet
folkeskole
##højde
1746
tjekkiske
nøjes
1536
##motorvejen
renæssancen
rapporten
wildc
observeret
entrepren
bend
runder
##craft
##igo
finaler
##smidler
##husene
verdensk
snow
stiftelse
spores
##urneringer
protektor
1757
argentinske
##institution
pinyin
interessante
##økonomi
hassel
gibralt
hierark
stedfortræ
##kernes
sangere
undervisnings
faldskærm
trykte
##frankrig
dateres
afro
stejle
opererer
fremsat
##bryg
nep
link
basil
congo
steven
##farve
arrangeres
1749
demonstrationer
fremhæves
svømning
biskoppen
jupiter
watt
stutt
etik
##icum
trace
##centre
fortælles
huskes
1764
kaserne
flyvende
##fælles
miam
pand
##kunsten
sprang
anonym
syre
ther
levest
formodes
hjelm
kvindes
perf
sporvogne
##samlinger
tomme
rigeste
budap
overvagning
##kommando
løvf
bjergkæden
##14
##enborg
toer
saa
værft
maritime
træne
frederick
##træner
kontrolleret
radikal
repræsentanternes
tømrer
mum
nale
ranger
##day
##odz
##ograd
##menne
##boy
tredive
amtskreds
ballerup
tilskud
overgive
konkluderede
code
moss
stere
almene
østjylland
##kongen
toronto
produktioner
##ikkerhed
bevægede
soldaterne
semifinaler
skjulte
xi
zen
##jens
byudvikling
toft
##ocent
luis
grafik
nørgaard
atlas
##skontor
offentlighed
dedikeret
budapest
løvfældende
##cerne
##sager
sts
lign
makker
værelser
smart
metod
troen
diego
##ivisionen
rummede
260
1756
kasakh
ventil
feltet
bryggeriet
besidder
##tegnelser
undtagelser
bretagne
udtalelser
acceler
minnesota
cold
lof
page
wright
##ores
##inent
indsa
spøg
nulevende
fortræn
halen
hjemkomst
frederiksen
kulturelt
##givne
krops
nielsens
gottingen
retssagen
lomb
uund
##cle
##malet
kung
mail
##handelen
traf
opfandt
forsvarets
sove
weimar
politikens
oplevelse
annek
ambassa
##sproblemer
campus
forhandle
muskel
batalj
opkøbt
pokalturnering
nintendo
flight
venter
##plet
##fur
##ensioner
sektion
reduktion
slagter
noter
dronningens
symboliserer
faktum
faser
transfer
bifloder
raymond
##yon
##´s
##alistiske
##sek
indstillede
##øjte
##ysik
profet
##herine
velkendte
wei
definerer
soloalbum
sindss
erindring
heiberg
gim
iau
jama
##jysk
flok
##iev
##ølv
vandre
fiskere
murer
##hoe
bobby
forbliver
##kspedition
genudgivet
filmprod
hak
##uay
##teatret
##itler
##yttere
bestilt
hjemby
partil
truppen
ægteskaber
borgerskab
lodret
sundby
skærm
##voksende
beskeden
transportere
##almindel
##ez
##bell
##arater
##angs
harold
sydt
sylv
gengivet
ligak
##ængder
mure
##sættelsen
##ygdomme
billigere
##bajd
##evne
beretter
satellitter
terminal
aga
hut
tildelte
spænder
##ælvet
##kkere
##endent
svigt
dr1
konfir
konferencen
lastbil
varetager
mineraler
distribution
bibliografi
clev
myk
ualmindel
##ake
##dorff
##zan
##atl
hvælv
##dels
##øjen
##toft
frugter
gotisk
##instrumenter
##skommissionen
rulle
fk
his
##hild
##ilte
##temp
##iten
history
radede
kapellet
samfundets
##uddannelser
##baseret
algeriet
dyl
hatt
##lære
##jin
##ædagog
udfl
alg
##irs
##lemmer
##sminde
handicap
dødsmetal
flyets
report
##intre
velegnet
chefen
parlamentsvalget
rapporteret
foredrags
slovak
astero
bahn
okl
##rhein
##bler
##vitt
##ος
##stel
indstilling
overle
kansas
chilen
hunter
shi
legeme
270
points
myter
siddepladser
##græs
buenos
agt
gale
hash
snes
##rell
##gjorte
opnar
alk
sikrer
##skilte
skabes
teknikken
ministerium
ansvarlige
1747
registrering
gyldendal
udstedte
bronzekampen
bh
ghan
ypper
afvig
spore
trønd
##komne
lau
##icher
radhuset
ændredes
sour
middelalderens
westfalen
udøvende
second
gestapo
##bajdsj
bier
fm
hegn
##oun
##icisme
##arkivet
forbindes
marius
##valgte
##spunktet
##boliger
willem
trier
oplyst
koncentration
skildring
violinist
vægge
brylluppet
wayne
##rave
skænket
alv
##berlin
##uts
280
eksistere
troms
santi
##kredse
gaderne
kamera
rekognoscering
lloyd
ambassade
##stole
stak
##usi
##icerede
selvej
handball
storebælt
hvile
knob
newcastle
torino
klassifikation
foster
koge
elektromagnet
ix
jere
##prem
##ов
##order
##skning
forsiden
##uson
##estra
##ript
##immel
arbejdspladser
menneskes
foto
fordob
1728
##skrive
fladt
aires
##oya
##pige
##omerne
pasta
arstal
##ulært
ande
overblik
konstitution
grat
guang
palme
bolsje
council
anvendelser
damedo
straffes
søjler
##dl
##muren
##inis
afholde
herskede
##yton
##jening
indep
organer
hoch
medvirken
tarne
menneskene
##vante
professionelt
udgivne
1741
justin
høeg
symfonior
ledsaget
chokolade
##yret
farvande
kriger
sporten
##ricket
fangerne
afskediget
nassau
kvælstof
tart
##burn
##streg
stens
anstren
andels
##førde
haug
kontakter
sejlads
gulv
vægten
##fabrikker
adskill
beordret
mindesmærke
højderyg
cic
vanc
##skræ
beher
mellemkrigstiden
højtid
undgik
gaz
gaza
urt
##parte
##inente
begrænsninger
forberedelse
stabilitet
lokomotiv
##berettigede
pernille
##js
##adelse
##owa
##sniveau
rumfart
tidsrum
krydder
##minster
afbild
primærrute
miami
fia
##cro
##fus
arterne
efterskole
##udan
slanger
regime
stads
haus
henriksen
freel
1762
begrænse
paradis
fejlagtigt
kompromis
ear
##rs
##tiske
##san
dej
ansku
##øbing
sydlig
sval
krigsfor
sandheden
##æsning
forside
stabschef
##lekalen
benzinmotor
oldenburg
##fotograf
aserbajdsj
pile
toler
##tene
##stro
arrond
indbragte
##landene
##forretning
interc
sæder
##flokk
##sym
litterær
plantes
observation
massiv
hiphop
filippinerne
cæsar
luksus
kvindefodboldlandshold
stuttgart
cbs
##gods
##bede
##uldt
##chichte
##roe
##sparken
toul
challen
værelse
order
##ætningen
katte
henriks
teatre
udnyttede
intellektuelle
gand
sis
winter
##nell
##kegaard
##bn
##vir
##okaler
udvend
##staterne
banks
costa
mosa
##taj
##sno
missioner
adelsmand
wrestler
positioner
##strøms
alfons
curling
tænkning
verdensarvsliste
clemens
doping
lauenburg
herredouble
omdrejning
gw
iss
##hon
##polen
udbygning
##egov
klipper
mao
unions
holberg
roma
taks
vink
bestemmelse
teksterne
ridge
maryland
illustreret
mekaniske
paraguay
skribent
korruption
oklah
arrondisse
dæmp
##dingen
##andens
beeth
hunner
standarder
fejre
greven
##elev
overlevet
##huus
vegas
##stjenester
colombia
kulminerede
storhedstid
egernførde
armstrong
pomp
##bygges
##borgere
kirkelig
perry
duoen
grønts
kaos
julem
georges
brygge
døren
loren
##skolens
tunesien
bande
##jsen
##etta
##unen
klat
##ifs
solok
##vente
redskab
magter
letvægt
##uka
kaas
##baks
jagten
resulterer
østersø
vedligeholdelse
##waltung
lene
##væv
trykket
##stemt
##certer
monarki
skræm
velgørenhed
##rys
##mission
afsta
##emer
##heimer
ambul
cambod
##litteratur
wedell
doktorgrad
shepher
kierkegaard
nac
##aldet
##italer
##unds
##oba
##yndighed
begyndende
luftangreb
falk
officers
control
##rændte
videoer
oxid
susanne
massive
ahle
pirat
kiss
##anal
##ares
hare
##ftere
oversø
##smøde
##lyd
farlig
schon
karakteren
fortællingen
##elever
tingene
specialiserede
piloter
1710
messe
##lob
##gøres
udkant
spark
tok
kalif
linux
afgive
skovene
koste
tidspunktet
##ishi
ekspeditioner
farverne
stevns
malaysia
lith
##zonen
##kok
spont
##forme
proport
lead
take
bibe
##beth
eriksen
litteraturen
kosovo
censur
eftermiddagen
grenaa
electron
dino
sære
underground
genforeningen
story
##brugt
amaz
træder
troels
akers
billederne
korsør
sædvanlige
bistand
knockout
allieredes
oct
##igi
kridt
##anti
return
halsen
stiftamt
ulve
hjemmekampe
##yeo
koreanske
ubebo
publiceret
eksplod
television
anslas
komiteen
saxo
cylinder
krabbe
linden
uform
##atar
tilflugt
hanna
##steen
##udbrud
konvo
formanden
trækkes
shah
##efoner
fabrikant
tromsø
priori
zeit
alternativt
afhængige
sabot
gut
mk
rekorder
regnede
kald
ligevægt
psykiske
levevis
bruno
bæres
kommentarer
kommunalbestyrelsen
cif
dømme
mj
pit
qing
synder
##priser
##koncert
stadfæst
lego
revol
##obbelt
ubem
##orienteret
emilie
tænker
##skysten
batteri
livsstil
midterste
investering
ansøgning
nomineringer
asc
ivar
wul
tilmel
støder
udland
smede
førstnævnte
coast
##mane
sproglige
sjov
##sdirektør
fuldmægtig
muren
##problemer
udenrigspolitik
1721
riffel
dussel
homoseksuelle
nba
flint
##orten
##antes
marse
##prog
##stander
særskilt
##toner
struer
jensens
kassel
colorado
nordkorea
retfærdighed
dup
tov
##cz
##derup
genforen
helte
vandfald
##stillende
jordbund
##ulturen
juvent
highway
forberedte
floor
tuberkul
muld
nina
manip
##leton
grande
##alliber
##sfæng
husstande
##nenes
##øvere
rolf
##court
kravet
taktik
##fangst
##spo
nordlig
regulære
slutspil
forfald
trofæ
anerkende
fjendens
fangst
kontinuer
altertavlen
atelier
bard
ih
##yks
##olske
##spark
udvist
##ladser
glasgow
hartmann
afgrænset
valencia
trøndelag
bagt
##anz
genforening
##ucky
gennemføres
links
ligefrem
gaffa
only
ruiner
befolkningstæt
##loo
##skomite
##apeut
orkestret
spejl
markedsføring
docent
freja
tau
wis
##lær
afbry
##republik
##amling
kommentar
korset
gevin
boris
kortet
edgar
##ancy
##ilding
fylkes
##forskningen
depot
dækning
services
spørger
porcelæn
vancouver
pp
zam
##sform
##chester
##ieu
make
##ieren
##ændringer
salme
generaler
bagsiden
striden
hushold
lægen
afsluttende
##busk
haber
føderation
katedralen
nøgen
inspektør
lider
vha
derby
##øring
dete
finansk
angrib
banegard
juul
tarm
superliga
##portræt
caspar
ødelæggelse
##donald
forlovet
kogn
paske
##ikom
##ænde
reed
verwaltung
##boende
buff
koord
huske
mikhail
behandlede
interviews
fugtige
begrundelse
clement
dad
##ated
##abil
grundstoffer
laz
##handboldlandshold
udvikles
undersøgelsen
##tekster
5000
provinserne
koncentrerede
havneby
tilgængeligt
mozart
##funktion
dusseldorf
320
##gle
##enheder
##arene
##igner
##agi
##urdere
arc
##krist
bohr
geologi
tvinge
##likationer
skibsvær
sommerhus
organisere
seksuel
legenden
kejserens
grundlæggeren
gennemsnitlig
skelnes
##koping
patienten
gletsjer
oklahoma
diet
sle
xen
##yskland
##mah
##gne
arbe
##sman
##rediens
klubberne
planterne
guide
femten
guldvinder
arrangør
indledtes
affære
mccl
krogh
pacific
##sevne
undervandsb
mits
pind
yu
##eb
##stuen
underskud
søm
##slande
##smiljø
verd
##prins
præsiden
gron
schwer
lufthavne
singles
prior
æresmedlem
project
##betegnelse
bekostning
bleg
fitz
tac
vred
fram
inten
##chau
klov
købes
talsmand
##banens
smukt
luke
##espor
mild
magist
assessor
berett
reducerede
##forholdene
beredskab
nigeria
##analyse
cricket
pus
##nel
##helt
##vivl
føle
##ieres
fremstillingen
hender
##steds
cool
provisor
kenya
bjergt
kolleger
##klædning
indspilningen
trondhjem
##smuseum
tiltrak
opdagelsesrejsende
hd
ruth
##rice
vestkysten
##she
##snød
succesfuld
udtrykt
refle
forfatnings
##instrument
cheroke
snedker
tve
tilnær
##ienborg
revis
section
nedlagde
martha
kommunistisk
arkiver
clara
velstand
slægtens
opdateret
størrelses
flerarig
1735
bismar
##sveje
tusinder
##festivalen
forlængede
prominente
krystal
omegnen
electric
lissabon
##cylind
huden
nissen
##nyt
##tus
##hy
##atan
erling
##idian
dani
sekvens
fremsk
malene
grupperne
grafisk
flyttes
afgrøder
##sgeme
bjæl
flyvepladsen
optrædener
kollap
vellykket
santiago
jal
pragt
##hire
##ław
alc
##ovitj
lovet
generalstab
tredjepladsen
kirstine
biografen
oldtid
bælte
kna
##mons
##ving
##sbill
kataly
kilderne
opfattede
1751
##fabrikant
discip
abenbar
betydeligste
arkæolog
betjener
lettisk
propaganda
##sprøjtning
astrid
##anas
##inius
##teori
detail
##ærsk
udfør
polens
##medaljen
perfekt
##stream
produktions
julekalen
collins
fokusere
ubehag
alexandria
absolutte
gettys
ahlefeldt
giro
##hin
##born
fortaler
elm
siderne
tilbøj
langob
edition
##sforb
centralasien
foranstalt
price
guitaristen
assistens
alliancen
køretøj
armenien
overgreb
efterretningstjeneste
montenegro
dio
earth
tos
##bent
##ischer
##rivning
dr2
torsdag
mændenes
kirch
##aftale
support
dokumenteret
hydrogen
tredjest
apotek
forfædre
pud
plej
sier
trev
##møde
##juk
##ody
proced
heeres
##sommer
##tains
skovbrug
##sformer
1743
1752
persisk
ulovligt
sophus
##smuligheder
cleveland
burt
udarbejde
##ænker
liget
##iba
verdensom
slægtning
radioen
juris
moderat
##brødre
slaviske
vitt
##eton
##skerne
indoe
alsid
##ici
karp
##inschaft
##flyvning
turnerings
versionen
mistanke
ægformede
pokalen
##lændere
moses
cornelius
simpelthen
skilsmisse
##jab
##pul
##skul
##agens
##ændring
##oles
##ayer
augustus
konfer
##point
fagforening
statsover
fordelingen
beregning
munden
pædagogiske
hoveder
nominering
##arbejdning
bestræbelser
gettysburg
kæ
work
##alle
ink
slange
helena
østlig
##husets
##ringe
studium
synlig
##grundlag
erhvervsliv
struensee
1748
forbeholdt
akr
oftere
ward
##fad
##etagen
##orier
##veri
##menterne
##lett
##smaler
formind
raw
udnævnelse
nhl
suk
pay
ansø
altona
##byggere
satire
##vandring
australiens
forstar
petro
rasende
fokuserede
skjule
##filosof
eksperimental
clinton
luftwaffe
fjort
dah
landmand
seer
regulering
udvikledes
gary
carlsen
sørger
##uddannet
kammerjunker
stjernen
##udviklingen
udgangspunktet
dokumentation
dod
peg
##hts
streg
indvalgt
proto
holmes
julia
angst
##holms
leth
katolikker
##kulturen
gilbert
fester
##rand
forby
medvirke
reorganis
##klasser
svare
christmas
godkendelse
kunstig
løkke
motivet
product
duft
primitive
befolkningens
##modellen
##osterreich
stephan
gregorianske
##søkonomi
beklædte
efterspørgsel
arbejdsløshed
oak
singer
##sun
##udere
##slede
luk
krigere
##sfuld
akademiets
kaster
præstø
firmaets
indiana
glemt
favorit
straffespark
##søn
stress
blag
underkast
syriske
theol
##espillet
half
arbejderne
bekræ
forekomst
dæmningen
crom
nikk
tretten
##vol
##mekan
brønder
##indsat
nordamerikanske
##mesteren
riddere
##unnelen
estisk
digtning
multi
kølvandet
krønike
forsinket
brønderslev
##nitz
##oi
opføl
##ird
##ælle
grinde
kunsthand
##sfil
bredte
gravet
fejde
##balle
lemvig
##producent
express
anseelse
vabenhvile
foreligger
ingrid
foredragsholder
juventus
kne
view
##væl
##inental
##ries
##spec
##ølle
stednavnet
knyttede
perm
magtfulde
gymnast
creek
ic4
mystiske
montgomery
celt
nort
osa
##the
##iya
##vninger
##steins
##smar
basen
bakk
trio
intent
publikationer
rumænske
dæmning
bevirkede
##transport
tallinn
cc
##lu
fortrol
hannen
skænkede
elias
##ibal
fremsatte
udtrykke
richmond
latinsk
journalisten
vurderede
dimensioner
hjemmesiden
serbiske
secret
administreres
##horst
finansiering
sehested
røm
##zow
##gis
##warts
##idende
##abor
bearbej
hunnerne
##trede
shan
##rona
##efly
heks
livstid
profit
dyret
digtere
stilarter
brugeren
problemerne
klostre
preussisk
##safdeling
mongoliet
usikkerhed
katastrofe
ultimate
landevejscykling
gearkasse
jørn
##fib
##skader
##ruppen
##icip
værre
##bryder
neer
lukas
##shav
befaling
hood
deputeret
zoo
nedslagskrater
ignor
jelling
kreb
vingerne
yang
##svist
1650
gennemgaet
disput
prægede
##offerne
##sdorf
##ights
udfold
##stidende
fødevar
socialdemokratisk
##istrikt
præstegard
indspilning
maksimalt
avanceret
anatom
ligestilling
fyens
blek
vinge
##itude
##isi
kondens
##forløb
##icin
##bys
marsk
poet
løfter
doub
navar
kertem
kartof
gifter
tast
øgen
##igste
varighed
slim
klæ
rekt
domkirken
reddede
baser
riges
agter
kurve
##agni
indledning
1753
elektroner
befrielsen
grafiske
analyt
forurening
lum
##illig
skik
plut
##ægning
scar
taastrup
lejet
diskografi
##tegnet
quebec
lidet
forsvarsspiller
mountains
athlet
antisem
lup
pyn
afstande
##sendelse
##forand
##ælling
debatter
##handlingerne
stolt
nordeuropa
kælen
tredjestørste
##fem
##opper
modstrid
genab
##rettel
radgivning
##ografien
vindue
##forbud
1745
ørkenen
##bayern
selvejende
heter
mw
wur
##xon
##anser
##arest
smel
board
##stidens
##foreningens
##maling
warren
ovenstaende
tydelige
cruz
peders
alabama
ikast
øger
sprede
overføres
beholder
plateau
##oki
##irektor
bedøm
studierne
success
brigader
##kraften
linda
lidelser
girls
maskingeværer
bolsjevik
mæg
##esar
opel
saw
##ægere
fauna
aminos
berlins
porten
bios
relaterede
##materiale
logik
skandinavisk
casino
kalksten
forretningsmand
##tures
modersmal
underjordiske
jysk
##kval
##elivet
skipper
styrelsen
generalguvernør
afsluttes
beskæftig
1670
ensartet
cherokes
orienteret
##spændende
rugby
frimurer
gejstlige
henderson
##cens
##cock
##down
##god
##anmel
##stok
##ites
eftermæle
overt
ligue
plas
##smester
##ønnede
##alla
##oney
1731
spredning
spændinger
birker
teenage
winther
dip
iz
##finger
##wl
##estil
##design
##ultz
smst
borte
##rivende
provok
forsvarsminister
paludan
folkeskolen
undersøger
drew
1683
modellerne
bjørne
selvbiografi
udrustet
shakespe
dow
tilstande
hanner
skør
nordjyllands
svoger
vandm
##knude
satan
urin
rugen
opløsningen
subjekt
##cao
beskæftigelse
konventionen
oldtidens
veteran
saturn
eckers
ryst
##stæng
##inær
elven
##osion
herkomst
##ssystemet
##ucces
rettede
christoph
direktion
metaller
vikinger
1744
omgivelserne
pakist
særdeleshed
hudson
indvielsen
shakespeare
khal
##sin
indbe
indlæg
infektion
tobaks
klø
bygd
hviler
borge
##ældste
##kurs
##buch
melodier
maurice
download
aik
mage
##lang
##dra
seattle
reguleret
grundstof
hjel
sct
solist
afslutte
numrene
banebrydende
neutrale
##hjælper
ondskab
østtyskland
kill
mh
skanske
##ensyn
rey
maf
svane
mindet
artister
sporene
charter
biskopper
tegneserier
##frø
udsmykning
kentucky
##trafikken
hercegov
kerteminde
vant
##iej
##iga
antager
transk
##bev
henved
##ause
schal
fælled
ilden
relev
##betændelse
vindmølle
##prægede
humle
hævdet
dramatiker
striber
fugtig
tungere
udnyttelse
dallas
nansen
ping
td
whe
herpa
sean
##annelse
halm
##ledningen
office
kapp
elektrif
radioaktiv
groft
hertuginde
stavem
embeder
kontrover
diskussioner
menneskerettighed
jyd
##gul
##jene
##arisk
enig
samment
##ffes
herm
herom
chil
##tenberg
bagud
egentligt
moralsk
internt
funk
gravsten
krydsere
1742
restauranten
kvalifikationskamp
understøtter
sprint
##udgave
##isciplin
svigersøn
hond
##kre
##studerende
##arme
forræder
##rug
spot
karrosser
maren
roste
vestjylland
opretholdt
##snæs
ulfeldt
agger
omdisk
maskinen
udsendelse
dybbøl
##imerede
kraftigere
kommercielt
##egruppe
indtraf
##sgemeinschaft
cut
stade
stole
##rudt
flu
elfen
bris
revision
##sslægt
nedsl
beskyld
beskydning
befolket
ordningen
raj
##grunde
sikkerheds
programmerings
newzealand
kash
uop
##comp
##dad
##gie
##skør
stars
##stemperatur
genetiske
betinget
farfar
østkyst
egnede
##regning
grækerne
hurtigste
indianer
forberedt
isolerede
fænomenet
kundskab
stjalet
bopæl
forpligtet
cherokee
hack
oz
riv
##mmer
##fol
##agtet
medbragte
smat
lugt
katrine
uddanne
tabellen
operativ
konfisk
strukturreformen
biblioteker
usædvanlige
##kompon
justitsminister
ekstraordinær
buc
fyld
kot
##has
##stæderne
aft
indretning
##icitet
ligheder
masters
berk
##shær
motors
ull
stilles
udpeg
optages
kreativ
piper
marianne
overnatur
##dale
slas
højen
billig
londons
identiske
camilla
udfordring
normanniske
telt
##aal
##ceremon
##uy
##eberg
##moder
##sanger
##æler
sti
##idet
##rost
ligning
##broder
beskyldt
turk
lederne
trag
sejrede
liege
houston
kritikken
ekspon
##kredit
esper
højesterets
formidling
##opgave
runesten
committe
klem
##ordningen
førsteholdet
abnings
carter
socialist
fejrede
udvidelsen
undervise
##væggen
gymnasie
embeds
offensiven
##svæsenet
suverænitet
flyselskab
palæstinensiske
apoteker
sekretariat
dakota
hod
mira
##sarbejde
##skrav
##ikat
skræn
værter
trol
svømmer
marco
##ladsen
smykker
nept
schou
sæsonens
tommer
udsendelser
##angeliet
hændelse
illustrationer
betingelse
gehejme
hesten
lill
oder
pie
genetisk
##antisk
spillets
##afilm
abbed
triple
læren
varetage
botaniske
fantasi
billedkunstner
##herredømme
gibraltar
bov
iført
lunde
forene
enkl
seoul
præsent
styrelse
efterfølgere
hertz
mulighederne
australia
kemiker
utrecht
rangers
melodien
dominans
serbisk
hydra
segl
tilfældigt
mexicansk
sie
wang
##bia
udlagt
slid
chat
marcel
##afet
smaland
##model
negativt
gardejer
bekæmpelse
hedenske
helikoptere
juliane
rotterdam
eag
gid
kopp
quar
weser
##give
##jak
byomradet
klav
fortiden
##sfag
bagved
##regn
##farvet
diskuteret
##eley
beboelse
zeus
boldklubben
pensioneret
valdemars
##smetoder
eduard
rungsted
hess
##anstal
##skansler
##ivelse
joint
##geligt
kunstige
viii
debatten
paladset
nederst
facade
##rollen
forfattet
##strømmen
konkurrerede
hitlisterne
døgnet
guddommelige
argang
bløde
##format
knytter
##riften
lokaliteter
330
vurderes
judas
indsamle
##numre
suðuroy
tdr
##gelses
##gate
##enæ
tilrettel
atomer
herreder
##klædt
karn
##owski
benene
moralske
##iseringer
faldne
forventninger
fastslog
makedon
konstateret
##endedels
battle
randen
##anker
føroya
##indens
##ianerne
koral
##acht
gotiske
stabile
rudolph
pictures
movie
heeresgruppe
cf
gjer
ism
lon
##kam
indløb
spd
##prøve
democ
nepal
alting
##varet
husets
argentinsk
bølgel
lidelse
modstandsbevægelsen
##træn
pavist
spen
##byt
##talere
##obil
holme
mussol
returner
olier
feat
egn
bogens
ordrup
skabelsen
slagskibe
ultra
modstanden
betegnelser
##skommand
##sklasse
jødedom
##bølge
citroen
leonard
udsmykket
font
istan
puer
##gy
##omo
##enson
trang
##føringen
augustenborg
knyt
coll
germain
##buen
##skomp
ægypten
biografer
turistattra
marcherede
dylan
aa
auf
istand
##skrevet
##agaard
##ims
søerne
##banerne
retor
##oux
cook
##ize
##haw
volvo
##aceae
merlin
ankomsten
tjenesten
enhedslisten
arkæologi
rumænsk
demonstration
wallace
bunde
cord
hc
kah
pct
##flet
##erup
eftertiden
unik
##lyde
minedrift
##streme
##centrum
vabenskjold
facto
fløjet
rodrig
##ulerer
sundheds
ingrediens
scottish
bundesligaen
kombinerede
kollegiet
splittet
benedikt
istanbul
bækken
kadet
##seg
##riben
danny
##beren
reagerer
malinger
kampens
politist
guver
linj
##ilda
##sdyr
lejes
hyppige
milliard
##saftalen
voksested
##aljeret
##jægermester
venezuela
dong
tina
##lock
##æret
udlej
##prise
placeringen
verdenskrigs
bulow
1736
leningrad
##borger
bevise
molekyl
defensive
fortjenst
langvarig
massakren
hyld
kak
##lia
##alter
stikker
##øjede
brø
storsl
sømand
forbandt
##lygter
parap
stral
velkendt
##grunden
westminster
finansiere
rangeret
forhindrer
cykelhold
akkum
vitamin
kapelmester
musikvideoen
brønshøj
verdensrangliste
eleonora
equ
krem
sark
vurdere
##kod
##agterne
thriller
##ibus
prosa
##nemann
##holdelsen
shir
##ningsanlæg
arhundredeskiftet
##schaft
administreret
##ussion
festen
bygningens
##farten
tilføje
##centeret
atlantic
armenske
hirsch
##forsikring
empire
kontinentale
pseudonymet
hangarskibe
technology
committee
qa
rna
tud
##air
##pson
afviser
##aljon
##ørne
##inisteriet
retfærdig
schne
lavest
brugs
##anca
guldalder
arrangementet
artilleriet
flyvninger
kvadratmeter
botanisk
maksimale
opbevares
eskadre
klinisk
europamesterskabet
soundtracket
lombard
verwaltungsgemeinschaft
##vabnet
##foss
kløft
melde
betragte
fremlagde
forskningen
forfær
##herskende
##sministeriets
voldelige
scoringer
1737
embedseksamen
1699
helsingfors
polytekn
afrikansk
artusinde
##halvøen
sundet
yn
##oj
##ilo
##chten
bega
##rigets
skulder
giftige
gardene
forsik
fylder
entyd
gemt
vietnames
eastwood
mørkeg
partikel
fogh
introduktionen
mittel
shepherd
bau
fck
zah
##rent
##byl
unit
adresser
svine
statuen
fodboldhold
##styring
skuespillet
tjent
gardens
pearl
realiteten
brændende
religiøst
rhod
##grønland
lensmand
pædagogik
maximilian
navigation
english
keltiske
døm
##het
##medes
##aris
##race
kla
##ængen
landdistrik
herskere
olga
geologisk
meta
##ækning
markere
motto
rigsfor
sorter
hæve
##porten
trompet
bunker
honning
frataget
children
schwerin
##dj
##okrater
##egnede
spy
##ønnet
haand
##manuel
snit
partierne
##ottir
##vidst
endestillede
ophør
philos
anlæggelsen
frøene
##kammeret
##hjulstræk
atmosfær
mesterholdenes
udstationeret
romeo
source
stiftamtmand
marseille
eich
##nia
dean
studiere
rednings
sejlet
væsner
ørn
1709
udnyttet
anmeldelse
bronzealderen
winston
opbevaring
##spørgsmal
digitalt
anatol
djursland
ds
##væ
forlen
##sein
flader
tidl
thra
thumb
saab
##nett
round
landsdel
hekse
engle
seksuelt
##finalen
sydøstasien
1732
jerry
sogner
korrekte
ghetto
bremse
redigeret
forhøjet
konferensrad
aker
gult
rag
yoko
sting
arvet
eftert
##svaben
betty
##ocks
smelt
abbe
##følelse
##overy
##scher
##ighter
munster
skønne
##eslægt
afvikling
indtræn
##frie
southern
bergens
cdu
uklart
algebra
binder
eug
hunder
depart
hollænderne
statistisk
kunstfond
##sfir
italienerne
onsdag
sværere
vikingerne
drengene
arvinger
afhængighed
spændende
opfylder
ondt
forfølgelse
statskundskab
lægemiddel
##magasinet
##shospitalet
##pre
##lever
##ulator
talende
schi
##heid
taber
levn
kejserinde
mørkt
sortehavet
stavet
hindre
kabinet
ellip
sevilla
tchad
bik
dyst
nt
øges
##gymn
erit
##unes
efterladte
kry
laks
##læggelsen
##svarer
##barne
ltd
israelsk
symbolsk
lucky
granater
##skommission
bekymring
commonwe
orchestra
asb
jas
##baden
##edt
##uta
##seren
byder
regimentet
vandrer
middle
##sbrev
standpunkt
øvelser
phoen
mesterskaberne
trænede
labour
branche
fornød
pedro
involverer
uventet
englænder
enevæld
##aktor
##orr
##stykket
##støber
##skort
##alde
alteret
samtaler
##otam
orkan
##vises
trappe
troskab
ringvej
oprørerne
kristiansand
radiok
##spænding
rovdyr
gob
iber
##lex
underhold
##aca
marines
vert
##upt
heil
indeholdende
most
##schm
udbredelsen
adela
lastbiler
økos
##franken
utilfredshed
bolog
bip
feld
pick
urop
xii
##fjer
##igere
kontekst
slip
read
##mpe
udvides
##bruck
matrik
planeter
heidel
##ledninger
militærk
edder
kongehuset
roland
slotte
alternat
patriark
astronomi
osaka
fit
suez
##mak
##eled
##ræning
##genstande
##imon
##erioder
##rænsen
gevær
kunstværker
naturgas
##street
##matiske
nazisterne
færdigheder
dampskib
diamant
økologisk
indenrigsminister
tirsdag
classic
abe
brevet
iw
wonder
after
##rac
optegnelser
indlands
blinde
rex
maine
egon
kapac
velbevar
patric
kroen
refleks
forarsager
løsningen
rimelig
garnisons
##bringende
udbrede
voldtægt
svalbard
commonwealth
cort
mindel
mægtig
##ogter
##aba
##forst
##ættet
franca
toppe
opdragelse
##athon
atleter
forløbet
parallelle
naturvidenskabelige
lokomotiver
oversvømmelser
relevante
##ygen
##press
##øne
##anus
##ortere
##forvalt
##oshi
##akse
##princ
##bech
replik
titus
right
skolegang
##aceut
fylde
psykologisk
jernbanelin
fakta
erklæring
##svejen
mindesten
kreative
udrabt
brooklyn
bærende
jævne
denmark
meddelt
opus
algor
seneg
##metal
##rikt
neil
roms
tv3
styrtet
##boerne
perc
synth
opdater
philippe
1714
diamond
tankegang
inddraget
##hoveder
opgraderet
kompliceret
scandinav
vr
##onisk
afson
##sendte
slu
grundspil
normer
##ichi
knust
gluck
kvalificere
##højeste
loke
eksistensen
1680
territorial
bangkok
##slinjen
umulig
teenager
nutidige
repertoire
batt
hb
##edron
##iddende
udviser
omsorg
##ælk
plon
holte
ishavet
gry
fortjeneste
train
koldt
johnston
ruinerne
utah
##felter
reserveret
kunstakademi
skulpturen
##sbourg
tobias
aj
tjet
ventet
##kut
##pler
##pædagog
##orps
opland
##ræde
komtes
##svinkel
##ssels
hovedvej
##shal
##inth
##tainer
ontar
volumen
peuge
##roman
gentog
1719
beregninger
##bølle
##spolitikken
wake
konkurrerer
##bringes
rostock
ottendedels
patrulje
innovation
vem
aftalt
stifte
alborg
overføre
kond
næs
##hea
palagt
wee
enkeltstart
beboede
fløjte
udenrigsministeriet
arveprins
bundesstraße
udbytte
laboratorium
##udgaven
eksplosion
udveksling
soundtrack
lich
##eling
pais
##idad
##itisk
##osis
klædt
##øller
##rivelse
bevil
læsere
angrebene
##quist
paulo
greifs
realitet
faktiske
publ
##sjællands
inderste
oldenborg
hvideruss
hundredvis
verdensomspændende
dil
uænd
##minde
##fs
##less
##neys
blix
slyn
adal
hammel
##konfer
kaptaj
levned
grot
hævde
flodens
variabel
lenin
ostind
pastar
##figurer
ralph
filosoffer
kriterier
cock
lung
sart
wir
##tarn
##lau
afholder
detaljeret
skiller
alar
tiders
herald
hovedkvarteret
bertel
krigene
feud
oprindelsen
mormon
family
motort
billetter
børns
distance
corps
sværvægt
klostret
tilfældig
skinner
pigerne
mesop
ate
mond
sd
##temperatur
##vert
##oppe
##immer
##uba
adm
##etery
barry
##asso
beng
living
betegne
natrium
##hamn
befolkningstallet
4000
potentiale
kontroversiel
##stjerner
glet
kugler
lope
ural
##semin
opstanden
##optagelser
genetab
##holdige
fremherskende
##brune
olof
filmskuespiller
personligheder
sandet
standse
ulla
skuespillerinden
danneskiold
1734
filmatisering
essent
prestigefyldte
tronfølger
wes
##orerne
##ruten
overtager
modsta
kris
slæ
##rads
kalve
bedrifter
holdkonkurrencen
tilfaldt
legende
nøds
kongeligt
omdøb
##askiner
bronzealder
##voksede
bryan
##dannede
undslippe
skitser
productions
pom
zink
##jov
##stod
afrund
##nette
malte
tallige
tilfanget
bestemmes
##rækningen
oldnordisk
skept
pastorat
indgreb
reagerede
cemetery
himmerland
hybrid
mck
natt
oreg
vod
##iri
##mot
udløbet
##mera
##ppes
##inda
##holdere
clo
look
afholdtes
ejerskab
##sprinc
feltmarskal
##bands
##melighed
dommeren
sociologi
torpedoer
kfum
phoenix
ontario
jæt
our
plig
enz
informer
##berland
sigte
##æres
abnedes
schul
111
##løsning
diff
guldborg
##musikken
autent
succesrige
avls
1739
begivenheden
skelner
associeret
roning
indspilningerne
bemærkelsesværdig
floyd
musikkonservatoriet
kommentator
udnyttes
konfront
naturreservat
verdslige
akershus
elfenben
grib
mægtige
rc
##teri
##delserne
flow
##irkninger
ornam
vandd
##ydninger
radgivende
universitat
bevilling
##phis
##sfors
kroppens
swan
voice
overordentlig
kronprinsesse
potentielle
kollegium
sierra
850
bering
##pus
##alus
udstillings
bever
farvest
angels
nationen
løver
kongerne
suff
portrætteret
##lava
1672
globalt
moderate
##fiskeri
indianere
hogwarts
kongedømme
delegation
udleveret
arktiske
initiativet
tilhørsforhold
enstemmig
magistrat
dtu
estrup
kut
##pd
afstemningen
forordning
medtaget
overvær
underhuset
filer
roh
polem
opfatter
fredning
cathar
designede
arkæologisk
territoriet
ukrainsk
nerv
udgravet
iværksat
indsamlet
uroligheder
ubety
lyrik
arenaen
1½
lone
##stropper
udøve
##leren
##asj
anførte
##spids
delen
trov
repub
drast
lysere
semi
grundlæggelse
##hlensch
hofjægermester
hospitaler
crow
summen
##veksling
##klædte
magnetiske
aleksandr
hungersnød
eugene
uj
##skv
##alistisk
##amas
##ents
##artiller
##krone
##ssons
isbn
vejede
veninde
betydende
steel
gotland
1711
skelet
boksede
ulykk
varetages
forretningen
radiopr
jacksons
tunnelen
ceremoni
sopran
hellen
##sminder
mindske
sham
gruppespillet
##lighederne
##bour
##benet
lillebælt
tabe
pallad
bøhmen
systems
grevskab
spanierne
burma
puljer
1690
tilstødende
vektor
kartoff
renæssanc
##tarnet
stipendium
##flokkurin
peugeot
hage
sænke
tik
##skytter
##imil
there
polo
farvede
ekstreme
schrøder
sønnerne
tanz
##møllen
hædersbe
##uropæisk
folketælling
toyota
zach
##bie
##antrop
persons
samtidens
læsø
liby
##kvent
foretager
alders
##sselskaber
fremstød
hulk
stemmeret
##bevægelser
tiltrække
nadver
forvirring
astrup
e4
messer
rho
##edler
haret
##ægge
korpset
børsen
##ældning
moren
riger
opføres
terrænet
edge
superlig
wrestlere
stream
##trækning
ulovlig
ægtefælle
tuberkulose
algorit
crim
dik
hængt
##here
##bøg
##etrin
##skvar
##onerne
##eselskab
deep
omar
than
##ucer
##beskriv
##ector
domstolen
##bedet
##planer
priserne
definere
warri
ægypt
olesen
campbell
ansigtet
billedhuggeren
##smodel
lægemidler
wulff
wies
øjet
##zt
##pi
##runder
##sendelser
klient
stormen
##ssand
meldt
nyklass
marien
knopperne
glucks
##rerende
##wehr
opstille
assy
aktierne
silva
pressede
watson
ragnar
inviterede
floorball
birkerød
balder
pøl
##risen
##bant
##stille
##stoffet
##ily
##rain
arden
bei
signe
##ffield
kløver
betro
smash
kommunister
boyk
##ization
johansson
biologi
vælgere
1733
1738
absalon
civilisation
##hjemme
napoleons
##skommune
beskedne
bibelske
brænder
nedskrevet
##muligheder
confeder
blomstrede
afbildet
dinosa
buster
##løn
somme
##asiat
##overe
china
værftet
hellere
##kla
handværker
##trin
legitim
bladets
mcg
gennemsnitligt
transistor
##interesser
arvefølge
pyrenæ
arbejdsmarked
marketing
cv
sandt
usyn
##zj
##gry
##øjelser
klang
##nerup
##anto
##eligheder
svamp
boende
belysning
loftet
thorning
hemmeligt
1688
1701
robot
anklagede
bordet
udsmyk
doctor
harrison
brest
latter
tis
##bis
##aros
dekret
udlands
omverdenen
opslag
##smus
##ættelse
##visningen
salmer
hjemkomsten
##blo
stamhuset
ladning
abenbart
##spolitisk
frugten
sympati
referere
beklædt
flittig
animationsfilm
cykelløbet
ophøjet
sansk
ydelser
æt
##olt
pastande
skum
opbyggede
indfald
##gerning
##gennem
melch
karant
##bryde
læsning
##acher
naboer
udelukket
frugtbare
drejning
##muret
usikkert
dybeste
langvarige
fjerdedel
entreprenør
paraply
ehf
nalet
owen
touch
forbinde
milde
velkommen
1689
1676
dominik
jobbet
##butik
protesterede
mislykkede
##kirchen
genvandt
varemærke
database
knogler
##skonkurrence
herlufsholm
hercegovina
aver
aars
cia
pes
pram
##otek
##istrup
førtes
##iering
##astisk
kvæst
farvand
træerne
immateri
venet
husede
irish
transl
succesen
kronblade
hovedstadens
omdannes
fordrevet
psykologiske
kravene
forudgaende
menneskeheden
ibm
songw
fusioneret
isolation
modernisering
templer
progressive
grammatik
damedouble
heidelberg
cot
lotte
tib
##enn
##skind
##agem
pakke
variet
##sebær
indsætte
##abl
flotte
blande
prær
register
adjunkt
hollands
##handbold
holdkammer
##stridt
grace
jernalderen
brugtes
fuldført
bosiddende
##færdige
capital
persien
liechten
##lieb
søværnet
fossiler
uundga
era
ich
trem
vatik
##jut
##angeren
##forbrug
##sperioden
syvar
klog
lovforslag
glass
conserv
skuespillerne
##blok
vabenhuset
spilde
poker
mytologiske
teglværk
detaljerede
cyklus
crist
##nummeret
rekonstruktion
##beskyttelse
spencer
butter
diana
##bin
##odor
faxe
politibet
desc
halvering
bros
actor
erstattes
lejligheden
funktionen
udstrakt
eksemplar
depress
betydningsfuld
argumenterede
##ssagfører
##bjerget
bismarck
sanskrit
kha
rup
##enberg
sap
oliven
opererede
palm
arbejdernes
vabenhus
##march
jessen
pladekontrakt
kontinentet
mærkes
flaske
machine
majestæt
mug
oss
forlæg
##uro
værn
fremdeles
senge
franken
talenter
midnat
##sfar
antikkens
glam
snæver
terry
##gards
asger
tomas
østergaard
journalistik
frugtbarhed
panserdivision
1662
nominerede
germansk
spektrum
tilbagegang
plejehjem
avenue
radioprogram
ahl
pæn
##zoner
##bok
##pav
##idere
omstridt
optager
anløb
##krisen
##endorff
udviste
##sbach
##sfulde
screen
afgav
synag
teknologiske
nytorv
koh
reservo
civilingeniør
skeel
skærmen
jobs
indskrevet
rafael
tiltrækker
kartofler
povl
łodz
##iater
##srige
##ðar
##agh
##odeller
skæg
##entin
##change
overfald
thunder
##smej
løft
bedstefar
befolkede
natal
rammerne
koster
ferr
økologiske
overraskelse
bekendtskab
udbyder
matthias
440
funder
tna
u2
za
##asis
overtale
##forholdet
bristol
lech
østfronten
families
index
feminist
udviklings
##fektioner
sekundære
simpsons
jefferson
chopin
amerikaneren
oehlensch
mesopotam
liden
ufuld
##ags
overtagelse
##slav
nyheden
##tallet
svaret
1630
schultz
imam
evigt
konkurrere
##rejsen
dæmon
nørresund
catherine
homo
brasiliens
udenrigs
roth
forarsage
##butikker
segeberg
opfindelse
neergaard
adelaide
tjetjen
gids
nægter
sou
vintre
erst
##ambi
##oderne
##esteder
##open
genf
boul
halland
##sdygt
grundlæggerne
infanteriet
hændelsen
hoppe
gallien
fratradte
anatomi
neutralitet
fuglen
astr
messen
##sw
stern
##itas
##ities
overgivelse
##ordfører
bratis
chand
plastik
##følgende
afgange
porto
patron
gross
hustruen
kemikal
##væksten
##legne
tegnestue
etableredes
fornemme
kidna
døbefon
svævefly
bmw
katharina
connectic
greifswald
asa
dry
tell
ال
##hle
##kolle
##ingo
opkræ
beograd
kviks
radmand
##formal
fodboldspillere
løses
strom
indeks
graz
mistænkt
psykolog
reserver
ovenpa
rhin
##vognen
480
belejrede
makro
amalienborg
simpson
metallica
undertrykkelse
komtesse
tad
##gribende
##jse
##skøbing
##umme
##udstillinger
ishav
interiør
tallene
##banker
vestpa
træsnit
martyr
##shuse
nationalliber
visuelle
monica
happ
britann
edda
synges
afsløre
revolut
weber
sætninger
arrangerer
##skriftet
hullet
beregnes
##skampen
overvældende
dominerer
overbevisning
akkomp
lensgreve
mejer
fornær
indblanding
grøntsager
fost
send
##kasse
##pur
##skøn
stir
##ningens
indblik
anz
statistiske
about
vejene
mandskabet
coach
halvbror
##havere
virkninger
##hama
nødder
hunden
markedsf
##ransport
variable
koncentrere
##staternes
sciences
##dannelse
yorkshire
eksperimentalfilm
aktioner
##sum
spæd
beskat
##landsbanen
##itteratur
##tone
fredsaftale
guldberg
koncerts
##sjo
##sværdi
ambiti
1716
1715
koreansk
mainstream
sheffield
spurgt
anmodning
tuborg
tilpasning
melchior
bindes
nest
sri
##mærk
##edie
##skultur
##esis
alten
samvitt
underarter
##smøn
lees
sydfrankrig
gennemsk
gennemgang
##trer
##sbes
livsvar
##ældre
trot
ændringen
præsidentvalg
næstkommanderende
##poster
note
1707
krigsførelse
tilstedeværelsen
inflation
altertavle
isotoper
stedfortræder
philosoph
biel
faget
##sbane
##onerede
endem
eren
adressen
theater
##komme
disco
skulde
matrix
barber
##useum
##uku
##ifikationer
relief
##korpor
gotha
tempererede
kritikerne
380
voiv
jorder
napoleonskrigene
fernando
skroget
coronavi
##pop
##alismen
pale
##irig
input
##illid
sachs
filologi
marinen
personerne
##efont
feber
##krigene
katar
iranske
savoy
arrangere
opdyr
peber
budskab
hastigheden
stationsbyen
ecu
bronzemedaljer
##fjeld
uheldig
genvinde
aby
##24
tilmed
udsættes
##fterne
konstitueret
##slø
mellemste
1640
marion
vandtarn
##regler
ilde
##partis
reality
skylden
##faldt
1717
beregne
præsenterer
afgrænses
saxofon
begejstret
bt
boc
gæng
myg
##oed
##bow
udførelse
##ensburg
brog
helen
nordic
købet
malcol
augsburg
styrt
##ammeret
lilleasien
tapper
gaende
magtover
valgret
væksten
realisme
##strædet
musicalen
1722
flyvemask
magasiner
befæstede
heavyweight
tidevand
tilbagevenden
omringet
francesco
lodtrækningen
##fællesskab
bust
ringer
atomb
##idi
##ationens
##ossa
##ugget
##annon
nedlægge
træv
mindede
##ichef
cliff
acet
##elekt
facaden
champagne
fødder
forekomster
1725
færdsel
vaske
##vilkar
bibliotekar
ritual
skolev
hensigten
katastrof
conference
circle
certificeret
likvid
mangfoldighed
søværnets
schlesien
bordeaux
thrash
ml
##ilfælde
##omac
foresla
arveret
indskriften
##asi
##rose
mendel
nordrhein
##klen
ofrene
kalium
##afsnit
nedstammer
nuuk
ammon
shaw
gruppespil
##tids
engels
forlænge
folked
mech
gudinde
modstands
borgerlig
thompson
udebane
apoll
1685
libret
fighting
terrorangrebet
een
gunt
lilla
nyr
afvær
opbygningen
##asy
overhoved
##ffy
left
formede
joak
mallor
##issioner
ordentlig
sagar
billige
aktuelt
willy
totten
##atsu
staun
ungerne
ugentlige
ventes
##politiske
utilstrækk
indsamlede
nevada
##sprogrammer
chamber
sweet
aktører
##mindre
cul
lj
##celle
afløb
hank
skatten
##rius
blank
orlov
##ylder
maraton
abild
##ipe
livsl
videreført
##lutningen
hadsten
ekstraudstyr
##prof
logisk
individuelt
hertugdømme
transporteret
catalansk
##maskiner
memorial
tanzania
nørresundby
bella
nau
##kode
##etland
##elde
stande
indrettede
1620
##afen
julen
##sfac
knight
strasbourg
modstanderen
hormon
bombet
galic
ordener
1664
tænkte
kronprinsen
##kostninger
##skommissær
satellitkrateret
loyalitet
redigerede
tekstiler
parlamentariske
##sherred
ambitioner
fam
fægt
vifte
vaster
##marks
##pun
tiltale
medmindre
brik
forbrænding
isle
##ups
nex
mosen
enkedron
opdraget
tyrkerne
odd
manchur
dødsstraf
pædagogisk
##oshima
##maskine
komplicerede
emigrerede
familiemed
gede
##rater
##rykk
##tsh
##kanter
##elia
omsider
indtager
saar
søde
nyskab
farligt
smad
europavej
klubhold
garan
bevoks
snæv
##iji
grey
##lokk
airways
##versionen
boksere
muslimsk
fosfor
sammenhængen
analys
cecilie
bombardement
kasakhstan
neptun
gorm
hover
ming
pik
##ekn
##200
##departem
##itær
##abol
konson
andelen
føn
thule
handværks
gris
centreret
regionens
kroatiske
randy
jakobsen
1661
jenn
iværksatte
perroner
##iscons
vellykkede
aids
java
m³
raven
witten
##trop
##oterne
##minal
##galler
stier
medforfatter
##ejet
klager
reel
søens
##befal
##ladning
østpa
roberts
##aldi
abort
flyvest
slutrunde
##attør
reden
##offens
portland
##anceret
kaw
aaron
##ignan
forstærke
foranledning
ejendoms
##hvaler
##skontrol
hongkong
friland
somalia
esb
##oes
##vier
##stans
varierede
antil
flet
##icere
klan
##imore
##klor
opryk
knuth
guild
afgøres
suite
canadas
temperament
skolerne
diplomatisk
offensive
batterier
##medlemmer
insekt
fregatten
gummi
præfekturet
vampyr
puerto
bologna
yemen
##hunde
##huller
##mansk
##sturne
##iland
devil
##itri
##itteret
pret
nyder
viby
solop
glade
lines
graden
ordnet
produceren
timen
badens
avisens
opløste
##rateret
standarden
hurtigst
vurderer
stege
gottlieb
mirak
bemærkelsesværdigt
komediefilm
messing
tetra
hughes
kram
lidenskab
wiscons
ytring
##yan
forfølge
##forføl
##erialer
fødtes
hjemmest
bøge
kroatisk
fuldkommen
rocky
posthum
udsender
potomac
##projekter
1718
1657
trængt
forklares
betjente
mccart
befæstning
symfoniorkester
430
ist
oks
tint
##vre
##oms
afsatte
opsl
##kton
seedet
begin
abnes
##ystal
##skilder
nationalforsamlingen
relie
voldem
myte
svendsen
rangerede
tiltrukket
søby
advarsel
regimenter
enzymer
eckersberg
kontroverser
lopez
460
draft
##vagt
##skæg
stau
indsættes
efterspil
##ordet
frøs
joy
disses
trap
##kommissionen
mcmah
##sprojekter
overvejelser
oxygen
1634
effektivitet
irakiske
udmærkelse
tibetanske
pokalturneringen
stængler
covid
fragmenter
sparekasse
nashville
##administr
mafia
malcolm
bæk
##jere
##fæste
##stier
skydning
hunt
##acy
##oleky
retsp
##ekte
forfatterne
sokkel
ejder
stationens
stationcar
enkeltturnering
genopført
forsvundne
civilis
rytme
monumenter
assistenttræner
archite
muhammad
menneskerettigheder
givne
caribien
##gyldigt
uændret
nou
##dømmet
##vie
##lerød
##say
chancen
grum
leic
nebel
kunstmaler
caen
nærhed
biod
hjælpem
##farver
georgien
overlevelse
beboelses
##iformer
##rurgi
##kirker
moment
forpligtelser
overenskomst
kegle
versailles
##sposten
connecticut
aden
lion
vuelt
zion
##aul
##cr
##tjen
##miner
##fc
##arbæk
##skrit
departe
##unionen
byomrader
leeds
berry
fredelig
stationeret
##musiker
figurerne
skriftsprog
1723
flygtet
memphis
mystisk
søjle
cameron
michaels
freelance
tottenham
dykker
dumb
afbud
indlede
##hedens
daug
parcel
bestanden
verdenen
frederiksværk
##hængende
##gives
impression
lynge
folketingsvalg
stemmeberettigede
litauisk
kombinerer
undertaker
toulouse
joakim
340
aw
hiv
lover
##lom
##bid
##veg
some
udslag
ingem
##imension
##ytten
flygter
kontre
##ministeren
placeringer
##quet
##ignal
trip
kulde
lancer
##onyme
sjældnere
plantet
veterinær
diktatur
hædret
bole
hig
hers
tah
##kød
##sle
deport
##issa
fras
##estre
efterkommer
meninger
konspir
brikker
thorn
senmiddel
paras
metz
naturfred
perth
kaiser
patog
lærred
udvidelser
##kortet
forudsætninger
demokraterne
odde
1713
kontakten
##guitar
ronnie
venskabs
rønt
publicerede
torpedo
leksikon
fjorten
ægtet
##gil
##arag
##ario
##atch
##urser
##fordeling
##otik
thott
thai
trolle
koranen
##sfest
monster
troende
forsøm
sandsten
steppe
kvaliteten
1708
##teknik
teleskop
glimrende
propagand
savnede
hessel
pist
##ydelser
##høv
##itfeldt
indad
efterkrigstiden
##ational
hvorunder
herskende
betaler
joan
amne
##shast
banet
moritz
friske
diagram
folkelig
davies
truman
lejede
fejret
frustr
energien
larry
bayerske
butler
frankiske
kjellerup
kalkmalerier
##forbindelsen
##kæmper
##sparti
##amerikansk
snorre
##sprodukter
uofficielle
immigranter
essay
isaac
lithium
voc
##ækkede
##aru
##rama
##verdens
hvirv
daw
thork
helvede
brut
##banest
lukning
##sfun
##syge
temaet
kroning
primera
lancaster
straffelov
tilpasse
empi
tiltagende
birgit
wisconsin
copp
jah
m3
vug
voy
##df
##fall
##eleje
erhver
##seks
herr
marstrand
rode
nægtet
radgivere
lovende
lovgivningen
undlod
imperiet
cola
simpl
forstaet
lodrette
opleves
behøvede
vægtklassen
lejlighedsvis
testet
himal
rangliste
##graden
taktiske
pabegyndtes
gemme
audition
uafhængighedskrig
gyldenlø
redaktionen
schwarz
##djurs
oregon
jong
mæ
pix
æl
##krav
##gaden
##bott
##rester
slang
nysted
numer
staterne
dessau
optisk
videnskaben
president
behag
retningslinjer
##familier
##sstyrke
propriet
hitlister
blomstrende
iversen
##afrikanske
eksperimenterende
langsommere
counties
##serklæring
rektang
db
gos
iowa
nancy
##lach
##gelserne
##jør
##oras
##sturnering
##reuth
##ikre
mast
seven
styrkerne
morder
cote
afgjorde
skovgaard
brugerne
sokrat
virket
exec
alderdom
##skompleks
landkre
##forskere
montana
dkp
ssr
##othy
##front
iværksætter
atlanterhav
hyret
##svenskan
zagreb
want
##hos
##king
stund
pack
dettes
alen
kann
chief
søofficer
samtykke
cons
225
motorerne
sætningen
volga
handboldklub
grundlægge
1729
##smændene
territori
##kapital
monumentet
eskadr
komplette
kongedømmet
forøge
kantonen
defensiv
420
uægte
##ukker
##bore
##atum
unic
karsten
sæbe
ledelses
##leddet
billund
building
##sforsøg
usand
herredet
expl
exchange
kvindehandboldlandshold
##øretøjer
walker
potsd
udnytter
verdensmesterskab
smiths
##løshed
maksimal
formidle
underordnede
##ocaust
mave
occ
vagn
##made
##ikos
efterforskning
##olds
frelser
klaks
plaget
trives
nordmænd
chrys
halsh
##samfundet
panama
arkitektoniske
##malm
informations
positionen
myten
frigør
moderniseret
vasa
##teknologi
geschichte
brandes
egyptisk
tendenser
nordtyskland
bratislava
samvittighed
busserne
lytter
nbc
ror
##kh
denis
harbor
##opd
formuleret
holocaust
##standing
carr
##domstol
millimeter
##tolem
cannes
fyrre
materielle
horison
jury
peace
færdiggjorde
1727
##sejere
370
##graderet
atomvaben
tolkning
##bomber
anbefaling
periodiske
sekundærrute
songwriter
dh
gan
pitch
rykker
##kasser
ligeg
##handlere
kornet
##sfælles
##snavn
afgifter
##mesterskabet
folkene
drist
steffen
##ancell
tyrol
centeret
forbundne
##aften
pagasten
mislykket
pumpe
genskabe
jog
lus
##melses
forsat
ensid
##uner
udflugt
##senhed
slik
##uca
malrettet
garder
direktionen
nationalisme
forenk
lederskab
religionen
gerninger
##ussia
industrier
##blokke
odysse
anmeldere
##faste
polymer
understøtte
ritmester
dybtgaende
spørge
locke
sygeplejerske
forfulgt
grindsted
cond
hørende
siam
vl
##æiske
##iders
indsprøjtning
dane
overnat
tyskernes
bedstem
markus
strauss
canal
passion
festivaler
mistænkte
ødelagte
##unnel
værksteder
arabere
køns
opfordret
hope
espana
nerve
piano
fremkomsten
korsfæst
bjorn
toilet
ket
vige
##hede
##elementer
##alf
##isters
##eretten
##gend
##retter
##apolis
##kly
##førslen
tilbliv
historiens
styrket
##phone
manglen
industriel
oprørere
destinationer
susan
suspen
##oxid
mongolske
omdiskuteret
earl
pos
tove
uffe
ydelse
##vester
##fle
aland
inval
##meister
##ppers
##imerne
sømil
nordjyske
forskerne
vigtigere
foranled
krediteret
discovery
beskyttelses
##officerer
platon
vega
lysegrøn
skiftevis
forvaltnings
udøvere
oppositionen
haute
flair
dortmund
guitarer
jennifer
##bh
ombygningen
##rough
##ksburg
andor
modul
##koncerter
salon
radius
hærgede
legion
truffet
horror
##cenes
peer
højtstaende
1712
##aftalen
##hua
##størrelse
definitioner
markedsført
yndet
gensidig
sydafrikanske
ensemble
rhodes
##smejeri
ferg
kio
kys
mt
##los
inds
##ument
bringes
##nete
brutal
##yndig
fodg
##shver
##izer
snig
letter
duet
russere
ruin
darligere
tvært
songs
citat
grundtvigs
opkøbte
vietnamkrigen
bourbon
kusine
dne
dion
nott
##kassen
etiske
alper
##indende
##ught
højd
kara
karup
marskal
marathon
bestilte
##ografier
titulær
falsters
brabant
truslen
revyen
revideret
##demar
##værksted
modstandsmand
balle
tørt
skudar
##ariatet
kosm
lamp
volk
##pak
afc
##ruppe
alber
brid
##svik
trøje
tvilling
bagside
metaf
##seller
##ledere
madonna
290
arkitekterne
ægteparret
fordyb
kineserne
finansiel
adgangen
uhyre
ernærede
missionær
tidligst
adskille
eastern
secur
norrønt
bjergkæde
thorvaldsen
##liche
voivod
uklar
##nt
##batten
##arum
afbrød
afhandlingen
enlige
##republikken
##okal
gennemgribende
bestaet
landsfor
visdom
antage
slægtskab
næstældste
konkurrenter
kongeriger
forsynings
1675
erfarne
ecole
##alogi
kompagniet
monarkiet
uheldige
konkurrent
##brydelser
kameraet
stjæle
##kærlighed
##kolon
prototype
initiativer
asfalt
motorcykel
bispebjerg
fiasko
execut
lg
##hart
##store
##aleriet
##landskab
overladt
konser
finalerne
alment
takke
transa
politikeren
olympic
subtrop
hardcore
lunds
overvejede
1645
muliggjorde
repræsentantskabet
dekoration
arsagerne
jespersen
hentyder
##rustning
intelligent
nicholas
flittigt
bæger
pete
robb
vv
##indspil
adler
spillene
1550
##hei
##aha
bevist
sidespor
restrikt
##strej
##inesen
murphy
vanløse
priest
miljøer
racing
baltimore
drukn
jugoslaviske
fusionen
kælderen
seedede
aggressiv
##strateg
athletic
libretto
alig
dw
gau
ptolem
when
yuan
##ydes
##hval
##mine
##mængde
##sregering
##fu
##west
samsøe
beaut
print
ligne
rousse
sprogbrug
netto
energy
statslig
##ørnerne
psyko
blodige
beboer
instruktører
væggen
mogensen
ærkebisk
rensdyr
catalonien
vadehavet
##kirkens
##sproduktion
enormt
forøgede
##forestillinger
jpg
##idianen
enzym
jeri
oec
##kør
##tex
##avia
##bergen
##illingen
fremførte
laus
christie
films
case
##manland
letbane
madag
opstigende
passiv
komponere
huitfeldt
airbus
##positioner
udmunder
indianerne
hylde
gonz
illegale
het
myld
massen
wide
##gent
##inck
støbt
flager
elsk
beta
selvstyr
##garter
gavle
##pladen
europæere
opdage
referer
1702
1671
santos
munding
kundskaber
brystet
inderst
blomstrer
influen
yndling
pittsburg
hydraul
voldemort
bant
hort
wander
##avand
##rian
integ
overlæge
##iska
##leman
tidspunkter
tobak
mack
trine
dagene
novo
##styrkerne
betydet
standsede
benyttedes
##askine
1679
anklage
overbevise
fabric
kontreadmiral
bock
kis
nis
nur
vie
##kørende
##batter
##stien
udslet
ana
søsat
melan
mellemvægt
mellemklasse
##radgiver
langu
østasien
smalt
##andez
fodboldrække
jordstæng
friskole
skibsfart
perle
##træer
samfundsvidenskab
statsborgere
annul
diskutere
##bladene
børnebog
amtsrad
##isches
##ampenborg
mozambi
belønnet
hængende
nacional
kaka
##cla
##uj
##lus
##orkester
medejer
##anga
##ktivet
##asc
##lander
havbunden
plet
maya
##ansas
##sfjord
sæby
borussia
stadt
##ktivt
marken
##izz
videreudvikling
dyreliv
anerkender
fokuseret
##sprisen
giuse
tarnby
humanistiske
jordskælvet
aragonien
##biblioteket
omhandlede
indrømmede
beethoven
madagask
mærsk
vakt
ydet
##ules
##sling
##anje
##esh
##egne
efterkrig
klor
##eltoft
talib
scher
benægt
diagon
synligt
madlav
##flyvninger
##itzer
doom
savage
tørke
zepp
opdagelser
##udviklet
nøgne
##jiang
skikkelser
yorks
landsholdsspiller
wildcard
jamaica
mallorca
canter
even
gover
##sr
##gud
##æser
##eleder
bleven
opsendt
##gebir
overherredømme
##uddelingen
bloch
##sposter
##ieri
##sses
uniform
grundig
marsel
bengt
antibi
berliner
birger
lennon
1704
transform
##operationer
gottfried
skolem
omkostningerne
lofoten
jurisdik
døbefonten
røntgen
cun
fbi
hæk
oskar
sok
v6
##magten
##lejer
afly
hvaler
##igtet
seerne
holck
##bryn
##aldo
vestfronten
børsno
haiti
palmer
madison
stationerne
##synede
opdræt
petter
ophængt
sammensatte
##styper
utvivl
fodboldklubben
trommeslageren
jiang
chauff
jol
vække
##iol
##eli
##onium
forrest
##egarde
##ride
havre
plinius
##ssæsonen
regeret
marl
videns
glatte
objektiv
phys
##kvad
##olitiske
køle
kollektive
umiddelbar
muliggør
leonardo
konventionelle
komplekset
bioke
udtalelse
cameroun
tønde
psych
vuelta
##jørn
##water
##skræn
erkendte
udø
##urerne
menigheder
##oku
højland
parma
##naz
poir
minus
jordoverfladen
##ædere
worm
##ivenheder
afskaret
arkitektskole
granat
##virksomheden
barthol
hannibal
sheik
radhuspladsen
greatest
fenger
ulovlige
indstille
belønning
gogur
newzealandske
##hæver
##ping
##elet
##isha
omkv
indledes
##abne
##chin
statuer
matchen
korets
##raven
romsdal
##skription
omfart
dua
regionerne
tilhørt
##kommission
vilhelmine
croix
spørgsmalstegn
supplement
varetægt
edwards
præmies
##yntese
ligakampe
høegh
giuseppe
hæl
ks
raben
##stierne
##olsk
##itage
skom
opsætning
efterretninger
overbygning
konjunkt
reagere
sahara
trig
karin
##anny
poetiske
sangens
strande
brabrand
fredsfor
placerer
støttes
hinandens
volt
##sporede
kaspar
iblandt
viceadmiral
hjalmar
stabilt
sprængt
piloten
bevæbnet
sergej
hegel
attentat
lehmann
trylle
tue
vande
øg
##mass
bren
pletter
fineste
mandlig
vokaler
forsyne
1703
lindholm
foreslar
omfanget
mikroskop
formodede
##rykningen
##uhrer
industrialisering
konfirm
mussolini
sue
##skrevne
tilbygning
##esland
##berry
overvægt
##icz
##dets
##ucker
##bygard
##prøver
historia
rover
##redning
generations
##sband
trofast
veld
##service
urter
sønderjyllands
latinamerika
digtsamlingen
##flader
1697
tilbydes
##aktivitet
coburg
bukarest
amazon
blekinge
gletsj
kind
mental
zapp
##hren
brydning
klampenborg
##svogne
##anta
##ietz
trearskrigen
abstrakt
abstrakte
kommunikere
##rones
arkansas
franskmænd
##aza
lysets
videnskabsmand
eventuel
læreanstalt
body
##producer
fortidsminder
bønner
meddelelser
luneburg
antoine
ine
nibe
opfører
indiens
spist
##emens
##otion
##svind
svinger
iscenes
personel
mile
kilo
##iesen
køer
butikken
sammenligne
nøjagtig
mainz
kapitler
buddhistiske
meddelelse
begejstring
agenter
phillips
mobiltelefon
insisterede
##sforbindel
eber
glee
later
##mødet
##jær
##papir
##amoto
reyn
##astas
ley
##iane
marina
##regnes
græsning
storting
legender
penn
venstrefløj
richter
1724
udsol
bekendtgjorde
nyheds
##økonomiske
forkerte
graviditet
arbejdsmarkedet
adrian
kjøbenhavns
##strafikken
department
dumbled
##shverv
zeppelin
jær
rico
zimb
##fing
##etræ
afkom
##ndal
tilveje
tilintet
anlagdes
chen
betales
højhastighed
svagere
kaliber
kampagner
nakke
obama
omdanne
##kampene
1684
1726
socialdemokrater
bemærkes
slottets
fremtidig
forklaringer
ærkehertug
vagner
musikvideoer
farmaceut
mitsub
dou
volley
##lass
##ardt
sigtet
tykt
##metider
angive
naruto
garcia
banner
##scene
bilens
##givelsen
torp
##høje
fiskeriet
bevægelses
##mouth
jamie
forbuddet
gallery
udformningen
loyal
##norsk
pludseligt
410
aak
ahm
fellow
tosc
##cs
##gio
##job
##inf
##verk
fraktion
chev
søfolk
##ianere
adlet
##kendelsen
grundigt
handlende
parentes
boh
##efilm
bore
hey
verdensudstillingen
magde
diabet
freds
fredelige
urne
##partier
310
darm
fejres
realskole
filosofien
apparat
##versioner
1705
kærligheden
1659
respons
##kapit
individuel
##wells
kollision
forbrydelse
partnerskab
folkeafstemningen
byggedes
henrettelse
challenge
mørkegrøn
pligter
liechtenstein
bath
##hale
##green
##sendelsen
blanc
##ienn
handlen
handtering
##yndelse
sagnet
bemandet
udskudt
møllers
##grader
programmering
tilsluttet
##stamme
mrs
kunderne
flugten
everton
geometri
differential
akustisk
calcium
##røde
stett
sommetider
##odend
##rio
##øjelse
##indkomst
saft
##smæg
maritim
##behør
##trene
##sbut
bevog
fulden
rammen
udtryks
style
horse
##ourcer
skotlands
sangerinden
utro
1665
aspekt
væggene
indvielse
sengotisk
pyramide
groningen
eftertragt
wah
indl
##chmann
##oply
##fta
##menighed
nyde
##klaret
polyg
træffe
lukker
##sfrem
partnere
naturens
lovligt
nationalistiske
##ivisioner
sagfører
landsholdskarriere
##roller
lærebog
matematikken
lucius
forstaelsen
moderens
atomkraft
##skæring
gemmer
hyldet
##eserien
##konstruktion
##plantning
fregatter
henvender
ingeniører
programmeringssprog
berkeley
drastisk
kviksølv
mcmahon
bie
brav
fish
##rary
##ydet
inders
##ovst
kryp
##netværk
##iani
adjudant
langsomme
beskyldte
##ymouth
imper
diskrim
lenn
assistance
ødelæggende
##ssekretær
betingelserne
rubin
regelmæssig
igangsat
byggemat
obligatorisk
byttet
walisiske
aserbajdsjan
marselis
core
tie
encykl
skille
inkar
søgen
betjene
formation
##ianus
vandrette
##afjorden
østkysten
statsmand
abbas
skalaen
##arbejdede
##state
femd
generalstaben
fyrsted
klassetrin
venstreorienterede
forhindret
rytmisk
##hjulet
definitionen
orienterede
udmærkelser
undslap
##lokomot
##brigade
afvandingsomrade
abbey
klaksvik
jagere
kick
vask
zw
##tig
##flag
##oment
##smann
vestligste
salen
færdes
##ygter
bakket
eddik
ukrudt
nøjagtige
knapt
bassisten
rullet
ørestad
hangarskib
øjeblikkelig
hytte
xbox
##aine
##akken
##nære
##gæng
##perne
##edren
skue
##sernes
landsp
mai
##apel
##holdenhed
udgar
police
##søy
langdist
vestland
retningen
titlerne
magisk
##kvem
serierne
##kapel
tilpass
vasal
##uaq
købstaden
forstaden
udvandrede
fundamentet
##advokat
krakow
satellitkraterets
præmiesum
cere
gat
ld
rist
uøn
##aud
##cin
##fyldt
##stipend
##elot
##isont
##ulen
efterlader
bebygget
della
unikt
hjemmel
frihavn
andersson
patenter
michelle
colin
##olitisk
##budt
sølvmedaljer
forstærker
pep
grupperinger
overleveret
litra
hardy
signatur
signalet
albertslund
abdul
aux
feri
slem
##hing
##seret
henvendte
østligste
grin
##show
christians
husholdning
borgerd
realistisk
føden
mols
hastigt
atletico
spidse
spændings
ligaens
etableres
fastslaet
generobre
genforenet
mcclellan
gund
##dor
##værnet
hovedind
vald
talen
image
socialisme
tættest
##laug
##rændt
besætte
touren
solgtes
parrets
emily
##safdelingen
bulgarske
symptomerne
reichs
tillidshverv
tsun
munkesten
gyser
orlogs
fantastiske
hampshire
vibeke
adskillelse
sabotage
quarter
bendt
cult
katt
osten
ure
ume
wedel
##skont
##ivne
##deløb
androg
##kkens
##imellem
##agtighed
##sbog
planlægger
instrumentet
evig
bukser
folkekirken
##orno
danmarksserien
udfol
tante
murene
jørgens
befriet
tandlæge
gæsterne
hasle
bekymret
skrædder
dimitterede
krybende
eksploderede
gidsel
utvivlsomt
nsd
##rykket
##yers
##iest
##jur
##anu
##olar
stark
stævne
skærer
andelig
filial
gennemførtes
##afa
1580
amund
vestfold
##medaljerne
kirkerne
egede
evige
edith
dyrt
full
indledningen
definerede
symbolet
##søgning
kontorchef
##journal
molekyle
justitsministeriet
udforske
kommissær
kompensation
overtrædelse
gunther
pall
##hower
##ialer
##sbanen
##jæl
tilkende
##odier
udtaler
infin
##øjter
klæder
verme
##søgt
bordt
friheden
##tysk
area
gerard
##markedet
nørreg
energisk
stormagt
racisme
##virksomheder
##tegnelse
tropisk
vildtvoksende
svækkede
cigaret
##aparte
overnaturlige
yokohama
dd
gyn
ia
roden
##dinger
##aminer
##avle
##abad
##umi
undersat
undergang
##genre
days
##neset
##slære
##yndigheden
tree
ambro
##erings
kunstigt
børnenes
##atorier
kapellan
operere
folketings
##sforbund
videnskabsmænd
adelsmænd
titelkamp
beskrivelsen
1677
papiret
championships
bogstavet
betjening
ebeltoft
##agasin
serveres
ringenes
evakueret
forfulgte
trilogien
cn
cis
sale
##ea
##gæld
##onte
##rew
##sapp
modificerede
##artz
syden
klage
parade
kommuna
luftforsvar
præsidentkandidat
##otti
lykkelig
delstatens
knuds
konservatoriet
strædet
konsekvent
##skolerne
fremhævet
svaghed
datering
stænglerne
elefanter
udskiftning
pyrene
dfb
##brænder
angelsaksiske
##irektoratet
ottendedelsfin
mitsubishi
dl
##hot
##ан
##strækning
##omme
##teren
medium
udspiller
##angere
landomrade
fodbolddommer
##heit
forbindelses
vinyl
##raktaten
##chez
kolonial
fabriks
goth
fløjten
resultere
missionærer
bosætte
udgravning
oblasten
mentor
##æmmet
konklusion
farmak
##stituerede
overflød
##saktiviteter
hovedbestyrelse
operasanger
gletsjere
bub
dug
hopp
mb
##bere
##inglet
##uls
samisk
efterlade
##umper
synet
##svogn
formatet
##ænderne
hek
ego
termen
parkens
##cheng
fisken
sorgen
tours
sognekommuner
lærebøger
miguel
windsor
dyreste
essen
opfattelsen
udbyt
potentielt
raketter
##indtægter
befæstet
ansas
dieselmotorer
uregelmæssige
vulkansk
detektiv
celtic
borgerdyd
gælde
koder
##nom
##yang
##70
##etiden
##agent
overl
overla
sektioner
##antal
##smagten
højskolen
vestsjælland
shop
bohus
nationens
forfattede
care
hovedstadsomradet
kolonisering
holdeplads
sandsynligheden
aston
guldet
##uddannede
neutron
malebord
slaveri
investorer
broadcast
##scentre
magtovertagelse
pyrenees
bian
dith
gif
##hil
pakker
varmere
##otland
tidsplan
##erif
formaet
formidler
gennemførelse
borch
togt
guat
stry
naturstyrelsen
##atory
kejsere
idealer
##quin
munter
exper
voldgrav
børnefilm
remise
provinsens
mundingen
promover
##video
##smetode
fremgangsmade
palæet
tjekkoslovak
##straktaten
opfindelsen
suzuki
powell
oversøiske
##lokkurin
sokrates
darmstadt
ekk
tamil
##rild
##zin
##æget
erl
skis
skald
##opt
understreg
syde
##tagen
handskrifter
henviste
kompat
kirkeby
domstole
vince
##øvelse
stiftstidende
konferencer
oberbayern
pavirkninger
##gøring
1681
player
frisiske
fanø
metropol
fremhævede
##kritiker
apostlen
cabri
walisisk
hovedbanegard
gæl
zoner
##nød
##yo
##pes
##wel
##ænken
nybyggere
##ocke
##elsæt
smil
neum
imag
planlægge
##trækkende
grasten
læs
undtaget
##vika
gammeldags
adelsslægt
begrænsning
wallen
forgængere
outstanding
hobby
fremkommer
grebet
parlamentarisk
reflekter
katalysat
hædersbevisninger
magdeburg
hampton
pog
pek
østen
##not
##æks
##ethe
forme
pasc
somre
inskript
##gear
##svil
tilbragt
korrid
shim
stryge
##regne
educ
optiske
##sporten
##ritslev
##ikkelse
##wain
lærdom
bindende
ydmy
opmærksomheden
library
etapen
droppet
bevæbnede
anbefales
udmundingen
knudepunkt
posthumt
dagt
lytte
##kina
##bø
afkald
udlig
##ejern
##ovsk
##umpe
##astiske
roterende
abor
mattet
rommel
befal
erhvervslivet
whisk
højtliggende
uganda
infanterib
kontinental
limited
jævnt
kanonerne
1534
osmannerne
nobelpris
ovale
oversvømmet
redegørelse
##kobling
ubetinget
bivirkninger
øjeblikkeligt
paisjarv
myldret
canterbury
kand
md
##ombe
vedt
krø
genken
plo
interaktion
##iose
lay
##staur
gudrun
##vidende
##bugt
lokaliseret
##sværket
1706
ibsen
1693
plantagen
fatal
andelsmejeri
hovedpersoner
##studiet
botanik
dynamo
jordebog
samarbejdspart
salvador
satiriske
nationalliberale
ales
dals
gin
ubeg
##syk
##stig
afvisning
forhistorisk
##ikel
##iset
##ruck
##adisk
indie
##road
koncess
landmænd
##tagerne
##ianer
franch
shen
godfred
angav
minog
luftbarne
magic
falken
##regist
stenalderen
administrator
aktuel
statsskole
aviv
##strømning
kontinenter
observatoriet
##vinding
elskerinde
advarede
##komiteen
severin
leverandør
spekulationer
statsoverhoved
democrat
karantæne
mccartney
ulighed
winn
##nation
##yu
##oid
udsende
plate
##apet
##ætninger
##asts
marinem
norfolk
besvar
schu
##sfeld
trail
boghandler
husmand
evalu
gray
nationalitet
sanders
primtal
agri
rollespil
forestaende
1678
fuglearter
oriental
hornbæk
branchen
udmunding
usandsyn
astra
pf
p1
rip
##cene
##pis
##fanger
##skran
##rages
alias
inkorpor
##ytterne
hamburger
kommunisterne
pose
venlig
235
##ignaler
volta
skrøb
genoptage
anno
ankommet
laurids
kuppet
pavens
ballon
##ullah
thailandske
dimitteret
thuringen
lyserøde
lorentz
bataljoner
ghana
wanderers
istiden
jena
sg
vu
##cifik
##mit
##ßen
##atom
##teater
deri
##itivt
underskrive
daily
sydfyn
amor
##allian
##sættende
visual
fodboldliga
ekspand
engelsksprogede
inkludere
hævdes
lynch
frankerne
regnskov
upop
taktisk
kommunikations
breddekreds
engagerede
sicil
æresdo
udtrykkes
mesopotamien
hym
zap
##divisionen
##mør
##jed
##æster
##arit
##ating
tilegnet
stafet
##idd
##idas
deg
##ærde
##liget
beers
##endere
tristan
kvote
amy
smitte
monroe
trossamfund
dommerne
nationalsang
kappe
sanne
kongehus
relative
telemark
silic
direktøren
hjerter
seksten
skriftet
rangering
naval
ugers
riff
dalby
sophia
capit
hopper
##skolelærer
baronesse
midterforsvar
drikkevand
plyndrede
døbefont
fantastisk
valentin
utrolig
bendix
skibsværft
navarra
bild
##ril
##kæde
##uni
##bern
overgivet
nordover
regere
formlen
grundvand
vera
laug
persontog
bagsværd
##atti
uddød
accent
##achen
aktivist
kronisk
telef
spillem
hjerner
forudsætter
itze
nazity
fjernt
##sejling
landskabs
ophævelse
aktiviteterne
henningsen
patton
travl
telegram
pietro
apsis
fodboldtræner
pumpkins
kuldioxid
udfoldede
relevant
##konferensrad
ecuador
manchuriet
pittsburgh
##odendron
##boder
##jes
##stene
##forvalter
bey
beb
klagede
herren
three
##tagne
forband
parodi
oliem
##stemme
miniat
antip
svenstrup
rigsvej
sikring
læss
synkron
skiftes
astur
##problem
folketingskandidat
##inski
reformation
spændingen
kendsger
forstærkning
tavs
fastsla
tilfredsstillende
loyale
waterloo
charlottenlund
værktøjer
sænkede
doktorgraden
afviger
observerede
erklære
ypperste
potsdam
zimbab
ea
ft
jed
kids
luth
##dar
##oq
##bisk
medina
derigennem
deter
ethan
##ulv
indskrift
##rækken
spit
danzig
##icia
##icistisk
regning
##smusik
fremkaldte
##strups
1250
##asserne
planlægningen
livlig
terapi
mein
rense
##farvede
eleven
noah
##sgren
hastigheder
##trykte
vesttyske
stjal
væsener
ordinære
intense
##skulpt
tværtimod
cole
ører
##relig
##ydelse
##moner
##atsen
stage
##lering
vedtagelsen
pryd
søges
finnerne
##smouth
adv
marstal
vall
bedrift
##shof
vennen
##likation
linjerne
forfatterens
rumstation
truer
irlands
sete
fuldførte
sikkerheden
semin
republikkens
olympique
tværsnit
faders
benzon
atlantis
kvartfinaler
sletten
##srettigheder
##elsespro
løgum
udtør
dramafilm
##placering
nissan
##works
plessen
foranstaltninger
##schmidt
kætter
##rane
##hoven
##meg
##glas
aflagde
##oland
##enser
opklar
indser
reformen
maiden
norditalien
##borgs
121
geolog
ledt
velstaende
portsmouth
steff
fulham
aksem
øvede
radioaktive
gull
kaptajnløjtnant
forventning
alberto
bosættere
varetog
ovre
flamme
##misbrug
hypotese
filosoff
##ametre
smashing
nsdap
ioc
laf
rivaler
##aire
efterspur
eli
kanter
##imus
plov
thing
markt
##bron
##yndige
bestseller
schum
##issens
universiteterne
gudstjeneste
klassikere
søndergaard
foregaet
vindmøller
##matisk
opdrag
fordelte
damask
mørket
##fartøjer
utc
1687
arkæologer
astronaut
plantearter
nøjagtigt
output
forberedelser
pinse
slaverne
tredjedele
bulgarsk
botaniker
tolkes
ironisk
geometriske
progressiv
tennist
sindssyge
gevinst
returnerede
ræd
sos
tær
vine
##aktorer
##kos
##ennis
optakt
##kroner
chester
fremstillinger
vandring
nærmer
kirket
basalt
teknologisk
wehr
roligt
titelrollen
tenor
udsendelsen
##ausen
æggene
roses
village
1627
muskler
travle
igangsatte
læseren
frekvenser
rogers
afstod
skælskør
guvernement
##befalende
wave
wagn
##reren
##randen
##bør
##bærende
##jat
##skog
omlagt
andes
inuit
værnem
##acker
room
salam
domineres
military
takkede
nature
forestod
premieren
sygehuset
lægevidenskab
1695
kraj
skildringer
præsentere
1523
kombinere
vedligeholde
woz
kalenderen
plyndring
sydstaterne
##indsats
katarina
druknede
cyt
jav
niger
oste
uvist
##jk
##jendom
##anfald
pablo
udk
skikke
trit
trent
nordatl
orland
fortol
chron
##inderne
heath
magle
##virkende
fired
food
institutionen
gentaget
livealbum
strukturen
gramm
##skuddet
##ladesh
##yeong
membran
fisher
dynamisk
thorvaldsens
fædrelandets
opfindelser
rogaland
isted
nsb
vick
##cing
##hau
##skatten
##resp
205
indgaende
##meridianen
herrem
seine
fremhæver
augustin
health
hussein
domme
verdensrekord
sagaen
karakteriseres
##pausen
flades
araberne
kyoto
brigaden
kuwa
bangladesh
ødelæggelser
spiral
kristendommens
meningsmal
tilbagetog
torpedob
##sindede
stængel
nedkæmpe
francisk
html
korrespondent
partileder
gehejmekonferensrad
beverly
troværd
executive
poirot
jut
jammer
sb
ød
##inerede
##elisten
##skik
##ismund
elli
##ugning
værdig
##revis
##jevo
nedbrudt
østafrika
century
straler
kompakt
halvvejs
##tons
##ukterne
edwin
valgdel
politikken
panik
faglig
hævede
vorarl
køler
ubesej
illust
nerves
baroniet
mørkere
##sudvalget
villaer
transmission
rumfærgen
fysiologi
attentatet
kurdiske
brisbane
percussion
ingemann
goguryeo
smet
vb
wiens
##cas
##ech
##onde
vartegn
skøjte
anonyme
##sakt
overlegne
block
gengivelse
klitter
map
højer
berøring
##sætnings
antist
perp
comune
halvandet
kristoffer
folkete
populærk
rentek
valgkreds
##ijk
befolkningstal
ext
kolonister
myster
forsvinde
##ception
dragør
indvandrer
tiltænkt
besætningsmedlemmer
jenny
droppede
demokrater
udlært
##undersøgelse
kongemagten
arrondissement
savoyen
bd
gond
hik
yellow
##rø
##norge
##orke
##tech
efternavnet
komfort
##udøver
ligaer
##sso
fremdrift
##klost
##elignende
bestilling
villig
politif
neust
retsvidenskab
shell
geoff
##grupperne
brah
gaius
arsskiftet
programmerne
##ipperne
bestyrer
bonaparte
annie
##forskel
forkortelsen
##skonf
venture
springe
afrikas
woods
modtagere
udrens
hyrde
einstein
https
installation
lungebetændelse
tvillinge
immateriel
gængse
proprietær
bres
cellen
five
mht
pisk
pyt
##dat
tilbehør
stive
arte
##geb
komiske
##adeus
genbrug
bygder
capp
hearts
debattør
støtten
organisering
step
biom
##sforløb
tørring
forklaret
1654
oceanien
jamt
watch
statskup
vestindiske
hebraiske
nedbrydning
##undersøgelser
##marschen
kunsthandværk
##preussen
eritrea
motortrafik
madagaskar
keller
xyl
##uis
##gan
enri
##sea
##første
track
##venner
uddrag
lillesøster
soccer
##region
kapsler
teknologier
##central
rødby
quint
tilknyttede
pavirkes
rosenberg
rothe
citron
repræsentantskab
præmier
udløst
ledsagede
mindesmærker
industrialiseringen
##blomstring
##sforsikring
glucksborg
ahmad
bale
vy
##gave
##anche
##skurs
forældet
meda
overlade
fønik
nordborg
##eligheden
henne
##ernen
barnets
oprørs
borre
##boks
afgiver
duke
soj
sagens
penges
levering
##karakter
goethe
larsens
indtægterne
skandale
1698
frugtbar
afskaffelse
etapeløb
gibson
spektak
eksplosionen
sammenslutningen
welter
minoritet
æstetiske
rederiet
anmodede
hygiej
eisenhower
habitatomrade
##premiere
nottingham
itzehoe
wagners
ewald
##jagt
skred
indkaldte
overens
landt
chuck
heltal
korværker
geo
##sfond
emi
decideret
uddyb
##styrt
operative
hertuger
tidsalder
kysterne
medici
strømninger
1667
1644
dyrearter
heinz
griff
forhandlede
kobberstik
favr
opbevaret
skinne
tilbuddet
humoristiske
humoristisk
militærtjeneste
guddommelig
stænderforsamling
aggressive
storfyrstendømmet
eskil
keld
kæder
læk
tes
tver
##rødder
##onius
stanis
##ogene
indpas
spider
anfald
ogsaa
brend
klyn
lander
##sville
##trykt
##sham
solbjerg
##plo
bailey
opgjort
fjerner
kvaliteter
darwin
forstør
passagererne
umiddelbare
kamre
administrationscenter
kendskabet
##fremstilling
fornyelse
færgeforbindelse
commission
bogtrykker
indoeuropæiske
beskyldninger
##gebirge
hobb
##snings
##edede
##elling
##skand
arh
omsk
indløbet
##emb
thrak
##desh
filolog
vandmølle
handhæv
gennemgar
altinget
poetisk
turbo
cost
arbejdsplads
ground
hovedsagen
rygs
lancet
sportslige
skyggen
syntese
##kommunikation
plyndret
jungle
##sbladet
phillip
hollænder
crit
fiber
igor
kiste
wit
##edragt
##arna
varmen
uddelingen
anj
konk
blas
blokke
underliggende
toarig
##ægger
daggry
udvinding
next
garage
hex
befru
styrkede
##ahu
gluk
seksualitet
population
weas
radiostation
cm³
record
magnetfelt
mentale
maksimum
forbudte
konverterede
nulmeridianen
##frekvens
buckingham
uoverensstem
søllerød
##brygger
bordtennis
ioner
jage
jann
rie
##stoft
##skirk
##alk
##ræs
##icas
nordsø
arbejdes
trearig
nedlæggelsen
##ellschaft
gude
luftskib
kristina
kristeligt
##ilmar
akv
hoh
agder
krævet
epit
##halvaret
børnehjem
##sværks
journalisthøjskole
behandlinger
##werk
##storm
breddegrad
overbeviste
tilfældige
smukkeste
diagnose
nigeri
##ahrt
medregnet
kromosom
finanskrisen
krøyer
540
erem
fjorde
nell
##myg
##qvist
##enæs
##eløber
##itatis
spiste
syt
kreta
##gtighed
platt
regimet
##afdelinger
parat
##aldirektør
##sbad
skrevne
##scykl
biot
programmets
præsidentens
valgene
freedom
tilskrevet
sognekommune
bernad
orkestre
herregarde
buddha
tegneserien
indenrigsministeriet
paradoks
befolkningsgrupper
podcast
blomstring
bindingsværk
kompetence
clarke
befolkningstæthed
happy
departementer
andorra
volleyball
dok
jægere
møre
rin
##cal
##skak
##leant
##onden
##adiske
indskrifter
hardere
overfaldet
sinai
##aci
musikeren
heaven
taarbæk
##ctions
uafbrudt
petri
galile
fordelen
euras
forældres
##cellen
anmelderne
høy
1666
##buttel
hugget
##studie
udøvede
fuglene
##distrikter
præcision
adopteret
claudius
chilenske
præsidenter
burton
madlavning
gers
pagt
pegede
rw
vat
well
##rist
##fuhrer
ener
animerede
delaw
kloden
##ænen
storfyr
tyler
##klip
sammenlægningen
##søya
berørte
##stats
morf
friends
##herren
arsdagen
##karrieren
udgivelses
volden
cykling
værkerne
470
essex
hjemmesider
papirer
ansete
videospil
deutschland
protestanter
transporteres
velfærds
hyppigst
tragedie
zhang
iberiske
leicester
fabricius
fighter
lena
tup
##draget
##kog
##ækker
##odden
opsam
##uses
sper
sigur
sigismund
##owe
medlemslande
børnes
beføjelser
rødding
##kanal
kinesere
pengepræ
sammenlign
borgmesteren
reduceres
dørene
youth
andrews
ortodoks
hoffmann
væbnet
departementschef
folkemunde
shakespear
devon
essays
overlegen
lorenzo
solokarriere
boykot
gidsler
ærkebiskoppen
jurisdiktion
rind
tret
tux
vrag
##læng
##møder
##arier
forces
##itør
opsving
indtagelse
##rierer
##otr
elton
frar
brol
##neren
##smith
##elset
they
faust
1520
janus
lovens
antio
datterselskaber
##typen
irene
buslinjer
mcdonald
oversættelsen
konstruktioner
sonja
ernæring
1625
buddhismen
bradley
blandes
fundamental
arhundredet
keltisk
fingre
karlsru
tredivearskrigen
beskæftigelses
##knudepunkt
##sfaciliteter
encyklop
duc
æble
##crone
##blet
##ødes
tilstanden
##iren
##ordninger
fløde
##antik
##talerne
blander
rovers
bedrager
martins
##sfæller
bagdad
##løft
bandy
billets
redder
##iele
oprettes
provence
michelsen
##laus
nørrej
diskret
lucy
bassin
vojens
vasil
1588
##æmmede
ghost
næringsstoffer
inspektion
bæredygtig
gravhøje
venskabsbyer
560
hilde
kjer
oil
pill
zero
##ther
##brem
##arre
##aratet
##ref
##ises
203
##emper
##okalt
finner
proton
formynder
syditalien
henvist
østromerske
scan
reporter
##dages
friherre
baserer
undsætning
palad
obje
landsbyens
kronologisk
canadian
jonsson
standardudstyr
1696
kerner
defense
dirty
overrask
opløstes
fyrstendømmet
afgrænsning
sensation
grethe
glenn
petrole
birke
dut
gay
kz
late
sot
tiet
vov
##ssen
##fuglen
##90
##stang
##stock
##arderne
tilsat
udlan
##ulum
spo
##sale
bys
sinde
##ættes
udenom
##sfisk
rejset
##herrer
ordentligt
##acki
undgar
idol
buste
gosp
systematiske
lærling
vinterlege
sasuke
kredser
fjerdeplads
praktik
digtsamling
##legat
symph
skyldsat
platformen
webs
rabte
claire
solidar
provisoriske
sawyer
##asiatiske
cri
lym
wad
##vurder
##ingelser
stejl
204
melank
unød
##aklub
##obahn
statsministeren
krigsminister
fredss
sumer
##olitik
udkomme
##markeder
kolonne
jacobsens
bregen
accepterer
lorenz
##oterapi
øverstbefalende
joey
cornwall
reparation
modstandsbevægelse
siegfried
hendrik
##processen
dietrich
##gymnas
selvstyrende
orlando
gødning
qatar
##hyl
##iterede
##vab
##rap
##raksis
##nev
skrig
skram
spredes
tha
shack
##erenc
##issel
sats
klassiker
##uddene
realiseret
scoring
forestille
hardware
handelsskibe
skønlitter
skolelærer
1691
390
dødelig
##akademiet
vokalist
intensiv
rocks
fortolkninger
sporvejsmuseet
gunstige
wittenberg
cyr
rade
twe
##akkerne
##disciplin
##zzo
##ippen
##stur
tiltalt
erod
syssels
genvalg
slum
plum
historierne
##trykket
gror
lapp
lava
hjemlige
carp
##stads
kile
material
genoprettet
kunstnernavnet
kammerater
bulld
oscars
saltvand
koreograf
[...]
