[PAD]
[unused0]
[unused1]
[unused2]
[unused3]
[unused4]
[unused5]
[unused6]
[unused7]
[unused8]
[unused9]
[unused10]
[unused11]
[unused12]
[unused13]
[unused14]
[unused15]
[unused16]
[unused17]
[unused18]
[unused19]
[unused20]
[unused21]
[unused22]
[unused23]
[unused24]
[unused25]
[unused26]
[unused27]
[unused28]
[unused29]
[unused30]
[unused31]
[unused32]
[unused33]
[unused34]
[unused35]
[unused36]
[unused37]
[unused38]
[unused39]
[unused40]
[unused41]
[unused42]
[unused43]
[unused44]
[unused45]
[unused46]
[unused47]
[unused48]
[unused49]
[unused50]
[unused51]
[unused52]
[unused53]
[unused54]
[unused55]
[unused56]
[unused57]
[unused58]
[unused59]
[unused60]
[unused61]
[unused62]
[unused63]
[unused64]
[unused65]
[unused66]
[unused67]
[unused68]
[unused69]
[unused70]
[unused71]
[unused72]
[unused73]
[unused74]
[unused75]
[unused76]
[unused77]
[unused78]
[unused79]
[unused80]
[unused81]
[unused82]
[unused83]
[unused84]
[unused85]
[unused86]
[unused87]
[unused88]
[unused89]
[unused90]
[unused91]
[unused92]
[unused93]
[unused94]
[unused95]
[unused96]
[unused97]
[unused98]
[unused99]
[unused100]
[unused101]
[unused102]
[unused103]
[unused104]
[unused105]
[unused106]
[unused107]
[unused108]
[unused109]
[unused110]
[unused111]
[unused112]
[unused113]
[unused114]
[unused115]
[unused116]
[unused117]
[unused118]
[unused119]
[unused120]
[unused121]
[unused122]
[unused123]
[unused124]
[unused125]
[unused126]
[unused127]
[unused128]
[unused129]
[unused130]
[unused131]
[unused132]
[unused133]
[unused134]
[unused135]
[unused136]
[unused137]
[unused138]
[unused139]
[unused140]
[unused141]
[unused142]
[unused143]
[unused144]
[unused145]
[unused146]
[unused147]
[unused148]
[unused149]
[unused150]
[unused151]
[unused152]
[unused153]
[unused154]
[unused155]
[unused156]
[unused157]
[unused158]
[unused159]
[unused160]
[unused161]
[unused162]
[unused163]
[unused164]
[unused165]
[unused166]
[unused167]
[unused168]
[unused169]
[unused170]
[unused171]
[unused172]
[unused173]
[unused174]
[unused175]
[unused176]
[unused177]
[unused178]
[unused179]
[unused180]
[unused181]
[unused182]
[unused183]
[unused184]
[unused185]
[unused186]
[unused187]
[unused188]
[unused189]
[unused190]
[unused191]
[unused192]
[unused193]
[unused194]
[unused195]
[unused196]
[unused197]
[unused198]
[unused199]
[unused200]
[unused201]
[unused202]
[unused203]
[unused204]
[unused205]
[unused206]
[unused207]
[unused208]
[unused209]
[unused210]
[unused211]
[unused212]
[unused213]
[unused214]
[unused215]
[unused216]
[unused217]
[unused218]
[unused219]
[unused220]
[unused221]
[unused222]
[unused223]
[unused224]
[unused225]
[unused226]
[unused227]
[unused228]
[unused229]
[unused230]
[unused231]
[unused232]
[unused233]
[unused234]
[unused235]
[unused236]
[unused237]
[unused238]
[unused239]
[unused240]
[unused241]
[unused242]
[unused243]
[unused244]
[unused245]
[unused246]
[unused247]
[unused248]
[unused249]
[unused250]
[unused251]
[unused252]
[unused253]
[unused254]
[unused255]
[unused256]
[unused257]
[unused258]
[unused259]
[unused260]
[unused261]
[unused262]
[unused263]
[unused264]
[unused265]
[unused266]
[unused267]
[unused268]
[unused269]
[unused270]
[unused271]
[unused272]
[unused273]
[unused274]
[unused275]
[unused276]
[unused277]
[unused278]
[unused279]
[unused280]
[unused281]
[unused282]
[unused283]
[unused284]
[unused285]
[unused286]
[unused287]
[unused288]
[unused289]
[unused290]
[unused291]
[unused292]
[unused293]
[unused294]
[unused295]
[unused296]
[unused297]
[unused298]
[unused299]
[unused300]
[unused301]
[unused302]
[unused303]
[unused304]
[unused305]
[unused306]
[unused307]
[unused308]
[unused309]
[unused310]
[unused311]
[unused312]
[unused313]
[unused314]
[unused315]
[unused316]
[unused317]
[unused318]
[unused319]
[unused320]
[unused321]
[unused322]
[unused323]
[unused324]
[unused325]
[unused326]
[unused327]
[unused328]
[unused329]
[unused330]
[unused331]
[unused332]
[unused333]
[unused334]
[unused335]
[unused336]
[unused337]
[unused338]
[unused339]
[unused340]
[unused341]
[unused342]
[unused343]
[unused344]
[unused345]
[unused346]
[unused347]
[unused348]
[unused349]
[unused350]
[unused351]
[unused352]
[unused353]
[unused354]
[unused355]
[unused356]
[unused357]
[unused358]
[unused359]
[unused360]
[unused361]
[unused362]
[unused363]
[unused364]
[unused365]
[unused366]
[unused367]
[unused368]
[unused369]
[unused370]
[unused371]
[unused372]
[unused373]
[unused374]
[unused375]
[unused376]
[unused377]
[unused378]
[unused379]
[unused380]
[unused381]
[unused382]
[unused383]
[unused384]
[unused385]
[unused386]
[unused387]
[unused388]
[unused389]
[unused390]
[unused391]
[unused392]
[unused393]
[unused394]
[unused395]
[unused396]
[unused397]
[unused398]
[unused399]
[unused400]
[unused401]
[unused402]
[unused403]
[unused404]
[unused405]
[unused406]
[unused407]
[unused408]
[unused409]
[unused410]
[unused411]
[unused412]
[unused413]
[unused414]
[unused415]
[unused416]
[unused417]
[unused418]
[unused419]
[unused420]
[unused421]
[unused422]
[unused423]
[unused424]
[unused425]
[unused426]
[unused427]
[unused428]
[unused429]
[unused430]
[unused431]
[unused432]
[unused433]
[unused434]
[unused435]
[unused436]
[unused437]
[unused438]
[unused439]
[unused440]
[unused441]
[unused442]
[unused443]
[unused444]
[unused445]
[unused446]
[unused447]
[unused448]
[unused449]
[unused450]
[unused451]
[unused452]
[unused453]
[unused454]
[unused455]
[unused456]
[unused457]
[unused458]
[unused459]
[unused460]
[unused461]
[unused462]
[unused463]
[unused464]
[unused465]
[unused466]
[unused467]
[unused468]
[unused469]
[unused470]
[unused471]
[unused472]
[unused473]
[unused474]
[unused475]
[unused476]
[unused477]
[unused478]
[unused479]
[unused480]
[unused481]
[unused482]
[unused483]
[unused484]
[unused485]
[unused486]
[unused487]
[unused488]
[unused489]
[unused490]
[unused491]
[unused492]
[unused493]
[unused494]
[unused495]
[unused496]
[unused497]
[unused498]
[unused499]
[unused500]
[unused501]
[unused502]
[unused503]
[unused504]
[unused505]
[unused506]
[unused507]
[unused508]
[unused509]
[unused510]
[unused511]
[unused512]
[unused513]
[unused514]
[unused515]
[unused516]
[unused517]
[unused518]
[unused519]
[unused520]
[unused521]
[unused522]
[unused523]
[unused524]
[unused525]
[unused526]
[unused527]
[unused528]
[unused529]
[unused530]
[unused531]
[unused532]
[unused533]
[unused534]
[unused535]
[unused536]
[unused537]
[unused538]
[unused539]
[unused540]
[unused541]
[unused542]
[unused543]
[unused544]
[unused545]
[unused546]
[unused547]
[unused548]
[unused549]
[unused550]
[unused551]
[unused552]
[unused553]
[unused554]
[unused555]
[unused556]
[unused557]
[unused558]
[unused559]
[unused560]
[unused561]
[unused562]
[unused563]
[unused564]
[unused565]
[unused566]
[unused567]
[unused568]
[unused569]
[unused570]
[unused571]
[unused572]
[unused573]
[unused574]
[unused575]
[unused576]
[unused577]
[unused578]
[unused579]
[unused580]
[unused581]
[unused582]
[unused583]
[unused584]
[unused585]
[unused586]
[unused587]
[unused588]
[unused589]
[unused590]
[unused591]
[unused592]
[unused593]
[unused594]
[unused595]
[unused596]
[unused597]
[unused598]
[unused599]
[unused600]
[unused601]
[unused602]
[unused603]
[unused604]
[unused605]
[unused606]
[unused607]
[unused608]
[unused609]
[unused610]
[unused611]
[unused612]
[unused613]
[unused614]
[unused615]
[unused616]
[unused617]
[unused618]
[unused619]
[unused620]
[unused621]
[unused622]
[unused623]
[unused624]
[unused625]
[unused626]
[unused627]
[unused628]
[unused629]
[unused630]
[unused631]
[unused632]
[unused633]
[unused634]
[unused635]
[unused636]
[unused637]
[unused638]
[unused639]
[unused640]
[unused641]
[unused642]
[unused643]
[unused644]
[unused645]
[unused646]
[unused647]
[unused648]
[unused649]
[unused650]
[unused651]
[unused652]
[unused653]
[unused654]
[unused655]
[unused656]
[unused657]
[unused658]
[unused659]
[unused660]
[unused661]
[unused662]
[unused663]
[unused664]
[unused665]
[unused666]
[unused667]
[unused668]
[unused669]
[unused670]
[unused671]
[unused672]
[unused673]
[unused674]
[unused675]
[unused676]
[unused677]
[unused678]
[unused679]
[unused680]
[unused681]
[unused682]
[unused683]
[unused684]
[unused685]
[unused686]
[unused687]
[unused688]
[unused689]
[unused690]
[unused691]
[unused692]
[unused693]
[unused694]
[unused695]
[unused696]
[unused697]
[unused698]
[unused699]
[unused700]
[unused701]
[unused702]
[unused703]
[unused704]
[unused705]
[unused706]
[unused707]
[unused708]
[unused709]
[unused710]
[unused711]
[unused712]
[unused713]
[unused714]
[unused715]
[unused716]
[unused717]
[unused718]
[unused719]
[unused720]
[unused721]
[unused722]
[unused723]
[unused724]
[unused725]
[unused726]
[unused727]
[unused728]
[unused729]
[unused730]
[unused731]
[unused732]
[unused733]
[unused734]
[unused735]
[unused736]
[unused737]
[unused738]
[unused739]
[unused740]
[unused741]
[unused742]
[unused743]
[unused744]
[unused745]
[unused746]
[unused747]
[unused748]
[unused749]
[unused750]
[unused751]
[unused752]
[unused753]
[unused754]
[unused755]
[unused756]
[unused757]
[unused758]
[unused759]
[unused760]
[unused761]
[unused762]
[unused763]
[unused764]
[unused765]
[unused766]
[unused767]
[unused768]
[unused769]
[unused770]
[unused771]
[unused772]
[unused773]
[unused774]
[unused775]
[unused776]
[unused777]
[unused778]
[unused779]
[unused780]
[unused781]
[unused782]
[unused783]
[unused784]
[unused785]
[unused786]
[unused787]
[unused788]
[unused789]
[unused790]
[unused791]
[unused792]
[unused793]
[unused794]
[unused795]
[unused796]
[unused797]
[unused798]
[unused799]
[unused800]
[unused801]
[unused802]
[unused803]
[unused804]
[unused805]
[unused806]
[unused807]
[unused808]
[unused809]
[unused810]
[unused811]
[unused812]
[unused813]
[unused814]
[unused815]
[unused816]
[unused817]
[unused818]
[unused819]
[unused820]
[unused821]
[unused822]
[unused823]
[unused824]
[unused825]
[unused826]
[unused827]
[unused828]
[unused829]
[unused830]
[unused831]
[unused832]
[unused833]
[unused834]
[unused835]
[unused836]
[unused837]
[unused838]
[unused839]
[unused840]
[unused841]
[unused842]
[unused843]
[unused844]
[unused845]
[unused846]
[unused847]
[unused848]
[unused849]
[unused850]
[unused851]
[unused852]
[unused853]
[unused854]
[unused855]
[unused856]
[unused857]
[unused858]
[unused859]
[unused860]
[unused861]
[unused862]
[unused863]
[unused864]
[unused865]
[unused866]
[unused867]
[unused868]
[unused869]
[unused870]
[unused871]
[unused872]
[unused873]
[unused874]
[unused875]
[unused876]
[unused877]
[unused878]
[unused879]
[unused880]
[unused881]
[unused882]
[unused883]
[unused884]
[unused885]
[unused886]
[unused887]
[unused888]
[unused889]
[unused890]
[unused891]
[unused892]
[unused893]
[unused894]
[unused895]
[unused896]
[unused897]
[unused898]
[unused899]
[unused900]
[unused901]
[unused902]
[unused903]
[unused904]
[unused905]
[unused906]
[unused907]
[unused908]
[unused909]
[unused910]
[unused911]
[unused912]
[unused913]
[unused914]
[unused915]
[unused916]
[unused917]
[unused918]
[unused919]
[unused920]
[unused921]
[unused922]
[unused923]
[unused924]
[unused925]
[unused926]
[unused927]
[unused928]
[unused929]
[unused930]
[unused931]
[unused932]
[unused933]
[unused934]
[unused935]
[unused936]
[unused937]
[unused938]
[unused939]
[unused940]
[unused941]
[unused942]
[unused943]
[unused944]
[unused945]
[unused946]
[unused947]
[unused948]
[unused949]
[unused950]
[unused951]
[unused952]
[unused953]
[unused954]
[unused955]
[unused956]
[unused957]
[unused958]
[unused959]
[unused960]
[unused961]
[unused962]
[unused963]
[unused964]
[unused965]
[unused966]
[unused967]
[unused968]
[unused969]
[unused970]
[unused971]
[unused972]
[unused973]
[unused974]
[unused975]
[unused976]
[unused977]
[unused978]
[unused979]
[unused980]
[unused981]
[unused982]
[unused983]
[unused984]
[unused985]
[unused986]
[unused987]
[unused988]
[unused989]
[unused990]
[unused991]
[unused992]
[unused993]
[unused994]
[unused995]
[unused996]
[unused997]
[unused998]
[unused999]
[UNK]
[CLS]
[SEP]
[MASK]
!
"
#
$
%
&
'
(
)
*
+
,
-
.
/
0
1
2
3
4
5
6
7
8
9
:
;
<
=
>
?
@
[
\
]
^
_
`
a
b
c
d
e
f
g
h
i
j
k
l
m
n
o
p
q
r
s
t
u
v
w
x
y
z
{
|
}
~
¡
¢
£
¤
¥
¦
§
¨
©
ª
«
¬
®
¯
°
±
²
³
´
µ
¶
·
¸
¹
º
»
¼
½
¾
¿
×
ß
æ
ð
÷
ø
þ
đ
ı
ł
œ
ſ
ƒ
ɔ
ə
ɛ
ʹ
ʺ
ʼ
ʿ
ˆ
ˈ
ː
˚
˜
α
β
γ
δ
ε
ζ
η
θ
ι
κ
λ
μ
ν
ξ
ο
π
ρ
ς
σ
τ
υ
φ
χ
ψ
ω
а
б
в
г
д
е
ж
з
и
к
л
м
н
о
п
р
с
т
у
ф
х
ц
ч
ш
щ
ъ
ы
ь
э
ю
я
ђ
є
ѕ
і
ј
ґ
ա
א
ב
ג
ד
ה
ו
ח
ט
י
כ
ל
ם
מ
ן
נ
ס
ע
פ
צ
ק
ר
ש
ת
׳
،
ء
ا
ب
ة
ت
ث
ج
ح
خ
د
ذ
ر
ز
س
ش
ص
ض
ط
ع
غ
ـ
ف
ق
ك
ل
م
ن
ه
و
ى
ي
پ
ک
گ
ی
क
ज
त
द
न
प
म
य
र
ल
व
स
ह
ा
ि
ी
ो
ক
ন
ব
র
া
ি
ে
க
த
ி
ு
ക
ത
ന
യ
ര
വ
ാ
ി
െ
ก
ข
ค
ง
จ
ช
ด
ต
ท
น
บ
ป
พ
ม
ย
ร
ล
ว
ส
ห
อ
ะ
า
ำ
เ
แ
ไ
ა
ე
ი
ᄀ
ᄂ
ᄃ
ᄅ
ᄆ
ᄇ
ᄉ
ᄋ
ᄌ
ᄎ
ᄏ
ᄐ
ᄑ
ᄒ
ᅡ
ᅢ
ᅥ
ᅦ
ᅧ
ᅩ
ᅪ
ᅬ
ᅭ
ᅮ
ᅳ
ᅴ
ᅵ
ᆨ
ᆫ
ᆯ
ᆷ
ᆸ
ᆻ
ᆼ
‐
‑
‒
–
—
‘
’
‚
“
”
„
†
•
…
‰
′
″
‹
›
⁄
₂
€
℃
№
™
⅓
←
↑
→
⇒
−
∗
∙
√
≈
≤
≥
─
━
│
├
■
▪
►
◊
○
●
☀
★
☆
☎
☕
☝
☺
♀
♂
♡
♥
♦
✅
✌
✓
✔
✨
❑
❗
❤
➔
➤
➧
⠀
⬆
⭐
、
。
「
」
【
】
あ
い
う
え
お
か
き
く
け
こ
さ
し
す
せ
そ
た
ち
っ
つ
て
と
な
に
の
は
ひ
へ
ま
み
め
も
や
よ
ら
り
る
れ
ろ
わ
を
ん
ア
ィ
イ
ウ
ェ
エ
オ
カ
キ
ク
ケ
コ
サ
シ
ス
セ
ソ
タ
チ
ッ
ツ
テ
ト
ナ
ニ
ネ
ハ
ヒ
フ
ヘ
ホ
マ
ミ
ム
メ
モ
ャ
ュ
ョ
ラ
リ
ル
レ
ロ
ワ
ン
・
ー
一
七
万
三
上
下
不
与
专
世
业
东
两
个
中
为
主
久
么
之
乐
九
也
买
了
争
事
二
于
五
亚
交
产
京
人
什
今
他
仙
代
以
们
件
任
企
会
传
位
体
何
作
你
使
供
保
信
元
先
光
免
入
全
八
公
六
关
其
具
内
円
册
军
冠
准
出
分
划
列
创
利
到
制
前
力
加
务
动
势
動
化
北
区
十
单
南
博
原
去
县
及
友
双
发
取
受
口
可
台
号
司
合
同
名
后
吗
员
和
品
哪
商
器
四
回
国
图
在
地
场
址
坛
型
城
堂
場
外
多
大
天
太
头
奇
奖
女
好
如
姐
娱
婆
子
字
学
安
官
定
宝
实
客
家
容
富
对
将
小
少
就
尾
展
山
島
川
州
工
巧
市
常
平
年
广
庆
库
店
度
建
开
式
引
当
录
彩
影
很
律
得
微
心
必
忙
快
怎
思
性
情
意
感
成
我
户
房
所
手
打
技
投
报
持
挂
指
排
接
推
提
播
放
政
教
数
文
料
斯
新
方
无
日
时
明
星
是
時
更
最
月
有
服
期
未
本
机
杀
来
東
果
校
格
業
次
正
比
民
氓
気
水
江
没
河
治
法
波
注
活
流
测
海
清
港
游
源
澳
点
然
爱
片
版
牌
物
特
狗
玄
王
玩
现
球
理
生
用
田
电
町
画
界
疆
登
白
百
的
目
直
相
省
看
県
真
着
知
石
码
碰
社
神
票
福
科
程
稳
空
立
站
第
等
算
管
精
系
红
线
组
经
结
统
网
美
群
老
者
而
联
肖
育
能
自
色
英
蛋
行
表
装
西
要
見
规
视
解
語
计
记
论
设
说
请
财
费
资
赌
赚
赛
赢
走
超
越
跑
路
身
车
软
载
过
运
还
这
进
送
选
通
速
道
部
都
酶
里
重
野
量
金
钱
银
長
长
間
门
间
阳
际
限
院
集
霸
青
面
音
预
频
食
香
马
高
黄
龙
ﬁ
ﬂ
！
（
）
，
５
：
？
～
￼
🇩
🇰
🌟
🌸
🍀
🍁
🎄
🎉
🏻
🏼
🏽
👌
👍
👏
💕
💙
💚
💪
🔥
🔺
🔻
😀
😁
😂
😃
😄
😅
😆
😉
😊
😋
😍
😎
😘
😛
😜
😱
😳
🙁
🙂
🙄
🙈
🙌
🙏
🤔
🤗
🤞
🤩
##r
##k
##a
##p
##s
##l
##e
##u
##d
##v
##i
##n
##g
##m
##t
##f
##h
##b
##o
##æ
##ø
##w
##c
##y
##j
##4
##2
##9
##8
##x
##5
##7
##0
##3
##1
##6
##z
##а
##ч
##у
##р
##о
##в
##q
##ز
##و
##ج
##ي
##´
##の
##り
##し
##て
##е
##г
##м
##н
##т
##ы
##и
##і
##ш
##❤
##ð
##😘
##˚
##¥
##ا
##ع
##ر
##ض
##я
##ƒ
##⁄
##с
##र
##¸
##¦
##ı
##ж
##д
##к
##イ
##ン
##ト
##カ
##ー
##ß
##ſ
##ь
##リ
##ア
##ル
##タ
##ю
##ђ
##ъ
##б
##า
##ก
##ง
##ค
##ร
##ว
##ป
##ส
##อ
##น
##พ
##ท
##เ
##ย
##ワ
##ウ
##セ
##フ
##に
##ス
##ッ
##ф
##ł
##л
##ة
##®
##☕
##っ
##た
##ク
##み
##コ
##サ
##テ
##ィ
##п
##ᅡ
##ᄑ
##ᄎ
##ᅵ
##ᄋ
##ᅦ
##ᄉ
##ᅥ
##ل
##غ
##♡
##€
##™
##ب
##ن
##¬
##な
##と
##×
##з
##ش
##س
##ר
##ג
##י
##ʹ
##ц
##υ
##ν
##τ
##ο
##μ
##α
##ح
##ت
##💪
##ˈ
##ɔ
##ﬁ
##ᅩ
##ᆫ
##ᅴ
##ᄆ
##😂
##த
##ف
##ه
##ی
##😃
##💕
##د
##þ
##œ
##न
##त
##ी
##メ
##🏼
##π
##ε
##ナ
##ᄂ
##ᅳ
##¤
##😀
##م
##→
##ა
##ი
##🤞
##🎄
##☺
##る
##く
##ま
##う
##🏻
##¹
##😊
##✨
##°
##ك
##ک
##ん
##か
##そ
##پ
##ᆨ
##ᄇ
##ᅮ
##ᄃ
##ᆼ
##ি
##ে
##х
##य
##ा
##ᄀ
##🤩
##ด
##ะ
##ำ
##ล
##ม
##แ
##บ
##ไ
##ต
##ᄅ
##👍
##κ
##す
##ᆯ
##ᅪ
##ə
##マ
##シ
##も
##ら
##け
##😎
##µ
##ث
##ב
##ע
##ו
##ל
##ם
##ന
##ത
##ി
##െ
##ュ
##ム
##は
##א
##ד
##ש
##ן
##き
##ה
##ロ
##い
##ω
##η
##ρ
##ι
##ন
##ᅢ
##ᄐ
##נ
##מ
##צ
##σ
##こ
##র
##া
##¾
##ق
##γ
##λ
##щ
##β
##©
##ª
##δ
##😍
##³
##👌
##ס
##¨
##🙏
##ς
##れ
##ち
##や
##θ
##℃
##ニ
##ョ
##ζ
##😉
##ط
##ி
##க
##♂
##प
##פ
##ᅧ
##ᄒ
##ろ
##あ
##¼
##ᅬ
##വ
##э
##め
##ى
##ᄌ
##ᆸ
##ʿ
##യ
##レ
##φ
##ホ
##ラ
##ე
##گ
##ʼ
##😳
##º
##ґ
##χ
##½
##♥
##خ
##ヒ
##キ
##ѕ
##ص
##ξ
##ـ
##►
##ј
##ミ
##オ
##ര
##ு
##⭐
##せ
##😄
##²
##ห
##ק
##👏
##ɛ
##ט
##−
##✓
##よ
##モ
##ハ
##ʺ
##ャ
##ᆷ
##🇩
##🇰
##є
##🌸
##đ
##ת
##を
##エ
##さ
##😜
##￼
##ल
##क
##ि
##द
##😅
##ാ
##±
##ক
##お
##ക
##स
##म
##✌
##～
##ソ
##チ
##ェ
##☀
##🤔
##ツ
##¢
##★
##ह
##ो
##ケ
##ひ
##😋
##♀
##כ
##ː
##🙌
##🏽
##🤗
##😱
##🍀
##😁
##🌟
##♦
##💚
##わ
##✅
##จ
##ช
##ヘ
##⠀
##ᆻ
##ᅭ
##❗
##🙈
##ネ
##ח
##●
##つ
##ա
##😆
##ء
##ज
##ﬂ
##¯
##🔺
##☆
##🙂
##व
##え
##🎉
##へ
##⇒
##ข
##✔
##🙄
##ᄏ
##☝
##ذ
##∙
##🔥
##₂
##£
##˜
##💙
##ψ
##🍁
##🙁
##５
##÷
##│
##ˆ
##ব
##├
##↑
##№
##▪
##←
##≤
##⅓
##√
##➤
##☎
##○
##■
##😛
##∗
##◊
##─
##━
##≥
##≈
##🔻
##⬆
##er
##en
##et
##or
##an
##ed
##in
##ig
##ar
##il
##el
og
##st
##de
for
##al
##nd
##es
##ing
er
at
##om
til
en
af
##sk
##le
##ag
##re
det
##on
##at
pa
##eg
der
##ne
##kk
med
st
##ter
##id
##ver
##ra
##ør
##ol
sa
de
##te
##is
##ler
den
sk
##se
##lig
##and
##ær
ud
##der
##kke
hv
har
##ning
som
##it
vi
##ge
##iv
om
##un
##od
##og
et
##ik
##ende
du
kan
ikke
jeg
##kt
op
##ru
##ej
##ion
##ere
##av
al
##ste
##mm
##ad
##ede
pr
##ur
ar
man
##hed
ind
men
##isk
var
##ens
##els
##æl
bl
el
##ent
##igt
##else
##ul
in
##as
##ab
##ræ
##erne
##am
##for
##ige
fra
sp
an
eller
##ger
hvor
be
##omm
vil
##ks
##fter
##us
over
##sa
ved
##nder
##ud
væ
##ang
skal
##lev
##ist
##age
##ov
fa
se
han
##ind
##op
##old
sig
##iver
##øb
##est
hav
##elt
##ation
##gen
##je
##ort
and
efter
##lige
##bej
##end
##sp
##ske
##ot
ma
##ft
kun
ogsa
##ut
nog
##ok
##æn
komm
##ive
sam
##ill
##yg
##im
være
kon
blev
her
##und
##øj
kl
ny
dan
sel
##em
##ød
##ri
bru
god
##ser
20
##æg
##ene
##æt
##ir
##yr
selv
##ine
##lem
##pp
##ale
##ade
hvis
##iske
under
##eget
##elig
gen
##art
##øl
vær
##ligt
##dan
kr
##ic
før
##kker
##os
tid
##esk
##ring
meget
##ob
##sen
end
##vær
sm
##ling
nar
##um
alle
fin
##hold
alt
hel
##ff
##ret
tr
samm
##rem
##ers
pl
sid
mod
fr
arbej
##yn
min
##ke
##sm
##eret
##øg
##ark
##ord
##sl
dig
##idt
##var
mere
sl
læ
##vis
stor
far
##ant
##ie
kv
da
##eder
br
##yl
mange
mu
nu
##skab
dag
##yd
re
##ager
##itet
fl
vor
bet
##øre
##ide
##elsen
##elser
##ninger
##tet
##ner
##be
##øn
køb
##ænd
##jer
##lighed
havde
bar
##det
##nem
vir
din
hun
vores
denne
##alg
bliver
##net
##del
frem
##per
##kl
kunne
reg
##æng
##yt
samt
mig
tilb
##agt
udv
hvad
##ier
##ys
##ass
bed
pro
##lere
bør
gr
dette
##ille
dem
##ch
godt
andre
##jæl
brug
##pe
lig
have
noget
forsk
##alt
or
##ien
##ss
##ber
kom
##00
##des
201
beg
##ast
sex
##ak
##den
deres
19
##ek
to
##arbej
ret
##ci
del
gru
hand
##ktion
træ
##ering
un
form
##ningen
##ce
helt
##gang
forb
uden
##ten
ad
##hand
fort
høj
hver
##let
le
sammen
##land
sø
##pr
##dag
##enter
##mmer
mel
lige
ser
lidt
##ker
##erson
##odu
##ost
##læg
kont
os
##før
hje
ch
gennem
gl
nogle
##ess
th
ga
##ket
##sæt
##ighed
##ve
##ode
forskel
næ
##ga
##aler
##org
vej
##dt
bes
par
##ap
bade
##mme
flere
fors
jo
været
gar
##avn
##ikker
hele
##aget
##ksom
person
##sat
nye
##get
føl
##dr
##sker
##atur
##yk
inter
##hol
##nes
##ater
sin
##pl
##di
##yder
ned
mellem
ek
##ange
blive
hvil
##isse
su
##ster
ab
land
lang
lav
derfor
vid
##sb
##inder
##mer
stør
##elle
##mp
dr
inden
hen
igen
##elige
##ets
best
første
##eb
##ug
##ult
mind
skul
##ac
##tr
bil
gang
gør
kommer
##inger
##øde
##ksomhed
hjæl
##bl
grund
sy
produ
##eligt
##edet
##vend
eks
store
##ktiv
rigt
ty
danm
vis
bare
##edes
##andt
mass
hvordan
øn
dk
dat
besk
##me
hol
##vej
forskellige
##vet
mulighed
##tal
des
##elses
børn
udvik
arbejd
di
hos
per
skulle
liv
##ans
##gør
##ald
##kken
##fte
ven
##af
dog
##sten
##æld
##øs
##br
##over
bill
net
##inde
##ingen
str
##les
##ære
andet
##hus
dansk
massage
##føl
10
by
ev
gra
##form
##stem
##under
sen
gøre
##orn
##nesk
##kter
siden
natur
byg
ver
tra
anden
mand
vel
samme
præ
##giv
##gende
dit
##tes
pol
##ven
vand
##ister
syn
fik
ville
giver
so
##ørg
kommun
omk
fol
virksomhed
##ard
##nings
lu
mennesk
hende
##ken
disse
hans
##ub
##ust
mal
##cer
tilf
forhold
res
danske
##ads
altid
##iger
18
##iller
finde
bag
la
sikker
sn
##ræn
løb
blevet
##endt
200
tilbage
##amp
##havn
##still
fil
danmark
##dann
væl
ans
##fl
##kon
##urt
opl
##alitet
lille
mor
skr
star
ly
##unkt
##kket
ham
pen
##sta
##gi
##oder
side
sag
##uld
vigt
ha
enk
skab
omra
##olog
nok
##len
##gt
##ligere
pris
on
hov
arbejde
sit
lov
##red
##nu
fordi
rad
##ele
dine
##ogra
gerne
sv
##ow
##iet
sær
kvinder
##ffe
sadan
##of
##hver
##fat
##akt
nem
te
mest
##istor
sæt
##til
maske
virk
beh
gener
ingen
hold
kra
is
nær
##ynd
##ole
sidste
ra
bedste
##handling
##tere
gode
im
inde
ord
##tag
valg
plan
omkring
##oblem
##ationer
tv
##anden
##atte
##borg
hurt
tage
komme
##iden
##au
made
fast
spe
tek
polit
##rer
##asse
led
kn
lever
##are
vide
sal
##ppe
##æv
##sc
oplev
##amil
##enhavn
##mær
##ører
##smal
ænd
siger
##bet
mark
##jen
hal
##if
nød
##led
ting
lok
##ække
københavn
##atis
##lever
fakt
bo
tæn
porn
rigtig
##sel
spørg
off
læng
fun
eg
##ærd
##ia
15
##ma
##ings
nord
tre
##bru
tim
hoved
12
ber
problem
bruge
nogen
mad
##rift
stad
met
aller
kort
speci
delt
ønsker
##styr
kar
jer
proje
rej
famil
##som
mar
ofte
##øv
##io
bruger
blandt
##stru
give
hus
mænd
##gru
##bo
##komm
##ave
histor
hvilket
##res
##oc
##far
##ip
sol
mindre
tur
ligger
##anske
##ider
##entlig
lan
##ges
hjemm
##olig
gratis
mil
udvikling
kal
nor
smu
##iner
lær
gj
##ib
spørgsmal
##opp
fæl
uddann
mens
ben
##ringer
fle
##løb
##arbejder
bedre
sted
##spr
sik
stk
let
##ioner
bog
##sted
lej
am
stat
fortæl
##med
##undet
nyt
##arbejde
##gar
##ld
##idig
hjælp
red
##ift
ca
kræ
muligt
##søg
sæ
##all
##irk
endnu
ekst
række
ja
##ank
hjem
##sn
svar
mit
##vid
##indelse
##spunkt
folk
##byg
sund
hu
##reg
##up
soci
stadig
film
com
verden
styr
mus
finder
kor
##stand
##oks
virkelig
først
##mel
ene
##øt
komp
faet
ekse
##æk
kvalitet
##holder
ars
mennesker
ej
rest
fant
esc
gange
aktiv
##æss
egen
tal
hot
##line
bor
tager
##sf
und
forv
##pper
sh
bek
##yld
unge
escort
11
rund
##la
akt
mær
##tede
##str
vin
start
##pt
##vende
##uden
##oner
fælles
tidligere
##ond
gam
##hæng
##rakt
pat
større
opt
dire
17
tha
ide
##eller
##vic
klar
##øger
ne
##øm
##sh
##vel
##kte
##heden
stort
forbindelse
##set
findes
inv
dy
proc
set
mine
lave
##ct
##ition
ka
##konom
ro
##alet
eksemp
dej
dage
##ise
##ygt
##urder
30
online
langt
##ativ
##by
gik
læs
længere
art
projekt
16
udvalg
fag
org
##ian
mot
na
prø
14
##yst
samtidig
prof
sc
##nen
##syn
oplys
behandling
##alis
##agen
sma
##lad
alm
##ren
##ateri
##sfor
ren
allerede
væk
mang
##øje
spr
sine
##ytte
øv
synes
he
ener
bel
fal
aldr
##okus
gu
sommer
dyr
fre
stand
##utter
kontakt
##lag
søger
spil
eng
aldrig
##omme
pas
hendes
em
##eter
##idler
sta
fød
##une
##ationen
altsa
##van
##ue
##istr
##eren
hjemmes
erhver
tab
result
voks
fokus
##anis
kø
##jø
saledes
##na
##lede
##sigt
plads
##bef
priv
læg
eur
modt
##blik
faktisk
inst
##telse
løs
##egn
##teret
gamle
lin
rundt
konk
web
medarbejder
videre
##olle
##asser
svær
tog
##revet
##ælder
##min
piger
##tid
sige
##ænge
tekn
ekstra
hurtigt
part
afsl
int
spænd
##ester
næste
leg
##ultur
fri
##uder
kur
##ført
økonom
##rev
13
penge
fantast
tæt
##ykke
ge
behov
viser
##ire
##ont
fuld
##ator
privat
nr
##elte
##omra
##gelig
grøn
##olen
effe
##ender
holde
##ejl
the
betyder
yder
##dom
jord
erhverv
kat
tilbud
syd
fer
stedet
ol
tag
##aling
##endte
po
##ansk
kvinde
nødvend
foret
##terne
anbef
##gte
hvert
##riv
bev
kommune
##erer
arbejder
billeder
##uelle
begynd
købe
##iveau
besl
vurder
jul
kør
##skaber
vælge
sundhed
ste
desig
næsten
sand
vigtigt
eksempel
undersøg
tiden
##kom
##elef
##ym
##ro
aft
##mmet
##sv
nemlig
viden
25
stær
ter
tilfæl
video
100
##slag
super
kunst
fræ
glæ
##erede
ta
##aden
servic
besøg
erfar
bi
##ensen
##snit
##træ
blot
##ha
norm
haft
##aret
co
thai
hjælpe
tale
##sam
##ader
antal
giv
aut
æld
flot
især
funktion
##rede
bolig
hj
##øder
##ite
##rik
##efter
fleste
##son
slag
##grund
hvorfor
kamp
senere
interes
##igheder
tem
##uds
##ure
##men
sj
fod
mindst
fordel
cent
kæ
jan
ban
##øse
beslut
##rist
syg
enkelte
undervis
##ikke
fjer
ris
bud
porno
igennem
##værk
##one
##eneste
skøn
event
stra
##præ
000
##skabet
læse
##ember
morgen
##rol
##unde
##ikken
maned
kultur
##rag
##edt
ung
opg
##sent
##sdag
kap
lavet
halv
inform
oplysninger
ansvar
europ
taget
id
via
opf
hin
##satte
peri
skabe
samarbejde
kir
betyd
aktivitet
vind
udfor
##iddel
##iste
enkelt
##yde
ann
##akter
##lerne
##brug
##orde
mat
##stat
herunder
##stænd
##rig
støt
luft
lys
tror
hotel
##ppen
##kning
værd
##illet
materi
skole
##fra
mon
ude
##int
selvom
##ars
##lemmer
ful
bruges
almind
lo
krav
##ylland
anal
##udv
produkter
sim
ps
sat
største
##ligvis
##dat
ju
##alen
hab
##ionen
##heder
##kv
job
##ledning
##itut
midt
omfat
begge
##vn
sikkert
bestyr
##fe
nov
kost
ul
netop
ander
kig
musik
##skud
trad
##gaver
liges
##ograf
##entet
anvend
selvføl
##ay
##sg
aften
##par
##øren
ang
hæ
##ande
##oden
sikre
##elefon
##oppen
##tra
hyg
mød
tro
bas
medlem
desuden
jun
indtil
anvende
50
færd
app
virksomheder
##iss
##tek
##off
##nede
klub
##use
tilfælde
grad
ni
##unden
ru
gælder
##cc
moder
fot
##stre
ring
ejend
opret
hør
hjer
##mmel
##ældende
##po
foren
##plan
øvr
stud
##vand
direkte
maj
##our
møde
##ession
##stemm
nat
øje
##meld
elever
hvilke
##vir
dermed
pos
indhold
ele
selvfølgelig
##yldt
svært
tør
sker
##bud
adgang
eu
progra
sjæl
fantastisk
opmær
ellers
afgør
forsta
##leje
mob
##tryk
resultat
løbet
##ben
følge
vest
slut
##uler
##dens
navn
##ask
organis
system
##ori
prakt
tru
sagde
plac
ældre
##amer
##spl
vigtig
dar
##elserne
timer
199
##ved
fx
hinanden
##øge
fred
sæl
fire
fys
samf
brugt
##ance
christ
ski
sikkerhed
fem
størr
##cept
pige
omradet
fø
fald
død
##ative
kraft
familie
##okum
følgende
personer
spændende
##itter
rel
##ck
vist
hjemme
lyst
intern
##rad
tan
hens
længe
##ove
foræld
artik
lækker
gjort
mail
##ivers
højt
psyk
mart
bef
##rum
barn
steder
udgang
insp
varm
produkt
fortæller
arbejdet
##bar
uge
regn
##ef
tak
##øst
dec
heller
forl
matte
kær
dæ
##ikring
salg
tran
##jerg
byen
but
##aet
indsat
##ina
børne
##rej
##cen
passer
varme
##holde
##arks
holder
gav
miljø
hjemmeside
slet
##færd
sagt
##ann
##øver
mener
omrade
##ron
sætte
##ytter
rejse
spiller
##stilling
annon
##terer
##iser
##pu
pop
##reb
##værende
tilbyder
elsker
still
##ital
##ægt
laver
indeholder
24
eneste
##star
fly
##læ
masse
risik
##kkede
##lagt
##ban
dagen
problemer
dating
dele
mobil
##arer
opr
lad
ant
telefon
dokum
baggrund
kontrol
ligesom
##pa
kil
bestem
##fald
leder
##føre
top
##ykker
##ørende
##fik
muligheder
##ell
21
##skil
pass
nærm
offent
##tem
køre
bu
##cent
##kkes
##stil
skær
seks
##ht
##køb
##atisk
dom
krop
derefter
verdens
handler
hvem
rød
nav
ob
disk
danmarks
teg
##bold
rom
ko
bedst
ba
##smæss
##ack
borg
gjorde
syge
##følge
##anset
cyk
service
høje
energi
post
godk
fejl
test
fest
sprog
inspir
forud
lokale
aar
cm
##ods
##ium
##yster
of
samlet
forsøg
##orer
lokal
skov
bal
freder
lyd
##agra
ref
minutter
søg
kære
skrive
##ologi
park
hurtig
##tering
##kar
uanset
##ævn
arr
smukke
stil
græ
##deling
oven
ses
lag
udg
historie
lejlighed
tøj
design
medlemmer
00
rigtige
univers
##anter
konkur
køkken
bid
ex
nemt
##oler
øj
##ph
ganske
klass
me
hvilken
##ligevel
alder
40
##ktur
##gene
fisk
alligevel
maneder
social
pik
sort
niveau
forbru
##arbejdet
sil
indt
billig
forvent
forældre
forkl
ak
læge
22
enten
##æst
##yttet
tidspunkt
##sætning
held
um
politik
##givet
##uel
nettet
løn
tit
bord
##reds
alene
situ
bemær
##isten
##eten
ho
##ateg
forh
sej
##lej
##sy
prin
##ations
we
tysk
mag
##fr
##ies
uger
masser
internation
##pport
##ræt
##sætte
car
##ogn
søge
livet
kræver
pu
ejer
data
##ktioner
græn
udford
##oen
amer
tor
indenfor
prøve
fj
nation
juni
nøg
anlæg
uddannelse
etab
##sels
##aven
lade
frit
##ific
##æd
##sport
sidst
kender
##ose
særligt
aben
##udover
fru
okt
penis
kommet
lande
dis
##ension
dren
##hen
##icin
sep
gul
##sætter
indlæg
##kommen
imp
##ful
hed
simp
omrader
værdi
stille
behand
aug
##stræ
vejen
eget
##uar
præc
mill
##ivl
##eringen
ford
fyr
##mmen
samfund
##atter
##he
##ons
##ningerne
støtte
##mand
##ikk
typ
##ober
ønsk
apr
##gifter
hverdag
overvej
##uddann
fandt
forbed
vold
deltag
##aur
##rat
ferie
utr
##holdt
drø
udsk
##berg
##pligt
jeres
##ps
vælger
dyb
enhver
fundet
gud
udgangspunkt
##vor
blog
ske
##uelt
smag
popul
lø
##værd
##ært
restaur
marked
##endes
##ynder
vedr
2018
##ærer
##uss
ifølge
##æft
sæson
prim
ark
##mod
bad
begræn
##værre
produktion
##ænger
anvendes
rum
ryg
lære
##orte
##gere
fug
##inst
sør
posit
foreg
spille
log
blod
##samling
amerik
go
##arbejd
imod
ur
sch
borger
seneste
tilg
##mark
ens
##jylland
desværre
aarhus
sidder
kæm
##foren
##gaard
medarbejdere
rent
højere
invest
karakter
##føres
##nar
mør
vægt
bestemt
sætter
egne
studer
sport
krist
effekt
rig
region
januar
2017
##yse
##eres
skyl
hvid
information
##iat
drift
kunder
repræ
bræ
afslut
##retning
landet
opgaver
bryster
yderligere
##fører
farver
##elsk
foran
mask
ønske
glad
port
skriver
23
##iz
bred
pal
gaet
udstyr
km
motor
fir
skrevet
2015
tvivl
##iddag
regler
procent
bur
profession
sjov
##kal
elekt
slags
væg
##ore
kolle
##ment
evt
##øjer
oplevelse
##ink
formal
rele
##følgende
centr
velkommen
mærke
##esp
sæd
##ivil
billede
##holm
normalt
sku
sw
aret
ac
hund
proces
deb
særlig
##lys
arbejdsm
uds
barnet
##varer
bygge
opna
bestar
it
køn
##frem
feb
##ales
hjælper
##sd
høre
internet
institut
##rup
##ild
lærer
tænke
##olut
fær
##olk
frederik
selskab
træning
jf
##anger
kommunik
joh
##ommen
stod
inkl
##رر
##ids
komb
haber
sociale
kendt
##endelse
forn
cl
møder
##kort
usa
##igur
tvær
##igvis
medicin
vinter
2016
##drag
##oven
model
nej
2014
mangler
fat
frække
##bart
givet
##ppet
virker
ansøg
tred
gammel
venner
##her
bestille
##mæss
effektiv
##orm
##aller
admin
alvor
sider
funger
blom
##hov
kærlighed
dejlig
##uer
##ledes
valgt
no
hensyn
yd
aktiviteter
bevæg
##da
##tende
etabler
##fekt
##aner
kompeten
endelig
##olit
interesser
##assen
forslag
naturligvis
erfaring
derudover
##iel
##kn
##ient
##produ
energ
##center
brand
##inister
kryd
kold
##løs
recept
intet
##ceret
forfat
kol
##gift
betydning
pæ
##gede
gruppe
øst
egentlig
##givning
us
##skrift
ær
sket
snart
begyndte
fint
##nal
rol
søn
##elighed
##ix
compu
mis
erot
##nende
##kkende
mæng
##ktor
bereg
oden
tradition
##raks
tj
odense
il
tyd
sla
pap
rigtigt
##stid
##hør
bogen
trods
henhold
##bog
forløb
stig
##spil
aal
val
efterfølgende
##gørelse
##yre
2013
##hjæl
kører
26
aftale
dv
marts
føler
##anlæg
198
spise
##aske
kommunen
##huset
##ampe
##ylde
lange
##fil
begynder
ag
60
tun
mm
fodbold
klart
kurs
erne
oktober
betale
konkret
følger
december
april
ægte
priser
beskæft
##kald
##uen
##ktør
##lin
børnene
##raksis
krig
##elsens
##dagog
septem
periode
glæde
særlige
afg
##pen
arhus
fremm
mic
##itt
bus
betaling
august
##enser
moderne
september
offentlige
##eskab
optim
vise
till
28
ir
##nere
##offer
##ts
bemærk
peter
viagra
arbejds
samlede
##lejer
aalborg
cit
succ
beskriv
tæ
født
hum
engang
here
bol
##ellem
27
##ligheder
pot
resten
##anch
finans
dri
offentlig
størrelse
are
##gelse
##za
eksper
generelt
pres
##kr
##teres
nævn
##rav
abs
nuværende
##to
føde
##ierne
indiv
elev
kend
##derne
æg
øvrige
gennemsnit
smer
##sættes
autom
##ate
udtryk
perfekt
idet
time
lide
rette
sammenlig
løsning
197
bær
stop
planlæg
konkurren
kæmpe
##enti
november
##ras
find
##vist
ph
##ng
sek
kroppen
skol
general
instru
taler
ok
##sbe
universitet
stri
uddannelses
udb
bla
præsen
##abil
##tagelse
undervisning
##klub
##lo
##kre
##linger
##lende
muse
modtager
private
mo
##agn
kunde
tilgæng
vækst
##adet
kroner
tænker
##visning
projektet
fremtid
indga
##alog
hej
jule
##ystem
##fri
forest
##spe
huset
ejendom
bestyrelsen
##bu
bekendt
kirke
##ock
varer
##ly
selve
hud
neg
opgave
løbende
as
beløb
uh
ende
##part
##ustri
profil
##unkter
klasse
fortsat
jes
budget
##estyr
week
opmærksom
##ins
fjern
succes
##ages
sna
2012
farve
specielt
sagen
##man
##udvik
bebo
##fang
##ringe
herefter
##imod
personlige
##fin
##ienter
ophold
nødvendigt
køber
##akte
##oer
##raft
##tig
rab
dens
artikel
kred
##ylder
##uren
##vent
##skri
registr
ry
udn
bland
tilfreds
hy
detal
29
sten
lev
indb
billed
voksne
smil
virksomheden
udvikle
meter
redu
typisk
##radet
glas
##aende
fortælle
team
neden
skolen
administr
##høj
kj
##varende
sygdom
skj
forst
adres
holdt
figur
hard
bab
##omradet
venstre
klo
transport
prøv
pluds
ligel
krit
stykke
ital
##50
##værks
##obb
bøger
tillad
stru
type
gældende
##ou
stem
individ
opd
kommende
behøver
husk
##ativt
tils
##cep
##somt
sønd
indsats
rør
skrift
lagt
frisk
oprind
##yser
gæ
##bro
##essour
##tern
##staende
##istiske
retning
maler
fedt
##lementer
abne
ligeledes
spør
##hje
eksister
midler
##værelse
fas
gravid
overfl
forsikring
undga
##vare
højre
##aft
tryk
pct
kre
korre
værkt
bort
spillet
tekst
oper
familien
minim
praksis
cirk
hom
hul
tilp
##udvalg
##plad
udel
simpelt
skaber
tri
fungerer
31
##illede
##ja
europa
##ommer
juli
forhand
nyde
studerende
dejligt
kendte
hvornar
##skl
dam
ci
##asin
udl
##sminister
leve
afsnit
##ko
tje
strateg
imellem
afhæng
flotte
færdig
præcis
##rettet
belig
oplever
##ologiske
regel
ændringer
fuldt
mio
##eringer
##sens
li
bestemm
##orden
dra
##arm
gift
klin
prisen
pag
bygger
##kræ
vent
computer
kop
##hav
sammenhæng
skyldes
frivil
tant
##øjet
##oje
##fer
tjen
##elen
server
pædagog
ram
bidr
##afil
##sid
kateg
kvind
kæreste
##igheden
##oret
##støt
##tiden
dokument
##fort
skat
kombin
klim
##ologisk
##inen
koncer
##ørs
opleve
##ydelse
osv
2011
##deles
punkt
##mad
##stændig
fine
arige
overra
##menter
fisse
stærk
smart
erhvervs
bank
##terede
##iljø
##ømme
##mus
##istisk
ww
hører
overv
##peratur
##skr
tand
##egr
lignende
nummer
konst
febru
apo
opdat
band
tot
ændre
almindelige
ansigt
komment
vedlige
februar
##isen
vejledning
europæ
2010
van
nærmere
materiale
projekter
196
helst
rev
##komst
skift
lyder
kong
kul
new
all
starter
##sættelse
kg
guld
ident
cykel
udsigt
paa
ras
##skole
lækre
interess
højde
mynd
læser
interesse
##jort
##alder
magt
##ynde
##sning
##port
dels
sven
tilsyn
arrange
kons
sang
##iven
##eri
anmeld
##ry
lør
mærk
sende
patient
##fo
tredje
vers
standard
##erk
ti
weekend
##sekv
firma
forbi
anvendelse
##ivet
##ktionen
ressour
mening
beskæftig
##eløb
##ikt
fac
##aben
datter
øl
##ømm
tantra
øvrigt
christian
##plads
smuk
##ach
brød
erstat
antallet
pleje
styrke
afdeling
##own
www
##eld
omkost
supp
##vejen
vurdering
næv
hvide
typer
malt
tegn
##fuld
eksempelvis
kød
##ofil
hor
##anten
chat
vigtigste
foto
partner
##stillet
safrem
konf
udgifter
##abel
pig
##hjælp
##ndt
##20
plad
##mb
ændring
udelu
vandet
sød
##ich
jorden
vari
søndag
##stillinger
##book
##illing
pe
##svis
meg
194
skatte
italien
mader
safremt
gent
mist
lod
positiv
stærkt
san
beting
##aen
##taget
dobb
tyskland
kapit
deltage
##ørn
##ragt
kval
rammer
altern
udf
##ffer
lørdag
konsekv
opfat
##nas
lykk
##bred
face
##tel
##iteter
udover
##ips
viste
pludselig
regnskab
##æring
fej
sønder
skade
35
forfatter
hardt
##ante
80
pavir
bon
##ice
retur
middel
trafik
##forsamling
bilag
resultater
pagældende
char
senest
45
kaffe
##gaende
glæder
##vig
isl
endda
##gr
##forløb
##kast
##alte
omfang
netværk
baseret
nødt
amb
sandsyn
udviklet
hedder
##ty
sidde
##slut
fræk
langs
##lingen
revis
kontakte
skrev
##ygge
##okol
borgere
##ikket
lægger
##aer
ent
##handen
con
lyn
##bes
##met
stol
flyt
spur
eleverne
fyn
udgør
ot
##ung
undersøgelse
fe
##splad
##yttelse
ufor
savel
##strup
##ifik
digit
##sst
##jerne
forber
overrask
engelsk
sar
folke
menneske
pension
yng
70
ass
ungdom
sove
burde
folket
##ish
##iker
anderledes
##vidst
gym
aftal
##virk
valgte
efterhanden
##ka
uaf
vælg
udviklingen
##anen
vild
##æde
##videre
##uligheder
##etter
camp
##iens
sko
symp
special
møn
genop
geng
brugte
oplevelser
rand
forening
##iew
møl
##co
cialis
generalforsamling
lægge
##itu
forskning
lar
sing
##valg
økonomiske
skil
##ions
dre
ed
skriv
##ba
dvs
omfatter
hunde
2009
dygt
købt
fredag
formand
##ick
absolut
frank
generisk
situation
princi
fyldt
øjne
døde
##viser
mik
overfor
sælger
olie
##blio
uk
rolle
træt
##øgen
rejser
afgørende
jour
afsk
500
##forhold
##ugt
nab
bekym
jylland
respe
afh
##kommende
##tom
sjæld
intr
vandt
klik
heldigvis
##beg
bygget
##omrade
træk
skabt
##try
kommuner
fremgar
forbrug
kirk
præst
endvidere
##elset
drikke
sikrer
##isme
liste
økonomi
grundlæg
internationale
bilen
starte
stræ
vedrørende
##enes
##ork
forsvar
grundlag
##holdelse
##amen
debat
##bil
nyhed
##fæl
former
klare
##indre
##løse
huske
interv
hygg
##giver
tom
##atet
##ah
cop
nør
foræl
##mmerne
vinder
mv
##ici
##okrat
værk
dobbelt
populære
foregar
hjør
ht
stress
dejlige
startede
ros
blød
opfyldt
amerikanske
deltager
umiddel
københavns
jensen
inn
strand
real
skyld
ked
kast
almindelig
lege
røde
##betaling
starten
##sø
indbyg
program
hansen
sad
gæster
hverken
stof
just
risiko
##person
søde
videnskab
gard
øk
væsent
rim
##ustr
tyske
rekl
dyre
kommunikation
politiske
##mester
repræsent
##ffet
øjebl
lider
patienter
arets
fysisk
gre
2008
opbe
bryst
sender
lager
##holdes
##mmelig
ansatte
##bæk
##lader
##cere
musk
indkøb
bage
struktur
thom
##ordin
eksisterende
##ta
brænd
frugt
beret
##brud
udfordringer
tus
mer
##smæssige
damer
opbyg
av
spis
smule
sof
##landet
##fek
##alu
##vejs
navnet
##ash
##okost
cy
##rene
rengør
prøver
sjovt
bund
køl
inspiration
fødsels
strøm
sendt
##førte
vare
##ægter
neder
millioner
sammens
##mask
dæk
facebook
udenfor
spor
forand
dialog
darlig
##ovens
venlig
##qu
pæn
##domme
##endørs
nielsen
industri
forret
nogens
dækker
dør
besked
hotellet
##fulde
imidler
vidt
svarer
modtaget
rett
økonomisk
gengæld
stilling
hjerte
unders
imidlertid
kron
regering
nøgen
##ydende
point
automatisk
ori
integr
##orter
adresse
fører
papir
##iets
falder
dokumenter
##ette
pul
simpelthen
##oces
journal
##besk
tages
##oplys
hovedet
blomster
levering
##bare
##atør
forældr
arkite
mund
ønskede
lands
##rige
øget
historien
##kser
rapport
##vin
ringe
national
je
beskr
##ødes
billedet
forker
visse
##stemmelse
tilstræ
betragt
opdag
##hovedet
næst
ideer
enhed
vejr
tanker
##omrader
apotek
##vante
##dem
jens
modeller
pri
36
##istik
fantas
##sby
trække
##væg
guide
vansk
##mmere
nærmest
fork
do
indgar
##app
nogensinde
##fag
##ness
##styrelsen
meddel
##ity
2007
skar
grønne
modtage
læst
forpligt
udvid
##hj
maden
##histor
arig
esb
bygning
tillæg
nøgne
mulige
foreb
forklar
forsv
##bjerg
primært
sov
tids
##stemer
medier
varmt
løsninger
##udvikling
leverand
aktiver
understøt
##hal
opmærksomhed
##ancer
ug
indfl
##amin
temperatur
##edygt
sjælland
godkendt
sver
##pos
##delingen
##leder
##ves
live
##cel
ødel
vilkar
straks
##inge
prote
personale
koster
kund
##egnet
værelse
plast
##fekte
fantastiske
ing
##ape
udbud
sorte
##rund
tar
##fun
##vest
##ætter
flytte
##orier
træn
jagt
##øve
fortsætter
anerk
##skilde
omgiv
knap
##olf
kem
overens
symptom
samarbejd
##skrifter
markedet
spar
bod
politiet
potenti
##institut
forsøger
##hund
center
nødvendige
tilskud
init
##eks
##gade
omgang
europæiske
turen
forek
vidste
##las
hosp
lettere
##sætt
erfaringer
##ert
##out
90
193
gøres
##ight
dato
fleks
øver
henrik
ledelse
fores
væs
##we
beslutning
##gard
videoer
reser
arbejdsg
materialer
##anti
##vede
affald
##fors
mandag
##erende
tl
uafhæng
##ses
daglig
32
##rende
ændret
##ski
relig
lars
##vender
maks
scen
vit
leje
##ane
relevante
branch
##ford
tilbyde
sundheds
##oft
wh
##behandling
prøvet
landbrug
radighed
##itra
bevæ
##skov
korrekt
stærke
pil
biblio
afv
vigtige
kommunal
accep
##forening
##assage
glob
##bær
løber
hi
##opper
##ase
pan
##liv
##usion
detaljer
##ines
afsp
##førelse
kigge
elektron
##yttes
hast
ugen
voksen
sukker
##iteten
orienter
##mal
wor
##andid
overord
goog
støv
parkering
skønne
hjemmesiden
sager
##ong
træner
udgivet
tilkn
butik
mæl
##urs
indre
opst
stemme
lader
mom
perfekte
##park
handle
udst
##uddannelse
##ragende
##splads
fab
funktioner
nøj
book
vildt
modstand
fysiske
konstru
##agne
out
livs
opskrift
batter
muligheden
kursus
grundlæggende
##bord
frederiks
swinger
fremtiden
malet
ligge
konkrete
kampen
tilslut
publik
sasom
arg
udt
##bed
##job
##centr
cam
##vok
sli
##ament
glade
perioden
tværs
ramme
teen
##landske
grupper
up
fo
tilst
invi
derimod
manglende
tydeligt
191
##vice
##mor
##slaget
fotograf
brugere
udgave
alko
##ftet
##vise
##imer
##iseret
krim
##agte
behag
salt
bevidst
bekræ
saa
skræ
rasmus
33
idræt
sind
daglige
jap
##mon
tilstand
##ton
evalu
##mænd
satte
match
igang
##æder
##ros
fællesskab
fav
tryg
resultatet
fremragende
naturen
væsentlig
##saf
##nene
innov
manden
esbjerg
møb
lækkert
##chef
##riter
##slen
##saft
vejle
interview
##denafil
tir
rul
henvend
##huse
felt
max
fortr
##ission
overblik
arbejdsmark
beskrivelse
##riere
pengene
umiddelbart
besøge
randers
##adem
kræft
##rib
##ordning
##kor
kli
politisk
stal
down
byens
##olitik
baby
##estyrelsen
jern
kone
introdu
mødes
personlig
##nat
col
halvdel
##afe
##sig
silke
klubben
##tages
placeret
od
udelukkende
##rab
dræ
oph
løbe
dengang
forstaelse
##yll
##delt
værelser
præg
faglige
plus
slot
analyse
##entligt
##illes
##رررر
relev
højeste
torsdag
##ømt
##aff
læring
vore
venter
praktisk
##dage
døg
##peri
orig
##splan
moden
historier
tænk
##uk
repræsen
minimum
restaurant
vejret
vente
anbefale
opbevar
##ssel
øge
hovedst
hænder
drenge
nævnt
roskilde
meste
300
huden
qu
natten
ube
trav
peder
##sprog
anbefaler
hjul
##sler
fart
##somme
overhovedet
##anc
studie
sverige
defin
arm
##mail
jac
tilstrækk
alkohol
virkeligheden
air
##sku
modne
begrænset
not
støj
##serv
##istrer
triv
##organis
indholdet
chokol
filmen
##føring
##olkning
##stedet
##varme
henblik
grunde
retten
john
##stof
litter
vilde
tallet
brun
skridt
døren
onsdag
biler
spillere
beste
##ojekt
stabil
##esten
##rader
opstar
sadanne
markeds
sommeren
færre
##agere
udført
haven
##oo
##gjort
overensstemmelse
trans
##vil
##ura
can
gave
trin
195
##reme
iværks
føle
kompetencer
##lement
##urg
tabel
serien
syntes
ep
varet
##liggende
tilsvarende
forne
cook
radgivning
toil
hænd
frokost
gulv
johan
##ytt
mærker
organisation
##ævnet
fjerne
sagtens
andersen
##skolen
angiv
##ander
eventuelle
##leks
serie
føre
kapitel
ku
undersøgelser
2006
forstar
oppe
sjældent
hørt
##ith
bold
skader
minister
steg
kontor
internettet
sur
skru
bestil
omfattet
tidligt
tilh
byder
##aktion
##phone
origin
respekt
nedenfor
abent
##skom
skifte
oftest
##middag
fuldstændig
##udvalget
reglerne
fund
lukket
##værker
dags
ansat
oversigt
forretning
eventuelt
##nævn
hvorefter
grænse
entre
komfort
dagens
##sident
##ænk
male
fu
link
##ogne
faste
præm
nemmere
rob
stigende
websted
sigt
##ls
ør
75
løse
##ny
version
##gangen
personalet
vende
##anke
##ime
bæredygt
##væk
hil
##slin
betaler
indflydelse
problemet
google
reklam
kne
personligt
benytte
fødselsdag
bjer
kaldes
fæng
sne
tider
gennemført
niels
##kaldte
billige
status
##pris
adfærd
forventes
tlf
vol
rut
skib
naturlige
kunden
##trol
##dannet
##drer
avis
nede
##onen
install
my
34
udfordring
bir
prov
dets
begiven
utrolig
søren
tank
##ware
ræ
programmet
kørte
dav
kilde
##væ
praktik
foreningen
##iment
levitra
thomas
værktøj
faldt
søl
##behør
ner
kolding
centrum
##bane
##oplysninger
kamer
konfl
bygninger
ekskl
ger
naturligt
holdet
ska
spare
beliggende
gymnas
mindste
kart
2000
##itte
##vind
##als
slutningen
lykkedes
værdier
stjer
tirsdag
overt
forbedre
pga
##sende
##urer
##handler
##smæssigt
ender
las
mult
stykker
##delse
direktør
mort
##hjemme
##gu
##abet
tilmeld
handling
grav
fremme
følelser
spiser
udarbejdet
derved
eftermiddag
milj
kunstner
interessant
##olver
annoncer
sygep
leget
foretaget
adskil
##ulering
sor
ansvarlig
bredt
bj
darligt
levende
hæv
##ydes
designet
##unst
##former
##pon
tend
##ii
37
skuesp
skete
kontrakt
passe
anbefales
##klæd
smukt
begyndelsen
fleksib
afgørelse
fler
pc
##rebet
læder
##oster
røg
gruppen
annoncen
aktuelle
##rit
##lands
ill
##ike
forbundet
syv
grader
diver
##sjæl
##atik
kende
kalder
tekniske
systemet
ut
heraf
ondt
##enh
stre
##sede
don
erik
metoder
##stillingen
lavere
##kaldt
begynde
forars
fortsætte
rek
##band
##nis
tænd
fortalte
maksim
landets
fransk
jævn
pakke
##virksomhed
veg
bom
camping
abon
museum
arbejdsgiver
##atiske
omkostninger
undervejs
formalet
forlæng
arhund
gæst
free
køret
##film
##oppe
vinde
investering
amatør
fordele
##su
dest
jur
milit
konkurrence
isol
##spart
stiller
##service
flygt
arbejdsplad
##ulent
relevant
##steder
fang
##xx
konstant
elementer
tænkt
##ætte
spørgsmalet
##nævnte
hær
##oplev
##vokat
stift
afl
muligvis
svend
kond
placering
sav
korte
micha
eksempler
##ias
190
viborg
vindu
ansøgning
##idenskab
##inget
russ
seng
afd
opsta
tjeneste
38
##pladsen
klima
kob
brev
##slev
emner
casin
symb
bro
danskere
##inden
##øjelse
##ile
##haver
##forb
gives
##zz
gyld
kampe
2005
toppen
priori
aflever
tænder
mulig
##alinger
spillede
peg
mængde
regeringen
sakaldte
diverse
vask
##dere
anders
gas
##alisering
##værket
##elske
trækker
##hl
##nuft
interesseret
abner
favor
rus
##orien
metode
afstand
øjnene
mødet
##sken
au
orden
forkert
fed
##ival
byer
teknologi
##punkt
ægt
huse
soft
virke
##gruppe
cont
##rapport
søvn
##nerne
elsk
sælge
naede
fond
##iem
ledige
udlandet
##udstyr
fyld
forebyg
vises
##ube
vester
##arder
klassiske
involver
kandid
udvikler
eventyr
bra
dyn
morgenmad
cirka
sættes
frankrig
selskabet
endte
##penge
cafe
##ometer
kredit
udp
renover
lagde
indg
samtid
selvstænd
ker
frihed
konto
hensigt
kommunens
hertil
grænser
fornuft
downlo
formid
radio
##nummer
##yb
##ødet
##yp
styre
##ytning
##ema
##have
konkl
gal
handels
spurgte
kvart
chokolade
martin
##skær
dreng
optaget
inkluder
presse
##gøre
slu
landsby
karriere
che
præsident
tingene
stoffer
tiltræ
erkl
chef
##æmp
##ows
##ika
##mann
tyr
middag
##ofilm
michael
oplevet
##otte
bange
sjove
vag
butikker
webs
##ikere
udbet
mester
beskrevet
omfattende
##10
192
handen
hente
tiltag
plat
total
sus
##laget
glem
##able
##ønd
sprøj
producer
varen
udk
frivillige
praktiske
forbruger
##ancen
overskud
ip
digitale
bind
##undersøg
##stande
##sætninger
anne
##niveau
##kont
util
normal
anledning
kapital
dertil
##rus
begyndt
klage
foretage
kendskab
tilbehør
##api
vedkommende
##klar
nærme
løg
cla
drømme
mørke
##sex
##ikkerhed
mode
##bol
sub
dagligt
##skort
hænger
toilet
##sr
##seende
planter
norge
kigger
stranden
undervisningen
les
dist
lavede
mid
handic
ejendommen
yngre
lane
##ificeret
overbe
forsøge
love
offici
kirken
##pet
mun
boliger
aftenen
bestyrelses
42
tænkte
##elm
cykl
kb
##kendt
##sorg
undersøge
born
vivan
##rest
ke
foretages
##fær
øjeblik
metal
arsag
udskift
rengøring
vaske
kommentar
##øret
vivanza
##kende
anvendt
lufthavn
listen
39
##dende
station
dybt
##læge
##ningsm
ov
spørger
skoler
##fart
yderst
omstænd
samling
solen
vedt
sens
##omen
ægteskab
kog
samarbejdet
##sproces
##stol
afhængig
nyheder
##itioner
##gørelsen
##stalt
vejled
last
symptomer
spørge
øjeblikket
centrale
galt
fugt
##yske
##ivt
udstyret
silkeborg
bunden
talt
ressourcer
øster
behandlingen
##arden
særdeles
udføre
navne
nordjylland
hidt
sædvan
##skriv
bos
##kost
samtale
##hæ
##ror
henholdsvis
publikum
##alerne
##essor
boede
extra
koncentr
købte
htt
nyeste
ment
fulde
##dyr
hurtigere
myndighed
smerte
##kel
efteraret
arbejdsmiljø
##ail
##kraft
##mæssige
repar
fi
##nement
##struktur
plant
tillid
##che
nic
opgaven
pornofilm
sendes
foraret
brit
nærheden
hverdagen
aktive
udendørs
professionel
##vidt
bevægelse
banen
enheder
stats
udføres
55
alb
garanti
oprette
emne
skin
##ekter
bevar
udløb
andel
bryll
hø
##edrag
abning
oprindelige
tanke
dokumentation
diskuss
konge
sørger
længde
folkesk
lun
##ureau
litteratur
tø
nationale
international
klokken
ligner
stue
veje
rene
bre
##illa
links
##celler
##opgaver
##skyld
geb
##ones
opdateret
##sløs
helbred
solgt
smør
underhold
suppler
##vendt
beskriver
##avet
##ømte
num
lou
##mæssigt
gri
skud
##ep
##leg
hels
##æb
horsens
stik
øjen
vad
##anal
jesus
professionelle
flygtning
gi
utrol
arligt
##ana
intens
sørg
rabat
driv
48
drejer
rettigheder
central
##lade
##varm
##ringen
hyggeligt
##spar
sign
erotisk
##jening
motion
nyder
arrangementer
##ogram
jacob
kræfter
##ernes
handel
aftaler
langsomt
hoteller
retter
2004
try
teater
eftersp
perspe
##æs
vender
poul
specifik
sejl
mur
generelle
informationer
01
medle
bidrage
##grupper
udvalgte
nævnte
medarbejderne
tilladelse
overveje
familier
heste
nærmeste
hvorvidt
naturlig
kaldet
##edag
enorm
udgiv
optræ
sygdomme
pet
uddannelsen
##ude
deltagelse
planer
produktet
seri
hygge
##ior
##iering
umu
##igh
##tim
##sger
omgivelser
enige
golf
lid
400
udtal
##ho
disku
info
midten
legetøj
##fisk
undersøgelsen
franske
gem
##minister
spej
##gruppen
artikler
##ola
##bel
imøde
herre
afhænger
##mmes
##ius
fit
lægem
tilfæld
travl
##cl
deltagere
you
kys
fing
##bas
div
##ese
kvaliteten
##pot
##skon
ri
##sej
vinduer
##siden
##olie
alternativ
finansi
189
befolk
forklarer
##yttede
##holdet
sølv
otte
fan
##aard
##ball
føles
##ume
forar
##sek
kommunale
span
implementer
kab
##mos
afsted
##erence
kurser
##vne
afholdt
knæ
##att
##spiller
unikke
##rænde
biograf
forvejen
##vogn
##isterne
tilmel
diagn
sælges
tips
kna
teknisk
##rut
mødt
##eting
##algru
press
##ligheden
smerter
cookies
sørge
samfundet
opskrifter
ordet
ekstrem
ødelæg
processen
##ram
ere
##its
herning
##har
sikkerheds
krimin
##ansvar
##foreningen
##spor
svenske
levere
leverer
##regn
rac
venligst
gade
pers
##fød
##rækker
##ris
virksomhedens
kørt
##asset
##sag
##aa
egenskaber
lette
advokat
date
forsigt
dim
##sty
position
##ssystem
tæl
opfattelse
angreb
tilgængelige
fritid
sms
thor
balance
##kred
##fir
##system
##kommer
konsekvenser
##smod
kla
tablet
bidrag
erotiske
##irt
forældrene
minder
slaet
##shop
##ze
pænt
fylder
bornholm
tidlig
rod
##forbrug
##pladser
##bolig
positive
hvoraf
kontant
gebyr
udsat
hjemmet
##ærk
demokrat
lab
guds
fremmest
##forsk
44
tilføj
luks
kyst
samtlige
##ica
initi
troede
helhed
##hv
##ower
##bal
akut
tilret
##værelset
lind
indik
##ign
##lagte
betal
skønt
pum
terras
##hop
musl
marie
aktivt
##oter
samle
forventer
registreret
udvalget
pkt
ramt
anvender
duft
tilfældet
##but
danne
isra
##bi
kraftig
obje
beliggen
situationer
æb
##ierede
##sind
digital
relation
tel
dru
forbe
##aten
##oni
##ffen
##stille
besluttet
##hvert
søges
england
copenh
fremstillet
##dele
falde
sky
lægges
indsam
hyggelig
##okse
forbud
ledere
##moder
orgas
dages
godkendelse
fordelt
##mag
##ned
effektivt
##smed
65
følelse
sent
dækket
strategi
evne
tusind
grunden
larsen
kant
43
gennemføre
150
spir
##stør
vagt
mødte
bryg
kontroller
##iliteter
##æle
##rom
arene
lim
cert
benytter
eksist
parter
harde
##asker
politi
turner
fødevarer
afvik
##aster
motiver
halvdelen
institution
malgru
##kur
kalender
##fal
ve
runde
billigt
##aktiv
attra
lyse
##bygning
værker
retningslin
aftalen
##pap
186
forhandling
forretnings
kommentarer
udbr
stopp
komplet
indled
##pleje
will
havet
etableret
traditionelle
vider
akk
linje
basis
gir
frygt
vurdere
vidunder
takt
købes
benyttes
##ca
##han
##lægning
##mmeret
188
##lov
matem
##sret
ventil
kines
##lex
klog
##frit
tilgang
arsager
hospital
indtryk
besluttede
kus
fader
roligt
anmeldelser
##delinger
rust
intim
pedersen
ældste
##pil
##sjælland
udbyder
anmel
nut
tema
ungdoms
##strøm
mente
kategori
ah
historiske
##formen
leveret
ib
grupp
slog
levet
stoppe
lovgivning
##ds
landskab
nødvendigvis
uddannet
afrik
pladsen
casino
body
##oss
##oblemer
jør
restauranter
bede
oprettet
stemning
cal
ole
vaben
##aren
##løsning
lond
følte
ændres
ordre
hest
##rænd
##møl
##rejse
##synet
mangel
rapp
sejr
##bill
dame
udlej
##itz
bri
kyl
overnat
passende
overd
kontra
##idens
##fa
##gas
mængder
##speri
præsent
##lek
ydelser
##onning
##førsel
##tøj
##oseks
udlever
besæt
almindeligt
snak
##elefoner
##dire
køkkenet
udtry
41
##kkerne
lavt
markant
kru
kompon
##ovre
copenhagen
##egard
sold
hænge
programmer
##apeut
kilometer
specif
klager
##fære
fremover
tunge
show
jørgen
cas
morten
jesper
klikke
finan
spid
areal
##ction
husker
##sliv
bøl
snakke
pin
##usive
forsy
uheld
beskyttelse
læger
opført
møbler
islam
##oth
angar
line
kbh
##eng
datab
teknik
betalt
kæmp
blok
dj
##række
foredrag
betingelser
hemm
plejer
dkk
afholdes
svare
punkter
##igheds
##agement
indsigt
omt
overflade
tegne
bonus
paris
indret
kim
46
##alp
videreg
skærm
bløde
socialt
argum
##skrig
forvalt
røv
ki
væsentligt
island
##mest
prem
kommunerne
##oll
dygtige
borgerne
187
##30
adskillige
utroligt
eleg
besøger
stemmer
##værdi
hypp
iphone
registrer
##mar
fungere
##burg
##aut
sommerhus
##kør
##ya
deltog
uddannelser
friske
naet
##stal
bestemmelser
forventninger
virkning
klassisk
kombination
##spunkter
brænde
##teket
fornemm
bryllup
##uft
kollega
dagsorden
##aterede
kompetence
2003
institutioner
##verden
##ogen
tydelig
fc
##mi
handtere
stillet
##ydelser
tilrettel
positivt
lyng
lokalplan
slar
døgn
kælder
mette
##mmende
##ejser
##mindre
befolkning
##risk
ryggen
nyhedsb
##fund
##fuldt
faldet
tanken
##lan
risikoen
flad
hjertet
##hag
skolens
bøs
mørk
##press
frist
havn
forbered
hr
medmindre
brugen
udenlandske
##ydning
##bruget
udseende
lat
##hu
bordet
rart
bekendtgørelse
uv
ekspert
kvalitets
spring
svære
##sloven
redeg
bebyg
inspireret
organisationer
##skraft
forholdet
kommunalb
vokser
kompl
##redi
si
forny
##fest
blad
49
bagefter
##ony
parørende
pladser
##eland
ap
##smuligheder
sammenh
ovenstaende
darlige
engelske
arlige
valget
loven
mærket
london
##piger
udlænd
##erings
myndigheder
gæld
svaret
kiggede
##issionen
fede
oblig
deltagerne
lyset
mobilt
erstatning
tw
symbol
relativt
lægen
vurderer
befinder
munden
black
overlev
hjemmel
gangen
##maskine
samtidigt
sogn
maling
køleskab
##enskom
##iland
stammer
analyser
vm
gennemga
ideen
finger
##jeneste
##smæssig
indeb
pyn
motiv
##stiden
billederne
berør
autor
##ærke
##ino
velfærd
##aliseret
indstilling
imens
tjene
medvir
mælk
forbl
møller
omsorg
skam
##sko
##sud
maven
ligeg
resul
helsing
##osof
frederiksberg
##pan
arranger
bringe
lam
arbejdsplads
##folk
bære
hd
##owser
laves
skel
utal
##fru
##byr
kørsel
skand
##eltet
gavn
47
##ineret
arkitekt
grønts
##rof
fremad
planlægning
systemer
##igen
titel
spred
gulvet
wind
##produkter
blæ
##asen
##vises
administration
radgiver
tendens
vedligeholdelse
yde
christensen
##agning
kage
barnets
foreløb
arhundrede
##standen
att
if
anmod
##lings
beslutninger
rid
bygnings
sengen
cd
moms
##cyk
plante
størrelser
##iget
individuelle
tilgængelig
rasmussen
jub
fortsatte
##lægge
lak
vik
ynd
afslutning
pligt
værktøjer
luder
enig
##ual
stim
flertal
yog
regne
omstændigheder
pavirk
##gning
behandles
ii
nøgle
##prøve
svensk
fornøjelse
bjerg
sygeplejer
nøjagt
inddr
##illinger
##ateriale
##ination
##firma
menu
nysger
##svej
##bad
rav
fremtidige
medfører
produceret
##tage
imponer
koordin
jak
##plant
chance
lært
52
modtag
romant
nørre
besøgende
dynam
deler
seksuelle
frig
oplæg
ten
homoseks
single
##stilles
graviditet
forskellig
væsentlige
##acitet
hellere
forg
skønhed
behandlet
##dommen
foruren
send
##redse
opkræ
##lemme
fris
rige
indgaet
fugle
holdes
##ffes
trænger
øverste
mads
##forsta
##kap
ændrer
gumm
hit
herfra
øen
efterar
sæsonen
##ktive
kasse
tilpas
handicap
hæng
big
##hr
overordnede
leveres
##unt
gaden
##stet
##forsikring
claus
180
skoven
avan
kompr
acc
pavirker
sygehus
udstilling
stede
##oren
lærere
skuespiller
fragt
fylde
foreningens
akadem
kina
##angen
##kvalitet
ønsket
eksp
generalforsamlingen
træer
kerne
svarende
civil
bygningen
dans
##ics
fiske
##komne
højst
hermed
grill
amerikansk
forløbet
entrepr
##ham
kammer
maria
##iceret
beskæftigelses
mas
kasser
##klag
##bring
præget
##papir
bespar
formentlig
##ision
hørte
snar
jørg
##agerer
lund
look
danner
oprindeligt
1000
indeholde
lykke
forelig
##gave
site
##kant
##forsy
arbejdsmarked
tilstede
synd
pabeg
iv
parad
kvinden
blow
værelset
hidtil
initiativ
modsætning
atmos
eleven
##vi
ild
medie
carl
besvær
parl
tilt
99
bliv
##yttelses
pause
pigerne
mek
kunderne
forum
##skol
fryg
rens
nedsat
slid
scan
##ampen
mikk
##edyr
indberet
arv
##bens
nik
skifter
##ctor
dygtig
jurid
##ojekter
hunden
vels
vurderes
##købing
##okl
handværk
##ugle
relationer
stød
##ænder
gaver
##rid
indkomst
andels
ventet
angst
forbind
tyrk
##sborg
vælges
brede
2001
##hi
rente
foder
##vente
beregnet
maltid
øger
##projekt
##famil
idag
førte
tilføje
udform
indvend
brem
flyttet
himmel
ledelses
por
95
##ustral
##adal
opfylder
hent
##ordningen
##getøj
##imenter
bloggen
##aterne
organ
lesb
favorit
##jet
bul
hust
2002
##iør
normale
nødvendig
front
mulighederne
badeværelse
bib
statistik
diskret
begrund
opfor
bidrager
##sæ
skærmen
dræb
eb
perioder
tav
forhind
amager
##kne
biv
psykisk
billigere
##entlige
stigning
beliggenhed
##eden
vundet
rock
frø
garan
##way
austral
pok
##banen
sekret
kendet
opv
##lægges
##edel
besvar
abonnement
luften
##ns
nabo
eksamen
##ændelse
refer
xxx
hob
kalde
anmeldelse
##inet
##atorer
grønland
liter
søster
gens
tilladt
##varter
behandler
køge
talte
##iness
kolde
opløs
anses
mave
sandsynligvis
offentligt
skub
184
##beret
næstved
bis
jon
indr
##ænomen
kopi
##hul
opgør
lejligheder
planlagt
mia
forsik
##adende
##fj
##dragelse
frie
mi
##olution
virkelighed
##enhed
boks
lis
staten
specielle
udfl
parti
kritik
##brød
forskelligt
##stra
etc
56
seværd
belast
lede
##best
understre
piz
revision
##dder
##stider
installer
træder
rettet
lukke
##enten
##df
indvand
##elsesk
blanding
styrker
spanien
##ama
jakob
forel
angivet
##staltninger
midtjylland
##ævne
knud
mos
minde
kreativ
##ædt
assist
##wa
##lav
situationen
veninde
skad
lejligheden
##ili
##stoffer
selvstændig
psykolog
bestemte
vinteren
villa
fabrik
high
##ulere
##cam
tekster
spilde
sti
##bus
##rere
##vention
fortalt
##inav
hjemmesider
##produktion
http
senior
##relse
grundigt
##vitt
løfte
##alderen
asp
##ska
##slet
telefonen
ture
bakter
cat
overenskom
##sforhold
udvide
førende
mac
600
champ
begej
holdning
luksus
horm
tørre
trænings
def
kaldt
##inerende
timers
##ood
##haven
m2
demon
nul
registrering
##tekn
næppe
sildenafil
unik
indrettet
##kkelse
trak
##ktivt
ægtefæl
##skv
afspej
overalt
##børn
##inerer
##iøse
rimelig
##visninger
54
##pum
opfylde
##ellig
flyve
samarbejdspart
etablering
danskerne
ubehag
socialdem
##fond
træne
betrag
##smand
verdenskrig
thaim
##tiget
##ilde
udarbejd
amt
teksten
varier
##egnelse
nedenstaende
omvendt
mini
vært
kvindelige
størrelsen
talent
##ønne
##sbehandling
humør
maneden
##funktion
##ata
##erm
tjener
##ric
optag
paul
kriter
krigen
##ferie
ryd
##tige
indebærer
arbejdede
##side
kreative
51
bestyrelse
piller
værste
lykkes
ball
produktionen
stiger
##fektion
##æne
repræsentant
hundrede
##ænke
kurset
garden
##ysten
sty
##uc
annonc
kommunes
##riske
##onym
sports
flyttede
ansøger
staet
beskytte
pus
resultaterne
##inter
overtræ
butikken
brønd
grønt
vestlige
##ott
præcist
bladet
##hjul
forhab
##handel
alvorligt
selskaber
##ox
##ena
illustr
smager
malrettet
bibliotek
enkel
halvt
gro
siges
helsingør
maskiner
##bøger
rummer
aud
operation
city
forsøgte
sunde
innovation
bærer
pre
hader
webshop
proced
opvarm
fare
vend
##rak
##ærker
omd
glat
psykiat
svarede
##regler
kortet
plade
indretning
arter
##stav
handbold
henvendelse
##unget
priserne
ken
historisk
##skade
ansvaret
york
##isering
##sforen
tast
tilsynel
stolt
galler
forslaget
nævnes
opford
well
følg
abnede
handlinger
græs
ansætt
##præsent
ovenfor
storm
kunnet
##sled
terror
øvelser
##ækket
maskin
medlemmerne
tadal
##cerede
tilsyneladende
ryt
leverandør
##somhed
teori
hastighed
overgang
tadalafil
koldt
berlin
##indes
kæl
livsstil
##uter
kode
fuck
vendte
udkig
oversk
marg
ethvert
bivirk
sekunder
hyggelige
planen
endelige
arsagen
politikere
vanskelig
##spillet
lukkede
##økonom
reguler
medføre
udvæl
##yge
evaluering
lokalt
herom
##æm
club
sange
thailand
vegne
##cher
radi
bevæger
selskabets
foretrækker
##angel
effektive
betales
##valt
hind
bane
specifikke
alderen
bestemme
rem
konver
filosof
bob
genbrug
##lene
rusland
##muligheder
skulder
havne
##put
græsk
##inerede
##tur
afgift
software
imm
##drende
tilbydes
##asses
##sætningen
skive
væld
##utte
faktorer
##oper
##ladt
album
andres
umuligt
professor
teknolog
##dres
rat
rummet
##formand
##skat
weekenden
##elsess
kvartal
##ace
##gest
##kostninger
mes
koncert
besid
##lunde
##givningen
aftalt
##illerød
85
thaimassage
milli
blik
udd
##pperne
døre
##onom
dansker
flygtninge
fulgte
##kir
gran
##ax
element
##arter
##industri
##ejer
##sministeriet
lic
##ætning
foruden
##gelsen
##fold
ordin
overg
opbevaring
vardenafil
##bogen
konstat
modul
##ariat
forskere
##førelsen
##icia
back
##lyst
bevæge
faglig
primære
dekor
identific
konflik
svag
business
nyere
forandring
##ifikation
tvang
cv
opnaet
##erencer
##indsat
færdige
forklare
##ats
nyd
##ilitet
befolkningen
##ec
dø
pavirke
blomst
imponerende
udvalgt
##oli
gay
emnet
udmær
##skift
medlems
dække
beboere
##ley
holste
##ote
##play
forskellen
formanden
##aser
forstyr
østr
##itation
tryghed
ton
browser
færdigheder
##ygg
publ
behandle
dm
forsøgt
forhandler
forudsætning
forstand
kraftigt
##barhed
afdelinger
fyre
sans
xtra
festival
sektor
heldig
aktier
afsluttet
lytte
euro
shop
stopper
klip
drej
tabt
53
##vs
##ellen
cor
turist
introduktion
identitet
arbejdspladser
##bøl
forsknings
oplyst
##server
bø
forventet
nytar
indh
kylling
pt
fitness
blu
ressource
elskede
##agram
##møde
laur
hvori
slappe
uafhængigt
ledelsen
venlige
undtag
##ett
appar
miner
##skrav
##urop
advar
##stillende
mister
##kede
##æger
fjerde
works
ef
roman
##ona
##løn
##mæssig
aftens
##elter
##plade
barnd
mennesket
fremgang
udpeg
gennemføres
##sprodu
bio
temp
##fot
##ame
jørgensen
make
trivsel
##iler
arab
fotos
perspektiv
beton
elektronisk
tip
185
comm
reaktion
kristne
modellen
præsentere
morgenen
ligesa
klassen
##isser
modtog
64
arbejdes
kortere
##anchen
diam
kald
sendte
tilhørende
##hjem
forklaring
sørensen
smar
svømme
fasc
artiklen
hillerød
svendborg
##strateg
##ener
world
vitamin
vedligehold
flade
udvidet
tap
anbefalinger
fn
pædagogiske
##ada
stuen
power
holm
250
charl
reelt
trend
betyde
læste
slutter
enormt
kok
##rur
ulov
stole
##bert
resp
06
lyde
##ografi
revisor
bøg
##elin
stilles
værre
bestaende
##proc
fortælling
tættere
abenbart
forvente
fremmed
garn
swingerklub
slippe
2019
øre
disc
est
##klædning
nemme
##car
peber
konsekvens
virkede
##somradet
flytter
fastsat
sakaldt
ført
hjørne
alex
vedtaget
fløj
##jern
billet
diskussion
##kender
kejser
kors
##jent
okay
ankom
##komme
glemt
bringer
##klin
temmelig
personlighed
09
træffe
59
herhjemme
##skal
##manden
betragtes
udtr
knappen
enkle
separ
bager
58
##sland
patienten
fænomen
##ktiver
trykke
##iks
koge
tilsæt
værksted
hænderne
oplysning
travlt
vilje
arrangement
opføl
##rien
smal
spurgt
##navn
##spligt
anlægget
tol
prot
noveller
kræve
with
alvorlige
kamera
##forslag
tilrettelæg
hellig
virksomhederne
krydder
57
reducere
bemærkninger
seværdigheder
800
##kan
##øen
adsk
kolon
konsulent
samtykke
##emidler
##itor
eksperter
højest
02
nordisk
bedømm
finansielle
##okr
dækning
##vers
##rens
##politik
fødder
hverdage
##edskab
haret
lokaler
##mming
kontin
##sniveau
slagelse
varmen
##egnede
##centret
musikken
dukker
peger
kategorier
gn
cykler
brugerne
orgasme
dild
##go
vade
##ravet
fredericia
beder
udfører
intellig
##dre
tjekke
mont
kæmper
gev
officielle
##vægt
bøsse
##rette
times
evner
rækker
##etid
grænsen
lem
##serne
redskaber
støtter
dum
dir
##selskab
markedsføring
anna
##iserede
signal
apple
ig
entrepren
berømte
ern
eftersom
mængden
prop
horn
stram
tjenester
gad
minut
##kræft
udnytte
skriftlig
##træk
brugeren
afdelingen
opnar
##igere
scor
##revne
rekrut
08
boligen
foresla
hæl
læsning
es
ejendomme
##60
##ulation
energim
##ipp
stjerner
forholdsvis
kilder
##sninger
##رررررررر
arbejdsmarkedet
vokse
ønskes
disci
##que
rot
one
tjek
dejen
samtaler
religion
##mat
overraskende
studier
##uddannelsen
speciel
flest
##omet
cr
retfærd
hjerne
udbetaling
russiske
##vandet
pool
ekspl
##mentet
titlen
##spolitik
##ita
lug
solid
ekstremt
##etræ
søgning
glim
gider
##enterne
besøgte
##utr
rejste
##jorde
økologisk
skra
##offet
##veje
fremhæ
##sop
##11
byde
oplysningerne
mg
drømmer
##ædvan
beskæftigelse
drive
blowjob
miljøet
##aks
begivenheder
ins
grundet
vr
fjernet
gamm
05
vogn
hustru
købet
udgift
loft
##cy
##ysning
forp
##arch
præsenteret
bukser
gennemgang
eksem
##værkt
efterspørg
ordentligt
centralt
##plader
##rade
ops
##svæ
internationalt
bortset
kos
david
helle
havnen
tilknyttet
fagligt
vanskeligt
##udgifter
##givelse
##smøde
nærværende
hurtige
##skont
drag
##vækst
##th
##kredit
udbytte
##jyske
##ognen
##irksomhed
afs
eventuel
##egru
##iej
##inform
spl
stjerne
##urdering
##tager
bevare
lyngby
nordiske
foresl
britiske
email
kandidat
##følger
##rør
understøtter
slægt
##ekort
matematik
humor
oplyser
kro
baggrunden
##ængde
bestilling
##fyr
tilstrækkelig
bror
løst
definition
##rul
udsatte
grøntsager
herudover
generation
regionen
##egner
kolleger
##ilæ
##sender
kræves
##ovn
stu
velegnet
frækt
fornemmelse
sundt
##amet
huller
##com
##xe
brænder
tilfredse
dann
trukket
flag
kaste
atter
##ineres
indendørs
##skende
##start
spons
kongen
##iativer
foreninger
dvd
klubbens
##kend
usædvan
stj
rapporten
##auff
prost
##ini
kapacitet
reducer
nøje
##ump
##chen
fisker
tillige
##stemning
##dagen
##være
skandinav
blade
udveks
##løst
betød
kommunalbestyrelsen
##lund
##punkter
benz
rute
faciliteter
##bevæg
pigen
samvær
utro
co2
katte
##ement
etablere
##ain
samarbejder
prøvede
gmail
fattig
bøn
tilmelding
master
##tab
##ænde
retningslinjer
startet
overvejer
ekstraordin
##fyld
##blad
webcam
mc
forbedring
##ismen
behagelig
##ikler
driver
holbæk
lyser
him
uen
nom
byd
##dæk
##adres
tilstrækkeligt
redegør
kam
eksperimenter
ultim
##priser
oplagt
snakker
million
##bund
##alske
reserver
##pens
##bladet
forudsætninger
##ægler
##givende
tempo
roy
hovedsag
hjernen
yo
bivirkninger
aps
stiv
lol
valut
##landt
##isere
support
mission
direktiv
menuen
modsatte
indtægter
undskyld
indstillinger
##regning
##tilbud
##pression
byggeri
eff
##yldes
handtering
##slivet
kontakter
term
kalk
rumm
##retten
##onde
negative
afhængigt
120
tæller
##acc
princip
saft
opslag
##alisme
bedt
perman
annonce
##næst
kulturelle
korn
processer
øverst
bestemmer
##appet
##undervisning
socialdemokrat
interne
72
##ystemet
##italet
portræt
erklær
##arbejdes
##fly
personen
windows
fulgt
angiver
finansiering
forlade
##lerup
##back
militær
klubber
##kendelse
##vning
##ygdomme
##mynd
indgang
stærkere
##ano
skære
##videnskab
radik
##bygger
##akning
samler
firmaet
vindmøl
klinik
kas
##lejen
begejst
##40
sexet
##tilskud
udbred
##garden
desto
kommissionen
maskinen
væske
borgeren
##slovens
studiet
bevis
karl
aktion
bekræft
arrang
tillader
integration
derfra
præsentation
rejsen
##sch
protein
##kes
##agerne
hovedstaden
overst
##igelse
##ivende
beskrive
benene
mønster
forhindre
bop
skriftligt
##umer
skiftet
organisationen
##vejr
betalings
tax
søen
1999
damp
takket
##12
##perioden
##cks
forlængelse
kartof
ydre
07
fange
##vejledning
hæld
kusse
##ighederne
66
milf
##stekn
vision
abnet
copyr
udsted
lød
originale
dyrt
kvad
##egaard
tilknytning
##øbt
##redienser
sortiment
sekund
dernæst
indsatsen
konflikt
bang
1990
sikret
##skrevet
løft
ride
scene
japan
pens
copyright
harmon
opskriften
hval
##usk
forbund
69
derhjemme
følelses
indbyggere
##stillede
indblik
hug
##sammen
billigste
pizza
hvorfra
play
##pat
##sprojekt
midlertid
##telsen
##idende
##position
holstebro
høring
fængsel
regner
##ico
fase
overordnet
kjole
##yer
nylig
##øvet
##sar
konserv
teoret
forestille
skjul
muslim
##maden
forsvinder
td
smat
personoplysninger
##ysk
slap
##ente
##bringe
udenrig
norske
scenen
barne
hurtigst
##ni
dybe
##reen
israel
boet
pakker
##abelt
##smet
##havet
eksport
flyver
lejer
statens
sygdommen
gule
feltet
drøm
sydlige
##ykning
ost
##ksomme
undervisnings
##værelser
frat
pande
tour
eksterne
sovjet
domm
cre
##visende
pornost
interessante
inder
##rigt
##li
nævne
ryger
uret
##oplevelse
##jener
stræk
##pas
omsætning
nordlige
miss
arealer
##usiv
gyn
klogere
##alsk
##post
orientering
rosen
##ateret
beløbet
62
bolden
##fab
domin
##somrader
infl
fødevar
##ømmer
offentliggjort
##igter
mobile
1970
emil
##øven
##gerne
dram
##nast
ovnen
mandlige
gram
diabet
nerv
##veks
##usen
##taler
cap
repræsenterer
skaffe
folketinget
##skoler
traf
##billeder
##spunktet
##ammen
forholde
graf
misbrug
bun
gennemsnitlige
bredde
##ney
##ule
børns
##rummet
ingredienser
knog
voldsomt
##brit
##bank
begivenhed
gammelt
opkald
##æves
terrasse
anti
liber
##rukne
##ife
##agten
behovet
smarte
blandet
oplevede
##skifte
niveauer
nett
mega
##ærende
alvorlig
singler
ligefrem
##etten
nogenlunde
holland
##tion
greb
##ensborg
økologiske
vokset
gæsterne
tidlige
ess
tynd
##ames
vandløb
grin
ankl
sluttede
forvir
producenter
##biler
fokusere
megen
betydelig
skilt
inds
refle
knyttet
værdien
forelsk
##loven
##planen
##egang
døden
renovering
italienske
va
vant
##spolit
kvinderne
kunstnere
hyl
populær
spildevand
##ath
planlægge
formiddag
farvel
potentiale
##proces
meddelelse
simon
trump
indtast
koncept
03
sikkerheden
leverandører
sammenligne
bach
##anne
##teren
68
madsen
fingre
##undersøgelse
tyk
initiativer
forekommer
brut
##sikring
foreløbig
afgræn
von
##sson
aktie
rolig
##bor
henvisning
lik
erfarne
bist
tilslutning
anonym
hvidt
arsregn
staende
plak
producent
steget
overvejelser
kondom
installation
##askine
pisk
67
undgar
fødsel
##ingerne
kombineret
brud
##ræk
begrebet
##vask
krise
##esel
skyde
betragtning
spiste
senge
miste
interesserede
demonstr
mol
leds
fjord
##repræsent
##smænd
##gøres
observ
uover
##ani
pdf
hall
magasin
##una
pasta
mog
##shøj
doll
tat
##ades
repræsentanter
ansigtet
frug
bryder
kampag
logo
meld
journalist
##ssam
gemme
##kkere
egnet
skarp
##sløb
østrig
vedrører
spot
tøjet
elske
menneskelige
placeres
##rud
##oci
smide
##esen
wellness
##kunst
##spænd
bron
##ffel
arbejdskraft
stillede
dronning
aktører
psykiske
bug
fans
##legetøj
sf
principper
redskab
hvorledes
modsat
partier
sammenlignet
download
globale
soldater
dal
neutr
producerer
væggen
##løg
erotik
menstru
jubilæ
syr
##polit
hilsen
museet
medlemskab
##marked
mr
produkterne
juster
inf
løsningen
##pige
##ima
underholdning
henvender
ekster
##relser
flaske
##kj
arkitektur
mistet
producere
bragt
berettiget
liderlige
opnas
spørgesk
frost
##ysen
totalt
##ualitet
##freds
vibr
cup
##ial
borgmester
samleje
##tekst
mundt
##bag
forskelle
forsyn
udbredt
fundament
##tidig
frivillig
almen
##hot
mølle
sammenhænge
varighed
netto
##regnes
undersøgt
simpel
fakta
afpr
##orme
fradrag
styring
##danmark
atmosfære
##annon
flor
##berne
lukker
##atoriske
##ystemer
følges
kanal
enest
##sforløb
##klasse
computere
liderlig
bevægelser
kryds
##va
drøft
betydeligt
ikon
88
wil
uforpligt
##ites
sexy
##orator
##vo
beboerne
##ioter
størst
grand
##osis
engagement
inge
præsenterer
uld
forpligtet
dyrke
branchen
kommand
hk
monteret
æl
kritisk
##test
debut
##øft
bot
##ux
omhandler
kabel
investeringer
maskine
latin
discipl
studenter
lign
##andet
##tagere
netværks
##lik
##etr
louise
telefoner
acceptere
##boliger
##ografiske
ydelse
opfølgning
konfir
##stad
opb
##user
##beskriv
your
forebyggelse
##indt
muskler
regioner
##muse
levetid
##etøj
##kendte
virksomheds
##smidler
##ktivitet
##ards
udstillingen
petersen
1998
##ukker
nordsjælland
04
johannes
ordentlig
undtagelse
##itar
website
forventede
tabe
elegant
læsere
coc
fanget
hormon
sogne
##uleret
gear
mekan
##uch
storbrit
##møn
##institutioner
##skærm
minutters
etn
##rifter
##ærket
slipper
simple
børnenes
optimale
##avisen
skibe
##bør
straf
etage
98
inviteret
##byen
overenskomst
broder
smykker
##ødning
komprom
63
bandet
##personer
sover
##phones
##holt
fur
fad
uforpligtende
##ikkerne
workshop
##oph
beholder
##ekn
individuel
##gel
arme
interessen
snap
ec
materialet
##rød
##rel
had
##fløj
##atoren
##datter
ulem
##historie
stadigvæk
iværksætter
forfatteren
smagen
enestaende
alarm
##lægger
##cykel
julem
foreligger
lib
##bragt
kommerci
kræn
fantasi
varsel
koncep
uly
glemme
##scenter
shopp
##frist
bras
spa
##kamp
beskrives
vo
##ye
tob
##mo
##status
##dato
forega
pir
integreret
schwe
bevidsthed
manu
færø
overrasket
klasser
karen
##aste
optagelse
længst
fjernes
bopæl
##15
bestod
##organisation
##ktøren
##sket
green
##alisere
storbritann
beregning
usikker
##grundlag
##aftale
forrige
##18
farven
foretager
fravær
skuff
begreb
kaff
##problemer
sammenhængende
digt
##ræning
ære
skabte
formul
femin
faktor
bekl
affil
behageligt
udarbejde
sving
ændrede
##aktioner
rappor
delvist
sperm
barndom
##ækken
levede
refleks
gemmer
##andens
trekant
designer
filer
kontrollere
vægge
ligegyld
computeren
patter
##skode
##æve
danish
tøm
##linge
udsalg
sandt
kristian
##adelse
planlægger
fremtidens
ejeren
##parken
blond
parterne
micros
næse
eksempl
savner
hhv
##eler
anført
format
accept
flyg
##udb
base
pi
##amentet
salat
blo
##sleder
jobbet
bryde
andelen
fuldstænd
tyder
jordens
##idige
numre
##illingen
##artet
fysioter
slik
mobiltelefon
investere
brygger
##areal
bekæmp
opstaet
generel
bestyrelsesmed
74
##kørsel
presset
##billet
##rop
konstruktion
belæg
konkurrencen
tegnet
bygges
bordel
##parti
poly
##´s
##atten
henvises
vort
populært
olsen
anim
m²
##cca
##kasse
creme
grundlagt
princippet
kanten
individuelt
##talte
##ografisk
farligt
krops
##iserende
sorg
afsked
fremstar
ambul
spænding
robot
ekstern
bent
dybde
kanaler
forsigtigt
fremmede
yout
rec
##result
liggende
##iere
##istens
synlig
citron
arbejdspladsen
datoer
ophør
##istrik
reklame
pædagogisk
romer
afbr
##aften
##val
kaj
##forsyning
opdaget
indsatser
opgrader
fastholde
sædvanlige
mors
##egen
kassen
byradet
afslappet
offic
##æren
urin
flydende
##aede
read
opstod
taske
hjalp
stillinger
afgørelsen
kundeservice
argumenter
jazz
1980
##inerne
forpligtelser
ler
##mmede
unikt
##uge
##fred
lolland
more
kommenter
seg
700
##skaff
miljøm
##stilbud
##sselskab
sønderjylland
udviklede
tube
##agelse
instagram
understøtte
konting
udvend
##uret
##ommens
mich
involveret
derude
kompleks
1800
##assist
opsig
skrædder
gig
tilføjer
##merende
##anerne
dennes
trygt
hukomm
jordbær
##oværd
##ryg
kw
hjemmelavet
indført
forandringer
herved
kvadrat
mangfold
##ordet
søgte
##sfri
3d
print
sgu
##sbes
smage
kravene
dommer
styrket
foranstaltninger
##arr
tall
##umin
forhabentlig
##sbet
aab
konkurrenc
##sti
branche
æstet
##krig
##kkel
henviser
tilfredsstillende
human
hylde
fiskeri
##vide
maneders
forbehold
##sevne
##fre
opsætning
phil
fastsættes
##agtig
fremstilling
##fac
holdninger
brøndby
##kommet
##erie
##arn
døgnet
##arealer
##deligt
##somrade
hentet
hæve
##ledningen
arkiv
nøjes
astr
termin
opmærksomme
beboer
dannet
past
lægemidler
rose
##bekendt
gevinst
##svirksomhed
bakke
##hn
samlinger
tabte
værket
revolution
son
##iam
klarer
behandlinger
##regel
##mere
mex
##skilt
##sbeg
solgte
udskiftning
selvstændigt
##gange
spist
lyden
indledning
udlejning
negativ
##dede
##avne
fløde
mikro
##skomm
desser
komplek
jack
##væl
embed
poin
overfladen
gymnast
træningen
##ktoren
cig
services
##kortet
crem
tide
183
bestilt
iværksæt
supplerende
smukkeste
strikke
unød
tegnes
drevet
put
skidt
bæl
ml
##ophold
##tre
værelserne
##meter
tegner
bam
##ara
##umen
##verne
microsoft
tomm
feed
banken
diabetes
ork
potentielle
61
##lær
uend
beredskab
vine
gemt
opfyld
høst
indbygget
bb
forsam
##ging
regionale
tilbuddet
bomuld
##iter
celler
optræder
ond
word
svamp
tildelt
##25
78
strid
afk
##konstru
posten
note
##eliv
resterende
79
sul
emp
##cm
yoga
zo
##pul
die
##bid
##box
forlod
marketing
nyhedsbrev
86
skabes
hjørring
##stiller
eva
kloak
indbet
kniv
pak
etableres
##læggelse
bh
respekter
77
hjulpet
##sperson
##astrof
##hyd
fair
oplyse
spær
ventede
selvstændige
udviklings
##typer
##osen
hovedstad
koste
##edr
##reber
beslutter
danse
problemstillinger
udskriv
spin
vacc
faget
##oppens
pavirket
##bygget
sidstnævnte
##ummer
begrænsninger
##habil
##midler
træde
videnskabelige
##progra
samarbejdspartnere
tilpasset
halsen
overvægt
floden
sammenligning
væsen
inse
##græn
##aktør
størsted
opdagede
milliarder
kartofler
opgav
##bon
wal
stige
eder
##faldet
forvand
tone
##anken
vedvarende
dagpenge
##kontrol
palæg
restauranten
bød
cool
##oritet
##besøg
##gul
tilpasse
##uller
##styrke
jød
afsæt
delvis
udnævn
linjer
jubilæum
temaer
##behov
oplevelsen
##gle
##ædagog
##ksen
##sprogram
polen
tvært
elektroniske
træffes
indsamling
spidsen
##ordninger
afgang
##stjen
ager
analys
kilo
veget
##livet
forkerte
paske
parken
gren
##mot
anmodning
jose
##ybe
beskytter
##mma
##creme
forekomme
prom
##forslaget
videos
anbefal
opdager
rense
repræsenteret
##periode
##dags
plastik
elevernes
vurderet
##ikkens
##vidste
##anvend
korrekte
myst
varierer
landshold
##ulære
vejleder
home
tdc
##ati
optimalt
platform
check
testet
italiensk
##planer
jævnligt
bogstav
tilføjet
sags
snarere
argang
strip
gennemgaet
##agtige
forkæl
mdr
ovn
depression
folketing
opfordrer
vendt
rigeligt
wo
ster
##19
rets
##oser
høn
##obe
##14
##skar
sønderborg
##pad
##liste
stren
##iber
87
effekter
tilhører
sparer
##ella
##zon
dræbt
skæb
venskab
##amm
sikres
tilfredshed
##miljø
fokuserer
##ferien
tykke
professionelt
schweiz
omh
sprøjte
skibet
forstas
størstedelen
politikerne
gold
afholder
##ala
fjernvarme
glemmer
plader
forventning
##data
varem
##sser
##ificerede
rulle
chauff
sværere
profiler
beskad
veninder
udgangen
##instru
##egarden
kontanthjælp
funktionen
fordeling
hvorpa
storbritannien
ringer
ramte
betjen
1960
##ieret
##frastruktur
steen
lærte
rødt
videregaende
dildo
kongelige
træet
##industrien
##13
sexlegetøj
forlag
##væsen
tynde
##rejser
noter
fabri
fødslen
thi
math
##visningen
##sbesk
rober
##æssige
cover
##atorisk
avisen
sandheden
terræn
sponsor
arbejdst
##pine
##indhold
mov
læses
skander
reduceret
fødevare
ærlig
faktura
specifikt
##vogne
73
##fyn
lover
##sministeren
ryst
##osp
optimal
mikkel
##svæsen
stoppede
##anda
turister
opvarmning
blan
##pakke
##nor
##si
rejst
billetter
effekten
virt
##ianter
børnehave
tilber
underviser
anvendte
len
1997
ipad
anbefaling
jøder
kærligheden
##forløbet
eksam
##ifi
bøj
borde
##tens
##kons
passion
forlader
parlament
##træning
administrative
faktum
##okaler
##evne
##mes
drikker
hyd
traditionel
##enting
ansættelses
##aliserede
hede
utallige
hjemmefra
aspekter
males
tung
foretrukne
seksuel
virkelige
ift
permanent
motivation
##prisen
veks
oversku
vejer
modtagelse
sikring
optage
mistede
##gebyr
herren
##gra
aner
bygher
bay
asyl
folkeskolen
##kage
georg
legal
eksisterer
tegninger
charmerende
pla
skabel
risikerer
##oplevelser
albu
##speci
ejendomsm
##sgade
##sprocessen
##elet
forbedringer
tredj
trækkes
ze
##styrelsens
kriterier
emball
ovennævnte
europæisk
##ilbud
atom
gader
forsink
fastsl
dun
videns
##valtningen
accepterer
##ringes
glide
fortællinger
division
89
ydes
##itten
bestræ
udefra
##ikal
halve
##meddel
##information
76
##24
##holdning
##analyse
##iblandt
klat
hvorved
udfylde
non
##ænkning
talmod
##rettede
byggeriet
isolering
##øser
pæne
##øjt
herred
næg
##radgiver
valby
##spring
formue
menstruation
smartphones
colle
##issen
##hjel
troværd
##point
sved
repu
##sfag
##enden
sites
genstande
##ooth
belg
ejendoms
##inci
96
leger
beskæftiger
##ellet
sandhed
truffet
rammerne
pabegynd
spændt
udarbejdelse
vifte
vandret
bakterier
baden
##gørende
bureau
##yste
udmærket
##bureau
##stig
##feltet
hjælpemidler
##ændringer
eksklusive
##uf
pant
reduktion
flitt
alles
firmaer
opløsning
standarder
ansættelse
persond
input
##aming
##ificering
søgt
chok
adam
##ribut
kaldte
##middel
##brog
elast
licens
mælke
sofaen
temperaturen
reform
udarbejdes
melde
inkluderet
angri
budskab
flok
##ners
teat
detail
##esko
hemmelig
##hoved
frems
belysning
evnen
##rerer
medierne
##skur
skanderborg
nærings
politiken
##sholm
opbygning
frivilligt
indv
##sj
fla
konklusion
##midt
byr
##onor
homo
##program
##stjeneste
mess
kampagne
røn
deltaget
##rapporten
##adresse
vig
batteri
##skop
stav
luk
ure
snit
tværtimod
afrika
forebygge
ordning
netværket
afkast
forbedret
køretøjer
dagtilbud
handkl
lufthavnen
konger
rug
ejere
gyl
##hurt
##ateres
himlen
skulpt
##skader
##aterer
##bs
laborator
old
enorme
nedbr
samles
##rent
konsul
vinduet
afslapp
coach
##kammer
discla
##ulighed
fortid
chancen
##ostrup
melod
instruktør
epis
handværker
##verdenen
##yper
endeligt
parret
##ænkt
matcher
##lege
disclaimer
##splanen
øjeblikk
forberedt
forside
stoffet
##inens
jyske
konflikter
hals
ukendt
shopping
ded
forsyning
tilbudt
house
hoppe
etik
this
spilles
spillerne
bd
##centre
tusinde
##saftale
selvm
afspejler
homoseksuelle
told
sæde
##speriode
kinesiske
kompens
frederikshavn
faktiske
festiv
display
pornostjerne
youtube
tillykke
##ai
##afrik
skæv
citat
##isol
returner
louis
##aterialer
portug
renter
kategorien
skarpe
##ødder
farlige
##branchen
spisest
##sbyg
udforske
##anere
##drages
bond
læber
papeg
##ory
tusindvis
forsikringen
serveret
mands
fold
opstart
sædceller
opdatering
##højde
skum
observer
abningstider
ingenting
pod
kundens
##ationerne
bjørn
menneskets
ovenpa
varmepum
kjær
score
ugers
royal
skriftlige
eftermiddagen
##fulgt
lot
daværende
beretning
personal
##ague
blodet
rimeligt
gavekort
##endelsen
##fødte
kompromis
forsiden
koncerter
vvs
landsd
tv2
fjerner
##venlig
##70
##ækkende
##ml
179
##spris
##rapp
##ical
##skema
##ype
##egnes
2020
##gives
kødet
##stykke
medvirk
tandlæge
##elever
salget
vindue
forøg
formar
drage
##førende
økonomien
apps
bedes
palid
##edal
partiet
original
mails
alders
##yen
##arne
##atch
##fod
virus
slank
##iserer
opleves
naz
almene
religiøse
bit
inc
muskel
pøl
fremtræ
##unge
beskyttet
ce
julen
alting
##baseret
##rukket
enheden
##olde
global
tum
82
retss
skor
sadant
besøgt
dybere
debatten
##ursus
street
dipl
kraftige
has
##indlæg
bac
ordningen
fortjener
tech
glip
mem
parf
tarn
pic
vug
##16
sande
##prøver
ferien
orange
pakket
udkom
medicinsk
begrænse
drengene
følelsen
##bukser
bytte
smed
japanske
stam
##ary
montering
skilsm
længden
##omkostninger
rader
ogsaa
tidens
installeret
83
sanger
##ript
immun
affilierede
uop
ankomst
præmie
##fast
##stens
##uddannelser
indien
##eled
afb
skema
##ran
mav
mødre
udvidelse
veter
##værdige
voksende
strø
forvaltning
tons
sekretariat
##ulerer
biblioteket
##profil
1996
venligt
smartphone
##espørg
92
##nens
diskutere
telt
##aliteten
uund
df
gennemførelse
arbejdsløs
bæredygtig
endt
overtog
##ous
##ariske
opbygget
transpor
angel
navig
##appar
##cts
tvunget
##omst
##yrer
parall
fællesskabet
bundet
kristend
##sbr
guitar
bestilte
regning
beregnes
##dik
##4for
stolte
##hh
must
##askiner
##klen
tro4for
foruds
linket
elite
haver
vinkel
voksede
arbejdstid
speciale
als
brændstof
betjening
alternative
abnes
##sprojekter
skot
badeværelset
##oppet
ringsted
formidling
gummi
infrastruktur
tankerne
##ida
##elskab
##kul
typen
##rerede
hvile
##styring
angive
overskrift
trives
katol
aftensmad
ravarer
banker
parforhold
sec
##mærker
ægtefælle
##vilkar
reflekter
morg
knu
binde
##anlægget
##indsats
##afgift
øjet
##itiv
opbygge
junior
##till
identificere
los
##ienterne
##ords
indbrud
fonden
##venlige
##zen
blødt
nederst
udkast
##sproc
vægttab
opretholde
##sprodukter
union
bonde
##astrup
reparation
##delen
meningen
##abler
kravet
unges
lut
inspirerende
sproget
kontoret
##strækning
bestiller
indeks
##zone
føres
kroppens
falster
gh
sun
parat
birg
bestemmelse
ødelægge
tværfag
menneskeret
lønmod
klagen
lytter
##gennem
heldige
udsigten
##ti
skem
##aliteter
##17
##reder
klø
indtægt
##ern
mellemrum
fejre
##bede
usikkerhed
hert
trist
##sprogra
regulering
84
##sproblemer
begreber
teknikker
loftet
røre
prins
garder
grundig
manglede
##eje
forstaet
lanet
vidner
aw
begrav
samvitt
##brudt
kvarter
##spension
##stillings
sjældne
race
skygge
sandsynlighed
##geren
cand
forordning
##kultur
alumin
systematisk
william
husdyr
forberede
benzin
magnet
hygiej
anerkendt
tilmelde
wik
svage
køle
forbudt
udsl
hf
administrer
seksuelt
rich
hvidovre
##skin
fet
livmoder
tiltrække
klippe
##foreninger
malgruppe
##imeter
##idte
radet
skit
dømt
##saktiv
##egning
egentlige
##ættet
overvagning
filter
anerkendelse
##ymp
##tigheder
regnet
##afdeling
pakken
stemningen
##peten
##xt
##ool
tegning
skuespil
maksimalt
##krav
pia
##000
kirsten
garant
girl
##aps
##ands
opbevares
##plo
open
udbetalt
regeringens
rekord
lovens
##rich
sams
##fundet
officielt
klinisk
udgav
nævner
##ivelse
fog
##markedet
##ygdom
rh
arrække
formel
##ives
kvalifik
øer
iii
nervøs
udførelse
opbakning
diplom
krog
langsigt
##ældre
nætter
palæst
##ress
kaster
league
tilsk
øvelse
erind
93
ingeniør
opdage
##icerede
##aminer
malene
##aka
redde
ødelagt
spanske
##rob
hæk
fornød
##sform
gucca
ryge
gravide
##kær
efterløn
stock
undersøger
178
indledende
taller
anelse
tændt
oversættelse
indstillet
##ømmet
kirur
arrangementet
auto
dimension
søer
eksped
##oklip
ansøgningen
##sdage
lægemiddel
udfordrende
spansk
vink
infektion
domstol
svine
##kvens
mønstre
##pension
besta
enden
##skede
##institution
udvikles
afgørelser
andreas
##ydelses
referat
ruten
import
opdelt
lene
seriøst
##fyldt
##riterende
##ray
velkomne
##yggeligt
artier
betegn
juridiske
1995
medfør
slette
toget
hvidløg
west
adgangskode
dt
##billede
medarbejderen
konkluder
##ævner
metoden
97
læseren
##otiske
samspil
##farve
hang
universitetet
keram
sau
forinden
##ev
uni
fiber
australien
good
kandidater
hellige
aluminium
hanne
rask
nykøbing
sed
##bade
shem
overraskelse
kysten
katastrof
laveste
sult
mærkeligt
understreger
snor
sandsynligt
##ians
spek
king
premier
konceptet
##teker
##itive
passager
aktuelt
tos
##chat
teste
placere
strækker
##piller
tønder
foreslar
indk
fleksibel
sikke
##rænding
vidunderlige
##bordet
udlændinge
eksamens
##iges
tradte
carsten
##taj
skudt
##draget
stemp
dyrere
##ækker
##ppes
digitalt
godkendte
##umre
##sbeting
ox
slip
tillade
##anceret
omhand
box
varieret
##agtigt
##ience
mix
strik
tarm
##sonen
71
inspirere
synlige
kommunikere
søskende
##stur
menigheds
juridisk
harry
kirker
##21
køleskabet
##klubben
dl
hovedsageligt
mændene
##ors
##act
kliniske
110
##sre
bestyrelsens
prinses
cigaret
forbr
##amper
konference
ic
sagens
##dren
præsenteres
sod
##baner
##core
##skib
##afdelingen
dreje
##bygningen
nærmer
reklamer
nordvest
##esvig
berling
esp
##autom
neur
partnere
serier
##leden
vedtægter
##ofte
##ki
##skræ
obs
træffer
plej
##fug
indsig
scenar
soveværelse
##parten
##lovens
##spørg
indrømme
##ageret
##elovens
oprør
##du
fuldstændigt
##ited
budgettet
cyklen
##yden
dab
præstation
kongens
##orth
skuffet
datings
væn
##værdig
erg
##brugt
tang
1900
##arked
afhent
inviterer
ansøgninger
lighed
scener
1950
betingelserne
applik
fyldte
##ærm
##iøs
##staet
mørkt
grundlaget
160
magn
hop
andro
fastsætte
##sbid
##mf
175
sangen
ligget
denmark
mht
##ægten
gennemsigt
haderslev
smit
afsnittet
udsagn
##ize
##gelser
##dy
cast
amp
spejl
##ums
##skontrol
komplekse
cle
spirit
erob
rødovre
vrede
tørt
imødekommende
##viste
femte
##ktører
rehabil
##ementer
##lagde
makeup
prostitu
##ee
stiftet
##roen
kristus
fryser
##elor
befri
usb
støvler
##iverset
vul
lærerne
##smag
indire
##lel
ilt
udpeget
kneppe
variere
##avnet
melder
##omi
ansvarlige
eje
anvendelsen
##lut
ruder
##yng
byrad
hegn
##støtte
figurer
atlet
øges
benyttet
marker
medlemsstat
rykker
festen
onde
hart
græske
##landsk
##ummet
daniel
lovgivningen
tætte
##vang
stab
tallene
##maler
sviger
indirekte
demokrati
familiens
##raktive
sygeplejerske
ærligt
coun
##armen
frik
screen
##give
##ae
finalen
videoen
##erencen
hemmelighed
udlejer
pille
varetage
husets
langvar
videoklip
bragte
semin
kontingent
medvirke
ubet
##esex
servicen
færdigt
sem
morgenmaden
skjold
##ussen
tyrkiet
##møder
apos
strej
skræddersy
##isted
trafikken
slim
brune
kh
##overe
overnatning
##eser
##flade
dosis
gæste
lesbisk
##værdier
traditionelt
robert
marian
1992
##entre
projektets
inkluderer
sofie
skjult
tilsammen
##forme
##maling
sammensat
bussen
bisk
springe
udgifterne
forbliver
ordene
erst
kager
formod
##lejning
gymnasium
##god
##ypt
flo
##resund
##shosp
##iko
forberedelse
ekspon
##betændelse
forsker
omfatte
porte
henvendelser
varianter
##lens
flex
war
run
klæde
analyt
kameraet
tiv
##wood
købmand
ejet
bekymring
velsmag
redegørelse
##dene
børnet
##por
##olin
ron
efterskole
kvalificeret
landskabet
dyrker
juletræ
1994
produktions
dispens
##rudt
fig
##itis
indeholdt
##æver
irriterende
attraktive
signaler
forbindelser
opvaske
latter
##strategi
lidelser
##cast
autent
konvention
tilmeldt
mak
habet
forfattere
ordinære
arrangeret
##iche
gel
##skel
niveauet
kæledyr
##projekter
hobby
##install
rekruttering
##teg
viet
##tigede
bekymret
##jour
nederlag
lugt
may
genstand
##forn
irri
ringede
ik
domæn
iagt
trykker
##ugler
legem
dedik
multi
gods
elektrisk
##ates
##arige
portion
##annoncer
veder
implementering
glostrup
dukke
bekæm
vinen
samtalen
deles
adop
stadion
patienterne
uges
##eløs
arlig
afslører
##melding
strategisk
drengen
hjørnet
##oe
kærlig
##orienteret
##abon
##økken
foregik
udgangspunktet
herrer
tidspunktet
jom
gennemgar
##uderende
##ison
perform
separat
reagerer
løfter
efterspørgsel
naar
samvittighed
class
serv
tegl
tidspunkter
##holdende
cykelt
krævede
nederste
forsvandt
##ligter
flensborg
godkendes
kult
android
anlagt
victor
brasil
underligt
opp
##magt
ærger
from
##varet
omgivet
fæ
pern
realkredit
vægten
fattige
ophav
db
nas
negle
##mak
herfor
klient
besvare
##udbyder
##reve
virkeligt
indtræ
##istan
##asing
host
stund
##kelse
taber
opgaverne
siderne
dirig
wa
##ideret
##ælde
klædt
##gik
##nel
win
wi
##ryk
##klet
##ting
herlev
madlav
fortrol
##fladen
innovative
undert
##hjer
opdagelse
beskat
mogens
nyborg
barns
grundvand
detalj
monteres
##læde
gevin
squ
brø
japansk
##arv
##kob
entreprenør
bik
magten
lykkelig
##ererer
##pligtige
##ding
albert
selvmord
##key
##holdte
erstatte
##skriver
landsdækkende
##apning
nærliggende
vinden
præcise
##butik
malsætning
##stolen
##begræn
kæde
vitaminer
##æge
spekt
jobs
##ftere
irak
tekstil
bredband
##pool
ihjel
genet
1993
journalister
room
##kat
kemi
terapi
ax
adresser
##ism
opnaede
##skridt
##rim
bøgerne
øgede
chancer
gennemsnitlig
briller
gribe
split
pend
##regne
rast
fantasier
udtaler
sammensætning
kosttilskud
tilgængeligt
henning
tu
visit
torben
pensions
arom
##zer
armen
hinandens
##stud
tilbag
drifts
opad
rejs
sagsbehandling
fritids
pier
flow
mistanke
poulsen
overgreb
norsk
ida
##sving
sexede
russisk
kritiske
sejler
kronisk
agt
omegn
afholde
grov
indsk
94
##fejl
samsung
##vidde
sparring
kran
fungerede
forank
trygge
enighed
##ænker
##smiljø
diagnost
overholde
oprindelig
planlagte
uddan
yngste
hekt
##værdien
privatliv
##spladsen
sut
##pædagog
##ilj
velly
udgøre
skolerne
##kontakt
ged
oprindelse
afløb
##itering
fandtes
smidt
##stole
landbruget
ugens
canada
livets
##spillere
hjælpsomme
##korn
rækkefølge
##rethe
##sfort
analysen
storby
##ktail
forsynet
fingrene
trakt
##80
bredere
##sformer
bæredygtighed
omdrej
##abe
##22
fanger
flu
roller
kollegaer
##interes
afkl
##jælp
spejder
middelalder
kunsten
forleden
##lod
##arbejdere
##pes
rapporter
sundhedsvæsen
opdatere
medens
james
beslutte
##skiftet
##forbruget
##hente
##ppede
##ælk
tomme
##oline
velsmagende
konfirm
##gerende
##jord
##tain
kobber
drikkevarer
##maskiner
charlotte
reaktioner
spredt
##inket
##vem
bebyggelse
næsen
pud
opgørelse
##ora
cros
doc
forarsage
albummet
##kkene
##omer
stak
feedback
oprettelse
tilhør
folkem
pej
anbring
##sperioden
bogsta
##oppede
prog
##direktør
arkæ
svampe
værende
##sgaard
tilfældigt
beløn
adskiller
##helm
##fonden
kasper
distribut
akvar
beslutningen
overvejende
køretøj
dyrene
downloade
beskeder
avancerede
##otisk
##saktiviteter
guler
kirkens
##upunkt
egentligt
##fælde
##sættelsen
flemming
een
forespørg
doser
afgøre
##type
##iseres
omtr
beholde
##ativer
laks
##egler
maltider
merc
fleksibilitet
ped
tennis
140
##sforsikring
ast
kemikal
laser
manuskri
rytter
gardiner
##virksomheder
pressemeddel
public
##orts
##støj
handlede
ulykke
##ops
generationer
frustr
lady
energik
velkomst
skulde
mari
kombinere
list
swe
spark
digte
perspektiver
##organisationer
dress
##visor
markeret
##az
justit
feri
##værktøj
##igtig
racer
##endelser
synet
ds
aaben
##bur
##terings
loy
##egle
inddrage
##anterne
arbejdsopgaver
svin
inten
slaget
##spekt
##trad
naturvidenskab
##aritet
begravet
vurderingen
siddende
aggr
klaus
efterlader
##mændene
skiftede
folkeparti
typiske
udtrykke
udleveret
##ikre
valuta
romantisk
##sekret
forudsætter
action
besparelser
østerbro
fastsætter
flytning
dominans
aftalte
poster
elektriske
træl
spill
##slaet
beskyttelses
ungar
problemerne
forurening
##tog
blid
lejem
instrument
ving
muslimer
vandre
risici
##ageren
##fit
filen
spild
##slisten
##ebr
ydm
bakker
##dam
130
omgivelserne
##kanten
##cia
ventilation
nydelse
sektion
lit
##systemet
ejendomsmægler
detaljeret
reserv
franc
misforsta
allian
programm
skind
##domm
henne
underholdende
klikker
norden
sele
patri
guid
uafhængige
overført
centret
vred
oplyste
voldsom
anerkendte
group
##spørgsmal
interviews
formidle
##ari
salgs
løses
rib
fm
forelsket
deraf
##station
##omb
kvinders
synge
defineret
##eloven
sejle
##ametre
impon
drama
jean
glimrende
##listen
##hs
markeder
avanceret
lederen
gryde
##stød
efterfulgt
##felt
præster
rødder
##ots
##yrdes
alu
rese
forholdene
cens
##skrivning
menneskers
forestilling
regnskabs
afgifter
##nemm
170
begyndelse
indehaver
hospitalet
plet
incl
##farvet
inklusive
177
##beløb
kedeligt
cvr
suver
##valget
udtalelse
forhøjet
university
##drift
antik
##mind
komponenter
ballerup
afsluttes
teknologier
konservative
henter
sutte
forudgaende
##stegn
slikke
##øbler
##okratisk
dæm
berg
esk
##agerede
halvar
forf
jonas
sant
berlingske
yderste
optimere
provin
mødtes
happ
pavirkning
touch
meldt
##celle
skjulte
turde
##barn
baner
##ents
blande
pink
forbrugere
##slan
##smateriale
cra
varde
##ulde
overbevist
skyg
bøde
##værdigt
finansier
finn
##seng
henvende
##hast
lekt
kalorier
##ondition
fran
ministeren
driften
##sløse
medal
attraktiv
ankommer
telefonnummer
kore
sydvest
##raf
##ms
indkal
batterier
bekymringer
bern
##smødet
##bedste
thisted
##øvede
##cert
##fabrik
frid
ensartet
sum
##betjening
##seks
udsm
svagt
##kkelig
anbefalet
barcel
jomfru
##alende
menings
kemiske
##wich
taastrup
adressen
stillingen
motoren
bestemmelsen
##ega
aflæ
##dal
##boy
lærings
højskole
græken
##pres
bagt
galleri
jag
naboer
foden
##klagede
##gaet
væv
spænder
mærkes
##angreb
unger
case
##ifte
cu
offer
regelmæssigt
125
syl
vill
lejr
regnskabet
kvæl
skræmmende
trof
rede
ultra
##værelsen
familiem
speed
protest
evangel
##hæft
myt
europas
fornuftigt
##gener
rist
que
sydøst
citater
##shistor
bjerge
dannes
derpa
##størrelse
##øvelse
shemale
##ynge
utilfreds
forbinder
sæbe
særskilt
hp
##aku
østjylland
##gelses
speciall
smilede
klinikken
transa
inspe
##brev
gyldne
robust
##ængen
konstatere
finland
bagsiden
fødderne
##mærke
##ulin
##frokost
##øster
seksualitet
kaptaj
food
##øves
diameter
##egne
indføre
hyp
æble
sjælden
dsb
kvitter
indbyrdes
##stemt
etablerede
konkurr
stramme
spræn
færøerne
##inationer
væsentligste
honning
##foto
vanvitt
invester
##ulær
farverne
farvet
udstillinger
ande
værelses
dagsordenen
##fugle
pad
militære
samfunds
udsendt
management
##kalender
uskyld
kreditkort
rejsende
reel
velfun
yndling
kokos
fremskridt
##fol
dokumentar
lovligt
hovedperson
ane
rub
jakke
##byggeri
bitter
##sbor
##raa
firk
trætte
kvadratmeter
hyppig
folks
##gl
erklæring
førtid
teamet
instrumenter
trop
styres
##lespil
##uddannede
dokumentere
slem
ration
dødsf
pernille
møbel
##itutter
ukra
mørket
forbrugerne
norde
##ces
traditioner
jav
poker
udnyttelse
https
##stik
cocktail
fremgangsm
panden
julie
etager
##avede
blind
gymnastik
voldsomme
##ækning
afvig
act
udlænding
afsat
##umb
erektion
##spladser
solidt
skild
pind
egner
events
nærvær
afslør
##stog
passede
jacobsen
kinesisk
logge
flasker
kalund
zoo
ever
frugter
cru
rumme
registrerede
##artikler
broen
1920
##atører
klit
kartoff
jæger
velvære
ministeriet
synger
velfungerende
kvaliteter
##skvalitet
##trækning
yt
nordic
##oke
greve
katalog
hovedpine
veld
##sal
skaret
skatter
##usioner
amal
login
forebyggende
##vad
udad
silik
foregaende
kreativitet
vanskeligheder
pels
kreds
indbydende
springer
white
bekæmpelse
buks
##igennem
betydningen
##stilsynet
kram
##foder
##hel
trusser
fæst
omkostningerne
##gæng
ægge
dynamisk
myr
##sset
underskud
slanke
##esult
afsluttende
ank
asiat
skrives
kælderen
holdbarhed
formen
##safgift
pose
opretter
tabletter
##aktionen
afslappende
kæresten
praktiserende
pun
medfølger
udby
vejledningen
aldre
matrik
velkendte
breve
institutionen
ernæring
omtalt
udbydere
##itution
bestand
støb
bagud
##san
kloster
900
##ansøg
erhvervslivet
mt
køres
forskerne
pumpe
##lægen
##no
seo
anm
kjoler
sikrede
hensigtsmæssigt
udsp
alternativt
##ibi
##gisk
udsættes
begaet
omradets
variation
kalundborg
##ramme
spørgeskema
dominerende
instruktion
kørekort
sommerferien
rollen
kriminalitet
##veri
angrebet
østlige
thy
##deren
call
rester
koll
##plac
##nov
ambition
##eleder
køns
##log
##kurren
gensidig
tørret
##stykker
ambit
hammer
##ægte
asien
integ
forholder
returret
radets
fysik
effektivitet
afklar
##ainer
kastet
kontrast
detaljerede
rud
indvandrere
hallen
##partner
##rug
navnlig
serveres
##bespar
gennemførte
advarsel
overtaget
twitter
##usionen
##artner
asf
forælder
nyligt
omtrent
##sbeløb
##ligste
nuancer
radhus
brændende
midlertidig
eksplos
styret
specialiseret
##tagen
mindske
get
forfær
delte
##kassen
1991
konstateret
reelle
tær
styrer
##itim
vaner
##talere
kigget
##fyldte
##ky
girls
##ffekt
sofa
##aland
tallerken
nap
##frihed
ledende
sygepleje
##do
kvik
##selskaber
##agende
realistisk
homoseksuel
lamper
minus
tyndt
tilgode
receptionen
that
gun
grim
##tagelser
allergi
##orge
camilla
turnering
thomsen
notat
løser
demens
##lyd
bekræfter
statslige
forarsaget
##allere
oliven
flyttes
midter
##ælt
drives
toner
ofre
besiddelse
kommunikations
relateret
##lesk
flod
kompetente
##ologien
ub
udgiver
malgruppen
##massage
##gers
##uten
blodtryk
1500
gab
brian
##alde
cali
udstrækning
hemmelige
strategiske
##aterialet
spillem
falske
rumæn
pest
installationer
fron
sammenlign
##zy
begejstret
wifi
##flix
kommission
##opgave
kontakten
uplo
prædik
nørrebro
lovet
overføres
gast
##kode
offentligheden
slottet
bistand
koncentration
stoppet
tilgængelighed
fore
garanteret
faderen
gammeldags
jorde
skiver
tungt
udgaver
nysgerrig
##bræt
hyper
ih
forre
hændelser
beund
##sforening
styrelsen
kirkegard
landsbyen
gær
bestemmelserne
##stidspunktet
overholder
midlertidigt
overtage
##okke
nikola
##elev
meddelt
budd
internt
##omraderne
erstattet
revet
##udviklingen
##stue
sygedag
hævet
##stein
##dating
##amerika
mærkede
brystet
tæppe
ikraft
ribe
overn
herinde
##forbund
kendes
analysere
##hverv
dagene
hvortil
vedligeholdelses
udstedt
middelfart
refunder
medvirkende
light
##arrange
vesterbro
##splaner
##drivende
selvtill
##nets
afsender
drev
sas
##blade
kostumer
flugt
##hallen
ligegyldigt
##virkning
jeans
##runde
sundhedsstyrelsen
appet
##regnet
reagere
##vognen
kristensen
day
snakkede
isoleret
##ils
registrere
##arig
##sak
##sbas
groft
trænet
##avand
gps
grækenland
radikale
dna
given
kagen
forhindrer
heriblandt
filosofi
lunge
##selskabet
fremga
reference
kulhyd
tilmed
grundt
invent
malerier
mormor
hesten
belastning
nicola
ringkøbing
pynt
##otika
##ij
røven
planet
nationalt
kedelig
anlægs
1989
jamen
##36
##stræk
brands
nedad
uafhængig
klæ
udtrykker
##øvler
æbler
skarpt
##svil
farten
drys
strande
pædagoger
##undersøgelser
##rin
rammen
sankt
garde
1945
oftere
##historier
##omp
##asken
superlig
forestillinger
1930
bekræftet
hass
uøn
##uth
ladet
##klinik
orienteret
flys
felter
##kød
##bragte
smut
stabilitet
oral
sorter
skilte
##læn
smalle
##sfre
affære
sutter
##slov
gentofte
##frie
frod
skrue
xx
overstiger
##ælling
fril
nære
kommunernes
folkeskol
pilot
regnes
##aftalen
##kapital
næstformand
indikator
vejledende
snakket
sned
##oderne
omkringliggende
begær
mental
advent
atl
##ugter
begrundelse
##alistisk
1940
ideel
##samfund
bass
leverandøren
siddet
stockholm
skilsmisse
ordbog
søb
udgjorde
myndighederne
chi
ungerne
bat
##ygter
storeb
ikrafttræ
ombord
##ændring
supplement
##arde
##mennesk
løv
seriøs
irrit
takke
nan
##nr
betalte
fars
##tigt
##værn
genre
marianne
anska
heri
alf
genkende
##sberet
anbefalede
##istrikt
nakke
##varteret
barcelona
forladt
##elf
dessert
##plejen
lysten
netflix
##ørerne
beregninger
##alingen
life
mene
##ested
rækken
agent
##nam
##oman
titler
##ssystemet
##estyrelsens
##ome
##frisk
flybillet
##90
søj
udbetales
##stemmelser
inklusiv
rengørings
##bj
grave
organisering
##sselskaber
bekymre
industrien
vord
##kirken
beach
tømrer
fokuseret
fornuftig
lidelse
##prop
slagter
vedligeholde
##ido
argument
baren
##ægterne
cykle
funktionalitet
fleksible
arne
farv
afslapning
stævne
##dansk
##forbindelse
indstille
tivoli
designs
republik
pletter
phot
##sgræn
indlagt
##een
##ago
skala
zone
øm
##fektioner
##istre
##ield
##søkonom
kvæg
##ado
##klassen
protokol
varetager
isb
##æden
booke
kendetegnet
udfør
auktion
airc
støder
diagnose
##sbidrag
angives
manager
##fatter
færreste
##steurop
leverings
negativt
overleve
respons
##stilladelse
sammenhængen
##aker
lux
##mmers
##drede
demokratiske
aftales
skød
ideelle
stolen
graviditeten
snyd
bevil
tavs
væksten
afslag
cur
marc
krøl
sætning
sauna
blue
##design
bm
underlagt
##bla
forelæg
overfør
smad
bekæmpe
##skamp
kryst
detalje
bruser
bogens
gebyrer
forældrem
prøven
##inspe
asiatiske
fastlagt
##artede
batteriet
præmier
##inal
analsex
##astning
førtidspension
kompet
fester
vestjylland
troen
tæpper
overtrædelse
##rediens
indlægget
reb
allan
maneds
dækkes
##slo
sfo
aviser
##bunden
strategier
forsvaret
betegnelse
kup
##leverand
reserved
##23
operationen
krævende
lant
nytte
aks
faldende
yndlings
tilpasses
##retter
skagen
medbringe
hjerter
kopier
fliser
escortpiger
lil
spont
##aktiver
##edage
##aktivitet
svigt
inddrages
content
roser
forstod
##saftalen
kollektiv
bdsm
undertøj
gifte
bachelor
falsk
elef
koloni
##telser
##forældre
##agenævnet
nøjagtig
grafik
californ
afdøde
##anet
sara
##hvil
81
susanne
fusion
teoretisk
bevaret
tapet
muslimske
kontrakten
##lænd
lokalavisen
madras
kass
kristen
##strede
heden
mej
optages
slutte
præsten
handværkere
aktuel
betingelse
blods
stationen
mandens
gymnasiet
intent
evigt
ventetid
temaet
overstaet
aabenraa
##læger
lidenskab
karakterer
##ologer
symptomerne
servere
##æsning
##ssund
diesel
billund
##ibre
##lægningen
##ituation
venst
##procent
lastbil
kosmet
##egade
filtr
##sev
børnehaven
odder
intelle
krigs
##ensioner
##ktoratet
##skrives
##tagelsen
pur
##forskning
dead
hørsholm
vuggest
anten
trænere
##stilstand
varerne
afgjort
tilstedeværelse
##materiale
spiseb
##appede
politiker
##syre
voldt
pastand
##vik
lanceret
lovforslaget
mord
trusler
overskr
reduceres
opsat
rikke
fel
##strand
syddanmark
ryn
##punktet
hylder
##grad
læreren
ansøgnings
##brand
iført
ego
##oller
perle
udgivelse
fineste
rygning
koden
museer
udred
arbejdsgiveren
##isation
indgangen
statist
nøglen
##øvrigt
dahl
##rod
organer
glæd
##alistiske
nummeret
hvede
registreres
##onto
bækken
reglen
støttet
teorier
indskud
##maskinen
rap
oversat
maksimal
sound
mb
temper
##kager
pikken
emballage
omkostning
udsol
tænde
stikk
nøgler
værdipapir
##spir
selvs
##cht
##unktion
opføre
lise
chili
kit
vidne
opdræt
fremfor
vigtigere
mose
soph
turneringen
installere
facade
uro
hak
##fel
oversv
sog
sødt
hvalpe
##assistent
byggede
##afrika
selskabs
beklager
game
350
armene
slidt
mænds
døbt
omtalte
rygs
klap
passagerer
tilsynet
terrassen
indekl
gennemt
nb
happy
ext
udnævnt
barber
session
afhængige
ømme
terapeut
reducerer
oste
nad
erhvervsliv
rimelige
tilværelse
sagsbe
medicinske
##can
##sparing
administrationen
begrænsede
isen
opstillet
##illæg
research
mentor
music
##wn
anvendelses
aggress
østers
##abeth
##æssigt
forudsat
##hd
tex
fjernsyn
##tran
##onsulent
boller
91
kørende
kæmpede
kvindelig
176
lesbiske
udr
bydel
##inke
bogstaver
ble
udarbejder
anker
engageret
nice
opm
##handlinger
trøje
tjekk
gradvist
ambass
højesteret
undtagen
anton
##jo
regions
moun
chr
indenrig
betegnelsen
##sider
fremadrettet
blidt
##ira
dick
sorø
##jene
##klass
afsløre
##store
##ministeriet
rettes
##ota
arbejdsløshed
gennemsnittet
leasing
plejehjem
##ilder
##arisk
glæden
##klæring
forkæle
##familie
lignede
##bek
leverede
##arbejdning
harald
pra
arsregnskab
snav
krydret
træthed
smile
maa
gulve
##olet
afstemning
##atil
trag
sab
##sklub
omfanget
amm
##løshed
##hotel
strikket
indfri
##vaner
##kerne
##sager
farverige
paradis
stater
vidst
dannelse
statsfor
bly
kogn
klem
bluet
##imellem
dørene
beviser
trang
fordybe
##ypten
anstr
deg
istand
tilbagebet
satser
##somkostninger
bedømmelse
kulde
afprøve
##baserede
vederlag
##work
meddelelser
mild
certifik
##sau
printer
tømmer
prostat
oh
barsel
shirt
##ally
længste
intellekt
hardcore
vække
betinget
apoteket
opfyldelse
kompliceret
afdrag
lukkes
##heim
moderen
apparatet
##dj
slagt
busser
respektive
aflevere
##okale
angaende
smagte
tænkes
websteder
rykke
##entiel
##præst
kuffer
##smodel
forhandlinger
ye
lampe
kontekst
##sor
angivelse
fornøj
dagligdagen
##ørt
halvleg
##admin
henvise
udløsning
kanon
ple
party
tørkl
udtalt
##orf
volumen
ingrediens
omhyggeligt
optager
enlige
modtageren
udtrykket
kastede
tilsku
lay
læn
konkurrencer
uænd
bemærket
##nie
medi
menes
knytter
tøs
##leve
##centeret
##grundlaget
##istyr
udformning
tykt
forlig
##jerner
forblive
dys
vasker
##arken
fortolkning
appels
tilbagevend
##ible
ekspertise
##lers
grene
ulovligt
villig
olymp
centimeter
database
##fakt
tatover
indslag
borgerlige
matt
fodboldspiller
##ington
##ssikring
##øvelser
sundere
højden
##plej
##disk
skyder
præsenterede
ein
klæder
udløbet
kulturer
##mund
night
jødiske
gennemfører
darligere
betragter
kle
malinger
jernban
udenlandsk
##boks
##skap
##sregler
nedlagt
indtager
gag
##45
##flader
birk
kompetent
parlamentet
##øste
opstilling
maksimale
rang
forlaget
skæbne
omtale
skeden
temperaturer
erfaren
elektronik
glatte
bemærkes
attraktivt
fællesskaber
##dannelse
gevinster
##board
stive
##aldet
indvendig
##alismen
##spær
betegnes
cirkus
##inkel
teknologien
hill
habe
##spraksis
smilende
##alb
schmidt
##ono
tina
##teringen
roc
##stop
selvværd
prinsesse
##pal
indtage
ligestilling
##yndighed
sejren
##adt
studere
hat
hæfter
##skabe
fyret
kontaktperson
bt
istedet
##ju
##ledninger
sænke
##anker
bidraget
jesu
organiseret
ike
syrien
ukendte
essenti
jagten
ulykker
##musik
##eliste
produceres
##endelses
skinner
udtalelser
jen
##wor
dba
stabilt
ledig
angiveligt
christina
udfordre
knudsen
frygter
arealet
porcel
##drene
armb
risikere
bestaet
booking
trade
eas
##interesser
##ificere
landbrugs
lyt
college
##sprocesser
bluetooth
bagage
gentagne
gatur
omdrejning
tov
##cker
tilsendt
afvist
udenom
nakken
duften
forsøget
##ingborg
sprede
udveksling
utroskab
##elles
procedure
lister
lg
skjern
forhandlere
tilbøj
vellykket
krydser
soveværelset
selvtillid
##elementer
kompos
mp
blæser
##sættelser
seriøse
fornemme
autoriseret
##aktive
testen
vindmøller
##stuen
see
cons
lasse
grafisk
##garanti
supple
vidunderlig
md
differ
cb
kombinerer
svind
##linjen
tilsat
##aftaler
##valgt
hukommelse
skæl
teenager
bou
opgjort
forsvundet
trappe
pressen
##elskaber
ubegræn
skadelige
indgreb
redaktion
parametre
slesvig
pist
##vision
procedurer
komfortable
kredsløb
øve
udkommer
røver
trænge
beaut
wall
##ræs
munk
##verdens
sommerferie
kostede
visuelle
##ikel
##35
vordingborg
psykologi
sindss
performance
farlig
##beth
nak
##aliseringen
udfyld
##sborger
office
anded
afholdelse
ærgerligt
##kreds
##kore
hash
rækkevidde
##gaven
##brid
talrige
afst
legeplads
grat
rosa
##beskyttelse
cirkel
oplag
inddragelse
##acks
slas
##teks
##smetoder
tilsluttet
##ørne
george
bevægelses
##butikker
indhente
##finans
straff
##vurder
endog
gitte
##hæv
indtaste
djur
sigte
##tale
tasker
##fravær
lone
##ministeren
skaden
skabet
##imentet
symboler
hertug
##prov
karri
jor
motorvej
##ssag
sexfilm
##niveauet
redaktør
lægerne
##edia
##agtet
gramm
kugle
straffes
adm
forklarede
arrangere
##rine
kontinuer
relativ
cub
##esi
madlavning
julefrokost
beskæftiget
indgik
##holdere
rolige
##pladen
estim
medtage
suveræn
synder
##usi
##esæt
pikke
romanen
ligne
palæstinens
associ
hvorimod
bagved
##drage
bjergene
smider
flash
drop
samfundets
##briller
stier
ordsprog
energien
seb
viking
tænderne
##asket
faglighed
##uh
færdes
pulje
badmin
fascinerende
pakræ
kvant
versioner
skiftes
##edie
##oversigt
##eskov
forlænget
fjernelse
trold
container
justere
##bevis
frederikssund
folkes
betydelige
friluft
##ælles
lego
dort
antages
##spræ
##anvendelse
kontaktet
##meldt
klaver
hundred
synspunkter
teenage
##mg
##smøder
##how
færge
access
gennemgaende
##venligt
bevilling
forarsager
undersøges
##ua
luther
bemærkelses
uddyb
##ødte
gigant
angriber
arbejdsdag
begrænsning
tydelige
##anstaltninger
##tor
bestyrelsesmedlemmer
forsigtig
familiemed
olien
##sem
##levende
skjule
vinderen
hvalp
manch
ort
fremhæver
##pose
spørgsmalene
indian
fastsatte
højttaler
primær
redig
##ømning
ama
enter
nike
christians
tendenser
svej
##inske
##forstyr
nit
fremmer
udlig
##mødet
##skj
kollektion
dokumenteret
indbetaling
udbrud
smab
##regulering
ideelt
1700
interesserer
udtale
destination
bremse
##sektoren
##allet
skove
porcelæn
udførte
brancher
bronze
##vald
##inding
pulver
pabegyndt
usædvanligt
bræt
##stab
##handtering
nyttige
overvældende
skæg
mesterskab
klinikker
hygiejne
landd
naturens
##elund
fornyet
lagerstatus
html
##læsning
##cript
husstand
##illeder
præf
decideret
musikere
##svin
sax
elis
streaming
navigation
beslag
trine
andelsbolig
##høje
salen
##ugh
haha
gust
bemærkning
##ila
pressemeddelelse
sønnen
klippet
brødre
kampagnen
kongres
mentalt
opfordring
##esse
##amente
pragt
overskriften
wien
plu
alborg
tviv
respond
sitet
##akke
champagne
satell
undgas
##klasses
solo
hovedparten
modstander
##etil
sønner
##banken
invitere
ultimative
##afstand
##pilot
bølge
potentielt
afgive
excel
##salt
##ew
markante
talmodighed
##mesteren
sandwich
trykt
##ædet
flittigt
glemte
patent
miljøb
efterretning
bæredygtige
færdsels
midlertidige
tyskerne
##adgang
projektleder
koncentrere
sygeplejersker
lilla
kvalifikationer
forældres
dol
##produkt
firkant
##orten
menneskes
nets
nutidens
kin
trussel
dykker
helvede
##ytten
sovjetun
brændt
ekspedition
kurt
##eddel
berømt
burger
regi
overflader
drab
udledning
##agede
##alem
vikar
sæs
ørken
##kasser
arbejdere
kronpr
##egu
##cerne
##kkeligt
ophæng
danskernes
dukkede
retninger
langsom
balancen
##olo
full
audi
hængende
inger
inventar
like
streg
##ægtig
behagelige
afstanden
##ption
##ami
mentale
forsvare
##ejere
##irts
bin
sporet
bjarne
hjælpen
sup
skiftende
sætninger
##ørger
foreslas
feber
##kkens
overføre
tilpasning
byerne
afskriv
vice
abenhed
##ahl
##رررررررررررررررر
aldeles
beskrivelser
##figur
did
##urd
##ædre
vagner
##kval
slagsen
aer
##cykler
##vaben
##hug
seje
forretningen
konfigur
kompetenceudvikling
##forum
butikkerne
fratræ
benyttede
erstatnings
anmelder
følsomme
brudt
kriminal
##delige
fortiden
grundtvig
skiller
prag
køer
##tning
gall
ulemper
swing
provok
1988
drog
##lic
tyve
work
school
ægløsning
fortrydelses
##ature
likvid
ignor
##ærkning
fortællingen
az
##ængden
materiel
politiets
##retninger
angivne
##ple
udtalte
cpr
besej
instrueret
højsæ
pladen
arkitekter
##pri
glasset
koncern
sparek
##skning
erhvervsdrivende
forestiller
appen
øresund
##administr
gt
##ækkede
objekt
træerne
alexander
tricks
handfuld
appetit
dur
polske
ts
olier
opkøb
bindende
oprettes
slettet
krydderier
fortsæt
otto
maleri
celle
##stest
##boende
tjenesten
varede
##sikkerhed
investorer
hensigten
sproglige
##tro
stald
fantasien
forestillingen
premium
turisme
syre
##vejleder
helbr
nødder
forgæves
kanter
tillids
##givne
ansøgeren
##sbegræn
slave
##udgift
opfatter
musikalske
skabelon
erhvervet
##sha
krone
overholdes
smid
steph
gentlem
imødekomme
##stor
festivalen
bedstem
kunstneriske
konsekvenserne
poolen
altan
##skultur
vibe
intu
##model
eksistens
fos
##ødt
disciplin
##ktorer
##yggelig
##sebær
gb
jysk
eksemplarer
overlever
lt
igar
ører
malsætninger
stikker
opkaldt
1986
karam
##sfolk
berørte
##ønnede
##vurdering
tabellen
##iale
manuelt
kærester
stærkeste
##østen
##billedet
mineraler
sr
##otten
portal
##forbind
snarest
nysgerr
hentes
##registr
##27
lejre
spises
##ænket
##adset
ms
efteruddannelse
pludseligt
##okal
rehabilitering
##bror
informere
##behand
egenskab
gø
vognen
##smanden
##aton
##kynd
puls
jar
gend
besparelse
accepteret
##italer
indsættes
alter
sygefravær
nordøst
##funktioner
bekræfte
##væv
hersker
##svidenskab
aktiviteterne
##sprinci
henover
dødsfald
borgernes
moduler
udbuddet
stel
anholdt
##lager
fremstille
##planter
favoritter
kod
forlænge
andedræt
##posten
##ble
tilkende
samarbejdspartner
impor
iron
##istret
hobro
##processen
##søgning
ey
alp
vesten
kalenderen
##slund
deleg
##sher
partnerskab
##plejer
livskvalitet
referencer
garanterer
eksklusiv
fordyb
##aktiviteter
rønne
toilettet
kommercielle
honor
##rater
saret
halsk
deltagende
firm
feriel
##syge
##lesen
##bat
##kop
##sselskabet
betændelse
##hamm
sæsoner
pabud
##ansen
karet
unødvend
1987
oslo
##sbetingelser
bow
##familier
##numre
kaka
##grunden
væggene
##nettet
undvære
##skrive
families
##svilkar
badminton
diff
she
alsid
style
anskaff
##ato
kemikalier
##sgiver
progn
indf
bruse
certificeret
allermest
kvælstof
løkke
##avis
virkninger
##ular
##illings
hamborg
cec
##ulerede
nationalpark
ledes
ishøj
##ikationer
vækker
##affald
##eligheden
##orerne
arsregnskabet
knus
mobilen
##apeuter
forbruget
kendetegn
skjorte
else
varmer
eksperiment
hjertes
card
afvikling
cost
##26
brøn
##vendte
birgitte
mul
##igtige
sundhedsp
fornødne
opfordre
kollektive
bacon
##28
lase
genoptræning
##smer
reception
key
strøg
##ikeren
##indsigt
nøglet
media
udland
##nering
##fordring
repl
litt
science
##elærer
gis
opfattes
##spot
tilbagebetaling
##mmens
fugl
afslutningen
desper
koncernen
ordrer
bn
grundlov
##pert
##ygning
margrethe
læne
##ledere
opholds
ordren
koncerten
cel
ophæv
##ninge
bibelen
aircondition
ydermere
indkald
revid
argent
tele
##delser
forsynings
eksamin
das
parfume
##cing
resulterer
indstilles
betydet
##kirke
udmøn
##hor
indimellem
anførte
##war
drager
posted
førsteklasses
workshops
guider
udtræ
lomme
dollars
##erg
1985
##styper
høf
ingefær
strømmen
##skibe
##fælge
##studerende
tydeligvis
tilbringe
##dragt
afrikanske
tryl
tropper
alternativer
brugernavn
##farvede
##endom
pix
entyd
teknologiske
1984
imponeret
bemærke
blodsukker
uform
tilkøb
sløj
tredjedel
kwh
##følelse
manif
##vere
##ommes
ligeglad
puder
suppe
undervisere
##sdygt
sure
##vold
trom
spøg
overgangs
skur
oce
##lor
mexico
djursland
teoretiske
silikone
##steg
forbedrer
grundejer
ansøgere
py
erkende
transform
##bygge
##skes
digitalisering
sammenlignes
demokratisk
smiler
grove
##vivl
udstr
taletid
##voks
##fælles
##lets
velholdt
##last
##ræner
ambassad
sammensæt
stadigt
drikkevand
indeni
##ikop
hævder
gentag
##telig
uf
bæredygtigt
marken
absor
kedelige
griner
handlet
##foreningens
##osten
##padvisor
odds
asfalt
statsminister
saint
overnatnings
##ømmes
mobning
usyn
meninger
first
##serie
force
afhjæl
##ute
##ssystemer
kloge
perler
gennembrud
youse
##djurs
##blog
produktivitet
##ømmelse
##fs
##ikon
##con
bart
##ansvarlig
underskrevet
kampagner
liga
struer
prioritering
vedhæft
presser
##skabende
wash
##ribende
serverer
##faglige
lotte
##kalde
samsø
knapper
forsendelse
##mmene
rar
udfordret
nydt
add
skille
##irke
##ørsel
##bom
cookie
offens
##ovne
suge
dannede
mande
ukrudt
mæt
tort
jas
iso
formaet
anmeldt
forfald
konkurrencedygt
ling
##ways
afvise
faser
ekstraordinær
##endomme
passiv
brude
drømmen
sos
uændret
statsborger
fjen
hopper
drivhus
bønner
blogindlæg
oplad
prioritet
##cerer
besidder
podcast
skæve
elektric
dimensioner
period
##jorte
udøver
ridder
##styrken
##markeder
grev
##ienterede
##forsøg
indsamlet
##fjord
snu
##nit
udbredelse
arrest
kontrollen
rak
overflød
klost
ihvert
main
styl
balkon
##landing
globalt
flyet
vintage
landevej
##pig
mangfoldighed
børnes
belgien
##forstaelse
kaptajn
##ummen
comp
idræts
##veksling
##smiddel
layout
##inks
anser
genrer
gladsa
holly
udnytter
tomat
dron
værdig
assistance
vennerne
brande
##fi
planten
stævner
figuren
##handlere
katolske
arbejdsmilj
forsinket
hotellets
teenagere
kvalme
agen
ændringen
brændte
rydde
persondata
##udlejning
lovlig
##jysk
forekom
ordres
overvejet
stjalet
betydnings
aktivering
sejre
##bod
##ansvarlige
how
##svalg
realitet
retro
arabiske
røget
1½
karakteristiske
ledighed
søgeord
blogger
semester
news
anvisninger
##komsten
##ykket
overh
forbeholder
eksisteret
derover
##porn
vv
##øf
hjort
tripadvisor
retfærdighed
forstør
vanskelige
mud
##tegn
akupunkt
forretninger
wordpress
frafl
tasken
mikkelsen
bevidste
etiske
beslutnings
##organisationen
afgr
afslutte
##svar
ikast
sjovere
bjæl
nært
hushold
tænkning
placeringen
##sters
konkurs
##ydelsen
fetish
indklagede
biologiske
fertil
##ete
tales
hey
stau
##opr
##spul
frisør
##ynger
knaller
jernbane
tisse
hyr
united
abn
##leren
centre
støvsu
plot
informer
døds
##ægning
##eligheder
slemt
egnede
##farver
jane
erstattes
middelalderen
skruet
folder
motorvejen
##øjen
gemmes
opsamling
##rets
dogging
##ams
iøvrigt
beskeden
refleksion
dvær
planlægningen
romerske
##ument
løgn
##ael
hellerup
##aldrende
wild
sir
kontr
allerbedste
indsætte
fysioterapeut
##usik
besøget
richard
fix
forsvinde
##biblio
bilens
foss
nærhed
tolk
etape
leveringstid
##zo
indiske
forbindelsen
uforgle
ejerlej
skruer
##rids
handlingen
modernis
smith
barsels
##andel
fremhæve
billedkunst
##vinder
studi
##75
akkredi
brasilien
normer
##jakke
wir
romantiske
kortvar
##hm
##zar
##ifer
marx
dollar
rov
##pakker
tidsskrift
##præget
reder
hjemsted
udflugt
toler
legend
sodavand
afgøres
##ides
##færen
genkend
bekendtskab
##prof
obligatorisk
massiv
godkende
##yndes
##konsulent
##klædnings
konferencen
dor
fjorden
##museet
cow
kanin
landmænd
##igede
objekter
##firmaet
britisk
ydmyg
##light
tradløse
fordeles
værdifulde
underskrift
kammerat
testamente
##bruger
##cke
fattigdom
##stræning
manedlige
1968
europe
motorcykel
introduceret
subje
mikrof
vinduerne
hof
frekvens
nerve
##ejle
begrundet
##forand
##akken
kaffen
opdaterede
udbed
længerevarende
##holdenhed
rødvin
##uddannelserne
vip
gris
parcel
udformet
##syk
følt
obligatoriske
specialister
kaos
##schef
visning
tilfl
bygningens
arbejdsliv
nordjyske
solskin
ferier
##ants
flæ
bevares
timen
indrette
efterkomm
##glas
iværksættere
##klagenævnet
##roner
konsult
kirsebær
dc
fremtrædende
bjerget
north
blære
##problem
energibespar
pj
antibi
##pulver
##ating
københavnske
avl
radgive
menneskelig
##ula
##motor
##eling
skærme
##arkedet
sexliv
lynhurt
fabrikken
ruter
yousee
udflugter
##salg
linie
mestre
##varmet
elsket
befolknings
afkøl
ubegrænset
river
1200
cum
sprang
betragte
fysi
oplevelses
omdan
##ellerup
finale
jyllands
##hing
udgivelser
assistent
slidst
road
indbyggede
tilsagn
tiltrækker
##stabil
##bered
udfold
gluten
afspiller
##bevægelsen
hardere
syet
##ensigt
tastatur
efterlade
aktiveret
nøjagtigt
##garde
indikerer
sulten
cafeer
cecil
##økonomi
##eds
##formal
1979
udfordringen
novelle
omstilling
medvirker
konsulenter
engel
##sministeriets
høns
tilbaget
tam
##kursus
##sejer
regnvand
sejlads
lokalet
alverdens
katten
##iderede
territ
voldtægt
datoen
emma
nade
utryg
portugal
nikolaj
##faldende
##teligt
##rive
undertiden
##orgen
stikke
glimt
uenig
patientens
straler
prest
skynd
charme
##kirt
sony
kriminelle
afghan
bestræb
##wer
traditionen
1973
fuldkommen
prioritere
foreslog
supermarked
forsikrede
fis
##ederne
sygedagpenge
##ref
165
informations
rabte
pav
##skridende
flyder
##produktionen
gardin
indhent
control
late
ambitioner
##foruren
dile
sigtet
##zonen
juice
cab
sle
##lon
omgange
##99
##apt
privil
komfortabel
##uner
##gjorde
gladsaxe
##sfuld
##ansatte
##itime
1982
mole
##skrævende
fremstilles
sarah
sekretær
funktionelle
opholdt
hovedstads
##eskole
modern
opdateringer
tommer
indberetning
adskilt
boksen
synligt
øvre
indretningen
ekstraordinære
seminar
opfører
kommuneplan
annuller
##pasning
potter
##redes
riv
forstærker
allesammen
insekter
rednings
madrid
ejendommens
udløber
folketingets
føltes
stir
sagar
indsamle
kik
overførsel
##arup
dagligdag
begejstring
afstem
bønder
tinder
resume
formidler
overgangen
hip
dyrlæge
skemaet
hiv
ikea
lønmodtager
1972
##bul
tul
torv
##web
flis
villige
tavshed
fejlen
vet
##umper
illust
##ekont
definere
fucking
fif
fængslet
uhensigt
##idlet
##ulerende
opera
krisen
##yo
##systemer
##husene
##trykket
##ova
##rikken
hale
oscar
magnus
##mærket
##just
##delte
tradløs
indbygger
meditation
resulterede
borgerens
offentlighed
meddele
arena
foreslaet
forældrenes
##cial
scorede
faktur
anbragt
##deler
udnyttes
fordelene
æres
##optim
alliance
scand
ihvertfald
what
grine
variant
##ope
evig
sejlede
sarbare
ovre
lovede
fleksjob
take
nægter
##havende
bemynd
##agter
milde
ji
græspl
sammenligner
##see
regul
onani
##iøst
delik
handtag
nævnet
beregne
fortryde
optræden
afvikles
##konto
dispensation
track
straffe
anat
fortolk
dommen
thorvald
civile
##altid
##bestyrelsen
knepper
##sklasse
##usser
lander
##itteratur
caroline
lob
mobiltelefoner
gylden
talenter
##drup
aktivere
skulptur
afspil
##født
##fu
rekre
straffel
stilarter
absolutte
medarbejdernes
elektricitet
##advokat
markere
##cd
maves
gerningsm
##ameter
##ydere
##endet
formet
webstedet
tilsættes
modtages
ask
fordob
forvaltningen
##rerne
sære
førstehjælp
mountain
dybden
vindues
##faciliteter
cyber
##skue
##usalem
##indende
kombinationen
canad
##æppe
sanne
##hosp
diæt
holger
##etagen
krom
besat
rediger
manip
##klip
urter
ikk
tjekker
belægning
##okset
ist
julegave
helte
optimering
##vækkende
velt
##agner
henvist
parkeringsplads
binder
landsbyer
kontrolleret
hva
##ungen
næring
grænseover
##isbrug
engagerede
geografisk
indgaende
ege
##arin
signifik
formulering
montere
udbredte
##ture
skuespillere
skandinaviske
enhedslisten
opvækst
##shoppen
fagfolk
rører
skan
mikrob
revideret
elend
chic
kombineres
uoversku
forme
watch
##betjen
##gøring
ophavsret
long
##linje
##ielle
peters
fut
klienter
danser
irland
skrivebord
intime
hviler
##vagt
##æste
##sprisen
truet
pasform
##fjorden
168
##ville
fax
chris
justin
##fordeling
kompat
3000
##kka
##isont
hæder
ombygning
søm
udsendelse
##ræer
ft
cir
kontrakter
opmærksomheden
1978
deaktiver
guiden
iver
hypot
klassiker
økologi
##klubber
indholdsfort
regnskabsar
fejrer
vasket
betalingen
##talende
plug
manuel
intelligens
##uddannet
inders
seni
medført
gene
afleveres
##ssygdomme
##vokater
besværligt
optræde
afgivet
pakrævet
relaterede
trykket
##bekendtgørelse
kid
superh
hidtidige
##itative
opgive
øjeblikke
bukserne
##ktivet
udvides
plakater
spins
##beting
spørgeskem
ober
asi
betragtet
kvindens
manuskript
##atisering
kunstnerisk
##agers
afviklet
kæmpet
1600
##usse
174
sædvanlig
mundtlig
arevis
mekanis
nysgerrighed
uddannelsess
fornyelse
mødested
##klædte
justeres
##egul
##ødende
meldte
##ænkte
##don
##34
biskop
aqu
flet
redning
##dækning
linjen
ødelægger
nedsætte
bakken
vagnede
retfærdig
elegante
kneppet
nark
##alth
##ikation
ophører
energiforbrug
offentliggøres
andelige
renoveret
godtgørelse
forfrisk
fremsta
mathias
interviewet
bredden
henriksen
udskiftes
meters
jp
##falder
passet
##endal
##omot
metro
bruun
bygningerne
mellemtiden
dedikeret
transm
fortrins
skæres
##isolering
ubes
kvalificerede
laget
##lignende
##akes
outfit
skod
lanc
hjemmelavede
synspunkt
ruller
læben
bekendtgørelsen
nemid
katrine
rejsning
##valtning
##radets
cph
fros
##itch
##ipper
##akers
jævne
ledet
psykiatri
lift
amts
uber
##dike
indvendigt
energis
gødning
statsforvaltningen
sygehuset
akust
dirigent
glans
tests
psykologisk
stykket
search
oksek
klipp
##ygte
porteføl
husleje
rykkede
fanden
##kysten
klaret
##shje
næringsstoffer
individer
palagt
oplyses
fordelingen
aspekt
indsamler
passerer
##ampoo
##søgende
##29
kulturen
klageren
konen
urim
chil
##kron
##elight
dad
##odes
oplader
sier
igangværende
videnskabelig
udgrav
elektrik
##kryd
bringes
##ican
##feldt
##heds
##programmer
udskifte
##igende
##faring
stævnet
dankort
tub
designe
##smerter
cyl
##smassage
akutte
produktioner
djæv
digter
impul
##ejse
kosten
opkræves
##uts
forklaringer
dramatisk
##æster
##byggede
ravn
sd
##esh
strenge
##reres
##psyk
vindmølle
rykket
lektor
takst
tok
##største
rd
runder
forsørg
##resp
eksistere
abningen
sommerhuse
dispon
udsolgt
##sbo
undrer
##junkt
vaskemaskine
dræbte
slukke
udsendte
nybeg
opbevare
jævnt
returnere
##elskabet
legitim
contin
massive
budt
##trafik
teorien
uddannede
hollandske
biom
uundvær
1975
grimme
ink
travle
##stype
##mers
opholder
bevist
carls
studerendes
distribution
tjenestem
tidsrum
##horn
planterne
hvormed
ringen
indvendige
swi
revolut
keramik
##allen
afhængighed
radgivere
afviser
papiret
informeret
bevægelsen
idi
uddrag
blandede
involverede
hentede
medførte
##leb
student
indtjening
##projektet
##staten
forsikringer
moderat
margin
##trin
spilleren
christiansborg
larm
leif
##lærer
##skæring
##tets
##itum
##sdagen
udgivelsen
svan
##plantning
lune
udnyttet
bise
##kkelige
arstid
koncentreret
derinde
bega
putte
##uterede
distri
berøring
##alid
menneskerett
forord
konsistens
##historiske
##konstruktion
##øden
lommer
##ragte
blonde
aff
subst
udskrift
jeppe
hier
got
##ænding
udvider
opgørelsen
fremtidig
handværks
kvm
##date
##amenter
##øvning
komfortabelt
rugbrød
kompensation
omtal
ges
##reglerne
kørsels
##frø
blank
##asiner
mindret
budskabet
magisk
blander
frys
kommissionens
##styret
abort
supplere
fall
loc
opholdet
murer
##slys
famili
##beskrivelse
##datab
##løbet
jerusalem
bærende
holdbar
stribe
ejede
##medal
hindbær
distrik
prisk
infektioner
vigtigst
beklag
overskydende
ytring
lie
skide
##meldelse
##uet
fryse
glider
kostume
mellemstore
garage
##jon
handklæder
##tex
elevens
##saften
forpligtelse
gælde
disney
##ст
bekendte
blandingen
##afsnit
strømper
page
udlan
##sløn
water
jok
efterlad
kvalifikation
registrerer
fjender
##fæst
##idi
##funktionen
overkomm
gyldig
uddanne
bugt
varierende
baret
repræsentantskab
##ped
gæng
##hat
meddeles
forenede
poser
##adser
##yttelsen
##rerende
bum
øerne
low
register
##materialer
sædkvalitet
pressede
opførsel
##versioner
forvær
skelne
##fterne
prioriterer
regelmæssig
##abol
høres
grus
magiske
tankegang
##sky
##ibel
donald
gunst
badet
##odel
diskussioner
pp
bost
renten
strategien
##samfundet
tolv
blondine
oliem
tomater
kristendommen
##sæde
skubbe
depot
messen
ergonom
dykke
smelt
##gørelsens
trail
forhandlingerne
##okk
universet
##virke
hospitaler
platforme
vigtigheden
rustfrit
##oligende
dry
fy
kole
sene
geografiske
amerika
##ilje
musklerne
opførelse
magasinet
basale
tablets
tod
barer
gest
##bringer
stine
jet
##hard
screening
##pol
græsset
nabol
kommentere
rørt
undervise
##almind
venstrefløj
fynske
casinoer
##nord
filipp
##entr
væd
##illen
##ønt
##vægge
markedets
overtager
medium
kemisk
##orit
trends
##forretning
omgaende
bast
handterer
forhøj
langtid
ledning
forventningerne
skept
##sfond
smitte
##værktøjer
intelligent
omend
spændings
interessenter
andelshaver
afgiver
fuldtid
forblev
1977
søgeresult
omraderne
##akker
johansen
##formede
hullet
##abonnement
invas
opsigelse
opføres
##sforeningen
arkiver
buske
øret
##bergs
1983
pædagogik
balt
##idigt
##avirk
musikalsk
teknologisk
guddomm
trængte
panel
kabler
##ikkert
nick
samlingen
##ladet
bedr
##pass
##stenen
underlag
##compu
tig
##neren
vamp
##ology
tin
tilværelsen
ualmind
hyppigt
besvaret
fen
vall
linse
aktiviteten
##lærte
tildeles
skønnes
derud
kontorer
kollegi
##sudgifter
##athon
eftertr
ejerskab
tredjepart
##lu
buffet
##tgørelse
konfirmation
##amfund
laura
arkitekton
blogs
forstærk
sænk
##fan
reservedele
blat
fods
##amera
##smulighed
ringet
##producenter
lynlas
sushi
##akadem
pude
litra
hormoner
poet
etableringen
##saftaler
##guide
fagforening
lisbeth
##alon
tjekket
børnetøj
##parret
opsu
inklusion
##grupp
brutto
afhentning
kvindes
puljen
bevise
skærer
spids
jud
sprøde
##aria
undskyldning
hotte
landdistrik
vejlede
bladene
opvaskemaskine
branden
##invest
vægter
##aldo
rummelige
mandskab
nicolai
##direktoratet
agf
##egruppe
safar
tilbragte
mortensen
christiansen
uventet
##chs
finansk
1974
##ji
##indkomst
inddraget
aftes
enkeltes
medregne
cann
embedsmænd
kroniske
##eminister
videok
betalinger
##aldt
bbr
ansætte
##icitet
##kjær
1967
præcision
stikkont
nomin
##hjemmet
jal
beskrivelsen
105
##bygninger
##yttende
modtagelsen
##win
spredte
saal
betalingskort
friis
rabatter
bekost
##ellerne
##radte
stere
givne
##mands
gryden
##beskyttelses
easy
##smuse
##berettigede
oksekød
tungen
museets
arsagerne
tilhæng
omfattede
1976
kreativt
sanse
##mestre
vandrer
##safdelingen
reserveret
handsker
uddy
bemærker
true
resultere
bekræftelse
tros
konsekvent
1944
utilstræ
fristen
##pligtig
vagne
tillidsrepræsent
##øbet
vurderinger
trapper
##ægtige
clo
##undersøgelsen
sammenfat
refusion
ulla
løftet
garantere
allerg
1971
dræbe
folketings
blink
dufte
##sbud
organisk
iran
medfølgende
sommerhuset
børnebørn
##rænet
##espil
udfordrer
dømme
summer
drink
trailer
gynæk
##fjer
##mas
mekanisk
##krit
kategor
bibel
##delses
##meldinger
##strakt
##mur
omsætningen
indholdsfortegnelse
mellemøsten
bærbare
kinder
ræd
null
genind
dtu
sengetøj
nyttigt
opgivet
fordøj
##sterol
##illon
know
##oy
fisken
nud
badekar
gartner
galax
offentliggørelse
beklædning
##blomst
aftag
##skilte
overlæge
##lysning
head
premiere
vejledninger
skyd
klud
griber
antyder
##gets
klipper
##edler
##hion
snapchat
øde
spejle
nøgletal
skolet
indvirkning
forsvarligt
komite
ingeni
##ovs
strækningen
pengeinstitut
sluk
##shospitalet
erklærede
brown
socialdemokratiet
##nød
højder
egypten
ændringerne
buket
abenbar
1981
5000
konkurrenter
sigende
afhjælpe
menighedsrad
tilskuere
palle
drejede
##emed
onkel
betalingsmuligheder
udvendig
forbrænding
kurv
nysgerrige
langsigtede
justering
##museum
etnisk
image
dannebrog
grebet
strækning
spæd
##opperne
udfyldes
##retningen
depos
sovjetunionen
chauffør
afsløret
solcelle
##usivt
overholdt
kryp
slange
lilleb
##sprogrammer
##ynt
marine
##gens
erkendelse
frim
ensomhed
ky
##dis
afsluttede
break
##raden
lemvig
undtagelser
identifikation
modstandere
##sned
ultimo
sexnov
plantet
dorthe
##ws
##historien
sundhedsfag
##inspektør
##øjtn
formelle
interiør
tilstande
##utik
opgøres
trægul
care
fedtet
sammensætte
##søgte
hensyntagen
fængsels
forholdsregler
jura
##kirk
dumme
kjeld
arn
punktet
farvest
vedtægt
ranger
hag
vandtæt
californien
##søgt
##virksomheden
rektor
psykologiske
julekalender
indskræn
##kyst
##iten
##ters
totale
##oger
tyv
karakteristik
1943
satse
##gørelser
fremmødte
smykke
##malet
shoppe
##ration
tilbød
appelsin
tommelf
masker
process
##navne
skuldre
##æler
konsol
drøfte
grønlandske
cere
kind
pege
indvi
indeklima
lejet
biog
miljøer
romaner
##stjenester
washington
##cle
##institutter
mailadresse
sideløb
takker
meta
udstillings
vældig
overskuelig
medlemsstaterne
bing
kontoen
klu
nato
flir
kammerater
psykoter
henseende
kasserer
kennet
biologisk
##iro
mw
lugter
tilbudsgiver
etniske
problemstilling
vaskes
allerød
##meldte
##emaskine
##hunde
landene
arrangerer
blikket
bestilles
vinkler
finansiel
konvertering
udøve
streng
misly
stjernet
blæse
##sey
##lysende
ærø
kajak
beskidt
særdeleshed
ultr
uundga
vilhelm
indgaelse
persondat
cro
indtog
laner
varetages
landskaber
parker
folkeskole
barri
høringss
rive
obligationer
forklaringen
##ause
direktøren
naturstyrelsen
kunstig
ordens
##formet
valdem
forkøl
opfind
ugentlige
klarede
vidunderligt
##indsatsen
tilvej
latex
##eldet
jordenssalt
forsinkelse
##uble
messe
##bass
ægteskabet
ejerne
kartoffel
adgangen
afbrudt
##idas
fuldtids
myster
allierede
konflikten
ritu
medtaget
efterladt
medlemmet
fakul
##forsvar
##etrin
sideløbende
tilvejeb
prostituerede
fremgangsmade
shirts
115
##osser
360
domina
stok
##ænken
hjemløse
agur
vietnam
træf
lederne
insister
sats
##house
universiteter
tælle
sagerne
meddelte
koncent
##kontor
forklaret
##yssel
##marks
##brogade
victoria
understrege
##ovl
##bang
view
overskue
anmode
suppleret
rytm
kick
lejemal
bølger
foreslaede
panik
grænseoverskridende
##raktik
stolthed
##rapporter
##rundlag
blæst
betjene
lovforslag
mary
medbring
forlyst
##stri
udvidede
who
gruppens
positioner
verdenen
##otion
langsigtet
bogstaveligt
##hastighed
ungdomsuddannelse
shorts
##urgte
##fristen
langvarig
pærer
kontanter
##øvende
1969
fornem
##ommere
kviklan
videres
##æret
##obi
hvisk
reserve
kof
##ammer
usædvanlig
##lænder
regionens
overbevisning
irritation
##aliseres
stemmeret
privileg
dæmp
drak
##festival
energimærk
##ænget
undlade
afbetaling
papeger
formaede
##sbeskriv
##fler
##eskyttelses
lokalomradet
##33
##edning
##steknologi
##rækning
drøftelse
tyng
afghanistan
ansøge
orientere
dikt
menighed
stamme
inflamm
ondskab
øjeblikkelig
afled
wester
hjørner
velfærds
hur
stresset
illustreret
ket
satellit
opholdstilladelse
optagelser
##gs
##osa
savn
afdelingens
##legen
udløser
lud
hytte
sophie
dragør
galaxy
##spsyk
værne
##rings
vog
virksomhedernes
udbuds
##ward
compan
fonde
##sproget
kvittering
nina
ll
##ela
elle
##aborg
##sfrihed
##ekon
##ugten
tilfredsstille
kastrup
##inkt
##fasen
ell
hallow
sekretariatet
##rap
arve
præpar
##arkite
##sliste
uafhængighed
joseph
irriteret
logisk
nob
##onna
børste
cross
porto
skyldig
operationer
charles
mum
##jagt
##sfil
750
autentisk
fornuftige
forfærd
specifikationer
cell
omega
mønt
eksponering
##programmet
speciallæge
rejsebureau
arch
weekender
fam
##hardt
udbydes
amalie
kompakt
##amerik
orgasmer
lp
kampene
opdateres
helikop
slæ
sanser
##sjællands
ubehageligt
##bestyr
stationer
##order
tilrettelagt
gætte
ryddet
sci
hamburg
##hjælper
##ergi
flotteste
kulhydrater
stang
forvirret
vha
hovedk
bornholms
jam
112
##lines
##æsonen
rune
bøsser
sebast
##room
##aj
##mærk
##plus
##temperatur
bænk
mærkelige
javas
##konkurren
efterars
komplette
##sfest
eftersyn
linger
busk
biblioteker
forældede
sagsbehandler
##alat
skadet
xl
##feld
forbrugeren
suger
nørgaard
webshoppen
katja
casper
oldt
ydelsen
besvarer
ungarn
dete
##kg
gustav
præstationer
natursk
kolesterol
fredensborg
surf
##stret
fortryder
##stemperatur
bygg
##resultater
fanen
size
provinsen
opposition
forlænger
spektak
knogler
##urat
handicappede
websites
klam
frederiksen
##xid
opsam
##imin
paras
##ship
diagnosen
manglen
garderobe
halm
stilen
fd
udviser
svømm
##nøg
dbu
kroppe
##rygende
hypn
bnp
##video
indføres
husene
forkort
arbejdsdage
##forsker
tyveri
skrøb
redigere
neutral
tiger
progress
strukturer
showet
indviet
##æiske
aktindsigt
##elys
##skerne
jordsk
milliard
nedsættes
religiøs
hastigheden
bankk
adhd
grafiske
eksklusivt
pølse
##ronten
ludv
hæver
ejes
kanalen
overset
granit
administrerende
lur
harddisk
tidende
##bræ
##okken
nyttig
dyrket
##iti
naturgas
koord
knald
kortlægning
reformer
##byrd
efterkommere
badeværelser
kondens
skak
involverer
taxa
bedstemor
##shistorie
gin
undertry
relevans
##unk
fordelen
tildeling
præferencer
wow
##respond
arhundreder
javascript
thaip
##sbest
spart
arabisk
varmepumpe
løbetid
sner
bestyrelsesmedlem
vs
##ningsanlæg
##icil
##aturer
zink
mindful
holsten
slutning
makker
ekstreme
hurtigste
inddelt
##oid
faren
##smetode
##kompeten
##ories
kysse
monster
toft
efterspørgslen
##yndigheden
##sbesøg
##slaede
karsten
ajour
forespørgsel
signe
værkstedet
ludvig
redaktionen
##rugt
450
natura
anmelde
##rappor
topp
##vande
##fur
struktureret
##udsigt
fejler
fortjent
mineral
paradise
psy
stryge
kenneth
##rejsen
##orienterede
vanløse
elisabeth
vejene
forring
trappen
heter
dyret
redegøre
markerer
videnskabeligt
##okalet
rammes
fashion
whisk
færgen
fladt
halloween
##ilt
indp
##udstilling
spredning
ansigter
lejren
specialist
skræl
svi
raske
dobbelte
##skad
skrot
malm
ale
hollywood
finish
finansieret
fremsat
luc
producenten
bondage
##elsæt
mindes
kug
ss
kogt
filmens
pointe
afbud
omverdenen
hygger
afklaring
##word
stødt
fakultet
skævt
caf
##ilding
ulrik
sprøjter
soveværelser
##inson
afleveret
udgiften
##bt
banan
intensiv
##datoen
##reformen
popularitet
##frygt
##ference
tilstanden
##sanlæg
leon
skræddersyet
kommunalt
##sner
autoc
##bakken
bevarer
emb
##jek
vvm
##hedsg
##vamp
libido
olesen
jette
##agens
evige
apparat
##ængder
mærkelig
nydes
tværgaende
sognepræst
tilbagevendende
regionerne
blandes
##orium
##ksp
landsb
troet
tilmelder
220
symf
1918
drinks
lokalplanen
##sforslag
##læs
##neret
bevarings
##uddannelses
servering
moment
coug
krimi
##poser
formular
classic
visioner
mexic
sværd
##indtægter
komplikationer
##grav
bella
fætter
konvent
drømt
##card
blæk
##egnen
juleaften
øens
hektar
mir
hejsa
rutine
beat
valent
bodil
nordea
teatret
kløe
forrygende
kontrover
##egod
hem
bande
blide
skandinavien
underliggende
##medicin
biografen
uhyre
##cha
##istand
##oge
##round
syndrom
hudpleje
rotter
##ugning
samfundsmæssige
bekvem
mandlig
review
##krop
vanilje
indkaldt
##rængt
kjolen
##navnet
regional
noteret
aflevering
henri
kraftfuld
##chefen
kendsger
##mælk
opsparing
udredning
erstatter
tilslutte
reguleres
afhandling
alufælge
##klede
planlægges
omb
kernen
dommeren
roll
samliv
lort
pauser
kommunikationen
kursister
broch
maatte
slikker
fastel
præste
forbedres
musiker
gentage
diskrim
stramt
foretog
##klædt
##uktion
hmm
##cted
aen
lor
indl
dræn
##egra
havem
dialogen
forudsig
campingplads
aa
faaborg
kontaktes
dd
rejset
langeland
forfærdeligt
##elling
luftfart
hjemmebane
overstige
##sord
visuelt
troels
materielle
ubehagelige
behjælp
##itoris
fyns
##agon
indtag
interaktion
armband
stegt
commun
##undne
indse
diskuteret
kanel
udryd
mach
abonnem
spænde
##egrupper
klimaet
##skasse
drik
##skest
arbejdsgivere
ukraine
##icer
sæder
forenings
coaching
##master
wikip
##oliger
invitation
pligter
tommy
velkendt
mødel
overbevisende
sydafrika
##præm
østeurop
saaledes
plakat
raber
hundredvis
##icere
investerer
techn
flygte
specialiserede
værter
instruktører
besætning
afdække
##look
sexnoveller
selvstændighed
##ident
grillen
merk
pavirkes
forsamlings
undre
fantasy
defineres
følelsesmæssige
borgerkrig
spilleautom
##dej
fertilitet
fastelavn
solceller
bmw
##tryks
##teknologi
indsatsomrader
udskiftet
##mt
pub
skuffe
hive
øjeblikkeligt
miljøstyrelsen
møderne
logistik
kuld
##ansom
zon
bagepapir
logget
prøves
betegner
hjælpere
##magasin
right
vadt
besættelse
manifest
nødvendighed
##pakken
begrænser
overdr
kæden
b2
muhamm
opfundet
undertegnede
statistisk
skt
rejses
step
brændeovn
tramp
##delings
##bryn
resort
vandværk
nøds
henry
brik
##bestemmelse
moral
bjerre
pynte
pussy
tempel
saad
##inker
indtagelse
matas
bøv
affalds
vildeste
udfald
oprettelsen
vejrtrækning
opstille
pis
bleg
##skan
smak
guder
undersøgelses
##haret
bbw
oliver
166
flyv
kredse
##øjtnant
placerer
stevn
##inem
erklæret
indust
##vert
##ifin
forstaelsen
##ely
minimere
##run
annoncering
##saut
fugtig
problematisk
##etur
##huller
##øer
domæne
skulderen
observationer
udfærd
##ælv
dagbog
anklage
##rollen
udfyldt
mai
indsp
geografi
sæsonens
##synets
bryllu
coop
indsendt
disposition
apost
uddannelsens
ove
##egninger
flertallet
hænde
høringssvar
henvisninger
##orie
##uset
hævn
puds
##indstillinger
bestræber
##sprofil
værksteder
deling
direktion
sygehuse
##ов
ypper
##rejsende
koordinering
bif
draber
snavs
##ен
bech
eftert
hæfte
lomm
solide
self
metod
grænserne
rønt
biogas
walk
##iddende
spray
klassetrin
facader
nedre
ufat
##brusk
gled
young
følsom
lejeb
##safdeling
skralde
attraktioner
##ressour
aske
størrelses
was
enke
forfra
##nette
wood
color
holdene
stripper
##agde
grise
kontinent
##slutning
##anser
jung
sparet
##aw
matche
beskadiget
lodret
##sløsninger
lillebror
bortfalder
##terende
budskaber
##historisk
brevet
##risiko
bolde
gaende
brid
polar
nokia
biblioteks
tilsyns
prostata
abstra
skrifter
##trop
##skolerne
ray
##indeks
nøjagtige
##plat
forbrugslan
##emiddel
evidens
##smodtagere
##øtre
indkom
ellen
slukket
pausen
##panel
fyldes
stien
##lementet
uj
arsrapport
hid
ledninger
beslæg
sandaler
skane
dgi
pornografisk
udvælgelse
ryttere
egenkapital
biseks
tiderne
carlsberg
svinger
##univers
gennemsnitligt
fryseren
##km
blinde
montage
varetægt
sommet
jørn
tjent
feriebolig
rollespil
almindelighed
knapt
teams
hængt
hh
##undervisningen
frækkeste
influen
##ensyn
afska
foresk
byt
advokater
##38
bispe
solned
##illelse
aftenens
berørt
samrad
1965
bilerne
##risen
##prøven
akupunktur
visuel
rigs
##smedlem
##kampen
1864
##eløse
undervist
##ockey
karakteren
1948
ilden
##isteret
##steds
myter
kede
beregningen
##irker
##brun
way
mah
udstillet
##radgivning
litterære
kursen
anerkender
knude
exper
overlevelse
officiel
succesfulde
oct
##havnen
studerede
stifter
sommetider
##cs
visdom
kugler
sprød
søgemaskine
handlen
fersk
##ituationer
##ensens
komplicerede
bælte
neger
tilstands
##osteron
##økonomiske
pære
hitler
##well
##stationen
ensom
funder
afklaret
##søen
variationer
rejsel
botan
##urgt
lommen
forførende
akkurat
indsigelse
syvende
fyldig
velbe
hassel
spore
dumt
kunstneren
##ledelse
##32
kunstige
dersom
alg
slettes
adel
sørget
pahvil
arbejdsmarkeds
campingpladsen
derhen
drukket
prostitution
##ush
overflad
foretrække
oprettede
antage
tyrkiske
magi
##sammens
amster
forreste
toiletter
tegneserie
mystiske
##tradt
##kontoret
vedtog
lønnen
realisere
mursten
fikt
græde
slots
dommere
##prise
nikkede
misund
juul
eksploder
##ovet
##forbundet
sønderjyske
iværksat
værdipapirer
##stjenesten
##sløsning
lilles
vænne
prestige
categ
##sprogrammet
##cif
mandler
##immer
##nok
debuterede
anstren
ledsaget
lovbekendtgørelse
##asten
administrator
overholdelse
indtaget
edder
230
datteren
astma
shampoo
##ærerne
appel
ocean
##cket
found
kronprins
ørerne
videreudvik
tilføjes
kontaktoplysninger
mundtlige
vinduesp
beher
tommelfinger
truede
mobilitet
hybrid
tykkelse
udgive
basket
cyklus
##nderslev
##kammerater
ikrafttræden
amsterdam
sneen
##remal
kørestol
##smøn
legen
profet
antenne
graver
svømning
oplagte
##adfærd
##sfæng
bremser
##sprøve
##oney
formuleret
striber
##39
varmere
opholde
vas
organisatoriske
ios
skitser
##rie
##hørende
anskaffe
##fog
sørgede
hundene
backup
##nemmelig
##front
ritz
fremstiller
skuffer
barb
forsikringsselskab
planerne
##77
##forbud
brandt
bemærkede
ferieboliger
##lads
restrik
bedsteforældre
styrketræning
##udvalgets
fordeler
bulgar
herpa
mira
##holderen
1964
##sstater
##køl
moskv
forsvars
sneakers
afslutter
tillægges
vedhæng
##osh
gangbang
undersøgte
nægtede
reguleret
brunch
##ags
place
venstres
torvet
essa
slimh
webshops
##aby
mønter
##lang
tidsplan
american
sundhedsvæsenet
eksemplar
røntgen
ballet
omtales
dufter
##undskab
##lejr
tape
uren
##ommun
##stang
##netværk
1966
sinde
manchester
israels
##entiale
kink
projekterne
##dygt
smelte
savnet
##ænen
handteres
ærlige
dop
gigt
brønderslev
faa
spreder
ordreside
solens
##benet
beskæftige
##ikerne
reflektere
krydset
swimming
##korea
##redaktør
beskæftigede
vitt
diskussionen
##river
destru
refererer
arten
applikationer
fortrinsvis
##itære
udsendes
##opgørelse
eksotiske
##kkelsen
kier
##otokol
tilhængere
fravæl
boy
toy
karakteristisk
regnede
tagget
##jakker
ferielej
##iderne
fleksibelt
conne
##gennemsnit
lopp
ernes
umulig
smagt
undtaget
##apparat
skrib
##mmy
##sdal
nedsl
indad
havreg
nyhedsbreve
websitet
sovet
nedriv
ventes
cafeen
##balance
##atikken
##ovnen
##firmaer
dennis
##uleres
ydeevne
svarene
beliggenheden
##nummeret
udbygning
##været
arsrapporten
eksk
socialradgiver
rabe
francis
##æssig
grej
maksimum
##ikkerheden
uregel
distrikt
##lar
roul
tjenesteydelser
##ege
klitoris
##rust
##sund
wikipedia
støttede
##køkken
herlig
##oskop
spændinger
matr
sauce
scanning
twe
aktivitets
transpar
asiatisk
drøftet
cigaretter
hule
##dør
about
forskningen
søgen
abningstid
gængse
##kørende
skjoldbrusk
arti
venskaber
##sprogede
##princi
observation
bak
udbrede
byl
##estr
lukning
dannelsen
##myndigheden
dug
fastholder
##grunde
corn
serb
christen
atmosfæren
##ideer
bille
##bra
name
uu
visu
##aux
druk
sødme
##ryl
kulturel
vane
farvede
herrens
sandsynligheden
stimulere
annonceret
efterspørger
udsyn
ulige
##icks
age
##uste
krukker
kf
værktøjet
mistænk
watt
udenrigsminister
højttalere
allerfør
udtaget
bekve
forlang
##iansk
false
rystede
##waren
##mmets
vedtagelse
vælter
##energi
##esø
##itivt
##arre
befandt
udtryks
slanger
sebastian
muliggør
biografi
prix
herpes
landmand
nerves
##levej
paulus
##løses
omkostnings
sensor
intensitet
anset
tusinder
##avl
antibiotika
repræsentere
##pigerne
##forvaltningen
##agtede
konstrueret
##skaberne
profit
korru
##jens
##ibning
ubetinget
##luft
stres
##stjerne
frust
##arnet
dokumentet
skoene
temperament
audio
factor
fyldest
ulovlige
##vinding
proport
verdensmester
tyngde
spørgsmalstegn
sexlyst
forstaeligt
##low
##ety
##endør
bente
##rikker
uretfærd
livmoderen
gulerødder
intense
handled
zealand
føder
heft
panor
implementere
luksur
lyster
travel
illustrationer
##computer
anette
lokke
sammenslut
formiddagen
klod
##sgave
##ønner
##jere
pump
##mmels
##ania
south
airbag
miljømæssige
raff
lykkelige
brunt
spisesteder
##aber
konstruktioner
lyserøde
eksperimentere
tilskade
shows
##mens
bunke
##dæmp
##tru
græskar
niss
soldat
afprøvet
spisebord
partiets
knep
urol
fremlagt
humle
##less
sædvanligvis
turneringer
udleveres
legende
riis
virtuelle
##gin
cecilie
tags
##mager
ledte
##frugt
cannab
arbejdsskade
vides
vælgere
døtre
stemte
mattet
anken
taknemmelig
indkaldes
##aga
tiltrukket
indhentet
olivenolie
ei
stilhed
rende
egetræ
vilkarene
opladning
uan
##borger
sprit
orlov
##edig
episode
##lub
jules
##sfr
1962
afregning
nisse
##95
halvanden
hverdagens
smerten
##gjorte
reservation
kompagn
##px
tilrettelægges
##irken
fælge
navigere
##ærg
familiel
kurven
##mød
patager
lektioner
truer
lakrids
ups
##ævet
certifikat
stave
papirer
syntet
uheldig
##bekendtgørelsen
##klare
##transport
rettid
104
tilføjelse
kirkes
##ello
omhandlede
##givnings
great
sportsg
lum
optradte
testosteron
sjette
gyldigt
clausen
kaffeb
##pi
sigter
hækle
amme
##husets
dh
lampen
##vidende
ordnet
snedker
amning
##shjælp
pje
potens
stub
amu
bortskaff
trøst
tilside
##ced
definerer
cer
##venner
stigningen
folde
messing
herligt
##eskift
tradløst
forrest
indgas
##væsenet
brugerens
samspillet
##ui
fordomme
afrund
cos
rygter
preben
##mulighed
##cirk
adidas
ordreg
##album
ophævelse
mystisk
fortol
jobcenter
buddh
ordinær
##kkels
harmoni
##føringen
minimal
skønneste
fangede
senget
hilse
##tør
indstiller
hensigtsmæssig
kris
##skolens
forpligter
mejeri
faxe
##mmi
##politikken
patt
behandlings
mercedes
##sbog
konferencer
##værksted
indlysende
3f
##ykl
marmor
##vern
investeret
johnny
andersens
cykling
##ated
##frug
skyldt
aars
sollys
protester
wat
bestemmes
initiativet
##esc
pall
##renover
teknikken
##kok
##skompeten
fortælles
munchen
fedeste
##arrangementer
skør
svane
posen
##tysk
dark
##æller
pabegyndes
massagen
##universet
blødning
##grænse
efterfølger
##oget
##dk
kyssede
gour
aktiveres
dong
##oto
fastsættelse
##igtigt
mike
##kostningerne
##stes
modsta
mislig
##bestemmelser
kynd
bløder
stabile
fyl
ulovlig
tarnet
slaver
##priserne
tack
detaljerne
udførelsen
døb
regnen
biologi
skolear
##skassen
kristi
##forurening
##opol
dase
umiddelbare
forbinde
opvokset
nal
ultral
##esikring
##valgte
ordne
benet
rep
uc
##iva
betjeningen
hist
1939
patrul
ridser
##faget
##emperatur
uendelige
##older
indefra
reality
viby
##sbestyrelsen
##shospital
##sdato
transfer
medlemsstater
orkester
rummelig
umiddelbar
pand
stikket
ejak
uønskede
lee
lm
skattepligtige
##cykl
diss
henvendt
friheden
sak
søfart
fronten
lill
hair
myg
proteiner
udstiller
høv
##forholdene
matrikel
depositum
##forfatter
##italen
fornemmelsen
semifin
1941
sjæle
nyop
autisme
koder
arbejderne
grib
manøv
flybilletter
frederiksborg
renset
dream
lagen
finanstilsynet
sidenhen
sneg
kapitler
gymnasie
wars
##beskat
manen
rengøre
rytme
##ique
stødte
dn
##ople
brystvor
varemærke
##eleje
brygge
skyggen
frigør
bosat
knallert
vogne
bands
##erien
ægget
forbereder
vends
udvælge
repræsentation
husholdning
##kas
hovedregel
udarbejdelsen
krystal
smøre
##ride
gulvvarme
kommiss
tegnede
lamp
erhverve
##anas
retor
amazon
babys
skyldtes
##tagne
##ynam
tis
##radi
ligaen
##sgod
udtrykt
industrielle
dronningen
hoveder
muren
##formid
nøgenbilleder
tilrettelæggelse
distribu
##ekanis
##illo
malgrupper
assens
pestic
liver
##yderne
bombe
##atiseret
##fronten
afviste
##scent
##sbudget
##leven
##esteder
brob
midlerne
støde
modtagere
coll
ish
rensning
pakkes
malede
indeholdende
reddet
habede
##marken
handlingsplan
##kirtlen
##atorium
spilletid
samarbejds
befordring
borgmesteren
dorte
cha
ialt
##lak
snakken
opvarmet
tilberedt
##politiske
korsør
beauty
indisk
insekt
##col
energy
rost
##spis
hardware
svaghed
##ielt
stempel
nil
gaderne
##kørslen
##ategorier
##elisten
##otter
cancer
##ression
flasken
##letter
afføring
overlade
##svirksomheder
bibe
tarer
løbere
##portalen
brystkræft
tvilling
urban
tilfældige
kontrolleres
gæt
integrations
##ændes
##offerne
##armer
beck
jakker
reparationer
taknemm
virkningen
##reser
kurve
sher
skinne
hjelm
##slokaler
stimulerer
albertslund
##producent
tine
regnvejr
bøf
##specif
##48
parlamentets
##hjælps
##kle
##skonsulent
indkvar
signatur
##stillæg
menneskene
##ugen
##ønderne
##boksen
cloud
##bagte
##edagen
folkeoplys
##bevidst
##asis
farmor
oversigten
nv
opholdsst
##urser
cola
##iana
britt
##yttere
hvir
optik
jess
##span
cremet
128
malmand
##inos
folkene
trust
tilstrækkelige
uud
formelt
##ariatet
linde
renæss
udskud
pastar
##klart
nedsatte
bust
##tav
regerings
belys
thr
lynhurtigt
lækreste
krag
fladskærm
chips
##skunst
organisere
##itil
##unen
##raber
afløst
snyde
akties
##rettes
vurderede
nemmeste
##riger
gjaldt
energistyr
karin
diskuterer
##eløn
landsplan
dekoration
pokker
kakao
ash
##beck
løftede
##forbindelser
annoncelight
##staur
##zoner
155
hævede
karakteriseret
kub
##otor
fuldmagt
ritzau
##indholdet
##ordenen
opfordres
lisa
135
1942
insulin
miljøminister
##kilde
kvalitetssikring
engle
odont
komponist
##arealet
krab
##blom
udvendige
skærmb
extension
lounge
ulykken
##so
##cium
hua
spændingen
overgar
pasning
vedtages
uddybende
søndags
##løsninger
jordemoder
##kerød
væb
cock
opsigt
forblø
##sprojektet
fødte
flytningen
##ramte
uddannelsesinstitutioner
##forholdet
intenst
angeles
kinky
farum
dramatiske
moskva
forhandle
1963
regnskaber
campus
our
snydt
jobcentret
dybest
gravet
##sbevæg
tester
marer
mærkning
points
automat
forestil
opkast
sættet
##imler
erindring
risikov
udspil
fuglene
##65
medicinen
##ventil
tilfældig
droppe
signifikant
direktionen
æstetiske
pahviler
##ktil
nyhedsbrevet
brysterne
##kredsen
massivt
##sretten
##vens
##sprøver
ustabil
højtid
solbriller
france
guides
##mmek
##lænderne
prioriteret
nedenunder
indlever
bedrift
anfører
beb
godkender
selvej
oveni
smags
##nødder
psykiatrien
johanne
wer
1917
josef
##pude
hydra
hofte
away
##sting
købere
buk
ff
kopiere
afgrøder
anfald
##terras
vang
1914
liberale
afbal
health
farer
##planlægning
mistr
sexolog
108
report
##egruppen
udsætte
knæk
blues
spam
valgmuligheder
displayet
hovedstadsomradet
hits
##ituationen
1850
skibs
destinationer
dalen
##kolle
annette
produktiv
menneskerettigheder
yoghurt
efterarsf
melodi
##okumenter
erhvervsuddannelse
alfabet
templet
studieret
rigdom
sortere
##gy
##koder
solrød
indlæggelse
sammenhold
##æmpelse
selvsagt
##æks
##amling
##ims
bæres
##smaterialet
pay
##øgene
lastbiler
vulk
oversætter
træls
##eta
landede
cn
standarden
hemmeligt
lykken
indsende
##pro
##skoven
linda
vandring
veteran
philip
neds
motorer
tabet
blomsterne
kondition
objektiv
forøget
##cem
indvandrer
tidsfor
geomet
variable
pust
universitets
##askinen
elefant
living
any
##redskaber
##srel
##valitet
##ceres
##nævnet
##desig
gensyn
udlagt
sindet
##tene
dræber
rade
julegaver
##fen
hein
fodtøj
sjælen
cases
frygten
foreløbige
##ancerne
hon
hotels
tilrettelægge
##wan
kæmpest
herover
kgl
bekymrede
vibeke
rio
volvo
##merne
##gender
stens
##infektion
gaafstand
smooth
funktionel
rode
##regnskab
nyg
renser
elevator
boost
rekv
snæver
benyt
abenlyst
afhjælp
trium
priskl
kolonne
snacks
sydpa
østergaard
føreren
automatiske
anerkende
stemnings
vagina
##forny
anklager
restrikt
nost
##spriser
overbevise
overbel
brødet
samænd
producerede
axel
##egenskaber
domænen
bebyggelsen
##words
sto
bier
##øgende
##optimering
mareridt
indførelse
##ianske
##stykket
organisations
liberal
barm
##ends
##musk
##browser
scoo
domstolen
dagblad
##stillelse
sct
##ærings
massagepiger
sommers
##info
porten
handleplan
genert
festlige
##spolitikken
skipper
udmat
##klasser
##ælden
##itel
##tekster
##stim
snes
udpege
korrespond
incit
##næs
brønshøj
rejer
konklusioner
tidligst
bordeller
dyreste
##bekræft
klemme
imperi
passere
fremmøde
kollektioner
ubehagelig
massageklinik
foreliggende
traum
##eltoft
##eth
##øe
afrejse
marokk
##atien
forstyrrelser
##døren
##skriter
##atin
##hrine
spejlet
designere
flader
tilpasser
##books
font
forskrifter
multif
havør
##betingelser
##utt
funktionerne
##indede
partikler
utrolige
horisont
garderob
tankevækkende
plejede
loyalitet
samfundsøkonom
bygherren
personerne
vinger
afgrænset
arkt
kærligt
ugentligt
enlig
blab
cho
santa
østre
defens
##skreds
##fugl
karrieren
modellerne
inspektion
genbru
##attra
voldelige
pølser
117
usand
demonstration
svimmel
##cal
##onerer
##givelser
sno
pumper
ulempe
router
vibrator
forurenet
oliemassage
##cafe
##jenester
ordninger
##bind
folkekirken
##sling
365
virksomheders
nøgleord
brig
abonn
fædre
kristendom
##pumpe
##spersoner
muskul
##smark
##ibr
parkeringspladser
principperne
styrkes
##lister
skotland
fordybelse
variabel
søborg
tomt
lingeri
##37
oprydning
stakkels
gert
##arium
katedr
##partem
massere
1958
due
konfron
##sfrem
agter
evalueringen
sortimentet
udslæt
gor
chrom
##rensning
##mose
uenighed
##rængende
##ason
##sledelse
##oon
krydse
miljøg
meddelelsen
afskaff
æd
kryb
##arten
falck
1946
tortur
##pynt
debatter
raste
##away
kokke
ects
##ikum
forbrænd
##rolle
syddansk
strække
udskrivning
køretøjet
fck
boot
##madras
##reven
##aya
company
prostitueret
jakkes
mindfulness
turne
freel
forbeholdt
##lavet
##sløst
##rester
##rah
maritime
marin
cyklister
##smedlemmer
benævn
koble
agere
##minde
indersiden
møg
administrativ
chik
wolf
##ørte
##ildt
##ioxid
##skøb
klassikere
numse
##okrater
visum
##sproblem
litau
flyvende
##aliserer
##stigning
beskrev
sandet
butter
##forsyningen
##støvler
haves
stueetagen
vokal
visi
stege
dynamiske
horison
ideal
##ateau
geni
læserne
baserede
konstitu
##skum
slægten
udfra
vestsjælland
##ømmen
slav
gennemførelsen
jungle
##spress
øvelsen
valdemar
##sgard
tænkelige
##44
kundernes
usædvanlige
sho
hæren
##zi
boldklub
##scykl
mælken
kendetegner
##vard
vandfald
##ilet
ledsager
amerikanerne
brugs
##sigtet
psykiatrisk
persons
##bys
##bjer
##edraget
erkender
##camp
gastron
spsk
konstateres
##nisk
betjent
##spild
##fodbold
skoleleder
##eline
##iverne
##ømmelser
foster
##familien
ungt
iværksættes
hovedsagelig
forsamling
hverdags
islamisk
##wo
tjente
jordan
australske
brag
ledt
overskueligt
aftensmaden
lyserød
blomstrer
hakket
nyheds
jacks
indsæt
heidi
paragra
##bidrag
reading
katastrofe
motel
##sforstyr
pv
##opgaven
fotografering
##haus
kommando
mappe
##ægge
dagpen
strømpe
barbar
featur
akkum
spiritus
##chi
israelske
##sakadem
forfriskende
rekvir
beskidte
dværg
tvinge
1956
##sbranchen
forstærket
##ørge
vegas
1919
##odeller
##ældning
opførelsen
belyse
hack
formulere
andens
##rium
##telses
password
##stilskud
midnat
klarhed
1961
slæb
beskyttede
selvejende
opsl
##lande
gød
aroma
##smodeller
dyrkning
installationen
forfærdelig
jakobsen
smitter
krydderur
kedel
##ulykker
##aco
mikr
letter
apparater
##vejledningen
krævet
eriksen
##irma
plastic
eksternt
adsp
autoritet
regnskabsaret
undsk
krydstog
1947
##hem
novo
vidende
champion
omgivende
pund
ærmer
nomineret
socialdemokraterne
opstand
søs
transportere
æstetisk
strengt
golden
##illadelse
jep
overnatte
##trup
grundene
marci
morges
##ften
konstaterer
svig
sandelig
##porno
nyre
spændte
##sstyrelsen
##orre
lock
##aki
fjol
rø
##sprøjt
##holdige
anmeldelsen
gøremal
ulighed
politim
palægges
chefen
organiske
##anding
divis
##view
begravelse
frag
##bre
halvandet
begyndende
skaldyr
placer
cheft
##merter
vod
tilknyttede
mh
køligt
naboen
babyer
##rækket
protot
børnefamilier
hemmeligheder
iblandt
summen
##filter
##udi
regulere
skylder
habit
risikof
##stationer
omlægning
advarer
heat
konklusionen
1949
hue
##sherred
likviditet
##31
fundamentet
##pavirk
uddannelserne
##shjem
##66
opsige
paradoks
##arbejderne
vendsyssel
gaming
datatil
##regner
indstillingen
klint
march
##opgørelsen
gil
flyde
##uleringen
udsnit
fedts
inviterede
formodentlig
revner
morfar
county
mangle
reparere
fibre
finske
##gardiner
##gigt
mikael
blanket
lillesøster
overraskelser
##forst
##senhed
169
sovjetiske
ambitiøse
befæst
##lange
vedlagt
linked
metrop
suk
##sætnings
facon
sværhedsg
udse
4000
##røret
opsøge
##eksamen
indledt
nationer
opløst
fastlægges
ligning
munke
##kurser
proven
blir
##nden
varmet
##sfulde
##cover
##edele
konsekvensen
generations
rigelig
kendskabet
vl
ydet
render
entreprenøren
lugte
##andidat
rettere
primo
rabar
##svurdering
vedtægterne
##sbjerg
##pind
husstande
ogs
tværfaglige
svæl
nærmede
imper
##kog
##relaterede
depon
fraværende
glædelig
##liggender
akademisk
lærred
energir
afgrænsning
forlænges
benj
##tradte
tørrede
dækkede
omhu
brugernes
hændelse
overvægtige
distance
blend
nanna
##kla
##blikket
price
lejere
##førings
rigshospitalet
##spænding
skøre
hyppige
perfektion
idømt
landsholdet
sektorer
##aktorer
225
##institutionen
uddelt
lejede
##eske
jackpot
alment
##wei
rodet
troværdighed
næn
landes
christop
##ømmende
revisorer
æggene
now
##mangel
alger
sløret
ingeniører
alfred
##mærkning
beskyttende
fremsendes
sundhedsfre
##jul
levn
##senge
flirt
##rix
##forenings
arbejdstiden
##skrevne
usd
duer
dysfunktion
sporten
vindere
patenter
moralsk
bænke
endet
##kæde
##hur
igangsat
##hæves
charter
##sekretær
bemand
spiral
strale
opkræve
diskuteres
beskatning
##overv
eren
foref
headset
fanø
##medlem
rundvisning
uheldige
lektion
##assa
grundforløb
167
portugis
##anstalt
udvalgets
kah
diamant
##uu
bilka
videnskaben
elektriker
nin
##stræner
##ørrer
respektere
markering
ørering
birkerød
motiveret
natte
kunders
udfordringerne
kvindernes
konstruktiv
fungeret
##ques
koblet
##oplevelsen
eud
##orv
tradt
trick
implementeret
visa
transaktioner
##onyme
##støv
indledte
bide
omstændighederne
dyne
##emarked
##steori
##etabler
maren
overraskede
##fos
##ria
brux
holding
lip
grønlands
dokumenterer
foot
iht
##ukket
udgar
stefan
##non
##88
ald
beroligende
impot
##agnet
politikens
skolearet
udfolde
skærp
##miljøet
forfatterskab
voldgift
fjernsynet
rasende
##acy
##ærmet
bekymrer
glædeligt
tes
jensens
grind
##stallet
mountainb
casual
cash
booket
kommunalbestyr
udfylder
brunette
##eskolen
##ssvarende
intelligente
scoret
cc
kameraer
gf
101
##cell
efterlod
##ologier
##ofa
karakteristika
identisk
byudvikling
landsret
ekspor
facaden
soul
games
genren
orkest
obama
forsvarer
interval
foredrags
pandekager
anvisning
bangkok
next
sosu
episoder
søndagen
ergo
magasiner
kio
##alens
snack
pyntet
##alle
ventilations
##spærre
pornografiske
fjende
tai
fornemmer
motivere
logik
autoriserede
smittet
rumænien
bekostning
ingredienserne
arsen
smerterne
lyr
regningen
lystfisk
cheftræner
skals
moses
forkælelse
superligaen
##fotograf
overs
fingeren
hovedpersonen
##komp
##yle
##ekse
bader
##udset
neglel
tilladelsen
legendariske
opererer
forfatning
erfaringerne
##kampe
##atoriet
##oklub
ophævet
##bevægelse
helligdage
##finansiering
##brem
##smaterialer
nd
cougar
##sningen
integrere
##lemm
tværfagligt
##ree
##elej
bevarede
##modeller
##ois
onan
kalve
bluse
halver
##holdelsen
bronz
opgradering
apoteker
##blev
dyrkes
mcc
indtræder
udsender
deltid
aage
repræsenterede
quick
lagring
fejret
patage
##aciteten
malingen
formularen
officer
##udsig
ballade
bagfra
##egræn
styles
ypperste
##gangne
islands
##vigt
arbejdsb
champions
##sin
##enheder
korrig
hvidevarer
mægler
##hy
isted
overskuddet
fredags
tørklæde
løsl
fremsk
giftede
##rammer
240
indregnes
funktionelt
##etal
##ventede
alternativet
##stemte
impl
##anmark
folie
potentiel
medregnes
forlange
organisationens
##ku
kilden
udlæg
isk
efterforsk
stx
whisky
hero
fremkommer
##eligvis
energie
mudder
##teringer
gennemgas
belej
##ygninger
bestyrelsesmøde
hylden
##oriseret
stukket
1890
familiemedlemmer
stejle
babes
musikk
bruxelles
raf
##angst
styrken
##arts
##formanden
sommerens
##hof
##bagt
##oxid
##indsamling
marina
kønsorg
##ра
##ekan
foranstalt
patrick
synlighed
ebeltoft
tegnefilm
helse
inddrager
hub
##bøj
troende
undervisningsforløb
1938
palidelig
heb
##finde
udspringer
##nik
little
autonom
forkynd
læberne
brødrene
menneskeheden
uforglemmelig
##kegaard
længder
broer
offentliggøre
##sforanstaltninger
##ulenter
##erslev
jammer
hæle
fuldkorn
##skilder
award
##otek
fornøjelsen
teltet
##ays
manual
skrivende
certificering
##sma
alexand
pian
dernede
sammenlagt
parallel
hydraul
##obil
fried
storebælt
læringsmal
##strategier
fost
konti
vert
bags
sejt
præstere
##sapp
afvigelser
alsidig
index
##version
nakskov
tern
antager
1933
##ningsvis
investor
udlevering
forveks
##200
skjorter
muld
mast
vidnes
107
##ønde
##gav
##geligt
kaniner
pinligt
##mølle
##ordinator
bestsel
##melde
1953
##grader
sydfyn
##ologist
stenen
databe
mascar
orienterede
lønmodtagere
rygsæk
bæk
##sigtede
aftener
traktor
tilladelser
kirkegarden
indbyder
1959
##æmi
mandel
mindretal
##the
rotte
kulturelt
url
campingvogn
oliv
##ategori
upa
##specifik
sour
1957
derigennem
boligerne
sygesikring
atlant
outlook
sæden
##uleringer
evolution
small
##skn
##afgang
##aning
forekomm
fondens
køkkener
evaluere
ordregiver
##berry
afslørede
nex
shoppen
svømmer
##bai
lage
robuste
##skind
komposition
handklæde
stralende
staf
oluf
fotografier
##illedet
stadighed
angribe
christine
klogt
fejres
sild
gur
mature
##irs
baller
skylden
lb
##balle
##cho
inje
##beklædning
them
##fugt
støtten
beretninger
forekomst
##ex
handvask
klister
republ
ensbet
stræber
##sproced
##festen
malte
salon
antioxid
hæves
##hjulet
udløse
megaf
costa
opdeling
højdepunkter
##etoder
sexpartner
tilskuddet
fyldestgørende
synkron
mvh
wilhelm
supplerer
frygtede
gd
fiktion
løbesko
elskerinde
bevægede
filmene
sletter
klatre
genv
1936
hæft
udgaven
1910
bolle
##edlen
pm
gourmet
konkurrere
bikini
fortrolige
##øjelser
##mont
originalt
aus
rakte
æbl
svinekød
1870
##forsikringen
arbejdstilsynet
underord
dagpleje
ensbetydende
##stidende
berører
hjel
stæv
indvandring
tuc
##kna
##kæder
virkemidler
barrierer
indikatorer
ceremon
aldersgrupper
selvbetjening
##elly
tørrer
ambassadør
fissen
overvejes
skandinavisk
studio
kært
bevægelighed
adap
##rivil
efterly
kraftigere
gaven
cykelst
nordens
##idsen
##dog
suppleres
##spolitiske
fb
stan
sorgen
valgfag
serviceniveau
anja
regelmæssige
quiz
a4
takkede
1955
safari
dek
##sort
##strende
afvær
besætningen
sydsjælland
modulet
alice
only
##sbilleder
egypt
majest
##ancy
demokratiet
kræftens
placerede
##kastet
texas
jones
krat
fox
vendes
##udiet
suite
kevin
identificeret
##rog
cremen
##misbrug
frue
napole
monitor
skoles
joe
##wal
##nerup
lung
##streg
lejeren
efterlig
genial
##sbaseret
afbest
afløser
godbid
thaipiger
bokse
illustration
##redet
##lampe
klyn
shar
rabatkode
uenige
understøttes
katteg
##analyt
forkælet
##sledere
rapportering
fortab
##handværk
madvarer
##ønnet
iss
borgen
udpeges
lovende
##sman
trykte
saltvand
grupperne
stikkontakt
##atikker
##ito
skede
bue
jfr
festlig
feminin
sædet
lases
retningslinier
jøderne
strejf
fremlægge
vikinget
etisk
fredet
aktør
klang
##pix
daginstitutioner
##gren
røret
æstetik
genan
træng
parkere
cbd
terra
cement
urte
kirkelige
##greb
##field
seniorer
tredjemand
##endende
indsatte
foged
politikker
pung
nedbør
fastslar
uheldet
finansiere
tilføre
arbejdsgruppe
usikre
ihærd
##svist
##hjelm
gemte
vaku
pasken
bilister
højtaler
anonyme
##øjne
provins
##ving
##odor
sexhistorier
##sejere
##gaards
akademiske
##iction
##havne
suppen
herreg
bosæt
ufag
tilbuds
1880
ophæves
##krat
foredraget
holst
##ssager
opfyldes
udskrive
##icit
omtaler
afsættes
købers
forløber
flygtede
kompleksitet
christopher
kau
forund
behold
varemærker
nybyggeri
møllen
##ismens
##format
##spektiv
##rejst
##ærkt
atp
gavm
unorm
biod
gennemskue
nylon
fortrin
##shuse
tørretumb
hælder
serum
benny
konsultation
begyndere
bau
##dommens
engagere
defekt
smy
overskrifter
idyll
indkvartering
arbejdsløse
bankens
fortjeneste
ankomsten
kritikken
rejsemal
entusi
114
gentager
migr
retvisende
please
forskud
##bach
græd
abnings
moske
allerførste
forføl
jim
linkedin
tændes
valid
ekstraordinært
##sik
chip
desperat
##sløg
mindsker
placeringer
##relsen
brutt
christoffer
hyldest
fangst
stæng
ultralyd
udelukke
##ador
bobler
øvelserne
indkomne
klubberne
tilsluttes
most
##klær
fagl
##stemp
##sændringer
kierkegaard
retsp
aksel
jakkesæt
kravle
kondomer
forfatterne
institutionens
gevald
islandske
##ssituation
sanktioner
gennemfør
state
værdifuld
datingsider
##rost
##spartner
##væggen
brok
hb
frygte
præger
langsommere
stevns
nedsættelse
torden
børsen
fid
forfal
pask
gyldendal
alfa
scenarie
##mængde
kommunistiske
ulv
##læser
statistiske
meddeler
##sper
##borde
soves
##ømmede
after
skuffede
##varmen
hvidvin
permanente
skinnende
##stederne
skattel
gid
kav
##stemme
sugard
lus
sundhedsplejer
##sforeninger
##neringen
instruktioner
yn
gennemgik
marathon
decentr
telefonsex
##hoppen
realistiske
intellektuelle
##svinkel
tsk
forhindringer
inderste
succesfuld
uønsket
##kommun
deri
##asserne
##viv
faggrupper
hedde
provsti
lillebælt
anføres
vagen
abc
##idræt
##egnelser
membr
##kro
##edragt
transporten
##sborgere
##orges
hovedt
ringere
##inn
kvote
artus
1935
publikation
1952
##kem
udgives
tykkere
telen
guden
fastholdes
veksel
vanvittigt
##forest
støvsuger
breder
steffen
beskæftigelsen
m3
project
fænomenet
##но
astronom
departem
erfarings
tilmeldte
nie
##ancere
velsig
indspil
##yggelige
nostalg
##edskaber
##skyl
##ølge
bestik
gallerier
psykologer
liverpool
sart
uforsta
skimmels
##positioner
uendelig
buff
##ibe
mut
##leri
udholdenhed
behandlingsforløb
sie
tilfører
##ægere
hældes
nev
##ulykke
medvirket
genud
##snæs
pensionist
##saff
borte
præmien
overdækket
1954
1400
forklares
vævet
storslaet
fortsættelse
gult
skikkelse
gej
aktien
mesterskaber
##ception
stifte
kommerciel
yes
stein
udtrykkeligt
##værelses
appeller
fænomener
parameter
materialerne
opførte
##abilitet
polyester
programmering
fyrværker
tysklands
skalaen
share
revisions
##klinikker
lofter
1912
magter
styrkelse
samlever
opdragelse
overraske
daginstitution
hæm
kabinet
lean
##ups
domstolene
##serien
abra
lokomot
fysioterapi
kroatien
miljøgod
opfordrede
mariager
##ladning
birgit
vuggestue
tilføjede
##blod
lejlighederne
##præg
vampyr
sensuel
udgøres
sweet
##eknik
begrænses
mildt
pavirkninger
anh
##stilfælde
erklærer
olympiske
carib
bryn
##værnet
ulve
respekterer
##analyser
mars
harmonisk
lokaliteter
tungere
surt
##sons
psykiatriske
##wald
bevirker
##snr
##ormon
torn
okse
syns
befrugt
følelsesmæssigt
##uff
hoppede
##sfac
eftertragtede
pony
udstedes
garnet
vinterdæk
##stjer
kortene
hundens
##rate
brugbare
firmaets
##arl
kosm
taks
##erier
klimaforand
lunde
photos
pastor
##anny
langtids
##serfaring
kostet
fugtige
##idenhed
##ygger
konstruktionen
pure
##lyse
##ræne
skamløse
reservere
saftig
##hede
##sband
beklageligvis
##sfun
maduniverset
##uv
krudt
scorer
board
tilhørte
##ekontrakt
velud
resterne
##ios
##bers
beregnede
feder
##elag
##sejendomme
cylinder
konstaterede
kobling
sædvanligt
##betjent
undlader
bygherre
benjamin
svul
hatten
##fredse
bispebjerg
søstre
boligomrader
gudstjeneste
afholdte
kalv
afvisning
##kjole
oppust
##din
oralsex
kommunikerer
skolegang
meret
pave
##undhed
sokker
biografer
demonst
deadline
##okument
gill
lederskab
##udbydere
##opkald
ordbl
swimmingpool
##øgning
forhabentligt
##ederen
riget
laursen
legede
tidsbegræn
lednings
behandlede
trivsels
mejer
jernbanen
##svind
dumfrygt
dik
ifl
##adere
lokalerne
omhyggelig
##brugere
zoner
moren
billigst
feminine
major
akademi
gabri
##steret
dies
philips
##verse
energieffe
middelhavet
##forvaltning
##gyld
escortpige
spisning
beboelse
astrid
radhuset
isabel
##ardi
continue
1908
udseendet
##ævre
nykredit
sis
livsl
##villing
erotic
udpræget
afdelings
##medlemmer
##mægtig
##ningsmuligheder
løsnings
glædet
klimaanlæg
krige
mindet
højsædet
værge
ærke
svigermor
toppe
stemmerne
slide
##medalje
##ryn
tiltalte
pont
##hub
skoledag
##rek
pyt
øko
block
reper
##obje
145
final
datam
sexshop
tændte
slam
cav
didakt
iværksætte
elegance
acceler
##talerne
omdannet
førnævnte
moz
##igan
aber
##other
opfattet
stammen
forudsættes
expl
##sbrug
botilbud
##runder
bøje
varmepumper
##fiber
antrop
susan
portefølje
ekstraudstyr
sælgere
skuffende
##tradition
hindre
antaget
tunn
rettighed
zen
##radt
proceduren
aflyst
indones
nedsætter
musen
lørdags
##kked
dynamik
bour
nale
opdaterer
koret
##skrivninger
strukturen
guidet
##dress
##befolk
stemt
vipper
tilført
##food
verdensplan
pokal
##propper
salater
lear
##omon
frar
##porten
overdrev
østersøen
banks
tempoet
##runden
bankkonto
sangene
forsigtighed
optimeret
##vol
##zym
hærværk
transaktion
iben
kirop
palæ
##dragelsen
opbygningen
affaldet
stæd
skulpturer
traden
kunstakadem
kæder
odsherred
ankommet
storebror
rate
skuffelse
uoverskueligt
fosfor
afsætte
forvirring
##bland
extensions
lysere
harm
folkets
søgefeltet
diarre
lingam
folkeaf
##skampe
huslejen
aktierne
mille
væltede
adoption
##yret
ernst
##resultat
uendeligt
haand
klump
dagslys
rutiner
resulteret
stofskifte
strat
telefonisk
##broen
##face
scenarier
druer
massen
##gb
underretning
kølige
oberst
##erhverv
betænkning
opkrævning
sorteret
diagra
kuffert
polsk
kunstg
##idelse
##usions
effektivisering
konkluderer
##elær
udvise
##acker
betænk
sprøjt
tibet
sluge
rørende
brugerven
tvinger
konkurrencedygtige
##stone
##behandlingen
omsætte
arbejdsgange
##iskab
efterforskning
kopper
fiskeriet
balanc
journalistik
stuer
navnene
tæppet
fremhævet
fremhæv
metall
##edann
mærsk
blodkar
##porte
##tagning
tabeller
market
drast
traktaten
sagsøger
mesterskabet
cannabis
##semb
herman
handkøb
maja
##anche
ædel
fugtighed
knopper
udlændingen
trøjer
talk
premierminister
udvidelsen
installeres
##bisk
banner
diale
arbejdsgruppen
##øjte
revisionen
##æmper
stjæle
overdragelse
lettet
people
##forstyrrelser
vuc
statsaut
phone
usandsyn
glam
##sje
mailen
1924
##sbygning
halskæde
finanskrisen
##sstoffer
parap
1916
##grøn
arbejdsforhold
torsk
scient
##raget
sarbar
##elinjen
rag
timerne
##karakter
##patienter
køberen
106
##kvenser
1921
simonsen
passage
hugo
udkommet
hensynet
asian
barnevogn
socialistiske
##æderne
undervisningsministeriet
corpor
##jack
nuru
censur
fisket
##teminde
bayern
varigt
##jente
pinde
indgives
space
1906
magnes
##redsen
ujævn
rads
##splat
centeret
improv
pick
cut
hammers
##essen
propag
##yring
##katalog
udvendigt
##sættende
stemmen
glass
puber
user
kiel
værdsat
banke
øjenbryn
ice
yngle
sundhedsstyrelsens
skatten
udveksle
historierne
indsendes
tidskrævende
lækkerier
##mmelighed
køben
149
løve
##bøll
grenaa
underlig
moralske
elec
##aktivt
udebl
besvarelse
opstillede
overdraget
kundskab
gryder
vidnesbyrd
##andele
udelukket
charlotten
tørring
charlie
hylderne
massør
aktionærer
joan
sha
nm
##rice
baserer
minib
123
leges
118
klokke
tobias
karamel
##ukt
hands
væsker
virket
scott
tøser
abraham
stearin
##orp
separate
##ienn
dyrkede
svinge
enkeltpersoner
sydjylland
##olis
forsikrings
tiltrækning
giftige
skoen
amok
dobbeltseng
savnede
##oten
hess
song
radioen
##ches
fogh
medaljer
mk
##længde
kloden
rettede
##indehaver
kalorie
ladyboy
impotens
istedgade
##forbed
partnerskaber
thailandske
##ego
##viden
teksterne
calcium
skalen
##esco
nyfødte
nederdel
1937
plantes
udlod
forgænger
knust
opkrævet
værdierne
smurt
høret
##had
saks
æren
bygningsreg
softwaren
##itativ
nedbringe
snow
sponsorer
##leverandør
bekvemt
##panelet
supermarkeder
autentiske
##mmest
##oriteter
portrætter
datidens
frustration
koncentrationen
##jenesten
anse
vene
##alter
blender
##usserne
##world
vejrud
buch
himmer
forresten
sække
##sbanen
##overfladen
markerede
opgaveløs
##sere
udsendelser
##yon
anonymt
tvivler
grinede
1915
##øretøjer
tiltrængt
kurserne
afsendt
nt
##gir
##ilog
udsigter
varierede
velstand
udkanten
landing
fastlægger
bærbar
tilladte
fortrolighed
argentina
bidt
hc
##ssyn
##turen
bmi
tømt
fremhæves
##bussen
twist
fryd
betragtede
ventetiden
motorik
##mør
somal
tao
##iki
scanpix
fastholdelse
indførte
reprodu
##itude
vakte
kombinationer
pilgr
hierark
banebr
skuespilleren
kontrollerer
forsvarlig
##essioner
##sfrist
##sbevis
hævelse
skitse
portioner
ikoniske
ufrivil
spyd
bedømme
administrere
##varmer
beregner
nissen
trendy
udvist
lokalsamfund
trænes
vakuum
bønderne
bidrog
sluppet
##klo
begejstrede
tool
##ief
tove
visionen
116
##journal
forankret
koner
reol
orker
opskrifterne
category
arbejdets
##club
pointen
##bour
romantik
smidig
standse
observeret
oversætte
lektie
datas
angsten
tavshedspligt
##eskyttelse
prævention
##epay
indsamles
energimærke
manuskrip
kredsen
rynker
illustrerer
nag
legeme
nuanceret
##rente
præmisser
erindringer
fora
universal
##ingeniør
##bygges
invit
skriger
##skabel
litteraturen
ballon
køler
palet
betegnet
vestre
##sættelses
skype
kvarteret
oprigtig
pavist
##serende
slukker
##klipper
begar
potentialet
besvares
##afgørende
vestlig
1907
bys
udsving
mekaniske
##ejet
##otel
varetægtsfæng
aspar
##insk
##prim
forbedrede
foa
nicht
fortrydelsesret
##uropa
kirurgi
mogensen
differenti
entydigt
makr
kølvandet
##perne
##print
##edon
ct
kristeligt
##skaffe
liss
fantasif
herlige
krigens
##ebo
udskrevet
dateret
støttes
repræsentantskabet
omklædnings
##ebyg
##garn
nedbrydning
arkæologiske
hedensted
cin
joach
mobilepay
oversættelser
pom
dukket
retssag
filt
iscen
syne
##asi
ergoter
temad
skelet
oil
##sber
utilfredse
jakken
gennemsigtighed
##tallet
fælle
foundation
##anfald
pastande
omf
tilbøjelige
overskri
radius
##installationer
ambassa
town
vejdirektoratet
109
wiki
implementeringen
##uide
polic
brows
lejlighedsvis
motivet
afhentes
##given
##processer
##ished
anslaet
tante
holdets
indkaldelse
folkepension
##ygiej
behøvede
titan
tyrkisk
krydderurter
edition
playst
vinyl
1929
bindings
implant
overfald
1300
margar
lamin
##ills
bull
uskyldige
kent
børneværelset
referen
præstø
medic
academ
animation
##ues
cad
cif
kæft
korrektion
##berettiget
elastik
athen
overtagelse
kogte
##scyklus
straling
##grupperne
landsretten
rally
##ruppen
ulykkes
fiskere
fredede
klor
udendør
kærlige
overvage
datingside
discipliner
rygest
kerteminde
##attest
værdighed
espress
indledes
industr
enge
hansens
arrangeres
tut
##saktiver
underlivet
bendt
lyttede
pse
##inddragelse
videregive
samment
fremdrift
##sbillede
bambus
features
vre
beplantning
tobaks
##oplæg
platformen
eux
turk
boulev
udvælgelsen
##ssikkerhed
udflad
##strande
huser
uffe
læreb
nødsaget
##alin
fjendt
##rise
##onerede
hyggede
rating
almindeligvis
##asien
modet
analog
hehe
##stræde
graden
setup
demonstrere
koh
ugentlig
##kyndige
ægtepar
fristende
smelter
kulturarv
##vænget
##egningen
gls
publiceret
halvvejs
roulette
##boller
tekstiler
rt
spørgeskemaet
##varterer
anlægge
##asino
1905
palidelige
mæg
ld
persondatal
udbyttet
mørkere
alban
hjernesk
korruption
udi
##sporet
præge
middagen
jødisk
cass
menigheden
hook
hjemland
vagter
gyldighed
##team
vælgerne
##skibet
fædr
##rete
##frugter
cart
domineret
##apir
usund
registreringen
søerne
uoverens
sejlet
radgivnings
holdbare
##øgerne
fisser
majs
##ævnes
lauritz
hir
genanvendelse
styringen
skyldige
skraldesp
styrte
smeltet
komponent
dagbladet
##flugt
nybegynder
zu
indkøbskur
dokumenteres
outlet
dump
lake
bore
fjernbetjening
intentioner
majestæt
##lighederne
mathilde
skik
##afhæng
##afgr
karry
##register
dækkende
##neg
paklædning
bedømmelsen
gerning
gentages
lektier
##lim
modstandsdygt
gott
ægtefæller
brugsan
overvejede
ubevidst
##bevægelser
fortsættes
kvalificere
##fællesskab
truppen
sukkede
fjerkræ
præsidenten
##pus
asylansøg
210
##kobling
##stift
heart
stunder
bosch
ral
sok
##uro
beskrevne
børnehaver
myrdet
##cin
antag
##forhøj
##jan
1901
##registrering
modstr
sydamerika
prisbyg
statsborgerskab
##sche
##centrene
robotter
parallelt
indførelsen
frelse
fremvise
radgivende
integrerede
babe
medlemmernes
secur
uforudsig
law
ørest
##unes
##isi
kirst
##ao
kriser
smæk
klasserne
bankerne
downloades
ctr
undertr
karant
frugten
forunder
pistol
drivkraft
##operation
beslutningst
mim
afsætning
##strømning
nam
helene
hæklet
romersk
øvede
##attle
indrettede
uventede
fastholdt
grundlagde
tandlæger
sexdating
##irektør
##arbejdede
funktionsevne
aggressiv
vw
skuldrene
eksisterede
european
udslag
erhvervsmæssig
hoste
forekommende
bibl
ledelsens
##indkøb
delen
##svand
cuba
##oma
kulden
hovedgade
##aged
amatører
eger
hev
enkeltstaende
panser
vat
regionalt
brugbar
##instruktør
havregryn
banebrydende
malere
##skild
opkval
genskabe
skadedyr
slud
queen
klages
##lerose
##lah
matematiske
søgninger
anc
ansl
fotografere
koordinere
playstation
##indtag
vandaf
relationen
1848
spræng
returneres
##rt
beord
##tyskland
##hegn
putter
##spres
network
##otin
##forstaet
eh
muller
##ovo
peders
##utikker
venus
trio
ankenævnet
##pigen
postkort
maxim
krus
konserver
folkelige
fascineret
##igtigelse
##skattel
humoristisk
effektiviteten
forestillet
kontinuerligt
##elivet
justeringer
rare
ryste
højdepunkt
mug
basil
##læst
zoom
varmeste
smabørn
ordfor
museums
##anie
multifunktion
##opt
emilie
##55
inspirerede
vera
gynge
woman
tyver
ubesk
bench
brom
fyren
stoler
tving
kognitive
##enge
behar
##københavn
æblet
personligheder
double
##brænd
instruktøren
krum
onanere
smertestillende
##skursus
rettidigt
lykkeligt
##styre
instituttet
inkludere
grød
prikker
muskels
##specifikke
lokker
forhindret
skabeloner
##pligtelser
1934
facebooks
sea
##serklæring
energimærknings
equ
sunget
##tedes
overtrædelser
bunker
tilskuer
chatte
hydr
malmø
æske
mallor
##ofon
føtex
##handlet
forvaltnings
michel
beretningen
udsmykning
aktiem
koncernens
limfjorden
##budget
tabu
branding
##sgrænse
different
værst
bell
##tech
altafgørende
edb
opsigelses
myn
##arkiv
fælde
hollandsk
##pren
##ainere
konfirmand
##handlen
##ffekter
##sfunktion
alen
paraply
trol
##sfisk
##flow
biomasse
oec
facili
##iferie
smilte
arbejdende
beboelses
##spændende
sundhedsmæssige
gentlemen
##sprincippet
plantage
armlæn
furesø
vandretur
##chf
nordfyn
1951
barndommen
ordrebekræft
nedgang
##øsning
sundhedsperson
beklædt
klæd
slidte
##cr
afrod
indbo
kunstværker
færdiggjort
puslespil
tantramassage
medbragte
multim
##kapitalen
fon
latinske
##gaden
facilitet
helheds
pubertet
##bibliotek
kendelse
bagager
hovedstadens
kontanthjælpsmodtagere
visitation
tandbør
skræmme
paføres
hotelværelse
huawei
##jas
vælte
##ologen
socialdemokratiske
svovl
balsam
##modellen
skøde
knogle
naturvidenskabelige
1925
mirak
kendsgerning
ric
##slerne
##scentret
blomstrende
##lemmerne
brusebad
mure
singap
lap
##befindende
besværlig
friday
neutrale
imorgen
ivrig
greg
partners
##isternes
119
beretter
regneark
glidecreme
rekreative
ubeskriv
##udbud
miljøklagenævnet
øreringe
interessere
uovertru
sognet
udskudt
fejrede
madspild
dyrlægen
anpart
##pekt
##rafik
socialpædagog
uddannelsesforløb
##strøms
##taske
nielsens
personers
gol
formula
betydningsfulde
##handels
fastsla
##gæld
medmennesk
##riterier
lærernes
##vært
ejendomm
##kol
monte
opfordret
forankring
devel
##vat
##pinde
##procenten
escorts
tendensen
turistattra
grid
sugar
forbindes
mandat
rundet
lejes
forandre
chokoladen
symfoni
wint
##magten
##arrangement
suppleant
iflg
##ydninger
malsætningen
gerninger
##rads
##oved
##bit
magnesium
pon
abe
##building
##kirur
følsomhed
absorber
##sporter
##sforsøg
udtrykte
frodige
##cet
indrettes
##marker
php
##lat
salling
understøttelse
niche
movies
budgetter
##øtte
##ificeres
##100
fjerd
plæne
legepladsen
##weg
tømme
164
joachim
ansvarlighed
overlevede
##ippet
ombygget
102
sokkel
##sprotokol
storhed
databasen
##kvaliteten
indspillet
bukke
ingr
ejendele
##sbeskrivelse
##urud
malrettede
efterladte
telte
##forhandling
##vey
cf
formind
udledningen
##klæder
energinet
fagene
1913
##hum
fotograferet
##bestemm
pile
renseanlæg
##møbler
pam
##statistik
##pande
algorit
##stigninger
afhør
feks
fedme
forgangne
tarnby
skiftevis
borgerservice
villaen
##elast
##fattelse
korset
akkomp
bogføring
##resultatet
pseud
pics
egn
##placering
ansku
glød
frigivet
ditte
dæmon
pip
##ytningen
##sbane
værdsætter
parkerings
sindssygt
ejakulation
norddjurs
tobak
##blok
galleriet
optog
efternavn
luftfugt
skræk
four
gutter
bryggers
ubetyd
wol
##atøren
konjunkt
fastlægge
folkekirk
##døre
accessories
opsætte
forældremyndighed
forekomsten
##sjæle
fyldige
retsplej
strækninger
omdrejningspunkt
hipp
clean
bitte
##lay
introducere
siam
nægte
hoff
graders
søv
##fødsels
kess
##ovation
trofaste
##ssted
arbejdsmiljøet
heldigt
spærret
mods
##basen
##klæde
semi
køen
umage
forskelligartede
moon
reklamations
opstilles
formandens
sud
udsendelsen
##butikken
lethed
organisatorisk
##kræfter
køretur
bevæb
jonat
1100
prioriteres
analytics
##ydningen
##starter
delstat
værelsespriser
ali
kollektionen
tunnel
pulsen
depress
##kil
esben
argange
dyreliv
fremlæggelse
##demal
forelægges
lindre
##liner
velsign
handbog
universitetshospital
snork
ansattes
sænker
solcreme
##espiller
hudens
bøder
projektering
##halvaret
ildsjæle
##vag
afstande
silver
opbevarer
roden
stjal
rabarber
kongelig
##illende
adult
evaluerings
spontan
##ily
atletik
##smad
cour
konferen
six
gavner
gynger
##ро
##skuddet
suppleanter
anliggender
foreløbigt
censor
sarte
fødevareminister
respondenter
motions
blærebetændelse
fremgik
graven
favr
eric
essentielt
jammerb
havets
1932
##skabelse
svæve
grænsel
steril
skyndte
returnerer
##feber
##pit
##ommeren
##væksten
nordpa
akryl
trek
psykop
bridge
rena
core
skip
bk
##smen
overfaldet
farfar
##sklin
indrømmer
skjoldbruskkirtlen
svækket
##asta
hm
##imp
##vilje
vareb
thailandsk
livmoderhal
##ence
##iktion
længes
micro
stemmes
superliga
influenza
cond
pegede
undervurder
livsg
erhvervsakadem
umulige
helikopter
kontaktannoncer
islamiske
ai
cod
##foranstaltninger
pa¥
arts
boble
##følgen
terminal
knok
bekræftede
east
blokere
##slu
venedig
chicago
##ution
##pir
156
bbc
##mede
##handsker
mikrofon
fartpilot
værdiskab
ay
##arth
sanseg
sdr
toyota
##hygge
rummeligt
funktionsned
betydninger
##agent
skaft
sveriges
mp3
##udstyret
gulerod
##herre
##renes
siddepladser
pisse
item
##spark
very
##ious
hæftet
##sprocent
##donald
sept
kriterierne
##fare
velegnede
##sne
##mødre
merete
tilvalg
forøgelse
lejemalet
styk
reformen
mindede
løntilskud
drøftes
comments
regeringer
langvarige
afdelingerne
varig
storslaede
journalisten
univer
##vinduer
tæer
158
forefindes
længsel
milep
strøget
rude
midaldrende
betro
##behold
level
parkeringspladsen
##sordning
##andes
utæt
##breve
ifm
startes
overdad
ng
kundet
tapas
##oblig
konventionelle
bolleven
##ejern
##akon
##profession
kronborg
frygtelig
browserversioner
norges
accepteres
broc
##stilsynets
##sbekendt
indstillingerne
##moderne
marcipan
foc
##ify
##nær
dæks
##byer
row
vejl
skansom
christianshavn
essentielle
konstante
##def
afspejle
sovs
indsamlede
helge
story
bitco
ankestyrelsen
##effekt
##nære
klubhuset
landevejen
minoritet
##beredskab
besvarelser
tilberede
logger
skyer
##videoer
##sbøl
##vansk
straffelovens
lchf
tilbygning
come
trip
pent
##nyt
nude
forældet
forplejning
kønssygdomme
##skemaet
##itage
skreg
historiens
##parter
##apperne
forandret
statistikken
##iater
fibr
##hej
##overførsel
tilfældigvis
mager
##delsen
essay
tysker
stalden
hing
letvægt
arbejdsmarkedets
##ventyr
smørret
##sæsonen
mtb
##ivere
muff
##oed
dates
opmunt
jackson
odontologist
uddeles
hverv
tiltalt
barske
##plantillæg
##klaring
blanke
utvivl
bræd
##sides
ignorere
overgangsalderen
1928
filtre
servicem
mete
##farlige
##instinkt
taletidskort
sektioner
kattegat
informationen
dokumentarfilm
kortvarigt
bearbejdning
##perter
diagnoser
frodig
fædreland
duo
##urerne
##indstilling
cher
##element
deal
skale
selvsa
empir
gengivelse
terrænet
stores
allergisk
##izz
boss
pit
beskedne
innovativ
afrikansk
slapper
##gænger
investeringen
##ssamfund
holdte
blabær
flyvning
pumpen
argumentere
tjekkiet
##slande
fremsendt
upload
fia
afsta
eøs
bonusser
bagagen
kard
natural
nutid
##lus
1922
leo
kogebog
##kab
liban
vallens
domme
intensivt
afgives
bush
##xy
##stoffet
stedfor
registrerings
kartoflerne
##spids
gennemse
supervision
rider
nutiden
henføres
illeg
##ilfælde
##skør
københav
rygestop
driller
##irur
verdensklasse
nørresund
opdeles
proportion
sundhedsfaglige
jordbrug
palæstinensiske
##furt
svagheder
gaz
brabrand
malest
forelæs
ion
##brevet
manedligt
##felter
færdighed
irske
returnering
##leverandører
##redskab
##prægede
hong
ivan
klienten
##sniveauet
finansieres
women
pack
##teknik
indlæring
##aper
tild
svindel
##intet
pornostjerner
##sevnen
spredes
træneren
medborger
overladt
forsat
hald
##ility
dyrk
interaktive
##administration
##strøg
kunstigt
fiskene
##iversitet
afprøvning
væsener
##js
1911
yoni
fælled
##nemmelse
b2b
emh
chan
snegle
blogge
hestene
specialer
selvfor
opgradere
##uldt
venteliste
##portal
lyttet
wen
tilga
##ни
tavle
##agaard
fortrolig
korriger
videreuddannelse
##ereres
##amme
##rier
forkant
vinderne
arbejdsglæde
kogende
græder
##asme
fællesk
kunstværk
##etti
kulhydrat
##gol
genvalg
skubbet
kjøb
##igning
plaget
tilstødende
tilløb
troværdig
frustrerende
investerings
##stran
comfort
evangeliet
##sfrit
journ
##kopper
hell
refunderet
jyd
blokke
gog
hegnet
##fattet
candid
##læng
##die
lime
##anni
indikation
##sektor
isbn
##kkelser
webside
francisco
sg
##antal
florida
krydstogt
gebyret
gyser
æggest
miljøv
ressourc
fcm
tavlen
redigering
realiteten
leop
##aktor
##lab
forhandles
fabrikker
williams
tilbragt
ombud
suz
hjerner
tilgange
jug
vedligeholdes
reviderede
650
##slesvig
afmon
sluttet
och
beboernes
##fabrikken
monument
##teborg
markerne
grundlægger
ansøgte
operativ
cocktails
##agelsen
modetøj
pioner
væsken
##hyl
ending
intro
kommentarerne
##studier
##praksis
##indretning
##lejlighed
##samtaler
langsomme
tosset
arkitektoniske
nørresundby
movie
underliv
belyst
ejerskifte
støjende
##træer
sandsynlig
indkøbt
koranen
##riget
cirkulære
4x
##partiet
stedfortræ
beholdere
henriette
forstyrre
##ер
##skru
sædafgang
udklædning
trim
udluft
tolke
##smaling
komprim
udarbejdede
tiende
bagsværd
uart
##organ
oz
##arealerne
spinat
hade
neon
1909
##veren
tac
trøjen
##uz
anmoder
andelig
spektakulære
isa
mundtligt
##gruppens
##ensburg
adwords
kompost
##ppel
læringsmiljø
bagte
satan
output
notes
##gribende
skolernes
overenskomster
bugten
##sno
kontaktede
hælde
asparges
betagende
indeværende
##ando
solnedgang
##sdyr
generende
##nt
marcus
##ssiden
129
learning
##skravet
##ury
sagn
bevilget
xbox
##erklæring
##rett
##hedens
##koncer
ikonet
trofast
##afdelinger
2500
##æser
konkludere
lovlige
værdifuldt
gunnar
reperto
vitter
videob
funktionær
foregaet
fraflytning
##gear
cot
naboerne
magic
bevidstheden
dilemm
##betjeningen
##bob
regninger
administrativt
gradvis
##modtagere
bestræbelser
arkivfoto
afgivne
servicelovens
##fem
jager
bages
freja
flora
løbeb
ensomme
aftager
##højskolen
flyselskaber
##skens
##udviklet
##rang
vande
spand
værts
##trækningen
ambulance
jog
border
lassen
##amerikanske
lancerede
##arerne
indgivet
godkendelses
samfundsfag
gate
singapore
rung
derom
indd
indleder
belønning
udbygge
tiltrækkende
redigeret
##lish
maleren
##ytterne
pludselige
lokalitet
bydelen
cust
besættelsen
indbe
gan
sluger
forbrydelser
mj
kampens
middelhav
græsplæne
gaard
sommerfugle
vandforsyning
genvej
##ietter
tvist
bli
kølig
##smuseet
østrigske
kiroprakt
##idelser
udbygget
googles
afbryde
autost
ugyld
anbringes
##hers
ændringsforslag
##semin
##crem
orm
boende
skærpet
vedligeholdt
nytter
##sign
##ændene
indbringes
tilstedeværende
skys
omkreds
##melade
##fradrag
ekk
havnet
desserter
wc
##kaldende
postkasse
inviteres
afspilning
kirurgisk
zomb
adopt
express
nø
126
##inationen
anede
kognitiv
fortvivl
##offent
stænger
svanem
sortering
##sfasen
rein
syddjurs
koffe
fatter
regulerer
livlig
bamse
##behandlet
##eskriv
uniform
internetbrowser
dilemma
utryghed
forvandlet
volt
stimul
eksplosion
##hængende
konstruktivt
sammensætningen
chelse
evaku
verb
sinds
gut
fejlagtigt
belgiske
vp
sæby
##asso
plukke
terrasser
lungerne
kapel
knytte
chaufføren
tandlægen
doktor
dok
##ringerne
skaff
##flasker
fuglen
##ged
skubber
tættest
pirat
cellerne
##saktivitet
##fotos
dommerne
dee
##forbered
spind
rehabiliter
fløjet
##och
##elæg
maleriet
nytarsaften
consult
##cil
jordskælv
hann
hastigheder
afløn
##isters
##cerende
carbon
##strukturen
tulip
statsborgere
profilen
kritiseret
ødelæggelse
##hall
##unds
##ønder
blænd
meyer
##iri
sarede
upaklag
##ællingen
skadeligt
muhammed
pierre
##hon
##esserne
##kalder
underskrive
overnatninger
fødevarestyrelsen
##sygdom
fabel
nuet
anmeldte
##proced
ophids
telesel
##defin
lysende
alsidige
##overvagning
bergen
##mentering
##ladsen
rengøringen
ishockey
brav
intervention
tilhænger
hei
1926
##kelser
johann
skattefri
standpunkt
tolerance
dg
forbillede
##sforskning
hyppigste
fritiden
bestillingen
næststørste
naturskønne
basketball
fedtsyrer
serviceydelser
##skortet
indberette
ytringsfrihed
stadfæst
##færdige
faneb
aven
##skærme
søjler
##enmand
##nep
csr
humøret
##ingsanlæg
bevæget
birthe
##æpper
vegetar
menighedsradet
osm
byrum
skridtet
naboens
##kæden
medicinal
##hospital
understreges
varmek
præsentationen
slæbe
forrent
beharet
##works
bingo
##oko
fremlagde
friskt
principielt
fischer
motorcykler
forsæt
pakl
bliveenmand
løns
udviklere
utvivlsomt
bænken
barnebarn
##tube
deklar
##ivning
klassens
selen
knive
bered
##færden
omg
##ideres
1923
regnskabspraksis
stjernerne
analyseret
##bestand
##emod
modig
hardeste
gip
spildt
##øns
adels
magtfulde
ansættelsen
opfør
##liget
##hinden
subl
auf
sænket
napoleon
2½
opfatte
myte
medvirken
leverancer
varmes
publikationer
disco
##dig
erkend
elbil
nattes
dametøj
##eback
fjernede
hævdede
##oslav
forudsige
svendsen
##ores
savne
grot
afleverer
foreligge
afklare
##ures
energitil
vandreture
lygte
nordsøen
##timerne
frikad
124
vallensbæk
pryd
udpegede
##ione
valley
udstedelse
##unn
##arie
random
epide
1904
sultne
sicil
##ansættelse
sammenholdt
koncepter
klasses
administrations
##spændt
opretholdes
tidsrummet
tonen
##skæringer
aminos
##installation
##srige
lif
sexannoncer
stearinlys
printe
direktivet
toks
##rængning
##graden
kommunalbestyrelsens
fugtigt
1860
sou
salmer
dyrenes
pensionister
##arme
##skærmen
energistyrelsen
folkeskolens
brætspil
##vine
##ssteder
##følsomme
##overenskom
##fect
##hulen
##spligtige
##ulet
127
##sekretariatet
nytænkning
forudsætningen
efterspurgt
sponsoreret
##velfærd
vestind
guddommelige
støvet
tja
befolkningens
ted
arist
##abnet
lettelse
hotteste
taxi
intervaller
fortryl
##diagn
overgaet
anerkendende
mallorca
bof
ræv
netdating
justeret
pcb
##befolkningen
##ørrelse
##udveksling
ualmindeligt
booker
##manns
vulkan
egnen
159
erfaringen
hads
##apparater
soundtra
saxo
kri
##ssæt
tilskrives
##emark
##akiet
tas
diy
connect
veterin
##straf
ate
##føreren
tilsætte
dani
tinglysning
prøverne
kids
dubai
opsyn
##igeret
rullet
binding
##berede
arrangør
cykeltur
##ск
##ræder
beføjelser
friskole
underlige
##onda
hatt
pie
##unsten
ism
##ønnen
peer
honorar
stick
sproglig
optagelsen
osse
##ights
symbolet
forbundne
trumps
##komite
værdik
aby
spisestue
skeptisk
blinker
unionen
givende
hjulene
tasten
flager
hængek
##sfejl
overvag
solsk
##instrumenter
##sburg
hjælpemiddel
absurd
skræn
##strømmen
##giftning
monopol
læsø
donor
afskrivninger
train
optagelserne
tet
bearbejde
misbru
##steknik
##skasser
##plante
usynlige
biseksuelle
hirt
smating
isolation
##igelser
julius
cs
hjælpende
slib
##rettigheder
sofistik
##perioder
##æres
nordamerika
skattes
prognose
overarbejde
samtidige
##psi
hæmmer
gulvt
nordjyllands
##scentre
##deb
##sbl
bombar
korps
##overs
emotion
##rivende
pommes
genanvend
lavest
værkerne
tiders
text
##upp
bandets
gennemsnits
koordination
mann
garantien
transskri
pabegynde
laboratorie
sys
kaja
intention
nedlægge
aftalens
##grænser
awards
brylluppet
forbav
relative
stream
##rustet
begæring
parent
##ererede
steve
støbt
mediet
tilliden
##inans
tiltænkt
autocamper
gennemsigtig
definitioner
##belægning
vandværket
truende
по
##dateret
solidaritet
overblikket
verdensom
stegte
eksperimenterende
##orff
uddyber
103
vedlægges
tæve
eliz
##prog
tatovering
tokyo
nils
tilegne
orient
tilstedeværelsen
eyel
godset
planlægnings
##hab
energibesparelser
##nic
##gom
##optagelse
gnid
afhænge
odontologistudiet
københavner
anhænger
jøde
transporteres
##ero
gengivet
tillod
kirstine
ideologi
##pause
trig
carol
realdan
##bex
ilde
undersøgelsens
dejligste
##opro
##ffic
uforudset
##oldt
kysser
halen
tilbuddene
fredelig
gummist
snaps
institutionerne
latina
bygningsdele
antikvar
kikker
##spej
værnem
tron
rekt
amerikanere
trommer
migræne
dynen
energikl
nim
tt
bibliotekerne
jos
##hes
realkreditlan
##ет
slang
lodrette
##lie
brutal
ferr
##sfirma
anstænd
omtanke
intakt
sri
trykkes
sif
##ovic
virgin
strikker
##aftryk
afspille
likes
gevaldigt
eco
##jun
brat
bym
kerner
1927
dyk
mond
holte
skygger
##giske
brandvæsen
kongeriget
##uppe
beta
skibets
faderens
fysioterapeuter
vanvittig
munter
apv
julemanden
konsist
##uheld
##ovede
bagside
evighed
bark
##okem
slikket
emission
bordplade
adgangs
##flot
##siddende
jokes
kvist
fuge
##het
turb
##hvide
stejl
beskyld
rustfri
villet
underrette
##vandring
##stænger
za
##landene
ophæve
##svægt
kommunalreformen
klimatil
udlejes
farvek
nobel
formater
politikken
aldersfor
##stimer
finur
##kvensen
##sbru
fotografen
telia
dubl
##ækkes
##door
brystvorter
##hullet
leveringen
forur
##olas
præsentationer
hhx
##personale
lemp
pendler
##accept
tayl
moster
offsh
ping
asger
##ansat
raw
##edi
##personalet
##bandet
##licht
skolebørn
frustreret
pyram
selvfølge
superhost
phen
brandet
##bølle
atlas
##sejlads
malware
bedstefar
indsa
emnerne
##issioner
##head
forestaende
##eskind
krad
##shals
vejrudsigt
afventer
epile
country
aj
1931
campingpladser
kommuneplantillæg
rustet
##oj
##oleum
bogholder
taktik
udadtil
artiller
studien
##vindue
omverden
##antz
bakterie
frafald
##bolde
førstegang
##fiskeri
grammatik
spra
bølgerne
eksistenti
digtsamling
gælden
pollen
##iders
bedrager
sanktion
##arg
##størrelser
hpv
##fransk
saadan
111
##strategien
ældrer
lucas
sekundær
overnatningssteder
##standarder
kate
istandsættelse
havudsigt
tilskuds
##gym
##øvn
laboratorium
hønse
tiln
holdbart
sangskriver
##apparatet
ejerlejlighed
550
##sarbejde
krydderi
afgiften
forbløff
tolkning
klippes
##talen
short
forfølge
jeanette
forløbne
ophob
##gulv
##urch
##orlov
freden
observere
##eguide
udpl
hjælpsom
præmis
procentpoint
hytten
synke
##sminde
deltageren
mascara
fyrt
boligens
dedikerede
##gie
farma
kvalitative
højlyd
statistikker
fortrudt
skiløb
##storm
157
anlægges
svenskerne
afbryder
pvc
##ische
trille
gruppearbejde
nyheden
empati
lægemidlet
##sfilm
indarbejdet
##ællinger
databeskyttelses
anatomi
hurra
indtaster
bloggere
frederiksværk
adobe
bestyrelsesformand
nedrivning
arsenal
kablet
material
bekræftes
indtages
source
forskels
udtør
##æmpet
ligesindede
mytologi
##ølv
neglelak
##orkester
bebyggelses
storkøbenhavn
koordinator
slør
hovedban
betragtninger
##vanskeligheder
gætter
aftryk
hensigtsmæssige
ækv
aur
brugbart
inderst
##koncert
straffet
tucan
##beton
passiver
ifald
##made
glimmer
baggrunde
saftige
adress
presses
##ders
spæde
bloom
udsættelse
rengøres
tidligste
justitsministeriet
##kryds
genetisk
skrivning
overfladisk
orgel
nyhederne
canadiske
##wall
lakt
føje
viktor
##opæd
hakkede
selskaberne
erhvervsstyrelsen
sols
klares
lufthavne
stiftede
scandinav
bider
somme
certific
definitionen
entreen
søndergaard
ejerlejligheder
energimærkning
mount
tosc
undersk
##ateriel
ørsted
konservativ
benyttelse
snur
##region
autov
##eper
aktiverer
1902
##kkert
alan
strømmer
clear
##icerer
glatbar
logoet
applikation
lau
eddike
chauffører
udformningen
andrea
telefonnumre
sværeste
datatilsynet
siem
##oz
##læse
km²
bedring
##gaarden
##ebørn
forfatterens
ekspans
piskes
officerer
spilleautomater
pel
multik
##elli
omkr
friedrich
##iklerne
varmtvand
##interview
##dist
komedie
inspirerer
1903
6000
##værelserne
##villa
fagets
bej
basic
antist
##metoder
rc
stjernen
gys
p3
forfærdelige
##gam
uer
fake
blodprøver
##dragter
solcelleanlæg
retlige
stemmeberettigede
sportsgrene
##obs
annul
##aro
stedets
valutak
luxem
##ionerede
disken
##sbevidst
fartøjer
træpiller
termost
##blomster
##uck
indskol
hævde
massevis
rystet
medvirkede
flyrejser
anmeldes
published
fyrværkeri
overflod
hastigt
udpeger
fokusomrader
udskrives
##faktor
disses
product
venstrefløjen
opsættes
bureauer
##kart
udtræk
drastisk
øvet
afviger
forvirrende
##canner
psykoterapeut
neb
##terrasse
##iers
##sbroen
deltids
jammerbugt
begrundelsen
tegneserier
rastof
pyr
fade
forhen
fodre
diskrete
oecd
##tasker
frav
ordentlige
medhold
barriere
følelserne
verdener
glædede
leveringstiden
turbo
eksek
punktum
persille
develop
svimmelhed
chelsea
vægte
crow
##stager
##overy
østrogen
hay
bened
##ruter
pizz
##emon
##sbestyr
sagsnr
ødelæggende
nur
talje
tryks
forberedte
byttet
stemplet
koffein
tilstræber
##konkurrence
objektive
forsinkelser
økonomiudvalget
sødeste
bring
fremtræder
suverænt
musical
pante
ryk
##iceres
rollem
motivationen
impuls
schw
religioner
##antiske
##ieren
messer
installatør
fremstillingen
venne
børnem
teologi
inspirationen
medtages
regelsæt
##traf
hjulet
workshoppen
indhentes
svømmehal
##rulle
wird
roklub
##inas
hovedsæde
##shot
##soci
##hud
administreres
##dygtig
restriktioner
koger
gigantisk
##sygdomme
grøntsag
michelle
##ities
delene
##fortælling
hirtshals
lærke
milan
usikkert
telenor
tanden
serveren
lørdagen
brikker
siv
emmer
##hai
cykels
jævnaldrende
indebære
##rot
saf
enkeltvis
beryg
##hjælpen
herr
##46
beholderen
domkirke
universiteterne
##uit
##strene
##show
grey
##øfter
involvere
brusen
udvej
overskuds
sb
##kd
kridt
miles
emm
koch
immunforsvar
##foss
##støb
##endel
menneskeligt
##kkedes
##47
computerspil
havner
fristet
##ruder
forband
drøftelser
°c
triste
kulm
fotografi
##ivalen
samfundsvidenskab
western
##itas
steds
gavne
korrektur
vase
ligetil
##imet
fortræ
##linjer
##læggelsen
støvring
forbrydelse
##afgifter
brygget
##amas
eksemplet
stiftstidende
adskille
##sfaciliteter
prev
antis
anmodet
bemærkelsesværdigt
kontroversi
havemøbler
##ærte
revolutionære
styrede
arthur
føj
tatto
##wig
skylle
violin
regnb
høste
##løsningen
wid
linier
##ssik
##stend
stone
##trer
##shæ
fødes
##elmasse
omgiver
asylansøgere
fladskærms
repareret
sekundære
kraftvarme
skrig
tillagt
kunstmuseum
##izer
##hugger
betænd
##alismens
brad
##icon
wonder
vistnok
besynder
vandh
saga
seer
protected
velgør
volden
knæet
##skommun
code
lagkage
edge
##sordningen
misforstaelser
højtalere
##rammen
frans
vaccination
forneden
modtagne
uddateret
ømhed
##kere
##niveauer
gaa
udvælger
bagerst
##iate
viv
mælkes
koges
##saffald
fredning
mosa
##bekæmpelse
bebrej
leveren
tilsynsm
##slinje
efterarets
radiator
advarsler
førend
##indik
vindende
forsvarets
vestergaard
synonym
værten
medalje
oplæring
retsfor
undsl
eksotisk
htx
##bjærg
udspiller
keld
bomber
kejsersnit
stigninger
##aaaa
##fredshed
avoc
##ulationen
imødega
##mønster
afstemningen
##ussens
benævnt
##alede
##boe
squash
##ickl
partierne
kørslen
versionen
utalmod
##kyl
##splanlæg
fredeligt
filip
baade
fjenden
ristet
elvis
##smalet
favrskov
skrider
##egangen
autorisation
entreprenører
udbredelsen
fifa
gymnasiale
pensel
##vejene
hjemlige
bekymrende
regntøj
selvsamme
efterlyser
manedens
overenskomsten
utilstrækkelig
##fokus
jersey
##sfælles
antikke
gature
##græs
jv
børsno
pladserne
mikrobølge
kontinu
tænket
mangelfuld
ernærings
grimt
lens
sper
pesticider
fiction
uddannelsesinstitution
færdiggøre
anmodningen
##kvinder
konvertere
##vedt
bomb
militært
arbejdsgiverne
boulevard
poesi
##spraktik
udslip
##inere
forseg
metabol
omdømme
videokvalitet
tvillinger
dyd
##lamper
turn
anno
stressede
certificerede
kortlægge
guldborg
##care
atel
hjemmeholdet
reklamation
hjemmesko
skildpad
selvop
ansættelsesforhold
bilder
kapsler
##toft
bestseller
ambitiøs
nationalitet
##handleren
offensiv
legat
##skontoret
komplekst
tidsskrifter
berørings
puster
sett
eftertanke
udlægges
2x
##brik
underholdt
grundvandet
sporty
isolerede
adren
trup
exit
htc
##folket
tilskadekomne
##sbro
afslappede
lokalsamfundet
ortod
asm
relaterer
##oplysningerne
garantier
modstanderen
tiltagende
briterne
than
engros
##reger
##endo
##bourg
##rengøring
gulvaf
indanding
trilog
kommercielt
tits
gymnasier
karton
optagelses
straffen
##wear
tidssvarende
bortskaffelse
bakket
uved
##enheden
veroffent
gentagelse
lukas
pointer
forsamlingshus
ærlighed
##puder
ærg
udelukker
rend
offline
persien
##ogene
bagen
etablerer
##lot
passive
badetøj
prale
grafen
mikroskop
æter
##komment
tackle
klagenævnet
panorama
opereret
hvalpene
supermarkedet
radhuspladsen
##not
vedtagne
scre
manedlig
sammenbrud
vasketøj
indser
##etto
##ird
stryg
##yndere
skilles
opgraderet
##engen
kokken
##iken
rettidig
førhen
##fid
øjenkontakt
sammenlægning
hjemmehørende
hiver
##æner
afspær
viggo
maner
underlaget
overvejelse
tillægs
##standard
programmerne
byggepladsen
veroffentlicht
gna
svende
##edren
##seret
##ль
skabelsen
##regningen
##filer
want
lancerer
1898
forøge
frister
##reglen
apples
kronen
hawa
misbrugt
maskinerne
winther
udløst
lon
grindsted
forstærke
indtastet
##legemer
##bæl
kusser
progression
familiemedlem
transmission
sydney
##bye
sparekassen
half
vibrationer
julian
##smedicin
varige
andele
##bech
partikel
dygtigste
##sædet
nødde
rørte
infer
##ssyge
tarmen
lesbian
søjle
regionsradet
##skjold
pros
aop
lageret
sensitiv
høg
136
##sang
##valu
massag
vagn
##ulu
ministre
kunsthandværk
anvendelser
hygget
##fæste
trænede
sælgeren
medbringer
dominerer
sq
udvand
slov
hjemmek
beregn
##stream
introducerer
opbevaret
belastende
cremer
##spisning
cort
handles
148
forespørgsler
dmi
##formular
genialt
peru
havørred
##lign
pengep
##svirk
##tennis
mie
##enen
byggel
##cat
raad
blomstre
clint
scooter
##elov
saudi
diagram
talen
##kroner
herregard
hofter
tæerne
##sfra
præstegard
##hjælpere
dybeste
skom
##ræde
##base
##ukser
##masse
##edelt
##iseringen
##odser
fagomrader
ydersiden
pract
standby
138
ansættes
anvendelig
familiesammen
hviskede
fødselsdage
##informationer
byrde
excl
ryster
##skor
halvøen
sportslige
use
##shoved
nerver
kroge
pæd
flov
pænere
sjællands
undtagelses
swingers
beboeren
damen
overga
innovations
fravælge
elbiler
##hest
##rækkende
fokuserede
##ovej
skibene
##splant
##isch
nattel
kriger
handjob
igangsætte
multip
flensburg
galde
gennemtænkt
arbe
realiseret
evalueres
marokko
##væske
piv
healing
bordene
##icering
##afler
lodtrækning
hjælpes
uklart
tjenest
hæmor
foranstaltning
sammenstød
kropssprog
thorvaldsen
renses
hage
##inkler
##etemperatur
uvild
qual
##slinjen
færdsel
studeret
##alition
powerpoint
maur
gevind
skorsten
beholdt
kalium
guvern
##ørsler
intimitet
spækket
##ostyring
##ograph
het
##iral
virknings
branchens
##dahl
dokumentationen
doven
milano
kessler
##regionen
vesteurop
elastisk
skytte
##ovide
##lavede
##ны
salte
sare
##løjtnant
some
piercing
skiltet
##møller
virtual
ekstrabladet
dekorative
indfødte
forretningsorden
maribo
misforstaet
uaccept
bagl
##koden
overlegen
##retlige
sofab
##rakter
engine
hjemmeplejen
forstopp
year
sommerdag
indflytning
palæstina
odd
records
##pist
gavl
livlige
statsk
##givelsen
behør
##sge
##etage
underjord
julia
association
krænkelse
frokosten
maltidet
flyvet
kodeord
velhavende
motoriske
##parker
reagerede
afspejles
vedlagte
beharede
##partnere
debitor
muslimsk
##sidste
strukturelle
konkurrent
forstad
##kontrakt
##skonstru
bulgarien
øh
##finger
##rute
##klap
valgfri
referatet
begivenhederne
kursisterne
skildrer
børge
brændsel
domæner
efterarsferien
##wi
monum
offentliggør
spares
##forskel
bumser
drivhuset
sprunget
aggressive
smukkere
røres
##kyndig
##cus
##læggelser
sense
[...]
