[PAD]
[unused0]
[unused1]
[unused2]
[unused3]
[unused4]
[unused5]
[unused6]
[unused7]
[unused8]
[unused9]
[unused10]
[unused11]
[unused12]
[unused13]
[unused14]
[unused15]
[unused16]
[unused17]
[unused18]
[unused19]
[unused20]
[unused21]
[unused22]
[unused23]
[unused24]
[unused25]
[unused26]
[unused27]
[unused28]
[unused29]
[unused30]
[unused31]
[unused32]
[unused33]
[unused34]
[unused35]
[unused36]
[unused37]
[unused38]
[unused39]
[unused40]
[unused41]
[unused42]
[unused43]
[unused44]
[unused45]
[unused46]
[unused47]
[unused48]
[unused49]
[unused50]
[unused51]
[unused52]
[unused53]
[unused54]
[unused55]
[unused56]
[unused57]
[unused58]
[unused59]
[unused60]
[unused61]
[unused62]
[unused63]
[unused64]
[unused65]
[unused66]
[unused67]
[unused68]
[unused69]
[unused70]
[unused71]
[unused72]
[unused73]
[unused74]
[unused75]
[unused76]
[unused77]
[unused78]
[unused79]
[unused80]
[unused81]
[unused82]
[unused83]
[unused84]
[unused85]
[unused86]
[unused87]
[unused88]
[unused89]
[unused90]
[unused91]
[unused92]
[unused93]
[unused94]
[unused95]
[unused96]
[unused97]
[unused98]
[unused99]
[unused100]
[unused101]
[unused102]
[unused103]
[unused104]
[unused105]
[unused106]
[unused107]
[unused108]
[unused109]
[unused110]
[unused111]
[unused112]
[unused113]
[unused114]
[unused115]
[unused116]
[unused117]
[unused118]
[unused119]
[unused120]
[unused121]
[unused122]
[unused123]
[unused124]
[unused125]
[unused126]
[unused127]
[unused128]
[unused129]
[unused130]
[unused131]
[unused132]
[unused133]
[unused134]
[unused135]
[unused136]
[unused137]
[unused138]
[unused139]
[unused140]
[unused141]
[unused142]
[unused143]
[unused144]
[unused145]
[unused146]
[unused147]
[unused148]
[unused149]
[unused150]
[unused151]
[unused152]
[unused153]
[unused154]
[unused155]
[unused156]
[unused157]
[unused158]
[unused159]
[unused160]
[unused161]
[unused162]
[unused163]
[unused164]
[unused165]
[unused166]
[unused167]
[unused168]
[unused169]
[unused170]
[unused171]
[unused172]
[unused173]
[unused174]
[unused175]
[unused176]
[unused177]
[unused178]
[unused179]
[unused180]
[unused181]
[unused182]
[unused183]
[unused184]
[unused185]
[unused186]
[unused187]
[unused188]
[unused189]
[unused190]
[unused191]
[unused192]
[unused193]
[unused194]
[unused195]
[unused196]
[unused197]
[unused198]
[unused199]
[unused200]
[unused201]
[unused202]
[unused203]
[unused204]
[unused205]
[unused206]
[unused207]
[unused208]
[unused209]
[unused210]
[unused211]
[unused212]
[unused213]
[unused214]
[unused215]
[unused216]
[unused217]
[unused218]
[unused219]
[unused220]
[unused221]
[unused222]
[unused223]
[unused224]
[unused225]
[unused226]
[unused227]
[unused228]
[unused229]
[unused230]
[unused231]
[unused232]
[unused233]
[unused234]
[unused235]
[unused236]
[unused237]
[unused238]
[unused239]
[unused240]
[unused241]
[unused242]
[unused243]
[unused244]
[unused245]
[unused246]
[unused247]
[unused248]
[unused249]
[unused250]
[unused251]
[unused252]
[unused253]
[unused254]
[unused255]
[unused256]
[unused257]
[unused258]
[unused259]
[unused260]
[unused261]
[unused262]
[unused263]
[unused264]
[unused265]
[unused266]
[unused267]
[unused268]
[unused269]
[unused270]
[unused271]
[unused272]
[unused273]
[unused274]
[unused275]
[unused276]
[unused277]
[unused278]
[unused279]
[unused280]
[unused281]
[unused282]
[unused283]
[unused284]
[unused285]
[unused286]
[unused287]
[unused288]
[unused289]
[unused290]
[unused291]
[unused292]
[unused293]
[unused294]
[unused295]
[unused296]
[unused297]
[unused298]
[unused299]
[unused300]
[unused301]
[unused302]
[unused303]
[unused304]
[unused305]
[unused306]
[unused307]
[unused308]
[unused309]
[unused310]
[unused311]
[unused312]
[unused313]
[unused314]
[unused315]
[unused316]
[unused317]
[unused318]
[unused319]
[unused320]
[unused321]
[unused322]
[unused323]
[unused324]
[unused325]
[unused326]
[unused327]
[unused328]
[unused329]
[unused330]
[unused331]
[unused332]
[unused333]
[unused334]
[unused335]
[unused336]
[unused337]
[unused338]
[unused339]
[unused340]
[unused341]
[unused342]
[unused343]
[unused344]
[unused345]
[unused346]
[unused347]
[unused348]
[unused349]
[unused350]
[unused351]
[unused352]
[unused353]
[unused354]
[unused355]
[unused356]
[unused357]
[unused358]
[unused359]
[unused360]
[unused361]
[unused362]
[unused363]
[unused364]
[unused365]
[unused366]
[unused367]
[unused368]
[unused369]
[unused370]
[unused371]
[unused372]
[unused373]
[unused374]
[unused375]
[unused376]
[unused377]
[unused378]
[unused379]
[unused380]
[unused381]
[unused382]
[unused383]
[unused384]
[unused385]
[unused386]
[unused387]
[unused388]
[unused389]
[unused390]
[unused391]
[unused392]
[unused393]
[unused394]
[unused395]
[unused396]
[unused397]
[unused398]
[unused399]
[unused400]
[unused401]
[unused402]
[unused403]
[unused404]
[unused405]
[unused406]
[unused407]
[unused408]
[unused409]
[unused410]
[unused411]
[unused412]
[unused413]
[unused414]
[unused415]
[unused416]
[unused417]
[unused418]
[unused419]
[unused420]
[unused421]
[unused422]
[unused423]
[unused424]
[unused425]
[unused426]
[unused427]
[unused428]
[unused429]
[unused430]
[unused431]
[unused432]
[unused433]
[unused434]
[unused435]
[unused436]
[unused437]
[unused438]
[unused439]
[unused440]
[unused441]
[unused442]
[unused443]
[unused444]
[unused445]
[unused446]
[unused447]
[unused448]
[unused449]
[unused450]
[unused451]
[unused452]
[unused453]
[unused454]
[unused455]
[unused456]
[unused457]
[unused458]
[unused459]
[unused460]
[unused461]
[unused462]
[unused463]
[unused464]
[unused465]
[unused466]
[unused467]
[unused468]
[unused469]
[unused470]
[unused471]
[unused472]
[unused473]
[unused474]
[unused475]
[unused476]
[unused477]
[unused478]
[unused479]
[unused480]
[unused481]
[unused482]
[unused483]
[unused484]
[unused485]
[unused486]
[unused487]
[unused488]
[unused489]
[unused490]
[unused491]
[unused492]
[unused493]
[unused494]
[unused495]
[unused496]
[unused497]
[unused498]
[unused499]
[unused500]
[unused501]
[unused502]
[unused503]
[unused504]
[unused505]
[unused506]
[unused507]
[unused508]
[unused509]
[unused510]
[unused511]
[unused512]
[unused513]
[unused514]
[unused515]
[unused516]
[unused517]
[unused518]
[unused519]
[unused520]
[unused521]
[unused522]
[unused523]
[unused524]
[unused525]
[unused526]
[unused527]
[unused528]
[unused529]
[unused530]
[unused531]
[unused532]
[unused533]
[unused534]
[unused535]
[unused536]
[unused537]
[unused538]
[unused539]
[unused540]
[unused541]
[unused542]
[unused543]
[unused544]
[unused545]
[unused546]
[unused547]
[unused548]
[unused549]
[unused550]
[unused551]
[unused552]
[unused553]
[unused554]
[unused555]
[unused556]
[unused557]
[unused558]
[unused559]
[unused560]
[unused561]
[unused562]
[unused563]
[unused564]
[unused565]
[unused566]
[unused567]
[unused568]
[unused569]
[unused570]
[unused571]
[unused572]
[unused573]
[unused574]
[unused575]
[unused576]
[unused577]
[unused578]
[unused579]
[unused580]
[unused581]
[unused582]
[unused583]
[unused584]
[unused585]
[unused586]
[unused587]
[unused588]
[unused589]
[unused590]
[unused591]
[unused592]
[unused593]
[unused594]
[unused595]
[unused596]
[unused597]
[unused598]
[unused599]
[unused600]
[unused601]
[unused602]
[unused603]
[unused604]
[unused605]
[unused606]
[unused607]
[unused608]
[unused609]
[unused610]
[unused611]
[unused612]
[unused613]
[unused614]
[unused615]
[unused616]
[unused617]
[unused618]
[unused619]
[unused620]
[unused621]
[unused622]
[unused623]
[unused624]
[unused625]
[unused626]
[unused627]
[unused628]
[unused629]
[unused630]
[unused631]
[unused632]
[unused633]
[unused634]
[unused635]
[unused636]
[unused637]
[unused638]
[unused639]
[unused640]
[unused641]
[unused642]
[unused643]
[unused644]
[unused645]
[unused646]
[unused647]
[unused648]
[unused649]
[unused650]
[unused651]
[unused652]
[unused653]
[unused654]
[unused655]
[unused656]
[unused657]
[unused658]
[unused659]
[unused660]
[unused661]
[unused662]
[unused663]
[unused664]
[unused665]
[unused666]
[unused667]
[unused668]
[unused669]
[unused670]
[unused671]
[unused672]
[unused673]
[unused674]
[unused675]
[unused676]
[unused677]
[unused678]
[unused679]
[unused680]
[unused681]
[unused682]
[unused683]
[unused684]
[unused685]
[unused686]
[unused687]
[unused688]
[unused689]
[unused690]
[unused691]
[unused692]
[unused693]
[unused694]
[unused695]
[unused696]
[unused697]
[unused698]
[unused699]
[unused700]
[unused701]
[unused702]
[unused703]
[unused704]
[unused705]
[unused706]
[unused707]
[unused708]
[unused709]
[unused710]
[unused711]
[unused712]
[unused713]
[unused714]
[unused715]
[unused716]
[unused717]
[unused718]
[unused719]
[unused720]
[unused721]
[unused722]
[unused723]
[unused724]
[unused725]
[unused726]
[unused727]
[unused728]
[unused729]
[unused730]
[unused731]
[unused732]
[unused733]
[unused734]
[unused735]
[unused736]
[unused737]
[unused738]
[unused739]
[unused740]
[unused741]
[unused742]
[unused743]
[unused744]
[unused745]
[unused746]
[unused747]
[unused748]
[unused749]
[unused750]
[unused751]
[unused752]
[unused753]
[unused754]
[unused755]
[unused756]
[unused757]
[unused758]
[unused759]
[unused760]
[unused761]
[unused762]
[unused763]
[unused764]
[unused765]
[unused766]
[unused767]
[unused768]
[unused769]
[unused770]
[unused771]
[unused772]
[unused773]
[unused774]
[unused775]
[unused776]
[unused777]
[unused778]
[unused779]
[unused780]
[unused781]
[unused782]
[unused783]
[unused784]
[unused785]
[unused786]
[unused787]
[unused788]
[unused789]
[unused790]
[unused791]
[unused792]
[unused793]
[unused794]
[unused795]
[unused796]
[unused797]
[unused798]
[unused799]
[unused800]
[unused801]
[unused802]
[unused803]
[unused804]
[unused805]
[unused806]
[unused807]
[unused808]
[unused809]
[unused810]
[unused811]
[unused812]
[unused813]
[unused814]
[unused815]
[unused816]
[unused817]
[unused818]
[unused819]
[unused820]
[unused821]
[unused822]
[unused823]
[unused824]
[unused825]
[unused826]
[unused827]
[unused828]
[unused829]
[unused830]
[unused831]
[unused832]
[unused833]
[unused834]
[unused835]
[unused836]
[unused837]
[unused838]
[unused839]
[unused840]
[unused841]
[unused842]
[unused843]
[unused844]
[unused845]
[unused846]
[unused847]
[unused848]
[unused849]
[unused850]
[unused851]
[unused852]
[unused853]
[unused854]
[unused855]
[unused856]
[unused857]
[unused858]
[unused859]
[unused860]
[unused861]
[unused862]
[unused863]
[unused864]
[unused865]
[unused866]
[unused867]
[unused868]
[unused869]
[unused870]
[unused871]
[unused872]
[unused873]
[unused874]
[unused875]
[unused876]
[unused877]
[unused878]
[unused879]
[unused880]
[unused881]
[unused882]
[unused883]
[unused884]
[unused885]
[unused886]
[unused887]
[unused888]
[unused889]
[unused890]
[unused891]
[unused892]
[unused893]
[unused894]
[unused895]
[unused896]
[unused897]
[unused898]
[unused899]
[unused900]
[unused901]
[unused902]
[unused903]
[unused904]
[unused905]
[unused906]
[unused907]
[unused908]
[unused909]
[unused910]
[unused911]
[unused912]
[unused913]
[unused914]
[unused915]
[unused916]
[unused917]
[unused918]
[unused919]
[unused920]
[unused921]
[unused922]
[unused923]
[unused924]
[unused925]
[unused926]
[unused927]
[unused928]
[unused929]
[unused930]
[unused931]
[unused932]
[unused933]
[unused934]
[unused935]
[unused936]
[unused937]
[unused938]
[unused939]
[unused940]
[unused941]
[unused942]
[unused943]
[unused944]
[unused945]
[unused946]
[unused947]
[unused948]
[unused949]
[unused950]
[unused951]
[unused952]
[unused953]
[unused954]
[unused955]
[unused956]
[unused957]
[unused958]
[unused959]
[unused960]
[unused961]
[unused962]
[unused963]
[unused964]
[unused965]
[unused966]
[unused967]
[unused968]
[unused969]
[unused970]
[unused971]
[unused972]
[unused973]
[unused974]
[unused975]
[unused976]
[unused977]
[unused978]
[unused979]
[unused980]
[unused981]
[unused982]
[unused983]
[unused984]
[unused985]
[unused986]
[unused987]
[unused988]
[unused989]
[unused990]
[unused991]
[unused992]
[unused993]
[unused994]
[unused995]
[unused996]
[unused997]
[unused998]
[unused999]
[UNK]
[CLS]
[SEP]
[MASK]
!
"
#
$
%
&
'
(
)
*
+
,
-
.
/
0
1
2
3
4
5
6
7
8
9
:
;
=
?
@
[
\
]
^
_
`
a
b
c
d
e
f
g
h
i
j
k
l
m
n
o
p
q
r
s
t
u
v
w
x
y
z
{
|
}
~
¡
£
§
¨
«
®
°
±
²
³
´
µ
·
¹
º
»
¼
½
¾
×
ß
æ
ð
÷
ø
þ
đ
ħ
ı
ĳ
ł
ŋ
œ
ŧ
ƒ
ɐ
ɑ
ɒ
ɓ
ɔ
ɕ
ə
ɛ
ɡ
ɣ
ɨ
ɪ
ɲ
ɽ
ɾ
ʁ
ʃ
ʉ
ʊ
ʋ
ʒ
ʔ
ʰ
ʲ
ʹ
ʻ
ʼ
ʾ
ʿ
ˈ
ˌ
ː
˚
΄
α
β
γ
δ
ε
ζ
η
θ
ι
κ
λ
μ
ν
ξ
ο
π
ρ
ς
σ
τ
υ
φ
χ
ψ
ω
а
б
в
г
д
е
ж
з
и
к
л
м
н
о
п
р
с
т
у
ф
х
ц
ч
ш
щ
ъ
ы
ь
э
ю
я
ђ
є
і
ј
љ
њ
ћ
қ
ү
ӏ
ә
ө
ա
բ
գ
դ
ե
զ
թ
ի
լ
կ
հ
ղ
մ
յ
ն
շ
ո
ս
վ
տ
ր
ւ
ք
א
ב
ג
ד
ה
ו
ז
ח
ט
י
כ
ל
ם
מ
ן
נ
ס
ע
ף
פ
צ
ק
ר
ש
ת
ء
ا
ب
ة
ت
ث
ج
ح
خ
د
ذ
ر
ز
س
ش
ص
ض
ط
ظ
ع
غ
ف
ق
ك
ل
م
ن
ه
و
ى
ي
پ
چ
ک
گ
ھ
ہ
ۇ
ی
ە
ܐ
ܒ
ܕ
ܘ
ܝ
ܠ
ܡ
ܢ
ܪ
ܬ
अ
आ
क
ख
ग
च
ज
ट
ड
ण
त
थ
द
ध
न
प
ब
भ
म
य
र
ल
व
श
ष
स
ह
ा
ि
ी
ो
॥
ং
ক
জ
ত
দ
ন
প
ব
ম
য
র
ল
শ
স
হ
া
ি
ী
ে
ਅ
ਆ
ਇ
ਈ
ਉ
ਐ
ਕ
ਖ
ਗ
ਚ
ਜ
ਡ
ਣ
ਤ
ਥ
ਦ
ਧ
ਨ
ਪ
ਬ
ਭ
ਮ
ਰ
ਲ
ਵ
ਸ
ਹ
ਾ
ਿ
ੀ
લ
ા
ା
க
ச
ட
த
ன
ப
ம
ர
ல
வ
ா
ி
ு
ర
ల
ರ
ಲ
ಾ
ല
ා
ก
ค
ง
จ
ช
ณ
ด
ต
ท
ธ
น
บ
ป
พ
ภ
ม
ย
ร
ล
ว
ศ
ส
ห
อ
ะ
า
ำ
เ
แ
โ
ไ
་
།
ཀ
ཁ
ག
ང
ཅ
ཆ
ཉ
ཏ
ཐ
ད
ན
པ
ཕ
བ
མ
ཚ
ཞ
འ
ཡ
ར
ལ
ཤ
ས
ა
ბ
გ
დ
ე
ვ
თ
ი
კ
ლ
მ
ნ
ო
რ
ს
ტ
უ
ქ
ხ
ᄀ
ᄂ
ᄃ
ᄅ
ᄆ
ᄇ
ᄉ
ᄋ
ᄌ
ᄎ
ᄐ
ᄑ
ᄒ
ᅡ
ᅢ
ᅥ
ᅦ
ᅧ
ᅩ
ᅪ
ᅭ
ᅮ
ᅯ
ᅲ
ᅳ
ᅴ
ᅵ
ᆨ
ᆫ
ᆯ
ᆷ
ᆸ
ᆼ
ក
ង
ត
ទ
ន
ប
ព
ម
រ
ស
ា
‐
‑
–
—
‘
’
“
”
„
†
•
…
‰
′
″
‹
›
⁄
₁
₂
€
℃
ℓ
⅍
⅓
⅔
↑
→
∂
∇
∈
−
√
∞
∧
≈
≤
≥
⋅
─
│
└
├
●
♠
♣
♥
♦
♭
♯
⟨
⟩
ⲁ
ⴰ
、
い
う
か
き
し
た
と
の
は
り
ん
ア
イ
ウ
オ
カ
キ
ク
ケ
コ
サ
シ
ス
タ
ッ
テ
ト
ナ
ニ
ハ
ヒ
フ
ホ
マ
ム
ャ
ュ
ョ
ラ
リ
ル
ロ
ン
・
ー
一
丁
七
万
三
上
下
不
世
东
中
丰
临
丹
主
义
之
乐
九
乡
书
事
二
于
云
五
井
京
人
仁
仙
代
仲
伊
会
伯
佛
作
侯
保
信
傳
元
光
克
全
八
公
六
兰
共
关
兴
军
出
刘
利
前
劉
力
化
北
区
十
千
华
南
博
卫
原
县
口
古
台
史
司
合
吉
同
名
后
君
吳
吴
周
命
和
品
哈
唐
嘉
嚴
四
团
园
国
國
園
土
地
场
址
城
堂
塔
墓
士
夏
多
大
天
太
夫
央
头
女
子
字
孙
孝
学
孫
學
宁
安
宋
宗
官
定
宝
宮
家
富
寺
寿
小
尔
居
山
岛
岩
岭
岳
峰
島
崇
崖
川
州
工
巴
市
布
帝
師
常
平
年
广
庄
庆
店
庙
府
康
廣
建
式
张
張
徐
德
心
志
忠
思
成
战
戦
戰
所
拉
摩
政
故
教
文
斯
新
方
族
旗
日
旧
昌
明
星
春
昭
時
普
景
智
曲
書
曹
會
月
有
朝
木
本
朱
机
李
村
杨
東
松
林
株
格
桥
梁
梅
楼
歌
正
武
氏
民
水
永
汉
江
沙
河
治
泉
法
波
泰
洋
洞
津
洪
浦
海
清
港
湖
湾
源
溪
漢
爾
物
特
玄
玉
王
理
瑞
生
田
电
白
百
的
皇
相
県
真
石
社
祖
神
福
秀
秋
科
秦
空
立
站
章
筑
經
红
经
罗
羅
美
群
義
老
聖
胡
自
興
航
般
良
花
苏
若
英
茶
華
蒙
藏
藤
行
街
西
記
話
語
論
话
语
赵
趙
路
軍
达
通
道
遗
郎
郡
部
郭
都
酒
里
重
野
金
铁
镇
長
长
門
门
阳
阿
际
陈
院
陳
陵
陽
隆
雄
雅
集
電
青
韓
音
顺
馆
香
馬
马
高
魏
麻
黃
黄
龍
龙
（
）
，
##i
##l
##g
##a
##n
##s
##r
##e
##v
##j
##o
##c
##h
##f
##d
##t
##k
##m
##z
##u
##w
##ø
##p
##y
##b
##1
##0
##2
##3
##x
##9
##±
##8
##5
##æ
##ι
##γ
##α
##λ
##ε
##и
##к
##о
##л
##а
##4
##q
##ц
##ו
##ק
##ב
##ת
##א
##7
##6
##²
##ل
##ح
##ص
##ن
##б
##р
##ל
##י
##ם
##ν
##ο
##œ
##ʼ
##ł
##η
##σ
##व
##м
##в
##с
##δ
##ρ
##μ
##ق
##ا
##د
##ر
##ي
##ר
##ס
##ף
##ф
##ь
##е
##д
##đ
##ب
##ع
##ı
##ম
##ল
##দ
##г
##ß
##τ
##ς
##ˈ
##у
##н
##ð
##ə
##ی
##ت
##т
##я
##र
##य
##ा
##ग
##و
##ط
##ه
##ز
##ة
##न
##ш
##п
##ч
##ะ
##ⲁ
##ʿ
##−
##گ
##ʃ
##°
##×
##ы
##ʹ
##ג
##མ
##ŋ
##ා
##য
##া
##র
##ে
##জ
##ད
##ா
##س
##م
##κ
##і
##щ
##þ
##ա
##լ
##թ
##ի
##ف
##з
##χ
##θ
##υ
##ض
##ܪ
##ܒ
##ܐ
##ω
##ਪ
##ਜ
##ੀ
##द
##ю
##מ
##ש
##ニ
##ュ
##ー
##ք
##ր
##ᅲ
##ᄑ
##ᅭ
##ث
##ე
##რ
##გ
##ი
##ד
##ה
##х
##π
##ە
##ब
##ल
##ᅵ
##ᄉ
##ᅥ
##ᆯ
##ᄌ
##ᅮ
##ע
##ბ
##უ
##ლ
##ː
##ɪ
##ʊ
##φ
##ᅩ
##ᆼ
##ᄒ
##ᅡ
##ᆨ
##ᄂ
##ᄆ
##ᆫ
##ᄋ
##ᄃ
##ཀ
##ར
##ח
##צ
##ش
##ʰ
##´
##פ
##ी
##ტ
##კ
##ვ
##ა
##پ
##ਤ
##ਾ
##ʔ
##क
##ო
##ნ
##β
##ᅧ
##ᄅ
##ᄐ
##ᅢ
##ᅪ
##き
##त
##¹
##ਈ
##か
##ן
##म
##ਿ
##ს
##ɾ
##ˌ
##ス
##キ
##ћ
##ہ
##ħ
##ह
##ि
##ხ
##շ
##ն
##ਵ
##ਹ
##خ
##چ
##ψ
##ন
##ᆷ
##ж
##ј
##ล
##จ
##อ
##ม
##เ
##ก
##า
##ம
##க
##ல
##ɒ
##ទ
##ង
##ត
##រ
##˚
##ɔ
##º
##♭
##ర
##ಾ
##ъ
##ɣ
##น
##ง
##บ
##ว
##ำ
##ภ
##£
##ى
##ʾ
##¼
##נ
##ז
##თ
##ং
##ک
##ܝ
##ܠ
##ج
##ध
##च
##э
##ਨ
##ज
##ս
##ᆸ
##ʁ
##غ
##ས
##գ
##վ
##ո
##ւ
##յ
##ड
##भ
##ष
##ি
##ী
##ਣ
##қ
##प
##स
##ʉ
##ә
##ョ
##ッ
##ハ
##ɛ
##ξ
##ਆ
##ਦ
##ਰ
##ช
##ย
##แ
##ส
##ル
##シ
##ᄇ
##ང
##ག
##ᄀ
##ʻ
##ظ
##կ
##տ
##բ
##ʒ
##њ
##ζ
##ण
##ט
##ك
##դ
##½
##ท
##ร
##โ
##ด
##ɑ
##ལ
##ो
##ர
##ウ
##ン
##ャ
##ɲ
##ア
##ロ
##フ
##イ
##ប
##ា
##─
##ณ
##श
##ɨ
##მ
##ե
##ܡ
##¨
##ケ
##ʋ
##ਸ
##り
##う
##↑
##ห
##ธ
##զ
##⋅
##ত
##ᅳ
##ɡ
##ཐ
##ན
##ʲ
##ᄎ
##ラ
##ਮ
##ਖ
##ھ
##ਲ
##ქ
##ไ
##ต
##ค
##ᅯ
##ђ
##ө
##ナ
##প
##স
##カ
##ਕ
##մ
##♯
##ਧ
##ख
##タ
##ཏ
##♦
##כ
##た
##の
##⁄
##ク
##ट
##ᅦ
##ト
##ཤ
##ರ
##ក
##ព
##ម
##ক
##ស
##ន
##®
##थ
##ା
##ਗ
##ਚ
##ਬ
##コ
##ܘ
##ܬ
##ム
##³
##є
##ء
##は
##マ
##ղ
##ɽ
##ப
##হ
##ү
##ん
##ச
##ட
##→
##€
##リ
##オ
##⅓
##µ
##ɐ
##と
##ி
##ு
##ன
##₂
##พ
##ป
##ల
##ŧ
##ذ
##ᅴ
##ല
##♥
##শ
##♣
##த
##い
##བ
##ਉ
##サ
##ⴰ
##љ
##ܢ
##ܕ
##ཉ
##დ
##♠
##ਅ
##ཆ
##ಲ
##ব
##₁
##པ
##འ
##し
##∂
##ศ
##∞
##ཡ
##अ
##ɕ
##テ
##ਐ
##ホ
##ਥ
##℃
##ӏ
##√
##ਇ
##ਡ
##ા
##≥
##ヒ
##ɓ
##ཁ
##ཕ
##आ
##வ
##ਭ
##ĳ
##≤
##ཞ
##հ
##ۇ
##લ
##΄
##ཚ
##≈
##¾
##∇
##∧
##ཅ
##ℓ
##÷
##⅔
##ƒ
##er
##en
##an
##et
##ar
##or
##in
##st
og
##el
##il
##om
##ed
##sk
##le
##on
##al
##re
##ra
##te
av
for
##tt
##ig
##ing
som
til
en
er
##ik
##de
pa
##un
st
##es
##is
##ol
##id
##am
##at
det
var
den
med
han
##ør
19
##as
##and
##ene
##it
##ver
##eg
de
in
##pp
##ag
ble
##ne
##isk
##kt
##ler
##ste
##kk
fra
##der
ut
an
##ro
##ent
##ad
##us
sk
ar
##jon
##ang
##ist
20
##se
##ur
##ul
har
##tter
##est
##ru
##sa
##ot
##ere
om
##av
at
##ri
et
nor
un
##ok
##ell
##ir
##ens
opp
##ning
##ert
sp
##ett
##ær
##lig
##ikk
##ap
##ak
al
bl
inn
##mer
##ske
##iv
##je
kom
sam
etter
##iske
##ant
##ia
##sen
el
##all
men
ved
før
##ge
##net
##art
##itt
##um
##ks
##ov
##dre
##dt
re
##os
##for
##ende
by
kon
under
##em
over
##ann
der
##og
##del
##jen
##att
200
##ch
##øy
##asjon
##den
##ber
be
##ter
del
##kke
##sl
ogsa
##adde
ein
seg
18
sl
##yr
##gg
201
##ft
##men
tid
pro
##ke
hadde
##sp
##ort
##00
##ut
##ill
to
sin
br
##im
##ve
kr
fø
##land
##inn
##yn
ver
##be
##unn
##ser
##od
##gen
##jer
##ien
tr
gr
eller
##ger
da
##ud
kan
##ion
fr
se
##skap
##me
mot
andre
##ige
ma
##het
##las
##jø
##res
##ane
stor
##ust
##ic
##he
ikke
land
##ie
##ly
hun
##ab
##ff
le
mar
##by
ny
komm
##rad
199
or
nord
første
##ike
##ker
##ingen
hv
bru
##alt
##ier
##ellom
##ug
##per
##elt
vart
mellom
dette
##eng
##ub
##ast
per
reg
##are
##ikt
no
lag
ty
##ss
##ord
##ale
##else
##eter
kl
kommun
##op
##iser
##hol
##ard
dei
##ner
dø
sv
##sv
lig
198
hans
gjen
##yl
tre
sa
##mp
kun
ba
##io
##ire
sel
sør
født
##und
kv
##beid
##ange
ha
##ob
##ansk
##anske
197
##la
ch
##rem
##lag
##ket
##ip
##eder
man
te
##øn
##elig
of
##ære
##sm
si
##lere
##enter
denne
##na
##son
ber
sen
beg
hen
##br
196
##iden
##lem
##ster
##lige
the
mo
##før
sy
ne
dag
kj
##ling
##vis
ol
eit
he
##lass
##iet
pol
##ært
nav
min
ei
##isjon
##akt
##nes
##iller
fikk
##ret
##ater
hov
##rev
##utt
lang
##ark
##nom
gj
##rett
##if
##tem
##kl
##alen
ant
fil
17
grunn
##ede
jo
##ille
##rupp
mus
##elle
gjennom
sammen
##ian
##ong
##ck
##leg
fly
##vik
##jell
pl
hel
her
##ull
flere
##kte
##itet
##met
##istor
ap
##ess
utg
fe
##ult
mange
fin
bet
vest
##end
194
##bru
frem
stør
la
##lekt
høy
blant
##elsen
##ningen
bar
##iver
tidlig
kar
##allet
##ans
ho
##alg
##atte
##amp
##tr
hvor
rom
##øl
norsk
195
arbeid
##olog
art
far
pr
##ite
me
delt
##ma
##pe
##legg
##rik
blir
ned
##ester
ve
fol
15
16
rep
##tid
par
##amil
mer
##anger
##org
amer
run
##ister
hoved
##ina
stat
eng
##irk
##sh
sitt
alle
mid
##inger
##oll
##bum
##ksjon
##ys
histor
##kr
fort
##sjon
##ember
##ond
inter
eu
fram
##øm
dis
##ets
død
##ighet
ro
gar
byen
des
lø
ser
store
km
##sten
selv
amerik
##opp
##ram
##bygg
form
193
tallet
øy
##ib
mal
##rep
kommune
senere
hol
##ind
meter
ad
##eld
byg
enn
##ande
verd
norge
##ball
##stad
polit
fle
##hold
fa
ligger
##ja
##raf
##ulle
grupp
van
##yt
##atur
ek
##ener
blitt
##set
##kon
tidligere
best
##skapet
ind
##enn
noen
10
ra
tok
##ttet
sine
192
siden
gam
##ift
bruk
euro
##elen
##ide
tilb
##va
nær
sol
finn
kra
tysk
fl
kjent
##edet
##ake
##ry
kor
ga
bade
ham
være
fot
##jør
annet
##up
rundt
##over
##ven
##aten
prod
hø
##ilt
12
dem
jan
bak
##jem
##stem
disse
ul
th
fri
liv
##les
##ow
uten
##hav
ge
##dom
kunne
##erte
forsk
##kom
joh
vil
##med
##sf
##sb
##ce
191
##sel
##radet
hver
vært
##ninger
fran
fyl
##rat
norske
samme
##ole
eks
##svar
medlem
hal
kong
##let
##pt
##kker
na
mil
repres
##yrk
album
##tal
my
lu
##da
skulle
eg
sommer
##ine
##ivers
##uar
rus
##ial
##etter
sent
##ød
##ass
mest
ste
##yd
ofte
krig
##jor
##sø
mens
famil
##ida
gikk
begyn
##gjen
##gr
##slo
aug
noe
jun
dan
tur
øst
forb
##dag
##ral
vant
##jel
##berg
##slag
jul
part
slutt
##kket
univers
##inga
am
off
skal
##ubb
##rak
##ongen
11
##tes
ta
gang
##øt
person
##ga
14
august
po
tek
utvik
nye
sh
oslo
##form
##min
nar
##asjonen
go
co
gra
usa
##fa
##nen
13
januar
all
gre
##ins
##satt
##ikken
res
ord
juni
fire
band
su
##ilte
ang
rad
aust
##ont
føl
vikt
vin
##iker
mars
im
brit
pres
sm
##ue
##skri
li
hav
pre
vis
str
slik
fem
##ore
##ive
bygg
start
siste
##var
tilbake
##ings
kn
##els
vid
##ich
000
kal
##lø
slekt
##verk
bare
nov
##gar
##ubl
bo
hand
sjø
##uder
sep
rett
stud
sj
##old
valg
##stand
##kkje
##ført
sc
nok
fer
##sland
ses
kjen
##ha
fotball
plass
nasjon
navnet
fjell
kjø
deltok
tro
##pa
##rig
største
perio
org
##str
like
ligg
vok
##unkt
##lagt
navn
##erne
##elige
##sy
krist
##pet
##alet
juli
mai
em
skrev
oppr
##rakt
##irke
stort
190
##som
innbygg
##rag
bli
ca
##kur
søn
skri
##vn
##anis
##hand
mor
bas
##ald
bok
først
##fer
##elser
##ka
nam
fun
intern
##inner
##ken
innen
ka
##vin
sær
##iten
##arbeid
##entet
##oc
red
kunst
##sker
##ultur
gu
##istr
omradet
spes
vi
tv
kont
vann
##ril
igjen
septem
september
okt
lok
end
##dal
##ober
plan
tillegg
mill
##bu
##ograf
##arar
ikkje
new
##ring
##fatter
##ation
sver
##ekt
oktober
april
gener
##fl
##føl
##ou
verden
##hus
engel
ital
##int
##ile
bor
febru
##esp
februar
##gang
kraft
##mann
bil
desember
##ris
##aler
##of
ekse
met
sø
kamp
##iner
##rum
##kurr
musikk
sak
##lege
laget
styr
albumet
akt
bra
sch
inst
komp
syn
pri
##ban
eksemp
##ges
##olk
finnes
november
sven
inne
stad
viktig
alt
as
folk
rik
##jerne
brukt
is
skip
##mar
enk
leg
landet
hele
lar
##bo
bes
##isert
##ipp
ben
##ct
##unt
sn
##gram
hos
historie
##mark
samt
nytt
##vat
##enterte
and
189
##usjon
mindre
hus
##ba
##orde
arr
##her
##ionen
##urg
##elte
##veg
##bred
##man
kultur
menne
##lert
##jene
gje
##uksjon
30
##iss
##sje
##ører
rekke
af
##sj
verdens
beste
##sst
id
klubb
##plass
##esten
dom
##ten
vert
ja
2008
led
gjorde
spilte
ter
kat
chr
##pro
kort
mag
ke
25
film
##heng
lov
100
2010
##vest
##ele
kil
dr
aret
regjer
kro
slag
ulike
kin
universitet
##red
vm
len
arene
halv
kons
##ppen
##anter
utbred
car
kirk
mann
bu
pop
di
2011
##stre
##sta
bef
ville
##ata
vanlig
tyskland
gl
du
##ern
lever
##ium
2007
##dd
tred
##arte
##rade
##bl
##part
større
mul
##ette
2006
##ativ
##ummer
##mel
sto
natur
##kken
leng
gull
produs
##get
jord
sta
##ity
matte
##este
##kes
##olen
mon
##aren
##kn
2012
dri
lin
fred
begynte
##ologi
opprinn
døde
trad
russ
john
##asjoner
##alla
ara
sid
ster
deres
ir
188
gamle
##ham
etab
##vel
ly
##lassen
##ondon
##sam
ven
##ius
##skrig
##eren
london
##idler
ab
christ
##late
representerte
ko
ev
blei
ti
ford
##ise
##ild
tem
##lin
middel
2005
internasjon
sig
tyske
##ott
sang
ingen
kalt
sett
deretter
milit
prof
##sby
##konom
##ay
##vet
konkurr
##par
##jorden
##yttet
##pl
forskjell
hjem
##ident
lik
tor
amerikanske
perioden
god
2009
oper
utd
##øtte
ed
##jord
##sak
##erer
barn
kam
tatt
arrang
song
##omm
fjer
##enes
##grunn
ii
tilh
ry
##sett
kap
moder
##kter
stra
sprak
##dem
kommer
tra
hennes
full
fleste
videre
##ton
egen
##rasjon
sverige
filmen
sal
kol
##au
##iftet
##sn
begge
neder
##ielt
bestar
rol
##fatt
##des
sty
ky
eksempel
øya
utt
jap
##ansen
europa
derfor
vel
organis
##gende
spiller
opprett
utv
familien
##jet
tredje
program
utgitt
##syn
arbeidet
##spiller
##one
forhold
21
mye
side
##krike
seks
##eller
##lev
ban
187
veg
frankrike
22
##illing
##reg
langs
2004
imidler
imidlertid
##isten
tar
dermed
sesongen
høg
##delt
##kra
dire
helt
2000
sing
amerikansk
bandet
svært
##co
hjel
fast
col
ung
##iste
lat
##lasser
luft
bro
##ped
star
million
leder
mø
##sted
inns
do
oly
tap
##obb
24
##rader
##heim
norges
olymp
##istrikt
startet
tiden
vinter
tradisjon
samtid
sma
fatt
økonom
val
##nings
##unnet
##heten
sku
##ikker
fekk
tidleg
##satte
vir
forsø
rek
##øver
besk
##øya
##ers
england
fleire
mark
sov
2016
popul
##isen
admin
186
con
##its
tett
slutten
##ph
##ktet
sos
##tak
øv
sønn
##idrett
mel
##anse
so
nummer
##20
engelsk
att
##ley
il
skj
bygget
nasjonal
løpet
##bar
##pen
##ork
##ca
##ingene
ark
gav
##kluder
sted
teg
sve
##ij
##styr
ganger
##dig
bergen
##ana
##fly
##uk
2013
ob
23
##ærer
##teg
##lingen
##iserte
2014
mat
stre
gi
president
satt
##sfor
fest
on
britiske
forfatter
##lar
dy
port
##iz
kommunen
bel
provin
fyr
can
##ania
folket
##oss
brukes
##inne
##det
##ung
##ho
##brit
##nene
##annia
##ht
1990
##alder
##rer
storbrit
versjon
deler
hvert
##vert
##nevn
##kj
##ksom
bed
kval
skrevet
særlig
##ons
førte
skole
##øst
aktiv
kirke
elekt
aller
##ori
2015
innbyggere
##ensen
krigen
##ym
dat
san
gruppen
ret
##oner
gitt
##sket
friidrett
dav
##dri
inkluder
bill
je
##alte
fransk
klubben
fordi
##delig
##rom
##fin
us
ep
##riere
jern
søl
hell
##isjonen
result
##stru
##ias
##kv
grad
##mal
##oren
##ustri
kalla
##kene
sovjet
bi
kines
sand
##ves
##orn
28
oppdag
publ
forskjellige
##urt
1980
tru
##band
##use
storbritannia
##ara
26
##fø
hovud
##apen
##istiske
titt
mester
produksjon
amp
tot
langt
sein
2003
delen
##kret
talet
##album
##nelsen
##iva
##ng
stem
bron
##famil
27
godt
##isme
##atet
sølv
gud
handel
represent
##far
lange
2001
forsvar
##idae
ur
franske
##landet
##urn
menn
1970
midt
##grupp
185
sjøl
##indel
dra
##stein
skap
##ete
spilt
mott
annen
##uten
fylkes
ni
stein
nederland
##olig
##iene
ett
distrikt
gjort
verdenskrig
kjente
##terte
##aland
afrik
krit
##entlig
ale
##ider
bakgrunn
50
##inister
##nad
are
##kar
2002
bus
##ave
anna
##rike
bygd
pros
##ren
delst
bid
##førte
arrangert
##ska
##qu
ag
inv
gjerne
rø
klo
kina
ren
int
provinsen
befolk
saman
administ
##ielle
samtidig
##mester
##onen
gir
##deling
##iar
bred
moderne
samf
nett
songen
bø
##medal
try
nr
øn
1960
##ala
serien
litt
grav
kvinner
island
2017
stedet
elva
gro
##ator
2019
ak
pas
gjø
bestem
div
sag
##isering
forl
russland
topp
##sd
fag
##vei
##itenskap
stand
bre
italia
##hen
liten
##jøen
##ada
pe
will
##off
basert
##mene
##undet
flyttet
spor
universitetet
##byg
noreg
##ford
##sminister
##havet
hatt
selskapet
2018
studer
rob
##itu
##skole
rel
184
tri
bronse
##slaget
##kring
##gt
skuesp
##ost
##itar
romer
landsby
sentral
antar
tidlegare
##ith
trond
29
dar
forv
tekn
##ies
austral
unn
##ffekt
##ula
stav
kyrk
vol
##arane
##øv
dann
ph
lys
##ah
##sut
danmark
europe
klass
##ukt
##ogn
##til
millioner
svensk
##spel
samarbeid
arbeider
1999
kontr
##orden
##jef
##endig
viser
italien
lite
##skip
##led
paris
##vene
##istisk
##igheter
##ingar
berg
##aen
##ben
##ografi
meste
slekten
hær
trom
angrep
konge
rev
gruppe
ru
utbredelse
system
nesten
ungdom
com
muse
meg
skog
##ica
##tok
##atene
ledet
##eleg
mulig
gren
omkring
ska
avsl
tjene
litter
hy
lev
lagt
idrett
##ktur
##erg
stam
##tre
mod
seinare
##fter
##anser
##kan
##ollen
ass
##delag
bod
kvinn
##iam
eneste
##iter
bla
##sil
fant
##essor
##holdt
christian
jam
general
##ometer
mang
lokal
arten
##ista
##burg
##partem
sjølv
##kje
tilf
##familien
##følge
gift
internasjonale
##ening
##rod
mas
spesielt
ten
utse
keiser
utdan
namnet
##iskop
bry
spel
##ærende
##th
##komm
##ynd
arter
bort
peter
lo
1992
støtte
offis
##ick
betyd
##len
personer
31
##revet
storting
relig
##siden
orden
sidan
1996
konsert
##holm
mart
##ron
leve
makt
cl
karl
verk
##handling
##bin
##kjen
1994
##atisk
utseende
##laget
##sson
allerede
##stemet
kjem
felle
##aret
40
we
##spill
##eland
fylke
mennesker
##drag
slaget
##tatt
havet
##fug
##ice
slo
holdt
kristian
same
innenfor
##havn
sem
km²
omfatt
henne
##fil
opprinnelig
pos
dyr
ram
arkite
##fe
roman
##zz
##anten
##sc
fo
183
##spunkt
##sikt
1998
russisk
forbindel
utviklet
mun
##oen
øster
gammel
##gte
##test
gard
##under
datter
##smann
partiet
##van
hjelp
kre
##che
##okk
york
slatt
vik
##holder
region
prest
karriere
fortsatt
181
katol
##ule
##elm
berre
dikt
omrade
paul
eld
tom
##sport
erst
mater
barne
kart
##akter
hovedsak
familie
utenfor
##igen
##oret
1997
##bet
##gj
mør
etablert
likevel
1991
##cc
##fører
##staden
##han
bud
##borg
opprettet
grøn
pal
spille
##kraft
sky
##ima
vari
sik
tan
pass
svenske
char
hev
beteg
aut
##ona
##ime
oppst
desse
innbyggj
##onn
stil
utnevn
punkt
##age
1995
##arter
##bok
1988
terr
##ash
##po
gjekk
finalen
500
##ander
##uer
bjør
##servat
##tale
1993
##mb
##rest
delstaten
##ish
kompon
##adet
prob
regionen
##uttet
plasser
##ument
##ats
##ktor
count
atte
pav
kongen
vise
brasil
afrika
##wa
tran
##iale
motor
##usen
fal
effekt
##olit
vore
##alist
##syk
tak
tekst
enkelte
kilometer
ansvar
##ola
##mes
turner
valgt
kring
##ress
brun
teater
funnet
##hl
neste
ifølge
kvalif
medlemmer
##ensjon
kalles
isra
drep
##andre
dre
aldri
1989
##ps
##vern
##ational
sold
foran
hu
kirken
industri
oppg
1800
nadde
##mon
omtr
##ibl
grens
uav
##fjorden
rask
professor
##verket
sosial
innv
##ino
wil
##bane
lær
##fra
##bruk
ann
skuespiller
##lo
rolle
##50
##menn
##ypt
musik
deb
##stra
republ
##ktør
1984
uttry
utvikling
##olusjon
direkte
politiske
ger
##okrat
sveits
folke
##sty
poeng
##ac
lett
spill
##rene
60
eldre
##ningene
veien
qu
lille
##ytt
##ign
omtrent
regjering
ras
dekk
ide
##ager
johann
trondheim
lav
2020
##aste
kjøp
amerika
opphav
arab
tilhører
##kor
ytter
fre
##bre
instit
fug
politisk
##lene
##igur
kur
tal
##itz
##ico
1900
latin
rock
medan
tol
lan
divisjon
dess
cal
1950
sann
##nar
apnet
##prod
dagens
##iell
##lands
##ksomhet
stø
nordvest
gresk
motstand
##amer
gjør
les
##key
##pris
medal
##løp
fisk
jon
byr
##olf
mich
bety
beveg
via
meir
bur
##ward
##ya
suks
arg
prosje
voks
##ologiske
vanligvis
##itte
vansk
dansk
organ
ferdig
sesong
ful
william
university
sport
dist
##fjell
##rale
vit
county
##bert
jur
##kast
israel
400
sek
areal
##inen
thom
pat
energ
##uss
spelte
ekte
tittelen
eldste
engelske
sentrum
ettersom
sangen
##lov
fas
don
##kka
##avn
gul
beskri
##aks
militær
##forb
utan
##esse
britisk
##dde
bos
von
radio
##lerte
vei
1972
1987
##partementet
inkludert
##lam
##ørte
##abr
bruker
besø
1986
##iro
##tor
dok
##ars
hj
samfunn
brukte
ex
##elses
vapen
1945
jobb
avg
fall
super
gitar
##ften
mont
##tte
selskap
##ppe
olympiske
##bas
stod
1985
kamper
ganske
lokale
##veien
utbredt
bom
konst
##li
##essen
dro
fjerde
park
##mo
kvart
##mens
gjøre
angel
tilsvar
nom
georg
seier
kinesisk
grunnlagt
##ment
##partiet
livet
litteratur
moh
##ivet
##ama
begynnelsen
prins
fir
##svis
henhold
antall
robert
fys
1968
nev
bon
jac
svart
sørvest
forbindelse
##odet
insp
spr
sendt
enkelt
##ns
kjend
fortsatte
##ismen
skolen
ungar
bis
180
gal
op
endte
ju
hall
##sida
##alderen
spesial
1940
##jorde
##heter
periode
egypt
jød
midten
utnevnt
##ømmer
vitenskap
innbyggjarar
yng
##smal
stock
pen
hum
##ologisk
minst
plate
##ood
riks
rest
##aden
1920
##esjon
eget
japan
mad
blom
betyr
##mus
mis
##imot
jeg
##ika
ordet
tyrk
funksjon
hvis
artene
danske
##ze
berlin
ander
kje
bat
##ativt
wh
nest
##fjord
##dene
mu
##ørs
post
vat
miljø
##aende
##ninga
##ach
sju
##inert
##osof
roma
spania
##elder
##nende
jar
kolon
alder
##insk
##ftet
300
##punkt
##ita
indre
1964
tross
dram
dager
##we
tildelt
sterkt
##ta
##gje
wor
pra
1976
##kjent
est
fakt
##hu
ele
##ode
disk
tilkn
182
hot
svarte
##ini
imp
ze
resten
##føre
studerte
##hov
feng
1973
bay
##pper
syk
jose
kø
##bro
##banen
##har
1983
sist
##ringer
levevis
viste
russiske
refer
##histor
erob
##rop
lenger
nytta
borger
skul
uavheng
inform
venstre
##delen
##ora
opprør
##ix
siv
1979
1982
##enteret
kampen
##skog
finne
##uth
##fr
hert
##vok
hva
##vær
##hal
##ii
1975
##ame
mate
1974
##ming
##ira
sentrale
##valg
##upen
##asjer
hit
1981
##ering
##peratur
felles
olav
kron
fremst
ku
bev
sat
1969
johan
##kst
##tta
##angen
skjer
noko
kroppen
##iteten
eksp
au
##za
wal
##sar
##ømmet
##klubb
tids
kraftig
vekt
bror
##dte
##try
sla
styrk
følgende
steder
inneholder
indiv
brann
rød
##fold
stockholm
egne
##sch
##jar
##ney
india
david
fjellet
virke
##øyt
1978
trøn
heller
carl
los
##skolen
suksess
produsert
spe
skrive
canada
air
##rim
belg
##ios
##ae
finst
natt
slike
##fest
bruke
felt
lyd
##vann
anlegg
fore
##allen
mur
skipet
##lasse
betydning
##huset
##atiske
dannet
##bil
1977
orig
##ight
##sg
rec
##sberg
##agen
omrader
##aker
1967
kombin
##ivt
benyttet
sovjetun
tyn
psyk
##inal
##spro
erstatt
tall
arh
sil
garden
##ømme
tida
politiker
cor
##kning
##benhavn
klarte
##illa
regnes
viktigste
bygge
dyn
##ago
hovedsakelig
##deles
##ytte
lenge
##repet
vind
1971
føre
distriktet
##rafikk
hvil
ski
unge
city
##igheten
stasjon
##orge
handling
##inst
inntil
##radene
henrik
##kamp
kommand
københavn
pla
##skje
sanger
mand
1930
##uelle
voksne
kir
sur
##sutøver
fi
##ockey
følge
kore
meget
##iø
rot
##illingen
pris
virk
utvid
biskop
till
##ordan
fredrik
nokre
##medalje
rich
omfatter
europ
##ko
##onom
knyttet
##amen
80
##isere
følger
sub
nem
oppk
sim
hard
alp
##slatt
komme
pan
skar
okk
##ferd
lengre
regjeringen
journ
utst
europeiske
bal
maler
##skj
1948
sterk
giftet
son
1965
liste
antarkt
mm
##stendig
administrasjon
thomas
cm
dagen
australia
fork
faren
gode
##eden
samling
sna
##plassen
sja
##ju
comm
##istan
studio
##ffet
nm
filosof
norm
hvordan
##brudd
##vil
##ifor
##ky
totalt
##oler
##ffe
flag
tel
##aven
undersø
venn
##entlige
##fi
aker
##ales
1956
løp
fru
west
##istene
parlam
##eth
lt
høyre
##nia
skjed
eksped
oppf
niva
1966
##ellen
museum
##buterte
alf
trøndelag
alex
offentlig
mynd
mykje
hjemme
sar
##aktør
70
befolkningen
forskning
##helm
kontroll
hverandre
##orte
kunn
kant
##vere
##orer
dron
blad
hem
tsje
##bel
nrk
grunnlegg
fotballspiller
35
##igh
##iserer
##elsene
##iere
kry
reiste
raskt
bøker
gjer
##avnet
##rav
va
##kre
nordlige
##ytter
mente
hendel
arkitekt
syd
kysten
elven
##ffer
##føring
karakter
jes
satte
regiss
##ival
derimot
##ors
##etten
##jøn
##delige
mask
##une
landets
##fall
overtok
##our
##iel
##anen
##inge
##ikere
toppen
formann
ene
pin
##felt
redus
##my
typ
dessuten
##ierte
##raket
erik
stavanger
jer
sannsyn
##sette
lou
portug
##parten
##stid
bedre
fjorden
##kta
##organis
symb
tør
sovjetunionen
rog
tapte
høyeste
phil
gt
kyst
##ria
defin
1963
##tein
##enten
##jev
dal
nasjonale
styre
##isa
stats
finland
##elø
hundre
meng
##iendom
romerske
militære
ars
mik
cap
møtte
drept
##arer
aks
eid
fylkesvei
nød
eig
##risk
##kretær
##oder
finner
179
alv
##vingene
not
elv
##giv
##rich
##iddel
stab
##ital
mc
viktige
høsten
##ath
stortinget
sørlige
sant
fyrste
##ikasjon
gate
statsminister
borg
fjord
heile
##bra
##aksjon
mex
frank
##uler
##fart
debuterte
foren
##leik
strøm
boken
administrat
fj
næring
##inske
##urner
dersom
nil
grupper
fart
asia
grand
##nam
##iger
1962
##ited
stille
biller
##dø
##rens
hører
##ose
kanskje
martin
##ld
tsjekk
samlet
leker
##ønn
ves
transport
james
ident
##agn
##skaper
record
##anda
syke
##samling
##ran
##inae
ør
prim
plassert
set
##udd
um
##ikum
øver
individ
bør
nes
##fon
serie
##eres
larvene
##setning
olympisk
døy
enda
##unst
##verd
spør
ønsket
helse
##stedet
programmet
sørøst
betydelig
##ikke
katolske
privat
sommeren
mount
george
namn
instrum
##ena
forsv
##kadem
roy
vic
##itter
##sprak
##øren
stiftet
skild
vanskelig
##chen
skott
hodet
##mere
foret
##ligere
##unnen
skre
1952
##øyene
##gjeng
mol
##ure
vere
italiensk
##bia
lærer
syv
fc
##ugh
dokument
alter
parti
##delingen
##iret
kloster
konstru
bol
##omradet
event
franc
hæren
sikker
nab
hom
iii
avl
valgte
it
resultat
aner
skrift
medis
staten
profesjon
##skar
rapp
relativt
##kel
##way
##sing
type
##omrade
real
greske
revolusjon
1958
32
1961
forkl
alltid
polen
høyde
##sund
bodde
landslaget
prem
kunstner
egg
##ses
fører
gen
##ano
ish
staf
##pres
prosent
utstyr
utfor
norr
##retning
nøy
maria
stadig
menneske
45
melod
##dalen
eier
student
lengde
##ighetene
##aner
hor
##ura
##utter
krav
iv
##ye
figur
##ella
##rid
drift
##uel
eiendom
sannsynlig
app
##ova
endret
##deleg
##unde
90
##bø
oppdaget
sogn
##flyt
sakalte
eksister
kvar
1946
delvis
strid
holde
fiske
stift
kropp
dobb
##illere
##aur
gruppa
formula
stopp
##tek
skyl
spelt
vanleg
runde
##iteen
hens
##ipl
kas
ting
funger
atl
skil
sette
ris
lit
rid
gatt
forsøk
##wn
##aget
##shus
##albumet
stru
##talt
registr
fro
salt
##byen
sign
##ank
oppført
kontin
vokste
##anlegg
##ctic
problem
bul
##als
##iment
##snitt
kast
finans
kvinne
demokrat
prakt
styrker
33
1936
historiske
huset
##iteter
deira
##lemer
tver
##aka
utgjør
fang
##ppet
##pan
informasjon
##øg
##orten
erstattet
vas
temperatur
symbol
øk
høyere
##gjort
1500
dekkvingene
ring
##vig
##otum
kjemp
tit
fjern
##illinger
kontakt
##aly
fulgte
nat
skjedde
pet
klart
prisen
##ington
japansk
semif
vist
rike
test
tim
##vir
bern
##beide
united
##andid
trolig
##steg
##pr
regel
pron
rio
oppkalt
dens
cup
##hvert
middelsst
vunnet
enten
direktør
debut
##val
ukra
døm
1957
gong
1947
##ari
prov
fær
you
bolig
1939
skot
tele
feil
reise
1944
records
maneder
bir
##ase
landsbyen
hertug
johannes
##dyr
##iblio
##okus
##rek
##lest
1959
ute
##yting
##istet
størr
jazz
sjef
##akon
##ikanske
178
ferd
177
religiø
mexico
hvite
utgiv
ball
##kraftverk
dynast
lam
##asen
##ative
pronotum
retning
ib
kristne
##urder
italienske
##saker
##renn
##kant
utdann
forf
forn
##stil
gru
opprinnelige
mak
national
36
arke
##osisjon
##leder
##hopp
matem
##hr
califor
##ael
cent
kateg
organisasjon
##arken
irland
##oide
amb
bjørn
mosk
bass
##gangen
##angel
mennesk
forel
dronning
##iti
klasse
lud
ork
innan
##enterer
800
##edal
trekk
ført
anne
##oven
##que
##imeter
regnet
redaktør
##iens
richard
offisielle
gjenopp
pot
populær
konfl
##nelse
bevis
grenser
junior
##gard
varen
øvre
just
##itor
##orter
hed
kle
spred
korte
##ate
røy
mos
konse
utgang
tren
##leis
##folk
1949
standard
malt
økonomiske
bidrag
nordøst
him
økonomisk
fengsel
solgt
inspir
tjeneste
##ikar
##edes
bygde
oversikt
world
1941
snø
kop
oppdrag
tilsvarende
forekom
##lighet
##æren
sykdom
##ade
spanske
døydde
grev
lære
akadem
##engt
beij
##spelar
california
pil
kinesiske
ansatt
pave
freder
myt
tu
kroner
innsjø
klar
teksten
1700
##pel
##ony
##fot
##bat
##ros
skottland
elem
okkup
hellas
ytre
##kkel
historisk
##sle
klima
dato
##nem
ill
nap
varier
##biller
altsa
kost
lyn
etablerte
tilgjeng
##iør
##vid
bot
epis
obser
##ague
særleg
femte
varme
##lagd
##talen
magn
##eldig
erkl
##ury
stjer
##konkurr
hvorav
##vne
arts
harald
##ennene
staden
##aust
tittel
##aster
fan
##af
##oper
innflyt
restaur
##vs
1955
##ues
##onger
1954
dia
##jert
gram
##ric
senter
##skrigen
##sav
mac
selve
vide
byens
beijing
møte
mottok
reser
myr
1942
##edlem
##dan
##rodus
##ding
trebu
minne
blod
##ilde
##kam
jobbet
fokus
##iseringen
1938
astr
linje
metall
publikum
kjøn
##undre
soldater
##uelt
kontrakt
angeles
##asin
##mest
deltak
##yer
søster
##sem
##rift
##sand
handball
##vo
##ifisert
##ski
##ante
betegnelsen
kard
1928
jane
##ansert
konkurrerer
bydel
utdannet
league
tog
##lav
erke
lista
bow
rekna
##pas
##uts
1912
tusen
gran
##vision
##cher
singelen
##standen
vestlige
trakk
historien
grensen
sende
##aga
cer
michael
samle
##bi
##departementet
##iler
etterhvert
##ivalen
34
bøl
##bruks
war
bland
utdanning
##industri
løs
##orf
##ssel
##krig
laga
nordland
stilling
bib
rygg
politikk
##æring
semifin
alvor
begrens
##riske
riket
argent
##bart
utviklingen
1918
nødv
vare
naværende
sog
utmer
ole
##ms
##ettet
##vard
utøver
sun
pap
sammens
lande
krev
journalist
isl
##fekt
##ary
pu
kh
renn
cro
##prisen
foreg
##stat
ellers
mesterskapet
attende
##ellet
avheng
fabr
fylket
rh
37
status
rekord
##aktig
anton
befolkning
##ful
gas
##rar
##essig
but
munn
spansk
tunn
##rige
##øk
charles
##bygging
##spunktet
##uren
bad
bob
##ions
skreiv
jak
sider
lot
##ikkel
##entene
organisasjonen
##esser
representant
plassen
origin
##lys
utenrik
black
1953
kjøpte
brev
uttrykk
konstant
ac
fordel
1924
##ikeren
1943
##hn
darlig
systemet
##forening
fremdeles
##kysten
situ
friidrettsutøver
arhundre
stafett
##hi
##ory
fry
##sper
akk
##forsk
høyt
inng
dam
##visning
horn
kg
marker
fores
##ving
##film
østerrike
gri
kyrkja
turne
omfattende
antarctic
ytterligere
##ek
fur
het
tun
##gren
##ssy
lage
##ink
apen
konkurransen
hovedr
yngre
##onia
bygningen
150
##oden
altern
osc
1919
600
1600
valget
meld
sier
viet
##selskap
##port
byer
##kvens
got
stal
##sdag
bygning
##osf
forlot
##person
røde
unntak
king
##ikter
grense
##ux
begrepet
moskva
##yttes
tab
folkem
##skapen
tolv
##mesterskapet
##ua
posisjon
vurder
38
##høy
176
1000
allierte
##ones
##ras
##inder
ungarn
konged
cla
vinteren
yo
##utvik
miss
##edel
soc
##bare
forteller
beskrevet
klassen
1933
ori
##arbeidet
lagene
##krigen
offisielt
##dres
sav
mw
hind
##sdal
drev
innsjøen
1951
telem
##ical
##elv
##vnt
populære
besl
##lik
##cy
mørk
fel
log
##mennene
leir
holder
internasjonal
tyder
flyt
styrke
##ktig
opptr
kri
snart
vorte
verket
##wood
sendte
sterke
##ool
##ani
##bygd
offentlige
inndeling
hyd
##ain
athen
##ugen
college
damp
undersøk
vak
##ifte
inse
job
victor
##skl
##ple
gangen
##ørt
delta
ros
landslag
##jo
utover
##egrupp
##beveg
##own
etterføl
neg
filmer
knut
##uc
1932
frig
bestod
flate
##ynt
amt
opplø
##wer
##atikk
##staende
omg
##fugl
##ytning
##cupen
##uch
front
##asje
hevdet
avdeling
tema
cam
byrja
marked
ishockey
##pekt
bakk
provins
fordelt
zealand
utvidet
louis
stadion
flagg
sunn
vul
dømes
hopp
pian
spraket
jø
starten
vill
##nere
camp
eta
forsøkte
bakken
modell
passasjer
##ksjonen
##iplom
##issen
jakt
##skrift
##uther
##endørs
interesse
sikkerhet
mistet
anlegget
avsluttet
##strøm
hust
##iang
utført
##arden
1937
##ds
ansatte
religion
fortell
generelt
falt
forest
passer
liber
bulgar
utslatt
kommet
songar
##iem
75
andreplass
bestemt
dj
##lan
tromsø
rikt
##fag
ott
farge
##bed
##ringen
osm
posit
##omet
konflikt
underfamilien
patri
##30
##board
regn
rund
ober
sommar
hurt
boka
hvit
virksomhet
##rieren
syl
hovedstaden
##orsk
cast
cat
ekstra
stasjonen
##umen
royal
max
republikken
adel
dig
ent
vegen
heilt
39
spillet
diplom
hjer
namng
##ved
##oph
##sla
erkeb
omtalt
stammer
ordfører
##iert
korea
kyrkje
finnmark
##vist
##tten
##vekt
1934
rollen
skjøn
maten
rør
##10
sluttet
jacob
##bor
##rykk
##meister
trebukker
trans
hill
##jekt
lind
gjelder
ledelse
##stend
heter
##øve
thor
preget
antarktis
##sid
##former
millimeter
arets
typisk
væ
problemer
kaptein
elektron
skand
opplev
arrest
spen
jernban
instal
misjon
bestemte
##ville
##elva
oscar
musikal
olje
stemmer
##makt
musikken
1910
##nevnte
##irka
lib
vanlige
eurovision
utvalg
fien
gjeve
cd
jean
sw
utga
nik
##skom
inneh
##holde
midler
##pre
antennene
fors
matt
energi
berøm
lad
nominert
plant
##cel
##enta
dokt
omradene
versjonen
##entar
lab
##skomm
kjende
levde
arme
##iven
behand
elev
##løpet
##asitet
##endte
##iat
praks
struktur
behandling
former
invol
##40
##omen
##vers
sum
1935
##lim
støttet
##edag
##ktes
flor
union
1908
48
forfatt
##serien
##gruppen
kob
##abeth
1917
prøv
tradisjonelle
strand
##fri
##uen
international
dekker
studier
vær
1914
akse
##ute
straff
konsent
##produksjon
lignende
samfunnet
forst
saint
mob
##21
fremste
innført
vera
wilhelm
møter
spela
avis
##enfor
##gruppe
##veks
normalt
bøn
north
saken
school
trykk
statens
kull
bab
##ental
personlig
##ese
viss
##cke
##stander
##skamp
bri
representerer
sjel
sammenheng
beskriv
trener
overlev
renner
mener
##istar
##omrader
##sky
bind
##breen
diam
1929
kilder
##ai
bank
singel
##bandet
haug
##riket
gust
oppt
nærheten
nø
##alam
arranger
##atar
47
introdus
angrepet
tøn
oppdaga
##por
##rit
live
od
kjær
##sene
marie
søra
55
albert
vo
høye
protest
##ublikken
##orien
##etning
##bon
noksa
ing
##illet
lars
##gene
##slø
##kjente
##dam
data
sentr
avvik
tegnet
fødd
##melig
banen
magnus
bereg
##vate
##rettet
##hald
##aw
1922
##leve
##spart
##hou
nedre
##ksjoner
overført
dog
kongelige
##stilt
##ava
trafikk
arabisk
##sburg
hovedstad
##nas
##dsel
##jinga
gjeld
plassering
dobbelt
##landske
uker
yr
##polit
klassisk
agder
kontrol
##formet
kraftverk
atom
coun
behov
##raft
170
øyene
janeiro
østerrik
1921
parall
minn
##sken
private
que
##pal
##liggende
begynner
prosjektet
##dere
forbund
sivil
økonomi
##60
fotballspelar
inspirert
utn
##inav
##cht
##hjem
fen
telemark
arm
hekk
politiet
smith
##alitet
nic
##formen
sit
oppd
regissert
##blad
internasjonalt
metal
##irken
sovjetiske
##stoff
1931
cirka
vass
frukt
sprint
##inene
islam
vinner
##field
love
belgia
danner
##vapen
pak
las
kraftige
trakt
sok
##ifer
blomster
##ement
##gn
bane
gyl
gjennomsnitt
biblio
##fang
østlige
dialekt
##ards
##bus
high
##edyr
nedb
##fors
1927
##full
isb
starta
##organ
motsetning
heim
lis
etn
lansert
##forbund
contest
##ila
vokal
##ittel
stilte
stjerne
##yp
verds
##eslag
##eta
salg
##fisk
1925
##ente
francis
frederik
##ep
arne
delar
finsk
listen
65
hurtig
##spekt
nordaust
##sjøen
japanske
bredt
##sol
inngar
##garden
pers
175
sammenlig
landskapet
##inget
ort
wien
42
budd
##ude
oftest
avhengig
avholdt
##latt
romersk
##anke
##selskapet
maur
##utte
sund
##inter
kongens
verda
tilknytning
##høg
forfatteren
distri
egentlig
sønnen
minutter
installert
uavhengig
##veis
time
konger
sirk
møt
skje
ordenen
uk
##elin
nødvendig
etterful
##kap
reist
##chester
offiser
illust
institutt
##øyer
##ereg
driv
buset
tidlige
##ologien
dels
kjøpt
vannet
##maet
spørsmal
##plasser
gol
bidro
konservat
gis
aleks
tverr
rosen
mass
avgjør
ankom
##gu
religiøse
sab
geograf
##ston
mesterskap
prosjekt
##uell
sosiale
øverste
es
daglig
##idd
ekteskap
joseph
tonn
##tiden
forholdsvis
henry
styrkene
##gere
##setter
##ordenen
scoret
ner
opprinnelse
##øret
planter
vidare
inf
##æl
veks
##ikler
imot
##akia
skol
tredjeplass
sjette
detal
doll
def
kandid
bach
##edd
produksjonen
kab
##elag
##sekretær
vinne
##gin
sjeld
hustru
langrenn
arbeide
##sens
##finalen
lund
beat
##lek
sikre
middelsstore
1923
fotograf
kunnskap
styret
##iana
tilsk
praksis
eksemplar
naz
##bord
##atør
tilfeller
kryss
##mund
kristiania
kone
strateg
tour
territor
sagt
mcc
ken
folketell
oppl
skapte
##dagen
resultater
##ader
base
institusjon
domin
ce
1916
##eten
arlig
engas
arn
1926
##stiden
flert
varierer
studenter
namngje
krys
besto
hjelpe
vold
scen
ref
music
dynastiet
inkluderer
ungdoms
hendelser
turist
operasjon
##annen
ledd
##gaende
41
benyttes
fjernsyn
kommuner
##trykk
solgte
##spolit
wash
##vare
guvern
veldig
fløy
nederlandske
##atret
sle
##uro
reform
fritt
##etts
1905
canad
##iljø
bygninger
hovudsak
##cker
flyet
##vokat
bryst
innflytelse
##kkes
##stasjon
##indre
##add
##stilling
##urd
master
brød
tj
arkitektur
##urer
kampene
##bud
publisert
##innen
pasi
overfl
tung
mørke
1911
##rada
andreas
interv
opera
##uta
##fyl
##øre
##yre
drevet
jud
oversett
##yo
interess
typer
##kunst
jør
49
168
seil
peder
##idens
##ogen
funn
171
##eremon
##oke
material
utdannelse
##cia
norden
700
foss
##jes
hoff
dømt
award
turneringen
##kjemp
videreg
##ny
kanal
##ior
klipp
ker
scott
skøy
##orm
##yin
handler
hap
kommers
##oer
##utning
jevn
romsdal
pensjon
kos
##oli
lands
1913
##win
##sey
roll
##lad
##mir
grunnla
tradisjonelt
verne
bevart
tyrkia
videregaende
##kirke
grensa
produsent
##kjø
##enez
##but
##tekt
manus
blues
middelalderen
sym
usas
tilgjengelig
##produs
resultatet
##kningen
##kont
ekspedisjon
##atten
43
økt
hansen
armen
jarl
up
søraust
##park
##ock
fullstendig
jorden
##foren
##svalg
ekspedisjonen
south
opptil
forsta
beina
jens
##jørn
##iket
##byc
initi
##sborg
ceram
show
harry
medlemmene
muslim
ving
orkester
##erep
framleis
64
kapp
viking
spre
dominer
timer
drive
washington
romanen
##idge
danna
##bb
tiln
stund
rykket
glas
likhet
##uf
##anden
strekker
gunn
plante
elektrisk
sørover
##forfatter
##etta
##ison
##gde
brøt
øye
antag
##ota
nyere
sykl
enhet
odd
ødelag
biografi
tale
nordover
hann
##mannen
cerambyc
##vi
kritikk
44
demon
kvad
160
1904
##nd
##ther
byene
##uba
forkort
ank
##erende
betrakt
dets
##naden
##stemer
##deren
trop
gab
##giver
##uan
##vent
unna
forster
kla
hab
##olin
formal
overfor
##udt
committe
##entert
kristiansand
skade
foreld
solo
##gaver
jakob
##roduksjon
symp
prix
fylkesveg
bord
ivar
##bard
legge
##atning
1906
ledende
komponist
føder
spillere
##side
tex
synes
champ
kul
bonde
committee
wa
##ukk
semifinalen
kjelder
ludvig
##fte
profesjonell
46
ola
gjennomført
##stall
skape
bisped
##pros
obl
leon
##ssjef
##fugler
flytta
landskap
folkerep
##yret
nevnt
penger
pavir
##opper
##saken
serv
glob
flat
utvikla
##well
vietnam
##iop
grunnlov
174
hold
##skipet
##ty
normal
cand
##psjon
##estad
##beg
mog
skandinav
hast
avisen
tydelig
sentralt
52
dalen
venez
nærmere
bokst
henholdsvis
jødiske
sammenlagt
##lot
nedlagt
fange
bortsett
##roppen
##gger
sed
##idar
doktorg
##osp
hud
she
aktivitet
eksper
long
120
stol
hode
##sti
besøk
pinyin
lavere
samarbeidet
pi
##aket
tempel
ekster
nas
##inte
1907
##valget
prinsipp
##kjør
forretning
oppmer
sannsynligvis
miner
hydro
palest
##itusjon
##unne
priser
dor
retts
prin
sekund
1915
sjøen
##era
innsats
ec
folkerepublikken
hentet
utgave
##bod
faktisk
nordre
anti
medaljer
forlag
forholdet
kanalen
kvinnelige
kalte
administrasjonss
##mat
edward
##mot
##systemet
billene
vokser
edvard
erkebiskop
##viste
løy
samband
hyl
past
mary
##mas
erfar
rein
slott
treng
##ksomheten
kardinal
innhold
hitler
størrelse
grunnlag
forvalt
bese
##entant
astronom
##skilt
virkelig
##ørende
##stjene
mem
##tet
krimin
fødsel
ansett
##etet
tolk
##vey
##riper
jim
marine
dollar
museet
os
rang
##oni
representert
utmerk
produ
##kommun
anled
vatn
mikro
forbed
saledes
magnet
kjer
lege
ts
##iod
##sliv
green
rekkje
##parti
##versjon
##muse
krigs
helsing
design
dir
##hur
populært
grunnet
tider
##aton
##irasjon
##yen
tromm
1909
##az
truleg
gall
paføl
##olle
finale
1890
masse
hellige
troms
olsen
##igg
##idt
departementet
1200
chic
kombinert
sitter
stemme
skriven
hakon
##nant
avtalen
##arten
173
gjeven
kjønn
irak
##ratt
innspel
##shire
oblast
##oslav
systematisk
ødelagt
ug
##ines
team
stig
##vatnet
dekket
innled
##yll
##elege
stral
##gor
naturlig
##konkurransen
##ife
vedtatt
rogaland
portugal
oks
moren
##hard
##vd
##ningar
##ripe
skriver
##mod
##ics
malet
administr
##mosf
##ов
oss
filipp
antallet
##bc
##grens
tropp
##una
##70
major
munchen
luc
##ærte
typen
tilhørte
borte
##ction
begrenset
kjerne
nedbør
##omot
58
økte
has
arabiske
smal
compan
fav
maned
bilde
colum
sistnevnte
innsp
aktive
plata
##sende
##leyball
51
underlagt
opphavleg
avtale
tilpas
vinn
deltatt
##stam
terreng
handels
eksempler
##radte
rod
skapt
##hm
##ifter
arrestert
halvparten
ønsker
##elly
##illes
##endal
uly
##styre
tilknyttet
##system
ender
##nerte
kilde
otto
##skul
00
karrieren
billboard
eigen
if
uke
last
##skin
akershus
jorda
tapt
##mun
##cus
media
##itten
vet
##stene
##skriver
kommunes
##ict
jesu
ment
##aller
bilder
##vesen
169
##merke
blo
redusert
kategori
##ican
møre
driver
anders
##zen
eksist
øvrige
vestfold
##23
adam
autom
##mor
line
slags
##dist
##arn
varm
utgjorde
hest
innlem
##eløp
fried
##fektur
formen
##omer
organisert
sykehus
magasin
club
allian
tang
##sfjorden
##ønster
##bakken
##jøre
dim
jug
##oe
bæ
storm
scar
varte
einaste
brat
forh
variant
uvan
skilt
kommunest
nederlandsk
kommunikasjon
ske
##øytnant
##føringen
164
##apt
63
ri
tømmer
parlamentet
##oppen
forekommer
napole
dekor
prote
##ips
66
##vende
mong
##ining
fu
##ulert
##spor
heldt
bell
gutt
gym
bygda
##ubber
alexander
geografi
gil
##nande
bekre
lee
##ids
lom
ton
materiale
85
erobret
166
##gaste
anten
##strekk
##gra
endring
jernbane
løv
##unden
##oter
##hammer
vendte
bodø
morgen
skiller
##back
56
reis
##eler
isol
jesus
inneheld
hag
ambass
omtale
1902
massa
##samlingen
##musikk
##akh
kanon
filosofi
fann
rat
165
open
##alem
elever
mes
1903
##aring
høgaste
##derk
nektet
nils
nt
##taler
turn
songane
initiativ
visse
verker
##spl
minste
koll
hennar
musikkalbum
skulpt
fos
##undes
##organisasjon
##ela
jøder
##ropp
53
##figur
##kontor
##historie
##sforb
imper
tettstedet
names
##stan
fantes
atmosf
sus
oversatt
registrert
antagelig
apne
etabler
oppstod
##sr
produserte
fortsette
wind
stillingen
british
hon
atlant
fugl
christiania
forbundet
pier
##neser
##amper
trekke
##ikkert
planlagt
##føres
1901
54
reaksjon
hovudsakleg
##iblant
artsrike
flest
hord
sko
##øne
overgang
produkt
bevar
finske
oppretta
utvikle
utsatt
korn
##fen
norrøn
presteg
##egg
##bladet
dur
ære
##bryt
fla
##bir
kontor
argentina
rand
##ikal
##ussen
indiske
venner
musiker
minister
##løs
hunn
##skjel
landh
##ubile
##ati
kommunist
prop
##fabr
##itsj
foruten
luther
ukraina
bruken
68
vekst
daværende
bøkene
frivil
tekster
##zo
##vag
landene
troll
manu
danne
maks
##iansk
##no
kjennet
bys
tjen
##fru
unnga
##olket
forut
arv
emb
endringer
##fød
##bevegelsen
auster
57
ekst
merk
lake
tam
teknisk
kim
ple
##forsvar
##perio
bosatt
sivile
assist
mi
##usikk
afg
62
dans
##kyrk
sul
nevnes
pafølgende
company
##sbe
kapell
trær
deriblant
portugis
##gjer
rocke
middelalder
##skij
##urne
georgia
delte
##tred
##steder
1880
fisker
##oslov
jack
hebra
elver
##spillet
mekan
##alp
teori
##gge
##saks
nordisk
faste
900
forsvaret
bedri
61
##spr
poly
totale
antatt
##funn
##grad
millionar
##itert
konkurranse
sten
1898
gradvis
aur
konstantin
##ear
total
east
sjelden
drama
atlanter
forslag
kvadrat
administrative
retten
desig
laur
59
verdenscupen
##front
involvert
eitt
inge
##eltet
##ato
indian
##grupper
reiser
befinner
##slin
barcel
observat
utøvere
spesielle
deg
##pool
æres
chicago
hardt
lokalt
tann
##nu
##pon
nan
billed
graf
sir
dommer
white
litau
gustav
##esterskapet
meister
utel
skiftet
##bøker
##pol
innvand
følgje
wales
serier
##cks
##ingane
##arat
forhand
##oks
gamm
avstand
levert
kompl
foreldre
##col
##ligste
skjold
ende
bestaende
##kvarter
tsjekkoslov
##rud
formelt
navy
kors
maked
inte
##bygget
jurid
respekt
tib
alene
minutt
farger
tvun
santa
mala
##alene
bronsemedalje
pow
ødeleg
##gitt
old
gass
##program
##fjellet
peng
ansvarlig
##rette
##iland
arbeiderpartiet
##ts
##ittet
##isse
forble
analy
lei
harris
##ianske
##essige
punktet
##klubben
ron
##kanten
opplys
##merket
kalk
avdø
polske
tidsskri
##arbeider
hensikt
##tekn
aud
flertall
omfattet
grønn
fungerte
##uft
sjakk
minnes
kated
ansvaret
arbeidde
polsk
vilhelm
##amerikanske
##imer
##anes
elis
##anserte
delene
advokat
kirker
hamar
##leiken
young
##kil
dun
vestre
kristen
##ksped
alko
lyse
##styret
utford
terror
fullførte
##ipend
fv
makten
##ogner
isa
sud
##vinn
overra
##iseres
##skol
und
beseiret
tvang
arhund
utanfor
nordiske
petter
##vøya
##smannen
hund
##esen
##struktur
jugoslav
grunnlaget
##kest
bele
had
kret
sida
ok
takt
78
lim
##ces
halvøya
klassiske
bein
løper
##draget
forand
ridder
##ci
oppstar
portrett
sølvmedalje
##cer
##barn
##ome
hordaland
melodi
ss
avdøde
##plan
busker
umiddel
tenn
øyer
##rede
vg
simon
hannen
mult
##iken
forber
korre
heil
volleyball
barcelona
bydelen
helst
særs
mangler
##slet
##ordin
carol
##ktige
##lie
bag
##kong
coll
ukjent
##haug
let
##ommen
250
lufthavn
scene
##irektør
nyn
fyrst
99
varer
bull
rapport
tilsyn
tegn
anat
enkel
tjenesteg
teik
maskin
lie
167
74
river
1896
american
##chsen
##stud
ekspl
fjellkj
88
mit
##lever
republikk
##øyane
eventyr
jerus
##zhou
parken
innendørs
##strand
kantonen
##ows
##skon
texas
point
cre
stan
##fort
##jonen
prøvde
signerte
alternativ
cra
karet
mottatt
##kjer
##flate
##kson
eide
premier
idrettslag
vand
##tra
##hy
ub
enheter
##bærer
##etisk
manchester
##vad
reguler
##ansett
##sons
programmer
fjordane
play
##elet
mulighet
##kkene
##verande
##inde
rak
byggingen
bart
overv
##medaljen
kristend
##formede
67
festival
##vensjon
famili
1899
ask
##rast
nomin
##king
nærings
dør
°c
##sbyg
victoria
73
##anna
##brun
slov
søndag
scien
cas
integr
##iko
legger
nation
forhandling
klat
##rere
presidenten
forar
die
modern
isbre
representanter
eksterne
##oul
##dr
##amin
kinas
sort
stu
loven
spl
##liste
##ace
byttet
ox
perioder
##nede
lun
foot
##onym
rud
bek
opphold
##kultur
##urs
verdskrigen
utgangspunkt
insekter
##orier
hvilket
##srett
##foss
opptatt
tradisjonell
midlertid
##alog
broren
cerambycidae
vig
##aktige
##uter
##serte
##lund
##nik
sosi
wood
ern
##kkede
brig
##repres
forskere
liver
##legge
##gaard
infanter
##ition
dyp
male
##skraft
1870
tarn
syria
verdi
##atert
fullt
##etningen
##tar
skotske
95
##hel
##ikan
tilst
kav
endelig
69
71
##sprogram
plat
model
osmanske
##fal
søkte
buddh
beskriver
pad
halde
alkohol
tw
##gi
bratt
gonger
##ao
tekniske
oberst
##jan
havn
originale
guvernør
maksim
##fyr
kommunale
may
myndigheter
friedrich
flytte
prosess
pavirket
##xi
opptak
napoleon
ordre
spele
dyrk
laste
skadet
kirkes
##liv
oppn
prøy
##industrien
##øte
stoff
##ble
country
latinske
##cl
hjør
artist
72
##stol
fjernet
potens
##eda
deles
jerusalem
skatt
##akult
py
##jul
drammen
brede
halvdel
møl
marg
lager
##sos
##prest
nært
sande
##marks
pun
##kerne
elite
##ioner
##bruket
send
##vekst
fattig
dyre
che
##istikk
human
utstyrt
parlament
personlige
studere
sult
##værende
##bild
landhockey
dvs
lengste
1897
erklærte
larsen
dokum
gule
##vitenskap
etterfulgt
vald
##enger
rute
berømte
heng
flaten
hammer
utvikler
##gjør
##bol
##wan
##bot
##rock
lengst
##ellene
mongol
esp
geolog
survey
molde
##verks
forleng
##verg
herr
klosteret
##lede
##kas
starter
##cil
##fs
leiar
kule
##vakt
ortod
heid
##forbundet
##feltet
##sjø
kjærlighet
##bank
alfred
definert
with
hop
tha
internett
hevder
dit
lillehammer
159
sønner
forening
##melse
myndighetene
iran
oppnadde
fersk
##biner
76
patr
festning
##stab
baten
aster
regi
utgaven
krevde
tynne
grunnen
kjempet
viktigaste
##oy
beholdt
grat
arendal
##forhold
beatles
europeisk
tyskerne
##demokrat
##vise
##ystemet
kommunene
muligens
##linger
andersen
rette
##handler
##blikk
veier
##verne
##see
planet
jones
konsept
##iges
##ump
##hai
corn
nærmest
naut
1895
##abider
##oritet
apning
elleve
##ois
embet
mengder
alm
##antiske
besøkte
styres
fastlandet
organisasjoner
liverpool
##irkning
##snes
tilgang
kvalitet
høgd
1860
oldt
az
holly
mottak
oh
153
studie
1300
roller
belig
##ito
daniel
##do
172
innspill
presse
skipa
##dommer
##skjold
##reservat
tvunget
##zon
lak
##teket
nk
one
##oten
arthur
rekl
kvalifisering
uttalte
katolsk
##vek
flekker
keiseren
##delinger
##urneringen
holm
inneholdt
top
##ipe
høyrer
eksempelvis
street
##ance
spesif
saker
##idde
tilfelle
nedenfor
utsp
tiar
kreft
flyktet
vekk
hvem
bang
##orp
hunnen
##asjonene
##igr
besluttet
sakalt
løpe
tønsberg
gor
##jing
skisk
1100
flykt
##rekk
linjen
oven
hjul
sval
##rafikken
##rekord
ingeniør
smak
##sto
##ship
jag
##instrum
forsy
mesteparten
starte
tegneser
##sre
omkom
selvstendig
frø
merke
prosessen
sæ
sogne
##gre
marit
flam
resul
big
##kons
##urat
virket
stortings
sekretær
##nader
elektriske
fredrikstad
papir
valer
skikk
konser
folketellingen
gunnar
tiltak
øyane
water
kortere
vulkan
læ
##sperio
##ove
98
##svik
ambassad
foreningen
##hv
##delse
mannen
110
virgin
tyr
anmel
rektor
nu
hein
balt
161
##bry
##smalet
colom
##bs
96
tettsted
markerte
uavhengighet
##skil
##orth
sec
planer
sara
1814
##mi
individuelle
knytt
kok
misly
anerkjen
strekk
uttrykket
ranger
##ev
verdensmesterskapet
cru
enden
oppmerksomhet
barna
##oller
##skont
spekt
kongedømmet
etterfølger
svøm
helsingfors
østfold
returner
82
84
instrument
##su
##øyet
flyfot
oppna
tyrkiske
fukt
ress
kva
his
##entering
grader
romania
lenker
kjenner
nasjonalpark
isted
planlegg
spilles
trening
from
##ado
undervisning
klassif
##app
elles
bren
svak
baker
hull
##iy
fungerer
##sdepartementet
polar
platt
evangel
fab
back
158
verdensmester
##hem
objekt
1889
konsul
town
golf
vokalist
konserter
trommeslag
sete
lid
skarabider
##ollene
sof
brødrene
doktorgrad
skad
svømmer
medisin
##vald
lagkonkurransen
##plikt
##lende
flo
sverd
beskrivelse
##hund
societ
##ging
spart
bevegelsen
bibel
tilheng
regionale
piano
##minister
kringkast
spar
ran
enkle
##iation
tronen
interesser
hamburg
opt
gaten
skoler
##medlem
##østre
revet
dagar
bokstav
aksept
scarab
paven
perman
grønland
opptrer
##edie
mytologi
utgrav
beskrev
##bruddet
##rey
##urch
163
opprøret
cr
bulgaria
77
##asjonar
vag
slu
gitarist
anim
bilen
wolf
bert
rose
nobel
sot
sap
kulturm
##bukta
fødte
ligaen
beskytt
situasjonen
bergens
stader
1892
prot
popular
namngjeven
still
utenlandske
ross
##utvikling
##ji
house
utgangspunktet
fn
##bur
1893
frist
gammal
scenen
gjent
elisabeth
inspirasjon
86
lør
ektem
kammer
velge
manager
scarabae
kne
kartlagd
sens
##medaljer
##utan
ekstrem
##asjons
lover
##du
takson
jackson
bbc
##unnelen
spelar
hog
uen
##vas
tilbud
kjenneteg
1894
##yk
roger
klare
##spris
skriv
utform
introdusert
##oget
ath
service
##fekturet
irsk
skøyter
herred
football
97
stykke
williams
fler
##jeld
hemmelig
81
dru
##komiteen
##ussel
landbruks
##rin
anlagt
veget
djup
##byggingen
formel
inva
økende
størst
annan
law
##kal
rov
senteret
serb
elementer
identif
prøve
##olis
##skab
sidene
dirig
##jern
slottet
eksemplarer
artar
bærer
ligner
styrte
naturreservat
medvir
##dann
lord
svar
130
##sjef
styrt
lyst
manuskri
asker
lux
hensyn
arrangem
grim
meldte
komposisjon
francisco
overbe
##iform
spring
pul
prog
yngste
group
artikler
1400
lor
kjøret
barnet
riksvei
bærum
statt
blan
91
sekunder
sigurd
##hjel
planen
fakult
drag
1891
mccart
stjerner
##holmen
jom
##cu
spir
vitenskapelige
skule
##elles
dukket
afghan
##iarder
79
syr
pors
nærme
frihet
sloven
fat
trukket
ordfør
journal
oppløst
skille
##istol
varianter
83
politi
emil
trommer
##enden
sommaren
##omi
kastet
road
nasjoner
joe
kvinnen
ash
tir
vannkraftverk
strekningen
dyl
programleder
radgiver
##opter
##wig
press
statsb
selvstend
artister
gw
glass
forsknings
etablere
jobber
milliarder
drap
##voll
##esund
##drift
villa
tradisjonen
##cadem
night
penn
##gruppa
islands
peru
pse
##skop
##atnet
motiv
hindre
revolusjonen
##skjer
##atelse
sikret
egenskaper
tunnel
gjest
hvilken
vanlegvis
tidspunkt
mic
noregs
steph
gjev
levende
##punktet
opph
cupen
##forma
festivalen
sene
##kul
##bury
supp
1850
fabrikk
fril
##oma
##ender
fysisk
tilnær
heg
##vika
##kampen
klokken
##sterdam
svalbard
adolf
rut
##kol
anbe
amsterdam
##kop
legem
##gjorde
ordin
##iks
period
regim
artikkel
##remedlem
saga
##vannet
arist
lørdag
ønske
nynorsk
##fjella
original
aleksander
demokratiske
##bøl
natten
dahl
kalde
87
##iot
tibet
inntekt
##hab
instru
fjerne
##skal
##kurs
modellen
##nev
##øye
rødt
okkupasjon
##fir
##øyd
begrep
##partement
jernbanen
einar
##bær
##sleder
tidene
mete
1885
spissen
britene
bygger
##egruppen
samisk
fremme
godkjent
barndom
alger
pur
##mord
ombord
vent
ales
rav
##gs
bene
##verka
lenn
vers
blanding
hotell
diameter
cur
##ininga
##uper
##iets
oppsto
produserer
irske
tegninger
nfl
##rommet
jule
nordlege
galler
oppføl
##cha
høst
sørlege
oppgaver
arena
overtatt
kraftverket
##iff
##edt
rag
grov
observ
fremtid
amf
##øp
##rie
##ologen
france
##astro
##cup
medalje
valde
tayl
##like
sachsen
forskjellig
##egard
himm
##vling
fullført
utlandet
alb
math
##bjørn
karib
publiserte
drepte
wilson
mr
89
øke
156
kult
tilstand
pakistan
1888
perifer
basis
middelhavet
##wich
etterpa
vakt
skyldes
tidsskriftet
tone
avgjørende
kalen
komite
steve
##hver
##jed
##ello
##amo
##ilen
trygg
rem
eksport
stykket
vingesp
##angrep
##konstru
##sko
fjellene
sporter
##amask
inner
firmaet
opna
bayern
smab
larver
##slipp
##komst
ideen
##oka
representere
skader
alvorlig
mord
jordbruk
konsekvens
##etiske
hau
bit
##sveg
155
shang
eksisterte
rester
##maler
betale
science
##lend
##bal
##leks
brand
##lah
brown
##oritt
saud
sideelv
fysikk
johnson
arkeologiske
vaks
##elli
##ensis
3000
gn
##forbindel
rim
tas
rettigheter
adres
petro
##formann
alban
merc
element
##løper
rammet
holmen
delstat
rulle
ringer
hellig
senior
assoc
seieren
##leir
##bourg
span
##ksamen
keis
norrøne
bysant
høgre
pom
##edy
##jøl
eies
preussen
monark
##skudd
føde
aar
##ovo
fortsetter
kontro
fantas
inngikk
93
eliz
nag
##bein
skihopp
rab
##kirken
##ittiske
flyplassen
din
samla
##sreg
##fel
nikola
vende
##hor
ledelsen
eksamen
kent
oster
##vide
slipp
undergrunn
##svalget
##gro
utry
##strom
##anon
basket
92
sankt
##pes
artiller
stilen
lew
##brand
forlate
##søk
nasjonalt
militært
moss
innbyggerne
oft
ild
##erter
ms
##teborg
emp
##ressen
formid
ell
kurs
begynne
##vatn
1884
aften
ast
##vingen
oppgave
tilbyr
foreslatt
fenomen
sjanger
henrettet
bowl
out
162
nøytr
skyte
aer
##knad
vitenskapelig
sic
academ
ever
statsrad
stabil
dol
forbi
fulgt
blokk
spredt
truet
konsentrasjon
haust
feltet
later
nak
prøver
##klassen
gott
ost
##omradene
forfattere
eksisterer
##asset
kjell
pel
##øs
bombe
rettet
kjøpe
##deler
klim
##via
premiere
eksperiment
anerkjent
flyfoto
jødisk
matematikk
columbia
##skamper
##row
little
##mede
##ament
produsere
94
##elat
estland
##miral
##ystem
symfon
##skilde
markedet
viken
foregar
inndelt
mah
nautiske
kub
##dar
ama
##sopp
regissør
konservative
høyester
marin
bog
ukl
##iga
##bygningen
vestover
##oster
regjeringa
østre
kommunistiske
familier
bredere
1883
slaver
alesund
##datter
champion
##real
##foreningen
spesiell
israelske
##sler
##esi
doug
##krets
walter
ube
dylan
leia
sveriges
##akadem
somme
steng
##derne
kjøre
skytter
##uv
kred
radik
1848
goteborg
frie
sydney
nærmeste
##zig
mønster
bladet
naturlige
ull
slalam
tilhørende
##ulf
autonom
burg
preste
aktivt
rug
vedlike
apost
hebraisk
fusjon
##odor
jugoslavia
hovedrollen
yrkes
##filmen
betraktet
hat
mig
##aling
konfer
##bridge
##okse
tjenestegjorde
##edrag
endre
filmene
##president
returnerte
teorien
taylor
act
endra
tsjekkoslovakia
##jd
##imen
litterære
tilsvarer
marinen
lese
##con
##offer
sportsutøver
##funnet
skudd
tokyo
innanfor
intervju
##eliv
døden
gjennomførte
gold
##ots
##ggen
handlingen
blue
##svitenskap
cape
seremon
##belte
##lyst
marx
##klet
krever
stater
##isch
##ulære
##antene
spare
grunnlagd
knud
1886
gabri
skutt
lod
østover
teknologi
mess
havne
hval
abd
##chus
lyktes
lens
##zer
thailand
tsj
##lement
##utdan
##byra
##zi
vog
##rut
vedtok
skyld
herre
næringsliv
forret
temperaturen
leil
##gionen
skaffe
1882
anal
ler
opplag
uansett
1881
kollekt
utgivelsen
##arm
fund
josef
##aki
avisa
rene
grunnleggende
lette
mike
fiolin
turneen
filip
##ikerne
assos
alfab
##ralen
hong
ud
##gift
##arbeide
##oidea
stone
elve
140
innlemmet
##fulle
##kten
brutt
diktet
##order
##itat
##ansje
trett
sesonger
brø
##øtet
skjel
unntatt
##rog
hvitt
##ques
studioalbumet
##snavn
flyr
cy
framført
øverst
dokumentar
##nis
vennskap
enna
christop
reness
skien
##oth
forfattar
omgang
parker
##verdig
omfattar
##distrikt
termin
ryggen
##urope
##isjoner
##ides
##leker
etiop
batter
alexand
patt
tidspunktet
fortalte
engasjert
##busjon
gravlagt
##trener
fjerdeplass
upp
overg
utspring
afghanistan
idag
life
ryt
umiddelbart
jr
##fo
medvirket
##selva
samtlige
sad
nytte
##varer
virksomheten
himmel
##festivalen
brudd
##18
mening
ulik
kombinasjon
svein
vite
##zy
cont
##send
datteren
handt
gongen
bedrift
##serie
skips
drikke
krim
##idene
bevegelse
##to
overflate
ue
utgivelser
nyttar
##stillingen
##aldt
##status
kulturelle
halvt
frit
sender
slav
hur
venst
batt
oversiden
guine
samferd
##spartiet
fortel
johansen
spilleren
##splass
##vind
hedmark
kenn
##erto
##handel
biler
##bergs
##serne
sor
feltt
##kin
derfra
myn
bandets
sjølve
##atorer
hersker
samst
margar
##sha
flyplass
##tegnet
institu
eidsv
nepal
##talte
eric
society
##halvøya
##ando
utbre
velger
cle
hovedkvarter
cuba
##sal
effektiv
##eleder
kome
praktisk
hollywood
##ikon
##edom
hart
church
stef
skotsk
##vinger
##sdalen
bevisst
hug
sangene
betydningen
omrada
154
offent
1878
##hjul
gruppene
franco
forarsa
##ikkelen
day
grønne
##stasjonen
dep
##yrer
##henger
vesentlig
##møre
strekkjer
florida
samstundes
annon
anven
elizabeth
ov
harmon
eksil
##somt
markert
religiøs
##derkopp
##wald
##parken
sykkel
pala
aser
##bakk
net
##prosje
burde
brad
linjer
fis
bunn
##bul
##lemann
partier
bidra
diver
tju
##com
state
ressur
##chi
##enga
versjoner
trenger
deltakere
152
middelsstor
budde
basketball
##ote
innførte
innvalg
vlad
utstilling
finan
primær
##nt
##fun
bildet
##sku
hagen
rust
beord
resear
tørr
ins
gene
uh
tysklands
trykket
apent
tettstaden
mengde
gy
havnet
##samisk
kvalifiseringen
hvilke
velly
prost
##rang
volum
##navn
monte
regler
hovudstaden
##prins
foreldrene
musk
luxem
##amesterskapet
mobil
uru
grus
sjuk
tanke
fed
saks
tarnet
##olas
sammensla
##fødte
1875
##aser
venezia
##representant
that
arkiv
gjaldt
sandnes
opptradte
kapasitet
##somradet
1871
bibelen
##følg
ortodokse
##ernes
arsak
tunnelen
antwer
dominerende
lyr
niger
##itasjon
paret
##skiftet
nokon
moral
ped
helg
folkes
innledende
omtales
kall
krets
falk
##uck
revis
skildra
##brune
good
##ations
olavs
research
##ikansk
##aktiv
ørken
##ubileum
utendørs
##sammen
##miljø
demningen
tore
##mane
kvalifiserte
vises
fjellt
held
benytter
fugler
fare
betegnelse
ledere
##rert
##oro
larvik
##lane
innb
tvil
##posten
cover
ernst
ey
merket
och
##ykke
pag
invest
diagn
seb
betydelige
##ains
trondhjem
wester
skjønt
skatte
tror
beleir
##ush
lem
##vold
1887
kavaler
##elskap
østerrikske
##rup
##elberg
stiftelsen
brian
uvanlig
prøyss
bjer
##grensa
vingene
tipp
rekru
tropper
##blom
guang
##rand
kommunesenteret
##sforbund
invader
157
sonen
oppland
##ofon
beslekt
humor
damer
kvel
vii
stev
offens
##anset
franz
##karriere
beregnet
##strasjon
schw
##vegen
rolf
styremedlem
who
subst
amerikan
profesjonelle
jem
pseud
##viser
##varig
center
storsl
færøy
christopher
##somrade
##ssted
##shov
your
##æs
drepe
stillehavet
##adel
verv
riktig
##pass
1877
nøyaktig
##kore
##kspedisjonen
oppford
##на
oppe
##skogen
##horn
malte
funne
##espillet
operativ
torg
##skild
brune
borgerkrigen
tide
telefon
nun
##ttene
stilt
##ikasjoner
innvalgt
touch
##hode
landhockeyspiller
slikt
fame
gh
utlø
invasjonen
##skor
fotballklubb
1879
datert
skinn
##si
lærte
##agasin
geomet
slekter
opplevde
hage
aviser
resulterte
wall
sex
midlertidig
##ledet
lokalisert
spis
passasjerer
overrask
minim
antwerpen
eige
##agt
betong
deltag
forsvant
pale
bære
graham
davis
##kins
vara
##edagog
ray
danse
bibliotek
##smedlem
halden
bakgrunnen
aring
jensen
ambassadør
##antisk
frik
##hild
forveks
indones
bygging
place
brem
##umin
bens
gjens
zh
##ular
##sor
klubbens
mannskapet
kampan
##bach
frigjør
##ape
stry
invasjon
##ardo
framfor
serbia
hjerte
fasc
vatnet
smale
stemmene
oxford
##ffen
##ope
##melige
##endeplass
##sklubb
##krit
bekreftet
agg
##amisk
absol
konvensjon
dob
fysiske
ifra
harde
kongelig
zo
ax
ling
##kort
##atia
lettere
151
nylig
sports
ansikt
uv
madrid
ala
nettopp
inkluderte
##yder
obje
verdsmeister
høre
hunder
seriem
matemat
skjønn
##denes
##hag
lof
straks
overlevde
##hall
skjø
##semb
antas
##cos
##reis
##nest
##eman
bebygg
fjella
drives
dum
muligheten
antikken
festningen
komment
forbud
kandidat
naturen
video
##gass
søndre
##flaten
normann
nyhet
mccartney
association
lønn
##furt
tech
opprettelsen
##osjon
historia
##amn
begrav
##ient
arch
##bruker
##fabrikk
##iki
kompet
magasinet
makedonia
rommet
guddom
bue
##star
##ulær
andrew
##onsert
egyptiske
designet
tettstad
sher
##ares
atlanterhavet
jørgen
##atre
chris
##messig
nemlig
##dy
fine
petersburg
##maktene
virginia
selde
sverre
nettverk
kjempe
seint
##worth
enhver
oksy
##opel
##brua
rolling
musikalske
sats
etym
kongeriket
plater
squ
##aktor
definer
win
times
##søy
kvit
##kamper
fabrikken
##iserings
larven
fjær
arrangeres
interessert
utførte
takket
mangel
bytte
lewis
teknikk
reklame
yt
##dømmet
administrasjonssenteret
##ensel
bin
farg
sukker
krysset
forma
jomfru
fon
trass
modeller
satell
gymnas
elvene
heart
stadium
tene
tjenester
central
staende
tyrkisk
##ittene
##sforening
##rør
myndighet
døme
##bygde
stoppet
detaljer
linux
main
sicil
##skule
sympt
libanon
historikk
steg
hil
allmenn
dannar
opphe
##geren
forsker
##asteroide
##rakte
høve
##uere
diskusjon
nedover
##skan
middelhav
num
1865
sarp
tabellen
##sarbeid
sammenlignet
tilbak
episode
##abel
produkter
klubber
debatt
ivan
##inist
helgen
selskaper
meteor
##ск
##inar
mannlige
kapit
muslimske
anker
konkurrerte
##tredende
##rust
kona
gjøres
tilhengere
1876
sørget
arlige
rytter
tilsynelat
##navnet
##akten
##iok
blind
øyeblikk
oppfatt
munt
deleg
paus
##kkar
norrønt
liknande
vitskap
etniske
##arv
##skyl
dele
forsvars
comp
##gjande
australske
skogen
tidsskrift
forny
familiegruppen
##verdige
oversettelse
##hire
slett
henri
løn
solen
bøy
ds
taler
plast
1864
foreslo
##dekket
opplæring
lederen
angelsaks
godkjen
golden
##seier
##aman
innebærer
røn
##sproduksjon
rif
##gata
bille
øl
uavhengige
digital
manuskript
ye
kvite
partiets
##out
vanligste
usikker
##iano
kunstnere
virker
røtter
toll
utkom
##belteasteroide
politikken
nederlag
way
streng
utelukk
##ih
##jeneste
##gande
##jorte
##ema
fugle
##skapasitet
##familie
forsamling
##don
##kere
framtid
kjøl
buss
faller
advis
spredte
##sfjord
ntnu
##lagte
##holdning
buskerud
non
heste
robin
kvarandre
##odden
vestsida
##oft
1840
kirkens
dos
##rikter
ah
khan
femt
##varen
##spros
konstruksjon
kritisk
power
##veren
pierre
oppover
##sma
bakter
##mont
149
lave
dikter
##ual
sommerfugler
brother
##ypen
høyr
##ctor
##dens
##arene
trin
leddet
datab
grevskapet
queen
hul
helik
lj
motoren
jordbruks
1861
##jest
##cast
legend
andel
jordan
jernbanest
##veld
##fos
##shistor
utenriksminister
##litter
signal
bispedømme
næ
ferskvann
mir
ukrainsk
##gers
sveitsiske
jurist
##tekter
talent
##organisasjonen
##ega
alta
konflikten
pabeg
omd
oksygen
aff
soldat
avlange
eksisterende
kommunal
##stadt
chile
fylt
heime
fasett
##jent
##car
munningen
anledning
09
ettertid
angripe
tilstede
##bildet
beskytte
traktaten
dvd
hender
raske
redaksjon
akkurat
##somme
advisory
pund
clar
##otiske
##østregionen
kongsberg
prinsesse
reder
sound
antonio
gun
osv
1873
arve
##liga
tidvis
soldatene
positiv
ded
vidt
salme
invester
##vernement
hørte
kulturminner
05
reag
1868
sard
innslag
garder
bredde
##hamn
tony
##uz
##komite
mountains
rumen
arrangør
franskmennene
utgaver
1866
##skoler
studiet
##elde
##førsel
##settes
haugesund
musikere
##verte
bakke
selvmord
sovjetisk
wis
beordret
innbyggjarane
forsøker
hitt
sies
kontrovers
##ough
peak
hotel
##asi
hovedrollene
##antar
dessutan
##ikkens
forbudt
kyr
landmal
flukt
great
arsaken
rent
hannene
korleis
125
møttes
null
rival
menighet
sibir
##egarden
musikalsk
snor
ferdin
avr
##atak
pok
difor
sao
krigsf
seinere
australsk
flagget
herrer
kaller
gifte
tron
teoret
ulov
orgel
forkortet
##iction
##eds
varia
pedagog
##ism
sarpsborg
##fred
##anne
##bak
##støt
inc
klasser
plu
hero
beach
##ifa
trodde
kulturen
##ni
##aria
yards
barbar
nielsen
offisiell
wat
styrken
digit
##jal
vingespenn
##atl
benytte
undersøkelser
ungarske
cov
##forsker
skrifter
komponert
markeds
nkp
sebast
##uene
innlandet
##gate
guvernement
luxembourg
##unen
##verden
søke
##sosial
permanent
synd
hk
##kanis
erling
argum
ekteskapet
samferdsel
##olo
teke
kveld
##ertall
broen
##ssam
##uperte
guinea
visst
institute
fanger
aktiviteter
douglas
##sas
selskapets
##reps
erstatta
bowie
vedtak
##sjan
1874
avviklet
ønsk
wars
##øyen
hausten
formet
igjennom
metode
trag
##akes
trinn
motset
heinrich
riv
marokk
hosp
forente
eik
pont
bypre
##ømte
party
kna
jordskjel
forsøks
##asser
brenn
##høgskole
##ence
spyd
krysser
asp
1830
1872
##anni
##lia
eventuelt
eir
1863
kobber
øker
glad
erstatte
oppgrader
geografisk
##bes
##arl
utgav
byrjinga
oms
lister
tilsl
##haugen
miljøet
stri
kapital
frans
kontra
skarp
laten
##och
##itiv
##bygning
noens
##last
stridsv
radet
nabo
##kandid
raud
musikkvide
1867
liberal
hersk
##kser
##lager
prestegjeld
08
##nde
romerne
forfrem
oppfyl
##jande
innr
konstruert
##syl
##ision
sakalla
administrativ
justis
butikk
gjennombrudd
storslalam
##oga
veter
##vania
personar
##bla
primært
frykt
stundom
wer
avgrens
##fta
kjørte
tai
##skapene
nilsen
medisinsk
sluppet
beskyttelse
avskj
arsaker
##merker
hviter
greg
pedersen
byar
bened
uts
redusere
labor
hardanger
utføre
setter
5000
##eser
##spør
hja
medførte
lufta
filippinene
lyng
##ος
##brett
kallen
##plate
sola
skuespill
##æk
overvin
tvers
titler
##kh
litauen
preg
##alia
##ege
kamer
gjenværende
tennis
##iktet
mam
brua
prosjekter
oppløs
øvrig
kru
lita
herman
monument
minner
visepresident
lekene
heat
##iers
teologi
parallell
forvaltning
##drakt
medaljen
seter
etterm
amund
##nadene
slapp
girl
##ires
##rende
turnering
atter
##atra
johnny
##ktoratet
hoffet
danmarks
##ili
##usa
##ason
passerer
##vol
repar
grensar
kommandør
atlanta
##wick
rosa
partner
germ
overflaten
##right
vinneren
platen
##adiske
lokomot
etappe
utmerkelser
progress
##cen
alan
bygges
stengt
noensinne
##mater
katastro
##ally
erfaring
skipene
tunge
por
##dahl
tank
bønder
##befolk
straling
nark
1862
sving
forvand
gjere
erklært
social
##skomiteen
distribusjon
rekrutter
kvelden
analyse
mort
##østen
byane
utenom
atmosfæren
##ield
effekten
ferdinand
##raden
undervis
underviste
debutalbumet
hale
statlige
gjeste
1859
voss
bruce
ekskl
jødene
##ustad
sitte
##ross
trengte
tort
##økonom
fox
pant
vestland
urugu
##fast
oppvar
kasakh
austerrike
gratis
tekne
teleg
kommunane
avledet
anbef
##kir
##pter
##prob
##kyrkje
##styrk
bryter
fell
tillatelse
skiskyting
uruguay
undersiden
gjenstand
##osh
guy
broad
synlig
##utningen
fris
mari
øyne
##yllup
##mond
arbeids
folketel
redde
latskriver
intens
reich
skandinavia
etableringen
heidelberg
misten
opposisjon
meinte
uro
samtidige
hypp
brasiliansk
##oa
maraton
bah
##linjen
bakkroppen
##ritt
maud
geir
biograf
belgiske
nivaet
søy
##etil
##tting
##olje
unes
bast
nordmenn
##ublin
innspelinga
bun
range
jobben
lede
fog
jiang
##ravet
omstr
tsjekkia
klin
vilkar
kolleg
avstanden
inde
##ppel
##iber
innledet
foster
meks
parad
slutta
boliv
nasjonalsosial
samlingen
spec
gammelt
firk
##inna
arabia
diverse
stamme
dobbel
nordsida
##synet
##asjen
disc
menneskerett
juridisk
fasettøy
karbon
aleksand
vinger
innviet
global
sandefjord
##ique
##wart
utgjer
koordin
originalt
fond
vor
##holt
botan
gjennomg
##ømt
##ierne
gruppens
presset
liter
høgskolen
boy
omf
hjalp
stipend
isen
bakover
##regionen
hyper
##cent
##utert
chrys
force
##ische
ali
fargen
undersøkelse
geografiske
##pat
##iande
automatisk
overgangen
leip
katedral
##press
##banken
##inus
##ssenter
##dela
##aux
beløn
folketal
guds
kommando
mall
##olia
##filmer
munner
##enge
baron
dramat
##ан
holdes
bryte
omgitt
##jeller
##løse
fk
tilby
situasjon
engasjem
##nast
##agnet
komiteen
##skriv
kvartfinalen
##instit
soph
koret
##kammer
wol
færøyene
veker
skaper
rub
##senter
seilte
##opol
fylkeskomm
##jiang
##igan
samuel
verken
##adisk
##klin
julius
arealet
##festival
rangert
bedrifter
##iinae
sper
kontinent
##ray
##idda
##shand
bachel
##artar
##ovic
redig
nato
slanke
kroatia
tradte
middels
jama
assistent
tend
bevarte
likt
##19
##kommer
##museum
studert
cross
##pok
indust
##etninger
dater
panser
##imir
##utta
verdenscup
onkel
innst
##ylon
metoden
insekt
##iane
organiserte
generalsekretær
episoder
mynt
bam
##kle
##asa
valley
tilstrekk
skjell
games
vestlandet
##kamer
##ansene
storby
observert
##uma
##bourne
##asse
spillerne
2021
dream
medie
##slivet
forbered
04
fns
##ksam
sosialdemokrat
##bent
feir
##sete
myst
prom
##orterte
##utg
bukta
##æringen
bygningene
dverg
personen
nabol
kardin
opprette
##ktar
jersey
zur
stortingsrepresentant
##oto
##icus
artistar
##stykke
rib
landskamp
##enda
østerriksk
utelukkende
##ui
politikar
windows
fikt
##aljon
konstitusjon
tevling
sluttspillet
bladene
straum
##sprosje
cir
løse
kypros
konserten
take
wang
tilsammen
parlamentar
##fle
seoul
##bror
kvalifisert
##fronten
##ilet
##atus
kid
##assen
key
sære
##ali
gjennomføre
##sbanen
kartlagt
##forskning
##hs
paraly
møtt
okkuperte
forrige
brei
import
auka
##ures
anth
estim
06
##niva
##sselskap
ritu
evak
##bom
##ligaen
arkt
jenter
tørre
rana
konstantinopel
##sled
klaver
feder
penge
##otor
brensel
bryllup
##anlegget
america
148
jup
spur
produksjonskapasitet
##stida
tidligste
##sfelt
spesialiserer
funksjoner
sportsutøvere
kjære
individuelt
##hop
##fys
##ness
##skripsjon
fanget
forsik
##alis
##uset
##bren
##amikk
##ologer
##kommander
##rov
arsj
oppbe
wen
folker
##stin
kongo
dies
##botn
well
avdelinger
landeveis
nede
##avet
light
boston
hastighet
##vart
hovedperson
tropiske
jemen
lennon
rune
##result
##kretser
posisjonen
edd
gjøvik
rail
reflekt
væp
studios
evne
kristendommen
##ktøy
canadisk
alderen
navnene
dannes
sommerfugl
jen
pic
grande
donau
##opt
avska
frag
##emann
profil
høgt
gabriel
##yrene
##aya
personene
molek
klimaet
spesialiserte
lisens
bruka
manglende
organer
dimensjon
##sji
gards
aserba
touchd
qing
##stolen
1857
gjeldende
exped
betre
økonomien
##fallende
krep
fortjen
generasjon
isf
utbygging
kontinuer
maxim
tomm
kritisert
mennesket
tjue
molekyl
nære
##folket
##sporet
##strup
darleg
sjeldne
##orger
spellemann
##nummer
##elsens
##spolitikk
##16
118
graden
##risen
aserbajd
##klass
endelige
medv
ordens
brygger
##spraket
jarn
##pson
krefter
born
abra
leo
##historisk
xi
##oriet
konf
lærar
##resjon
1869
bladbiller
tag
wel
plynd
veit
paralymp
##iev
106
osl
##arig
fakultet
##best
##linje
romaner
leipzig
bater
egentlige
##skyting
øvelsen
##ssystem
down
tilsynelatende
blu
##ittisk
ibsen
mektig
bosatte
plateselskapet
institusjoner
##vinner
metoder
fattige
vast
overle
lek
helge
##sniva
hier
ot
divisjonen
størrelsen
##kjempet
##veier
senatet
nedslag
snar
rekorden
avhandling
##ittelen
afrikanske
omdø
leop
07
høge
mind
utgje
##day
spiser
apoll
mannskap
kontrollen
##ræ
tilt
ingr
##seid
gjenstander
studioalbum
lovgiv
kommersielle
bard
katal
jobbe
embed
koal
##svir
kw
nick
dekke
##rot
##risitet
farens
muham
##runn
##elskapet
spørsmalet
eidsvoll
pall
arsen
colombia
##ype
forsvare
carolina
##instrument
##weg
brent
vern
sha
blandet
##sja
fair
##chest
svømming
shanghai
mellomalderen
asi
115
grun
motiver
etymologi
##vering
##redaktør
massachus
eirik
sne
reformer
konkl
chang
innebar
rase
##ordfører
aktuelle
settes
##gd
bent
##user
malays
105
tilpasset
rap
##rel
##ariske
##oria
definisjon
##smod
separat
dominert
gres
kjøtt
lane
##cing
##blo
manen
grensene
hend
spiss
##cken
legges
1837
konkurs
brødre
##odene
aqu
ruten
historikeren
figurer
gramm
bølg
350
helhet
presentert
shet
free
generelle
erstatning
autor
##øvar
##still
##lers
##enting
nei
cambridge
massachusetts
##ansvar
##olusjonen
##ador
kommunens
sokn
mineral
##fu
vogn
navne
strøk
ddr
vestlege
nova
systemat
motsatt
narvik
dokumenter
friluft
bh
##agne
foregikk
##museet
skulptur
##iom
foten
prester
forlatt
##feld
##espiller
forbindelser
selge
lincol
handlinger
##livet
##stillinger
anses
høyden
1815
ungarsk
##bell
innspilt
nærleiken
nel
ryd
##ktiv
cham
folketeljinga
ufor
midtøsten
tempelet
endem
skift
uttalt
##vokst
byprefekturet
##natt
kjøpmann
hir
utsikt
##svinger
operatør
portugisisk
deltar
juan
doc
##seth
forsøkt
ovenfor
aksjon
prinsippet
##artist
konig
marc
skala
femteplass
vakre
kelt
formalet
arrangerte
##landsk
kanoner
indisk
shar
austsida
demonstrasjon
##vass
kjemiske
antarktise
gord
gutter
##ikerer
##kommende
regner
##krigstiden
favoritt
mao
gur
costa
presten
jonas
innspillingen
##endige
##elmessig
##saka
##able
##smessig
##skrifter
tilhenger
snakket
vestkysten
malmo
flatt
scarabaeoidea
dop
##espill
stefan
teken
##so
##iterte
1854
xii
turisme
luften
pabegynt
##melser
landskamper
##perioden
head
##kontr
offer
fredag
rasmus
spenning
parallelt
##paret
sikte
beliggende
eiendommen
prøyssiske
konkluder
fortellingen
verdier
##berget
allere
sørsida
pred
offiserer
basen
rosenborg
metrop
frivillig
##ansjen
##lekten
##opptak
##lat
gruppespillet
##say
tenner
was
utpekt
fremmed
fylkest
driften
allereie
statistikk
hendelsen
avlang
##ely
##ordning
championship
sebastian
##ringa
slave
prosti
verte
steiner
##edia
omfang
frankfurt
fartøy
##ømet
infra
##veit
##ferdig
anerkjente
dublin
annonserte
forholdene
demonstr
flykte
##ific
identitet
##otte
hovedkontor
##skarriere
sicilia
morten
infl
egnet
brannen
skode
disp
angiv
##arbeidere
leiren
skjeb
forgjen
behandlet
##tegn
eigne
admiral
##bolig
landbruk
bestemmer
ragn
##di
spise
partiene
venezuel
vall
budsj
liberale
##smark
apningen
framover
territorium
##ku
donald
fortellinger
satur
potter
køy
##bestem
refererer
web
##egler
##rus
##head
anklaget
dødsf
klubbene
giov
dyb
mangfold
##inia
##kongen
reservo
mt
positive
fraktet
##merte
##antet
lp
##moen
møtet
##faren
##dele
pasienter
foredrag
dres
##venn
128
smy
namngjeve
systemer
muligheter
oppnad
flytende
sotsji
##oda
get
utgjev
ordnet
tegne
vurdert
individer
##itive
likest
alpint
lamiinae
##kontoret
fiendt
inndelingen
mach
klarer
latskri
portugisiske
oppnadd
brag
avstem
milano
referanser
utøv
luftfart
gjem
lanserte
##umb
##heit
konkurranser
frekvens
armeen
##orkester
##urens
administrerende
alminn
##svatnet
gjenvalg
sørkore
haw
fremfor
typiske
##ods
fremført
kriminal
##forsvaret
states
vannpol
##alo
##adi
tallrike
corpor
##avstem
komponisten
##utsch
##øyst
##idea
##sfar
ektemann
løpebiller
##ynes
trib
verksted
billy
##sde
##rogram
##brig
regjerings
festet
akust
hertugen
hester
sees
kristus
hugh
##finn
skyt
##ways
108
stockholms
medisinske
academy
##ingeniør
##legaste
pig
dreiv
nidar
##nor
mennene
##klus
##kvart
##øvrig
kald
##boken
allianse
rundet
etterkomm
snakker
reserve
grund
avdelingen
artikkelen
gods
##ido
begravet
uefa
liga
napoli
##can
døgn
problemet
##elius
##kron
##ceae
ruter
##spraklige
strat
hay
reddet
skulen
##ич
##reen
##sloven
maleri
##orks
knapt
1851
gon
forøvrig
lincoln
##juk
##jort
forstyr
sea
come
abraham
##rier
chap
##stjeneste
forbedret
slovakia
##arkite
søsken
##offiser
kjemisk
torino
ishockeyspiller
forlaget
##liggande
##brede
skrives
1856
kontinentet
##konkurranse
introduserte
befest
##cao
færre
lagets
trekant
amatør
taket
##virksomhet
145
borgermester
foretatt
wu
voksen
##skrevet
schles
traff
##stekn
imago
1855
skilte
historikere
sundet
##arder
##kse
##elighet
fremmet
1858
grammy
parag
orientering
##gner
blanke
1849
stede
eine
color
nevner
##institusjon
jager
##retten
drog
okkupasjonen
##erty
verb
##talende
slekta
kara
sikkert
##got
ideer
forarsaket
edderkopp
tanker
myrdet
##pset
utnem
verdien
troppen
guden
nasjonalfor
frivillige
##rø
##stø
##ynene
terje
beck
##minne
møtes
nevø
reformasjonen
brothers
hits
##viet
skuespilleren
##ahl
oppgitt
nad
##rigen
administrativt
boys
umul
fangst
##sleir
regimet
drakt
##ulus
howard
københavns
##hallen
kommunestyret
fangen
plag
topps
ohio
fengslet
##ев
##shall
intelle
autonome
sf
etasje
iron
##kton
01
##entrum
tykk
rig
darlige
##produsent
dev
arre
arbeidar
malm
betydningsf
bystatus
særskilt
##iing
heav
##spillere
vanlege
greve
praha
elsker
dypt
kompleks
bøndene
utløp
freden
##fre
høgare
dotter
erobra
støtter
##useum
stoppe
antarktisekspedisjonen
tig
programvare
okkupert
skjedd
##hein
fars
##hum
##shavn
popularitet
taksonom
##cou
omgiv
##ordet
redning
istedenfor
##meng
planten
melbourne
kristiansund
##ukter
division
##edalen
atferd
rykte
protester
##jering
idet
slar
single
dype
vulk
jus
inskripsjon
mulige
gruve
bm
skaffet
munnar
høyesterett
oppvekst
##veksling
øystein
følte
##lok
awards
støy
fortid
disney
øvelser
sylind
boe
kino
##fuglar
faktor
ال
##uster
sykdommen
dna
indonesia
109
##pene
esk
##ec
##verknad
##rell
##burgh
nash
stjør
utslipp
##presentant
##ningsm
##ants
skildring
folkemusikk
mom
adri
jeff
hydrogen
##utdanning
book
ric
##ais
##ox
##atoren
vinkel
oppdager
barneh
##stedt
kronprins
##ppa
##ruten
##sseremon
etterfulgte
##stjer
samiske
tredj
propag
##elaget
hamna
ramme
low
skane
kongressen
diplomat
ki
fortr
##beck
laborator
dec
marcus
egil
sterkere
beslektet
svenska
##vit
utformet
geological
cow
glem
wild
skøyt
gjeng
##skritt
baserte
sveitsisk
elevene
birk
forstand
##arth
##sfart
field
zim
##ikarar
kunstakadem
##inas
motstander
referanse
avskjed
nadd
rekorder
massakr
corporation
bær
##strakt
vitja
provinsene
ng
nit
##domen
capp
inngatt
##sau
greide
glim
grunnloven
##kninger
etterkommere
avsatt
klær
eksperim
unionen
order
hvorfor
##cal
karakt
##esn
opphavet
119
personell
breen
materialet
lil
##klasse
skvad
niels
tekstil
##jak
##chang
##ikevel
pennsyl
##ampton
##sfil
generell
##orme
medlemskap
##edning
moz
fredet
fint
artium
sommerfug
femten
tungt
sas
##etra
allikevel
sev
##ipper
##vand
verdsc
senterpartiet
skjær
omgjort
alumin
statsborger
harrison
navig
berømt
suksessen
lady
fase
elect
##apar
leks
havnen
gave
busett
##lista
##isi
albuma
hjemmebane
##skulen
rekn
stephen
kurt
##ki
perm
engasjer
leverte
uavgjort
argument
1842
departement
storleik
##engde
beskjed
1845
##fjellene
bist
lyden
paralympiske
adresse
class
herunder
montert
##vesenet
eva
##ous
besøkende
aas
cann
##øse
styreleder
miller
##raph
##yth
##løst
endel
##veksten
doub
return
pattedyr
forfremmet
østsiden
graver
##manns
hospital
opptreden
montreal
føderale
##elling
regiment
plasserte
ludwig
##feldt
ip
enorme
pod
tilbrakte
hyp
##periode
##osen
##anken
antyder
oppdater
overta
oftast
dial
kapittel
elektronisk
##atan
##snavnet
1852
volleyballspiller
begynt
elektrisitet
anderson
##skytter
indikerer
vesle
tilskuere
gest
##cs
hoc
alvorlige
##forbindelse
tilstrekkelig
nedgang
##smed
trium
beskrives
##smy
##wall
bret
noverande
konkurrert
relativ
grunner
127
australian
##itch
bidratt
eliteserien
##12
##dommen
michel
betjen
##shem
fleir
soren
landa
##ledes
krepsd
1820
##svapen
vegne
dave
forsvarets
##kow
flyg
lokaler
stillehav
signert
mogleg
warsza
intellekt
ingenting
vernet
147
##kehus
benj
forsvarte
##eløper
##kne
##anner
##ology
hovedtrener
midtre
kontrakten
sultan
forum
hang
army
nevn
arkitekten
alaska
##yton
walis
mov
derav
ligge
stewart
temper
uran
ay
enige
##fore
##akk
bea
gla
lant
flytt
vilje
tretten
vester
olaf
kardinaler
##søkonom
135
visa
nestleder
tjente
engasjement
##obe
##biblio
##kkende
manader
gib
nordsjøen
tradisjoner
firma
wo
høne
løytnant
krøn
margret
##uropeiske
##norsk
##eri
##rennet
forvingen
arkeologi
bassist
lagde
##sstra
straffe
##brot
fortalt
kalle
filmat
##omp
nærliggende
bosetning
heavy
intell
western
##vang
##mak
vestsiden
makta
##leum
samsvar
regulert
albania
stim
eter
##sex
##etting
##speriode
omdøpt
aluminium
oransje
haakon
katedralen
##post
stang
##osisjonen
giovanni
sje
##hof
enorm
##ego
ns
##egen
statlig
morris
##ruter
regioner
##illy
turen
##kreis
gylden
kommersiell
asb
utmerket
pioner
##mur
østlandet
finansier
##ands
##rute
pennsylvania
ll
##smo
utviklinga
##savtale
svake
129
##insen
gjeninn
elvis
jacobsen
##hara
cha
lillestrøm
igang
vidar
lastebil
forretnings
frisk
vegg
sporet
134
utnevnte
grieg
dak
##yg
sittende
wright
##striper
veil
strø
montene
europas
dagbladet
mora
kai
dub
jente
elektro
tsar
visste
planene
fjør
slutte
##ukas
bidrar
tillatt
melodien
##jeg
##svig
##semd
ballen
138
##ocke
vassdrag
fiction
meters
##sfl
kravet
kolonien
card
soder
cass
vinterleker
stillinger
firen
##kommanderende
nich
##smenn
##temp
deport
vancou
fungere
##følgje
lapp
tilfellet
##okl
risik
opphørte
margaret
klubbane
jesuitt
paras
term
home
##kandidat
øynene
##mad
partil
tau
##lett
distrikter
normand
restaurert
innenrik
differ
norgesmesterskapet
juridiske
aus
krom
grønt
vladimir
fortjenst
kvinnene
##isser
auk
forslaget
utgava
referere
figuren
##sala
francois
techn
vancouver
walt
philipp
valerenga
fulle
cæ
hamil
beskrive
bilete
negative
##stone
imm
##høyde
utarbeidet
handverk
##romer
kriger
opphavlege
innsjøer
motsatte
alpane
arsproduksjon
##major
sjangeren
medier
rekonstru
european
german
petroleum
lunde
##avik
##ops
##ialet
ferg
hypo
##yeong
malerier
etterretning
##smiljø
seri
shakes
##handlingen
instrumenter
bei
korresp
bunnen
ff
wik
##nett
##mende
##middel
orchest
konseptet
##zar
##rip
stemte
sjetteplass
font
##utz
brussel
gammar
aftenposten
sosialistisk
identifisert
jimmy
stikk
innom
##svøm
##ianus
historiker
hongkong
##verv
boh
tanken
pyram
##iplin
temp
##ikaren
##apest
##setninger
metro
dynasti
tredjedel
dick
##ubert
gregor
soul
1839
ungdomsskole
##ammer
skru
biskopen
utforming
##asj
##boka
handballspiller
manag
##vinne
##ulere
##verdi
himmelen
benjamin
##enburg
historier
ammun
pileg
hak
sop
##sform
##zzo
datamask
##rater
shakespe
##itre
inngang
##delser
syner
##kov
omhandler
variere
snorre
christensen
varierende
##ulerte
##savis
tropisk
abu
##burn
clark
henta
##lis
##imar
fremover
104
##stog
utbygd
vannkraft
operasjoner
elektrom
##sun
##rium
cher
kamera
1853
distribu
##bater
blatt
komedie
regional
forstaelse
nidaros
##uka
handelen
dirigent
halvor
grunnlegger
karakteristiske
tunis
cub
cab
##kat
overord
1838
##hog
lyset
bekym
conc
##feksjon
arhundret
enke
##usj
##ifik
infrastruktur
##ulasjon
vitne
castle
forsking
##ylland
presley
silke
gwh
##iserende
utgivelse
hills
cecil
##sang
maskiner
mitt
xian
##rerte
##jol
nevnte
##løytnant
##ер
##edde
para
poet
dukker
##sselskapet
##rol
berl
legg
fjellom
nøkkel
bonn
iver
##hast
inntrykk
##rikes
forventet
saret
blomstr
sammenhengende
vegetasjon
varare
hawa
tekstene
ose
##yang
##mask
narkot
beskyttet
virkeligheten
##onne
game
present
##marka
kretsen
##selen
tenkt
mekaniske
##buss
sinn
gent
##artet
##bec
pac
##slov
handlet
nelson
cos
more
##vak
liby
rasen
væske
##verker
gat
##iget
koloni
strømmen
nordsiden
forhindre
ege
pitt
##sykl
europamesterskapet
kalenderen
radikale
##messige
variert
firenze
##bad
##temperatur
poesi
ekspert
##iew
##gow
newton
kommunistpartiet
dame
mum
##aktive
charlie
furu
jevnbrede
##ор
norway
etterlot
seksjon
gullmedalje
kronologisk
gale
wy
funksjonen
forklaring
kunsten
ledes
tilbaket
pavirkning
oppfattet
bjor
sansk
resultatene
mona
kontrollerte
bedriften
venstres
jin
skall
philip
alfabetet
marokko
##delinga
ventet
saudi
##api
holmenk
utvida
stammen
karakteristisk
frogner
uppsala
gjester
studiene
them
innholdet
03
cop
##spe
louise
borgere
##log
##itære
axel
invaderte
tos
werg
avanserte
myster
samlinger
assosiert
befolknings
regulering
hamilton
plut
periferie
bond
##vogn
##deri
##legging
torv
tilfred
hunnene
ig
orle
dyrket
brukere
grovt
call
##vor
konson
bulgarsk
landmalingar
##utgiv
døtre
vokst
##flukt
##egn
konver
kjernen
helikopter
hod
borgen
banken
kjemi
balkan
pink
løsning
claud
##iformes
##pterte
motorer
sunnmøre
##gh
##ested
liggende
persiske
tendens
austlege
etiopia
benn
##stjerne
##seksamen
palmer
forstad
ult
##intend
vanskelige
nebb
minoritet
urban
##eringen
vek
alternative
brant
betra
biologisk
hjert
keisar
moske
invitert
rudolf
tat
høv
episoden
##hagen
##elast
foreløp
##født
sirkel
verka
teatret
stykker
latvia
wergeland
krum
nym
uteksam
gjennomsnittlig
mold
##yper
first
1821
dyktig
bosnia
hør
##rine
##sløper
cell
##æle
snitt
antarktiske
tsjekkisk
sone
paverka
##bruck
hof
##shøy
biblioteket
antenner
hes
flyv
arrangement
vang
##eper
##bille
teorier
##etere
levet
##sfjell
##tsj
##omel
opptre
bebo
chart
søraf
folkeavstem
avvist
146
##div
likte
punk
##ografiske
halvøy
frances
tommy
normandie
sørafrik
##neset
viii
##settelse
zu
##direktør
reisen
blokker
mista
jordens
bjar
krone
##vator
soft
gerhard
folkeparti
##17
monro
jury
##fc
krigens
02
mix
##amb
117
stalin
patrick
hms
trekker
krem
pent
##skirken
tildeles
this
belgisk
bratte
sanskrit
##skysten
##motor
innspilling
##dad
##meter
##itus
grunne
hockey
ansa
beting
illustrasjon
##alter
innov
antik
##grensen
##osa
##urnering
mektige
aren
orleans
##ution
revol
forsøkshe
##ikert
vektor
dc
tres
##bjør
##iard
touren
##uda
lade
##sgiver
krystall
yu
##ivind
##brutt
laus
vellykket
skjøt
rum
##irat
##line
##lings
samanheng
##hjelp
126
klassifisert
1836
statsministeren
kjøpes
selvstendighet
##sin
##kob
tidlege
familiens
##15
instituttet
hindu
ringerike
##low
forstør
##amentet
snakke
sogneprest
mika
beholde
##bey
moon
antikke
veksel
forlenget
stjørdal
action
ruta
engasjerte
##lu
##ussland
øyen
mandag
savel
sever
navngitt
kilo
gitaristen
bevare
homof
##zan
##ifest
kompan
budapest
kunstig
betydninger
nicola
helgeland
##rane
##ffa
synet
kjører
vinden
vapenet
sykehuset
uklart
valen
mario
beng
rekt
byrd
stro
loj
armenia
gult
hipp
##jerte
interiør
102
stoffet
turnerte
eiendommer
##plater
##atsen
vanskeleg
kullkraftverk
rockebandet
daglige
punktert
menneskene
tegneserie
stur
##cle
energien
utdød
henger
have
lokalpolit
kad
##witz
##stor
death
##alls
nordsamisk
##start
domstol
rovdyr
##ен
fremskritt
plateselskap
##vapenet
##isont
venet
illin
ringen
ektef
##oman
trent
konsesjon
røk
##zj
kurd
sprang
sivilis
systematikken
hjerne
siger
slovenia
skra
politim
gem
uken
vedlikehold
ressurser
vad
##seng
enno
europave
umulig
forkast
deutsch
##veggen
menneskelig
##fab
##gget
##smet
kongepok
forløper
hunde
treet
dekkjer
bataljon
##uste
holland
holstein
bakkropp
##kjøring
gig
##inden
fremtredende
drø
hovudstad
blader
##ulering
##onder
##avene
betalte
ødelegg
katt
bestand
virkelige
##slekene
tilfeldig
##edon
minnesota
amundsen
originaltittel
orchestra
illinois
forplikt
bridge
arbeidere
karibiske
striden
utvand
only
passet
##how
drar
lavt
1847
industrien
ordførar
##more
##idig
besøker
flekk
##herre
munch
sale
##bek
136
##elandslag
jacques
omstridt
nyare
nyopp
stanley
dresden
utløpet
##behandling
bomb
psykologi
##vidde
buen
gæl
korps
gum
##lagg
##kretsen
##mouth
aksepterte
##kers
anerkjennelse
##antik
##svin
144
vokse
hjelper
sophie
cit
cant
##idet
innhald
verdif
utstillinger
austerrik
spellemannprisen
fetter
wag
##erek
kari
statistisk
##vendt
edin
gifta
##skilte
oliv
ekspans
##vileg
kongsvinger
nunatak
perspekt
dokumentert
kollap
vararepresentant
mørkt
risiko
babylon
brigade
ges
##srad
underholdning
kunngjorde
sykdommer
##aft
##dis
pause
util
##ynast
theatre
jung
aspekt
gater
endres
inger
bakvingen
##base
mastergrad
senator
ordene
produsenten
hoppet
strenge
bidraget
##anene
##gener
universiteter
forbryt
##offis
tennes
anledninger
pc
talte
bokser
restaurant
gos
mist
astero
skr
##ians
negativ
harstad
##ningane
lengdehopp
etnisk
symfoni
tette
##arina
ande
##rukket
drapet
kvinnelig
opplysninger
personlighet
hemmelige
kjøretøy
latinsk
akseptert
##amfunn
reduserte
ibn
##dannelse
smelte
agent
##skiold
cæsar
hip
##hord
støv
see
tempo
palasset
##sum
##røret
asteroide
jupiter
heder
must
##edien
beh
##phia
vesten
maling
##velt
##menne
sørøstlige
##kun
planeten
strategisk
##hed
##mass
##iao
prince
kategorien
zurich
angivelig
sammenhenger
besitt
##strekning
##afor
##cons
behovet
administrasjonssenter
tippelig
seire
referert
##uller
bush
boliger
judoka
450
inntekter
filmp
kapellet
svenskene
what
objekter
leie
gullmedaljer
galt
##bind
singell
1844
keiserlige
materialer
kum
fylker
##kors
verktøy
norgesmester
1841
tillit
mørkere
##sforhold
bysantinske
##zel
framst
bukt
1846
toget
ulykken
nobelprisen
107
##sbane
motta
jet
løst
##steinen
langdist
persia
mozart
##rist
##ione
betegner
dreier
pius
##brukar
karen
kaste
serbisk
univer
schm
slovak
protot
uteksaminert
dall
grep
talt
plattform
##splassen
torped
##aer
##isped
ekstremt
vib
##steins
runden
korru
##raten
##skriften
adams
ian
pga
tilsett
grant
rhinen
markerer
bug
cav
emer
##polen
utnytter
##æp
madaga
omset
demografi
riksveg
forfatterskap
butikker
##befolkningen
##cket
betegnet
rapporter
menneskelige
##asia
atak
svømme
feiret
raskere
etapp
oppvokst
tvilling
##bygda
mine
omgrepet
micros
das
leif
demning
orkn
hente
113
fvt
avviste
103
naturgass
tegl
sparta
##tekst
oppstatt
helle
utsk
found
vatikan
frankrikes
patriark
##rande
menigheten
##cho
##heimen
framstilt
prega
tynn
verste
##sher
positivt
##rick
##neren
partis
bølge
rick
##uks
metod
carlos
henrett
##harmon
##eli
høgde
hertugdømmet
did
kare
stiller
theodor
kildene
operaen
stemmerett
diamond
collins
##nda
##apo
132
ida
##sver
alice
solberg
søker
discover
##svirksomhet
pia
akademiet
hittil
svend
sche
kvalifiserings
møller
fristil
ming
##hert
utle
charlot
periferieininga
##utstyr
dance
##limer
philadel
##him
##avis
hvile
beliggen
##usk
tilbød
oppfinn
expedition
tus
kode
##bilde
forhandlinger
hyppig
uoffis
##adene
##iba
vassdraget
isolert
malaysia
microsoft
##sig
##13
##arme
##rekning
##univers
##stadion
omfatta
forklare
arnold
øydelag
sendes
##habil
hønefoss
m³
landkreis
ammunisjon
##yle
##rimin
##umann
oppdatert
serierunde
gress
1843
stortingsmann
beveger
server
svekket
glasgow
hager
##onte
røros
##fossen
eksistens
ens
##ami
meiner
kongene
coast
produseres
singap
taiwan
##dra
depres
bj
oversetter
antikkens
vestlig
turbiner
koln
fuglar
##stal
opprykk
1818
innflytelses
piet
falle
varaordfører
##ingsf
139
buff
ix
midd
co2
teateret
canadiske
folkeset
konsernet
skif
##strene
bevegelser
##itas
##attes
palestina
begiven
sosialt
##vari
##penden
generalmajor
oppvarming
sert
regelmessig
trase
slesvig
morgenen
presenterte
emner
kunstnerisk
##sseremonien
warszawa
bapt
##celler
solid
kosm
pistol
absolutt
##egang
##admin
allen
felttoget
morg
økning
shan
forretningsmann
##kelen
##otisk
oppm
fritz
usikkert
tryg
overlevende
posten
horisont
beleiringen
omtalte
raude
afro
##kvensen
emigr
gullbas
antrop
tapet
sudan
mg
biologiske
effektivt
hendelsene
##organisasjoner
##ssystemet
eksistert
vinge
##ommer
nybygg
anthony
##kking
##bransjen
##formasjon
##veland
kommandant
busetnad
splitt
hob
mellomtiden
kommunar
herfra
kaukas
oblig
asa
##eles
michigan
isteden
mandat
kompetanse
##cion
##skaps
ulikt
ragnar
##kjem
deep
høyest
brukast
flora
forbinder
regjerende
doktor
drivstoff
sug
ødela
moderat
##korps
hotellet
rapporterte
sau
kjeld
116
##house
##smedal
garn
nordvestlige
dramatisk
borgerkrig
lunge
utbruddet
etasjer
kansas
##hausen
kjønns
føres
planla
konflikter
ik
##fol
##bab
##stykket
avgjer
chi
neil
##ible
islandske
erobre
foretok
fronten
jordskjelv
##kost
hals
havner
spreng
pilot
cry
##bler
stjernen
sank
commun
arsenal
charlotte
rele
absor
forklar
princ
##entral
bemerket
autoritet
elef
##sse
##relse
gudbrand
demokrati
alpene
kenya
digitale
bolivia
møn
kjeller
basil
vektlø
kommandoen
philadelphia
ess
jos
heiter
varianten
sosialistiske
baby
##shuset
grimstad
sammenslaing
madagaskar
##æra
branden
øyar
124
fylkene
fiender
budsjett
utnemnd
forurens
##kommunen
##lærer
norweg
svakt
steen
prosesser
innløpet
holoc
halvdelen
kreert
matematisk
##sdagen
##byr
##ла
steinkjer
##bei
ekvator
folketalet
ltd
billedkunst
overraskende
##wen
##brev
anner
kommisjonen
roer
##lekse
revisjon
chrysomel
##any
##trær
greiner
kjenn
naturvitenskap
##bergen
knytte
##bakke
##orax
##fiske
hunt
venezuela
asen
avgrensa
##iksjon
flyktninger
beit
partik
floyd
kasakhstan
efter
##rence
##versjonen
skyting
##ume
underveis
betaling
islandsk
kass
##raks
##etty
akter
##lines
##hjør
##stral
##bers
##lema
protestantiske
trommeslager
kollektiv
hjorte
mjø
sikt
geist
scener
substant
omsorg
cel
moore
jerry
##splan
seld
folkets
##rasjonen
lederne
centimeter
satellitt
##ograd
betalt
112
##owns
pluts
hermann
##ukta
militæret
arrangementet
regne
##sfolk
##været
avgang
morf
centre
regjeringens
apple
innbyggertall
verdensrekord
##sstyr
semifinale
koalisjon
iber
##ilget
##oken
olden
assister
tanz
misjonær
arrangementer
teller
##hatt
tiende
yrke
nødvendigvis
##kjempe
plutselig
ronn
##ilitet
##sperson
fortelling
gordon
fut
klem
##bels
##ree
utlend
sammensatt
roten
kontrollert
bibl
gunst
##uert
leger
eag
##round
oppholdt
##ograph
tortur
samlede
##føder
##skjoldet
germanske
serge
##samfunn
turneringer
##kulturen
##etak
søk
age
##omrada
stones
innk
bringe
senket
befant
valle
##basert
bonus
sykeple
oppsta
synge
bokstaven
yang
##erob
ensemb
detro
sektor
123
imperiet
##hon
selvbi
##hengen
quarter
##historiske
administrasjonen
ørn
##light
banks
virkning
tilnavnet
kontinuerlig
edinburgh
samarbeide
persisk
##gru
##orium
##cept
evig
pum
##leiar
143
##plant
stasjonert
eksplos
oppløsning
haugen
##brid
vap
oppsl
inngangen
europavei
##ungen
leik
natural
kjøkken
##ayer
opererer
spelet
mane
blank
munk
alexandria
##agasinet
hi
stutt
skro
##ners
rittet
forlet
##oker
klø
politikere
##sklubben
za
##dorf
##egra
drøm
1833
faktum
brakte
støtta
trondhjems
spenn
rundene
baseball
ion
overlever
nordøstlige
kennedy
hinder
kiev
##revolusjonen
attent
skolens
cappelen
##utepunkt
embets
annerledes
##staten
##rets
##aterte
farget
eriksen
##skrev
buck
motstandere
##produksjonen
hekke
##ringene
folkegrupp
spraka
opprettholde
konsertar
instrumental
demokratisk
hesten
hanner
##ulen
kreves
oldtidens
estimert
##inett
##raksjon
leopold
sz
##ads
ytterst
mengden
krepsdyr
avdekket
child
kontrast
sprakene
praktiske
##ogram
kontorer
krok
neset
git
##valt
##hre
##mektig
angriper
##ights
kontrollere
mongolia
ukjente
videosp
abo
##uge
##øys
##ugene
kung
virt
inspirerte
herc
betraktes
##14
##ammen
dion
nintend
utpe
##onto
tennessee
even
##stu
##rogen
protok
litteraturen
overvintr
discovery
cook
##rakk
##styrke
komponerte
##ressur
finansiert
mobilt
aserbajdsjan
aga
veld
##ople
misfor
##pur
tiltre
prø
antiok
122
mut
innover
sorte
##ned
##irus
rakk
komplekse
##sve
##legger
bokmal
utvide
vingen
velstaende
sylinder
##faktor
skjult
bernard
konsentrasjonsleir
special
kem
mere
##reise
pater
##kontrakt
underarter
##indret
fienden
hypote
##rings
innkjø
##illo
##ffel
##analy
##drevet
##øyde
innsbruck
regjeringstid
##appa
sunde
##ws
##baten
##ero
##uls
undertegnet
##uga
fjorten
here
##sveien
ferdigstilt
lakse
resterende
##unge
utbyggingen
arvet
##castle
bundes
swe
##æn
uttal
romerriket
dn
tav
##gjøre
##sverk
##pi
##ар
##anses
følgde
hytte
yorks
pafallende
enklere
##sstasjon
presidentvalget
vakte
yn
rehabil
thur
integrert
mant
brønn
whit
lofoten
##cz
anatolia
hugo
##mand
minor
dronningen
bernt
forg
##agon
gamal
##skalk
mjøl
##tran
forskjeller
beskyl
tyngde
vesen
eie
kommende
final
garant
114
137
sandvik
brunlige
##fangst
finansminister
evolusjon
##ouri
dominerte
øde
tydelige
##oldater
##stjenesten
optim
rugby
moll
marknad
##sbo
landsbyer
korrekt
selvstendige
fett
konkret
steinen
forfølg
##rise
altert
mississ
tverrband
ecu
benedikt
ikon
britannia
hjort
##banks
##arate
kriter
electric
dialog
chrysomelidae
space
1832
campbell
##kilometer
bensin
bredden
makedon
brenne
geneve
##artene
landsm
bou
linjene
fyret
1812
acan
mitch
##sperioden
adelen
avla
høyres
urbane
levanger
pus
transk
##smiddel
fellesskap
oppdraget
rakett
detroit
##gam
hjemmet
##amaskin
pastor
mississipp
døpt
celler
omdan
moham
##ils
##alth
typar
halling
tilgjengelige
varmt
dov
tell
##ии
metallisk
##utsche
##jøres
minnet
løslatt
lukket
akademi
##stendige
elektromagnet
##etre
##allian
terrenget
##kilden
burn
##jenester
fysi
botn
aggress
##fallet
##idert
dennes
utsmy
##osser
derby
langvarig
##oi
ef
##rykket
forskjellen
galile
dap
spion
airlines
opphevet
baden
##mans
seie
plikt
augustus
amfip
##uld
##ifisering
herad
skuespillere
offentliggjort
ønskte
##odi
##plata
republikanske
pyeong
##unnel
##irektoratet
rain
jenn
##skala
##sven
##ytta
##ionens
antis
braut
besetning
sørsiden
series
forsterket
marian
chen
lengd
four
hevda
dekorert
oppfordret
##gne
##sakadem
##regiss
lærere
##strakte
algerie
##rær
##roner
##ørene
dead
konsp
##ameister
##skomite
sokne
##skontrakt
acc
gjenerob
##endene
resolusjon
fritid
##arige
##ismens
barokk
formelle
kjennes
phill
##berger
daverande
stifta
malta
##uin
##xt
##oser
overvak
sopp
##turneringen
harvard
fremgang
valent
souther
enheten
lagd
shah
hjemlandet
israelsk
industrial
utanom
##vogner
skara
dale
advent
hald
singler
forvir
##entes
##klar
133
lyon
bispe
##skjær
busetnaden
revolusjonære
bore
tinn
kevin
ign
##skyt
samler
reglene
##hers
##vidt
opplysning
radhus
slektene
separate
velges
skandinaviske
##aturen
byggverket
gua
kross
1810
mountain
utnytte
##anga
mekanis
worms
boeing
fland
nordligste
grunnstoff
temaet
komplisert
stup
kvadratkilometer
##administ
wi
verna
kupp
##kirk
statene
testamen
ulovlig
##forsy
rotter
johnsen
laveste
sørvestlige
bobby
ødelegge
fangenskap
fig
regent
berge
mose
neb
mf
##teater
##planter
altertav
##falen
avfall
segl
prior
utbrudd
alliert
##aken
evner
bestemme
##areal
##tida
##organer
##strid
folketallet
##orene
ombygd
manad
herbert
voksende
metam
pavist
fjelltopp
##ums
begrunn
##issær
pels
hei
vev
kledt
deltakerne
granitt
territoriet
amazon
hawaii
pyeongchang
##ders
##boa
riksdagen
utdanna
illustrat
telegraf
hare
bly
langrennsløper
tilfredsst
loc
tower
frp
annonsert
bebyggelsen
bald
cath
##gl
kulturminne
lengden
##loven
##fond
ferge
bildene
stortingets
forandret
porsgrunn
horten
vamp
##gitar
tildel
##issa
kven
sakte
tillot
industrielle
##kreft
kostet
gustaf
sorenskriver
bio
gand
##sbet
##baner
muller
russell
##sløs
##leng
##annias
fortet
datidens
egyptisk
curt
##murer
løfte
##sfly
##staver
##farge
1808
celle
gut
##emb
bae
##uo
##stedene
versjonar
løvtrær
mercury
knudsen
gata
##oko
assyr
walk
løve
retor
paulo
drammens
cin
##iseringa
moe
format
ambas
verdensarv
gardene
foreløpig
##ст
muslimer
##konge
motstands
rull
##kreps
##orum
svartehavet
queens
fremtidige
dug
##edo
##skning
turister
barnebarn
##gjeld
##bryter
zhang
##lubb
gravitasjon
eiga
ji
ureg
embetet
lawrence
##go
##fas
bodd
1807
trafikken
##emon
hauk
##mingham
hjørnet
##lich
lages
deltaker
stemp
distansen
riksantik
1824
psykiat
forestillingen
empire
arsjubileum
dekar
flom
steel
bomull
brystet
e6
##avdeling
##riv
halvk
bispedømmet
komplett
##gart
sjang
lyder
quis
walker
vervet
##engene
provinser
støt
skran
impon
manusforfatter
leonard
ronald
fantasy
##bill
##holdes
venus
oppfatning
sardinia
vilt
proje
hannover
ambassa
liknende
kjever
akademiske
##stende
tilstanden
registrerte
forveksles
aven
delane
femin
inneha
##redning
sri
##rapp
latskrivar
besta
fotballklubben
##sstud
busk
abel
velferd
utstillingen
statssekretær
##lete
edel
ral
zam
##zburg
##adal
##ikkene
verkene
kopier
jevnlig
lorent
bryn
forenklet
etappen
ordinære
##reng
##bebygg
##stader
1816
annekt
hapet
sparebank
dark
##ating
##innes
sviger
##orianske
##useet
brandenburg
##isin
abbey
edmund
westfalen
høydepunkt
stadionet
kommunestyre
thompson
kopi
operasjonen
tjener
hevn
##haw
prisvinn
alpinist
halen
##slekt
1809
tyngre
##jere
##splasser
birmingham
deltakelse
framgang
utenlands
storbritannias
rapportert
##hø
ariz
illeg
newcastle
styrer
bibliote
nintendo
kjørt
ulv
privileg
monum
lykkes
trykt
hurtigløp
symmet
##stret
##utstillingen
sørge
indire
bandy
filosofiske
hovedrolle
forhandlingene
reknar
##egnet
##avisen
leid
##sfeltet
markant
oppgaven
##sesongen
broadway
korrupsjon
blas
trekte
dommen
singapore
u23
##innhold
kritiserte
##hua
titan
avrundet
jot
rast
##jab
rey
disiplin
kristoffer
double
testamente
##statene
##etti
##arkiv
##sbyen
sideel
##gruppene
arag
dry
ustab
##ube
graven
jørg
bruks
never
kunstløp
okkupasjonsm
falkland
##rekker
hjernen
planlegging
holocaust
##mit
##esdal
##urus
svov
kilden
kirkegard
skjul
transp
ær
##grav
##iness
##skade
økos
symptomer
gongar
##slinjer
asbjørn
hond
kib
meyer
krater
inklus
utro
##ovitsj
krf
gransk
fact
følelser
rena
##illings
kafe
sjeldan
oliver
forsvarsminister
catal
lob
spits
##ksp
manuel
##uru
1835
##alie
avgjort
pianist
##uensis
fryktet
jamaica
indirekte
##uvern
##annet
stord
##samfunnet
grove
peker
##iøse
fossen
teologiske
kunstg
khal
skilles
##uri
##imp
##icks
##boe
##kanalen
##skraftverk
##mert
##seil
##urbin
##varige
syvende
passerte
alliansen
stum
arbeidsgiver
synger
1827
colorado
trussel
##upert
pengene
pam
anslatt
##irer
now
news
nederlaget
konstitu
bayer
elverum
arhundrer
yes
etc
eiere
suff
smør
hellen
definisjonen
paske
kommisjon
##ografien
##ware
fengselet
islamske
styresmaktene
##ια
kunstneren
anark
gudene
rundede
southern
##ax
##cell
ellev
##innene
stoffer
soldatar
1801
hensikten
vincent
sommerfuglene
viv
winter
##ль
kristin
bortimot
nemnd
eggene
##dige
palass
nødvendige
angelsaksiske
stjert
frid
strategiske
differens
##work
##bodd
fødselsar
ic
undersøke
fuktig
jor
koden
##sbygning
##shistorie
listene
##stit
skifte
parentes
cooper
resp
diego
utdannings
1829
1828
anklag
troppene
kompani
1831
følgjer
jøde
##ssk
magaz
mottar
utvidelse
##fylke
meritter
##vestad
organist
##jønn
##flokk
huse
samanlik
blomstene
kronet
##ин
enighet
##kry
husdyr
##fotball
amfipoder
civ
##ynte
##bekken
##ordningen
artik
flertallet
krigsskip
##programmet
hamp
øre
##esa
bystyret
forsøket
lanc
bark
canter
pto
bystyre
geologi
evans
prestis
erobringen
skrekk
rica
##ckl
hanna
kanaler
glatt
idretts
keramikk
##iskoper
advar
##atorisk
##miljøet
doping
lap
##amnet
##spres
lektor
farvann
adgang
motstanden
sprinten
kjennetegn
dødsfall
beskytter
manglet
1813
lærde
pip
innga
domen
gjenvalgt
summer
register
raf
fartøyet
temaer
hauge
##xx
##chuan
hels
##kommune
##virke
smalt
fordeler
mans
##systemer
##itering
waters
tippeligaen
##keberg
vender
##ksomrade
formannskap
cong
utkjempet
##skapar
novelle
##vinning
##kkelen
##imo
dags
dagene
flyene
##hør
##inos
##somrader
750
zappa
elias
##bring
argentinsk
eugene
##nok
marmor
4000
bernhard
##clude
taksonomi
##advokat
##ulu
underjord
##ieu
fargene
melk
kirurg
renessanse
barnehage
nansen
kondens
kryd
##ieren
vente
maritime
overt
bryting
penins
habitat
##ubileet
year
omhand
synlige
misn
utryd
avst
husene
syklist
konsekvenser
##ilo
frakte
##ragende
klokka
akvar
sogndal
nigeria
kyl
gardbrukar
kunstneriske
piz
##yan
defens
aristokrat
franklin
omtaler
pluss
finlands
teikna
foundation
lill
teolog
sjæl
stortingsvalget
skøyteløper
hovedbelteasteroide
geologiske
halsen
huser
people
blankt
barbara
lokomotiv
rasjon
##jast
##ommet
##steori
202
niende
mekanisk
spanjol
etternavn
##lade
utgravninger
##bredden
styreformann
rytm
eb
vedkommende
##streme
latv
missouri
arizona
kjør
kjenne
akademisk
stuart
slutter
slank
kosovo
avsnitt
##ulykke
linja
hærens
spøk
immun
intet
##onymet
griff
cerambycinae
asiatiske
deutsche
chelse
karb
galleri
korrespond
sjøs
gibr
##baserte
1825
diplomatiske
rumensk
dallas
spitsbergen
##ilog
##inns
nordøstregionen
##ringar
oppgjør
geril
##pleks
hviterussland
##institutt
tilflukt
##fting
milliard
dramatiske
cum
put
##artal
##rekorden
dus
ml
hvorvidt
##maskin
terning
ingrid
europameister
øverstkommanderende
##iol
##ktighet
skis
takk
materiell
aber
værende
korpset
pressen
install
##grense
keyboard
seiler
fern
##ografisk
syng
bronsemedaljer
ridge
##menter
##bekk
heitte
silver
philos
skjønnlitter
##sprosessen
##asiteten
medlemmar
arrangerer
finger
##handelen
synonym
dyret
##achim
##jeselskap
unike
konkluderte
tidens
##retts
fortelle
gjentatte
noregsmeister
tilsette
kritiker
sesongene
beskrivelser
smalere
##ulært
tresteg
herald
beslutning
doktorgraden
artilleri
teoretisk
sr
##gis
##teke
datamaskin
rollefigur
utgjeve
##los
##bit
slektninger
##batter
liturg
kristendom
##tog
##anerne
##eloven
##agog
omfattande
frode
generasjoner
verdscupen
utest
vu
##ilton
##okken
how
handverks
vertik
trio
konstruksjonen
bombefly
mynter
peninsula
paa
tallets
danser
##haus
steinar
tanzania
cart
##iderte
##lignende
antak
forestillinger
##song
farlig
##borough
##ize
gymnast
athlet
##iles
##landing
station
##konfer
##onso
levetid
##jong
##værelse
##syklist
mikael
ist
førde
overd
opererte
jevnt
forkant
joachim
fremførte
institut
shetlands
##mers
sax
sporliste
mikha
understre
slet
##beina
charter
sluttspill
strek
betydde
vitner
##iidae
##jav
##hle
##merk
scot
festnings
lysere
barneskole
##porsjon
utføres
innløp
##odset
##visninger
roing
##selskaper
##riften
##hoff
samlealbum
hessen
##cio
##jakk
pavirke
tuber
##oo
biologi
spydkast
norwegian
anslag
##irkende
##ibal
##shoved
##iren
##uston
kortvarig
##spraklig
scarabaeidae
bend
rens
grener
nødt
slippe
##føringa
##breidda
##forskjell
offentleg
stasjoner
##aba
ordningen
duoen
instrumentet
ellevte
##ilder
##kloster
luks
terra
relatert
##sykling
##skib
##akse
henning
brukar
kritikere
##hordland
gatene
lier
oval
##11
##engden
lagare
urter
pasienten
pict
theod
debutalbum
manuset
respektive
herceg
conne
ektemannen
offentlege
##ices
142
kandidater
##sprang
kretser
##knaden
forlov
avslutning
pasient
gibralt
##gave
prefekturet
stere
##ated
chann
sjok
220
mandal
soga
felix
##universitet
anvende
report
rekkefølge
forvent
avslørt
##ashi
saksofon
barry
dispon
kaffe
gardbruker
##cester
grø
definerer
qatar
tø
##dekt
israels
mississippi
canterbury
##radisjon
##synt
sovjetunionens
lanser
pannen
asyl
montenegro
##adalen
kniv
salom
ytterste
kallenavnet
lest
smerte
##stell
##igi
##ertain
idrettskarriere
variasjon
apningsseremonien
##bos
##include
##skinn
##atz
thr
seksten
frost
vunne
##mpe
kombinasjonen
forsyninger
dong
apostol
##innere
##ipt
kalif
##zealand
forfed
lombard
romant
##ennelse
krigføring
bjarne
mobiltele
llo
pape
melde
ideal
videospill
chelsea
konføder
torsdag
volda
fenomenet
kanten
ulf
##haven
geoff
stranda
nieder
1819
forestilling
matthe
monroe
ptolema
##uet
##yon
lagring
utgangen
valdres
karakterisert
ballett
##derkopper
fifa
##oon
##hunder
##skr
arving
kontroller
ellen
fasettøynene
##warte
følg
hovudbelteasteroide
russlands
1834
zimbab
##bunnen
spurt
kanadiske
##akta
formell
jay
valuta
alpine
skildrer
jagerfly
##pri
fremtiden
##selv
tolket
gary
moritz
nivaer
firkantet
malg
nitt
##omme
tobakk
##arkivet
rost
søvn
levere
skrivem
istan
##arag
##apolis
hektar
kulturell
kirkelige
tjenesten
symbolet
sierra
##fabrikken
kulestøt
sjukdom
##aas
##pte
##elia
avle
##spen
gras
bour
public
sis
##arker
##stern
wei
tin
##wal
striper
øyas
isab
nis
skor
andrea
feste
forsøke
examen
santi
lensmann
skroget
1826
forfattet
skolene
rank
##andør
snow
grunnleggeren
##politikk
folketelling
konsulent
utdelt
fins
englands
oppmunt
##skikk
##yng
##alar
##brød
##sstyret
organismer
skjebne
marshall
ledetrad
1822
pavirker
femti
versa
arkivet
istanbul
living
kristelig
feilaktig
##etr
row
posisjoner
oriental
innspillinger
bustad
##later
krise
knop
uttale
##samlinga
##personer
sofia
gælisk
yam
##pot
##idad
theater
radikal
##inton
fantast
##semda
globale
pes
xin
sac
sjømann
boksing
##uki
dreper
klippe
analyser
rettighetene
##marken
bosetningen
##musikken
rapporten
magnetiske
##opot
katarina
monster
tik
##iset
angir
besøkt
##bevegelse
propaganda
##ml
samet
selges
dannelsen
1806
##jin
##ettene
##anta
artane
viden
##ppar
fremragende
hoppe
fylte
toronto
panamerikanske
ptolemaios
fana
##hyd
##anz
erich
reelle
lagmann
statue
utstilt
klaus
flandern
##stro
hunden
##bye
suveren
oppfat
##amiske
dekning
utsett
##uli
nedrykk
ferie
songaren
covid
omstend
##antz
førsteplass
regjerte
christine
standarden
lagtinget
360
##ovina
nyheter
luis
særdeles
synth
nøye
renessansen
##prosjekt
innføre
ekteparet
varanger
edgar
retninger
overlevd
##lekene
##onic
føds
styrmann
kritiske
produktet
arbeidarpartiet
##nan
##ey
##edene
##ingrad
meier
half
toler
council
automat
snarere
rikard
##athan
utsl
karol
##quist
brasilianske
gjerning
eivind
##amar
##serv
guder
kronen
grekerne
##sstyrk
rotasjon
memor
list
pho
globe
hebraiske
klatre
##ður
read
malvakt
behandlingen
##fried
inklusive
##uke
##islav
ther
tettsteder
retningen
uttrykte
selskapene
psykisk
tamil
##omene
hverdag
partene
honor
bachelor
ira
barang
kontinental
gutten
pere
skrem
innfødte
eugen
teknikken
gim
andal
spin
antyd
databasen
##onna
laura
maleren
bronsefinalen
palestinske
uss
##egr
##finale
sangeren
tsjekkiske
tina
##hea
esc
##elekt
##rain
beund
##retta
##owa
andy
paulus
punkter
nurn
skaret
framførte
diskografi
løsninger
proporsjon
restene
panama
akkomp
felttog
##ftt
strengt
legen
##barhet
pirat
ya
samvel
##box
##delege
##hertug
medic
regis
emma
dani
emne
##ignok
skriftlige
elektroniske
minimum
inntok
farao
##minton
##sutvik
patent
tallene
riktignok
##tering
verande
sørøstregionen
heilage
tob
sho
smug
reduksjon
kulturer
##jenesten
drener
geometri
robinson
kaukasus
##ønnen
grunnleggerne
rektang
perspektiv
døds
nemninga
aksel
tusenvis
soloalbum
universet
##cies
##smessige
1811
wolfgang
psy
tian
##vendte
##agelse
riksvapen
##kretari
gruved
##møl
##sset
katolikker
clement
trak
avskaffet
##anere
berger
julie
grave
nrks
bjørne
telen
walla
##chel
##ody
hendene
##ifiserte
bevege
spredning
vurdering
kit
##craft
##icia
houston
koron
cu
trus
mack
lenin
##uay
gjenfor
chie
interessen
##upt
morgan
innføringen
##lay
tilbudt
busser
strukturen
ingeborg
espen
belte
cad
##lish
leire
styrkane
badminton
##produsenten
holdning
jernbanestasjon
hæ
##rap
tilrett
interne
turk
skribent
##spørsmal
tong
court
1789
frigjøring
oppdatering
##øtter
##urin
innsatt
democ
filmens
kreve
sørkoreansk
##kende
gjennomgar
sjøfart
##book
skvadron
pilegrim
##oar
##86
scor
brow
loch
fotografert
mira
##ario
1823
pakist
sammenf
mangekamp
##herine
faktorer
maleriet
unix
dampskip
honning
##gal
##mos
##aro
tilhold
##phal
lutherske
observasjoner
eil
kann
yard
alab
##ters
styrket
onde
bedt
konsertane
pupp
##skampen
hyllest
fjellkjede
naken
fans
inneholde
##ibel
foto
##produkter
distin
mexic
uttrykt
##krefter
tønne
skihopper
motsetnad
##problemer
beau
flaggbærer
manuskriptet
ettermid
forbren
##isismen
sammenhengen
hverken
##lamentet
arkitekton
konsentrert
trygve
##drevne
##forest
kvitt
skoleg
stridsvogner
##saktiv
##aksen
marsjerte
fullføre
sanne
##nemnde
kitt
##rifter
byra
##chan
avslutta
kennet
forbedre
kalender
##amester
harete
##fløy
inviterte
effektive
fokuserer
analys
jav
##iri
utkanten
laht
aktiviteten
##ransport
##tyske
protein
raym
studentene
bundet
m²
utfører
uniform
etterkommer
virus
murray
maksimal
varierte
radgiv
vietnames
jorde
zen
##jær
##bant
kombinerte
semifinal
apenbart
##ße
##roen
mein
##republikken
videoen
guvernøren
fattigdom
forsikring
##union
haag
ferr
naturleg
abbed
fyrsted
oppdagelsen
strategi
mogeleg
##sbygningen
##ofer
business
detalj
høyrde
tevlinga
fitz
ice
raka
selger
kvarter
##ropiske
sprintløp
hammerfest
##eled
undertrykk
bask
##oba
fager
skøyte
innerst
ane
fron
##radio
huden
fylkesting
stuttgart
guatem
##upe
andres
holt
godkjente
snakk
##kyrkja
ekeberg
anse
240
forklarer
dorot
biter
gunder
avbildet
russerne
##konsert
freg
##jun
foruts
unng
førem
leeds
pollen
eventuelle
channel
sahara
nep
##ansar
trompet
hunner
datamaskiner
##orps
##staande
confer
ontar
sunget
kongedømet
entertain
##elinjen
carter
##grader
gror
artisten
identisk
teneste
##fabrik
ecuador
care
##stasjoner
smel
toten
kurfyr
##ied
krypt
marius
##ateriale
apner
##opprøret
synspunkt
##preget
rettssaken
ettersp
saf
##sbas
legenden
##levende
utenriksdepartementet
gjenspe
unescos
konklusjon
##hodet
##straumen
radikalt
endemisk
sjør
ule
page
dekt
kirkegarden
nsb
##yu
dependen
cho
mote
impro
normale
mottakelse
##etab
avhandlingen
1803
1790
lug
##ikos
konrad
##irkninger
##farget
forvandling
##ruppen
riksdag
melding
wiscons
betydningsfulle
barken
##iaden
race
##minster
##fus
##oriske
reidar
##mekan
##visst
newzealand
baner
wurt
##sider
avslo
plak
øyvind
kravene
halve
landes
krysse
intellektuelle
##jof
gravid
skuespillerinne
høydehopp
hjertet
##bour
produsenter
sønnene
falsk
plateom
##okal
karn
tomas
libya
mick
arbeidd
generalg
virkem
utvalgte
fornyet
ubat
##dals
##edskap
destin
reed
##iji
varmekraftverk
oppgradert
doctor
kve
voll
##ivaler
##attle
##klubber
claude
##hastighet
jubileum
gjenkjen
massen
##skjerm
##malet
idrettslaget
musikalen
dakota
ekspansjon
##jas
##entleg
opphøy
slam
litterær
færøysk
trelast
tref
styrkar
valdemar
##oz
treff
kampar
domstolen
lovet
tilsvarande
raskeste
gond
kelly
frakt
bristol
viktor
forelsket
##fullt
fy
iris
##ик
klokke
volks
skuld
mcm
trebukk
forfattaren
fergus
cem
loren
##dong
personal
kambod
charl
jason
##ping
utstrekning
etterfølgende
dominerer
skept
salmebok
##agh
oversatte
landomrader
syriske
##kompon
break
##sgard
##utviklet
reaksjoner
unesco
ryan
tsjekkoslovak
##olet
heft
coverversjon
##isto
filmregiss
representasjon
estisk
sarah
##sstoff
dokumentasjon
beliggenhet
lamp
nør
##omb
##olph
##vertsen
organisk
dialekter
##ович
##donald
magazine
##mm
face
##følgen
glede
skatter
utnyttet
diagnost
kidna
oppsø
##tala
myk
stadiet
##skader
sammensl
sjeldent
touchdown
utkast
##sling
tidenes
liu
rettferd
sideelvane
kot
undersøkt
plukket
spurte
##run
margin
grunna
##ites
nettstedet
kommersielt
leilighet
holl
tala
##eik
opps
##ssons
##varende
synkron
buk
arkitekter
lokalpolitiker
celt
miam
mitchell
##lestad
varam
musling
lykk
skarpe
næringslivet
astrid
vinje
##styrker
avslut
tenke
alpin
søsteren
løsningen
sterkeste
entertainment
wisconsin
vaster
styring
bann
pigg
kompens
legit
##onaut
warner
virksomheter
hemmelighet
ettermæle
##styrken
raymond
##røy
##matt
##chten
fremmede
bokstaver
fremstilt
klipper
serbiske
churchill
kopp
blodet
##ønne
raid
linda
lisboa
erkebiskopen
konvert
kommunistisk
fuglen
stafetten
puerto
##osfæren
beograd
franca
box
studiom
synte
keith
avvikla
brevet
##næs
##ethe
##utra
made
kvante
indoe
gaver
shac
læring
##produkt
##biler
mesopot
rifle
##siktig
oppløyst
naboland
cet
##sinn
##stig
##reformen
##chs
##oppdrag
domkirke
kongedømme
konservativ
rop
##asp
utfør
maneden
glom
##undervisning
kolonier
metropolit
nurnberg
cob
ernest
##vervet
##iast
##inering
kostnad
hjørne
jess
##trakt
sauer
selvstyre
guard
gamlebyen
østersjøen
komponister
ovale
visstnok
##sstraff
##ław
##arin
utdelingen
ferje
kirkene
ond
##reisende
jere
listet
siri
handle
##hardt
patrul
burgund
legendariske
singellista
nina
unik
milan
jordbruket
miljøvern
kabel
meksikanske
kiel
musikarar
tul
traf
##skunst
##inda
trav
singlar
verneplikt
metamorf
lloyd
miste
sjølvstendig
aksje
imperial
##ksen
flyselskap
shakespeare
biskoper
##hos
##fsen
##kompan
bestefar
alders
spekul
stabæk
orkesteret
barangayer
kha
##mynd
enger
overføring
##ømmene
##stemt
sønder
erkebisped
kampanje
quarterback
##iøst
##ikasjonen
##dert
overleve
avisene
hudson
fuj
belønnet
##rib
##stykker
flyktning
saturn
nhl
##xon
avtaler
motivet
komprom
carr
##sselskab
##mien
##ienne
lykke
faglig
hytta
karibia
oppbevar
ural
##ganger
##smus
hekker
vakker
hilde
forfly
dagleg
fekt
besetningen
carn
##basis
##namn
fabrikker
innvandring
sammenslaingen
##øtt
filmet
kapte
belast
stammene
pavelige
telef
opptred
wurttem
pans
opplever
romantisk
partikler
##phy
##journ
nikolaj
vend
##ruppe
forskningen
tynt
550
lisa
##ikkar
flyter
hole
sabot
prinsen
aj
nissen
oak
ove
##anus
anser
alge
##unda
##sprob
oppkjø
kanton
intellig
##banksjef
eritre
##ligheter
prosa
straffer
##apa
helena
gaz
rettferdig
braun
faget
spesialist
##ija
##listen
fønik
tegner
nettverket
petersen
arleg
betegnes
dampskib
xiv
skrivne
##sjo
forlater
stopper
##stilen
agen
##skes
##istenes
redd
landsbyg
kvinnes
aden
param
abc
arbeiderparti
sammensetning
grundig
##ulin
løven
mobile
##veldet
fiktive
aires
cord
##sw
forson
##terer
statsvitenskap
bestsel
tyskere
lock
tomt
secret
##spresident
kus
##inane
herjet
frimurer
##eley
imponer
pinse
problemene
louisiana
nøtter
midlertidige
hovedpersonen
fleirtal
spd
brett
magne
##scorer
quebec
ørkenen
verdsmeisterskapen
eleg
sorg
tildeling
##angeren
geit
georges
jules
vulkanen
utrydd
skyldtes
hercegovina
shacklet
kings
leste
express
reisende
##koping
gjennomgatt
miami
pir
##hyl
##althe
barnebok
ukrainske
1770
overgrep
progressiv
make
pend
##inspekt
skred
spesialisert
mandsj
oppfølger
trur
bitter
samarbeider
filosofen
bygningar
pelop
halvorsen
damask
valt
##ktoren
bran
mellomrom
chan
##repren
##sfull
personleg
kirkem
uttales
fjellkjeden
saleis
##etz
systematikk
technology
##istre
##ansens
rikdom
borgar
matematiske
kalkstein
abdul
buenos
ces
pira
platene
##stads
austover
gross
1817
##funksjon
##dea
brom
rush
iso
bygdene
##bilder
sediment
periferien
dovre
cole
tyd
##ifra
rome
seksuelle
conrad
nasjonalparken
trykker
darwin
##kontroll
paraguay
glimt
immigr
kenneth
jing
østen
##anje
##stripe
##ppene
verdt
clap
##fartøy
two
curling
bebyggelse
##rød
##inere
landbruket
seksuell
##olade
tillater
cowbo
##sba
latene
##schaft
koreanske
snakka
vurderte
nationale
defineres
##listene
kulturelt
##setting
primære
sjefen
##sprisen
omfatte
tuberkul
##lær
##skifte
norther
kombiner
kreta
##stemm
poul
høgda
##kjører
stillinga
##støtte
bestanden
nettet
##ioksid
vulkansk
studiomus
gill
ou
##klam
nøyaktige
mislyktes
camer
omvendt
##terne
effekter
butt
lia
løren
##fram
##ikerte
##ivisjon
førre
andreplassen
ekstreme
rollene
##sretten
##sprosjekt
##lus
##aris
##agram
høves
miles
tilnærming
parkering
crom
medverk
omring
orkan
##svesen
say
selskab
romfer
krigsfor
leverer
kyrkjer
revy
hundrear
birolle
##sreder
ontario
alk
bygnings
thess
airways
brenselkilden
reservoaret
##isitet
oppsikt
adopt
indiana
videreført
anska
##avdelingen
scand
isle
##qi
nordmøre
##somhet
organisere
ping
flokk
komposisjoner
folkesetnaden
##iografi
##laus
universal
radiok
common
kjempa
##sidige
erfaringer
##problem
hank
halle
##plante
interessant
muhammed
rasmussen
skodespel
bohmen
blood
history
separ
##ippet
##elandslaget
wit
avbrutt
stanset
aten
##jeringen
challen
radar
radiop
kristi
kontoret
boris
##kommuner
rumenske
eddie
##posisjon
##lyste
tilfeld
koblet
northern
søt
##yi
##bør
##slok
##imensjon
##ious
##essel
##ondo
snur
##likasjoner
dedikert
##srud
1660
løftet
zevs
hundrevis
hisp
nøytral
##hattan
spons
henge
stedene
sikra
skilsm
showet
##konsul
konferansen
noveller
##streng
relie
avgift
1805
auf
kropps
musikkvideo
aleksandr
aksjonen
tanger
##aus
utbredelsen
salvad
##historien
forklarte
##jn
ans
regime
høyder
kraften
skihopping
kreditert
wurttemberg
ach
melke
weimar
tiltradte
equ
ile
##chwitz
match
##bøkene
situasjoner
hym
##elivet
##brann
stadfest
figurene
foreles
argentinske
aristot
conference
pt
##helt
markere
essay
kibbut
diet
retter
elling
##rettede
barnes
##sfest
planlagte
iranske
øvelse
stiftelse
lambert
nasa
mislykket
yuan
skum
##uly
slette
proc
italias
olympia
organisering
1795
syndrom
##engen
##orisk
##lagde
##klart
fylle
kairo
##herred
fangene
dybde
ener
##ordnet
##ipa
hviteruss
dependencies
kunstn
stemmen
loft
bevæp
##ckers
amfib
kromos
ralph
nale
##sfin
afrikansk
eieren
grevskap
stjernene
kvern
redeg
##fluer
bremen
forbindelsen
gog
vogner
##vog
##jingar
perfekt
nationalthe
tretti
##steen
andelen
akustisk
opptredener
##cid
intr
know
##izer
##malm
jonathan
##transport
##hull
##etikk
##ulo
##otop
##avtalen
provis
berk
##orget
kongres
##sommer
syntes
passe
zepp
gullbasser
hørt
##arta
##serer
utgiver
flu
##stemte
there
1804
utøvende
innflytelsesrike
##pad
##prem
medfører
innstilt
sørensen
oliven
slektskap
gilbert
##kammeret
##ualitet
##elven
##atane
arild
chat
sjal
falske
skulder
kategorier
monaco
aske
##skirke
etterforsk
usgs
ivrig
bn
lut
rørs
##vens
##has
ligningen
nept
promot
øyet
temmelig
hjemmes
##stammer
mordet
amazonas
md
øks
blanda
kunder
bakre
høgskole
illustrert
habsburg
tirol
mud
nice
##ystemer
##station
gjengjeld
øygruppen
##ialer
##gau
singles
musikar
fjernsyns
cbs
##utvalget
##sforen
motors
involverte
havniva
francesco
pit
inntak
##imet
##ireg
parap
##poeng
amerikanerne
##leger
grenda
fleet
##esport
mons
grafisk
##kjernen
della
##itær
landing
chem
middag
valut
distriktene
tilnærmet
kamerun
helen
##opphold
shi
##sarene
elvane
hekkar
quisling
rekker
##utdannelse
nasjonalforsamlingen
yorkshire
##aet
##biskop
sørlandet
garde
publikasjoner
innvilget
##skuespiller
pret
integ
##gerø
solok
livs
##skaja
skildrar
bagdad
##recht
##ittar
##overt
tilhør
sans
##alle
koma
ree
kvant
racing
glans
nederst
atmosfær
formelen
##oney
##sformen
claus
æresmedlem
werner
ragnhild
damaskus
hett
stikker
##engel
##otten
nemnt
birger
antisem
##vant
##øpet
politist
landslags
iz
smed
fisken
sykling
opprørerne
##namnet
forgjenger
æth
##ingham
nordstrand
svel
solsystemet
##syre
rodrig
pettersen
anvendt
##arnet
##isj
verft
kraj
tolvte
regnskog
fundament
terningkast
haus
familiene
fjerna
darligere
hendelse
ferdige
justin
walisisk
tub
trump
hiphop
mister
##ez
##yske
theres
geologisk
rikets
edu
gjera
oklah
ytelse
bmw
lus
##anal
afc
oppgir
network
schwar
ambassade
høvesvis
##svær
runder
basel
veggen
bird
sosialdemokratiske
dver
##renes
norman
orlog
sapp
anto
lanka
lete
##essa
storhet
namsos
hallen
utstrakt
billedhu
##lid
##hot
utsen
bekjempe
##stemperatur
leds
##skipene
homer
eksklus
nasjonalsosialistiske
##makter
##ле
enig
kjelde
roose
##bott
##penger
frederick
uenighet
isabella
messe
##fessor
formene
1802
oversettelser
dere
oil
##zio
##iska
sittet
matr
kvalifisere
westminster
seiling
prinsipper
##kspedisjon
sark
##ikre
##lingene
partileder
depresjon
arna
karm
asf
##gio
##mu
##eton
##ores
##abad
##utten
riksk
debatten
trilog
konkurrere
utvalget
summen
gammaridea
genes
##oge
##riksjon
caroline
statsborgerskap
stall
101
improvis
skin
alleg
nicolas
dyrka
valet
sørligste
atten
dyrene
testet
redigert
roosevelt
lur
pete
utslag
treffer
##formal
angl
sølvmedaljen
plasserer
fiende
##jevo
innstiftet
innby
##delsen
sjokk
##styrt
kyrkjel
tolkning
romartal
brass
rolla
stedsnavn
##ialekene
1799
kringkasting
høn
nim
zhu
formue
##ktorat
##brotet
##sidig
ufull
##oger
##smaler
##ennis
arrangere
speil
santiago
ww
##italet
utvist
omgrep
spesifikke
massakren
bistand
##saret
omsetning
##sfamil
##cock
1780
wellington
velded
mikhail
yan
##aa
nyttig
railway
væpnede
##meld
##olt
forbl
onsdag
distriktets
klokker
faktiske
symboler
innlemma
lise
##gens
##istent
blande
trives
borgark
fungerende
arkeologisk
massiv
munnen
when
##fell
regelen
rettssak
palace
muhammad
shen
doble
touchdowns
wallace
##løy
##stallet
skik
knytter
opprinnelsen
koloniene
meksikansk
zeppelin
rho
##osk
##iae
##ysse
guer
datterselskap
bomber
nationaltheatret
hin
skipsreder
##savtalen
ansiktet
fm
kjens
regionene
kryp
maurice
cic
##iya
##atn
##iley
befolket
tørke
skur
novgor
styrtet
klassifisering
generalguvern
uform
##eldt
romantiske
bassisten
høyesteretts
krydder
seattle
sjølvstende
ankomst
rimelig
rotterdam
jørgensen
harold
grey
stammar
1792
##strømmen
nerve
narkotika
pest
##radt
ink
##hetene
tegning
toppet
sentralbyra
fremstilling
leksikon
##analyse
kogn
forelig
forbruker
sommerleker
##iøs
1793
fasettøyne
maximil
asl
##muren
##sklasse
flytter
profet
fakta
ibm
akseptere
antakelig
grafikk
##irs
blog
statuen
##verkene
sagn
##sdam
utøverne
soloartist
##pu
##anker
##stav
elfen
delgruppen
tyve
karosser
malar
##elsesp
funksjonshem
zimbabwe
ding
##ror
etterkrig
##slista
neu
framstilling
rolig
delstatene
kreis
oct
vale
##hin
oppførsel
rafa
beslag
rekkevidde
estiske
æthel
tad
tidende
##utstilling
huang
besøke
##frie
gibraltar
jf
gry
knust
kals
jamt
castilla
gallia
hassel
margrethe
dip
departem
hoch
øygruppa
torden
bronsealderen
fellesst
##alleriet
kommunaleining
sjælland
##iper
##reb
##ansler
office
##ommun
kyrkj
hybrid
martha
muren
nedbørfelt
ytr
##oil
##mill
##vev
bege
asialekene
teleskop
arrekke
650
##itori
joy
følgjande
##ulturen
district
nasjonen
kledd
friend
asane
##nevnt
countys
restaurering
econom
##sforbundet
kjæreste
ubet
##kusjon
##wson
herak
medlemsland
husmann
##atoriske
talsmann
##spolitikken
oppslutning
salvador
##oh
##font
##rica
julia
posthum
sverdrup
detekt
##udde
uttak
##ymnas
leser
##fferson
##sprogrammet
##raste
mild
partia
religiøst
planteetere
##ørne
tykke
joel
kalmar
argumenterte
##vernet
##apet
##ogne
plankton
##ikkerhet
ekspon
hundrearet
lovgivende
htt
gasskraftverk
fylkeskommune
##ynastiet
##nær
##kok
fjerd
faglige
subt
entus
spekter
pedro
fing
##mansk
##lei
terry
230
campus
hitlers
administrert
##effekt
##arkt
haf
##hamar
sagaen
kjernefys
overbevist
##sklassen
chilen
fleks
residens
truffet
bombar
airport
meisterskapen
rederiet
##agere
##hoven
røyk
trenings
utnytt
rangerte
square
##stuhl
eur
barent
nade
steven
handelshøy
vekten
organisasjonens
foregaende
##firmaet
auschwitz
klas
minas
roald
turbin
søstre
broder
harding
identifisere
periodar
oce
watt
##ronen
##admiral
bølger
astronomi
handtere
primærfaktor
oklahoma
bolog
heden
mell
soll
##rif
arbeidst
anglo
teknikker
kasta
observasjon
nin
oreg
pike
##uterte
##etto
plasseringen
fokuserte
vurdere
transform
ansl
kjøper
evnen
dalar
leiaren
##pil
etru
##ird
##ivan
fots
bandene
pasninger
funk
kunstnar
modellene
prisvinnere
##born
##skra
##unner
1750
opprettholdt
akutt
lysar
avgjøre
dømte
##afrik
cruise
guangdong
gregorianske
clapton
ore
tøy
##bbe
størsted
##komsten
generalen
glam
introduksjon
prestegard
##atlon
ps
##jot
oppleve
joan
lukk
oslofjorden
slektning
##hao
##kjende
##verdenen
fødselen
alabama
##relser
endt
admir
bakhjør
baserer
larvestad
##eløse
capit
kingdom
været
liker
##gas
##kos
##ølen
holst
vektklassen
psykolog
veksten
seng
##feller
garcia
stemt
##verdien
elim
konfront
##ragte
carlo
starr
timar
splittet
earth
##grev
##jut
##etid
##inius
avdel
alive
##ementer
orange
##shan
rednings
seminar
journalisten
##beltet
mellomkrigstiden
distanse
initiativet
iversen
women
##fem
inten
##utninger
story
##trene
gullet
nederlandene
palit
maskinen
maskinge
##elagt
pick
##arit
etterlig
bydistrikt
permanente
fekting
binde
dio
fit
nth
rca
##rikt
##egle
innsamling
##forsøk
folkeslag
hovudet
museer
fragment
visjon
##otter
##spark
kommentar
hushold
universitetets
skjule
kristiansen
rasende
salget
isolerte
tils
høvd
universitat
smitte
##ission
##linja
akseler
##studier
konspirasjon
mp
##legne
nedlegg
##sbl
bjørk
strøket
størstedelen
hiro
albumene
augusta
sekundær
medvirkende
birke
##arriket
avkom
##ages
kansler
lac
ulrik
musikkon
atlantic
kommentarer
utdødd
##arisk
##adar
etterkvart
##retninger
opplevd
laser
tibetansk
##hrer
utrust
##entre
##radets
nordic
notodden
project
mk
pert
wim
##arrang
overnatt
##odar
libr
fasen
appar
animasjon
nicolai
##water
##ра
##pedagog
juryen
forsvunnet
shackleton
##atører
hangar
nyttast
reservat
##eier
##ivende
suz
snakkes
registrering
patriots
overflata
sitteplasser
comeback
kond
bestilt
prefekt
##herad
##cci
konigstuhl
dionys
porter
tis
##landskap
hvelv
sentralamerikanske
##undersøk
rangers
deltagelse
##verre
##istane
trek
jura
forhindret
forven
tiltale
##amt
utskilt
innføring
helvet
##havnen
partikkel
##kolon
benevn
eh
##kall
omgje
nedtegnet
fartøyer
##nementet
##slinje
##vassdraget
markus
divisjoner
middelalderens
eksplosjon
overlevert
nebbet
puppestad
bønn
oskar
pastand
adskilt
kaldt
troen
ingeni
nederste
##court
behandle
##kontin
armenske
kappgang
lucas
##his
kartograf
embetsmann
diesel
vie
##kla
##uddet
førsteaman
##ssiden
sichuan
polynes
veiv
handlar
songs
strekning
##korder
subjekt
pagikk
##ladesh
##sternwarte
stiger
##egnelse
skjen
fekter
##republ
ullev
##owski
villig
myter
##uarar
ligget
borne
diff
wehr
hedret
sognet
refle
bibelske
##ikring
##okrater
sparken
##ogle
flott
johanne
aure
natta
temperaturer
oversettelsen
høvding
karbond
overn
berget
erobring
kroppens
sosiologi
øyeblikket
framtidige
tilskri
##ivitet
tyding
kvam
##ipedia
bronsemedaljen
##inosa
informasjonen
alminnelig
assisterende
aja
sull
##amia
atlet
etterkrigstiden
kjel
verdenskrigen
ideologi
##fritt
##stjenester
landessternwarte
##riet
alfa
inntr
baret
søknad
singlen
nevne
hut
ym
##tun
medarbeidere
overla
orn
mellomdist
tiaret
fastsatt
epide
toppserien
martyr
##høyden
##budet
bangladesh
fuktige
markedsføring
forsøksheatet
fremskrittspartiet
marianne
tast
##jk
avløst
stens
##arti
usbek
utanrik
forræ
skillet
bryt
byggje
japans
peer
odin
sekundar
##kab
medik
##istikken
dramafilm
eksploder
tiger
##ruktur
##songar
##overflaten
kate
foreldra
omdisk
kunstakademiet
java
##gon
##erings
##dekke
sønnes
pasning
hallingdal
##gud
##skov
arbeiderne
##kval
satse
##enen
langkirke
flyselskapet
medlemmane
tilhøy
avslutt
bjørnson
tabell
##ucky
kjennskap
##bebyggelse
dennis
andor
retur
fosse
karakteren
isak
vels
##aine
##frem
hjembyen
diktatur
cornwall
hughes
arnes
sekvens
fiktiv
sjokolade
klub
gjengitt
haiti
bygt
utenlandsk
gullmedaljen
linde
innsikt
stolten
fjellkjeda
avansert
##nenes
##punkter
infanteri
nashville
dagsavis
##endringer
##blokk
vikingtiden
forkortelse
pommer
anvendes
cly
sod
##øter
##elier
some
ettertiden
##delene
føler
shu
plassere
colin
konsertalbum
firer
1798
##studio
herrelandslag
justisminister
plyndret
bjel
##jov
olde
skuff
##rense
fuglene
attendeplass
atmosfære
beleiret
##skyld
gjennomgikk
arktiske
nedslagsfelt
guatemala
lært
sup
##gul
hersket
##iverte
datoen
kritikken
forsvinner
nsd
##reich
forent
skat
trang
##sband
benz
lengder
##roman
ekspand
##trykket
##makten
maksimalt
devon
##universitetet
duss
##uria
konvo
plantes
roland
hjal
testamentet
dikteren
phillips
##anfor
avstam
realiteten
hindret
dialekten
##instrumenter
sole
##hest
cheng
poeten
trip
frei
andersson
taksonomisk
cort
kf
##andel
vedr
gris
selev
##shøg
##bygger
butter
teknologien
religionen
etablering
##burger
##ockeyt
novgorod
##ssen
##ches
##unds
breiv
oldfield
##maskiner
fet
flyge
helm
intensjon
rørsla
sammenligning
##jat
##mis
stiv
##asjøen
beet
proklam
##setningen
tax
idrettsforening
arkeolog
ear
jylland
tana
fridt
variasjoner
alternativt
detaljert
##foreninger
spreidde
stolt
mim
##runde
lagret
statsku
##oppl
cour
palestinsk
birkeland
regisserte
viker
##iak
##hman
sint
filmmusikk
innsatsen
individuell
##borger
pacific
##opa
garnis
malcol
bosetninger
entrepren
innvandrere
dh
tet
filmar
steinalder
tidsrommet
##villig
##farten
endringar
tidsskrifter
fargede
zag
##ssyn
glen
##skrigene
systematiske
plataet
utbreidd
##materiale
bachelorg
##søkonomi
iverks
##eger
manhattan
brakk
semin
insister
##arriere
##alisme
reperto
bandmedlem
kvaliteten
second
##imore
##raktaten
##sstipend
kroatisk
##ledning
##skommun
##kjøl
miguel
due
##tur
marion
nordfjord
begatt
##ologier
flint
bros
skygge
endringene
skodespelar
dusseld
jab
##sdatter
##skur
oljer
desper
kongress
contin
triumf
##otyp
tiber
folketall
##sprosess
##gnet
##dp
##dikt
##bass
##andong
teologisk
mangelen
kuwa
oslos
plas
ofre
raff
bordt
verdensbasis
plasseres
europapar
notert
##vedt
bekost
tull
##teken
leies
veiens
ibsens
##dingen
##dale
spon
forskerne
banker
cons
##bygge
plasseringa
##stegn
warren
parallelle
##graden
##kna
ligak
allround
radios
britane
drikk
produksjoner
savo
utløste
filmatisert
folkeavstemning
øydelagd
dampskibsselskab
##uger
hanne
##andro
karin
##rygg
##ower
aktører
davies
diskval
vanskeligheter
observer
jarlsberg
cun
##bunn
##stikk
etterkant
##represent
sendinger
##yse
##skost
keeper
meldt
juris
apollon
##institusjoner
jotun
førsteamanuensis
kinn
##39
##inerne
##oms
blek
utbet
apo
rader
bygginga
##kapp
##linjer
keiserens
plasseringer
wagner
bebodd
fremhe
##dager
larry
olympic
jeger
diskutert
borgerlige
tilbudet
omdannet
ifølgje
prep
##ου
##tegnelser
etrusk
utal
##oki
nyskap
lovene
labour
kavaleriet
hierark
aasen
tes
##ilin
hovedfag
stigning
kiell
##stur
##hei
kragerø
parten
angola
##flata
veggene
sistnemnde
statsover
##vidda
korset
halog
østromer
innsiden
crosby
kentucky
oppførte
innspeling
kjølvannet
samveldele
mck
##ense
chate
##sbok
##strø
oppdage
innvendig
primitive
bolsje
genetisk
balla
##egl
##umet
poem
følges
##aldi
kongepokalen
substantiv
osaka
##ampen
minnesmerke
isaac
konsern
seriemester
trig
manøv
##macht
kaliber
kirkelig
naturlege
crow
avstemningen
æren
##rama
##angrepet
hendri
board
prestasjon
opne
miljøer
320
##ilene
##amband
adjekt
sjanse
magister
##alistene
teamet
eagles
roskilde
indo
##auer
judo
crist
mistan
##spo
hevde
1797
cromwell
kiss
##klasser
##armen
##ripen
##sving
hevet
katalog
lærdal
foreta
misjonærer
utfordringer
inntektene
##stant
svarer
sammenlik
brookl
##kommand
rødbrun
ekskluder
##søya
avfyr
angaende
perkusjon
lauv
engine
julian
##kenes
##design
byrjar
##frø
forsyning
##rhein
##elis
vardø
##estaende
trys
china
salmer
vinduer
eigedom
fischer
nig
rømme
dean
##forsamling
frelses
karlsen
anbefal
##sundet
##øe
than
wayne
##misjon
##stens
##alon
devel
malere
grenland
eisen
riga
vs
reir
##konvensjon
himal
forstatt
armensk
stryke
transkri
seere
sekretari
vegas
menneskets
bulgarske
behandles
betjener
aristoteles
##jeden
##kro
kaut
nordenden
oldtid
##inasjon
##omiteen
##edi
denis
radioprogram
##mast
##store
three
##sstil
monopol
##orienterte
toppscorer
bosn
psykedel
##rekningen
medverkande
whe
##myr
##pser
orb
schwe
samtiden
filosofisk
skyldig
kategor
ordinær
##cla
init
##shavet
generall
##ledere
bevaring
afgh
oberstløytnant
skikkelse
dusseldorf
underhuset
marse
hvorpa
##ibia
advok
score
abort
torshavn
oppgavene
roth
islamsk
rw
##jakt
manifest
knutepunkt
gulen
spek
fjeld
holdeplass
##prosjektet
kollega
krønike
unifor
førstnevnte
210
busette
expl
nabok
##ekw
yout
favor
playstation
cia
##ellan
samles
utgis
finaler
##arena
liknar
relasjoner
ambul
ladning
schmidt
gruvedrift
refr
##sfag
nyeste
brygge
sjuande
forful
nitrogen
tunisia
our
u20
##alvøya
kvinners
finansielle
1775
intervj
oregon
kash
##ftes
glenn
##sutøvar
diskrimin
dynastiets
teikn
finansiering
mellomalder
neppe
nærliggande
clinton
kostnadene
frittstaende
pensjonerte
vaksne
landeveissykling
letter
##core
##ligheten
##seren
##bron
##troll
austin
sentralbanksjef
1794
##magasinet
##sein
##ønner
nasjonalg
aal
istid
kang
##litz
##anto
sept
##abole
##linga
julen
larve
samfunns
oversikten
##ack
engang
english
trønder
maurit
jæren
rive
urett
medium
##eme
##øysund
sørland
##klat
grace
imellom
kritikerne
komponenter
rikeste
kriminalitet
kjønnsmod
skiskytter
gjensidig
buffalo
emigrerte
##uligheter
##petanse
kirkenes
gudinnen
ruinene
tenar
ivaret
kriminelle
kvadratmeter
tennisspiller
##svømming
filmregissør
akr
##bust
##skatt
byrad
manns
speed
eksistere
creek
malcolm
##ily
skam
toy
dah
fiol
##fotograf
vellykkede
##assdraget
duett
hjelm
definerte
odda
schleswig
onlyinclude
tart
tve
wes
##gaten
##kler
##itur
##ries
derved
breg
##fia
stjel
bemerk
sletta
stakk
conf
##basen
bakterier
variabel
##forskeren
nalevende
brooklyn
avhenger
midtban
aksjeselskap
lodd
skifly
gudbrandsdalen
sergej
lost
osb
##skre
##itere
overens
bever
kana
##aben
euras
dommere
christmas
tenkte
burma
meisterskap
potensial
bevissthet
nur
##klo
fanst
thorvald
kjenneteik
anc
førsteplassen
apc
ruiner
skyer
henriksen
trente
forsin
konsentrerte
mtv
eus
rico
##ktene
sørenden
##ckel
negativt
##kapasitet
grammatikk
##kunsten
matthew
inder
undervist
##annon
late
naud
##gaande
shaw
##egruppe
maritim
hjalmar
##sradet
##ppo
##utvalg
krang
senat
taekw
radius
##manland
maneders
gylne
offensiv
##ctr
##teatret
avbild
blinde
##heimer
antig
forkyn
mission
buddhistiske
ride
else
##ipro
##løkka
prestasjoner
symboliserer
mathias
telenor
niz
tent
omsett
merker
hammar
##strong
sporene
utformingen
##aktivitet
management
zhou
ald
##retter
præ
##barnet
6000
##resultat
##sflaten
##alliansen
cod
fus
vinyl
##ocen
nederlen
##sdistrikt
nevada
bispes
eigd
##itteratur
trekkes
ortodoks
terminal
keltiske
kile
verre
skoger
territori
tørt
dragon
undervisnings
rhein
tangen
##war
##anst
gjevne
forlik
fornuft
straffes
konstituert
gymnastikk
cash
##rener
fren
males
svikt
bergg
korstog
allan
##strener
danny
risør
kampanjen
##biblioteket
pittsburg
austerrikske
illustratør
wehrmacht
tales
##preg
langkyrkje
drøyt
wiener
cleveland
stevens
klinisk
kuwait
##oud
kunde
sørger
prekest
legion
husa
glan
aleine
avslørte
tallinn
##ulerer
arkitekturen
metamorfose
sapporo
bologna
##egner
etterlatt
radi
leningrad
moderate
folketinget
corps
definere
tiarene
gardsbruk
bw
##forslag
bytt
##varet
internt
stavkirke
##kko
innsa
##mekanis
endar
borett
##ctions
levninger
beskrivelsen
ambassaden
vegetasjonen
belle
nid
##omener
##asy
blok
##ossa
##iban
##planen
orkest
massive
##alogi
cornelius
geoffrey
##ockeyturneringen
##stev
##usse
beite
kjetil
lukt
##slandet
nanjing
aragon
##istpartiet
opposisjonen
six
egenskapene
dreide
television
utmerkelse
kjennetegnes
periodene
presteviet
mindret
bordtennis
fjor
zar
##ikarane
##ending
##endorf
hamne
startar
samtale
bosett
armstrong
minuttar
ade
io
##cas
##zirk
##skaret
omslaget
satset
gripe
kontroversielle
progressive
sylindrisk
gast
##lande
##mingen
inni
rex
olof
##viken
likevekt
muslimsk
pie
##uy
##atal
infeksjon
utstaende
seile
kjemper
fløyte
hendingar
sykepleier
skjulte
hass
##pend
stripe
##spissen
##broren
##vinsen
riksmal
##plassar
lova
##veiende
skandinavisk
sevilla
landsbygda
##melsen
##ettverk
radhuset
##strøk
spesi
salzburg
bergarter
stammet
indianer
holmenkollen
niss
##ikene
##avnene
kvikk
willy
stabile
strukturer
offensiven
anonym
fredsavtale
attrakt
avslutte
tenor
##prosessen
##uropeisk
knapp
gestapo
##ftene
##sonen
##ansere
likel
tilhøve
brekke
angrepene
tilsluttet
vektløfting
laks
##seter
##pop
##asiner
utgi
##ksomrader
##karrieren
skuespillerne
formannskapet
birg
nsdap
calg
cric
telt
forbruk
##egel
##delte
##menes
##lagget
skulpturer
spanjolene
koke
lip
somer
oman
filmfestivalen
jefferson
agnes
##betennelse
tusenar
observatory
beleiring
verdifulle
##cional
shetlandsøyane
imponerende
batene
want
##ea
##oset
helset
navnedag
##arkitektur
democrat
iis
utr
verftet
##aktene
høytid
energis
##hovud
brakt
dic
hb
##feste
skallet
røyr
1760
dannebro
##sprins
flight
ruth
##illen
tydeleg
dessverre
brukeren
kroppsl
1776
innerste
normanniske
halogaland
kel
tjø
zak
##chmann
nekta
##sfield
strakte
forfatterne
regionalt
kraftigere
samlinga
##interesser
forvaltnings
anatom
halvkule
##gede
##junkt
lagkamer
##bran
syne
##statter
moses
vastra
pelopon
five
sula
##senteret
##dekkende
##ript
##ckland
mesterligaen
mørket
plattformen
##ikaner
##unes
døgnet
manip
statsborg
passende
oppfattes
hope
baltimore
##hir
##iman
thriller
##iest
feire
##sykkel
skritt
##boende
modifisert
##brecht
##sidene
portretter
beman
wonder
##ativer
navar
beveget
bismar
ørsta
memo
muskel
generalløytnant
kjønnsmodne
hr
##øvet
##ols
brunt
grunnleggelsen
vanskeligere
størrelser
hydra
observatoriet
##ikat
innverknad
##heid
emirat
melan
skuldre
##uras
institusjonen
sey
##byer
grunnkretser
solidar
egenskap
montana
traktor
wikipedia
isk
utveksling
moen
dagers
farlige
viktigere
kroppsbygning
inneheldt
##skontor
##cheng
##keren
hovedbygningen
##insar
nilsson
ulykke
federation
##yst
skilling
##deller
##ffield
nyinn
sørregionen
senja
rhod
apenbar
torget
gius
##lerne
##spar
##utstillinger
todelt
##rete
##ongar
fremre
forbilde
knyttes
kunstige
jødar
satir
opplevelser
columbus
parlamentarisk
bant
##jana
sambandet
leiande
berry
##ydig
engelskmennene
passas
lettvekt
kunnskapen
symbolsk
lasse
piper
pokemon
gruner
stige
omkr
##imus
sigrid
sydlige
foretak
manedene
analyt
calgary
dup
##gir
luftt
coch
handsam
generalstab
bryne
mandater
##sjøiske
memorial
trysil
stok
fravær
overføres
marco
conn
kartet
nese
ferdigheter
##høgskolen
fid
##igner
anita
slass
beredskap
freds
##hui
##oniinae
evakuer
røm
##ighets
motto
roberts
richards
mislykkede
kvinnenavn
omgivelser
gundersen
tillate
depart
tvinge
bruno
tilgjengeleg
utbreiing
eksperimenter
oc
rok
##dor
##skede
hey
antenn
strom
kuler
vasil
irakiske
holmenkoll
connectic
mesopotamia
tuberkulose
oden
rv
æra
nordlig
hamn
boks
kontakter
bislett
europamester
skriftlig
kontakten
myten
politiets
barndommen
avgrenset
konklavet
redegjør
diana
##omgang
##ells
##odz
mini
ia
tiltalt
christie
eval
260
danskene
##frid
slipper
kapteinen
hule
kaiser
vapenskjold
sjuende
politikeren
hovedkvarteret
krigsfanger
arenaen
garnison
library
##apir
reakt
##ylte
luftforsvaret
laurent
##skolene
skadedyr
senest
##byraet
svovel
cricket
##uden
##ikte
harbour
oppnevnt
##illon
shad
##ofil
bestemmelser
catherine
straffesp
sapass
sokneprest
giuse
armer
orm
##smon
270
avgjorde
skjerm
##plassering
planlegger
lidelse
selt
##erande
dødelig
##elsess
levd
plantene
antenne
potensielle
girls
kambodsja
fordeling
medley
##markedet
fordøy
oppfunnet
tingrett
hodep
##mengden
##sutvikling
##reper
##svag
bilene
sameinte
forfatning
##ysk
stram
krisen
seni
most
debuten
regissøren
##jevitsj
##vidd
##savdelingen
##hjemmet
rally
##oid
##die
varig
##ettar
triv
munster
diktsamling
electr
potet
hindi
hestekrefter
deling
##kledd
##uez
religioner
elefant
##etiden
syssel
parter
##formene
##olds
foretrekker
observerte
bahrain
fres
hengt
##falt
##ρα
avdu
##igu
##iskap
antok
hovedkontoret
politid
endrer
##butikk
tegneserier
angelsaksisk
rhodes
##spur
chin
mosa
volga
##elmessige
restauranter
utmerkelsen
vedrørende
pittsburgh
connecticut
kut
##ол
tilbr
fraksjon
##ossen
##utere
bery
flying
smelt
trofe
magiske
hastigheten
maryland
fiendtlige
biv
wald
yoko
##fat
##igne
##berland
regulære
syster
##retningen
gjennomgaende
særskild
brygg
reind
chand
##smusikk
##bygninger
psykiske
##teknikk
qa
forbød
spillefilm
##kraften
kompliserte
fargerike
kringkastings
keltisk
legitim
yd
##stilte
utsiden
samtaler
platon
forsvarer
landsbyar
1796
refreng
ere
kod
##berett
##sletta
mussol
øydeleg
short
##usselen
carlsen
setesdal
camping
asfalt
zi
utrecht
##berne
selje
fau
small
emmy
##kjend
spencer
uganda
ovenfra
liden
lung
##oras
##inis
##rihet
##ession
indias
kvinnenes
##kaptein
cruz
redaksjonen
digitalt
lata
pist
##tz
##olar
##olitt
moment
pyramide
innovasjon
antiokia
respons
##skrets
##ssels
google
koord
høgste
##kjær
mason
works
noter
paradis
##umar
##lash
dyreliv
1772
forandringer
##firma
undervisningen
valencia
##ingo
arka
##000
latter
km2
##kaste
porto
280
forvingene
##mour
##organisert
rhin
sullivan
stern
##nete
##landa
avslører
hytter
etapper
mercedes
bjerke
anbefalte
distribuert
pyr
ume
##ая
##elærer
innstilling
meningen
sykk
sovj
forklart
ensemble
lion
##tall
##stider
##aby
##ssenteret
sentralbanken
tomme
gotisk
atlanteren
gonz
slovakisk
reykj
foreligger
bemerkelses
##teori
##kkert
arc
##ruta
elle
##sløy
mast
##engd
##jazz
londons
hjemland
week
330
tunneler
kreditt
bølgel
giuseppe
##øen
##blas
kanadisk
##orientert
##korset
finansiere
rockeband
algebra
forver
proff
##sman
romarane
rotten
pressa
##elandet
utstyret
eierne
sannsynlighet
##blokker
##cklenburg
synthes
##inspektør
nøyt
##kroppen
aviv
##smuseet
libert
følgelig
stange
inga
oppa
konk
søren
fortsettelse
stokk
##sdirektør
##amerikansk
førti
mosamb
uvanleg
nominasjon
instruktør
monumentet
youtube
skov
##unnan
helene
##edlemmer
ekstraordin
fusjonerte
##reist
tilløp
unions
landomrade
pola
##shast
malene
datas
##typer
##ospiller
vinnere
moralsk
trinity
søyler
##eister
begikk
irene
liket
cdu
platina
##odd
saar
liechten
sopran
phoen
##otn
kommunistene
##klor
rykke
nemning
vade
operaer
champions
middelhavslekene
celtic
ply
tic
##igo
##forvalt
lekam
holmes
##asso
spenningen
stattholder
katastrofe
##umbria
berlins
konsonant
bede
dil
lon
##vernementet
omegn
##jah
mannsnavn
##otta
behandler
anmelderne
##kina
enter
##ams
##ttere
slim
##kommen
##ignal
vinnerne
innbyr
bachelorgrad
##ikant
##serkl
nordkysten
billig
ibuarar
begrensninger
bakerste
ht
##fla
##rio
##icester
jernalderen
sjuke
marseille
hess
wade
##skyrk
vestbreidda
diakon
##maling
##fargen
hjemmekamper
aksjer
cupfinalen
sheffield
lidelser
keisaren
battle
omgivelsene
larvestadiet
kanter
handen
skive
##akere
##iktig
nedanfor
hovedopp
##jemper
gassen
mølle
konferanse
chamber
cetoniinae
fridtjof
ted
snudde
kosty
pavirk
industriell
ragnvald
misnøye
avsluttes
ain
adelige
fish
##kjel
brus
barber
shandong
havard
visuelle
scha
giftige
embetseksamen
##sregjering
katedralskole
maximilian
##arch
beholder
kommenterte
arbeidskraft
uller
sjansen
##sformer
rennet
omkringliggende
##beth
genova
gjenopprettet
##sløse
forberede
##hvile
herredømme
detaljerte
antydet
eiker
##fene
##90
ency
##rix
##slav
##yrking
bergenhus
1788
elementene
spesifikt
##kolleg
utlendinger
##anas
##shu
livn
kamuf
singh
forkroppen
##instituttet
##utgave
##yne
avant
elton
##geir
stores
laos
meint
statsm
##leton
dratt
annie
dow
##ames
andelige
haret
##veiene
##radisjonen
krasn
##lette
øvste
psykologisk
koreansk
turistatt
pseudonymet
jordskjelvet
koronav
mh
##teik
ardal
family
##snamn
mosjøen
elvekraftverk
lingvist
usikkerhet
dramatiker
vertikale
borneo
eger
##sagt
oppdal
innh
##ovan
##oble
bilet
platekontrakt
astronomiske
##fødde
fiskeri
##statt
forbe
totten
gude
glatte
speider
legeme
kak
rømte
xu
##itions
##adin
karp
personlege
kaz
anklager
kulde
journalister
eck
rjuk
sio
##idere
rekken
marino
knight
befal
tornad
intel
dypere
omdiskutert
dannebrog
cond
earl
vraket
##sworth
##skred
##vara
snu
bjørg
fornøyd
elektronikk
tilskrevet
heilag
vannpolo
forbrytelser
peloponnes
xx
##skøy
##isp
elvar
overskudd
##icum
vapenhvile
##passet
tirsdag
bretagne
athletic
metropolitan
hegg
søm
##edderkopp
bekken
kanari
søre
##prosa
rykter
æresdo
alexandra
sørafrikanske
diskvalifisert
kles
spinner
overlot
marath
##ølv
altfor
##familier
ordener
jarlen
##personligheter
virkelighet
powell
sortland
lingv
bengal
tildels
spore
holmest
fader
vendt
colle
afrikamesterskapet
fosen
restriksjon
1774
kavaleri
machine
moldova
word
langvarige
hovedsete
populasjonen
fisket
bokstavelig
konverterte
ferguson
bund
salen
##foner
##zt
##bæk
##agar
krona
syssels
scient
tettstader
afrikas
foretrakk
tilpasse
overrasket
musikkvideoen
##atest
alba
leide
mecklenburg
hamsun
tac
after
krog
##sdorf
republikan
mengd
1778
formidling
porn
##jylland
##mil
forløp
##slutt
##lingar
amtmann
odysse
moskeen
popp
ror
##onar
##agene
perse
giants
##mestere
sarajevo
leiligheter
munthe
##norske
svendsen
kungliga
neptun
develop
latt
##hes
##qvist
pagaende
##rien
oppslag
blikk
leicester
oluf
milde
kvinnelege
numer
oppfølgeren
oldenbor
ocean
ovan
##orem
abs
matar
1783
sunndal
landskampar
nicholas
riksantikvaren
lilla
pyrene
sover
##osi
overga
afric
prosessor
##kommando
støtten
keny
majoritet
gjentok
legemiddel
musikkonservat
sion
sie
proven
arbeidene
##anisme
##ofys
lufthamn
##ization
##onering
pearl
betegn
signatur
kjønnene
kautoke
robb
##abelt
tyde
sørsamisk
police
herm
albumlista
symfoniorkester
karbondioksid
era
##lon
anta
##oppgjør
##bygginga
passere
##kampene
##egaande
besittelse
holmestrand
##icip
døpe
adal
gudinne
forekomster
##utviklingen
orient
risikoen
gover
##arg
##inntekt
##brannen
gjelde
helten
fallskjerm
murer
farten
fristaten
berkeley
maskingevær
obo
##qing
ana
##imil
##førar
##ipping
dyra
usd
placid
voice
nominerte
##svenskan
okkupasjonsmakten
##aver
##pus
##ships
thorax
morsmal
trygt
volvo
krevende
opptradt
objektet
venter
##hil
##edommen
##ischer
medarbeider
bee
1650
seriene
gaus
kristent
direkt
used
tittelsporet
stabilitet
basketballspiller
lørenskog
gel
sars
##srike
stir
##veri
skadd
bekk
hvel
finansk
##sym
utval
##sporten
##palasset
mikropros
interesserte
operativsystem
landeveissyklist
børs
ness
wir
##yar
##iliteter
komiker
underart
krigene
1791
##savdeling
hannibal
adrian
claudius
fik
gnu
yunnan
ensfar
colleg
bakgrunnsstoff
beirut
pictures
donn
##kling
##edier
blekk
kveg
godset
klassene
muslingkreps
ich
rt
tøm
##eater
ard
slange
##spilling
føttene
##ylt
filharmon
fotografi
lubeck
irrit
##historiker
simp
##joh
##teknologi
dyrking
##økonomi
kov
rue
##kode
##uum
spa
gryt
##ryggen
vokalen
montg
impul
jakten
traktat
rjukan
nh
slakt
malay
endringen
banes
epig
ytterkanten
ferdsel
essex
nazi
vidaregaande
føy
woman
days
##ampa
studies
##feil
##eløs
brystskjoldet
nobelpris
##sendinger
anvendelse
betydningsfull
ektefelle
kielland
bik
##rolle
##avatnet
##antrop
elg
teat
betjent
##anseløp
malinger
jobba
knutsen
ghana
sørkoreanske
##uksess
3d
##ache
##anu
##stør
##ims
##ieres
1720
2500
streik
area
revidert
##elinje
##kjøret
programmerings
##kirchen
bryllupet
taksonomien
dort
jas
odel
tilsatt
historiene
add
eksa
skrib
fagforening
every
##smedlemmer
##smedaljen
ferrari
garnisonen
ike
##rates
norfolk
happ
poll
##ivert
cohen
møbel
ecole
##skorset
##vall
##igd
##unet
##ises
utsted
##forfatt
overføre
sele
mole
herod
sannhet
aksjene
lojalitet
ydmy
bale
##lant
##bid
aver
##istret
omorgan
##ianerne
helga
sement
energy
fasaden
##forbud
passeriformes
##vekster
protesterte
returnere
walisiske
##wi
##ка
##sevne
##ogene
majest
##føringer
flekke
greatest
schl
syntet
porten
##værelsen
privatliv
etappens
map
##pos
forsamlingen
arig
##akte
undertry
##ienes
trene
byggjer
øvst
johannessen
rating
monarkiet
venstrep
gad
tester
wed
##vinge
##porten
##senget
kren
dagbok
##klub
holsten
##stemann
##format
arrond
verta
linne
##urdo
manuskripter
##apeut
herskere
##cin
##cana
##hart
##ediens
medverka
##rian
##yna
nordmennene
##svalet
##smater
besatt
gjødsel
nicol
gyldig
skjønnhet
oppbevart
##sbourg
omringet
vitt
erkjen
##seffekt
træ
hunter
##vegg
fremstar
fortellingene
bidrog
gospel
annektert
tottenham
telle
##80
##onde
demp
gjenap
statoil
raste
shin
operas
castro
nazistene
albansk
concert
gitaren
sweet
luksus
genesis
##øker
##main
østlig
folked
militæ
hevdes
leses
vatmar
ivareta
omsider
##stjernen
gly
ward
##jarar
norwich
nordamerikanske
edge
anatomi
bust
hiv
lic
utah
##emi
notting
verdas
østkysten
grabrun
hoppuka
anmeldelser
veteran
xiii
##etninga
##skv
##idane
kran
maine
##enerne
fotballtrener
dukke
trykke
##fect
læren
vokalisten
pastatt
purple
konvensjonen
kunstakademi
europaparlamentet
bolsjevik
prade
##sting
rekk
##iseringer
##gade
kroatiske
niendeplass
støtt
diskos
santos
highway
pompe
utsagn
##igar
innle
seven
flak
forskarar
liege
likes
##snummer
folkehøgskole
##leikane
##sløp
##slinjen
baptiste
ignor
ase
##pping
trusselen
marien
marcel
##smot
korint
myhre
ferjes
lovlig
aksen
prøvd
kulmin
reykjavik
friidrettsutøvar
kreftene
vulkanske
morrison
##forsyning
development
aw
bres
##tti
overalt
##rettigheter
##tids
gaza
ordning
universitetene
auckland
skriftsprak
stranden
variantar
foreningens
revisjonen
investeringer
smygere
##esnitt
salomon
##arskontrakt
verbet
hayd
kjede
1723
gjennomgang
##alget
mali
##indal
##rator
koch
hjemmel
vasa
right
##hill
##bow
##amfunnet
høland
virv
gradene
johansson
nrk1
darligste
##masse
messing
skipsver
slaviske
parallellsidige
liechtenstein
fjø
otta
##rost
tilbragte
byggverk
kirka
oppgis
##iii
1773
trenar
mcmurdo
auksjon
##sanger
##stift
tev
##enteres
solheim
##skriving
##vesystemet
christiansen
guld
busetnader
krutt
sørafrikansk
posthumt
##jarane
##arius
spont
undervann
veke
livstid
generasjonen
breidda
dreie
oppholdet
heiberg
nike
##stuen
konfir
##etsjen
medlemmet
peace
handelsmenn
amerikanere
850
spp
##maker
skrog
slit
lep
perle
velkjent
dynam
##brakte
forhandle
menneskerettigheter
hyr
brung
maz
##gran
gloppen
##hoe
topper
hjelpem
tekstforfatter
scottish
##shovedstaden
plateomslaget
cc
##sev
samv
##svart
raser
forstar
indianerne
##planet
maksimum
skifta
smellere
##cot
nordt
algor
høyskole
##resti
jazzmus
klein
craig
premieren
ventil
mystiske
##bringende
iowa
rs
##rah
##ovner
suksessrike
frue
inngrep
utfordret
##falz
fundam
aberde
gala
tord
inver
##jente
##spes
##spenn
emnet
kunstverk
##manuel
gulvet
hjarte
isbreen
kjøretøyer
kallar
fernando
lahtis
glomma
fids
kand
wies
##edagen
ombygging
1740
skald
sjøfolk
leveres
relik
aldersbe
1781
frukten
pengar
guyana
hjortebiller
stoltenberg
ci
##он
lex
veis
godseier
lokalene
fokusere
skadene
winchester
dieselm
capitol
##vurder
##iksen
atelier
##ythm
fastland
silva
muslimar
ulykker
dokumentarfilm
chateau
jakter
pelsen
##not
##vins
##ced
erstatter
sti
underhold
trø
perry
chal
chuck
nedsatt
##india
forbetra
sigmund
gerais
indiahavet
undersøkte
fjordarm
verdensmesterskap
supporter
bibliografi
likeledes
hid
pelt
##røm
seriens
angitt
##knikk
judea
eventuell
village
swing
rullestol
seremoni
matematiker
ryttere
dosent
desto
##istert
atlas
beher
strømmer
fotballkrets
dukka
torp
##yndighet
nathan
1763
fjørdrakt
morfologi
kalsium
p3
##rose
##legare
strender
cafe
søkt
fangele
plantar
søramer
innledning
blodt
nakne
uklar
moralske
muntlig
##brigt
frelsesarme
pradesh
wah
##sverket
frøya
mais
festivaler
levande
edwards
infanteriet
##forholdene
hampshire
ahm
skifer
brutal
##varme
trykte
konstruerte
globalt
holdninger
gne
##rekke
##itan
folks
utbredte
gravlund
kommunesty
bysantinsk
friksjon
overlegen
rehabilitering
romeo
skilsmisse
##øme
##arab
anden
innlagt
landsmannen
romas
shim
munker
##sgymnas
essa
territorier
nagano
borgarkrigen
trum
vandre
##fare
##skiner
##føret
desert
flik
travel
greven
okse
vogt
kollektivt
samanlikna
kautokeino
cri
gom
glø
##alig
innlegg
##bytte
##endra
gray
netto
multipl
##svegen
kyrill
defensive
rafael
vr
##inær
avholdes
klang
abbas
attande
santo
countr
classic
fortjenstmedalje
transporter
a3
##asaki
macao
gjennomslag
##talar
amalie
##itsch
samfunnsvitenskap
rogers
1777
semifinaler
fransisk
skolegang
##bie
norveg
spy
##ieri
adop
turer
##houg
##handlinger
plantet
stevnet
gifter
##elik
##ishavet
##søster
canal
jernverk
kritikker
sony
prestegarden
##boliger
gyldendal
hendrix
##sek
intercept
monarken
oppstart
bevegelses
kjevene
offentligheten
##pressen
praktbiller
dømme
avhengige
butikken
kritt
atlanterhav
##imerte
bugge
karmøy
##reau
frafly
##gjev
rødbrune
næringspl
røynda
fylkets
##amal
utarbeid
artem
##esta
konges
mestere
fotballag
øvinga
##kraftig
fanga
##prøv
logo
habit
##skonkurr
sadan
bryggeri
oppmuntret
tum
##cat
arvid
spra
bye
##heia
kjeden
##sfun
riksfor
dyrkes
batteri
dv
eike
##ynet
##aparte
storleiken
storhamar
gjengen
##visningen
verdal
korall
ferden
kristine
trapp
belfast
aless
bisp
lydtekn
1784
spektrum
vesteralen
overordnede
viborg
begivenheter
montgomer
lope
prev
usk
avlø
avstander
skrin
arige
etterforskning
##kyler
fotografier
##vandring
bonusspor
dad
sorter
##steiner
##oksid
##enser
##iac
meninger
kontekst
overtak
##lyd
begrense
##driften
true
gravd
vindus
1787
klepp
landskapsver
næss
cyr
ypper
##vning
##fald
skifter
spinn
grunt
luk
##kenen
straumen
gotaland
banebryt
giles
designer
bekostning
foresp
##advok
menigheter
gjennomføres
halvbror
auto
##givelse
magnetisk
arsjubileet
middle
aa
dører
punt
##ities
reell
nygard
polens
stadige
##sstyre
pepper
verksemda
rammer
japanerne
utvalgt
tjukk
evakuert
imponert
##sru
omtala
høylandet
##sbiblio
bussen
ext
utforsk
beregning
isolasjon
buddhismen
hengende
schlesien
turkmen
avlyst
stop
samp
##illende
##udsj
##metall
asche
beskjeden
dyktige
##iza
uttrykke
innsjøar
sunnfjord
fossile
utelu
forgjengeren
iberiske
bismarck
gan
##skreps
utsjan
attend
truga
drage
fiber
mytologiske
spreidd
susan
navigasjon
krigsforbryt
nøytrale
mobb
##hing
##rittet
##erten
nordmann
lagre
krakow
##phis
bølgen
pensjonert
forarsaker
dys
sister
tonen
##ozo
perform
treffe
baham
utgir
morens
palm
fysiker
skilde
volumet
fellow
tempererte
sønnesønn
##damp
##pers
sørlig
stars
trust
ungdommer
palme
offensive
oppløsningen
intervjuer
landskapsvernom
rita
singer
##dekk
utlan
pryd
plassene
halvdan
kongefamilien
grenset
##yeo
investering
bing
bilt
kill
tvn
zw
patale
pastander
sped
komet
folkene
tredjeplassen
sykler
nancy
arhundrene
micro
skjelett
arsakene
deltagere
begravelse
teoretiske
belønning
shetland
##temperaturen
pommern
jel
olga
namna
##vegs
falun
dominerande
##partementets
rend
alen
kjæ
flyvapen
kratt
fyller
reson
name
terras
##settelsen
sagbruk
romerike
look
clarke
vannpolospiller
ajax
passasjert
oversvøm
offic
regjeringer
##blod
konsertopptak
genetiske
lotus
orientert
vietnamkrigen
ymse
fbi
gart
ibl
innfly
undergruppe
rese
kreativ
##ørselen
oppfinner
vener
##кс
##edrift
reisa
vef
holomet
##halvaret
protestantisk
terrengløp
sivilisasjon
civil
overnatur
##gert
fratatt
borde
christina
freest
atomvapen
indianere
guangzhou
himalaya
case
iss
medreg
proton
tungvekt
lineær
gilmour
sciences
hjulpet
billedkunstner
flem
##psyk
utstedt
herøy
parsons
ulster
nacional
festninga
skuespillet
lub
##rollen
utøvar
utmatt
spisse
naust
emi
carp
##regjeringen
gotiske
anmelder
trusler
##stemmig
cove
##cial
##inson
enkl
##okument
##sparken
sinne
##iering
##arez
nobels
##elignende
shir
quint
##music
##weig
##vokal
fossiler
noregsmeisterskapen
www
##ettes
##uner
varmere
skadde
##rukne
severd
##elding
livsstil
bucu
kapasiteten
##underland
bombet
rødlige
snøgg
##ssystemer
gyld
brenner
spirit
slovensk
years
særegne
nbc
tud
uøn
work
##nos
##avag
##spinnere
finna
skipets
jev
##sparti
endemiske
##wagen
overveiende
klor
raw
allment
sumer
kvartal
balanse
luthersk
umiddelbar
clear
flekkefjord
zap
tilpass
##esongen
innad
##sprod
luck
lena
mannlig
##izhou
lojal
secur
innenriksminister
##act
##legen
variet
innt
ettertrakt
smart
studioet
økologisk
canadas
betraktelig
mistenkt
dmit
##latte
##skjell
hunger
barrett
fredspris
edith
salmen
tekstar
kjøpstad
##wehr
mottaking
##nitz
hansa
etikk
mother
maya
nou
maner
oljef
romfart
##ydd
##skriftet
vegger
rekogn
nettsted
vikar
budskap
lettare
##aksjonen
regnskap
hvileperiode
reservatet
holometabole
gutte
##igers
familiem
cock
især
bergenske
urol
tenker
libanes
kjærleik
druk
##styrkene
algorit
eien
fia
hitten
kag
##bue
##ал
paført
delhi
flyvapenet
livssyn
studium
larvens
modif
slatten
drepen
eigentleg
missil
flyttes
sendingen
sensur
smabru
rønt
dietrich
fjerdedel
spalt
spark
sean
storfyr
1730
##essoren
midgard
nærhet
epoken
##fordshire
hallvard
offentliggjorde
##ee
##bog
##unk
innbe
storhertug
##rikets
ekv
##zza
##utgivelser
bucuresti
padri
nora
fauna
jernalder
ansvarlige
folkehøg
bloom
grafiske
watson
aspekter
lima
##iant
##°c
arven
omløp
##ovs
herren
baksiden
utdrag
##ukle
samarbeidspart
stoppa
audi
undergrunnsstasjon
schwarz
statskupp
oz
##karar
reine
segla
kansel
ornam
##øvelse
representantenes
reagerte
nepals
astrup
etternavnet
##icz
isdekt
duo
videreutviklet
##borgs
røyken
ekspedisjoner
##ospitalet
tsjer
##skolan
underjordiske
ebu
veng
##midler
unikt
code
implem
innspelingar
kommentator
department
mæ
mental
rogn
##oire
klatret
livets
studerer
lagting
ordensteg
hviler
skildret
journalistikk
tilskudd
mineraler
hyllet
bakerst
mektigste
ingrediens
children
semifinalene
odense
fallet
oversettes
##øym
seine
austkysten
arbeidernes
prisene
skilje
uhell
likestilling
##sforeningen
##væ
##strafikk
##less
forskrift
##garde
bohem
##stredet
saka
sigende
tenkning
kjemikal
fiskere
jonsson
kronisk
kontroversiell
##bestemmelse
verdifull
konkrete
mosebok
facto
byttedyr
##cis
##hat
##zin
stormen
nyt
##retnings
monica
command
hurum
befestet
altertavlen
##svil
ship
havar
inkludere
hannens
sofie
other
rip
sime
##abil
##ssøn
siem
eksent
##hama
streis
røa
barnebøker
tilknytt
skarpt
##faglig
##presten
voy
bokstavene
mobiltelefon
uskyl
ombygget
##artiller
marina
antip
følelse
presenterer
##farkt
##hvit
godkjenning
redigerte
pigger
##rys
##meland
kvartalet
suksessfulle
melodier
lyrikk
##pm
##rij
eins
brid
gjenskap
kunsthand
carab
øvelsene
##føra
trippel
vitamin
##gjevar
utvidelsen
astronomen
##raksis
mosambik
esper
hende
ibra
##lekta
##icht
##verksted
##styrte
sandstein
uttrykker
##osofi
diplomatisk
services
regulerer
delstatens
apollo
arrester
asteroiden
integrasjon
trong
leiv
cott
mats
hornbiller
færøyske
akustiske
mjøsa
rettferdighet
##fy
##kanter
##unionen
##ulasjonen
##ertallet
fortelles
prefektur
##symb
schon
gravlagd
murmansk
sarede
profesjonelt
avgjørelse
hvalfangst
storbyomradet
bwv
bier
paverknad
##steorien
maj
maus
steget
leddene
vesentlige
kapellan
stengte
pumpe
kyn
pand
uio
##jobb
##farar
##pis
reiret
sakprosa
palagt
kaster
##virksomheten
tyrkerne
support
homofile
attentatet
avenue
lukkast
vefsn
##egren
##botten
fredelig
relasjon
trioen
nordvestre
ørret
##sesser
sump
flaske
monarki
diagnosen
forbudet
intelligen
uoffisielle
ettermiddagen
##deus
stanse
##avtale
nygaard
nekter
##ignon
1782
litauisk
##aceae
##blader
hviterussisk
gif
uka
##mila
klede
sørkysten
##energi
graub
##ungdom
willie
spillene
utforske
gruvene
woods
nøtterøy
binder
vl
##eb
##vie
##diksjon
innland
slas
orda
##ipolit
moden
heath
holding
##ijk
usikre
produksjons
sentralbank
stasjonene
grammat
mongolske
steelers
jenta
ringe
sou
umb
##skytt
##ento
##ibus
advan
nærmet
gates
thunder
##stranda
edda
peters
brunlig
##stypen
rasisme
ringsaker
initiativtak
dokumenterte
fjærdrakt
osean
##kjemper
iblant
qin
##jalet
##uland
market
nordrhein
chester
langsomt
plikter
utvikles
sisteplass
valgene
friidretts
sonja
riddar
stafettlaget
nicarag
veiledning
illustrasjoner
antoine
aschehoug
##iater
##avgift
bløt
##opatra
begr
##endet
indus
demo
fotballforbund
glide
operere
trommeslagaren
utgjevinga
plaget
##stua
denver
utne
##byl
repl
forbli
dammen
fødselsdag
avrund
kontinentale
dz
##ła
stifte
##rough
##utbygging
chong
flykta
veide
egge
##synlig
contr
stedfor
##sforskning
tante
turneringa
psykologiske
sjafør
##politikken
##stoffer
skiflyging
bere
tert
##itivt
skjør
##estasjon
##umi
##gend
stora
bruer
parod
preges
schne
magdalen
stavsprang
##administrasjonen
forsinket
aston
##hul
##mentet
##uttene
angst
##atorium
magnusson
clara
dimensjoner
gunstig
anslagsvis
##kart
##anmar
##isisme
##other
reyn
##forretning
##klima
tah
bonaparte
##sleigh
voiv
memphis
kubikk
minimal
guddommelig
pietro
dinosa
##allag
malest
##uttrykk
egner
amand
##formes
katolisismen
pavens
##kyst
bobsleigh
##bedrift
interessante
forsterkninger
vitskaplege
trinidad
##bakgrunn
forløperen
kuttet
xen
##cop
##inerte
##ulator
saw
arbeida
kay
jordbru
broer
##kjert
importert
##bibliotek
nb
##halt
##onene
blase
neol
naval
##lesn
halda
austers
arame
agn
prisar
bydeler
soloalbumet
lovgivning
##pengene
pafugl
##oland
##irig
##mengde
ulstein
##faste
jah
ordenens
skjermen
kostnader
southampton
hadeland
ahmed
mystisk
beaut
deportert
stanis
einstein
##veig
begreper
flater
legat
##staelse
avslutningen
signaler
antonius
syrisk
operativsystemet
seriemeister
stridsvogn
catalonia
sd
##lang
somalia
##laup
begynnelse
online
forekomme
innspelingane
napoleons
tidevann
##kritiker
hesper
geistlige
utveks
toal
smitt
##tenkt
innsatte
poengsum
føderasjon
trærne
##им
forme
skikken
heaven
familiar
##bay
gullruten
richmond
foreninger
1785
##kommunikasjon
kollisjon
nyopprettede
indoeuropeiske
##iregiment
insisterte
away
bk
m2
##batt
barns
##itaine
##løsning
skjoldet
distribusjonen
prototypen
uber
skom
slang
dødsstraff
luke
konsertalbumet
gulbrune
borgerlig
##aksjoner
pedagogisk
disposisjon
##røde
stillehavslekene
gibson
toscana
forventes
reporter
solist
aktuelt
autent
stabilt
eierskap
rhythm
osman
lancaster
##korn
varslet
##ulv
sieg
luigi
augustin
christen
operative
edwin
programmene
martine
##handlingene
finansdepartementet
originalen
planta
normalbakken
populariteten
fjelltoppen
##arkitekt
tønneformet
utallige
ahmad
ate
unter
##artikler
høyst
marsj
smaland
stryn
søstrene
mcg
tilslutt
philippe
obligatorisk
again
newzealandsk
oppsummer
##afrikanske
attendedel
milton
##tarn
##mangel
##ennet
##stopp
enestaende
oppga
klanen
##nac
giftig
strømsg
fornær
osmansk
rytme
renault
samveldelekene
yell
##batene
overtale
nordpolen
farfar
østens
offsh
##espel
kortare
punktrader
lavlandet
reduserer
snekker
##billene
lopez
fyn
fide
pub
prat
##rinn
##atius
##avisa
konfisk
##iani
##ansas
##lock
gulaktige
madison
##acht
retningslinjer
##tysk
regimentet
forretninger
##ifikat
##journalist
ensfarget
nottingham
cere
##klede
rox
torstein
drake
muskul
nattfly
føderasjonen
psych
##ilsynet
##slar
nordlegaste
løfter
##holdig
geiter
##kombin
grekere
fotballaget
orgelet
##string
folkelig
elektroner
bergart
##jarvi
##priser
avgjørelsen
modernisert
napoleonskrigene
##ansvaret
hitsing
forkastet
naturvitenskapelige
bess
##sgarden
erlend
heyer
tente
eleven
menneskeheten
fenomener
leonardo
frigjøringen
tilstedeværelse
kombinerer
##bottens
mussolini
##hytte
##fler
##yra
tryl
manning
innehar
fastlagt
urfolk
kunngjort
century
##personell
aurskog
collett
oldenborrer
sild
tund
wan
##stett
##emal
delingen
seerne
miniat
statusen
ordbok
skyter
natrium
forberedt
colombi
tilbakegang
gunt
##eto
##skvinne
##leman
kunstmuseum
sandwich
standarder
saltvann
sjefredaktør
kryssar
judas
arbeiderpartiets
fragmenter
##stillinga
lojale
##egrass
suverenitet
graubunden
bip
##stang
##skuddet
nektar
##visende
romson
##gjennom
steinalderen
relative
johanna
stilles
jørn
arktis
aserbajdsj
templer
generalguvernør
cold
bring
høres
sannheten
dramaser
kirgis
ankommer
fiendtlig
tilhørighet
jurisdiksjon
phoenix
##ið
forne
debatter
etterspør
etterretnings
maori
##laug
##førende
femkamp
##boy
sigar
idrettsforbund
bryan
reality
forstørrede
bøm
drak
mikk
##fund
oppdem
bekjent
beta
midnatt
formatet
forsket
snute
magi
grenen
bydelene
340
oppmerksom
pfalz
##ls
##vic
##hod
utbed
##jongen
##ught
statist
framom
operation
##synte
matvarer
diktene
robertson
dronningens
youth
##politisk
##nandez
sape
omstendigheter
##sfinalen
daler
undervise
march
rommer
mette
likheter
cliff
juvent
plateprodusent
bath
forfal
##spolitiske
bundesliga
eøs
luster
ravn
##bing
##од
##steatret
##akar
overgi
bekker
##veps
grind
##metikk
##endør
tros
##aldo
idol
melhus
lokalbefolkningen
##ishi
organiske
vasall
beregne
fossil
##elov
##onica
##ags
trik
betal
ammon
seksuelt
burton
##festet
kenny
enormt
bennett
ete
ratt
spink
brørne
##brunt
hebei
##rupper
pavelig
innvirkning
oppdrett
turistmal
bekreft
##prosjekter
øyeblikkelig
bluegrass
cf
##itra
harp
hoel
##sbreen
kongreg
fjellklat
samtidens
##mesterskap
scandinav
avduket
fuk
##rs
##vagen
trange
note
##iserne
##smar
they
minog
##marskalk
varemerke
folkemunne
##skulpt
drapene
##asiatiske
jamaic
beboere
cowboys
##stock
dek
manila
##jøring
legende
vegar
sanitet
forsvarsdepartementet
##zzi
ulleval
bc
hort
piem
##nasjon
##sirk
##hlen
##analen
##inet
albrecht
orland
kampane
##fiber
bevise
1768
aquitaine
ronnie
innkjøpt
umea
voivod
##alm
##reiser
byrak
svol
nasjonalistiske
diktning
walde
reduseres
børster
1786
forfat
##iyah
lombardia
spekulert
pump
xvi
komedien
daily
storbakken
##ibir
geograph
halvering
visdom
##husene
sakene
oppgi
hindra
skulpturen
simonsen
seremonien
##brigade
andorra
hd
venta
wand
##san
##finger
##steater
anla
##rosje
oppstand
##treden
solop
lukas
##fattet
episkop
##rona
taliban
blackburn
##sides
ordførere
jub
kram
qi
##etningene
arsm
bekjen
hovedt
roar
##ryd
særskilte
skipsfart
magic
beslutninger
litauiske
spanias
##middelalderen
assyriske
##opplæring
##orr
##ovsk
blix
##boer
delstater
sporten
bonden
setet
bassgitar
blodig
nassau
greenwich
lauritz
variable
gjenforent
montgomery
aviation
lec
##smuseum
tape
forvist
motorsykkel
1779
trenge
føderal
særegen
##divisjonen
eritrea
##tus
medføre
anstreng
##kompetanse
lindes
##samband
luftvern
player
vennene
homo
samlealbumet
eksperimentelle
asteroidefamilien
##roc
landomradet
austre
bokt
bukser
##medaljar
idretten
passasjerene
trommeslagar
kollapset
fellesstart
##jou
##undt
heks
##sfe
sjøsatt
attekant
joniske
forekomst
ressurs
empir
##shovud
leddete
oppfylle
aukande
landsmøtet
jenny
hvelvet
dod
##mør
##ather
##egata
andelig
undert
chess
pronom
disco
kapitu
forsøkene
portland
unnslipp
##valgte
vognene
delegasjon
borettslag
hc
##annelse
nyre
amerikas
##indiske
##quet
vika
##betet
drepne
resept
kopper
##piller
##inettet
forsiktig
##ensburg
svan
gjenforening
arkansas
landsbyene
ideell
vaske
horse
rhone
sivilingeniør
frederiks
stigende
prøysen
##beinet
guddommelige
innrømmet
utgjeven
forpliktet
spennende
innbyrdes
røntgen
bengt
grunder
##germus
##svenn
##ølle
kryssa
intervjuet
traseen
khr
ramp
xv
xia
brente
iransk
sesongens
svarted
fokusert
1769
utdødde
fleetwood
pust
##ensus
too
toer
seia
keiserinne
blomstret
diskosk
bidragsy
##gatan
##nettet
forfall
henviser
mors
##kvent
hundred
bueskytter
hagerup
##flokkurin
arkitektonisk
kvantemekan
##representanter
dekret
daim
oran
111
##esprak
simpson
##atoes
formidle
hobb
##dans
frat
##road
harvey
spi
##mars
##regn
trudde
invit
spilletid
inskripsjoner
karakterer
motstandsbevegelsen
bup
cellene
##mag
kirkest
mulighetene
sigd
inventar
##ighton
medisiner
verdsrekord
kabul
nominasjoner
embetsmenn
http
ullern
##krep
samansett
##slund
verde
tree
bakt
nærare
ulrich
festa
biskopene
purpur
demonstrasjoner
fylkestinget
hbw
heyerdahl
##alven
##avi
toulo
aman
jevne
renne
huskes
##sgata
karakteriseres
seriekamper
jenssen
ingebrigt
tasman
brady
uventet
computer
themsen
##aide
##kut
##atab
thing
jula
rettsvitenskap
giro
kommandanten
kirsten
vanlegaste
##produserte
##sforbindel
mirak
svakere
##sfjellet
##kobling
forblir
gap
##spring
gjel
grunnskole
rocks
løkke
faust
flotte
baku
ordinert
librett
vega
sjukehus
eksportert
mistenkte
avstemning
benny
utpekte
congress
sob
##æter
##forel
##ardal
pars
turbul
constant
lesere
registrere
1771
papua
verdslige
leikane
rytmisk
rørsle
strømsgodset
iw
atle
##oshi
teigen
##sbury
##talene
##søv
guitar
##smalnende
maxwell
##modell
askøy
skinnende
kvinnesak
toulouse
pon
łodz
##faget
##ango
reid
##arealet
follo
##sjik
##planlegg
##gjengere
##skommisjonen
kjelda
##skrevne
honduras
krateret
utestengt
bourbon
##valet
trol
marskalk
##optre
##isteret
##regard
rekre
##imate
dynamisk
riktige
##fisker
sultanen
aeros
brennevin
hydraul
jol
##armer
##ilus
##ilyn
##osse
overkant
##spis
arbeidsled
##oppe
grein
konsol
##ilding
ryfylke
kartago
##broen
##bilete
kostbare
##ufoss
sparket
klemens
lorentz
agr
hubert
messen
otte
øres
##pc
##odrom
##byene
theol
desim
kulturarv
brooks
nasjonalisme
onkelen
punktstriper
tyng
forsterke
##skanalen
oppfylt
fester
sanse
##alisert
infin
##urene
##slene
framhe
domkirken
krogh
sigeren
landsbyane
##mose
##angeliet
entreprenør
##anor
##fordeling
larene
##ahalvøya
freedom
beslutningen
##fullmektig
vedtaket
##vitskap
vatikanet
ronny
jotunheimen
aids
bif
##zu
##αν
##ет
##innet
##okjem
føret
noir
forskings
brah
municip
jernbanes
anledningen
baltiske
selvbiografi
##skren
##itsa
##smidler
heide
presid
prima
##deltak
trua
sørvestover
gjenopprette
tilpassa
bæres
##soppgaver
fedr
forfedre
wessel
##idige
underkast
##spiss
feira
stokke
tenaring
husket
auke
alteret
episodene
##alleri
spektak
alfabet
bekymret
egeer
gle
##jenko
maren
utgjøre
halm
##øtene
ungene
utforsket
utenrikspolitikk
meldinger
nyhets
girk
samløpet
##øyne
levering
naturvern
tomatoes
anbefalt
paragraf
hypotesen
breivik
lum
pikt
tiv
##laten
infr
parish
##holms
hoteller
alfonso
forsvann
representantene
bordet
germansk
alminnelige
grorud
french
fauske
tvnorge
##sstad
stjalet
varmen
utvinning
reint
##berry
lagkonkurranse
hanssen
round
synleg
stemning
systems
skogbruk
tankene
stoppested
##strøms
beregninger
fortrinn
kompaniet
tikamp
kick
raven
##ermin
##jeft
underside
kjed
nedlast
##shald
allmusic
##stilbud
molekylær
vampyr
nba
##kem
##zh
innoc
nordkore
svoger
svigers
statuer
bestyrer
cox
driven
##phone
aktivist
hitra
eigenskapar
##skontroll
overveld
fremtidig
himmler
protokoll
##ressurser
uci
##amas
innta
##metri
myanmar
sjo
tilhørt
soge
beslektede
vadsø
##smedalje
##innsats
badmintonspiller
##mønster
##leys
stikke
##atu
varet
mellomstore
##lagene
sammendrag
##sgud
1762
kongerike
majoriteten
cannes
fujian
ditt
gue
##idas
eli
##ordninger
hopper
##andemien
aktuell
irving
##quin
lava
nevro
kontaktet
480
1648
stanford
##gjøring
eksplosjonen
kriterier
lorenzo
elfenben
ai
mia
mys
andresen
##ivere
racer
bakvingene
1718
##volleyball
buckingham
utryddet
##istens
seir
##radgiver
velkjente
sagene
straffen
buddhisme
oftere
jernbanestasjonen
drenerer
wr
##jaren
##hg
anger
skir
blag
marsh
feber
adskilte
nakken
borch
##staf
voldelige
sportsklubben
embete
taktikk
dateres
propagand
kis
##imenter
syvertsen
eman
baser
befru
velstand
standpunkt
jødedommen
##rodusent
dommeren
parlamentariske
##general
innkalt
zambia
4x
dw
mv
##bob
##adia
samveldet
##uto
##illene
lein
##sterke
1640
thi
billett
##finans
##fargede
idrettsutøver
kvinnelandslag
nestformann
1765
uvanlige
##figurer
aurland
nikolai
lofot
misforn
wing
##uh
trona
tristan
frøy
publikasjon
lillesand
eksperter
dominans
produktiv
forandring
hayes
gm
yong
##yter
arhus
nymp
##assistent
larsson
operert
lederskap
gros
sprengt
koreograf
1536
identifiserte
reagerer
about
anslas
gynt
occ
dekte
##stema
hack
henan
auguste
godtok
alekse
hardrock
##kirker
cameron
challenge
offshore
420
djev
##gods
harfag
eining
##ysning
guvernementet
##sstat
strasbourg
spraklig
draft
gravene
brytes
refererte
transportert
titus
1759
navnekomite
irish
kler
##oya
friske
høyhastighet
kjøres
##bukt
kompakt
##sstedet
duke
usann
exper
sannsynleg
utdannelsen
buddha
tilskuer
funnene
##body
aurdal
naturreservatet
spiral
skytevapen
mønstre
afghanske
##anstalt
##leif
##ørn
##osofer
myke
drømmer
##sprosjekter
usedvan
aberdeen
##mott
##45
##apningen
blak
overhode
##abor
health
franch
virksom
beskjeft
klostre
adelsmann
tibetanske
##found
##blomst
rekruttert
##sfilm
illegale
fiji
wide
##iolog
##ssekretær
##stater
##edderkopper
sløy
svare
hoa
hohen
forty
redskap
##buen
fylkesmann
1690
dokumentet
innehaver
klubbe
zheng
##sche
##celle
##onkurr
##ensson
inntatt
vedvarende
bymur
##gerne
flav
tradformede
europacupen
##oriansk
breitt
volta
litterært
##sarv
##fylte
landsdelen
kjernekraftverk
geometriske
igangsatt
orlando
hent
pik
##fur
##kilde
##yla
dagblad
##platt
salam
hukomm
dialektene
cephal
sympat
koronavirus
juventus
eden
siktet
varsel
johans
poster
tørket
##iggs
henriette
octav
midtbanespiller
lidenskap
otter
##fjeld
##ρι
marilyn
apart
##grønne
kunnskaper
stabssjef
assistanse
lorra
begravd
mohammed
æresdoktor
lv
sira
lauren
kinoer
sveit
dyrep
agenter
willem
hitlistene
ørland
setning
innehadde
diamant
guttene
folkegrupper
ufullstendig
##fire
##kalt
##35
bac
sytten
langob
ambro
cao
viruset
author
##teksten
kopt
thoresen
fuglane
herskeren
forberedte
##resultatet
ibrahim
gd
##zing
##22
seism
##kledde
løsl
##indust
thra
boik
##øvere
##spelet
stamfar
vitenskapsakadem
murene
transportere
ambisjoner
begrensede
enhetene
forutsetning
spiritu
matrikkel
mb
ritt
uover
norder
##obi
##føreren
bestilte
pour
bild
saksø
##professor
møbler
biologien
##acher
nations
invadere
everton
andrews
veitunnel
attentat
lama
erosjon
##verer
##engder
ofrene
sammenstøt
rettskriv
guide
tomten
litteraturpris
kjøpesenter
unngikk
tif
tup
##yers
##stunnelen
##agende
analog
skipper
##svann
filer
veik
framtredende
flue
amar
strind
sandvika
prestene
apparat
konsentrere
##fortell
etterfølgeren
sturlas
forfølgelse
paraply
vaga
##lob
##xter
##utom
stormester
besty
rauma
asc
carsten
duck
straffet
##spillene
preston
gerard
##verdier
reservoar
fortjenstorden
braunsch
hvelvede
reindrift
messer
##vre
pask
stap
skatten
oppdelt
nordens
bernad
krake
sigra
##platen
fjernes
direktoratet
colts
luftwa
retninga
mottaker
rocky
auge
##haldet
##motorer
suspen
##issement
fakultetet
wimbl
vigg
stian
rever
overførte
sammenbrudd
nærvær
flitt
legender
monter
nummeret
sandvolleyball
oppstarten
innvi
nilen
sentrert
buddy
1680
stephan
##kkere
nordmannen
kaos
ytterkant
skeid
brigaden
kallenavn
nasjonalforsamling
jesuittordenen
solidaritet
konfirm
fansen
funnen
mond
##anti
sink
hvete
plo
koranen
lukka
sjak
innbyggertallet
urin
assy
##onny
diskutere
skrivebord
passasjerfly
britt
upon
observatør
endestasjon
uendelig
kontrover
friluftsliv
flyvninger
wint
yi
##igede
##ici
heldig
mekka
christoph
##host
dikta
##korpset
duncan
##kasse
fisher
braunschweig
##jerg
sørum
next
newfound
sjuendeplass
arkitektene
spenner
dubai
estad
olig
soner
##uman
shipping
freda
bevil
##bevegelser
praksisen
forhandlet
reguleres
##flekker
gag
zhe
##esh
nyheten
veiene
adferd
tilsvarte
postkontor
kasus
riddere
landslagstrener
1758
artistnavnet
oldtiden
movie
adoptert
brak
nyr
pøl
##vend
opphøyde
underliggende
##legget
dødd
utvendig
handelsmann
##wealth
camilla
##awi
begrepene
oppfordring
orknøyane
overvintrer
differensial
andalsnes
##idan
##atta
landsk
##abol
##førselen
##temal
##overflata
vitenskapsaret
##halde
praktiserte
athenske
##strukturen
somerset
grunerløkka
begrunnet
jets
ræ
##kete
farsund
krag
fungert
riksdal
namnedag
flatevidd
doktoren
1716
meteorologi
omdømme
reflekterer
dødsfallet
rwanda
frod
wedel
##rans
midlere
##rington
bygdøy
kronpr
1764
alberto
eastern
shakespeares
agency
rekognos
winst
##jump
forplant
innser
storfe
landsmann
##brukt
veka
##show
eukl
troende
kompil
husar
kulturhus
rekne
intakt
koreas
##myra
##jevne
nazistiske
diskusjoner
ironisk
herakles
vier
##afa
##pg
##braten
##edonia
krangel
maiden
dana
bott
sjøforsvaret
##vilje
forstas
plattformer
aggressive
##aud
##fjør
##ukka
enge
##ibo
##sfisk
aktør
educ
lufthavnen
sjølvstendige
tittelkirke
tolkes
jugoslaviske
forlengelse
senegal
watch
dottera
commonwealth
##jens
##ир
sei
dansen
vinkelen
guild
225
presidentkandidat
idretter
brukerne
##politiske
fabrik
utgavene
verdenscuprenn
govern
##aff
##ил
omsyn
##aves
##innspill
livsl
##oway
sverdet
torbjørn
skogs
falne
hugget
spørre
##year
##tarnet
springfield
utgjeving
lappland
rodriguez
mhz
ake
pter
slegge
wave
##air
##др
##egne
##roskop
nedstam
krohn
##settende
ungane
gerd
uttrykkes
logoen
ottar
forbundsdagen
1755
magnetfelt
usbekistan
etterspørsel
cura
juss
kale
##enhet
##abo
chau
##klene
##stemmer
boul
kulturpris
##sjant
surrey
commission
berømmelse
energiselskapet
##eks
##okt
##sturne
skan
##klipp
geofys
banda
studien
kaff
##loo
folkeh
oksid
klatring
haydn
eber
jæ
##ives
todd
raj
sigøy
konkurrent
##spilleren
sove
software
cathrine
nitten
peg
almen
kommunisere
##ipel
##rettes
1710
##sbeg
kongelege
spraklige
kolleger
virveld
breidde
grenoble
trondheims
##irov
utforma
snøen
sumatra
florø
pensjonist
##rørsla
ritualer
wenche
bjorn
madeira
##here
##atum
verkar
##ianer
parma
flod
cote
##samt
teknologiske
australias
sydvest
highjump
##akademiet
embedsmann
##plekset
dusin
storhetstid
slem
##mons
##inor
##amling
##lain
meh
##krone
lovende
skjegg
snøbrett
etterfølgere
ellipt
feiring
feiringen
utropt
synonymt
eduard
giske
iuc
pog
petty
sært
vrak
##srom
##elo
##emus
føtter
grete
kvær
matlag
akkord
felter
forfattarar
padler
##vinneren
bop
zach
##bøy
packers
besetninga
link
møkk
pavil
bevist
sirkus
uranus
yellow
##stoler
##amenter
##aprisen
##ovskij
left
##cka
##orno
modum
dyrke
##ccio
opning
grevinne
puppe
380
distribut
##funksjonen
soldatane
bekymring
newfoundland
bie
zah
##bone
##ensch
aland
##astad
##bret
artusen
steins
krigsut
namibia
springer
pianisten
andreassen
split
independ
avrundede
lorraine
prag
avsatte
tilført
paverk
##iton
ari
underkant
slip
hundene
kalv
##dessa
keiserriket
liters
kleopatra
sundt
massivet
suldal
parlamentsvalget
utslippene
provence
cn
talen
##ting
##alv
blake
##emark
krus
orde
##obil
sending
##sbolig
##hae
nettside
tekstane
undersøkelsen
humoristisk
lykkelig
e39
fad
##vier
##wang
##engsel
##iltak
panikk
stjerna
detaljene
mikroskop
styresmakter
forarsake
##utgaven
eksploderte
hete
jøl
jentene
tand
tilstander
utc
##otland
##peren
gjennombruddet
valgkretser
magasiner
slagmarken
buch
##sbyer
passert
worcester
observere
voldsom
##bjørg
utskift
byrakrat
asm
motangrep
##eliggende
##edepartementet
fluer
##raling
profeten
rams
madonna
elevar
gotland
crazy
rutene
championships
hendinga
##евич
innbytter
gotalands
owen
##kingen
##uca
forfer
atp
grend
storkors
krigere
allsvenskan
julianske
kvinnherad
tjenestemenn
botnen
1766
frigjort
##guden
tsaren
wur
##inam
##rein
##ising
nore
langu
verdiene
forskeren
retta
schul
edderkopper
convent
bronsealder
identiske
forurensning
##klosteret
bordeaux
wimbledon
gia
linn
uri
arsaka
##skapane
feel
barskog
mykle
riksh
##partis
presidentens
protestant
1756
forkorta
tonight
assosi
færøyenes
##jeger
herodot
ae
bunde
##ammens
elsket
bruksomrade
##opolis
heiden
lucy
planar
kompat
godta
8000
ukentlig
oppmerksomheten
aarhus
eyes
befolkningsutvikling
tydinga
sass
##luft
##gia
informer
##aps
trehus
kunstmaler
fullstendige
fattet
giul
##ukten
keiserdømmet
rødliste
vinnar
leiing
ubaten
instruksjon
diagnose
glemt
cecilie
beboerne
drøbak
##lister
##cul
##oning
utsette
revers
bearbeid
hunan
klient
rovers
respon
##skrivar
diskuter
eriksson
realistisk
utenriks
upop
innlednings
filippinske
##bølge
invadert
database
næraste
avsta
utpreget
alc
##slisten
svinger
saab
musikeren
##opplys
staff
aking
fremstilles
auste
murstein
eksperimentell
havnebyen
jiangsu
elektromagnetisk
chilenske
##mare
utland
##forsamlingen
##ifjell
karel
fortiden
terre
drikker
doha
kloakk
yngling
skriftene
horison
butler
kanonene
beskyldt
dorothea
synspunkter
hirosh
uniformer
politidistrikt
fiksjon
lh
laster
wings
##ambar
utarbeide
oppnar
##sliste
kviter
##yset
##stemmelse
byrds
philol
økologiske
forstaelsen
ratnende
sussex
kommunistparti
bryggeriet
aukar
orknøyene
facebook
diskoskast
bjøl
rivers
woll
##hud
##svoll
antib
1550
amne
kommanderte
##ykling
marinens
covent
bayerske
butterfly
svartedau
yas
##eret
enstemmig
##andørs
fraser
##abukta
dagane
hoveddelen
albums
##raglete
borough
kartlegging
ideelle
unntaket
adelaide
eksistensen
æresbe
padro
oberstdorf
##ground
academie
wells
aldersbestemte
hhv
nir
##ης
##itage
utsyn
fremstaende
1630
norskekysten
##profil
kosa
konkurrerende
nettsider
phys
loire
kurve
borgund
modernisering
##sprogrammer
mallag
fylkeskommun
konfuc
##лекс
lindesnes
rond
##fog
##spir
sørlegaste
kommunevalget
##hay
##ctus
robot
mislik
propell
evangeliet
overgav
høyrte
avstamning
selevk
ordenstegnet
egeerhavet
cris
dou
vett
##sølv
dee
leke
klage
##iott
franken
##provinsen
konkurransene
dannelse
##hoved
##fisket
durham
ellsworth
prostitu
datering
strekninga
minogue
oe
##niv
##sarbeidet
##ον
##stue
##alin
fordelen
enri
omdann
##erton
frelser
mare
brud
lagar
hvoretter
##idepartementet
jahn
##ostok
gruver
matth
turnert
##ская
nedslagsfeltet
edderkoppene
lorentzen
streisand
araf
gnom
##sskole
##malt
205
oppbygging
fordamp
##prise
energik
kravde
gjenopptatt
warwick
##spolitisk
rodgers
##forsvarets
##forbindelsen
slaveri
tribun
laboratorium
europameisterskapen
##johka
nfc
udø
vifte
yale
zhao
##reren
##stipend
tilførsel
##estrand
betød
farmas
##sbil
luz
drast
fogderi
breton
jennifer
bram
pipe
##vester
##24
##xe
oppheng
opparbeidet
1721
mygg
glou
##hoder
klokk
musikerne
utvandret
begrunnelse
mistanke
aalborg
##ødre
trone
##iktige
##kled
statsv
##holdet
korsfar
##stemme
valgkrets
schiz
kokk
##vante
talenter
kvarts
eleon
samfunnets
stemmeberett
uavhengighetskrigen
ravens
dolph
lokomotiver
tsjekkoslovakiske
refleksjon
mislikte
kind
pisa
##wil
anast
thorn
##komster
krigskorset
punktene
fiskar
macdonald
1757
##javri
ekskludert
winston
isma
##stokk
landss
betrakte
fargar
##garder
billigere
bukten
##spelaren
sarbare
masters
##fylt
##bodde
audun
bergensbanen
tilbys
omfanget
verdscup
norgesmesterskap
##yte
##atens
##ertil
blast
opprettelse
sokkel
sarbar
arsdag
vesener
premie
1767
##figuren
astro
ytringsf
apotek
ow
ope
##fik
##eringer
##stinget
##itler
utrop
reins
underfamilie
nordnorsk
chiang
henvisning
barb
##sfond
bureau
komponent
borga
boligbygg
bispedømmer
erfarne
kanariøyene
afl
##66
chass
flyte
verdsarv
##media
særlige
aleppo
##fuglen
noterte
potsdam
provinsane
1658
pedagogikk
intense
##felle
##ان
##avl
##abis
klæ
apote
deltager
tetthet
forvalter
##stiltak
løyve
potensialet
optiske
severin
emeritus
innkjøp
fitjar
ahl
une
wig
1670
holme
støttespillere
motorene
betrakter
jaguar
##forbindelser
narkotik
avgjerande
griffith
tilfeldige
trilogien
##republikk
mikroprosessor
landskapsvernomrade
gloucester
cis
igor
##ittane
##imi
##yndig
##hetens
internet
poes
kaw
innsnev
jew
vikings
organiserer
løpere
sunnhordland
##ypene
produktene
utfordring
svømm
kasakhst
african
bahamas
ikt
skinner
##oku
##drev
##holden
chil
jour
helium
##iche
studi
bilfer
leggene
hyg
##abrikk
##prøve
voldtekt
verneomrader
hylla
multi
vigeland
spesifikk
utløst
bahia
væpnet
vektløfter
easy
##slekten
##west
##lea
##ature
byradet
##delighet
hovedverk
##shjem
adkomst
myte
produsentene
retro
airbus
konstruktør
1761
fruktbare
voldsomme
legemidler
dypeste
elektromagnetiske
forlovet
ukjend
##had
##skval
medical
flyplasser
karate
1620
##komedie
folkelige
##cts
tork
##rering
ytterlegare
medaljar
capr
mytiske
patriot
korsika
radgivere
##bølger
folkerike
landsmøte
happy
nal
volk
##zie
##elskaper
solov
østfronten
booth
price
##ildsen
satan
folkemuseum
opplevelse
##høgda
##frukt
tryggvas
telegram
akkompagn
##herredømme
aeg
aby
riker
tut
tip
##din
##trafikk
skard
mawson
##trer
romanske
tyskarane
##ødig
gratt
søks
vertikal
kortform
fredsavtalen
tiendeplass
liksom
arkiver
kineserne
##sdy
kopar
bygningane
pavente
tilhengerne
destinasjoner
wider
##øra
leier
hvaler
##algene
malaren
military
museets
##komment
murphy
eigar
ribbent
pilegri
polynesia
##yrker
klager
olsson
romarriket
samtykke
forskjellene
contemp
##yndige
rosenkr
alliance
lastebiler
presentere
makedonsk
perth
bish
dm
røst
##non
##bri
kjegle
grunnlegge
thai
fylogen
turnere
##stran
kulturrevolusjonen
elektrif
stortingsvalg
fartøyene
hauger
riksantikvar
bnp
savoie
niande
##kp
papp
varighet
harlem
einskilde
brøn
minus
##ichi
##gete
falken
kolonial
kuppet
aircraft
signalet
togene
amadeus
etiopiske
bunndyr
##steknologi
##sproblemer
billedhugger
tetra
##orio
avh
##esiske
##neys
##ulkan
innskriften
##ogie
mafia
perserne
##ylven
sørøya
##smesterskapet
##sbøl
angis
##grunnen
##siktige
sivilt
intervensjon
##slinjene
optisk
##shaug
konvensjonelle
kjelleren
wesse
##salen
tilegnet
##otens
dab
kvint
syre
##legionen
markeder
fyrsten
biolog
materie
motorsport
opprørere
sjeldnere
morgenbladet
innvandrer
leiinga
sauda
bluff
synthesizer
kly
##fish
##ων
##iningar
##veen
kvits
teste
garm
##owe
krigshand
skalaen
smittet
##handlet
metan
##bakker
rekkefølgen
grønlands
bosetting
subsid
diabet
bevarings
klassifiseres
##rutene
interiøret
tove
##arp
##rate
##ærne
##akom
underordenen
##unnskap
trikk
##arkiet
magist
##kommisjonen
materielle
panel
botsw
patriarken
pasientene
7000
wait
pastatte
ubehag
handverkere
venstresiden
##sstipendiat
oder
rede
vell
##nius
##stet
##skift
##aljonen
##esj
utøve
hending
##striden
attraksjon
##farger
trygge
lærling
menneskeskap
titlene
representantar
damm
isbn
grønnsaker
industris
trekantet
wessex
wak
##sent
##tunnelen
##eson
marl
artistene
emosjon
##bukten
##street
##sutvalget
sammenlignes
symph
##programmer
uheldig
absorber
aksjoner
tillagt
devil
inu
##arka
apnes
generator
strale
##demort
voldemort
##ytten
lynne
##ssyk
1714
anerkjenne
fiolinist
herodes
##ansvarlig
benevnelsen
viggo
iverk
tilgangen
harbor
ethvert
einingar
arbeidsplasser
adlet
##sbrev
musikkhøgskole
verdensrommet
forklares
blodige
forsink
northumbria
1715
pleie
##fysikk
manageren
flyvning
fam
ngu
##bis
##stri
avd
arer
menes
føle
lignet
dante
priest
faser
dokumentaren
arnt
##kjøtt
longyear
forbedringer
##kassen
thessalon
rekreasjon
wid
skrik
seertall
hakk
##shel
christoffer
invent
modus
assimil
hevdar
quin
sesongar
administrator
rockefeller
veterinær
expeditions
langdistanse
forvirring
titanic
infrar
##anidae
##adri
##sept
spist
samer
uttalen
opus
filosofien
##riskole
reserv
1701
##modellen
investig
tilslutning
herskerne
fondet
revolution
dugnad
forflyttet
clyde
yokohama
egersund
katte
##oj
##ykl
##qa
endeleg
farm
euf
tilfellene
humbol
sungen
canadian
anerkjenner
pakistanske
beethoven
zhejiang
bød
døren
##skad
##skrav
stifter
##asar
##andra
langstrakt
helter
##legges
signe
videreføring
dyktighet
kjendis
kombinere
skylden
##egruppa
mathisen
zhong
1066
##ifestivalen
queensland
friends
bole
gans
hubb
pis
##skons
fored
##asis
omradets
regga
sjøfugl
irlands
##region
obama
versjonene
ruud
sosialist
roberto
##iras
panne
##ferdige
naboer
hjertein
aksepter
mccl
1665
craw
jagger
mønsteret
horisontale
fridom
##konferanse
dik
##data
##oreg
##skene
##idian
##akers
##illit
vestfronten
1520
rade
tved
planeter
kortfilm
##orklassen
utdanningen
gulf
firth
fiat
vennlig
testing
##stilstand
forvaltningen
lup
##fet
avhold
##smith
romansk
cost
gullplate
tinget
landemerke
1702
verdslig
tolkiens
halt
hille
myl
tones
avklart
##ørsla
##itativ
utsatte
##ribusjon
##abru
allsidig
cay
tvinga
vindu
appell
##tekster
sitert
kanaan
lune
##hib
##arrieren
inkar
noct
berit
apnings
turbo
amot
suver
tapene
kinesere
bestemmes
salten
##ssykehus
ullens
##kinson
prekestolen
emanuel
iverksatt
fou
##redet
##yah
arenes
121
##miner
##plassert
lym
avslatt
passiv
germain
regjeringssjef
utvidelser
gjerde
370
forstod
dominikanske
søyle
##fuhrer
##ritor
##jam
##hell
norde
##ynamikk
lekk
utgifter
running
gamla
troja
morning
ireland
tettere
relaterte
konsertene
prestes
##verdens
logistikk
##vakten
frikjent
zed
##iologi
##gy
##hne
##wyn
##tevling
avt
stener
##ambandet
##sektoren
oppføre
##forum
nebra
goethe
drus
##offens
caledonia
borgerne
hellerist
restauranten
##masser
patron
prostiet
permisjon
livingston
sunderland
uvisst
øg
##srekord
##vort
##но
##ðar
##anar
##idi
omslag
svaret
sakk
vilnius
milorg
havs
trot
strakk
tarm
##karane
verksemd
paulsen
fremstille
frederic
##splanen
laurdag
gottingen
copa
aggressiv
helvete
horisontal
ullensvang
cult
henter
were
æl
skaden
##sac
etas
##remal
##oseks
gyllen
tyrann
radgivende
sabotasje
aik
toner
##atom
dekan
ligne
##kledning
lukkede
presisjon
kulturrad
halvveis
lengda
trapes
handlinga
skilnad
beregnes
lastet
bangkok
kjennetegnet
symptomene
hyppige
volkswagen
raiders
kromosom
venstreparti
kulminerte
eiendeler
witt
##vesten
omar
brutale
fortolk
borge
lesja
flytande
nero
mineralet
dommerne
firkant
kurdiske
løvenskiold
kartografar
avsluttende
eurasia
turistattraksjon
dud
jær
rare
velt
##toppen
##arven
skager
##irn
brans
seed
landsforbund
filosofer
stevne
turistar
abonn
brock
skolearet
kroppsformen
hastings
resulterer
militærtjeneste
nøytralitet
cembal
hjerteinfarkt
akv
oste
##cross
##elisten
##reser
##roy
##behov
rettar
ferry
giorg
##struktør
##bokser
nevr
##givning
##uchi
highland
##ventyr
gert
##direktoratet
##rob
##ellschaft
##chy
##shjel
krigsher
hussein
kolstad
psyko
##stidens
aaron
relativitet
privilegier
korrespondanse
kof
won
##rerer
##melsene
##rekorder
stress
##atha
arlege
##nets
bris
##sville
allmen
##varing
##igny
frekvensen
skulda
jesper
kapellmester
spises
##kess
##ingens
arver
filter
abdomen
manglar
trafikkerte
tilskod
sendingene
sertifisert
##plataet
underjordisk
##forestillinger
oppkjøp
##svesenet
banebrytende
orat
avløp
reformen
##yrke
where
##magasin
anare
skib
kommunister
ligac
senke
kjølig
emmanuel
leverandør
markante
##ijn
folketing
forlang
gardens
batar
tidsrom
kystlinje
sitje
##bird
omhandlet
##sstyrkene
svømmesport
linge
mund
wemb
xbox
##ικ
##rac
determin
unger
mayer
need
herkomst
faith
##bukk
reaksjonen
rønne
francaise
##nord
##roll
##arskrigen
##elk
konkur
##eterne
##oplan
høyskolen
##grunnlag
##snot
motorvei
##fran
satser
folkemus
sirkelen
##plasseringer
1689
1748
kviteseid
vasterg
kurdisk
ætt
##inidae
##entin
skud
oppsyn
bey
grøne
percy
##visjon
ultra
vertskap
##elever
235
##ostret
klimaendringer
arhundreskiftet
folkemord
bratislav
merkelig
drikkevann
bueskyting
##скии
hardingf
nicaragua
bømlo
humboldt
db
##iu
##dos
##tep
##urr
chu
karde
midn
##buk
##gesen
episke
##pani
forbunds
formidlet
symptom
kjæresten
cubansk
tadsjik
østromerriket
plymouth
ez
sip
##ingu
##atio
##agos
heights
nedbr
rover
følelses
##sforvalt
nettverks
generalforsamling
inspekt
kolonit
satire
molt
##høyskole
jesuittene
##bestanden
##kontrol
oppfatningen
piemonte
flittig
kikkert
##sats
##krev
another
inntre
elise
##smester
langsom
holter
solens
##venner
kraftstasjonen
komplette
bonif
lærebøker
1709
##grenser
observatorium
frilans
bonnie
etterspørselen
forelesninger
solokarriere
tilsier
clem
dass
winn
##skot
alver
overs
saue
##ianere
##ubben
sideelva
volt
levi
vita
##ropolis
studentersam
sulit
ronne
reklam
skikkelig
brandt
blindvei
ligakamper
fib
##dro
##ksten
archer
storbyen
##arek
ches
1610
emile
##flue
gerald
fired
arsskiftet
guangxi
reparert
bragt
##utgivelse
hellenistiske
innledningshe
ged
##runden
bybrannen
landkommune
barokken
krasj
amy
bourg
##into
tramp
kurie
##biletet
kommandert
frankiske
drifta
1754
##graver
platin
##bærere
##malerier
innblanding
justisdepartementet
sperre
##straling
overvakning
føremal
intelligens
severdigheter
unnslippe
wake
##enberg
##strafikken
##onet
##alisering
##ady
##ivene
nykommer
kli
internation
##ommene
##levard
falls
johannesburg
1719
hakonsson
padling
hearts
bentiske
essens
##cont
##orar
oppveksten
said
##tral
hovedgard
##grønn
havre
sjøfly
sangere
singlane
avsløre
gulbrun
gitarsol
fjernt
timur
involverer
vinnaren
skolem
valentin
milliardar
cut
fane
##ischen
elvel
##opus
bega
hep
nedlagte
1250
##iday
fastboende
##quer
verkeleg
styrkelø
samlingene
setje
1644
ærespris
flaum
overbevise
cortina
alessandro
lans
paler
rie
sart
##isha
oljes
##temark
##elda
##flater
hjemby
torn
##ameratene
mcdonald
innsjøene
1683
1741
1733
sæter
koalisjonen
wembley
ebert
##informasjon
##eset
##itis
oppstaende
overtid
folka
ullen
guilla
mills
##bai
publisere
metaller
enkleste
argumenterer
kjønnsorganer
theodore
##arktiske
core
pelag
##64
utnev
##aper
seksjonen
##ssonen
seljord
##revyen
things
termod
bredd
kyrkjes
skygg
##ished
forkjemper
dagligtale
verneplan
##steknikk
artiklar
antisemitt
performance
siemens
tener
##ия
##ат
##isera
knuste
førstelag
kunstindust
bileta
freddie
brot
##itzer
##skjegg
arsdagen
fjernsynet
provos
siviløkonom
sprekker
syklus
rederi
kjeldene
apostoliske
gjenkjenn
etterforskningen
sioux
pronomen
eufrat
##aja
##evne
##put
forhøy
##unga
destru
##foretak
verset
reglar
holy
bosted
diagon
templ
##demokrater
beløp
typene
notre
papyr
anatol
pedip
minoriteter
cul
festen
gob
##gent
##hra
##fis
##steuropeiske
skag
marknaden
nordkapp
heimen
##bruken
statlege
thy
[...]
