[PAD]
[unused0]
[unused1]
[unused2]
[unused3]
[unused4]
[unused5]
[unused6]
[unused7]
[unused8]
[unused9]
[unused10]
[unused11]
[unused12]
[unused13]
[unused14]
[unused15]
[unused16]
[unused17]
[unused18]
[unused19]
[unused20]
[unused21]
[unused22]
[unused23]
[unused24]
[unused25]
[unused26]
[unused27]
[unused28]
[unused29]
[unused30]
[unused31]
[unused32]
[unused33]
[unused34]
[unused35]
[unused36]
[unused37]
[unused38]
[unused39]
[unused40]
[unused41]
[unused42]
[unused43]
[unused44]
[unused45]
[unused46]
[unused47]
[unused48]
[unused49]
[unused50]
[unused51]
[unused52]
[unused53]
[unused54]
[unused55]
[unused56]
[unused57]
[unused58]
[unused59]
[unused60]
[unused61]
[unused62]
[unused63]
[unused64]
[unused65]
[unused66]
[unused67]
[unused68]
[unused69]
[unused70]
[unused71]
[unused72]
[unused73]
[unused74]
[unused75]
[unused76]
[unused77]
[unused78]
[unused79]
[unused80]
[unused81]
[unused82]
[unused83]
[unused84]
[unused85]
[unused86]
[unused87]
[unused88]
[unused89]
[unused90]
[unused91]
[unused92]
[unused93]
[unused94]
[unused95]
[unused96]
[unused97]
[unused98]
[unused99]
[unused100]
[unused101]
[unused102]
[unused103]
[unused104]
[unused105]
[unused106]
[unused107]
[unused108]
[unused109]
[unused110]
[unused111]
[unused112]
[unused113]
[unused114]
[unused115]
[unused116]
[unused117]
[unused118]
[unused119]
[unused120]
[unused121]
[unused122]
[unused123]
[unused124]
[unused125]
[unused126]
[unused127]
[unused128]
[unused129]
[unused130]
[unused131]
[unused132]
[unused133]
[unused134]
[unused135]
[unused136]
[unused137]
[unused138]
[unused139]
[unused140]
[unused141]
[unused142]
[unused143]
[unused144]
[unused145]
[unused146]
[unused147]
[unused148]
[unused149]
[unused150]
[unused151]
[unused152]
[unused153]
[unused154]
[unused155]
[unused156]
[unused157]
[unused158]
[unused159]
[unused160]
[unused161]
[unused162]
[unused163]
[unused164]
[unused165]
[unused166]
[unused167]
[unused168]
[unused169]
[unused170]
[unused171]
[unused172]
[unused173]
[unused174]
[unused175]
[unused176]
[unused177]
[unused178]
[unused179]
[unused180]
[unused181]
[unused182]
[unused183]
[unused184]
[unused185]
[unused186]
[unused187]
[unused188]
[unused189]
[unused190]
[unused191]
[unused192]
[unused193]
[unused194]
[unused195]
[unused196]
[unused197]
[unused198]
[unused199]
[unused200]
[unused201]
[unused202]
[unused203]
[unused204]
[unused205]
[unused206]
[unused207]
[unused208]
[unused209]
[unused210]
[unused211]
[unused212]
[unused213]
[unused214]
[unused215]
[unused216]
[unused217]
[unused218]
[unused219]
[unused220]
[unused221]
[unused222]
[unused223]
[unused224]
[unused225]
[unused226]
[unused227]
[unused228]
[unused229]
[unused230]
[unused231]
[unused232]
[unused233]
[unused234]
[unused235]
[unused236]
[unused237]
[unused238]
[unused239]
[unused240]
[unused241]
[unused242]
[unused243]
[unused244]
[unused245]
[unused246]
[unused247]
[unused248]
[unused249]
[unused250]
[unused251]
[unused252]
[unused253]
[unused254]
[unused255]
[unused256]
[unused257]
[unused258]
[unused259]
[unused260]
[unused261]
[unused262]
[unused263]
[unused264]
[unused265]
[unused266]
[unused267]
[unused268]
[unused269]
[unused270]
[unused271]
[unused272]
[unused273]
[unused274]
[unused275]
[unused276]
[unused277]
[unused278]
[unused279]
[unused280]
[unused281]
[unused282]
[unused283]
[unused284]
[unused285]
[unused286]
[unused287]
[unused288]
[unused289]
[unused290]
[unused291]
[unused292]
[unused293]
[unused294]
[unused295]
[unused296]
[unused297]
[unused298]
[unused299]
[unused300]
[unused301]
[unused302]
[unused303]
[unused304]
[unused305]
[unused306]
[unused307]
[unused308]
[unused309]
[unused310]
[unused311]
[unused312]
[unused313]
[unused314]
[unused315]
[unused316]
[unused317]
[unused318]
[unused319]
[unused320]
[unused321]
[unused322]
[unused323]
[unused324]
[unused325]
[unused326]
[unused327]
[unused328]
[unused329]
[unused330]
[unused331]
[unused332]
[unused333]
[unused334]
[unused335]
[unused336]
[unused337]
[unused338]
[unused339]
[unused340]
[unused341]
[unused342]
[unused343]
[unused344]
[unused345]
[unused346]
[unused347]
[unused348]
[unused349]
[unused350]
[unused351]
[unused352]
[unused353]
[unused354]
[unused355]
[unused356]
[unused357]
[unused358]
[unused359]
[unused360]
[unused361]
[unused362]
[unused363]
[unused364]
[unused365]
[unused366]
[unused367]
[unused368]
[unused369]
[unused370]
[unused371]
[unused372]
[unused373]
[unused374]
[unused375]
[unused376]
[unused377]
[unused378]
[unused379]
[unused380]
[unused381]
[unused382]
[unused383]
[unused384]
[unused385]
[unused386]
[unused387]
[unused388]
[unused389]
[unused390]
[unused391]
[unused392]
[unused393]
[unused394]
[unused395]
[unused396]
[unused397]
[unused398]
[unused399]
[unused400]
[unused401]
[unused402]
[unused403]
[unused404]
[unused405]
[unused406]
[unused407]
[unused408]
[unused409]
[unused410]
[unused411]
[unused412]
[unused413]
[unused414]
[unused415]
[unused416]
[unused417]
[unused418]
[unused419]
[unused420]
[unused421]
[unused422]
[unused423]
[unused424]
[unused425]
[unused426]
[unused427]
[unused428]
[unused429]
[unused430]
[unused431]
[unused432]
[unused433]
[unused434]
[unused435]
[unused436]
[unused437]
[unused438]
[unused439]
[unused440]
[unused441]
[unused442]
[unused443]
[unused444]
[unused445]
[unused446]
[unused447]
[unused448]
[unused449]
[unused450]
[unused451]
[unused452]
[unused453]
[unused454]
[unused455]
[unused456]
[unused457]
[unused458]
[unused459]
[unused460]
[unused461]
[unused462]
[unused463]
[unused464]
[unused465]
[unused466]
[unused467]
[unused468]
[unused469]
[unused470]
[unused471]
[unused472]
[unused473]
[unused474]
[unused475]
[unused476]
[unused477]
[unused478]
[unused479]
[unused480]
[unused481]
[unused482]
[unused483]
[unused484]
[unused485]
[unused486]
[unused487]
[unused488]
[unused489]
[unused490]
[unused491]
[unused492]
[unused493]
[unused494]
[unused495]
[unused496]
[unused497]
[unused498]
[unused499]
[unused500]
[unused501]
[unused502]
[unused503]
[unused504]
[unused505]
[unused506]
[unused507]
[unused508]
[unused509]
[unused510]
[unused511]
[unused512]
[unused513]
[unused514]
[unused515]
[unused516]
[unused517]
[unused518]
[unused519]
[unused520]
[unused521]
[unused522]
[unused523]
[unused524]
[unused525]
[unused526]
[unused527]
[unused528]
[unused529]
[unused530]
[unused531]
[unused532]
[unused533]
[unused534]
[unused535]
[unused536]
[unused537]
[unused538]
[unused539]
[unused540]
[unused541]
[unused542]
[unused543]
[unused544]
[unused545]
[unused546]
[unused547]
[unused548]
[unused549]
[unused550]
[unused551]
[unused552]
[unused553]
[unused554]
[unused555]
[unused556]
[unused557]
[unused558]
[unused559]
[unused560]
[unused561]
[unused562]
[unused563]
[unused564]
[unused565]
[unused566]
[unused567]
[unused568]
[unused569]
[unused570]
[unused571]
[unused572]
[unused573]
[unused574]
[unused575]
[unused576]
[unused577]
[unused578]
[unused579]
[unused580]
[unused581]
[unused582]
[unused583]
[unused584]
[unused585]
[unused586]
[unused587]
[unused588]
[unused589]
[unused590]
[unused591]
[unused592]
[unused593]
[unused594]
[unused595]
[unused596]
[unused597]
[unused598]
[unused599]
[unused600]
[unused601]
[unused602]
[unused603]
[unused604]
[unused605]
[unused606]
[unused607]
[unused608]
[unused609]
[unused610]
[unused611]
[unused612]
[unused613]
[unused614]
[unused615]
[unused616]
[unused617]
[unused618]
[unused619]
[unused620]
[unused621]
[unused622]
[unused623]
[unused624]
[unused625]
[unused626]
[unused627]
[unused628]
[unused629]
[unused630]
[unused631]
[unused632]
[unused633]
[unused634]
[unused635]
[unused636]
[unused637]
[unused638]
[unused639]
[unused640]
[unused641]
[unused642]
[unused643]
[unused644]
[unused645]
[unused646]
[unused647]
[unused648]
[unused649]
[unused650]
[unused651]
[unused652]
[unused653]
[unused654]
[unused655]
[unused656]
[unused657]
[unused658]
[unused659]
[unused660]
[unused661]
[unused662]
[unused663]
[unused664]
[unused665]
[unused666]
[unused667]
[unused668]
[unused669]
[unused670]
[unused671]
[unused672]
[unused673]
[unused674]
[unused675]
[unused676]
[unused677]
[unused678]
[unused679]
[unused680]
[unused681]
[unused682]
[unused683]
[unused684]
[unused685]
[unused686]
[unused687]
[unused688]
[unused689]
[unused690]
[unused691]
[unused692]
[unused693]
[unused694]
[unused695]
[unused696]
[unused697]
[unused698]
[unused699]
[unused700]
[unused701]
[unused702]
[unused703]
[unused704]
[unused705]
[unused706]
[unused707]
[unused708]
[unused709]
[unused710]
[unused711]
[unused712]
[unused713]
[unused714]
[unused715]
[unused716]
[unused717]
[unused718]
[unused719]
[unused720]
[unused721]
[unused722]
[unused723]
[unused724]
[unused725]
[unused726]
[unused727]
[unused728]
[unused729]
[unused730]
[unused731]
[unused732]
[unused733]
[unused734]
[unused735]
[unused736]
[unused737]
[unused738]
[unused739]
[unused740]
[unused741]
[unused742]
[unused743]
[unused744]
[unused745]
[unused746]
[unused747]
[unused748]
[unused749]
[unused750]
[unused751]
[unused752]
[unused753]
[unused754]
[unused755]
[unused756]
[unused757]
[unused758]
[unused759]
[unused760]
[unused761]
[unused762]
[unused763]
[unused764]
[unused765]
[unused766]
[unused767]
[unused768]
[unused769]
[unused770]
[unused771]
[unused772]
[unused773]
[unused774]
[unused775]
[unused776]
[unused777]
[unused778]
[unused779]
[unused780]
[unused781]
[unused782]
[unused783]
[unused784]
[unused785]
[unused786]
[unused787]
[unused788]
[unused789]
[unused790]
[unused791]
[unused792]
[unused793]
[unused794]
[unused795]
[unused796]
[unused797]
[unused798]
[unused799]
[unused800]
[unused801]
[unused802]
[unused803]
[unused804]
[unused805]
[unused806]
[unused807]
[unused808]
[unused809]
[unused810]
[unused811]
[unused812]
[unused813]
[unused814]
[unused815]
[unused816]
[unused817]
[unused818]
[unused819]
[unused820]
[unused821]
[unused822]
[unused823]
[unused824]
[unused825]
[unused826]
[unused827]
[unused828]
[unused829]
[unused830]
[unused831]
[unused832]
[unused833]
[unused834]
[unused835]
[unused836]
[unused837]
[unused838]
[unused839]
[unused840]
[unused841]
[unused842]
[unused843]
[unused844]
[unused845]
[unused846]
[unused847]
[unused848]
[unused849]
[unused850]
[unused851]
[unused852]
[unused853]
[unused854]
[unused855]
[unused856]
[unused857]
[unused858]
[unused859]
[unused860]
[unused861]
[unused862]
[unused863]
[unused864]
[unused865]
[unused866]
[unused867]
[unused868]
[unused869]
[unused870]
[unused871]
[unused872]
[unused873]
[unused874]
[unused875]
[unused876]
[unused877]
[unused878]
[unused879]
[unused880]
[unused881]
[unused882]
[unused883]
[unused884]
[unused885]
[unused886]
[unused887]
[unused888]
[unused889]
[unused890]
[unused891]
[unused892]
[unused893]
[unused894]
[unused895]
[unused896]
[unused897]
[unused898]
[unused899]
[unused900]
[unused901]
[unused902]
[unused903]
[unused904]
[unused905]
[unused906]
[unused907]
[unused908]
[unused909]
[unused910]
[unused911]
[unused912]
[unused913]
[unused914]
[unused915]
[unused916]
[unused917]
[unused918]
[unused919]
[unused920]
[unused921]
[unused922]
[unused923]
[unused924]
[unused925]
[unused926]
[unused927]
[unused928]
[unused929]
[unused930]
[unused931]
[unused932]
[unused933]
[unused934]
[unused935]
[unused936]
[unused937]
[unused938]
[unused939]
[unused940]
[unused941]
[unused942]
[unused943]
[unused944]
[unused945]
[unused946]
[unused947]
[unused948]
[unused949]
[unused950]
[unused951]
[unused952]
[unused953]
[unused954]
[unused955]
[unused956]
[unused957]
[unused958]
[unused959]
[unused960]
[unused961]
[unused962]
[unused963]
[unused964]
[unused965]
[unused966]
[unused967]
[unused968]
[unused969]
[unused970]
[unused971]
[unused972]
[unused973]
[unused974]
[unused975]
[unused976]
[unused977]
[unused978]
[unused979]
[unused980]
[unused981]
[unused982]
[unused983]
[unused984]
[unused985]
[unused986]
[unused987]
[unused988]
[unused989]
[unused990]
[unused991]
[unused992]
[unused993]
[unused994]
[unused995]
[unused996]
[unused997]
[unused998]
[unused999]
[UNK]
[CLS]
[SEP]
[MASK]
!
"
#
$
%
&
'
(
)
*
+
,
-
.
/
0
1
2
3
4
5
6
7
8
9
:
;
<
=
>
?
@
[
\
]
^
_
`
a
b
c
d
e
f
g
h
i
j
k
l
m
n
o
p
q
r
s
t
u
v
w
x
y
z
{
|
}
~
¡
¢
£
¤
¥
¦
§
¨
©
ª
«
¬
®
¯
°
±
²
³
´
µ
¶
·
¸
¹
º
»
¼
½
¾
¿
×
ß
æ
ð
÷
ø
þ
đ
ı
ł
œ
ƒ
ɑ
ɔ
ə
ɛ
ʹ
ʺ
ʿ
ˆ
ˇ
ˈ
ː
˚
˜
ˮ
ͼ
α
β
γ
δ
ε
ζ
η
θ
ι
κ
λ
μ
ν
ξ
ο
π
ρ
ς
σ
τ
υ
φ
χ
ψ
ω
а
б
в
г
д
е
ж
з
и
к
л
м
н
о
п
р
с
т
у
ф
х
ц
ч
ш
щ
ъ
ы
ь
э
ю
я
ђ
є
ѕ
і
ј
љ
ґ
һ
ա
ն
ո
ր
א
ב
ג
ד
ה
ו
ז
ח
ט
י
כ
ל
ם
מ
ן
נ
ס
ע
פ
צ
ק
ר
ש
ת
،
ء
ا
ب
ة
ت
ث
ج
ح
خ
د
ذ
ر
ز
س
ش
ص
ض
ط
ظ
ع
غ
ـ
ف
ق
ك
ل
م
ن
ه
و
ى
ي
پ
چ
ک
گ
ی
ە
क
ग
ज
त
द
न
प
ब
म
य
र
ल
व
स
ह
ा
ि
ी
ो
ক
ন
ব
য
র
ল
া
ি
ে
க
த
ப
ம
ர
ா
ி
ு
ാ
ി
ก
ข
ค
ง
จ
ช
ด
ต
ท
น
บ
ป
พ
ม
ย
ร
ล
ว
ส
ห
อ
ะ
า
เ
แ
โ
ไ
་
ა
ე
ი
ლ
მ
ნ
ო
რ
ს
ᄀ
ᄂ
ᄃ
ᄅ
ᄆ
ᄇ
ᄉ
ᄋ
ᄌ
ᄎ
ᄏ
ᄐ
ᄑ
ᄒ
ᅡ
ᅢ
ᅥ
ᅦ
ᅧ
ᅩ
ᅪ
ᅬ
ᅭ
ᅮ
ᅲ
ᅳ
ᅴ
ᅵ
ᆨ
ᆫ
ᆯ
ᆷ
ᆸ
ᆼ
ᐈ
‐
‑
‒
–
—
‘
’
‚
“
”
„
†
‡
•
…
‰
′
″
‹
›
₂
₨
€
℃
№
™
←
↑
→
↓
⇒
−
√
≈
≤
≥
─
■
□
▪
▫
▲
▶
►
▻
▼
◊
○
●
☀
★
☆
☺
♀
♡
♣
♥
♦
✅
✌
✓
✔
✚
✨
✭
✰
❄
❑
❗
❤
➔
⠀
⭐
ⰰ
、
。
「
」
【
】
あ
い
う
え
お
か
き
く
け
こ
さ
し
す
せ
そ
た
ち
っ
つ
て
と
な
に
の
は
へ
ま
み
め
も
や
よ
ら
り
る
れ
わ
を
ん
ア
ィ
イ
ウ
ェ
エ
オ
カ
キ
ク
ケ
コ
サ
シ
ス
セ
タ
チ
ッ
ツ
テ
ト
ナ
ニ
ネ
ハ
ヒ
フ
ヘ
ホ
マ
ミ
ム
メ
モ
ャ
ュ
ョ
ラ
リ
ル
レ
ロ
ワ
ン
・
ー
䄀
䈀
䔀
䜀
䠀
䤀
䬀
䰀
䴀
一
七
万
三
上
下
不
与
专
世
业
东
两
个
中
为
主
么
之
乐
九
也
乡
买
了
争
事
二
于
五
亚
交
产
京
人
什
今
他
仙
代
以
们
件
伀
会
传
位
体
何
作
你
使
供
保
信
元
光
免
入
全
八
公
六
关
其
内
円
册
准
出
刀
分
划
创
利
到
制
前
力
加
务
动
势
動
匀
化
北
区
十
华
单
南
博
原
县
及
双
发
取
口
古
可
台
号
司
吀
合
同
名
后
吗
和
品
哪
唀
商
器
四
回
国
图
在
地
场
址
坛
城
堂
場
外
多
大
天
太
头
奖
女
好
如
姐
娱
婆
子
字
学
安
官
定
宝
实
客
家
富
对
将
小
少
就
尾
展
山
島
川
州
工
巧
市
布
平
年
广
庆
库
店
度
建
开
式
当
录
彩
影
律
得
微
心
必
忙
快
怎
思
性
情
意
感
戏
成
我
户
所
手
打
技
投
报
拉
持
挂
指
推
提
播
教
数
文
料
斯
新
方
无
日
时
明
星
是
時
更
最
月
有
服
期
木
未
本
机
杀
村
来
東
林
枚
果
校
样
格
業
次
正
比
民
氓
気
水
江
河
法
波
注
活
流
测
海
清
港
游
湖
源
澳
点
爱
片
版
牌
牛
物
特
狗
玄
王
玩
现
球
理
生
用
田
电
画
界
登
白
百
的
皇
目
盲
直
相
看
県
真
着
知
石
码
社
神
票
福
科
程
空
立
站
第
等
算
管
精
系
红
线
组
经
结
网
美
群
老
者
肖
能
自
色
花
英
行
表
西
要
見
规
视
解
語
计
记
论
设
诗
财
费
资
赌
赛
赢
走
超
足
跑
路
身
车
软
载
过
这
进
送
选
通
道
部
都
酶
里
重
量
金
钱
镇
长
間
门
阳
际
限
院
集
霸
青
面
音
预
频
食
香
马
高
黄
龙
ﬁ
ﬂ
！
（
）
，
：
？
ｩ
ﾞ
￼
🌟
🌸
🎉
🏻
🏼
🏽
👊
👌
👍
👏
💕
💖
💗
💙
💚
💛
💜
💪
🔥
😀
😁
😂
😃
😄
😅
😆
😉
😊
😋
😍
😎
😘
😛
😜
😦
😬
😱
😳
🙁
🙂
🙄
🙈
🙌
🙏
🤔
🤗
##o
##s
##t
##a
##d
##r
##e
##h
##i
##c
##m
##ø
##p
##b
##l
##k
##n
##u
##g
##v
##j
##2
##0
##1
##y
##z
##q
##f
##8
##æ
##x
##w
##3
##7
##5
##9
##4
##ι
##κ
##ο
##υ
##е
##г
##о
##в
##м
##ا
##گ
##و
##ي
##ه
##6
##ᅩ
##´
##т
##с
##а
##л
##я
##ˈ
##€
##¤
##ل
##ر
##م
##ن
##ج
##ͼ
##ю
##ч
##и
##😍
##™
##¬
##た
##し
##ち
##か
##р
##н
##к
##¹
##¦
##ض
##ب
##ع
##ت
##π
##λ
##ε
##σ
##τ
##η
##α
##ν
##х
##д
##у
##ร
##ะ
##เ
##ท
##จ
##น
##る
##の
##を
##б
##🤗
##ж
##ा
##ल
##ш
##ᄎ
##ᅢ
##ь
##ח
##ש
##ב
##י
##ם
##ช
##ð
##¨
##φ
##ω
##β
##ц
##ᅥ
##ᆼ
##ᄉ
##ᅡ
##ᆫ
##ᄋ
##ᅳ
##ᆸ
##°
##と
##め
##れ
##¸
##ی
##п
##і
##ı
##よ
##く
##あ
##د
##ق
##て
##お
##こ
##す
##º
##÷
##ə
##ה
##ת
##פ
##ו
##ρ
##γ
##ς
##♥
##💗
##ʹ
##س
##غ
##さ
##は
##ി
##ാ
##ハ
##ー
##ト
##®
##ᄃ
##メ
##ン
##タ
##ム
##з
##×
##っ
##า
##ย
##ด
##ค
##い
##χ
##ы
##œ
##ف
##ᄌ
##わ
##り
##に
##ـ
##پ
##ە
##ł
##💜
##❤
##💛
##💚
##👌
##え
##ʺ
##💪
##🏼
##ま
##ル
##フ
##²
##😉
##ˇ
##−
##😱
##😜
##ล
##พ
##บ
##ห
##ข
##อ
##ว
##ม
##ต
##ก
##แ
##シ
##カ
##ß
##🌟
##✓
##ᄀ
##þ
##ง
##ส
##😄
##🌸
##£
##う
##も
##な
##ら
##¥
##ة
##ґ
##щ
##👏
##ᆯ
##ᄐ
##ᄆ
##ᄂ
##ᅵ
##き
##ო
##ح
##ᄅ
##ᅦ
##✨
##ز
##💕
##け
##ป
##ן
##ф
##ᅮ
##ᄇ
##ワ
##מ
##ל
##ᅪ
##ᄒ
##ᆨ
##ᄑ
##ᄏ
##ˆ
##ᆷ
##サ
##イ
##ク
##ョ
##ッ
##क
##स
##ी
##μ
##ᅧ
##โ
##ไ
##ɔ
##ე
##რ
##მ
##ნ
##म
##न
##🔥
##ר
##ホ
##コ
##ј
##♀
##ি
##ে
##া
##র
##せ
##ん
##テ
##🙂
##һ
##ک
##😃
##ア
##レ
##ス
##ע
##👍
##🎉
##ল
##ª
##🏻
##つ
##ヘ
##ா
##ி
##ص
##خ
##ء
##ד
##ס
##リ
##δ
##オ
##ロ
##モ
##ك
##😊
##ъ
##र
##►
##😛
##ப
##³
##🙏
##ィ
##ネ
##😘
##©
##ش
##ѕ
##є
##チ
##ナ
##א
##צ
##נ
##ラ
##đ
##≈
##¼
##ウ
##э
##ﬁ
##マ
##க
##ு
##ம
##ヒ
##💖
##¯
##ケ
##½
##😂
##त
##🏽
##キ
##ন
##ব
##য
##ュ
##ა
##ს
##ი
##द
##த
##→
##ミ
##ャ
##ो
##य
##😳
##ब
##エ
##ツ
##😎
##ƒ
##ʿ
##☺
##ז
##🙄
##ա
##ն
##✔
##ﬂ
##ニ
##ि
##ث
##ى
##☀
##😅
##ψ
##ξ
##ᅬ
##ᅭ
##ェ
##そ
##⠀
##ᅲ
##µ
##ր
##љ
##😋
##や
##ர
##♡
##💙
##ᅴ
##ظ
##ط
##ђ
##🙈
##¢
##ذ
##כ
##व
##ק
##˜
##ո
##ज
##❗
##چ
##♦
##♣
##😀
##み
##↓
##■
##ɑ
##ː
##☆
##±
##ग
##ˮ
##😁
##θ
##🙁
##ט
##ლ
##セ
##ג
##ɛ
##○
##へ
##😦
##ক
##●
##✌
##¾
##प
##ζ
##👊
##ह
##🙌
##⭐
##˚
##≤
##😬
##ﾞ
##√
##￼
##❄
##№
##😆
##▶
##₂
##✚
##🤔
##↑
##□
##✅
##℃
##←
##★
##⇒
##─
##▪
##≥
##◊
##▼
##▻
##▫
##✭
##ｩ
##▲
##✰
##ⰰ
##➔
##❑
##er
##en
##ar
##an
##or
##et
##in
##ll
##tt
##st
##ig
##om
##ed
##ag
##de
for
##on
##ing
##al
##ch
##at
##el
##sk
en
och
ti
det
##ra
ar
pa
in
vi
som
##es
med
att
sa
##te
og
st
##kt
##re
av
sk
##un
##der
##ck
har
var
##as
an
##ol
##and
den
##na
##ter
de
##ning
##ver
##pp
##il
##lig
##ik
##sa
er
##is
om
##ad
##it
##eg
##ro
till
##em
##ang
jag
til
bl
##iv
kan
at
##id
##all
##am
##ade
##ur
du
##ion
ut
##isk
##att
##ne
##ast
##og
men
##ot
##for
##ller
man
kom
##den
af
##se
##ke
##est
fr
##ok
inte
##ør
##are
##us
ett
sp
##ent
all
##ut
der
un
##od
##ist
sam
##mer
##av
##ru
##ul
han
##ens
eller
##ta
##itt
se
##var
##igt
##ort
##het
##ande
be
##le
##ell
##ill
##ser
nar
min
fra
##ak
##fter
##gen
pro
##ær
over
##kke
fin
##ss
##ska
upp
hel
##ker
##ger
##art
##ir
hv
fl
##ud
##sp
al
##ri
##sen
kl
kon
##ation
under
##ov
##um
et
##ende
##yg
ny
##sl
sig
fa
and
##und
##ft
##ma
ikke
20
sl
tr
efter
##yck
##op
##ej
##ord
gr
ska
##ev
##ere
##os
bar
##ant
##ns
jeg
fran
far
##ull
pr
vil
##ligt
##ff
##del
kun
##ge
stor
da
pl
per
del
nag
##bb
nu
ud
##ige
val
dag
##ett
ha
##bl
##ek
##ost
kr
##im
op
##dag
gen
##ans
##ick
dar
##yr
##ber
##je
##bet
kv
##ark
##ene
li
##dr
##ic
##ling
##yn
sj
##ede
sin
##ner
mo
##arna
kommer
or
tid
vara
##sta
mig
ta
##ock
##ske
##per
##son
mang
lag
komm
##ste
##ga
ma
bor
##hol
##ier
##aste
##kl
sv
##ass
din
gj
br
##ess
##else
##gar
ver
vill
hj
##sm
lang
19
##eder
##opp
##men
gor
##be
mot
ind
##va
##ningen
##tid
tra
mer
##ket
jo
##sam
ann
##ks
beh
reg
##me
##da
##itet
ved
skal
bil
##00
##ikt
dig
##ust
201
##jon
sex
væ
vid
sen
re
alla
##ken
##ann
bet
finns
##ika
bra
##pl
##alt
fram
sm
blev
##ater
##æn
ser
god
##age
hon
opp
hur
##ka
##ulle
gar
bru
##oll
lite
##ycket
ex
inn
##ekt
##iska
sag
sy
##ats
ch
th
##ie
skulle
##org
##satt
##vis
##ott
##jer
mycket
bli
##edan
##iga
gang
hav
ty
##ring
person
##ia
##era
##kel
bara
ogsa
##eck
##tal
##la
##ien
ber
vad
##hed
##det
nog
##eter
blir
ol
genom
##net
hand
##ering
best
##ug
##ja
gl
hem
nor
##liga
aven
##jt
res
ock
##du
her
fort
##ive
##ligen
##ster
dem
ocksa
andra
##bil
anv
van
##jen
##ack
##gang
helt
##atur
lig
sel
##ci
fors
dat
hade
hvor
##som
fol
##lag
##tr
##alv
##ygg
##akt
sid
allt
mal
##ys
##far
detta
##dre
bes
##kar
##hall
##ult
##ningar
før
være
kommun
vis
##ler
##ds
no
##skap
##iske
##ce
##mar
##dt
##ets
arbet
land
des
ga
##over
on
##stall
tan
par
mell
of
##gi
##rem
##get
##uk
spel
##land
ju
svar
##sb
kvin
mat
satt
##ytt
por
dan
##form
##pa
##rev
##riv
samt
##ala
##des
hen
tro
##ram
mar
##if
utan
##man
sn
vin
##erna
##atis
selv
##dig
##æl
fil
liv
le
##enter
oss
##pr
akt
inter
lan
##unkt
di
bade
##sn
tj
sven
to
hog
##ingen
form
nagon
##bar
##io
##erne
##yl
so
##amp
manga
barn
##nings
el
##bej
##ale
sedan
##øl
##iskt
##gr
verk
alle
kra
str
forsta
kar
beg
##lige
##kom
hu
##aget
dette
##nas
mil
vær
tv
forsk
##yd
gratis
##br
su
nagot
##ap
##ings
hall
gra
mu
meg
##ader
##aden
dr
18
gora
hun
igen
ble
##ine
##lighet
##unt
hos
##dom
sitt
produ
##kon
ans
##ret
tva
pol
##asta
##nes
##agen
##yk
inne
fick
##elsen
200
jobb
kor
hø
##eb
forb
ligger
##lar
10
##app
##ote
idag
vet
end
##amil
##øn
sver
seg
andre
anvand
hvis
sjalv
##ef
dejt
led
ni
##iver
##elser
te
##tem
##ide
denna
ratt
tre
##ab
rad
mest
skol
bed
kop
##fr
hitt
kont
##elig
denne
besk
bland
##rupp
##nar
##øre
dom
olika
fast
utv
##ym
mange
##pt
mass
hela
famil
va
borj
##ativ
forst
rikt
im
saker
am
##æg
bo
mark
eg
ingen
ad
lar
vikt
kall
##van
nagra
fakt
star
hans
by
frem
##pe
las
##aren
##jekt
gam
##els
##hus
##stem
##lev
fun
##ager
slut
ab
##min
plan
##takt
tal
sna
vir
maste
##inger
jul
##pel
mor
##holm
pen
##iser
##fatt
##ighet
##ow
##ten
kj
##ikk
nya
runt
##sker
foret
##mark
##ille
##ades
##ju
ned
##fil
sal
##vud
lin
##øb
la
ro
##asjon
##nen
##ister
##ød
ja
meget
##fl
##ioner
##ninger
##utt
ant
hjal
##met
##aller
inom
##val
kn
grund
natur
tar
ham
##lem
varit
produkt
##cer
##giv
frag
sol
##verk
enkel
##atten
##rum
tran
##ven
##led
eu
nat
##ps
##ts
kanske
##str
vag
mellan
lik
##hand
hal
##tra
the
fatt
bok
ly
tilb
moj
##sc
etter
sverige
##sten
alt
huvud
tyck
hol
ord
syn
red
tor
15
behov
##pro
##bord
##este
hus
##kte
##ella
na
##blem
##ionen
##elt
##enn
he
dessa
just
fot
##digt
sø
##utom
kunne
bill
##olog
##yll
omra
##ider
tur
mitt
##heten
mod
##borg
ur
##dan
vide
##ont
##alen
##før
nord
##istor
sh
ater
nam
bak
vilket
arbej
##vik
##iner
vor
##hold
##ata
stock
12
kort
veck
##iet
spe
##bo
mann
innan
egen
lø
lever
kontakt
##æk
hver
dess
##fall
mere
em
##idt
##rekt
##orde
##stand
stockholm
annat
##empel
inform
sammen
dis
ner
##gram
##nad
stad
ek
bro
godt
tag
##ator
##ran
##ara
##ial
##sv
##ha
##ard
pris
##iva
mindre
alltid
tiden
##ationer
ge
##rakt
##nem
vel
problem
stora
##orna
##sson
ev
##ian
kro
##ida
##oj
lu
##med
fall
vart
lok
batt
porr
mus
ca
flere
##sak
tek
##esta
dejting
go
sina
ger
basta
##skar
speci
bør
kvinn
##kten
##aka
styr
##sh
tror
ban
svenska
##par
medlem
##yt
##ander
massage
behover
##di
polit
aldr
folk
##snitt
##gt
##igare
##ert
##fol
##anden
mm
°c
##anska
##cent
behand
art
sager
##slag
komp
##ue
sik
kost
##tter
porn
koll
ville
bad
##mal
##rat
we
##jo
varje
off
eftersom
pre
##ind
##ester
17
skriv
kval
kunna
bare
11
bygg
konst
føl
tog
30
stall
org
eng
varm
jan
samma
varl
##delse
##ct
km
##ffekt
##ederbord
##ina
havde
co
esc
ret
##ære
##ari
ste
bort
blog
fant
første
aldrig
onl
##jud
gick
fi
gjort
##rik
##vær
utveck
samtid
##arbet
tjej
##elle
sak
hor
##red
##ipp
##vet
lo
flera
##ve
vores
histor
##ubb
##bild
##oker
16
stort
sist
nye
hopp
sma
byg
##by
stat
part
##berg
ele
deres
##uter
hjem
bliver
##unn
##peratur
##dens
com
##kv
lov
mis
dating
##fin
pass
##skil
##konom
latt
valdigt
start
hele
##tag
full
is
forv
mannisk
dock
riktigt
gener
inga
##ratt
trad
##rift
intr
gjorde
have
enligt
##etter
list
##heter
##alog
##øg
result
hvad
##iken
##skol
bilder
##las
tycker
app
##edel
##iten
rel
kunde
eks
stør
sc
snabb
online
ka
grupp
mø
##ip
information
##rang
store
galler
##orter
##adde
##iker
foretag
##under
film
##upp
inv
14
##anis
##andet
tel
##ars
pres
enkelt
ben
escort
##fe
nytt
##ob
##samm
ag
##heder
mina
battre
##lut
meter
rek
##river
##ember
##olig
kvar
noget
soci
fortsatt
##ordan
##hav
ter
##lagg
##ellt
tha
leg
##ice
kat
##orer
##raf
##ung
##rad
ditt
langt
##ite
tim
mon
##gifter
##atte
jam
##istr
mas
dagen
##ksom
bel
ren
my
vax
kron
##lingen
tekn
ne
bi
post
##øj
sadan
aktiv
##aler
effekt
##nade
øn
verkligen
##aster
euro
klar
##spl
krav
##ift
ingar
##iller
lat
##øm
svart
direkt
siden
sta
tillb
##oka
13
##sel
##vin
forl
stod
komma
hvordan
sit
uden
met
landet
ung
##jar
##mel
##ationen
lev
san
erb
svensk
##vag
anda
typ
os
læ
noen
haft
stu
disse
rum
tack
po
program
trakten
##arbej
ov
derfor
pu
skall
exempel
fem
##ukt
kur
ven
projekt
##stad
##dere
fler
lam
as
100
personer
##edet
mulig
inst
##ingar
hadde
##styr
redan
tidigare
##sammans
##bru
kvinnor
mid
nett
ansvar
##peraturen
int
tillsammans
##iter
deras
fred
##nat
cent
##beid
##orgon
son
##rade
##dent
genomsnitt
##mo
resultat
##sdag
##uss
##cis
hvil
manniskor
kult
##reg
via
##ition
##sfor
##spro
stra
manaden
##slut
bas
sar
##fer
##kes
pas
199
ener
##rukt
25
##rar
tem
##ren
bety
vand
dit
do
annan
##gor
##yra
omk
ok
##æt
##uld
lav
##jor
ang
ob
pat
##skab
beslut
antal
hjalp
lidt
vatten
fantast
##tte
##efon
##atser
hitta
kropp
hov
##rak
sjuk
video
##gende
kvalitet
stud
dam
disk
samme
nov
000
dina
##illa
køb
##oligt
##res
darfor
mand
##asin
##føl
##iden
joh
plats
##still
nær
fre
##of
gennem
honom
nogle
infor
lige
system
##temperaturen
##up
glad
ide
stand
##let
tillbaka
webb
ra
##bart
tjan
næ
beratt
ap
halv
##tern
danmark
##ald
liten
sov
familjen
ih
lyck
mag
noe
##leg
ak
funger
##ron
rund
medel
50
##fekt
regn
kna
ganska
ute
gav
verksam
høj
##drag
betal
vej
dra
henne
lange
gre
traff
kvall
storre
hemma
flytt
##ometer
unders
delen
kap
##kor
##stra
janu
ars
fø
nederbord
##kur
ofta
ul
##ies
##one
match
mojlighet
været
nok
menne
##læg
##ate
kul
##okus
titt
##jan
syd
brug
priv
bild
litt
hund
##ban
fan
##bland
##ond
##æng
##ay
##ellige
kal
ho
##sade
mater
saga
mill
gjenn
bid
jun
kultur
##ivt
##ads
gjennom
##lek
##ummer
dessutom
lika
##ograf
namn
##ins
##iss
##anter
##amma
##xt
foren
serv
dal
rom
##ilometer
##esten
egent
gu
aug
nast
viktig
krist
##ligere
##klar
dej
anal
faktiskt
kamp
topp
##spel
00
super
kraft
erfar
dog
omkring
##omm
rak
fokus
norge
##old
kanner
##sf
sang
mobil
##esser
##folk
pos
tjejer
folj
mellem
slakt
##eng
musik
##ons
unge
ror
fel
##ivet
snart
##kop
kø
hennes
sett
heller
intern
##erar
organis
##kan
nav
##erade
moder
funkt
inden
blive
anvanda
yo
aret
##gift
##ras
gote
##smal
##pet
##hor
tot
precis
##lad
##bel
goteborg
havet
fri
pop
cat
desig
##vand
kanns
##ags
bred
##kr
finans
##fors
ps
##ystem
sikker
innehall
##ivit
telefon
##ivers
vack
dy
##sch
pri
##jur
##otell
samhall
pengar
##entet
##grupp
lad
##illar
##saker
kontro
samtidigt
spør
##sattning
fordel
##icka
publ
##bro
klass
##dende
sommar
##arter
##ac
##bud
##dar
sæ
dk
dagar
sch
but
hin
##æll
mode
inget
livet
sw
und
innebar
cy
rik
begyn
##vid
##cept
gør
##stallet
gud
utbild
aldre
bag
##naden
omradet
kred
##gere
##eret
klart
tak
##dagen
hjæl
ting
##ub
vilken
juli
knull
side
bon
sand
fod
ganger
tom
langre
##gj
ram
##øy
##ænd
kopa
nastan
fordi
varfor
rigt
træ
##iger
dansk
##he
##alla
vissa
beskrev
##orn
insp
##atsen
kam
car
##ært
gode
##imat
extra
bud
borjar
##edes
##aga
august
juni
##end
istallet
helst
##ise
ring
rev
alltsa
fag
2017
omfatt
virksom
##ital
hot
artik
ko
##undet
produkter
##ium
hoppas
event
hoved
##jø
hotell
##int
##cc
##heden
##nader
##radet
tav
##kelig
univers
##iz
behandling
##ører
aller
senaste
##inn
annu
blivit
##atter
samman
##ternativ
perfekt
##aten
utfor
kons
dec
##ry
gott
procent
vidare
##rag
##als
punkt
##essen
aktivitet
fo
utt
senare
24
##erat
rapp
offent
##lys
##bygg
##fik
borjade
forhold
log
let
forskellige
jord
lj
slik
21
lak
ekonom
##anger
ønsker
##ong
##ph
##yndig
nem
ens
##ux
tillgang
##eringen
2018
ibland
##rett
udvik
##dann
skriver
##sikt
fik
##farande
sep
##ogen
dok
vilka
##staden
lille
test
minst
##ningarna
arbeid
uten
amer
##ument
erot
igar
life
maj
garna
skj
luft
prakt
sær
##gør
##ansk
skrev
##ich
nasta
##elses
deg
bek
##ank
mens
trots
sarskil
papp
elever
enn
komme
##ure
##raft
##ib
22
vant
hast
##ral
andet
gamla
bol
##ny
##nam
sagt
registr
sista
forut
ytter
net
okt
storsta
fore
haller
##band
nara
feb
##spunkt
spar
bost
##lø
##sid
##joner
sjal
hende
popul
198
vært
bal
##ham
40
lagen
##ders
anden
januari
fly
sing
##erad
##its
##smedel
dejtingsa
visar
##dater
fer
ungdom
rett
fortfarande
rundt
prø
##ity
skar
##ers
enda
ofte
##plan
##ffe
dine
præ
me
sitter
##ko
endast
##bol
##set
apr
usa
bev
aren
halla
børn
vare
##ække
narm
##ydd
##au
##juder
##pen
alternativ
##nads
forand
verden
##ledning
##esse
sine
##ions
##ht
dro
##alj
bedre
thai
##cka
gøre
kjø
free
##oc
blogg
natt
##egor
slaktet
norr
##lam
hy
kir
prof
fisk
danske
framfor
##rikt
gjør
hittar
gir
underarter
fal
energi
inkl
##drar
gangen
esk
beskrevs
##omen
besok
posit
resp
##hj
##handling
nr
sim
flyg
##gav
catalog
porno
bestam
tidligere
lasa
##pas
##sett
giver
##isen
2016
##sport
bestar
risk
##gjen
situ
##bin
ovr
mamma
gatt
inde
##ocker
##af
##ges
roll
##vs
listade
2015
først
tips
catalogue
##unden
inspir
##otter
jer
dejtings
knapp
##øde
##hl
pros
mye
klubb
fint
gro
psyk
kredit
##mor
##anske
invan
los
##igaste
##sin
lek
høy
197
casin
##gte
sund
fragor
ton
hva
bast
spela
##vard
##ligare
slapp
##fri
ihop
les
social
stø
##slo
anvander
nation
nej
væl
##kter
tred
kunder
chr
mel
##sted
engel
install
rej
fikk
altid
erbjud
##ober
nak
##estaur
##arer
##hver
sil
ry
kok
##nt
host
bu
visa
septem
tyd
##spr
dod
finde
grad
september
kommunen
skr
si
talet
restaur
soker
stan
it
delt
vok
fyra
##ly
sem
set
sidan
lær
kansl
##æv
stil
##eras
leder
dyr
fav
##eln
mennesker
eget
23
blevet
konkur
spr
mojligt
berg
handel
##lade
regler
matt
##ike
##sat
betyder
##anda
trev
material
##skin
vard
snabbt
##svar
##vej
fys
service
##gre
mellom
##lin
##sæ
##dejt
kvad
bry
tills
##uta
sport
lokal
##ender
##lo
##skriv
november
borde
farg
borja
flesta
sjalva
##delig
##sol
sør
invanare
tanker
2014
varlden
internet
internation
fina
timmar
##full
##film
sek
##nande
##lan
fyll
##aa
##ommen
kvadrat
web
verksamhet
skad
gem
##bor
##ikker
indiv
cir
##itut
skolan
oktober
ph
handlar
##til
forh
febru
blod
egentligen
##so
##nu
morgon
ku
bada
tank
##klart
haha
oster
##kort
##star
viktigt
##use
sted
kol
vanligt
stark
forbin
##igheter
arrang
privat
omgiv
##mes
tilf
amerik
vigt
sverig
jon
pe
ac
gillar
arbete
vaster
##imeter
sym
vecka
##skapet
jamfor
vak
ej
##her
##len
framtid
ljus
##sst
fest
forslag
april
##lex
rod
eta
skapa
skyl
##agg
beskriv
data
egna
deb
lilla
gol
mad
minuter
medan
favor
lug
læn
videre
skriva
tilbage
sker
##anser
tæn
##oter
rost
##dejting
ovan
cm
repr
port
dags
arbejde
perio
ins
##onen
vit
huvudstaden
##ca
universitet
##gard
##ifran
stol
made
##agt
##ksjon
større
norm
##ensen
opt
##elige
kyr
vanlig
hej
fas
alder
gerne
##ona
eventu
kring
##ix
##lever
tu
##lat
##ansen
bestem
##alet
hurt
ses
##kn
smak
brukar
hard
gjøre
viser
natet
196
##kning
soder
##oder
nød
##bara
##rer
##ror
funktion
him
##spekt
valja
##part
inf
tysk
design
emot
fe
##ologi
arbets
kroppen
aka
veckan
dagens
matte
ba
##co
massa
##rig
##ført
alskar
forfatt
december
##ish
maske
##ore
lagga
ark
malmo
ing
betyd
##les
proc
pal
sten
##raste
60
con
sok
gym
sida
##dte
elekt
sidste
samarbet
kvinder
##lla
borjan
bedste
vur
fraga
kopp
##enhav
skick
ten
karl
new
##ots
bur
delar
mars
utveckling
kompl
recept
skil
verkar
##off
2013
##oms
##huset
##nal
##vir
##enskap
##dene
##xx
stam
##ygt
yn
##visning
tage
id
##iel
last
vinter
valkom
prov
forel
fanns
##mid
spill
##ane
##plats
bank
kompet
bus
##annande
##andra
ifr
deltag
##llen
##kta
varmaste
dejta
region
##ash
##anga
dist
sommer
##samma
lagt
norsk
##kende
##produ
##sakring
hogsta
sall
alls
##verket
københav
sveriges
fj
##ytte
erbjuder
##po
søn
natdejting
komment
kallaste
rader
respekt
arsmedel
##enser
millimeter
##grund
##ateg
intress
roligt
medeltemperaturen
##dering
kronor
##rin
krig
samtidig
arsmedeltemperaturen
##bok
tredje
tanka
##sper
hum
vann
fon
26
profess
##port
##stid
vux
motor
stadig
##pon
##syn
annon
fantastisk
##kilometer
djur
vem
arets
forsvar
tillfall
eksempel
hander
augusti
##book
##ient
##uren
æn
indust
##deles
genomsnittlig
are
28
kvadratkilometer
oplev
krit
lun
trott
økonom
##ækker
##ension
ve
klas
##juk
øv
etabl
##stre
passar
##betal
forra
vol
jatt
27
utanfor
tri
vast
virkelig
##punkt
foral
##ement
##holder
vanner
##byg
max
##enhet
siger
laget
gamle
filmer
ass
gi
date
ske
##imer
mart
cl
myndig
grunn
ford
sarskilt
casino
johan
regel
##50
2012
hvert
##koping
christ
glas
bilen
##qu
utvik
##idor
sort
##eds
aktu
tren
arsn
miljo
torraste
igjen
kre
regnigaste
huvudsak
jobbet
##ode
arsnederbord
##skaper
allerede
sat
##utter
##ega
kommune
tjen
manader
omrade
oslo
mail
bruk
##splan
##komm
rigtig
avtal
centr
##derar
invest
pot
kanna
##ativt
##lagt
bruger
ris
kommit
face
##olit
vagen
##dera
skill
absol
arbejd
kvinna
ww
løs
fjer
##vast
##atta
tol
wh
fyl
frit
dere
forskning
ru
begr
ata
hvilket
lord
##ikation
synes
hjalpa
qu
##itter
bla
annet
##tre
avslut
can
stopp
gul
huset
mine
holl
genomfor
prat
##sd
forklar
forbindelse
##stol
##icin
presenter
##ach
uddann
##erer
filmen
yr
klock
varme
sakerhet
europa
##ild
span
teg
give
rekommen
ir
anstall
samtal
##oren
igang
sent
nogen
still
mak
norske
##tera
bruge
smart
forstar
##boll
##skan
##oende
##ink
##allet
##assage
boken
##za
mulighed
##atet
od
affar
##foren
##rack
tit
senere
##rav
##emot
lej
##ton
varandra
29
##20
skont
##sida
bord
##back
allman
2010
familj
##kk
akte
##arn
real
##oo
kategor
unga
narheten
taget
194
##satte
arbetar
##sad
upps
www
driv
##lands
bolig
dor
blandt
spiller
utr
foljande
ytterligare
svært
##ita
##sket
2011
##bef
##fte
totalt
##inge
##aljer
spørg
kunst
sur
##fa
skog
##jter
##samling
special
fir
faktisk
tagit
##sav
syg
##anta
##ith
sason
##ienter
##ias
##isering
##slaget
admin
tryck
##iteten
##edag
igenom
veta
veckor
interv
##isten
fores
##skl
##inst
tankte
##egg
##befolk
##atisk
ras
elev
eskort
anvands
hud
facebook
noj
skap
annars
barnet
traning
##legg
passer
utbildning
imorgon
mit
server
##ette
altsa
##ey
sakert
meddel
fredag
back
##itar
saledes
##ses
liksom
karakt
##har
defin
lyss
enkl
prin
##mon
spelar
ital
rent
stund
##ruktur
upplev
stk
##samt
hold
hom
profil
bruker
holde
damer
##chen
##eden
##serv
billig
fleste
satta
autom
31
resten
heter
len
manad
pla
bod
nødven
titta
hjel
forsoka
mott
barnen
slag
kand
trafik
kilometer
kund
fix
otr
niva
##veck
##ica
fro
##gaende
##iella
##gelig
vers
##lund
##blad
##frag
kart
visst
##varr
##lighed
blant
spørgsmal
kunskap
steg
mind
sant
nj
##ism
samf
drift
##eld
klader
##kant
ekstra
varde
##tes
inlagg
provin
fire
kolla
blom
##blik
fungerar
tex
##ighed
tyvarr
oper
##æm
##pass
tus
##ada
dokument
ident
sad
veg
neg
stem
##ange
##ations
københavn
bakom
innehaller
vist
betala
##oret
oav
lager
oft
besø
##smark
lamp
stedet
sprak
##sar
mænd
adr
skade
nedan
anbef
vest
sla
priser
aut
##atan
fær
ifran
##sing
##ork
##arbejde
##isjon
strateg
##bered
##isa
uppgifter
nyt
##agra
gall
tilbud
ed
##jol
##angen
##ælles
##ota
individ
##eligt
muligt
##ema
anvende
foto
lara
pan
grøn
forsok
link
##orden
forhall
største
spannande
handling
endnu
team
lys
##lysninger
personal
##ikke
række
##strom
##agare
februari
##ana
vardag
energ
80
klipp
toppen
klimat
traffa
spring
pra
typer
##staende
gæl
##æss
##namn
##vist
finder
##person
##tak
forbatt
##idler
fig
forandring
aktiviteter
mys
lon
##ola
193
##eta
##sex
helgen
aker
utom
andel
##iote
##ikken
ander
##ora
forek
##hov
tun
##lse
##gs
##agar
tradition
##ii
scen
later
##skri
hogre
500
ons
##dringer
##skade
##rott
##komst
industri
hjælp
##tering
##amm
70
##samhet
##ckt
parker
peter
##kvall
##mere
repres
miljø
##ligheten
jav
sty
analy
gange
rut
##dige
kontroller
cykel
fart
band
faet
teck
sier
##skud
isl
brand
enkelte
naturligt
erik
valg
spes
jobba
2009
speciellt
kvallen
stre
nummer
bø
public
transport
##lle
chat
dejtingsajt
##eren
rapport
rab
##varande
kry
prem
normalt
timer
hit
##asser
tager
rol
absolut
dermed
partner
begge
skatt
medicin
##umenter
glom
fyr
kil
##iat
##emang
##skatt
sexiga
varen
##ansvar
blitt
##igen
##platsen
platt
ungefar
fastighet
xxx
knulla
ful
følge
hjalper
##ften
folja
osv
##but
viagra
oppna
##derne
varier
mun
guld
195
##uppgifter
##pan
##ruk
##dring
terrang
naturlig
##bruk
##rust
dels
##mat
ein
dire
bat
mener
fotograf
jes
tok
##otten
standard
fragan
varld
bestall
siste
forsoker
mær
##ktion
middag
##mann
valjer
kombin
##bur
##bas
##okrat
191
mog
oavsett
##uden
##kret
cirka
##ifier
uppta
45
gemen
cam
plus
kontroll
##inde
sav
dju
##bes
##føre
fælles
text
forutom
kin
you
foretaget
integr
lund
##ugg
tilby
tand
bilden
kurs
90
uppdater
bog
milj
##arta
out
##sent
tab
ogon
vatt
supp
##unde
##derna
tanke
##seende
2008
##ake
givet
##tryk
forvar
##kont
trygg
char
##bliote
torsdag
kri
byen
sju
fortsatta
hvorfor
befin
##dde
slutt
thaim
tjanster
jap
##los
##ba
live
##ktor
35
lave
##dat
pappa
hjemmes
ovriga
læg
reser
##pper
gift
befolk
##skrift
muse
park
##bum
##satta
##asjoner
tyckte
arm
htt
findes
resa
##gene
##evel
navn
##andel
lamna
skon
slags
kaffe
platser
varldens
##otek
##vent
tavling
chef
væk
detaljer
goda
bedom
snygg
##uten
##sut
##delige
antalet
##sidan
otroligt
##aret
lop
oftast
##yttet
jour
##gn
nemlig
langs
italien
effektiv
arg
dage
##fyl
tillverk
not
viss
##arbeid
##delser
nan
spil
brev
vanliga
##stil
##skor
##valg
##gangen
skole
fang
resultatet
sasom
finner
salt
rapporter
gik
varmt
inklu
##eres
##ygga
uttr
##mær
##sg
##hen
stallet
ljud
##verkar
##skabet
længere
forsø
##ista
hør
##ule
##san
bygger
slutet
bem
##sæt
konse
dare
##itu
favorit
framst
thaimassage
udvikling
amator
nod
##orm
kræ
sikre
fjar
beror
forvalt
jobbar
##oven
hjart
klockan
bostad
##garden
ivag
##ante
politik
provinsen
##ben
##gas
prosjekt
spelare
administr
##agn
terrangen
miljoner
##giver
marker
##ych
forest
##hu
##foret
serien
trak
malet
frukt
samband
brun
darmed
bloggen
##ment
##tet
hoj
##oden
artikel
##gangspunkt
dejtingsidor
arbetet
##skaber
darefter
##ific
hens
jak
##skad
gravid
yngre
offentlig
godk
seks
fu
vilja
##ep
##iale
##fyll
diskuter
sann
##erte
tat
dejtingsajter
brost
princi
##raden
ill
ost
##iens
vas
##lede
billeder
arbeta
morgen
alldeles
gron
##cy
drom
utman
prote
født
##otte
##nytt
##øv
helsing
##jarn
##ativa
kontakta
massor
tillegg
##rog
bonus
fotboll
##we
glob
organ
slipp
søger
##ius
alv
ref
forbi
##tere
##ight
ep
##ho
ager
laser
top
profession
projektet
teknik
tilfæl
anna
hendes
dubb
hyr
##isar
##rige
##skolan
frisk
forsakring
exempelvis
innen
gammal
informasjon
gikk
behovs
##gaver
solen
##ftet
fullt
##skon
##ld
klok
kant
cre
natten
anvandas
##dret
anledning
ot
relig
vind
jur
bit
institut
present
beroende
statist
##skott
kopte
forekom
##skog
hvilke
##wa
##ningsm
medier
##kast
##ettet
##iod
erhver
veldig
##por
tatt
wid
2007
flick
##ffa
##bu
##følge
gran
relev
##allt
brans
je
fy
##ssystem
##bler
##kken
##mera
punkten
##cke
rack
##ls
##ingsl
press
dvs
programmet
direkte
##fra
medlemmer
tør
##eri
##ids
fruk
##ire
beste
##ama
hell
satte
##ppar
intressant
uppdrag
##sigt
cook
liknande
skul
finne
daremot
kande
delta
dav
##folj
finansier
bab
##ørende
##bred
modt
helg
##ands
butik
hed
medarbej
##press
kravs
intresser
piger
placer
hjemme
##urer
ganske
namligen
erfarenhet
avl
tas
finland
nø
##rader
##gave
uppsala
tilbake
um
foræl
menar
##skt
##klader
konsekv
rec
##hæng
##urs
tyskland
oka
overra
sod
kommuner
avsl
drag
penge
##ance
ryg
plads
sub
sikkert
samhalle
##redning
reklam
bocker
ken
antligen
fej
promen
##cep
lander
blot
lage
sitta
tio
sige
##emal
##kost
sadana
historia
tale
##ologisk
##holdet
kjen
lata
ansok
vackra
##ordning
hurtigt
konto
##esp
##iko
##slan
berattar
##add
fuld
staden
vaxer
semester
##ya
##øs
plast
frank
sondag
frukost
##ual
kora
følgende
personlig
sommaren
jack
pap
##ikring
##terna
##ementer
bj
mandag
##ils
cit
##fort
medlemmar
goog
mannen
hora
ikvall
prata
eneste
ume
anmal
mik
langa
##hal
fitt
36
ky
2000
skrift
##inister
kast
##ura
forvant
##kker
næste
##stor
##vaxt
##holde
grav
##enting
##sj
##forande
studen
black
bygga
riktig
192
##ile
dest
sjukdom
##ancer
##iste
bjor
like
##cker
hotel
##fritt
brott
triv
viden
##ena
vanster
musk
hittade
##æde
dri
##sattningar
ensam
trodde
rull
wor
investering
##ierna
##ips
selvføl
plac
col
journal
regering
engelska
190
300
##sorg
gymnas
dre
mej
##zz
kostnader
##stat
##ump
lagger
gruppen
centrala
dans
##iti
ont
##hel
john
##forb
##remt
##dem
historie
##assen
klicka
lyst
maskin
##ærer
kommunikation
narmaste
lunch
##bi
steder
##una
##alder
##styrelsen
##kraft
ordent
##ialis
##bon
finnas
fodd
##ball
holder
anders
valj
bom
##iteter
##øver
foraldrar
kvinde
##bert
verkt
##ase
forening
##adem
ellers
vore
hemsida
uk
farger
##stan
##skydd
læs
regeringen
##inar
will
skicka
sjalvklart
rim
gal
klara
##deling
##umm
##owan
us
hart
##hi
kg
personliga
##tiden
rese
poang
maten
alko
2006
##pris
allvar
##iveau
##rapp
up
poj
skyd
sova
foljer
købe
refer
tankt
nyhet
infl
ore
##uts
snar
##behandling
##verka
##leks
##filmer
##iven
kalla
lind
behova
løn
selvfølgelig
##rike
##cen
ald
ingenting
##zny
##nit
onsdag
vælge
undersok
##garder
##befolkat
##rup
##program
dla
anslut
##ssel
digit
sundhed
bruke
europe
yder
forhand
studie
##omradet
##asjonen
næsten
familie
##han
##stallning
hvem
vigtigt
##ved
##owanych
zalog
##oczny
tw
widoczny
zalogowanych
##verkan
serie
##elsens
midt
størr
undersø
sadant
ple
entre
##platser
samling
folket
sats
aust
intresse
stær
ah
lock
##fta
##smil
begre
gay
ulike
namnet
studer
maneder
vantar
##centr
##hem
chok
samtliga
##rummet
erotisk
overt
strand
centrum
hant
kvinner
innov
##mm
##kede
fortsatter
nojd
if
##eller
forsalj
uppe
##dena
sms
##urser
##vax
##istan
exper
patient
visade
dator
borjat
stabil
valkommen
stress
støtte
grader
forskj
##nummer
bibliote
##dning
got
rid
karlek
vari
kram
##ykker
mask
borger
skydd
##ræ
egne
tidigt
marknads
handler
framgang
enskil
##skole
motsvar
aftal
##hang
don
særlig
budget
dela
virksomhed
##landet
hang
shopp
prova
januar
tillrack
utmar
især
sky
herunder
##lare
##stilling
lokale
##igg
alkohol
##ningsom
daligt
sidor
kollekt
masse
##fører
##ligheter
litet
forbered
larare
camp
prior
stats
problemet
##skje
cialis
utifran
##fær
hjælpe
ax
yt
vaxt
with
stig
vald
øst
dejtingsida
skrive
videos
tema
lære
problemer
##inal
digital
sodra
bidrag
##laget
vansk
32
uans
modeller
accep
sangen
##okt
virksomheder
elektron
##best
hogt
general
etc
##ovis
kør
uppmark
forbru
vent
gjen
forn
sor
ifølge
sydost
gast
arbejder
##mus
kapital
amb
arbejds
bevis
mindst
##lov
nyheter
jorden
##rip
##givning
orig
avs
##vart
info
klin
gard
spæn
perioden
ster
former
##mant
makt
icke
##vn
avsnitt
svara
##etten
##ima
time
##enta
sej
venner
##empl
foran
hotellet
skit
##ielt
tvatt
individu
##anen
penis
spa
organisation
##istisk
ovrigt
##iment
gjel
##ting
patienter
##delsen
##usive
grupper
karri
kontor
respektive
hd
forstas
vurder
##arbete
arkite
album
lordag
bir
norra
halsa
##rop
##kendt
underhall
vader
##sla
umea
plock
leva
nodvand
menn
##dal
omgivningarna
fored
dele
##iar
saval
##ætt
33
samlet
trans
##oster
mol
##garna
regionen
beratta
almin
hamt
hæn
01
##æller
villkor
air
igennem
kroner
##andes
##gruppen
prøve
##sr
kanskje
aften
##gren
##vall
##aterna
kommet
lars
kak
##nede
fla
anser
##orda
barne
##sor
tanken
salg
produktion
ene
eftermid
klubben
allra
ena
lyd
lade
gammel
##ctor
national
ideer
rolig
læse
##ytter
kraver
hoga
kallas
##aner
##bev
##oppet
drog
pul
##our
vitt
lond
egentlig
litter
lesb
samarbete
sociala
lavet
stockholms
konkret
##sø
##hop
##øren
skola
##ycken
systemet
elsker
##ppe
##igh
oplysninger
##ident
##sken
undersøg
exakt
cookies
salj
utveckla
##ilt
##anten
dalig
##ningsl
##bt
ara
kem
laver
kuk
løb
##edd
##yp
bekv
maria
city
##janst
kjent
##teck
overv
ug
skøn
pension
avgor
mera
tillhor
##ood
rock
katt
2005
lagre
##ila
studier
mich
vise
skabe
samarbejde
stal
demokrat
skapar
##ikter
udfor
enten
søker
gun
dø
møte
selvom
hvilken
##gjør
div
overfor
nakna
foreningen
##rede
struktur
friv
mening
##utveck
pin
##asen
carl
##kat
##ifte
##mun
mojligheter
bestyr
intro
##delning
##ielle
luk
##ative
ude
undervis
fat
##skomm
189
situation
##melser
##ula
ekonomiska
##rid
##hund
##utbild
##fly
##vers
kott
jakt
helse
##ube
viktiga
kandes
##urt
miss
onskar
##ex
mogna
himla
##ose
bruges
seri
##ustr
stalla
cykl
sende
##sakt
trevlig
boll
straff
diskuss
slar
spelet
kas
æl
##inder
producer
##kommen
london
##ction
berak
##ringar
relativt
total
job
radio
hoger
spille
##ppen
##fest
voks
skillnad
tider
milf
sjo
kille
##ior
forum
##imal
finnes
skrevet
maned
verdens
tæt
senast
sot
hals
onsk
konkurr
##bilder
ordet
undervisning
skor
stav
##histor
##æder
##teret
##ykk
tidspunkt
##own
tru
soka
kata
bygge
revis
vall
dotter
##ente
intervju
enbart
http
minutter
gallande
yrkes
frivill
netop
urspr
grann
skratt
kung
lagg
martin
##sprogram
kommentar
tum
skam
##erede
lett
erbjuda
jatte
symbol
stang
sum
inspiration
korrekt
bidra
sno
tall
trevligt
offic
##stans
##vi
##center
##ppet
##chef
##sætt
drar
##ningsvis
##phone
##kommer
forbed
boende
uppgift
omrader
sider
##jendom
##ms
skrivit
thom
google
##føres
kunn
utgor
##laggning
mjol
uttryck
liges
garanter
sign
fork
media
værd
rus
framtiden
nagonsin
visste
##spektiv
utover
##anse
intens
uppskatt
##sled
antag
##ole
plots
neder
trana
nordvast
##ungen
##emat
verksamheten
##freds
lana
##out
34
ext
##roll
lattare
##uer
nettet
konser
alene
oppet
##arken
##ah
##æring
##stod
lill
dum
##nare
lokala
tant
##klubb
dusch
##sminister
webbplats
08
laga
kansla
##deligt
naturen
modell
desuden
tube
sos
##cher
indtil
ursprung
kapit
ori
lyckas
okar
spelade
følger
vm
##skrifter
mør
muligheder
forvent
##edagog
satter
omraden
saknar
fantastiskt
analyser
vuxna
75
sku
vacker
mult
##holdt
stille
##ffer
tilfælde
drabb
##pren
objekt
##ykke
sorter
ansikt
saken
sjukt
død
konfer
gælder
funktioner
vanta
##værk
utnytt
jenter
njuta
##10
adgang
porrfilm
foreb
##organis
vigtig
datum
storlek
historien
formid
##dighet
##stav
fru
naken
##iell
reda
##liv
testa
idrott
blad
boka
##stæn
hosten
fantas
student
##erande
##ec
##ømme
ip
##isse
angel
konstater
##usjon
byta
##bak
folke
pavir
coll
prioriter
besvar
nas
servic
vattnet
##delen
borta
##mod
alvor
handla
pil
møde
ox
##ival
teater
##jet
##ox
##ukke
play
##makt
dagarna
tallet
slog
master
##spar
07
medvet
orebro
fx
vita
leverant
alex
##sjon
##mot
omsorg
##amin
mg
utmarkt
jesus
##snit
potent
retur
oven
skolen
09
publik
skov
ordforande
knappt
##ylland
##larna
400
##vok
afsl
fritid
2004
tyn
##fon
pga
##mærksom
##beh
lakem
tjanst
saklart
##fal
ejendom
55
pens
dersom
##kal
smal
##aterial
kong
løbet
bolag
kommentarer
##orten
##ledningen
interesser
hygg
metoder
tviv
undrar
sof
bilar
lim
##orges
afgør
vastra
nordost
kjøp
kontrakt
erfaring
ei
marknaden
forp
##lunda
rød
##ower
anses
huden
ældre
garant
rem
normal
##skning
anvandning
##omrade
##igheten
opmærksom
spra
formal
iaf
##system
hjemmeside
tids
##lande
##spart
starka
mjuk
samhallet
##ellen
tankar
##ris
##brott
paket
ingr
bre
øje
overens
##vel
##illing
definit
sagde
valgt
verktyg
##sats
skatte
tillrackligt
##alg
##rit
lyssna
##ding
sluta
##løs
lagenhet
188
kunnat
pet
miljon
##hy
brugt
hinanden
priset
period
##agram
38
##brug
atgarder
sæl
##holds
ort
plotsligt
figur
halso
masser
spara
impon
buss
inkluder
##fang
lærer
imidler
pige
##oga
yout
formod
arene
imidlertid
##ugt
rest
grill
##uc
##rom
##isert
sens
nack
teor
##skraft
sikkerhed
hurtig
##fald
enorm
planer
tillstand
site
forsvin
##dels
37
##givare
##mest
##ics
stift
skru
lake
##ksis
fantastiska
dialog
##skola
bestille
sjov
parti
sydvast
engelsk
big
##medel
ros
##klimat
isra
##skyl
##uell
ordning
ligga
##pos
kyl
##ira
driver
##melse
spændende
freder
rygg
mic
##kere
##ful
opplev
framat
##start
antingen
##orlunda
golf
oke
strax
##offer
##æft
enhver
vinna
lapp
##ffan
mesta
mangd
narmare
fry
positiv
lækker
gas
takt
ihag
##fot
##ekn
længe
##dus
bereg
timme
##ygge
attrakt
rosa
##cel
39
medarbet
monster
kina
tving
flytta
##pat
##uel
rummet
oppen
england
syk
ansokan
##erier
udvalg
##ign
##føring
fredrik
naturligtvis
litteratur
konfl
modern
giv
austral
##tel
fortæller
aar
javla
center
uge
tisdag
lekt
valde
offentlige
##pu
stick
annen
##ete
##fir
dukt
harligt
##inen
##arm
herr
vagar
central
nagonting
formul
bestemt
restaurang
##rustning
arbejdet
##onom
minska
børne
utbud
kjøpe
komb
forlor
forud
##jas
voksne
##heng
kommande
endelig
hjul
##bolag
##digvis
lack
##ors
personen
rav
hatt
##kopp
henrik
##vika
matchen
fett
løpet
##uella
##ogg
##partem
gri
radd
bekym
##klag
##mos
##oner
dim
##værende
rym
magn
inb
##imul
ansatte
besøg
uppfatt
##uttet
starkt
##natt
##ningst
vat
dokumenter
##30
vuxen
vars
aktiver
forte
passa
kos
ges
arkitekt
pag
skjer
##kade
utform
##stone
rette
betyg
fysisk
##jerg
millioner
##grupper
blomm
##rigt
##okr
positivt
ekonomi
kunden
##fiken
riksdag
hak
beskriver
##nere
betydelse
huvudet
ski
hyp
##che
stranden
##ele
gruppe
status
ønske
##forening
tilbyder
##ern
plat
show
kirke
mate
##oss
##ple
representer
hensyn
##foring
doll
kommunens
gjelder
fed
kontin
polis
samarbeid
valt
##draget
##ills
døde
##egar
nyck
##nende
##annon
##way
##istiska
vanskelig
tillamp
prøv
##kam
forstaelse
##bladet
kær
##beskriv
##ou
øy
enhet
viktigaste
hjelp
norges
ordentligt
fonster
kæm
høre
##terar
føler
strøm
version
sætte
mote
sasongen
il
sjun
okej
##handel
##ea
##farg
generisk
##inget
motiv
##skrig
ladda
annonser
sasong
motes
##beider
christian
##løb
##gjort
utred
vap
forhopp
finansiella
bakgrund
betydligt
02
kab
##lor
motiver
risiko
05
fald
##drer
dram
##vara
est
introdu
lans
renover
ferie
moderne
fitta
ersatt
holdt
##ongen
kig
##slagen
milit
prest
harlig
mom
indeholder
pik
landst
faktum
##stalla
##brik
tonar
hamta
forældre
tapp
betydning
landets
##lik
resultater
##egaende
tunn
relation
##enden
spor
48
køre
run
##fisk
karakter
kjær
##skont
sygdom
##sil
##falt
virker
puss
koncer
##arnas
temperatur
spørsmal
one
##skj
##fag
ligesom
##hamn
forret
bygget
vetenskap
februar
korde
brukes
06
appar
##djur
##leder
kyrk
numera
lanser
##fart
djup
your
##th
fyn
##varden
forr
##spolit
186
##brit
type
##edi
##ogn
lyckades
kombiner
forvan
agg
laste
thomas
##rast
##ifik
##service
187
##elen
##ekk
##stam
registrering
##skift
snygga
##denafil
forkl
aktivt
kurser
tydligt
lant
this
hyll
kampen
##polit
kend
tusen
forsv
150
sammenlig
jarn
##tok
##smed
##lysning
skiv
lande
akadem
kines
##givet
##ekan
65
idr
bedst
skift
flash
kostar
##olut
parkering
danmarks
derefter
nasjon
##osa
papper
inklusive
dato
familien
diagn
##ee
kuper
rejse
datorn
kommunal
underbart
jamfort
##vig
##ble
fortsatte
instrukt
##dage
studenter
inse
##verse
besta
private
##rika
opfyl
separ
##fan
ball
sikt
bidrar
##fs
anbefal
gull
lista
bolaget
mov
##skede
billigt
##kul
##skal
bestalla
automat
comp
plass
initi
jf
##ologiska
youtube
##atorer
højt
svarta
skane
bran
rabatt
##aning
sprang
polisen
##elles
bakgr
rot
##asje
##rettet
##iam
lju
oro
effektivt
1000
pratar
humor
fixa
paris
frankrike
##ukker
sus
prim
##trol
haret
smid
##former
fardig
42
anstallda
wik
utsikt
york
underklader
##olen
represent
mikro
tittar
stolt
starten
ress
killar
##alitet
##god
forhallande
2003
besl
##heim
princip
falt
guide
marie
paul
##iland
staten
gæ
stads
storbrit
erfaren
staller
pamin
kors
kamera
internationella
kompetens
hat
motstand
erhverv
omgang
##øst
politisk
mord
cert
inled
mangler
04
happ
##foretag
sara
##sag
ytt
musl
cor
##burg
kostnad
fortæll
storbritann
mac
utsatt
ejer
hyres
##taget
##jent
##talet
mc
##mens
##egn
lab
##do
spender
koper
lugn
venstre
##ric
##anning
kære
##assan
trenger
bekvam
##ismen
dild
pc
britt
roliga
velkommen
morgonen
allig
synd
goras
prosent
sexlek
engang
dol
daglig
##skat
##ægt
aktie
hemm
praksis
gors
##læ
atmin
##unds
amerikansk
##ografi
prins
utvikling
##rande
singel
styrke
##institut
kallt
politiker
spise
promenad
smukke
visas
domstol
##ford
strom
##stø
turen
handen
py
underbara
dyg
acc
drygt
forutsattningar
lust
avgift
uanset
bror
popular
periode
##valget
##steder
atta
##alender
##andt
magen
tøj
von
betale
##ino
anmel
eksister
køkken
syns
hojd
rigtige
personuppgifter
##inne
kompis
bilderna
##sproc
lakare
kopt
inc
rig
ott
isol
annorlunda
sannol
specif
##annen
vold
love
nemt
fremtid
##gra
bergen
søk
slutade
deler
detalj
##esen
helsingborg
myndighet
here
##stift
syfte
ye
lør
ialla
##ckar
##ledes
david
styrelsen
##varer
garden
niveau
rø
##ley
week
kampan
ii
singlar
givetvis
ægte
alligevel
##sby
engag
iphone
fiske
##asa
##skom
##indust
hunden
44
vedr
03
fukt
##risk
apotek
##tar
sko
formodligen
kandid
vinst
generelt
intresserad
succ
viste
hogst
utrym
guds
datings
##vo
##elserne
hallbar
##sok
##slos
navnet
kuperad
##ave
grunden
skogen
ersattning
entrepren
forsikt
##arbejdet
lamnar
grym
uger
redovis
midler
##ows
vik
##leva
het
inlag
dei
##valt
atminstone
fordon
##amen
stimul
hann
##aket
##kall
aldri
populara
spillet
gles
ron
##ønn
##ligheder
bemær
skand
overfl
##ones
konstrukt
##mail
fyller
##leken
riktning
##bold
anvant
##endet
israel
konstnar
##ningsb
planen
hort
##mil
marken
forsikring
flot
orsa
stalle
##bergs
##dd
teen
distrikt
##skolen
##uddann
##maskin
bio
##klus
leda
gren
kyrkan
øvrige
tekst
skær
chans
konstigt
nærmere
orkar
##varm
starta
##df
tala
nom
stral
kristen
paverkar
mogen
anpas
regul
forny
##vikling
smer
darlig
##mas
##ros
forbattra
nuvarande
uddannelse
##jord
lanet
fac
##gress
slet
##ress
##delar
iallafall
mansk
spesielt
##server
##aker
##entyr
box
varum
selve
kræver
choklad
formaga
linje
minim
##funkt
##æns
talar
lod
##kas
fine
starter
##smæss
nøg
krimin
matcher
firma
lou
syster
46
##angd
tydligen
##sart
gratt
utgangspunkt
organisationer
pedagog
baby
sags
roda
stjarn
hantera
cop
brukt
perspektiv
lugnt
forsaljning
tax
underbar
fakta
sæson
indenfor
##gaard
ri
##ffar
##følgende
behandlingen
repar
klarar
##hæn
##gu
kombination
kanda
##stret
##sprodu
##ffet
homo
rekke
##bla
brit
ungdomar
resept
##terne
intet
##olver
sallan
mitten
trum
##cken
kommenter
sjon
pengarna
gitt
sidst
hittat
husk
anlæg
##stændig
##revet
politiska
minns
fejl
##vagen
##vatt
kamer
cup
amerikanska
bjud
##ringen
løsning
##ime
##adser
gett
##rasjon
salja
bryster
##isme
aben
placering
særligt
##øse
##køb
næv
##partementet
island
russ
##sig
neste
orden
utvecklas
##iets
ker
##isere
ostra
turner
happy
reakt
monter
##udover
vurdering
kender
udtryk
ryggen
misstan
praktisk
line
okad
fungerer
fing
forekommer
vælger
##skill
evt
konkurren
president
soffan
saljer
##barn
inkop
##hets
2002
huvudsakligen
49
thailand
##oper
2001
brist
##kval
forsokte
##lekt
unn
resul
##bra
stri
daniel
##ness
##spill
diverse
romant
fris
enkla
slott
indlæg
eksp
funkar
lopp
manniska
##ned
søndag
##enten
olyck
##uen
metod
kallade
flykt
klasse
allmanna
sover
sexleksaker
vejen
##cks
##sprak
##vende
##ordin
##inner
definitivt
forskjellige
bb
##lader
siff
intra
nev
stammer
##atch
##ørn
jurid
arv
##behor
wind
forelas
kold
bostads
oden
uppratt
##ologiske
kompon
underl
##gl
##tning
##hort
##ini
##ege
baggrund
svamp
skott
uppen
dæk
stanna
typisk
##ome
##ski
swed
øj
civ
mojligheten
slipper
villa
##unda
oj
kjære
befinner
swinger
anvendes
mur
debatt
egenskaper
rob
##ningens
varer
grov
##fred
valet
lørdag
##istiske
halvt
statistik
krop
##halla
##prov
piz
##nasjon
størrelse
racker
smag
amerikanske
##gatan
sweden
##ivitet
gis
##sætning
major
##ugga
overvej
bilj
cafe
##handa
pek
##fragan
svang
syr
amnen
silver
##verksamhet
##bal
betrakt
ke
bef
initiativ
væg
##itra
##till
##ze
utvecklingen
##ilj
malt
##akning
wal
vindu
museum
exp
varken
flex
horn
forsamling
kallar
samfund
glass
jeres
ack
marknad
##ykket
udgangspunkt
##40
ær
græn
##onym
mont
delvis
##ordningen
##sler
rattigheter
nerv
fundet
##gerne
##sland
termin
vaknade
41
##uelle
unik
finn
##somt
##ty
##ova
nik
rok
kommunik
jac
fn
##bry
era
jar
seneste
##mene
mai
interess
produksjon
grat
torr
indt
mennesk
wil
losningar
bandet
langd
tidlig
##blick
tyst
uttal
make
bered
bodde
forsknings
interesse
vackert
##jej
tjenester
find
micha
økonomi
##uro
orienter
intell
gladje
losa
sock
sprog
##mad
mysigt
##idae
distri
klad
##kontakt
motion
impl
avstand
##vest
43
undant
desto
##ytning
sammanhang
politiet
nil
socialdem
bidr
frederik
socialt
down
aarhus
fet
venn
47
##ptom
##iew
leve
##værre
iv
##lingar
platsen
mos
bestamt
##stedet
islam
kne
syke
fritt
snarare
personlige
gjerne
springa
champ
##kket
99
cont
gram
micro
600
erotik
tekniska
kjem
##roende
##bed
advok
burde
##bad
utdan
begrans
forskol
##ockey
mork
langiv
##trad
ventil
##oth
##vide
delst
finansiering
kunnskap
imod
dager
ranta
girl
vattendrag
dens
internasjon
tjock
##formen
omedel
prisen
##osof
mats
bete
##beg
strategi
arbeidet
##arens
pack
##erende
##lok
assist
prost
neden
blomster
##aks
klassen
rør
sekunder
resan
individer
datter
##amer
mast
jose
##inter
desværre
koncentr
glem
sidder
paverka
oblig
angre
##unnet
væsent
##11
inrikt
vinner
180
##usen
matemat
##tekn
medarbetare
##ioden
medarbejdere
##skr
mota
upplevelse
utvar
svaret
##rel
fungera
letter
dildo
world
højere
sætter
teknisk
cla
inns
##talt
tantra
mojliga
trolig
gn
nere
lyx
##mask
undan
gavle
trav
ryss
##llop
##eger
naturligvis
bjuder
##stag
glesbefolkat
felles
##xor
##otta
lid
lyn
sajt
##sætte
chatt
cro
cap
##deren
##hr
involver
andersson
letar
efterhand
lider
##sende
framforallt
socker
dikt
repræ
##middel
funn
fuck
ende
sattet
betaling
farver
flotte
brasil
paverk
##sporter
hvid
opgaver
oer
yderligere
optim
##mand
aner
gaet
##bare
besoka
##famil
stycken
aktuella
rekommenderar
##mø
dollar
##riter
lokaler
uppf
bos
invand
##ico
##uft
søge
risken
##punkter
simpel
##tokoll
betalar
jobbigt
##telefon
hinner
##utveckling
drøm
funder
##svall
hushall
pasta
##slapp
##anal
udstyr
kapitel
bær
bussen
professor
cas
japan
losning
græ
kuh
##gitt
##ynt
##direkt
innlegg
befolkningen
##sko
##sætter
##hjem
europ
tvivl
##pac
frakt
arab
ell
demon
kill
behovde
sexy
##entlig
aktier
arbetspl
tradgard
myndigheter
stjer
skra
eksempl
taler
flickor
eleverna
luften
utrolig
færdig
##annes
opna
##skort
enklare
##ratten
##regler
metall
skada
avancer
spis
##ikal
ringa
##fulla
##lades
##samlingen
##æld
redo
jonkoping
klare
chansen
nyligen
regjer
##itioner
kanslor
eit
##urg
klassisk
##jal
magnus
standigt
##annonser
##angt
##uv
oversikt
hverdag
botten
illa
oplevelse
##ney
regelb
##laggande
videor
aventyr
modellen
overrask
anne
middel
mærke
##umer
legge
vasteras
harliga
gransk
computer
tvungen
sallskap
##pot
##dres
gif
undvika
okat
1990
position
veter
##behov
lader
rekommender
barns
koket
##eten
##aland
sendt
##oda
tilg
##jus
gill
##minister
spanien
brollop
##adsen
billede
##fullt
##inav
nab
fug
michael
##isera
block
banan
hjælper
bri
føds
mormor
##opt
vd
hundar
##kninger
##ards
haber
personligt
vider
##jning
himmel
lakemedel
vila
##evær
##esh
fransk
single
tilh
##bat
##niva
process
##idan
smarta
redakt
##sliv
##ensioner
forslaget
lignende
kursen
fører
##lak
utbred
##fen
fallet
hunnit
fandt
##stalld
begran
##uds
vild
##sked
rakt
prøver
tung
automatisk
2019
##varme
historier
##play
fack
jordbruk
moderna
situationer
##assigt
##ørs
mex
tænke
kanal
situationen
dia
cer
##forsakring
skot
lyckats
startet
##pi
pratade
hører
hi
skan
blu
skull
valgte
power
##hog
vapen
support
##result
##delningen
reserv
relevant
observer
##partiet
##diga
##janster
forhandling
urval
brann
vekt
sociale
##stiden
varden
kendt
##رر
resurser
rolle
borg
##que
omoj
jonas
sæd
kanslan
kategorier
startade
shopping
vadret
##lende
erotiska
##førte
golv
##somradet
##ledare
##rarna
hittills
dubbel
engager
##ugning
##wn
drikke
##skrav
kritik
praktik
##appar
symptom
lyder
eleg
##stillinger
levitra
riktiga
forlag
postad
##rument
grundlaggande
##skoter
behag
koncept
check
likevel
##box
natverk
mobilen
trakigt
omfattande
helhet
trapp
økonomiske
kjør
sammanfatt
inkomst
brod
aal
##dele
tyske
nesten
faktorer
pæ
politiske
##bit
kristian
high
vardags
bakt
motsvarande
##foreningen
##odet
dobb
frække
rov
nødvendig
berattade
that
personalen
fylla
tyr
mist
##øjer
52
##lats
perfekta
kompletter
konsekvenser
##ebra
##projekt
relationer
utomhus
lands
tillfalle
##varl
##nor
mv
cal
pus
lane
spin
marked
rapporten
menneske
ledig
forhoppningsvis
##angel
skyldes
listan
tip
skuld
bjorn
allmant
langsikt
##produkter
pers
##12
smil
samlede
arter
##itor
forfattare
erne
##terer
antar
##varo
jud
ryska
eftermiddag
dack
starte
arige
populære
bot
##ians
##oph
dejlig
##viken
##talte
##ax
##jylland
##itionen
##huvud
##inform
diam
girls
handa
##ekte
bordet
##fo
garanti
hamnar
kus
visat
varma
kreativ
##iserade
kraftig
##hjæl
##vatten
varlds
##iosa
##yer
tilsvar
turist
vanligtvis
international
ledare
felt
oh
kategori
andras
##kene
mottag
svag
dn
##ængde
dj
langst
processen
##ssp
185
utlan
##iot
sade
kunskaper
tyska
apple
betyr
konstant
##yttes
anpass
illustr
behovet
forre
vek
varv
odense
arig
sorg
from
forsøg
pir
sortiment
extremt
rammer
angiv
##60
konflikt
has
##elset
linkoping
anvandare
##sene
derudover
idet
##fel
kla
##marna
jens
indhold
bogen
særlige
tidningen
feil
øjeblik
sun
samre
##ytande
instagram
##ivalen
##sy
analys
##ycke
minne
kollade
##irt
##ævn
original
lank
hardt
##varet
webbplatser
faller
##mode
##hallen
njut
bebo
##fi
##ament
##ølv
varav
knullar
##skyd
løsninger
mobiltelefon
glæde
lamnade
rakna
nytta
vægt
enskilda
1999
tabl
funderar
##æst
aukt
##ani
syftet
webbplatsen
##enny
##aser
glada
##stallningar
hag
##ums
daliga
##ision
jern
##gande
leverand
relater
fika
redu
ler
hil
alskade
model
blommor
##tale
narvarande
hansyn
leng
more
tecken
##ellan
ekte
slutar
programmer
terror
arsm
cd
pabor
##ivan
##betalning
hjarn
begyndte
sval
250
abon
snabbare
##unnit
pi
økonomisk
grona
værdi
##ios
1800
jobbat
##ørg
lagom
tillgangliga
eleven
opret
læser
eld
overen
nationella
tryk
klima
gemensamma
##gora
insatser
##sklimat
føde
utland
dekor
kollektiv
##eslut
inner
##mi
robert
##ae
lettere
##ringer
##edde
lenge
ec
##lost
trods
mix
fragade
overlev
arkiv
strid
ifall
mr
anledningen
begar
møder
##pres
ent
kontrollera
typen
station
##nene
arhus
køber
##ckning
pum
parad
##ence
##job
mall
buk
##skost
##gade
kommende
rigtigt
kim
heta
lyk
windows
avgifter
produs
800
moter
##kelige
##vil
musikk
storbritannien
liter
banker
marts
##ysning
expl
##slutning
beb
##emed
tittade
sugen
smitt
efterfølgende
##gørelse
##fallet
##ellem
langtar
##usten
mam
lokalt
body
59
sæt
arten
que
emil
##sprojekt
##ningsomrade
##sek
kører
##lene
##bby
statens
karaktar
##vek
tilgjen
au
phil
snabba
identifier
##gards
hæ
##træ
##cam
avseende
vanda
privata
bloggar
johansson
kanada
sonder
ødel
banken
##ides
kik
troll
hehe
saf
hande
snyggt
miner
bestamde
dricka
imor
mini
##vakt
tatbefolkat
64
hjerte
try
sette
##fora
fria
##ese
roman
svenskt
##uth
erfarenheter
kara
##etøj
religion
bevæg
##80
ansvaret
##kommende
journalist
eva
##fragor
tyg
hors
##sattningen
intakt
tydlig
adress
klick
forandringar
95
dorren
teknologi
ober
foljd
billiga
##orte
##tryck
omfatter
erbjudanden
sec
##bank
aftale
kog
##spelare
noter
eventuella
betalt
flashback
deltog
begynder
##sman
aalborg
##mannen
øk
besokare
##forbundet
materiale
varan
kontant
##qvist
##legget
##hoj
##nast
partiet
føre
prag
anges
beskæft
pig
atit
oprin
tillvaxt
børnene
bekraft
##fria
##drene
akta
unika
##problem
##sidor
meste
##iseret
##eringar
##vare
war
leta
##enge
##aft
stro
korta
##icy
##forvalt
tillhanda
levande
tjansten
oppr
mangder
##isser
plant
num
handelser
oerhort
gust
orsak
ferdig
diskussion
henhold
even
svarar
stykke
æg
gent
ledning
lankar
stilling
europeiska
##jande
storm
andreas
stallen
##ops
dv
west
mojlig
barna
ungdoms
##ckor
potatis
victor
ogonen
##li
tilfreds
##losa
filosof
##och
ringde
##olf
forbund
fodels
kommiss
nagonstans
specifik
##cus
pagar
forran
##cia
gru
markedet
fen
emma
logga
tillganglig
forbud
hoppa
hjarta
batter
##omb
85
##bror
tilsyn
lide
enheter
slike
utseende
imp
sagen
andelen
fur
kontakter
træning
tilgang
rekord
atmos
##fast
56
belig
bul
##itz
stader
begræns
##imod
varmen
godis
##dagog
mala
flott
nodvandigt
traffar
rosen
kraftigt
##linjer
umiddel
smor
fargen
##station
##astro
##ugan
charl
forutsattning
afg
skaffa
aud
poker
halften
kans
fasc
##delingen
sukker
##bri
aspekt
snitt
samle
hjartat
traffade
porrfilmer
ledande
uppleva
heldigvis
ledam
##utte
120
nio
belopp
##ionens
nyckel
appen
slit
badrum
mjolk
omfang
1970
besked
##sty
redus
##bill
##egang
intressanta
vintern
54
##oen
hjelpe
saknas
1980
stefan
iran
fullstand
book
klassiska
sjukhus
##lyst
##anvand
##ssen
valkomna
papir
bilde
frig
lagenheten
kolon
##arch
##cial
angaende
knyttet
indsats
raknas
balkon
nuværende
garder
texten
def
framtida
inviter
global
##amn
##personer
utav
##hagen
lycka
behøver
deltagare
varsta
##visa
##oler
gamm
##rare
radgivning
william
##arbetet
foregaende
møn
inlagget
##ymp
rant
skickas
kostnads
##sbyg
blanda
avsugning
halm
hansen
osaker
artiklar
##skop
##utr
##skam
antallet
avvik
##raff
vei
##gaven
club
##bane
uppfolj
##mæss
finger
flertal
franska
53
markt
overallt
uppfyll
marg
element
butiker
ringer
oppnar
##hast
kvalitets
frasch
##sbrev
1998
resor
karn
tilkn
herre
slappa
turk
trygghet
##ware
bibel
##ming
sarskilda
poly
##15
skickar
mju
##gick
forbundet
grand
planlæg
tilskud
befint
bang
bedomning
okade
dominer
##schef
##bø
beskrivning
##brans
bilag
talt
look
spur
mulighet
anm
leverans
##kro
escorts
##zonen
##iere
funnits
præcis
rutiner
liber
##jobb
gustav
pdf
gyn
##ugo
anlagg
ever
camping
bist
ratta
##valu
maskiner
muskler
ansøg
57
enormt
##krig
uddannelses
##umin
liste
##agne
peder
identitet
##ælland
##namnden
positiva
mio
modtager
##ison
hundra
præsen
tiltak
amat
forman
sadar
eldre
tvær
knappen
latin
jacob
##delt
onod
tolv
##tatt
##ath
gemensamt
digitala
arlig
økt
##utbildning
##haller
ange
sjæl
green
kvinne
##rimin
overtyg
##usk
vardering
røde
utrustning
##hjul
##andre
##ypt
læge
fordelar
rena
##rot
##eland
fjell
plocka
##park
stack
lege
aning
undga
skid
voksen
##forsalj
hr
kjærlighet
tillagg
##istens
faste
bredvid
ladd
massasje
tillfallen
tilgæng
184
tænker
partier
fodbold
konsul
obs
utval
soft
lut
##skaff
svt
fjor
studerende
bull
##iness
##omrader
trop
indre
blan
posted
belast
anmalan
kæmpe
dør
vilkar
##behand
bestammelser
##forbund
tilsvarende
videoer
familjer
funksjon
##behag
ufor
jensen
markeds
spillere
etik
betalnings
specielt
##sund
uh
tera
##rapport
flest
cancer
sd
dann
opgave
##statt
1900
bestyrelsen
##18
genomfora
bekendt
bett
undantag
grattis
betalning
ratten
minskar
tegn
træk
astr
tacka
julkl
minut
##tur
produkten
løbende
undersokning
agare
framover
##mande
simpelt
forbl
øver
syfta
transporter
wall
foll
##oma
kontinuer
minsta
ikk
startar
skulder
telefonen
eksisterende
sve
langivare
sekund
olje
vækst
høje
bræn
effekter
tam
##spil
passade
avfall
##vards
materialet
kryd
scenen
hanga
##rifter
##kamp
livs
##avtal
erfaringer
artikeln
ledelse
anger
dyb
sakra
sekret
##klass
utenfor
##idens
pask
house
##ultur
sir
kærlighed
herefter
##wood
##kerne
tavlingen
##celler
ht
##unnen
succes
nødvendigt
##uch
vibr
fortsat
konsument
##spiller
fotball
##ekul
##asino
##løse
livsst
saa
lax
tycka
hanger
noll
dop
gumm
lesbisk
ked
##kommande
##bilar
redig
tir
psykisk
##somrade
##plikt
flyttade
##ye
##ftar
opdater
##ape
pct
stann
frihet
##entals
ull
varor
ofor
kalender
##encer
sundsvall
kvaliteten
##rans
tomt
vaxa
##ødte
solid
civil
stj
##erades
plasser
speg
ønsket
hust
eksempelvis
##somme
##sbol
##esel
deretter
delstaten
berlin
tap
##melig
vr
begynte
arbeids
skydda
##holdsvis
kyck
##dor
##stu
##js
origin
##rien
https
##ennende
forelig
##orerna
instit
##okraterna
laten
farve
##cens
##resa
ike
udvikle
virksomheden
kriter
spare
nick
##tan
pool
##iellt
irriter
##eledes
tranings
aw
alternativt
##ingsliv
akkur
betrag
##shop
forf
cool
vidt
webs
naturliga
sne
eksper
melod
##lere
inre
akkurat
prosjektet
latar
kalmar
verkligheten
##rek
evalu
bibliotek
##følg
##vaxter
somn
pod
##intr
ryssland
alltfor
tilstand
##sættes
##bek
##tain
##indra
trond
sommeren
grejer
golvet
vagg
motet
posten
allting
skaber
##amal
spelat
enk
slot
toal
antall
##igheder
fril
bostader
samla
read
##kj
vaga
omfattar
wa
swedish
rekry
51
verd
forklara
senior
syntes
fragar
orgas
foreslar
fund
tvang
yng
gaster
rorelse
restauranger
advokat
call
bif
##vill
axel
58
##inga
##aktig
##oppen
##takte
dame
##nsyn
gæster
##kelse
varre
##itering
rester
##iserad
bøger
##inna
##stud
myr
læk
##ited
##sky
lule
3d
format
fortælle
##dy
jor
sender
framsta
perman
hjør
sovjet
fira
hjert
##fard
##stein
forestall
hastar
akut
gældende
lavere
høyere
blond
##matt
overgang
moms
bron
revolut
huske
øl
moten
##ano
##smet
##felt
foregar
alsk
cell
rott
dru
fjarde
utfora
aktiva
downlo
rog
indr
##iendom
##vert
bestammer
maks
##skriften
læring
tang
##stru
##espiller
eftermiddagen
##000
lis
organisationen
##ination
fornu
radda
##ces
amne
##varlden
coach
dyre
spons
abne
innenfor
højre
##gruppe
tjeneste
##70
rich
nødt
eventuellt
##vat
kvitt
##pacitet
foreningens
##anlæg
ligeledes
hyra
arhund
fantastiske
horde
utbildningen
lud
##ierne
##serne
nilsson
bestaende
##ygger
fortroende
gat
69
upplever
informer
##ugh
barnets
##arden
rora
dynam
##stræk
thor
tvek
ledar
##mak
gjenopp
duktig
reducer
forhin
informationen
##emon
inredning
sikrer
foder
##lass
udel
skador
vander
pic
##24
konsekvens
værkt
##fit
formen
twitter
aterigen
virke
karriar
undervisningen
balans
snall
satsa
##hjal
kulture
##lagen
offentliga
ib
brett
parlam
surf
arbetsmark
sto
##byr
protein
adresse
##besok
avgorande
nic
parter
##skov
bestamma
##botten
femin
##sforen
##cir
roy
tilmel
datab
anonym
##betaling
anl
##spital
ansvarlig
anslutning
bock
bevar
nyde
##ældende
##etar
tillat
##unk
arligt
senest
##stallningen
bay
##anna
støtt
forskott
word
butiken
##savgift
kallad
anti
##21
marknadsforing
kvalific
forfatter
tempo
fundera
dejligt
bis
##iler
vitamin
bin
bind
beslutet
kendte
karlstad
fjern
hev
##bog
invester
hvornar
ør
front
##pens
market
##ages
forvand
foraldr
##iddel
indga
##sperson
##jansten
##ml
sprid
##smak
hinna
overst
isa
kontakte
##orget
##ague
blick
tad
##ystemet
##oten
es
paa
imellem
##slen
kniv
fond
planter
lamnat
##core
miljar
begrav
sota
anvendelse
##oser
1997
kontrol
afhæng
##ular
oplever
lese
jakob
##vider
##oli
instrument
uppna
ændringer
arena
registrera
svenskar
mika
retten
inred
skandinav
##sprodukter
##cm
omkost
sammant
##bilitet
implementer
business
diskutera
asyl
1960
hverandre
##ckta
beting
##zon
##25
lasare
arbetat
lart
##fakt
behandlas
##iget
##fig
nyss
noggr
##iserar
vo
kollega
beskytt
underlag
tillfallet
inl
automatiskt
##produkt
halsen
##flytt
psykolog
##siden
bott
##sal
sed
kompisar
tillbehor
maler
forklaring
##ningerne
##befolkad
good
inge
gom
rat
avser
order
forsvinner
rit
##stekn
ansiktet
##boken
##gatt
andro
livsstil
overvag
exklus
spark
legger
australien
sahar
##fod
##yller
##ksjoner
hemmet
##ines
bytte
##juter
barndom
bedriv
##vern
forskare
navig
efterat
##roller
cum
erhvervs
samarbej
sekt
signal
sammens
##sbruk
##høj
engagemang
get
protokoll
kristna
svenske
ingredi
##bordet
kameran
norrkoping
generalfor
reager
rasmus
kull
utdanning
infekt
##slyck
##keligt
skyldig
##rej
universitetet
ikkje
##erings
bjod
##ares
fit
##levelse
kvinnan
##orth
ukra
##ckan
utredning
deltar
nyfiken
utstyr
muskel
##smiljo
miljarder
venter
##ago
##orp
kæreste
##ugor
finalen
boras
bryst
##forhold
##soft
demonstr
nærmest
##rost
##habil
nojda
##ners
pojk
ran
##satter
jamt
parall
final
fisse
works
smuk
##beth
##enes
spir
troligen
tilpas
anbefaler
skram
søg
opleve
sydostra
##ool
ansvarig
teori
minimum
dyrt
rust
visse
hypotek
telefonnummer
##tran
styre
sannolikt
kris
##ffen
##ij
behor
##briken
knut
retning
sarskild
loss
infrast
grej
sug
idrett
repu
skolor
league
selskab
##ical
diabet
tilgjengelig
lulea
ole
male
fedt
pædagog
serier
kortet
utrymme
vaxjo
observ
##uellt
##onger
dryck
finna
fattig
titel
armen
##bevar
skiljer
minister
##con
domin
fodelsedag
nødvendige
##mede
dobbelt
sildenafil
point
forlust
eiendom
##bring
farligt
grus
riv
grundlag
##drom
##asy
hypotekslan
chil
nt
skillnaden
66
hunde
basen
vivan
obefolkad
ansigt
simon
baten
##ordet
##holdes
##ogon
almindelige
modul
befolkning
##14
ændre
##16
festival
veien
goteborgs
##side
enlighet
##stal
pizza
gyl
mulige
vedlige
funnet
misslyck
europæ
nedenfor
foredrag
johannes
forteller
noga
vanligen
##rest
fasta
tranar
vente
##skommun
ekonomisk
##pol
anstr
radi
totala
svarer
pigg
benytte
træn
norden
tradisjon
linne
vejledning
arbeider
sovrum
produc
tonaring
vivanza
vakt
ramme
hinder
netværk
##ianter
##opro
fader
stemme
##bus
presentation
tl
67
##planen
penger
osc
##egen
##emark
ingredienser
##maktige
fornuft
perioder
broder
##beskrivning
tenn
sexig
ansvarar
aks
gennemsnit
##got
intressen
##yrer
elit
onskemal
appl
grønne
omedelbart
##emidler
##øp
intill
biler
##pad
amnet
ikea
##yst
udsigt
fora
lagstift
kortare
forsokt
paus
##ked
##bid
aktuelle
inkom
halva
pepp
døg
##line
blek
##byggnad
harmon
lækre
arbetsgiv
lyssnar
eventuelt
##ingo
byggnader
afrika
koster
opdag
##agning
spennende
##strukt
index
home
##material
lamnas
driva
obligator
sykdom
##smiljø
omstand
##sling
vedrørende
enor
##yta
##sna
##forsk
riks
karin
varder
##umt
alders
formed
##produktion
innovation
etn
ess
##øbet
framgar
løp
##sniva
pengene
##com
1994
traffas
anton
operation
skader
uppmarksamhet
levering
tirsdag
1996
##forslag
perf
lost
upptack
##ela
##iør
muslim
ekst
forhallanden
stemmer
skala
inser
pak
lyser
vurdere
samverkan
styrka
borgere
anord
##isch
egendom
interessant
yoga
linda
##fru
handle
upptacka
##strateg
rh
fleks
slang
skin
lejlighed
asiat
##æd
mp
umiddelbart
handlade
kunstner
holm
pann
##slivet
trend
faststall
arbejdspl
##mester
svarare
højde
##agas
lagar
forvir
maltid
smar
##slet
ressour
prom
##ally
##gjorde
##hengig
##plass
##ibel
restaurant
petter
fjerne
forresten
intresserade
##saft
##sborg
areal
##pir
prop
count
##færd
komplett
##kopings
snakke
##ripande
søke
øvrigt
ki
##byte
kirken
##lekar
##ortt
vanligaste
forebygg
føle
schwe
kalk
tydelig
##garen
køn
spins
snur
##iering
##meter
forpack
##ementet
bedrift
eskorter
##rene
##uligheder
flor
manglende
rejalt
##post
##dyr
##isin
##staf
julen
trivs
gifta
##90
bredden
##olja
spraket
brut
romer
glade
63
hekt
fremtiden
##okl
lot
lukt
well
offer
safremt
##sspel
skjul
hvide
##kod
##ikere
##iled
løse
1995
gitar
##eler
abonnem
##icera
##funktion
fremgar
spl
hjer
yta
##hjælp
##bag
dokumentation
springer
narmast
hul
##sbest
mester
72
lac
kryss
livsmedel
mader
hemsidan
faktur
godkan
skoj
##fj
##forl
vigtigste
uv
oxa
inomhus
rollen
overord
visser
act
##fla
bund
##radd
hack
asikter
uke
183
android
syge
##hals
konver
udgifter
alter
femte
omojligt
leverantorer
dvd
likt
##slin
tabell
rask
##endt
##ifi
##ingsdag
##rades
styret
vandet
landskap
citron
##anders
adam
gig
avlon
rand
seger
halmstad
flytte
kod
musikal
##platt
##organ
utomlands
traningen
høyre
antagligen
##ryck
leksaker
punkter
##ømt
moral
innehallet
gemensam
##disk
forskel
forber
ago
##landske
dun
cur
##sjekt
savel
kaka
sjalvstand
etablering
shem
##skra
øster
omfattende
manniskan
separat
selskapet
##lej
effekten
utbildnings
eksempler
beskrivelse
klasser
##alafil
stærkt
vision
##esjon
##komma
##antering
rengor
##havet
ving
relevante
hverken
flicka
graf
forvaltning
allmanhet
nielsen
##stillet
forbe
tadalafil
dyker
gymnasie
skapat
skona
kyrka
deltage
ekonomiskt
##bærer
##onde
erbjudande
graviditet
##rona
##fat
##etid
##jak
vises
visserligen
suger
pleje
fysiske
afrik
##øve
##driv
human
bebygg
naz
garn
patienten
phot
oppdater
jattebra
evenemang
rens
leka
##ørt
mi
##udselig
olof
ze
opfatt
multi
pall
sønder
##stander
oppe
diskret
gb
##stig
udover
fattar
trevliga
old
taket
##skvall
soldater
benen
møter
knappast
##inarie
vacc
diskrimin
portug
##iene
pludselig
tvav
sluts
##ordes
62
riktlinjer
trist
intim
endte
##samf
##undersok
##ava
##stillingen
tryg
##edia
debut
styrelse
katastro
fagel
sutt
staende
shop
##eve
uppre
hellre
landsting
munnen
fabrik
anvande
polen
minnes
apote
presentera
##kelsen
liker
medborg
kone
ovanligt
stiller
##kvens
forar
##skiftet
beach
##olin
##agan
##ningslin
ledde
##tagelse
fremme
geng
brom
legg
olja
konsult
aktuell
sikkerhet
belg
##landa
tvart
planerar
berom
##ymer
gutt
##haver
faktura
planera
fjarils
katol
uc
shemale
basert
tekniske
may
eric
spekt
glæder
legit
##rende
##kred
##evis
darifran
styra
klimatzonen
inslag
endda
kollar
##øje
fræk
slutligen
behalla
delas
##ikon
familje
ig
##sbygg
sektor
amp
butikker
sje
jobbade
alumin
gave
troligt
tungt
verksamheter
doda
##omraden
analyse
jobber
bransch
kommers
mkt
harry
almindelig
##uttar
larsson
kjente
unikt
kilde
granser
exempl
baseret
pon
ligge
jazz
lenger
apen
klub
sandsyn
##istik
ik
##awa
##gangar
##mans
cu
ideal
atgard
yog
##sse
kassa
definition
sket
sidde
raka
foljde
##læring
##fuld
hedder
virus
eventuelle
68
lordagen
##19
debatten
udviklet
steget
undersøgelse
##strand
##itten
kirk
ml
haper
høyt
oph
fann
##splanen
bun
konkrete
dir
hp
planering
tidig
konstru
kanon
vask
henvende
stannar
small
forbedre
klik
hamnade
##banan
##styrelsens
komfort
regnet
listen
uppstar
lægger
##ude
regnskab
kreditkort
mekan
1992
skjut
##grader
motesplatsen
alexander
##samtal
##værks
cra
anderledes
hær
flyttet
##kendelse
smatt
##ikte
lisa
##try
eleverne
##13
skarp
hop
bens
##sproblem
materialer
##varde
billigare
udgør
bik
direktør
forlang
pussy
vert
stracker
##kir
jamfora
grans
indik
utmaningar
bokstav
james
stallning
##parten
straks
##plads
egypt
argument
avslapp
tycks
##ligheden
##ience
##isterna
daglige
##lerne
eskil
ica
linjer
schweiz
microsoft
afdeling
trondheim
summa
perfekte
forsen
##øjet
##kap
1993
mata
eventuell
hyd
##terade
sites
##formaga
ast
angest
king
##bær
olymp
##ous
##hn
##skurs
fjarilsart
tradgarden
byggnad
##kler
speed
hamn
rehabil
udval
movies
ida
##spris
traditionella
upplag
aluminium
##sjuk
##spe
manskliga
tech
kapacitet
selskap
hørt
bestod
historisk
##rukket
##information
negativ
postadress
trening
skat
jordbruksmark
kvartal
##holmen
speciella
primært
pagældende
optimer
installation
kust
##rollen
efterhanden
##anken
##rats
blogga
1500
skyld
##formed
processer
kyckling
fjall
deltager
konferens
stannade
##sku
##holdelse
elin
##trakt
uppenbar
velge
hockey
tjana
mysig
##jejer
fredags
oberoende
nør
##sall
teoret
museet
vende
avloningsdag
##sommar
udviklingen
omdom
byn
##17
faglige
kass
##brud
##liggande
svarade
premiar
insats
bære
synlig
##yder
##bolaget
publikum
kru
tillsatt
##geren
vardagen
glomt
andersen
register
desember
brø
spot
jim
myst
selskabet
##meste
frist
utstra
franske
erbjuds
pant
holland
fødsels
grasm
koppla
betalas
riksdagen
emellan
##ifor
ovre
flyttar
vinden
kilo
vaxter
##aben
oplevelser
forskell
##bran
korte
brugte
tour
##liggende
agen
savann
uaf
konsert
utvikle
##sas
albumet
verket
texter
københavns
gjøres
planet
grymt
##delses
88
hormon
tillade
internett
##ruppen
##vark
tusentals
missa
bd
##bund
700
medlemskap
konkurran
dater
##sjo
webcam
##bryt
##rich
##osen
lægge
esb
##vete
ringe
##hydr
mia
iii
paga
sper
byens
roller
day
##bygget
fysiska
kabel
tje
sankt
##dags
feber
klimatet
helsingfors
##eser
skuespiller
ment
cr
bubb
passe
##bs
##stande
##inspekt
##oty
metoden
fiber
metal
##losning
hustru
##iff
speciell
spelas
##elsene
følelser
bh
##vaxtart
##løsning
snack
ytan
##22
##adt
dramat
benyttes
2020
uppman
##rikes
hyggelig
farmor
##usion
lena
dygt
rekommendera
expert
passager
email
forholdet
mem
ordinarie
varianter
bredt
hanna
købt
74
1950
lediga
##bruks
weekend
rast
verklighet
##yndigheten
erkan
fortalte
retningslin
internationale
sølv
meningen
foremal
studio
class
lyft
##edom
utgar
skape
##lser
elektronisk
##ssystemet
trag
##kert
uts
foton
digitale
inspel
gront
fyldt
##ensson
hyl
besøk
##bana
øjne
klokker
centralt
##yo
##iera
filer
mots
svær
fasciner
psykiat
oftest
medie
##uu
##just
ask
##videre
ish
damp
rejser
konvent
loven
##spol
tredj
98
certifier
tø
takk
begynner
##kok
bestallning
##finans
beløb
biblioteket
sas
produktionen
noveller
brud
lyfta
sørge
syv
afgørende
##lista
##iox
##iro
matematik
##skilde
##besk
##maskiner
##cing
fuldt
cle
færre
ult
jente
##vnte
##glas
verkade
kond
praktiskt
umgas
##last
stres
watch
undvik
rida
andring
abb
alm
negativt
##kræ
##´s
sambo
beteende
lagenheter
opprinn
##ua
nede
##kanten
syssel
amatør
gunnar
upphov
poeng
raskt
elva
sports
workshop
ekskl
open
##vetenskap
gustaf
kanaler
slippa
afsnit
aring
aga
skabt
##meddel
stallde
hest
##oppa
##kun
traf
##iviteter
##blom
plugga
##egnet
dahl
geograf
tyder
sjukvard
stoppa
tavla
lit
endvidere
bekant
insag
ottawa
bryr
##pri
runda
hamtade
##bæk
kompetanse
diabetes
vardenafil
division
belon
##ojd
##fron
temperaturen
grundlæg
formand
beskæftig
viktigste
hallen
aktorer
besoker
temat
##konto
levende
utmaning
##sberg
uansett
gla
##aaaa
administration
hastighet
bjer
our
##king
fott
gymnasiet
##rut
statt
naturlige
drive
##spa
##rettel
vinster
indien
attack
73
krigen
permanent
mund
jarnvag
høst
skifte
hente
gjordes
vedkommende
##kreter
rene
doft
##samheten
##gubb
meddelande
avsloj
fron
veckans
glomma
university
formalet
white
anbefale
##my
sanger
mikael
##pak
medfor
##ize
reflekt
generellt
frokost
mamm
olie
zo
stof
##muse
dejlige
tapet
dagligen
regeringens
bjuda
##iserer
henvis
belysning
##ampa
administ
bage
gjord
startede
rop
jamforelse
smule
omgivande
fara
##belt
rekommenderas
klag
term
fastighets
opfyldt
lone
1991
karlsson
himlen
førte
mobler
infrastruktur
skinn
forskolan
lask
parken
inbjud
##tagen
flag
aktive
mobile
nm
spesial
hammar
79
##sette
dress
##jam
malin
karleken
udbud
carol
##ove
ekster
nut
stream
##mende
koka
soll
forsak
stram
gronsaker
maskinen
##vikt
avrin
dipl
##zer
vælg
ophold
bam
##pool
medvir
##aring
komplic
fle
##skapen
ts
spri
##mast
generation
tilpass
tunnel
disc
proces
dos
76
lom
forstod
skum
udeluk
lamplig
snor
revider
##kningen
##pligt
##cykel
##aldte
77
medarbejder
mage
##ingsm
##pression
mente
##verkt
larande
søde
kopen
spiser
ender
##ingeart
##butik
tvavingeart
spred
betong
kende
musiken
##rim
##elserna
##tek
junior
studi
legat
##jun
galla
bengt
vandt
##asjer
game
jean
minus
bevid
##inet
kontaktannonser
che
arkitektur
japansk
bevæ
##asse
oscar
andamal
byer
morse
##beratt
##ionerna
kveld
##holdning
street
kaff
tillater
group
ryd
##mord
loj
harda
byr
skip
78
krev
uker
asa
##holl
utrust
gransen
imorse
somnade
dygnet
kontoret
intellig
forrige
solgt
##aldern
billed
repræsent
nivaer
intakter
afton
videnskab
instru
##ningsomradet
motte
97
overg
motsvarar
sjukdomar
bygninger
##porr
traffat
his
utlaning
eventyr
##visor
blow
synner
meny
anvandar
ink
kostnaden
velat
sorte
fød
sød
ledsen
koordin
jeans
##ansvart
svett
trin
forløb
##ript
biljetter
##proc
utnyttja
tilrettel
sælger
fritids
action
##programmet
regelbundet
tunga
vite
skoter
virt
##dam
skoler
usikker
##iskop
hanter
##arbeider
##dighed
##ensis
ork
utviklet
beskrevet
losen
kondom
##aven
hasten
erotiske
handlingar
gubb
goran
georg
##arium
starkare
##cl
fokusera
##talje
eme
tæ
sendes
ønskede
handelse
eier
erstat
stadens
departementet
##otet
sentr
days
malm
##æs
udfordringer
##artik
historiska
##bile
baserat
mental
landsby
##kendte
genop
##hh
##efter
moss
slap
##cell
silke
farre
kjenner
moment
ambas
##søg
reise
gt
##stjen
annons
rep
læng
##ado
##stider
hass
tvar
elegant
##ratter
##anderna
personale
##ria
##dalen
djupt
comment
grev
undersoka
forstark
nordiska
pren
positive
tages
midten
tidning
##eringer
vaggen
banen
labor
latta
simpelthen
affarer
bliv
##eks
variant
apne
kick
squ
sjovt
umu
tuff
tenke
teknolog
sammenhæng
sjukskoter
##cake
andas
tranare
progn
rap
rengør
##spir
init
nyhed
trang
how
##ifest
utstrackning
utok
designet
##strøm
medbor
##jerne
gjorts
bomull
premier
klokken
behandlar
##ute
skriftlig
##slov
upptackt
slett
allian
slapper
demokrati
beslutning
projekter
varierar
foreligger
##ægter
##omet
runde
glim
minnen
avtalet
frid
næst
filter
udenfor
what
venlig
raknar
narings
she
##yns
favoriter
sigt
advent
anlaggning
antik
overenskomm
foddes
hakan
##sprocessen
kvart
betaler
pæn
moden
drø
studien
##ioxid
haven
understø
sexfilm
genast
trett
uppfor
nogens
dækker
avses
biograf
##førelse
##tjanst
værk
rose
##sned
anbefales
##rogen
ovant
##orts
##shem
medveten
sakerstalla
recensioner
cast
nøgen
beskriva
##ppa
##dørs
##medlem
download
kritisk
##osta
##yrelsen
roligare
jylland
brudar
johanna
hardcore
fremover
modtaget
##pack
syftar
galt
win
parf
datorer
mojligen
politi
klatt
##hopp
fenomen
##vitt
urin
stiger
##stolen
magasin
sanna
##agna
##perioden
erkl
ombord
plugg
##bod
likad
moln
verkliga
kompens
nettsteder
fc
oliv
kandidat
strum
foretagets
kannas
##efte
stada
##amet
##to
leverantor
lott
##log
integritet
ordningen
leverer
##ogne
foljt
skatter
landskapet
##no
96
##elden
##seffekt
uppat
##stang
party
utslapp
trus
spont
report
gev
personlighet
lastbil
overgre
praktiska
inneholder
hovedet
##stjarn
kb
insattning
tendens
utgifter
elementer
##vind
forsvars
internationell
rektor
anpassa
emeller
rank
bbw
kh
##ænding
nils
cha
konsumenter
##beide
tuttar
##hvert
kej
emellertid
premium
kravet
midsommar
##elin
levere
slots
##kurs
dorr
lil
falder
##edygt
drev
##iserte
auto
suttit
upplevelser
flyt
immun
##ømmer
kvinnliga
nyar
##ooth
##able
usb
proff
fans
brød
øget
benytter
døren
papek
nabo
dick
vice
svin
inkluderar
smaning
##iseringen
langvar
doktor
metode
hjemmesiden
tings
batteri
tilbyr
billedet
sannsyn
##dagar
ligg
prøvet
ansikte
landsbyg
naring
løbe
samlar
reis
gjenopprett
vejr
utvecklar
deleg
##klub
tross
klarer
volvo
##orge
gengæld
flu
m2
heder
tavlingar
##bildning
##unns
##rutt
##hs
innebara
bea
##essig
anled
wi
framme
##uppgift
leds
##bling
befintliga
forvaltnings
##ington
jesper
besikt
gulv
##skottet
internasjonale
##regn
##jonen
##jente
klan
##tage
øke
persson
##ume
bestemte
insekt
cv
nedre
skarm
creek
viktige
##blog
statsminister
dl
faktor
sop
vandring
ola
busk
verka
hatar
evne
ratts
utvalg
vardet
trække
skydds
blank
somna
##kelser
##elighed
##rod
lanken
stavanger
repl
framgangs
##behør
##rund
##skydds
forfattaren
arbetsgivare
kontra
##skriget
##ori
##pes
fordju
piller
smidigt
kw
##spelet
uppfattning
86
ikon
indgar
ændring
planerat
snalla
nogensinde
overskud
maden
##asten
##samen
nøgne
gras
ugnen
pur
spørge
##havare
trosor
vett
bac
katalog
##kak
nasjonal
frivillige
##uder
89
long
praktiske
##imenter
fastigheten
skonhet
##lejer
##merksom
licens
##værelse
ert
asi
eriksson
bilaga
sle
reserver
oppdag
nærmeste
sofia
smaningom
læst
foss
forpligt
##byggere
rekommend
sr
indkøb
herren
teamet
serios
##ttes
##vanlig
leverera
cru
bevil
175
##valitet
elektr
aterstall
##spass
anlegg
foretagen
##træk
praktiken
hospital
bekl
trump
import
vig
110
##udvikling
ves
negativa
tillæg
mørke
anhor
prenumer
inriktning
stycket
##trafik
##stalt
##spra
gotland
eskilst
russiske
frida
storst
kjøre
pakke
finska
gifte
fastigheter
duktiga
hette
modne
##nelse
stop
hverdagen
skillnader
arbetslos
levereras
##ission
beton
pun
primar
skett
klubbens
84
bakat
enheten
mæng
lycklig
hett
forklarar
værelse
stik
##vne
##usi
tvartom
##ni
##ckande
karriere
sosiale
godkendt
##eled
gillade
##ary
gemenskap
mari
hjalpte
offentligt
bestemmelser
kvant
basis
telefoner
##ragende
##skick
dets
access
modtage
##bygning
##ningsfor
ledere
##steg
##sbr
put
annonsen
##verkets
tillbring
##adet
magt
##fold
ankom
tingene
forkyl
kud
manu
omfattet
##iserat
danska
jamstalld
##huse
##ew
##lagte
slutten
afghan
volym
forventes
##ekon
##aminer
migr
##jem
ipad
specifika
1989
##edda
add
##savtal
##anne
bostadsratt
regi
##olade
kollegor
løber
##serien
fornem
elisa
oppmerksom
bredband
omvand
siffror
kika
160
lukket
##ener
bryta
##klan
sorts
varenda
hyg
tydliga
##bbe
aff
internationellt
##attan
resultaten
stærke
dek
##saf
friluft
para
kæl
funktionen
fylkes
togs
bygning
nøy
##øring
oppnade
bakgrunn
europas
naringsliv
##vejs
forandras
morka
innhold
##skær
billige
behandla
##hovedet
##oteller
lordags
adel
profiler
sakta
##slosa
snon
fair
ordin
##slar
harom
##istiskt
lovar
drivs
foredrar
##uti
halls
fortsætter
frivillig
##ojligheter
ambul
personligen
badoo
konserv
livsl
##strup
##itation
##itte
orange
##stedt
betydelig
pojkar
##ati
##domar
enhed
fantasi
##bocker
united
valget
boliger
brittiska
##pul
nordisk
##departementet
familier
saft
hundrat
frugt
##kningar
uppdraget
træner
forsøger
##smat
##cha
##ankande
##igar
setter
valp
tillag
fragorna
tele
swe
mangel
overlag
sexuella
charm
vantade
fak
##jour
europæiske
gjennomført
blandning
vidste
fartyg
util
##anmark
##asinon
institutioner
##æves
ern
ped
ljuset
enige
##somraden
##etning
##erats
##car
##vagn
gatan
stanga
gøres
byggdes
skrik
netto
temper
legen
søvn
smerte
upphandling
introduktion
fremragende
maxim
troms
vegetar
##skamp
personalet
##gardar
størst
##bre
bryll
##dringen
sondagen
artikler
budsj
klokke
##bandet
##ords
overblik
kyst
emner
##iliteter
##gelse
##parken
uteslut
interakt
##gol
drabbas
xx
dygn
konge
komplex
foreldre
minor
900
vunnit
nark
##75
##kvar
ande
tlf
lakemed
lopande
riskerar
ordentlig
dron
tilldel
celler
kapp
##don
dagis
dalarna
kommunala
##zen
##kontroll
##setter
arenden
rio
##gym
yrke
barcel
drommar
stru
uafhæng
##ession
##virksom
fredagen
##profil
forskjell
##hard
kommunale
eskilstuna
skud
reson
##rus
ændret
ulf
overbev
ogonblick
erk
tillverkar
jess
ama
george
pier
##banken
##banen
insikt
begrepp
tvingas
blok
norska
fm
##acka
##ceae
troja
tett
eskorte
lur
##stopp
komfor
##glad
tilbyde
##grad
##eliv
levererar
##blet
##rapporter
jenny
##dagens
##pum
179
##day
170
lt
fonder
klassiske
83
kraven
rag
##data
avsluta
falla
paverkas
##øret
medisin
saaa
garderob
stoff
kristne
storlekar
##priser
diplom
betydande
##melsen
komponenter
døds
balanser
barneh
radighed
fylke
##iseras
medlemsst
fare
non
kalas
##uge
##pal
sande
##smæssige
##arker
galet
bøn
1700
##lock
klanning
flod
vakna
##emask
aspekter
gest
sjælland
##klipp
##kna
brow
##sbel
##lt
kopenhamn
##væk
miljop
##skrivning
##boende
publiken
##ansvarig
valuta
##arke
ljung
muslimer
roskilde
1920
uppfyller
##pade
##skrona
pagaende
paborj
wikip
##deb
sanningen
stykker
##splats
støv
hoppade
##budet
generelle
utgang
uav
##km
vigtige
##cket
mans
ugen
unna
slaget
bdsm
sonen
##entar
college
##ssk
##oman
##isjonen
skapade
vildt
kigge
math
mæl
##uddannelse
stærk
tull
##ætter
alternativet
##naren
webben
must
##position
forsvann
utstallning
katter
minuters
balt
pian
nad
kriget
skyn
plug
##industrin
studera
##sættelse
##fre
##kyr
militar
begransad
##plat
hobby
arne
kanten
##øder
hallet
##23
handerna
solna
manniskors
leje
##arder
##stemmelse
##kommit
##storp
observera
byggt
skab
skønne
julklapp
spendera
skik
##oci
##ugen
mobb
arbetade
kommissionen
light
anmala
udgivet
yttre
aldsta
tvatta
vikten
##rette
##ylla
ifragas
pasient
tekniken
kød
sosial
konkurrens
overnatt
begav
kran
##ffel
religi
forordning
dott
andringar
blas
deltagarna
robin
##umentet
enkle
##tom
lufthav
webblas
produktet
##sfri
forekomm
jobbe
##album
koncern
regjeringen
##unge
sprut
leker
##agte
sajten
jas
##utomater
nordic
nøj
##lon
opfor
ond
uppgifterna
blue
dagliga
stilla
tt
traden
branschen
##lyser
presenteras
##yser
##hyr
radet
samtale
barnens
rika
94
vilde
##sutveck
anstallning
fog
##figur
##backen
jordgubb
dyra
##nis
scan
definer
trycka
##forand
##gøre
muligheden
##iforn
grundlæggende
uppmarksamm
tjejerna
##test
danne
93
louis
heltid
1930
bondage
uni
enter
kalt
interview
##fulde
lem
beakt
hantverk
##varda
innlegget
north
forbjud
epis
spekul
##branschen
utgiv
manag
forskola
priserna
sjø
samlat
sprida
bespar
gur
atl
indian
tjenest
##menn
hjarnan
##førsel
varet
avkast
fatta
1988
wo
##forsta
samord
##ningss
montering
munt
henholdsvis
beraknas
##rib
##saken
bow
hantering
##klubben
##staver
socken
representanter
##ellet
##ørsel
endringer
oron
##ican
##livet
mess
tværs
forlorade
klage
reaktion
derimod
##kjø
##øte
tydeligt
fotter
ce
ursprungligen
##omer
61
stoffer
krydd
guid
##ologiskt
sørger
oppdrag
redov
udgave
reglerna
bitar
##light
fjarr
indones
##annan
##bygger
brugere
fordelt
tomm
##tex
homosex
knap
organisasjon
packa
##edem
forank
marke
grek
irak
oppett
olsson
livets
##kelen
medans
slo
recension
summer
levde
##ørte
historiske
manus
bonde
##porn
##esund
tyng
forklarer
italiensk
mangden
##serie
oversatt
manager
klær
klassiker
verdenskrig
følte
##das
##forvaltningen
karta
irland
##nats
bevidst
hoteller
skadespel
##sagt
##lings
##helm
##plassen
kursus
##ømte
school
tidpunkt
intensiv
140
udarbej
mission
victoria
##sons
konstruktion
##een
fangelse
bakterier
citat
##ualitet
afstand
udn
born
spanska
smink
spej
utbildningar
##zo
orter
first
jattef
##sbas
felakt
betalningsanmark
##sakerhet
arliga
##kvalitet
vejle
diesel
alternat
rimelig
bell
iden
beskrivs
larm
medicinsk
##kamera
pred
optimal
##byt
manden
##design
##ivir
avis
forma
faglig
##bjerg
kristus
##avgift
budskap
esbjerg
seb
utlandska
aktuellt
##stens
dengang
gator
##zy
inbland
##icia
finaste
uppvarm
digitalt
##spolitik
integration
oppettider
tropiskt
valut
træt
##øk
uppdatera
distribut
##stallda
mt
##struktur
væsentlig
bildet
adressen
##revis
##sert
misstag
snakker
##ato
##uttede
mega
kore
stein
nyhetsbrev
regioner
##smode
##kreterare
symptomer
muligheter
lækkert
kontakten
larsen
magnet
halvar
##ylar
omtal
tagg
sparar
farsk
display
rosta
gh
##assiga
130
intryck
had
##ely
allerg
##politik
effektiva
patri
kit
niels
##setning
enig
87
indfly
husker
panik
direktiv
apoteket
82
innehalla
annoncer
blød
fyllt
nærings
ventet
##sendt
grunde
arbejdsmark
drott
stek
omtr
dommer
##resultat
1940
slatt
die
##klad
##koll
##lu
mjuka
odds
besøge
geb
##ves
##rens
seng
undt
tilbehør
medborgare
planlagt
randers
##eman
syss
##pis
socialdemokrat
funktionsned
farlig
##vendt
muligheten
##holms
nylig
bolagets
kronika
midlertid
morfar
##sprogrammet
pay
avse
##grunden
mødes
##koppling
kontanter
designer
##priset
vester
work
##moder
##drift
foreskrifter
##løst
besokte
distriktet
lady
orolig
hyresg
bistand
kommunfull
testat
##eftea
##cht
laggs
overensstemmelse
byggnads
arke
##estad
ledd
##organisation
##sperioden
forvantningar
efterfragan
exister
engelske
nike
##ktorn
##jare
ytterst
nice
bunden
dm
tjanste
ef
##teckning
vaxtlighet
værelser
placeret
##svær
udelukkende
begiven
skje
bearbet
retter
datingside
gel
outfit
pad
føles
##ield
norrland
hjemmel
kampanj
hill
arbetsplats
testet
##ligvis
vell
britiske
fremst
pt
byggnaden
hamna
fungere
kommand
##issar
svare
##prom
##cipl
##skur
##pin
behandlet
##systemet
roster
holdet
forandra
søren
##etts
##hlm
tja
orsaken
##fun
lung
az
potential
##utrym
uppfoljning
stodja
##stin
klam
##jel
analyt
gymmet
vul
unger
bebis
##egard
globalt
##byggd
##rull
sannolik
##marken
rang
invig
floden
versionen
##ejen
##lang
langsamt
##slok
ledige
##menter
##kester
højeste
##رررر
robot
jev
##ward
bredd
ønsk
laborator
##sgr
##arbeidet
foreningar
utsatta
viking
sf
smslan
skak
hjemmet
##bolig
forstatt
stigende
##cre
##verks
avlopp
##hallanden
times
foresp
uppehall
##lsen
##65
flack
##bost
ungar
##morgon
marks
hallbarhet
nævnt
##emeld
##stillstand
natter
##afton
titeln
repræsen
##snittet
sjuka
markant
92
##hult
krediter
konflikter
was
foresla
sams
hungr
kriterier
##akte
ovanfor
turister
##ekort
toil
øge
slip
gammalt
huse
##shandel
##sfull
politiken
underlatta
paverkan
vinkel
##go
tillgod
bockerna
renovering
backen
godkant
hoja
nominer
atmosfar
blin
skara
ss
night
agera
##plant
velger
begreppet
ryk
##synet
forald
1987
##kland
omtrent
medverk
river
forvag
opera
producent
allmanheten
forhindra
overhovedet
paminner
##sens
placera
baka
viet
presenterar
##ywood
##stof
hænder
bryter
sove
strategier
passion
##dæk
ledarskap
kriminal
barcelona
##pla
##arv
##emedlem
atervin
nyeste
tilstræk
artens
##oe
udl
dras
##okrater
##firma
##wer
forord
virkeligheden
##skilt
bekvamt
ordre
foraldrarna
utredningen
virksomhet
rytt
intresset
seminar
vejret
richard
nyttig
kemikal
sidorna
argumenter
##opter
svensson
jakla
tram
artister
berattelser
##ogs
vaxte
auktor
kommunerna
oskar
indholdet
##centrum
asikt
##lasser
introducer
redovisning
vaknar
begrænset
kvadratmeter
1986
ført
##dating
##istrikt
stip
##øyd
##vader
argent
vokser
178
institution
nap
lagde
tennis
tron
##jd
##bul
styrker
##bba
investeringar
affaren
tabellen
##vidt
##atoren
aterupp
##cal
ledningen
##estall
samtlige
nomin
avsikt
pick
drenge
anvandes
##rere
content
smaken
hihi
forg
krever
##barhet
opmærksomhed
##une
##ji
institutionen
udført
bytt
forsiktig
skrack
##skostnader
bollen
kinesiska
##xa
samlade
fællesskab
musiker
touch
stoppe
henblik
tacksam
andres
royal
afghanistan
kategorin
kaos
potens
coun
spann
kjæreste
henta
eur
sadanne
marcus
inspekt
kle
berattelse
fjerde
virkning
meng
derved
plattform
##smaterial
brister
##drende
dricker
følelse
lagring
tidningar
feed
terra
utvid
samlas
skjøn
area
morten
ovningar
refle
ideen
utro
##nan
avgj
##ect
dur
##ogram
nybor
larar
fortr
arrangementer
plante
##supp
forbrug
##ero
specifikt
hyper
tekster
sentrum
kvarter
aktenskap
##board
tillfreds
kræft
narkot
##cast
bm
##vor
mick
medi
alska
##forsaljare
##ods
signer
tjek
kommunikasjon
fortid
1984
stapp
sammenhæn
sud
svend
loppet
louise
##kons
hera
handtere
rea
##ykkedes
##udvalget
deltok
##irekt
##tekt
laur
##flyg
tillganglighet
kalor
##emiddel
##varor
anvis
brot
opstar
##kra
suga
##smannen
kompetencer
##papper
##massigt
##sreg
##yse
dagligt
wester
rettet
##ifer
##jorden
aggress
##bell
hemib
##chat
revision
frost
klager
agent
lærere
##rafik
skur
##lager
##ng
studiet
##ky
##ict
kvalite
madrid
forsiktigt
##mis
##itteratur
##oreala
kvm
##skador
bøl
journalister
maling
##ulin
hemiboreala
##stjanst
rud
bøker
##splaner
nude
opptatt
upptackte
##gir
##avn
kreditvar
astad
politiskt
mærker
pump
fuldstændig
høsten
margar
##forskning
chan
##sider
blowjob
angar
innefatt
kommentera
signaler
risker
diskussioner
commun
##ame
##delinger
##feller
iron
wikipedia
gigant
##avling
avsnittet
hvorvidt
##istret
##melige
sthlm
lette
ravar
##ævnet
vinteren
skridt
##cca
1985
ramen
bergig
fax
opprett
inkludert
veckorna
sagtens
tester
brasilien
beliggende
synpunkter
sakal
##cs
##lav
undersøgelser
##musik
71
forars
##uf
forvantas
##idig
tekniker
byter
timmars
videregaende
trykk
lykke
utmark
kup
kasta
vurderer
hundarna
sammanlagt
pedersen
japanska
##bia
justin
skickade
##inci
##istent
sjældent
tyrk
##yndighet
##præ
evangel
minimer
skiva
kokos
skulpt
##fug
filtr
rakar
##shus
passet
autor
##ærende
malar
alvorlig
##sbolag
klient
tidligt
mødt
sticka
##redovis
flyttat
uppskattar
marin
fynd
videon
ryt
avlag
##holdene
scener
pok
abent
fonstret
##handler
wild
blatt
cirkul
##vad
kundens
##resor
byder
bane
kys
stalls
who
lansstyrelsen
referens
ledamoter
tjanstem
godkand
lykkes
acceptera
vistelse
jobben
gry
myt
##ætte
reglerne
populart
past
sana
samhallen
romantisk
brukere
##atar
##producer
rart
##fjord
oversigt
enorma
##cos
tander
m²
##vas
##duk
gennemført
baserad
restaurangen
##lær
bakgrunden
damm
respons
send
south
##innan
##iseres
korn
##bott
presse
##pre
jung
fanga
detsamma
lyse
rabat
hvorefter
##nelsen
morkt
spelarna
dagbladet
gluten
internettet
conta
gitarr
pratat
orientering
mum
nødvendigvis
ansø
fortjan
##brid
overgripande
utfly
omgaende
##skifte
sovit
øye
installning
kropps
variera
pel
##industri
butikken
links
brus
siv
karleks
kontrollen
1600
asiatiska
website
##motor
skapas
##spartner
kreativitet
solo
meddela
tabletter
udde
nemmere
søster
rorelser
##yre
arbetsuppgifter
##økonom
ostersund
lavt
spansk
pavirker
lover
##skall
ansoka
##ki
riket
bruks
##iode
okning
vedtak
utsl
##pter
inatt
omfattas
##ony
lita
styrket
##ifikation
pojkvan
brygg
##løp
##omi
##put
dennes
traditionell
##rud
torg
unnga
viborg
jonsson
##ario
korkort
varia
fardiga
ordna
antib
ash
systemer
snø
artist
sesongen
befri
angr
music
gilla
fotterna
loser
##stroms
games
tjejen
utbredningsomrade
bæredygt
komforta
handic
##az
gad
iværks
indflydelse
julia
mek
inflytande
amerika
revisor
##jef
kolding
mull
vantat
ahl
enst
forbereda
##byggda
drømme
kroppens
##sbo
professionell
rutin
hjertet
videokl
grænse
##edyr
fordele
slappte
websted
##sbeg
nettopp
omgivelser
##ævnte
##grav
krang
##etta
losningen
spen
poster
##ible
spilte
høg
##tas
allvarligt
##retten
missat
regl
besviken
bach
statliga
##ssitu
fisker
kaldes
vav
opbevar
arean
##entene
sallad
forventer
kid
oppos
leon
mir
festen
teksten
risikoen
avgora
management
##bjud
fulla
applik
ondt
beveg
##ommer
ff
##esi
wifi
gjorda
cross
emne
##regel
faldt
##ioter
##fram
##malm
harde
scand
minskat
##alar
brukte
tub
killen
##central
rehabilitering
pause
tobak
isen
anstalld
trivsel
asiatisk
obehag
omh
vande
hentet
doser
utviklingen
avrinningsomradet
gala
smerter
blandskog
veder
saint
##temot
##nom
katten
##undervisning
proced
kalle
moun
diameter
##oke
lenn
##ffade
vinnare
slav
##hjel
vanilj
orsaker
##atorn
banklan
nul
samfunn
##lopp
##dress
kørte
stott
million
##junkt
##atus
##rater
##vask
miste
##can
##like
blodet
vinde
saljs
##snummer
nur
skel
regne
grun
##verktyg
gives
##agaren
mandat
##ups
##issa
chatta
kurset
##ights
besluttet
slutningen
leverandør
symboler
massan
desper
##landskap
##ulette
støj
##foljande
##andan
##svagen
darlige
palit
beund
dart
##frihet
raddning
specialist
drama
##sorganis
fulgte
arbetsmiljo
njuter
fullstandigt
bjørn
vaxande
##sdagen
gyll
kasino
##halsa
lampligt
italienska
beskyttelse
kallor
##oken
miljoer
værdier
forventninger
erkanna
losenord
godkanner
blott
krafter
##byen
lykkedes
##ingarna
ovenfor
viktor
handika
stede
##blogg
nervos
flexi
##ihop
##hd
trekant
makten
majoritet
##frem
omfattning
kontinuerligt
##sajter
aik
##spor
sogn
myn
utspel
enstaka
jør
arbetst
##anke
hjelper
chock
ling
hmm
ryck
utforska
hert
smør
skolans
luks
fardigt
formiddagen
vinder
grunnlag
kreditupp
##halt
frustr
##hantering
inspirerande
grundades
##api
utvecklings
understre
##kontor
##brand
tidiga
forloss
merke
tilbag
delarna
dyl
varldskriget
adult
regional
##oplysninger
protest
tillampas
##hjalp
ms
særdeles
##varna
taxi
##jek
##igheterna
##atiska
##yga
##ify
1945
knep
##gg
arendet
beliggen
textil
ged
way
dræ
esp
fitness
ligner
kampe
forsam
fruktansvart
servicen
##etr
1982
menyn
skell
arbejdsgiver
tart
##vente
billigaste
##imot
ansætt
##taket
elast
begrens
##garant
vurderes
deltagande
##oft
arrangemang
spets
sentral
udarbejdet
køle
sammanfattning
kompos
##alderen
arlige
##ikat
vager
tillgangar
##paket
valk
aringen
forstor
gna
##ovan
escortt
omkostninger
##umen
globala
informera
pkt
wow
finan
room
hei
profesjon
samfunnet
radgiver
##hjemme
privatpersoner
myndigheten
##ytor
stunder
glans
darligt
garanterat
fugt
sakerhets
oplysning
motivation
genet
sygep
fyllde
landslag
sjukhuset
skedde
navne
keram
forkort
##file
##brev
clar
##hænger
foten
palest
fysiskt
foretags
##adels
rante
yttrande
##stark
amnes
##tap
samfunns
##begyn
##vens
fungerande
seriosa
forsvaret
policy
udby
nud
forskere
vagbeskrivning
bemærk
##ites
frien
aterstar
enskild
komprom
opplæring
nadde
vasent
landbrug
forlora
##stendig
co2
diskriminering
afgørelse
skete
erhall
smukt
brygger
stok
generalforsamling
cec
biskop
##bull
##yper
canada
bemot
annoncen
kub
##gers
##legging
kampar
##anmal
begyndelsen
peppar
smith
produkterna
majoriteten
klapp
glatt
restauranter
flickvan
reseptfritt
##flugor
medic
expon
vilt
kjell
leveres
drack
resen
foralder
##ife
viktigare
fæng
##elever
##venskan
handlingen
##værker
adresser
science
##reser
dods
støtter
kalder
alger
kollat
##stak
nodvandiga
spanning
larde
91
koppar
udfyl
##isjoner
sken
pia
lært
apnet
##ollen
##laddning
##xy
retningslinjer
plag
utlandet
toalett
##gro
##kommun
tilfred
##bruket
satsar
sunn
grabb
etablert
##jed
##jakt
talat
##ørr
heraf
##peg
##verden
##stick
##gange
slanga
narhet
medborgar
##imentet
partik
minimal
##ingslivet
skarmen
torka
nin
legges
manniskorna
##dra
begynde
fabr
##iserede
mexico
pavirke
##alternativ
print
kungs
retro
jenn
fortsætte
ekspert
sønn
##obe
##ating
##befin
kombinera
html
mattias
##navn
konkl
skriven
sundheds
##ytan
menings
lengre
hentai
suver
##shistor
birgitt
medfører
toner
##aton
troligtvis
varda
dreng
utvardering
sul
redd
##forløb
officiella
anmark
kongen
diagnost
##illinger
mestadels
##nades
##vise
oral
sørg
vinduer
konkurs
maltider
anklag
mindste
aterkommer
filen
identifiera
batterier
sydlig
suck
endring
1968
depression
##sell
mosa
##tegn
snacka
ursprungliga
slottet
kosta
framja
##gin
olsen
flagg
lakt
inds
kandidater
albert
anvandarna
350
fota
##inden
galen
overhuvud
kunderna
undervejs
skyddar
matlag
##ibland
talets
utvecklat
anvendt
##ory
##asj
utvalda
omstandigheter
stallt
utvecklats
iso
##dack
##drede
cerro
utbetal
##ksjonen
oppgaver
intervjuer
##utvikling
svarigheter
smaka
1979
værktøj
tjanar
nei
flask
1973
##forfatt
tredjedel
myndigheder
mødet
byte
1975
about
militær
##stro
aja
##yss
godkjen
scre
sokande
domstolen
##ville
normer
##ekonom
gallde
revolution
smuts
hk
clo
ign
##retning
brad
farfar
syskon
semin
anfall
plagg
ankomst
dessuten
beregnet
125
isb
lyset
##speriod
muligvis
##vision
##sand
1974
mynt
undersokningen
tænkt
grunder
nrk
##cle
progress
bryn
udst
arende
##stek
præsid
services
klippa
gold
##mag
1972
mount
##ovens
spørgsmalet
##arig
holdes
usch
gilt
anvants
behandles
##øjelse
##værdig
##unget
spelen
favoritter
samsung
alg
fungerade
begag
samarbejd
flam
vg
ersatta
##amerika
etablere
##ationerna
avslutade
helger
leif
parørende
balkong
sverigedem
##visar
kasser
##entre
informations
gods
cons
hahaha
beaut
##bilen
eksamen
grunnleg
nyheder
forventet
paret
analsex
klarade
##iks
##tro
bjork
color
dokumentar
fortalt
##løbet
forplikt
befolknings
slapptes
kristianstad
##valla
gymnast
konstatera
seksuelle
rulle
klikke
grepp
kolleg
evaluering
rejal
tunge
copen
sykehus
chanser
aktører
race
##betyg
any
producera
kampa
ingred
##pladsen
tomas
##berget
tradgards
##ernes
høye
##givningen
redeg
hypp
##dis
##peut
##marker
swingers
##itch
##ulen
##øya
sound
bildades
biljett
varderingar
lagstiftning
gissa
##sbru
##ikan
##relater
redovisas
læder
##ingene
provat
forvarva
omsattning
vitlok
asp
danskere
blind
garage
##omal
hektar
brutt
##lakare
tillverkad
ansat
1971
##rive
beslutade
malen
cel
##chester
stak
rubriken
konkurrence
##splikt
lyfter
chic
representant
##sning
rein
borgen
##tral
kommunfullmaktige
byxor
klickar
##col
organisasjoner
gula
##sajt
dumt
##isol
anslag
friske
opsta
upptra
aflever
##beskytt
##usjoner
##stock
slutat
ultim
##boy
forskningen
abner
øverste
cou
view
##sang
maksim
##esa
satsning
177
efterl
##ydde
verdi
gps
saks
samarbetet
anta
smaker
##bytte
##inlagg
centrale
now
camilla
##kus
oken
spillede
abs
##sledare
extrem
sakaldte
pyss
trækker
lasning
skib
fokuserar
afsp
tenker
trycker
tabel
publiceras
cand
##stran
arme
hap
fien
aftonbladet
fundament
ventilation
klog
vaggar
##eth
halvtim
##imin
##miljø
stue
stabilitet
bero
uppdatering
hm
##prosjekt
legitim
verktøy
##olar
fylld
fos
interesseret
vedlike
mængde
##idenskab
##stallande
importer
regiss
grekland
##ents
deltagere
elevene
reform
kampanjer
stel
aterham
tænder
pensjon
varumark
##staller
medlemmarna
##33
##video
effektivitet
ledelsen
##lassen
mister
pornofilm
ic
kyll
kilder
tann
nasjonale
opin
##smæssigt
mønster
maken
forretnings
seier
##svag
begaran
forbattring
ledamot
mira
vana
panel
forsor
øjnene
amanda
skilsm
prestand
##gorande
oppfølg
korv
mora
##dahl
bratt
foreslas
forkert
lockar
serveras
nyan
##feldt
##kansla
##verre
lakaren
lagsta
varumarken
##okument
pojke
##sloven
beskytte
skadespelare
##fu
alfa
##nævnte
hagen
##agelse
##jev
slump
##instit
##ikerer
forvaring
baren
##oliga
tegne
##inte
suc
morgenmad
##vapen
tumbl
adfærd
smalt
belaget
##agande
beteck
oppnas
deltagelse
##45
bygningen
sælge
vardera
vender
opplysninger
aterforsaljare
naede
american
##arten
##work
reduc
experter
prosjekter
##miljo
innebærer
rekrutt
samfundet
1983
udlandet
asien
middagen
dertil
grønn
jørgen
hangde
fixade
overklag
##utrustning
skivor
diagram
kvinnorna
##omy
festivalen
odd
strang
1976
mistet
delade
cykla
trakt
prostitu
nyanser
##udstyr
returner
kock
chokolade
kladd
adskill
##tals
page
kaj
tommy
satts
##iana
konfir
udvikler
tacker
kristendom
normala
##yske
sofa
poul
frø
frankrig
hogskolan
exemplar
##assa
dead
installningar
debat
forbr
sættes
havn
onska
##edon
vikar
merc
##jening
ded
fakult
kompakt
##even
##maren
breda
wien
galopp
inlogg
discipl
##knipp
hertil
radik
handels
varumarke
1978
ulov
frihed
helena
tillfalligt
wash
ansøgning
foretagare
nettstedet
stjarnor
##makten
benyttet
forlat
arbeten
tillsyn
##gb
##yen
dubbla
logo
sodertalje
hensigt
##verksamheten
mach
##munt
løfte
lagret
##direktor
grænser
copyr
utgav
##win
handikapp
quiz
elektrisk
##penge
linjen
sjunga
sesong
deil
tumblr
##sforet
anmeldelser
ingrediens
madde
anteck
høyde
sydvastra
hemskt
##uvida
hogskole
feder
individuelle
distans
##registr
bladet
typiskt
1981
huruvida
planerade
snak
##ated
##sband
skolens
meld
inntil
følg
aft
##ogra
##klin
##uelt
##planer
liknar
##stur
slakte
##linjen
##visningen
skogs
tankarna
liberal
##væl
mild
spurgte
cecil
rengoring
kjøper
attraktiv
##kande
forklare
ogat
enheder
tilfeller
moll
minutt
##sack
sjunger
underholdning
gaver
tide
liga
folks
optaget
##teknik
forutsattningarna
frygt
##forsikring
skylt
##kron
skjuta
namna
##ftt
arrangement
road
casinon
jattem
anstrang
frik
stemning
bass
vegas
flertalet
ekonomin
imper
fisken
definier
dna
tiltag
##vandring
office
allvarliga
dagars
bange
appel
præm
famili
lux
klim
gris
sterkt
##hallet
fulgt
vindkraft
tabe
republik
avtale
kulle
##irksom
ping
uppgick
jamn
oand
rullar
##vald
glid
behandle
bringe
##aria
copenhagen
savannklimat
##parti
##onto
portugal
see
##biler
underlatt
uttag
##ily
##kram
jagt
rente
estet
##akes
oplevet
vaska
##uktion
ledet
flygplats
charles
sokte
##sleder
accepter
women
hørte
filipp
rakade
gentemot
vanligvis
copyright
##holt
visning
pend
##oni
funktionsh
josef
delakt
cash
kontrast
gulvet
rub
bekan
##bagg
##hurt
kulturen
trygt
firar
sendte
bevilj
tjugo
lakar
rettigheder
snap
flo
flakt
milliar
suppler
mette
masker
forsy
passende
kjæresten
ivar
onodigt
sokt
udbred
##vagar
hæv
##sbar
godkjent
vass
miljøet
lor
energim
##27
kav
filip
hollywood
cover
pastar
arligen
lof
flat
belagen
##forsor
individuella
##ssons
##cancer
nordostra
hyf
avhengig
decenn
jamstalldhet
konsol
langsomt
socialdemokraterna
danner
udtal
egnet
affald
##status
creme
##opol
missade
overhuvudtaget
markligt
sorters
tipsa
##krav
categor
orkade
##tages
mandel
##vol
offens
##date
avdelning
##tids
granskning
3000
ekologisk
gradde
foster
øker
pse
##laren
begyndt
koppling
ada
territ
##anas
5000
##sløs
energik
slippe
lap
ursakt
cirkel
sterke
minnas
synnerhet
professionella
##orienter
##elefon
foretage
nationell
##undersøg
hug
##stoffer
flygplatsen
vilje
kinesisk
##ador
bond
poolen
respon
benam
ledigt
cyklar
soderut
##papir
narmar
kendskab
undersokningar
nationale
klarte
##hur
indonesien
##dsel
genomfors
pilot
balance
##aksjon
friid
little
##sform
##ffat
juridisk
markedsføring
##nd
1977
foreninger
##forum
fornøyd
alice
stater
pensions
varsel
lede
hamburg
tilltra
bager
akse
koden
overenskommelse
skelleftea
vidunder
##sætninger
##arrang
young
ale
vietnam
##nadens
presenterade
##omme
placeras
centimeter
##hallare
##lamp
##elly
smaland
gy
smycken
hænger
ensamstaende
1969
##skolor
##ningene
elisabeth
fødselsdag
##uster
julafton
##ureau
chile
##narna
feng
kigger
betingelser
afhængig
bærer
##redakt
vaxel
wood
hvit
optimalt
##forsvar
norrut
bestemme
alvorlige
kjøkken
lavede
##sklubb
##tagna
dansa
semif
##hydrater
##mater
underteck
##givelse
vs
ejendommen
##xamen
kostnaderna
beslutar
pornograf
forsøge
talade
##vande
partners
kommunicera
lasse
aftenen
bolags
charlotte
studenten
tænkte
##35
tjeck
bana
##oks
uppfylla
jesu
aa
gjennomsnitt
research
krets
##ocke
##pil
fordelen
ljusa
exklusiva
##okan
medelhav
bt
ultra
hytt
oftare
erstatning
frys
kjønn
foretages
##not
intellekt
feltet
photos
formagan
variation
##rap
hjalpt
aterkommande
hab
lararna
fixat
filosofi
basket
##ækken
pm
##valet
1967
pix
silkeborg
tilpasset
installera
##hotell
behall
neut
undersøge
water
vardagsrum
bestyrelses
news
##zi
døgn
extre
kallat
grasmarker
##juka
##smetoder
tvekan
tolkning
skaffe
fad
forknipp
generationer
##veien
##entes
##endel
lr
riktar
bekre
##circa
##sakra
sind
adcirca
bekymmer
milliarder
debuter
##juden
halt
##komsten
##spillet
##jene
manaderna
tillhorande
##cript
##strakt
filmerna
##issen
song
vans
arbejdsmiljø
musikken
øjeblikket
parag
hurtigere
fremtidige
succe
##infl
##usjonen
friska
##ægge
narvaro
onan
##atiskt
øre
protester
bensin
dybt
##sem
##26
tomten
imponerande
##hv
mojligheterna
yderst
##effekt
##bilj
vantan
formiddag
storleken
otill
takket
tillslut
hallow
know
lektion
##ental
key
trafiken
mort
ekologiska
vedt
menade
handlinger
##lege
utstallningen
##delag
idi
##elie
##levelser
nordvastra
ettersom
rabatter
##landsk
##pladser
farten
##emt
##syk
food
frista
endre
##sekonom
utgjør
udsen
##pressen
##hallning
lesbian
smidig
samrad
samarbejdet
card
salde
hastarna
mørk
##ulering
formar
galleri
æld
tagits
skriftligt
##cas
antibiot
talas
sjong
regjering
vestlige
skalbagg
nina
great
lyng
##mets
godkannande
##gørelsen
testade
negative
styrels
##sgatan
spindel
glommer
vitaminer
angeles
inkomster
legetøj
politikere
tildelt
tilknytning
tob
likasa
ending
##ail
##bibliote
spelaren
##99
brem
internt
##phones
mountain
udstyret
##fukt
ressourcer
vegne
vaken
budsjett
##ætning
varna
namns
comments
stappklimat
cigar
butikk
##mart
registrert
jatteg
##estyr
##ukket
##laggningar
missbruk
##centralen
udføre
##ljus
##kott
analysera
brænd
turer
fristaende
leende
compan
##rock
effektive
81
nys
##allen
##28
marknadsfor
##univers
tidens
##være
sofie
##lage
boede
bevægelse
hoppar
##analys
grafik
jordens
##oped
##rester
uf
dream
##srika
##ito
sved
vintage
investera
fatal
købte
##loss
flad
forskrift
maneden
avdel
##angs
##chf
hanterar
##værket
løsningen
havdar
fulde
femt
spørger
ansl
øjen
kalde
efteraret
finansinstitut
virk
øvelser
lyssnade
brøn
examen
##sey
story
##alje
seo
deklar
##egrupp
skalbaggsart
krava
##ødt
skjønn
##æle
skjedde
tomma
found
størrelser
skovde
hemliga
prev
upphor
##frist
interna
##ysk
##register
ode
skradd
foraret
indret
konvention
frie
rotter
scor
livsk
opgaven
besluta
##namnda
##gotland
karen
konceptet
nærheden
hogtal
sandra
##kig
lugna
utfors
tackar
mineral
aterbetal
fortsette
##nær
bestallde
care
bokning
vanlige
##rakning
reag
hiv
armar
flyga
santa
forsøk
udføres
##gener
##trar
##arande
search
gade
sykkel
oprette
kenn
extern
begynne
##undersokning
wordpress
seriost
wel
avancerade
beredskap
omstændig
horsens
##ratta
avgjør
fattigdom
engl
tillverkning
kret
hygge
uppenbart
##frisk
helbred
ekspl
aldern
varierande
dagene
skattem
lakemedels
namnda
##esult
county
##kaka
##bilden
skepp
pist
soph
apps
turne
længde
kjøtt
chefen
arsag
gutter
anim
lina
grim
zoo
##arbeten
##anc
norde
oprindelige
regionala
shirt
##bom
møbler
erstatt
tillid
##styrka
##viv
bransle
ambassad
sanka
informationer
1200
professionel
##komne
sovjetun
360
##agarna
erg
smartphone
symtom
betting
forvanad
##edal
dil
kusin
##nitt
##have
darav
enklere
##meddelande
sax
mul
bedt
udendørs
anten
sterk
fjernet
vardagsrummet
dragit
folkets
noggrann
##ssjuk
hogskola
##rah
feedback
ekstremt
dyka
veje
professionelle
sengen
pekar
##ople
aterbetalning
glomde
blik
notera
figurer
servera
fam
blanding
doden
alf
visit
marian
utfordringer
review
udfordring
laggas
klinisk
##pension
opdateret
bjør
uds
liver
software
kemi
beslutninger
transa
tjene
christina
vetenskapliga
##stet
##bileum
fysik
##illkor
##iek
fard
chau
mejl
##villkor
##mers
arbetsmarknaden
biver
behandler
browser
ombud
ovning
##sklass
ubehag
tilltal
kopet
##jeneste
hundratals
bn
##stjanster
sult
vip
gjennomføre
beslutat
assa
skamt
kanel
uppenbarligen
##grans
drejer
utse
##blomm
ljust
bern
##lange
uppgiften
dimension
skota
##ialt
flit
##itativ
otte
problemen
administrativ
talent
##ønns
##rør
kroat
instruktioner
##skoler
##mn
##klassen
dagsorden
bedrifter
fremh
chefer
sammenlignet
nodvandig
##29
størrelsen
skivan
redusere
hallbart
vagt
flygtning
kortere
besatt
populær
landerna
##rol
##urdering
##givande
alderen
falun
ake
nyere
##sre
bedoma
ljuv
##ih
standarder
margin
møller
##opgaver
externa
turkiet
flygplan
mes
##spres
eftersp
arbetsgivaren
skratta
radsla
lesbiska
##bot
syl
livsmed
christensen
stanger
##strategi
atervand
tappar
hyggeligt
selvsagt
##stationen
##frit
sjove
slappt
kommunes
kakor
ey
bonusar
##styret
undra
ukraina
skept
nyder
individuell
hallas
betegn
forfl
kode
##krit
bekost
formel
brak
##frika
producenter
##æmp
jaja
blods
kaldt
helik
##pg
##varende
angst
kræfter
##standen
atom
##bør
likhet
faren
mins
salu
tørre
avslutas
uppdaterad
minnet
did
##wor
interiør
dukker
makeup
afholdt
##alem
aftaler
roulette
trafikk
narkotika
varmland
##læge
gd
##leje
##namnet
##objekt
produktions
harald
skickat
francis
##ygdom
pyn
vastlig
after
pseud
forretning
pirat
##cup
bestemmer
##radare
principer
##bis
kjøpt
##ykning
subst
kulturer
tryggt
##betalt
##platta
halloween
##ilde
spilt
login
##skarm
oprett
strukt
insektsart
sevard
angri
##hot
snick
##zar
tillgangligt
patrik
##utna
avtalen
baksidan
juster
bidrage
tilhørende
ovanstaende
hjalpmedel
udvalgte
stjerne
sjekke
slagit
kopier
utbudet
tjener
tilladelse
opplever
kassan
batteriet
nb
nævnte
##rapporten
lotter
jakten
##ilar
##igenom
berattelsen
matta
medarbejderne
##skons
bivir
##gran
dottern
##nos
mangfald
norway
marit
##fft
kaldet
overveje
inuti
##saktiviteter
mandagen
kostt
##asjonene
##skrevet
paras
##ussen
##akul
trøn
uen
foreg
##etil
sans
bart
reparation
##zan
orka
bokstaver
herning
gasterna
cyk
torn
sygdomme
popularitet
##present
##eva
contin
##sforbund
176
menu
uddannelsen
konkurrenter
##kostnader
##gel
inflamm
dyn
demens
kravene
scene
##byxor
paradis
kum
main
##bygge
syda
borte
overlam
##skema
anvandningen
##grens
utrikes
##sutveckling
utsatts
samarbetar
lampliga
##kg
gjer
viten
bygnings
republ
boy
anmod
##rorelsen
##ferd
avkastning
##rets
anlaggningar
##astning
redigera
##vant
1964
heldig
avdelningen
glede
flykting
strategisk
##vade
nettap
##varon
systematisk
fordr
mobila
relevanta
hensikt
patent
stir
##skudd
undersøgelsen
colum
nordiske
drakt
salen
locka
grovt
territor
##ws
destin
tinder
tillverkare
nettapotek
##nerne
smed
##upplevelse
bent
forfall
medføre
behandlingar
imøde
kommunstyrelsen
langden
stugan
##him
##byn
pont
romanen
##olution
otto
egenskaber
##rn
ego
##ifikat
haver
konstaterar
agaren
lchf
oversattning
mary
minder
afhænger
armband
##maskinen
ishockey
bosatt
kreative
colomb
risik
associ
tomat
##uit
faglar
##ipper
overordnede
##vning
mosk
derimot
sticker
##skrid
drottning
killarna
##prøve
fixar
vilda
##bidrag
##foder
dren
splitt
spid
oppleve
upptacker
fange
ytor
arbetsformed
turneringen
manchester
onskan
onani
##estaende
farge
meddelanden
tin
stopper
##vux
sjukvarden
##trykk
hodet
overraskende
testam
dorrar
remiss
præsident
klo
sanning
dubbelt
billigere
hamtar
ordfor
dartill
##mund
kreativa
lova
##underlag
budd
ray
##ovre
skikkelig
size
##oon
forvaltningen
inkluderer
kommunene
præst
##wan
besvik
##listan
##sammen
##laggare
villig
arch
byggde
syrien
low
terr
fremmed
break
tilhører
medium
radhus
ifk
beredd
ansikts
##stugan
stralande
grønt
ariga
stabilt
coop
##ieffekt
stilen
overalt
bug
forlorat
hf
tagen
steph
dessverre
forelasning
##promen
agde
skugg
uthyr
undersøkelse
angivet
bestil
meet
##jde
klikk
##vaxten
servering
jessica
leverandører
##smag
slikt
bedriva
dt
afsted
samtykke
anvender
drømmer
##igheden
nest
forverk
avslutar
isolering
fonden
asfalt
hjerne
halvdelen
hval
ambition
hull
medicinska
##ов
unikke
forvis
##stillende
trotta
kontaktuppgifter
suks
behorighet
gos
tillit
regner
gate
export
begynnelsen
differ
trygga
latex
##oseks
forvejen
pancake
nedanfor
tranat
anpassade
odling
##panel
administrasjon
mojliggor
havne
vanskap
torsdagen
sælges
##fas
tarta
lex
bibe
stry
mjukt
##ittel
##inspektionen
klem
##evin
reaktioner
flyger
smakar
##lagga
mammas
persiska
olav
##ology
ll
flaska
##ст
henry
opskrifter
##rads
bekvama
infektion
polar
framgangsrika
melde
##æsen
##iers
utvarder
xn
##laggningen
orsaka
1965
##real
##angre
gbg
oc
gabri
sving
##skontroll
ansag
imponerende
##mek
forstyr
tonaringar
##bber
hæl
rummen
beskatt
beat
manliga
##forsy
trukket
tig
søknad
dagslaget
tallrik
samler
forlorar
gmail
##feltet
##loven
tilsynel
indtryk
grin
rimligt
nordjylland
##forbru
##kræft
annika
forebyggande
##iche
interessante
##raning
bostaden
normale
fugle
nobel
sinne
greit
venligst
høyeste
##avet
lønns
niklas
erf
vokse
##atum
fordom
lønn
deltagerne
cos
##apeut
##plet
frivilligt
konsumt
langsiktigt
##ønne
forsigt
sentrale
anledningar
##mæssigt
##rent
busklandskap
gummi
##faltet
##weg
huvudvark
sikret
virksomhedens
kørt
arn
accepterar
spet
innanfor
infora
tappa
sajter
drevet
##splatser
##lægning
djuren
##olie
tilknyttet
joseph
##inska
roger
##sforening
##stest
stilles
##etch
##ship
analysen
##sratt
kammer
nit
##kre
overl
wiki
##svej
ekteskap
afd
smin
stackars
købes
ringen
ytterligere
inger
tittat
##seln
upplevt
##unna
skrap
maja
rumpa
pern
herfra
opfattelse
tilgængelige
##kla
koh
tast
##foretaget
lillebror
kvartalet
tv4
betraktas
ljudet
badrummet
forsakringsk
bildene
ansluta
kolleger
##strad
satell
##forbin
aqu
##gjøre
rasmussen
finansiell
skiftet
verkstad
lennart
##bai
##kult
##ofte
##bygging
alp
fotos
anbud
##eda
samtaler
mennesket
union
slutter
stolen
knud
receptet
hammer
forekommande
##iful
##sere
##horde
handicap
passande
kundtjanst
##yft
stiftelsen
forbruk
##ety
underhallning
hornet
shoppa
rike
##prisen
dyrare
##dell
fortelle
arr
sondags
##heran
##skvallen
##mare
kannet
brinner
toler
miljovan
sexfilmer
##inds
##byra
##ption
##olo
lei
##finansiering
kryds
baseras
slaet
forældrene
holls
kaste
dispens
teorier
bedoms
omstændigheder
lunds
slapps
head
vekst
pænt
ydelser
kann
overdr
ds
##skriver
vattent
lise
1962
##skyr
pastor
##lop
##ættere
foraldra
fylder
xd
kanneteck
accept
oppfølging
##install
overenskom
##casino
klinik
##fraga
tina
røg
name
kloster
utført
amt
##yth
fortsetter
wer
besokt
narmsta
landstinget
slappe
##yren
holdning
hvoraf
take
møtte
kladerna
sakerna
hero
kanalen
##yggen
strip
tromsø
belastning
##point
torra
same
kalv
skilt
most
trakasser
tilføj
##linje
pp
samarbeta
bagge
tappat
seni
tillverkade
fremmest
duschen
ramt
fortjanar
bortsett
situasjonen
gaming
##skader
##plo
dispon
missar
morgenen
terapi
nyborjare
prast
##olyck
##itution
frammande
troede
skilja
##kø
##made
timers
jamna
##ferie
##træder
pladser
##resan
idol
##skriven
##lement
##urgi
skønt
husets
helhed
##uff
valdtakt
##dade
blaser
##okning
##emaskine
vandrar
djupare
konkurranse
nedsatt
rekrytering
##iteen
inledning
lotta
##text
##flode
##renover
exam
kasse
rita
mysiga
theres
faciliteter
inland
metro
reste
sjalvklar
frat
nes
jane
kristians
handtag
dækket
nackdelar
##beting
##hjart
##kultur
skym
##skande
prestanda
rengøring
utgitt
skærm
registreret
ankl
##nets
##jeller
##stændigt
express
##kapital
hyggelige
nevnt
##sels
udvalget
luksus
##cert
champagne
##onia
##filmen
entreprenor
##arina
##erie
rick
katastrof
dages
postadres
utga
godkendelse
haug
genomforande
mads
nato
##vede
tatu
ebon
stuga
tilfældet
johns
##lapp
utel
psykologi
bore
møtet
søges
only
atal
cock
hip
forvente
forelasningar
##sprog
bygd
##vann
innsats
uttrycka
latina
forne
kontinuerlig
grunnleggende
tilsl
##fonden
fremstillet
mandags
redskap
next
skrattade
forfatteren
##irasjon
korr
fjord
avancerad
falde
udnytt
berorda
##chefen
##utor
kent
stere
##ido
##dren
kjønns
kopi
angreb
bekanta
tarm
klat
rorande
rute
dial
klassific
kalorier
1966
indsam
uttrykk
##ogas
lægges
bredde
damms
redog
dc
skraddars
tes
pals
diet
##karna
byggs
##emi
overtygad
##ters
aterfin
rulla
bomb
bitter
udsat
tradgardar
##parker
lytte
tiger
webblasare
selvstændig
overvak
hardare
livsmedels
jørg
##ræk
techn
fars
historik
minskade
ansatt
nost
##idering
erst
fotografering
glemt
gennemføre
tillfor
disney
tillkommer
uppger
natverket
forsvinna
allvarlig
butt
motorn
##34
kiss
mødte
genu
signatur
gards
sebast
##illet
bygges
lovskog
kvalif
mammor
##nov
nivan
feta
stadion
snakket
applic
populært
##haven
agna
fodda
sti
trykke
tusind
utru
skaper
##teres
dkk
agar
vedtatt
værker
racka
forsamlingen
forstand
synas
arbeidsgiver
vuxit
fødevarer
loft
##organisationer
##vendig
generalforsamlingen
bestilling
##eborg
##ject
mosaik
##antor
styl
##vardet
italia
lokalen
høring
kalen
elektronik
##flix
hovedstad
afslapp
endelige
arbetsdag
hemmelig
##etøy
regionale
##agda
##aterne
forlæng
tjenesten
##leden
stravar
##æb
sho
ture
webshop
sjukdomen
washington
##eme
##aktt
operativ
##jack
traditionelle
blyg
russisk
##stilles
doma
noggrant
##cist
aftalen
stamp
anhoriga
sjok
halland
lovgivning
spray
fremgang
age
hamnen
##uls
kartan
helvete
stamning
##brød
funderingar
beseg
kreditvardighet
forsaljningen
ebony
gata
texas
atte
##give
mons
varmer
noje
##ledende
funderat
years
langvarig
##format
fester
revol
gens
affars
##fotograf
etiketter
##fallen
etableret
##ikern
opført
vagn
syre
teheran
driften
##sbeslut
lila
spelautomater
##kets
næring
varannan
belgien
##svin
anlaggningen
drick
heste
tros
oroa
buff
boligen
svarte
gymnasium
##mig
resulter
##viser
fb
##ustrer
terras
samtalet
##vejen
berett
onsdagen
julklappar
##handeln
utdann
viner
ystad
perspekt
titlar
##apper
ingrid
farliga
##spot
svagt
manads
leil
regulering
##rorna
innefattar
vagnen
forholde
null
##partner
misstankt
##øjt
##usa
sprit
##undersø
startat
registrerade
obeg
vakre
##arp
jacka
forflytt
oliver
osterrike
oppfor
øverst
flytter
kosten
veterin
endret
beskrive
absor
##fyllda
forutsatt
ellen
personuppgift
trender
##agor
skritt
##aktiver
##ipul
brede
spelades
##stoff
besluttede
arsager
conne
strack
bilda
ferd
egenskap
##osten
165
provade
slid
bestallt
hemifran
avgjørende
slekt
personerna
##ammer
tufft
##ismens
##mjol
reiser
chi
stortinget
##atering
##ssyn
sola
rider
fiskar
arabiska
autent
chili
forbruger
styring
publisert
##aganden
ledende
bastu
russland
chance
##oppar
##stuga
ældste
##ktis
snabblan
hjernen
borgerne
fryser
##tanke
pase
vog
tjansteman
##jenester
spotify
provning
leveret
##skrivna
##shamn
hovedstaden
aland
##ologer
##ways
innbyggere
people
##massage
##ree
bildar
pladsen
producerar
solidar
db
tappade
semestern
##ændene
lednings
dannet
kryp
##rine
##hammar
funktionsnedsattning
byra
##vit
skarpt
uddannet
vaben
evner
oprettet
rets
tort
palm
hogkval
##ен
erekt
##stede
##chi
anskaff
##historia
orkide
okenklimat
1948
##resultatet
firade
wars
udvid
##skot
ration
rapportering
##udvalg
rensa
anvandaren
bedriver
sallsyn
røv
##forbrug
udskift
##ærke
there
bestand
lyckad
videoklipp
kontaktperson
smartphones
fødsel
begara
##niveau
oce
udvi
pulver
nettsted
lay
opprettet
##berga
besluts
ændres
oppdatert
havre
##36
mors
namnden
sexuellt
graviditeten
drommer
avdrag
afgr
orkester
anpassad
urban
wilhelm
parlamentet
bakken
farska
jød
##egarden
genre
please
mb
skifter
kungliga
framtidens
tavlar
anat
villkoren
rapporterar
traditioner
jordbruks
##lada
aldrar
vamp
hamnat
klubber
sopp
##ierade
kvallens
174
##kortet
sejr
elite
skrivbord
placerade
##vanligt
classic
slas
mængder
præsent
klack
1963
lejligheder
##inerna
trail
jakarta
forholdsvis
##hattan
place
favoritt
medvetna
series
forebygga
bust
drink
forenings
##iza
almindeligt
##bj
lekte
hungrig
udlever
##sbanken
minsann
insamling
##poang
gifter
forbedring
brown
gradvis
sektion
krom
køkkenet
##bevis
##alth
mkr
saljare
svære
##handlingen
bop
##edy
maila
##venska
presset
stationen
1944
forsvara
pics
perform
ryn
transpar
##plade
løst
string
forvantar
##strek
##jav
opskrift
bevara
##sti
##ird
bryllup
klev
rakningar
utstall
tillverkas
dykt
psykiske
##plasser
jackp
fantasy
strej
##pulver
##ebo
motesplats
##kontoret
varierer
malrettet
##skun
sjekk
hitler
anbefalinger
##arl
koldioxid
genomforas
##posten
koncernen
insidan
arbetssatt
paketet
easy
distribu
##entuna
elef
kungen
stolta
##ening
utl
fremdeles
entusi
sony
nordland
##middag
##kjen
insekter
##venn
##row
cart
bedomer
##holdende
tumm
fysioter
robust
prylar
##house
##urder
##ischer
medlems
foretr
inspirerad
sparet
elias
##uri
das
tone
##ilitet
krog
oga
kbh
##come
varning
gøy
stigning
##orgen
bebyggelse
drop
##fett
##centret
haromdagen
##tagande
kemikalier
versioner
##check
avst
spørsmalet
antas
tender
base
bege
##atik
ingang
lyckligt
##jener
flytande
##raffande
imot
##areal
visby
##dede
koncentration
aktiviteten
prostata
jævn
##block
gon
overflade
receptionen
programvara
liverpool
hjarna
##agner
forhallandet
##utik
adskillige
vistas
konserter
tjocka
##77
##værd
plejer
##usalem
bingo
tilbak
##ælle
fokusere
tillatet
##tradande
nyttigt
fargerna
afholdes
lappar
##saret
sommerhus
drin
talte
hallit
ana
##pump
hallbara
anmeldelse
##manland
indsigt
nationellt
##ickor
##annat
kalles
pressen
1939
##modellen
allergi
stab
1952
bløde
ensamma
ggr
affil
kronisk
sarah
##byggnaden
fortry
orsakar
##cin
representerar
uppmunt
##tell
kvelden
##orgas
benny
værktøjer
trupp
kristina
toy
legal
##hallande
italienske
##traning
flert
lektioner
vulkan
alskling
##onder
repet
svømme
argentina
##kann
##stjansten
tvil
uddannelser
uppsta
egypten
hjemmesider
lada
skrib
bildas
##endi
stillinger
humør
varst
xl
##veis
eksterne
minoritet
plak
168
ovenstaende
alternativa
væsentligt
upplevelsen
benz
berget
style
bega
lampor
##arbetare
##avstand
hænge
ansprak
every
kommunerne
marianne
utroligt
strik
vaner
gil
berømte
tillhandahaller
lee
pent
dygtige
diskussionen
ethvert
##speg
stjerner
imens
naet
genomfordes
##atiske
plockade
minskning
slim
##slig
tent
slanger
allihop
kørsel
underlattar
vera
spillerne
vaskan
hanteras
forklarade
sha
boj
batar
kulturelle
##koden
dnr
brænde
indiska
besøger
homoseks
forare
frekvens
##mindre
##gjorda
digitalisering
##eværelse
uavhengig
gass
gava
køns
##ates
##ningssatt
baserade
konklus
efterfrag
underhallande
nasan
##jenesten
##bottens
fantasier
varsin
##elater
forstora
hugo
innom
note
oppdaget
sjalvfort
##komligt
kard
tillbaks
mellanrum
##tagning
##veg
harddisk
##mæssige
##vering
ags
caroline
berattat
##ection
##cif
##iggede
##num
øya
rantor
sexuell
##otyp
myster
spænd
løg
strumpor
bly
tranade
sammenheng
##æren
prosessen
##illes
##raget
adhd
aktiebolag
##atsas
oversv
nørre
##idas
orgasm
image
##buk
bede
tiltr
regnes
cyber
fut
offis
jerusalem
##fiber
diagnos
movie
rantan
lus
byggas
javligt
##hojd
konkurrenskraft
kyss
prot
recens
##aborg
##smø
##sevne
beck
ultral
lanka
brons
omgivning
interessen
citer
pisk
stiftet
behagelig
komplement
1961
bryt
melder
1918
corn
grekiska
beromda
storstad
forskar
##foto
interne
univer
samuel
##kategor
##well
##syr
landskab
luck
##fiske
##fond
neutral
##mastare
gleder
##fabrik
##kasse
publicerat
faldet
expans
grata
use
sjek
skadestand
automatis
chips
christer
overstiger
krigs
##vetet
avslo
1956
hallon
##ross
susanne
bulgar
dirig
##oa
vaske
versjon
##skel
raknat
evigt
forhandler
sejl
njot
biografi
skjor
handtering
bevare
talam
##marknaden
sokning
kostnadsfritt
medmindre
overrasket
undert
##arg
oste
somras
kitt
temperaturer
##ferens
grannar
trenden
hellig
tunna
tul
torget
grundig
oratt
nek
brugen
##sformer
udseende
bekræ
forhindre
##plic
##rative
udenlandske
positioner
##kald
kyrkans
##edig
ratter
##nr
bornholm
trakig
doc
invandrare
##regionen
rebe
kjører
##sbes
fase
##piger
forsakringen
stole
betales
gammelt
##festival
tekniskt
opprinnelig
bekendtgørelse
valfar
ihjal
kamper
derfra
##skul
politikk
##edlem
honung
##brun
norweg
escorter
##spolicy
inspireret
kk
##skada
identific
##ygen
horison
##sfors
stillet
gardiner
vagrar
bitt
##vogn
##arie
##quist
bob
fisket
godkende
maven
varat
vitenskap
barr
kallades
kommunalbest
laddar
modernt
akvar
vvs
##skatta
oply
1958
astrid
kreditupplysning
arsredovis
##war
##vc
##oos
audi
jordgubbar
##ped
##eksjon
sunde
følges
gymnastik
aer
alarm
cred
sammenligne
bagefter
##sprinci
chris
##ention
##utdan
abonnement
##sklader
onskade
munden
##95
##evej
##klara
malgruppen
alfred
##forhallanden
##elsin
##bec
avslutning
##adres
##baserade
##olas
orten
shit
ovrig
##cho
kob
linnea
fanget
snakk
##amerik
andrar
1917
fremad
omvendt
lægen
brukade
##mass
individuellt
frederiksberg
kognit
fastan
foreslag
##innande
godkanda
selskaber
##mott
mobiltelefoner
kiggede
##illingen
læger
energis
bacon
##jarna
barri
manniskans
aktivera
rødt
##fyr
##riga
organisering
amager
vendte
logistik
sovjetunionen
eh
##uper
ledelses
investeringer
##skolans
bikini
tos
##spunkter
##esystem
befinder
##umul
arhundrede
##psyk
vinsten
samlingen
djupa
##kalla
kompetence
##eloven
ingick
advar
bivirkninger
tals
##sburg
##desig
##inkt
minuten
stekel
morkret
##serna
##givende
redde
pink
##field
syntet
##ekom
okanda
begransat
missn
mentalt
tobias
laddning
golden
##stille
##elia
klubbar
bygglov
##bben
turnering
blekinge
overd
luder
gennemga
medeltid
##wal
ks
handelsen
##gy
than
styck
laves
mentor
lararen
##landerna
vedligeholdelse
markte
singler
##esc
##blikk
cc
oppgave
emnet
##asyster
ova
comm
given
stoppet
skrivande
##rager
overlever
mineraler
logg
billederne
kontrollere
exkl
deilig
##hab
ride
blivande
frukosten
##ummet
kanslig
pite
organisator
fikt
arskurs
shir
##punkten
globale
##levelsen
skrattar
##radets
sliter
tod
vaggarna
skrek
indstilling
saknade
##scen
skilda
ligeg
mums
lovet
##ergi
klarat
eksperter
bydel
dys
platta
eksport
##byggt
yes
tryckt
utsikten
kondition
##koder
forbindelser
utmer
##insatser
##iop
##asp
samtalen
##korea
linde
irrit
marknader
uppmarksam
yde
##undna
rommet
##slor
rutan
##uttes
##strid
paragraf
økologisk
tanter
gebyr
##anmalan
##card
md
konkreta
handlat
scott
californ
aur
year
trim
absolutt
diskuterar
beloppet
##iket
passerar
##intresser
arbetsloshet
kafe
bold
casinot
dømt
signifik
grønts
##arin
falsk
450
utformning
bokat
foreløb
##bundet
moderaterna
donald
stræk
egg
##ious
regnskap
##egr
tripad
klaga
religiosa
##given
genomfort
abonnemang
samtycke
sprider
##oid
opplevelse
birgitta
tummarna
##kjøp
##spartnere
nærheten
cykeln
frekv
kongr
##egler
nordlige
finansielle
mexiko
kanter
justering
kunnet
tomater
skattef
avdeling
rekommendationer
gavn
whisk
##idrag
treng
meters
gule
bringer
marketing
##estr
##yggende
km²
td
##agon
erfarne
##tron
##atern
cry
stekelart
kjærligheten
glasogon
##æssige
##ningstider
rt
luther
grafisk
blues
bosn
##jes
burk
ansoker
diff
##ilda
gratul
company
udda
skriker
##iber
relationen
firmaet
regnskog
##odde
tydligare
spania
singles
kasinon
##scent
pasienter
##bonus
##dragelse
pabegyn
løft
skoll
arbetsmil
svull
ekstraordin
jamtland
tanderna
hemsidor
##konst
ft
bestammelserna
tilpasse
##tips
##ikre
sovrummet
utdelning
barer
##utvik
eb
tenden
tet
herrar
projektledare
spre
##akers
ild
forvanta
hygien
##mænd
portratt
##bete
bonn
incl
miljopart
##forlit
##garanti
omgivningen
talmod
atgar
uken
##ningsomraden
ganget
moskva
intensivt
formedla
brid
lukke
undrade
gult
##smuligheder
##pning
aaa
##urd
planleg
fylde
radets
##formation
trekke
##pati
beslag
jule
utnyttjar
resurs
kanin
ere
##skyddet
idiot
pappers
aterfinns
##itativa
afslutning
##skogen
beboere
sebastian
fula
darpa
valkanda
british
missfor
vinne
johann
tiot
kostade
arbetsplatser
arsen
nyans
hipp
1910
za
syds
##°c
apner
transakt
overleva
kunstnere
tilgængelig
kvallarna
kate
fucking
luktar
uttry
##plattor
modstand
##forbud
##horn
hjørne
framgangsrik
nyheterna
pah
xnxx
abo
overnat
##aki
danse
kunskapen
poet
avsloja
betraffande
utsett
varmare
##sele
##fordon
lacker
ressurser
relaterade
snow
##annons
##varen
avsedd
tripadvisor
##anvandning
operationen
##udvik
trøndelag
slem
døden
##bang
fravær
overtra
##sbok
xbox
myk
antibiotika
miljom
inspirasjon
foreslog
##lægge
##museum
netflix
##spress
tempel
rekryter
##jader
plikt
flok
tyckt
varmepum
maur
parterna
sygeplejer
napp
magisk
amerikan
fornøjelse
komplettera
##esex
sadel
skadade
kampanjen
hamp
nøjagt
skrivet
buller
hjort
ulyk
kage
zon
ross
inratt
glemme
##datum
##udgifter
flug
distribution
reformer
nja
rakning
law
apos
bokar
nysger
##konstrukt
intyg
stodjer
marginal
##asjons
foruren
degen
uppdateras
##sfakt
agt
##modeller
pom
pluts
pligt
stiv
skold
kyla
genomsnittet
lufthavn
projektets
arbeide
biverkningar
rele
syndrom
cola
pupp
orn
ub
produceret
tegnet
##etenskap
blabar
smek
##splatsen
orgasme
bluet
105
antyder
##tein
originale
plutselig
asian
leo
##stræ
eksam
utnyttj
##føringen
##px
skim
nal
trovar
##industrien
salv
slick
sverigedemokraterna
stenar
bankkonto
category
1957
besøgende
eksperimenter
padd
allas
##oy
skorna
likvid
engasjer
##alis
vagledning
bedomningen
medelhavsklimat
##lack
overvakning
vals
campus
spiste
begra
grønland
spik
jobbig
skoven
hilsen
tils
##butikk
overvin
##sprosjekt
ios
##omsorg
overlat
##langd
pavirket
hellere
##kyl
rally
planlægning
##fari
##cet
##stjarnor
pyssel
##kapp
øen
##yke
nettverk
dokumentet
stangt
ai
vim
##nev
##skende
oplæg
##cykl
fattas
sannolikhet
reklame
hvite
##ænse
matcha
promenader
tillforlit
##barns
kysten
sja
forsin
##sforvalt
##ikationer
destination
modtag
suksess
##liste
nordens
forskellig
##komp
tisdagen
##bliv
toilet
klokt
væsentlige
##hion
sling
ravaror
henvendelse
norwegian
skytt
##skred
expressen
##berett
mærket
fattiga
meriter
karlskrona
flin
formular
tegel
##span
##bilda
##mg
skønhed
font
kreft
1946
divis
videospel
bevisst
uppr
hands
##arbeide
##lagda
##forslaget
sitte
motorcykel
gjenoppretting
hotels
ansvariga
barber
indgaet
rolf
temaer
hjartan
bk
kf
##stallt
forløbet
some
usd
ulem
trænger
regelverk
mj
herreg
##ebel
falken
pala
english
australia
erklær
rykte
letade
avisen
##studier
blast
##astaende
vaccin
sortimentet
##smo
hyfsat
shorts
##øvere
ændrer
forega
olle
##arbejder
landslaget
##egner
omega
##shot
vacka
lg
vackraste
resultatene
motsatt
solgte
##orr
##inos
gaden
partiled
statlig
bella
nacka
##unes
tilstrek
sæsonen
likadant
##kunn
engasj
##gjord
want
rune
stap
halsar
##klaring
##essige
##pedagog
##kens
korrig
portion
amazon
reder
øvrig
forbereder
##bullar
1941
roligaste
skrammande
besvær
1947
forval
##smuse
akademiker
nyg
tillhandahalla
##bjor
ankn
kandis
kvinnors
svarende
##blas
analog
flickan
hermed
##66
##pleje
balkongen
minde
konfigur
ærlig
##bles
lukkede
passform
schema
meddelar
vra
undervisnings
##wi
##smæssig
##lur
halvtimme
situasjon
##estilling
potter
##skiv
kylling
##steknik
inblandade
rymd
tuffa
##samman
svan
konton
generell
abort
kastet
veiled
overordnet
mah
overk
angrep
internasjonal
tell
##ovning
alltmer
fetish
pron
patt
tidlige
finsk
stryk
puls
##fære
track
ming
verdt
kolhydrater
##datter
kansliga
##skyldig
tvunget
spesielle
##ringe
##smedlem
stov
krisen
telt
aro
##sche
case
alternative
fordelarna
##funktioner
liggende
sis
##uck
##ami
anime
menstru
quick
##ui
forberedelse
##andare
##blod
kombinationen
træer
erfarna
##ype
onda
betalningar
varg
hotellets
gardagens
merket
##fjorden
vagade
stracka
aber
##amot
##vesen
temmelig
mut
##følger
langsiktig
1938
##svatten
##yy
formentlig
konsulent
##skran
equ
##rov
bachel
##produksjon
assistent
delav
vannet
energin
matcherna
designen
##sej
trakiga
##lunde
##skas
simul
forsakringskassan
sjalvstandigt
malgrupp
soffa
leger
sned
jones
uddevalla
nyte
cens
cirkus
qual
##ologen
rettigheter
##historie
atter
skarpa
1959
juice
##marke
sparas
tillata
beskæftigelses
publicera
traum
##38
##arkite
tipp
trekk
kontaktar
onlin
##æts
duft
##møde
naked
lagst
##akim
samhalls
præget
pakker
peppark
airport
felaktig
bluetooth
forfar
hidt
ohalsa
heart
torsdags
##71
manipul
utgangspunktet
academ
lades
##illen
loper
##utbildningen
institutt
##iren
penning
##eval
menneskerett
fittor
vibrator
nøgle
begransa
migrations
stamningen
vanligare
rug
##entets
torrt
konstiga
pedagogisk
ødelagt
bladd
inlandsklimat
oprindeligt
stadigt
indeholde
kvinden
true
retor
markus
dvar
uppfin
kerne
##yler
flock
borlange
presentkort
vardnads
dev
##klæ
utgors
bangkok
vagarna
kammar
cookie
##smann
værelset
realistisk
satser
matlagning
hiller
smooth
##rant
jørgensen
##korn
##vags
husdjur
nytte
mim
broms
##prins
stot
melding
højst
huller
##tede
hidtil
blandat
##strar
udstilling
loner
brevet
udpeg
mn
other
guiden
brotts
##steklar
oppmerksomhet
tænk
ups
##savgiften
modsætning
sasonger
gotaland
begransningar
examens
1914
religiøse
proport
##rejse
bmw
fost
##eslag
uppmarksamma
##interv
tyngre
holdninger
kajak
overgangen
##essa
overraskning
nova
##nevnte
##xis
brant
ral
##klet
følelsen
sjutt
##sforhold
montera
##vaningen
##utbildningar
pigerne
##¤r
iaktt
klø
inneholl
1936
finlands
framsteg
sørensen
kunderne
malene
absoluta
skrivs
##wich
arbetskraft
badet
##glom
diskuteras
fras
svøm
sci
militære
##straff
elske
ala
indisk
historiskt
harifran
ovantat
reagerar
bonder
ære
universitets
primære
potentiella
##ningsmet
betyda
trener
##stalle
skive
assistans
##skontoret
rabattkod
roma
mamman
redusert
enskilt
##ining
hair
kind
mysa
##ørene
sommarlov
kvinnlig
1943
##anlaggning
avled
##problemer
sagas
##grepp
medvetet
rymmer
##ethe
##omra
institutet
forholdene
##see
##smassigt
kinesiske
branden
skiller
held
##sprocesser
tillatelse
##vaska
uppvarmning
alliansen
energieffekt
resur
india
##filer
##user
nordmenn
##ving
##spros
##kol
javas
amal
##organisationen
##eklass
##iction
agenda
abra
##andid
utforas
obligatorisk
tallene
erotic
##stadiet
inntekt
omdome
##ungna
##udd
##inske
tempererat
oct
##master
##ommun
##lakt
##hag
##luft
right
sander
andrade
blo
##arkiv
##okande
##ici
marina
##svillkor
vælges
##æve
joakim
##jøen
olag
1942
herregud
##penning
##ensjon
##ænke
##medicin
landsbygden
fotografier
sco
ægteskab
baller
maleri
second
lopning
1949
øger
sou
verklig
##ierede
forekomma
drifts
##lejning
##abel
##akon
##hyll
kosmet
teste
spro
aj
krydder
smarte
##kvist
loll
solned
##varre
colombia
vennskap
tenkt
nedsat
atervanda
prestation
velvære
##ging
langsiktiga
exped
tilføje
##ifa
attraktivt
oversta
foretradare
eder
##klund
glam
##wall
toget
udform
militara
bidrager
namnde
##halls
genomgang
##brist
##førelsen
somal
opfylder
misst
samhallets
strukturer
trek
belys
emball
##aling
arom
influen
apent
juridiska
forvisso
##amnen
bemotande
##ture
naja
armarna
trinn
##armen
nhl
jattekul
##adens
lp
molek
hid
kroatien
ade
stunden
##arare
kjøpte
##sniveau
konflikten
utrustad
##idning
blixt
##room
kirurg
billetter
garanterar
##ansokan
førende
##samnen
success
kvallar
testar
220
engagerade
##gjor
cougar
##købing
maz
##srad
blæ
resulterade
medarbeider
##order
telia
##44
mulighederne
##sjælland
##asing
gjeldende
chill
badeværelse
guider
narliggande
gin
kolde
##risen
less
knack
xtra
skærmen
##ministr
justera
dialekt
logist
##idi
nærmer
krim
museer
hemlighet
skyldighet
##skript
##ymen
creamp
resterande
bilens
grott
objektiv
##icitet
jos
huk
manaders
fæn
##litteratur
umulig
##smand
##sekret
arbetstid
##ærker
jæv
beliggenhed
##kart
malade
javascript
##sbek
vundet
racer
stressad
sygehus
##isterne
raff
##hastighet
##visas
##39
##tor
sprøj
1955
##ping
dimensioner
internasjonalt
sperm
morker
kopare
forsker
brasilian
maximal
ekologiskt
koste
utrymmen
badkar
klienter
##ofs
##ropp
kendet
##usik
##rass
bjerg
skuff
krise
##ush
kusten
ostergotland
besøke
ist
menneskelige
##69
##rr
rekt
ugn
self
huvudstad
arrangert
##spunktet
specielle
##ungit
trig
unionen
følelses
##bryn
upplys
chicago
fager
spesif
storbritannia
cyl
astadkomma
slass
partierna
tilladt
funnit
champions
fortsattning
stuen
##fuldt
køge
##brod
##ateriale
##egron
unntak
inder
bilarna
trø
hastighed
tillracklig
offentliggjort
legendar
jordbær
ohl
sandsynligvis
1912
##ра
smat
##situ
sjunker
##hart
betalings
foreldrene
##lægges
##fet
##yran
##filter
domen
spad
massiv
obek
kakel
forandrats
utgangen
mossa
##massan
sog
monica
boet
meta
rar
konstig
gjest
vardagar
visual
enna
##gjøring
onskat
erbjudandet
##staltninger
omhandler
tøm
opgør
##oplan
reelt
##faren
skord
##æden
rackte
vital
piano
flow
oronen
samlinger
east
marx
nyfik
talamod
inneband
nedgang
tegnes
uppratthalla
##essan
utslag
sekretari
##agd
avveck
otal
##kamer
virkelighed
fylkeskommun
utslipp
230
##svikt
spegel
innovasjon
soldat
omt
nedladdning
deut
##si
veteran
jordan
##visningar
tolk
katarina
livskvalitet
benet
##cted
oklart
1954
omedelbar
drept
sammantrade
honor
overgrepp
forskelligt
##ningstid
utvikler
leveran
parkerings
bakke
##uppdrag
henven
idræts
sakna
krypa
kallare
samvær
babe
argang
subjekt
ekv
##stilbud
deles
##butiker
claus
værste
foot
##nenes
##ammen
taggad
##kers
##iserende
træder
smut
fashion
intervall
halsade
valdes
arbejdspladser
##festivalen
kloak
konsten
slappna
tarar
##istene
monstret
fortol
blandade
taby
kopplade
valfard
schemat
hydro
utfordring
neuro
rf
##odor
eid
pip
næstved
ypper
amate
interessert
stamma
##stren
kjole
champion
melodifest
##foral
uppskatta
kwh
##vinkel
streaming
saud
kundservice
##bestem
##ladan
tripp
uhel
##ænder
konsent
latarna
spilde
okay
faltet
veninde
ukjent
fried
husse
intelligens
lysande
carlsson
enorme
##ændelse
scha
varberg
##eso
existerar
slutsatser
##spension
runtom
webbsida
beta
skrevs
explos
##malet
aktuelt
leveranser
vred
agerar
gm
dessvarre
vogn
excel
750
lejligheden
149
delavrin
adolf
bedøm
sein
chelse
surfa
tilsted
hier
styrelsens
industrin
handled
utfall
manifest
tilbakemeld
undskyl
##spark
1953
klippet
detekt
trygge
kollektion
##ason
##yttede
stadium
misstanker
partiets
intag
##sparken
##32
reportage
traditionellt
##parlam
##helst
stren
aps
inledde
huvudsakliga
chal
grundigt
utdrag
meddelade
##adende
fororen
##foljer
##vanlige
talang
##handlare
kraften
reading
kladogram
granne
markera
drabbade
videref
##vander
##nation
domare
karaktarer
arealer
nedenstaende
ergonom
skanska
blandet
jentene
dronning
helsingør
haftigt
vandra
spridning
dolda
utgora
forhallningssatt
##verkare
##inas
lamm
vrid
konstnarer
##rukne
stadning
lovat
nekt
rattvis
doften
##ibelt
verken
forfattar
diskutere
deltid
bestaller
tales
kejser
omdomen
##anny
vedlikehold
betalningsanmarkningar
vinnaren
guy
queen
korru
##nord
væske
stjarna
faster
manen
##provning
giftet
dygtig
fjol
slutandan
forlaget
forebygge
organisasjonen
115
##eby
begej
vinet
##størr
##rist
##igade
##respon
dopp
avslutades
handlingsplan
##nav
ægtef
arbetsformedlingen
kedel
spilles
etablerade
1919
jimmy
##wh
afspej
informasjonen
lister
udfl
sjukskoterska
ou
##ileg
overvikt
##festen
saab
fornyelse
atmosfære
##sbev
utmarkta
##angden
gdpr
erin
uppdel
amster
slakten
blogger
lc
lanade
tej
standarden
omtalt
##seng
##front
folkem
cecilia
næppe
instruktion
mangfol
tilfredsstillende
kriminalitet
indrettet
fullstandig
yoghurt
avgiften
##run
darigenom
flexibel
##kit
aktion
administrative
##vei
direktor
##djursart
registrere
tillverka
sakerheten
fotot
fordeling
##beck
spørre
##latt
funka
##hør
bestyrelse
flog
elektroniske
naglar
voll
foundation
sevardheter
fæl
kopplas
##sarbeid
vantas
johnny
græs
utfard
granny
resort
arvid
entr
##hin
##helg
kug
temaet
influ
mobel
wellness
badevær
experiment
davarande
##sbolaget
inrednings
botan
opfylde
frans
kyrkor
##andring
osterut
muff
klip
numret
cab
innholdet
prick
ludvig
##typer
##alle
tenderar
nakne
uppdateringar
##rix
njur
stillingen
konsekvent
brunett
amsterdam
ovanpa
barnehage
mekanis
##drakt
danskerne
##prøv
datingsider
diagnosen
ali
krys
hammarby
##lander
nacken
frug
##ækt
##uropa
hyresgast
##bella
disken
rubrik
kvindelige
europeiske
lyde
utvardera
summan
filt
hoppet
mave
##dotter
##64
skidor
fremstar
mobl
essent
programmering
kompetent
stadsegron
##umma
træne
kink
##tekter
sjost
studerade
knæ
garantera
gestalt
bibeln
country
##teg
community
liban
spell
##bragt
jattes
paramet
##isex
loppis
##processen
skema
mottes
rorelsen
utk
synonym
strider
dynamisk
komplet
stina
leser
##syns
skatten
gear
natterna
kvarn
lærte
deltagit
strikt
rinner
koks
narstaende
slat
husen
friends
omhander
##kad
maklare
##orf
europeisk
klagomal
##farger
uppmun
attit
avbry
arbejdsplads
hult
##uble
##øyt
##skiva
veterinar
##æne
starker
kopia
##kostninger
slam
fede
øvre
##nj
levnads
workshops
skype
arbejdede
kulturella
indebærer
datas
elskede
prepar
##cation
tenkte
bidragit
##ints
tvist
toppar
hemmaplan
##37
##manns
vaning
uppfod
valkomst
dejten
##ydda
hogra
##saks
gross
##ortering
monsun
drøft
efterlangt
##ovic
bring
barbara
mastare
##dinge
spanske
1951
verifier
staet
##sforetag
flyttede
repræsentant
sjalvfortroende
virksomheten
hydra
##rie
##isation
pettersson
hittas
fortell
dansker
strikke
udgiv
applikationer
##ampning
paj
##nant
komplek
okand
begivenheder
240
databas
rattvisa
snubb
konserten
##abol
tilstrekkelig
##utet
ulla
kliva
terapeut
resultaterne
vilar
foda
##plock
numer
gavs
langtid
##hub
micke
senter
##emen
apost
nordvest
ritu
ønskes
stodet
##vav
skjedd
propag
fyre
teman
##straning
beskrives
præcist
##ologin
rediger
bromma
etterhvert
rummer
##ansar
vasterut
##elius
myndigheterna
vatska
virkelige
jaha
##dragen
biologisk
trettio
utbyte
indirekt
skalen
##acker
dessert
silikon
product
travel
evig
therese
beholde
underratt
droger
alvorligt
midtjylland
resenarer
neur
forhab
siges
barnmor
vasa
sponsor
katrine
besoket
tiderna
bredare
raden
forlæn
smager
##personal
overflod
koldt
##bogen
##karen
##spo
##otes
vispa
##itas
hindra
varem
nyckeln
klocka
pitea
##ingenjor
transfer
avgang
##onus
##skurser
hybrid
kvalifik
rattegang
1933
nederland
helle
sushi
inten
##ymbol
##omt
##marknad
##uger
quest
indel
blogginlagg
brunt
israels
##anlegg
##nering
##dets
##bøger
##smarknaden
bjar
cockta
tyk
forsøgte
latsas
regelbundna
impro
parfym
latit
##bitar
sporten
##ejl
cow
spist
##oso
##hjelp
tankas
tankande
jfr
##summer
costa
1400
svarede
##samfund
##idigt
##messig
php
opphold
duscha
kennet
sydafrika
##sveck
bygde
##88
rige
varas
ront
hemmag
##emand
motstandare
naturreser
portal
priserne
teoretisk
sikkerheds
tilnær
##ffes
cykler
innvand
##præsent
##melding
##modell
valda
edward
naturens
boss
undersøkelsen
teckna
##arige
feel
1937
blade
gruppens
individen
tjug
snarast
grø
delavrinningsomrade
##atts
elektro
kevin
havnen
ingaende
sange
myndighed
##kredit
##flyt
skadad
patag
##hon
spektakul
secur
utflykt
lyden
##ody
posisjon
karet
hellige
dark
fingrar
fods
##ested
bokfor
##plac
nævnes
utbildad
##ared
officiellt
kottet
##mote
##ribut
##verige
edu
france
hindrar
livstid
bedrager
passiv
arts
arbetsplatsen
naringslivet
##yge
abnede
##sforsakring
janne
motverka
byggd
debiter
certific
teat
dejtingsidan
blomma
##bespar
plockar
forde
utvecklade
prel
manat
charlie
##pengar
events
##pers
kontot
medlemmerne
kommersiella
kapas
simple
romaner
anpassas
trader
##vak
bren
køret
stolar
pande
##massa
1924
kjenne
maximalt
tilsyneladende
##sæd
framgangar
forblir
stallas
##stallen
fragestall
flyktingar
foreløp
##fylld
omd
genomsnittliga
psykiska
sexual
utmaningen
pub
uppkopp
nyheten
drabbats
planeras
udkig
dyk
ng
##avisen
pluss
spy
klump
philip
##resta
poll
sovmorgon
herom
akust
##ladd
##ydning
hex
##lampa
##illskott
blei
nikola
ressource
identif
expander
trænings
bortom
ersatter
##napp
arsskiftet
uppvaxt
poangen
hembyg
titan
##alls
publicerade
popp
funktionalitet
helikopter
referat
klæ
##sallad
døgnet
##svirksom
arsagen
artikkelen
##edin
forse
emelie
skatteverket
fangar
fotbolls
bundet
varu
hamtat
skipp
score
fokuserer
##ferien
bruna
pud
lampa
##ariga
##skriter
herman
##obi
varnar
friskt
##fæl
##adi
produsert
##ikkerhed
levetid
kapten
##ception
udvæl
bidraget
selskabets
##retter
##haug
telefoni
##sministeriet
##tav
forberedt
sb
##hat
jernban
problemstillinger
hostens
weekenden
##pert
motorer
skrifter
state
agnet
nettsiden
gjeng
tangent
stotta
rusland
bevæger
stoffet
fjernes
bukser
vasterbotten
forbudt
sjel
utmatt
kyrkog
prioritet
politikerna
foretrækker
verksamhets
investere
##ilbud
##nok
bruken
##stalls
##smot
givit
specifikke
afgift
kvaliteter
lego
##prem
iordning
##eli
karam
redaktion
##iaren
##smojligheter
utmanande
vaxthus
bagage
apparater
##itoris
økte
amatorer
ersatts
morg
evnen
marka
uppgar
ekspon
##gik
arsmote
formula
blackjack
forbunds
##ryl
optag
##borgs
sunt
havs
gjennomføring
##krets
styrning
vaningen
##sforeningen
kundeservice
itu
pornost
##ioder
resonemang
##oto
tilbydes
apt
##hm
##primer
##fulgt
savner
##adan
##eleder
vattenfall
yngste
stæv
##ando
##pig
fortsattningen
##sanal
##forstaelse
segern
homosexuella
##ques
##ives
statistiken
svarat
##sdal
arkiver
blandar
##opa
borgmester
kategorien
##bøl
framgangsrikt
umuligt
smykker
boob
nant
femton
smala
kros
##handlingar
sau
hovedsak
eksped
reflex
tvungna
kommuns
1928
grunnen
##varu
blondin
funderade
befor
slank
##barber
sakerligen
daribland
vade
hundre
delaktighet
johnson
##smorgon
##ydlig
garderoben
polyester
sammanstallning
innspill
##skinen
kopplat
fotografera
health
svenskarna
##jacka
##komme
horsel
indkomst
##ckit
olj
utspelar
##viks
##ply
##ez
redskaber
##egu
funktions
bestilt
sikte
arsregn
##kond
jonkopings
jen
fusk
##forvar
aftalt
##elsess
hage
welcome
trives
##skru
##rium
bidrog
kostnadseffekt
plassert
svav
forumet
døre
flygtninge
delat
##scy
##skultur
rykt
##videos
hemat
landene
allsvenskan
florida
billigste
fattade
nederlanderna
inhand
pedagogiska
##museet
begransade
interra
intraffar
##direktør
proffs
flesh
inventer
papr
##stt
##ovn
##somrader
anvandarnamn
##acken
jet
trade
færdigheder
layout
nos
foruden
##junktur
genomforts
arrangementet
afdelinger
selskaper
##aktiv
avd
##fattning
glat
iss
miljok
ernst
attityd
tyngd
trivas
svd
##indrade
ersattare
##dokument
1935
##vackande
japanske
##viste
flaske
##slutningen
forestallningar
givande
fjader
##bedom
##ynd
samles
anner
##mu
hoppe
##kakor
skalet
kollektivavtal
racing
henvisning
##angar
tegner
##finalen
fasad
listor
almen
udvalgt
relativ
astronom
rækker
kramar
##usiv
dybde
abraham
besid
igjennom
##iret
hojer
monteras
beskjed
##alan
mose
##faktor
wahl
irriterad
random
mælk
kjøretøy
levt
innehav
behovas
moster
gled
mature
indretning
hook
overført
opnaet
julet
binde
andrat
fingrarna
telen
##но
##esø
bnp
valfri
gunung
##guide
##andras
marock
socialstyrelsen
færdige
kanned
kontrovers
##utan
lunchen
spelande
samvete
forfragan
midlertidig
eksisterer
##rider
claes
podcast
seværdig
socialdemokrater
come
ngt
different
##sekt
individuelt
værre
privatliv
laveste
sammenhen
forbattringar
pest
##fect
utall
169
##emar
udmær
twe
pressmeddelande
##produktionen
##yds
studerar
##ævende
operat
forklaringen
funksjoner
amateur
formann
##universitet
itunes
##dukar
dække
obama
etnisk
trafikverket
branscher
##akare
paulus
heliga
stationer
linn
serverar
flyttas
##æger
##olet
avklar
stolte
forsøgt
##100
forskellen
1929
skille
hvori
##inrikt
formanden
minskad
fiskeri
billan
utreda
manlig
tryghed
vaskor
paske
lanar
1905
##kraften
provet
rekruttering
trojan
##merne
ove
dilem
lejon
halvdel
##yter
onsdags
oppnat
##domstolen
tony
afvik
fremmede
jobs
inbrott
klor
ocean
##enc
nederst
brønd
forban
smul
dow
##øyde
utat
mediciner
stretch
vansterpartiet
vackt
##bringe
auktion
bevæge
##lyft
persons
engagera
##85
##brudd
trycket
##formand
##stolar
tvingades
prester
##skrev
samlag
sexet
underlaget
##fac
epost
##oment
sommarens
##galler
utarbet
befann
##ipa
creampie
kristi
filmens
##issionen
wolf
##blar
migran
sysselsattning
artiklen
town
fardigheter
tabt
dokumentasjon
fox
hassel
dennis
utfort
##barhed
økologiske
skotsel
##kunst
##slav
stans
##meh
##stader
afsluttet
bladdra
##top
fyllda
yttersta
fros
##ulent
kraftige
sjalvmord
mike
1907
emellanat
utov
##ningstiden
svaren
##verdig
virkel
utstallningar
dalen
fortjener
intelligent
arrangeras
sønnen
sikring
when
forudsætning
hvile
##smalet
##uggar
arbetsmarknad
implementering
mcc
skottland
oplyst
##befolkningen
##blin
landstings
annonc
minutters
konkurrer
avslojar
ansett
steen
tanda
indikator
voldsomt
askad
##ordforande
##stamm
strackan
bristande
publicerades
innovativa
pierre
inleddes
bevak
fastnade
biten
hein
aftens
lum
lest
verdier
rostade
ovnen
prisk
sott
##aming
omradena
langtan
hindre
##tekst
sammanhanget
tillfallig
##datere
restrikt
##spring
##otisk
engagerad
enklaste
ataganden
halsband
forrad
##ished
container
kongelige
ynd
nuru
uafhængigt
budskapet
##ilen
samsta
##insk
kreativt
##gorelse
venlige
pitt
forestille
munchen
##how
sark
##hogskolan
joe
fullmakt
meldt
##olia
konsumtion
##øpet
handbold
plassen
forordningen
gæld
##deltag
##rice
kompleks
surt
elektroniska
##skapande
dobbel
ay
##edelen
øm
placerad
selger
jurist
##rab
bekraftelse
##ovningar
chelsea
demokratiska
tida
forutsatter
betyde
##eknik
verkligt
##hojden
paf
torde
ytre
fronten
inlam
##lasning
peber
soff
franvaro
##itel
blix
##fronten
forsvarsmakten
uende
namner
ladan
omslag
##iges
1908
##tabelt
##emin
gennemføres
arkitekter
##chs
arbetslosa
112
typiska
geografi
elektriske
hundrede
sakalte
1890
monte
jaga
elevens
sortera
bedrivs
##rick
klassiskt
animer
salgs
settes
##anpas
blandas
##head
nasjonalt
hek
motta
tai
begrun
alban
dance
##regning
##cat
##sarbete
##skoll
bøsse
begrenset
stilar
forbruker
inspirera
fordonet
nass
##alands
slutte
flackar
kylskap
nordea
uppror
##savgifter
##skip
##kompet
##yllands
adoos
herlig
##evne
##givaren
##sbrans
1932
tradisjonelle
matning
uover
##okal
desperat
forsvunnit
##rian
##avgifter
##ues
##myndig
præsentere
inviterer
##jod
snapchat
rapportera
intraffade
##uba
kartor
modtog
kurt
skjema
misslyckas
ligesa
demokratisk
familjemedlem
##akter
##yle
postades
fekk
angivna
flyter
##lubb
##version
##lasse
skræm
##ulla
lugnare
konfirm
ordinære
kommunalt
utforande
uppskattat
boendet
grava
prix
##ryk
snu
1913
inbjudan
siffrorna
blomst
##ocka
beder
oland
sogne
performance
lyr
arbejdes
backar
rysk
trog
kraftiga
##muligheder
##formar
opposition
autonom
receptfritt
##bour
tayl
blicken
fjort
jubileum
lass
imorn
##slund
##200
kristine
kristiansand
bortt
forestalla
kassen
ursa
##virkning
##berry
teknikker
##illgang
##spartners
##iki
magiska
##sbi
klanningar
##falds
##ketter
forbinder
seværdigheder
sena
latter
##behandlingen
##adel
trell
tidspunktet
indkal
prosess
western
njutning
velegnet
spam
space
##fjar
german
formidling
##somhed
serb
kraftfull
madsen
udvidet
pædagogiske
##vene
kvarts
lic
flyve
hbt
variere
merk
tolka
begagnade
##ego
natural
specialister
##aku
hunger
##store
##gede
læste
sekreterare
forbattras
forsaljnings
cin
faget
restauranten
1921
##ai
publicerad
##iej
poliser
quebec
biom
frascha
kerstin
##vattnet
støttet
tvaa
granska
ota
##cul
malvakt
norrbotten
henning
samarbeidet
dramatisk
nedanstaende
kollektivtrafik
varumarket
##die
##utstyr
inat
##fokus
snus
attraktiva
platserna
regim
betalat
vellykket
stjal
##aaa
##traff
inverkan
fragt
##sbro
klost
##kastet
betalningsanmarkning
partnere
##ssnitt
##uret
medverka
smile
##ægts
stipend
installationer
##ommes
##baserad
kd
tilsæt
isak
hanne
dekorer
lasar
tf
##prøver
regionalt
fortjust
veier
olycka
europaparlam
uro
traditionen
landbru
##ordninger
saljaren
premie
arrangerar
luftt
insulin
ingeniør
tættere
1934
sala
monsunklimat
##sprocess
arsmotet
abenbart
seminarium
##skatten
##rekk
tingsratt
misshandel
sliten
fell
omgangen
##personen
##aktivitet
tove
##hai
##spelen
##entrepren
dug
tvilling
profilen
##ombud
##alds
finish
inleds
vardepapper
sviger
##sfon
sjatte
falska
belagg
kemiska
fredericia
hillerød
##55
enastaende
tv2
koncert
jansson
flade
fortælling
sakaldt
##panna
pynt
##ørelse
laskigt
virkede
navigation
##ray
##prise
kroppar
postat
##vakten
frim
galaxy
##ameter
mordet
nettsider
kenneth
##aljen
milan
1925
##slande
##veje
svendborg
traningspass
indber
vedtaget
samsvar
##ynene
##ockt
##edagen
svanger
antis
vasentligt
annanstans
pussel
##ount
ingenjor
bista
tveka
##vagnar
stasjon
enestaende
avslappnad
fremtidens
kot
fordeler
uppskattade
livslangd
##oer
oppfatt
uber
##icus
##spsyk
arlanda
kristin
forbedret
they
kastar
arbetsliv
timma
pressa
##forsaljning
##foretagen
utmana
idrotts
koparen
sensor
trenings
##elovens
kjer
##uppe
agnar
tredjepart
ordnar
them
input
smas
finnmark
sill
jubil
ordforanden
asker
##stora
passerat
ydre
øvelse
betragtes
##anol
##merende
##akor
##børn
dediker
datat
centre
beskytter
herhjemme
træffe
strunt
knappar
##kender
opbevaring
##sfest
avsedda
4000
timmen
irriterande
force
datama
utgjorde
sexstallningar
redovisa
##itus
##dm
##ер
kortsikt
okande
fænomen
torp
initiat
##sidig
betydelsen
##skikt
efterar
forbattrar
fastsat
erstattet
utbilda
valkomnar
adidas
lene
byx
##varld
fallen
bbc
tandlak
spurgt
##ineret
falster
graver
slagelse
ice
travlt
valbered
beskæftigelse
hænderne
insett
upplagg
##fix
salget
##syra
faktiske
personlighed
##stemning
brian
##havn
nært
##ftere
##ønt
sundt
kantonen
##alens
beregning
artikkel
spontan
##betet
sodermalm
##spligt
##utvalget
kiruna
tvivel
fattige
produktivitet
magi
skapades
fliken
##pler
elec
##rafta
reception
trojor
opph
mathias
fasen
##pix
##stamma
videoen
privatlan
livmoder
frykt
##bock
##arerna
nyhedsbrev
hong
interracial
##procent
1911
økonomien
##funktionen
skruv
##etabl
fradrag
##speriode
trom
landbruk
##ovo
stadat
sponsorer
genus
##tilbud
kæmper
terrasse
petersen
forsakrings
kræve
kreditt
opnar
##rym
##paret
underligt
figuren
profet
atel
beboerne
drommen
odla
funkade
tillvag
virgin
datoer
talen
behovt
hurtige
##artet
trangt
sjunde
tegninger
virksomhederne
bloggare
##jung
imponerad
olympiska
satsningar
infin
behovdes
##journal
##aps
modstander
bemærkninger
##dubb
reducere
soner
##invest
stadsdel
hverdage
wales
##spen
sommark
djurgarden
altan
##dals
hostas
kombinerar
sjelden
zomb
##plast
patientens
genbrug
biote
tøn
studerande
bags
akv
unød
##byran
diar
knullkontakt
anlita
overvaga
transaktion
meditation
##etting
##sekreterare
finare
nystart
canna
uheld
##ungar
##skare
valen
broderna
klitoris
##mont
jackson
chip
##sinne
rostfritt
suk
tupp
forelsket
lyckliga
krankande
tranga
bachelor
##nick
utføre
lasaren
applen
forvarv
keramik
##sbrevet
##klam
vackte
gabriel
ebba
##gradering
forfog
##jta
vesentlig
nederlag
uret
binder
karolin
1916
privileg
loftet
forandringer
behar
##igede
##fran
officielle
##48
##ømmet
animal
deprimer
vaxtart
forberede
##amat
konstaterade
arbetare
japp
nasa
godkann
tillfalliga
##via
konf
##lagd
graset
##uz
skede
vinduet
cust
undersøkelser
##ilding
styres
peger
flem
ordene
politikerne
gjennomføres
agder
modifier
lyngby
staffan
smyg
##bos
velg
lidande
trene
##vanliga
##infekt
##skjut
##upunkt
brugerne
##scenter
apparat
brostet
etterpa
##veri
kanslom
mercedes
##ændige
avsluttet
utbetalning
putt
##endørs
forestallningen
felaktigt
grundet
##ury
farlige
##period
kjempe
##cess
ribb
prestige
fødder
ambitioner
stiga
##husen
1926
patter
semifin
udfører
narma
salong
extrema
tjekke
kulturell
speciel
##erapi
understøtter
scandinav
continue
##lines
##terede
##list
detaljplan
afh
elektrik
utvalget
tits
1906
tvinga
fastnar
lød
indh
kannedom
##oller
sanda
valent
refleks
##vari
akershus
steve
handboll
segel
balsam
saldes
sib
glod
##phy
tankbara
overskott
##fav
##sætningen
peg
sofaen
forskole
##kyrka
iver
##hz
grænsen
estland
##ummen
heldige
helen
jackpot
##rekord
alles
##styring
##altar
hjulpet
trafikken
playstation
assoc
##øbel
##ynet
forlangning
parallellt
tillsyns
rostar
dyrke
##smester
whisky
vardefulla
skoleb
landskrona
nærværende
isk
betød
føres
temp
litau
drives
##lses
1927
jobbiga
##biljetter
##sporten
slette
##hum
##bygningen
lurt
konferensen
jom
institusjon
ferien
hent
enkat
##sammare
kylan
woman
avsevart
##ope
1923
sweet
##historier
##ederne
##andens
lie
mp3
tarn
##musk
##ssas
mængden
lærings
lagras
dromma
##vagnen
##less
forberedelser
kæmp
tilfelle
fascinerande
dran
tilsyns
trailer
upplevde
holste
##arts
harmoni
anmalt
##havs
kjørte
rekre
baden
##avtalet
##egge
faktiska
udnytte
share
pock
midnatt
brittisk
##akk
francisco
varierad
anknytning
nyhets
heads
afdelingen
brugeren
##alo
tackt
1300
##31
ovar
##ampen
etableres
provar
forandringen
ank
##ctic
sparer
jamnt
kritiska
totale
##skontrakt
titlen
mona
kio
udbytte
santi
resterende
fia
##styrke
rytm
##slandet
sammenligning
##ansvarlig
short
sangar
##uddannelsen
smartan
fingre
##edr
tilfel
opvarm
journalisten
virket
##støtte
grenser
##ures
lantbruk
ejendomme
møtt
foraren
nøk
carina
milfs
alta
##ledaren
##adress
lador
elevernas
krops
otrolig
1922
bussar
##lich
formidle
very
##plader
ora
##detaljer
##okk
omvard
dejen
beauty
arbejdsmarkedet
konsistens
##رررررررر
foregang
sahl
gp
##indlar
collect
williams
##gam
kritiker
jattemycket
##forel
##stop
##atin
svaga
omradene
##folket
officer
##reng
kirker
hariga
utallige
##sonen
anhorig
farvel
smeten
##ced
##jyske
hyster
##æver
##ikor
##cion
tilfredse
lokalplan
##vang
agil
hylla
##oskop
foljs
##utomat
cher
leie
gevinst
upplaga
veckors
##athon
1915
læsning
drycker
forbattrad
##imp
familjens
perm
turn
lampan
kaliforn
gjens
vindmø
køl
allan
bohus
varandras
bekymret
bokade
##fødte
core
european
phone
byde
grejen
gider
sakrare
udbetaling
##floden
kastade
##isi
##smod
astma
korning
oil
produceras
##familjer
##rakningen
glider
sher
illeg
olyckor
kapittel
studere
session
sap
løper
besøgte
søgning
rejste
##uga
truffet
escorttjej
drikker
indiker
krona
allians
værksted
control
1931
platform
tystnad
##sle
nære
##jarvi
regisser
omradets
darligere
købet
snarere
##sfag
ljusare
annerledes
##cil
infektioner
egner
enden
jagar
svalt
oplysningerne
fortviv
daværende
step
##meligt
nyanlanda
##blast
##assistent
hamtad
##markedet
##danmark
##noveller
fibr
zen
uppstod
countyt
##trafiken
pøl
lyssnat
##linger
simma
##ommet
##ibr
nedat
##stændige
##asso
kunders
mygg
iuc
##avfall
lovade
##stabil
##ippet
bollar
delte
##kedja
##usse
kyrko
veget
smhi
økning
udlø
retfær
exakta
erhalla
1909
##vention
nodvandigtvis
katal
haf
huv
gennemgang
stige
termer
##oarer
julie
udgift
##vap
uppfattas
kameraet
endt
bert
jennifer
internationalt
præsenteret
##ækket
##pros
selvmord
orm
maneders
garde
sluk
dolj
kof
budg
defens
fornemmelse
##astare
##smessig
senge
elsa
betydningen
##hc
idræt
dressyr
stycke
medaljer
gustafsson
scb
troende
peru
elimin
porten
tapeter
soul
goa
##ettes
forvaras
365
renter
salat
vene
erov
sexkontakt
males
##sokande
##anj
svim
##innor
living
linus
samliv
anvend
##oh
omvarlden
varens
##ан
speglar
##ippi
administrativa
gangbang
bortset
vanskeligt
##faldet
aster
tavlor
referenser
vidta
skuffet
sydney
blodtryck
borr
tver
rabb
upplosning
fagligt
polska
redaktør
moon
##ycker
finansk
skav
statsbor
ruta
mete
sjalen
bekraftar
befal
voksende
moderat
drast
opfølg
nylon
fus
omfatta
mcdon
oppstar
lm
baggrunden
ruter
bekymring
##fargade
disciplin
grip
bærekraft
utova
user
viktigast
tilstrækkelig
onde
##boks
bertil
eventuel
marmor
##sokt
mottatt
##igelse
startades
truppen
kaller
asia
sjof
laddas
lym
##athan
##rics
professional
ungdomarna
##antar
trelleborg
##ofog
forbehold
korre
moa
##distrikt
ow
forekomst
atskill
styrs
osyn
spok
matchar
rense
visdom
funktionshinder
vanskelige
kaffet
konting
pam
##sve
tilbudt
ivrig
##emor
traffades
##snas
knog
dagtid
psykiskt
joel
##match
sapass
##unch
fremfor
eksklusive
beløn
massag
tamligen
traktor
plade
ressur
##sbud
##takter
delikat
tillskott
heden
gruv
exklusiv
abstrakt
oplyser
forfattere
leke
næringsliv
fakultet
chesh
need
##utrymmet
grøntsager
kvarteret
komplexa
##xi
##ævede
##banor
fjellet
seriøst
author
udsatte
herudover
tillampa
ansags
tillhorde
overforing
##kropp
kontaktannons
kolester
pappas
##dinger
##arealer
handeln
effekterna
carolina
explo
hovedsa
underlagt
##68
elvis
strander
skrid
casual
optimale
##riller
##kode
henvender
##spersonal
skjønnhet
dyp
forkylning
vurderinger
frækt
ns
foreløpig
dominans
##itiv
cyklister
##periode
gevin
dern
kræves
præg
##rettede
sank
##agere
rejsen
vekk
operer
skjult
1880
##cifik
skyddas
##bind
korset
flir
taggar
##inens
##ants
entreprenør
blonde
regnskogsklimat
##brygg
##skjema
jevn
hansson
skadar
##ilkar
hyppig
levert
sjukvards
beskyttet
geografisk
cho
##hemmet
##riska
medfora
##vog
inflytt
project
eldste
depon
menneskene
lukker
alternativer
merit
award
glitter
novell
##uda
sundby
lurer
##ademin
fuktigt
løpe
##anterna
##grunn
endel
kravande
hudvard
kakade
moren
##olige
ekstrem
juridiske
angiver
usæd
##utvecklingen
økende
##nek
treff
foref
kronofog
##brett
utskrift
brosch
sannsynligvis
##hammer
##arth
halvlek
##odes
uttalande
##enheter
agnes
rist
halve
britisk
enz
nyfikna
malsattning
##creme
sentralt
hiss
135
escorttjejer
pakket
##forare
hovedsakelig
medverkar
tekstil
##sering
snusk
udvek
##nara
##skompet
elektriska
afrikansk
pojken
supple
##67
grammat
konvers
mikkel
absorber
pigen
##egnes
slad
verksamma
overtog
holbæk
lyckat
##forsorjning
karna
uteslutande
msn
fængsel
sattas
hydraul
##agningen
##ræns
##seg
holstebro
villiga
greve
##uppet
forste
##sspelare
dejtar
records
pizz
folketinget
bedriften
tisdags
avslag
utoka
arbetslivet
naturvards
debatter
##sfunkt
herred
overbevis
portugis
undviker
seniorer
##eliga
kjol
singap
##hamns
forskjellig
aran
malat
lucia
##gilt
tabeller
prøvede
samlingar
omtale
kommunalbestyrelsen
forsakringar
mvh
##fler
alb
toll
nøje
frascht
forvara
hord
saljas
##drat
utlandsk
forster
underst
##altet
smorgas
##rier
spelt
sistnamnda
odm
avsked
##takelse
columbia
##svetenskap
kristall
##smote
etablera
##stilt
motivet
##vagg
avbryt
gæst
boreala
annonce
anstalla
jpg
vinn
##splads
miljopartiet
pov
cyklade
indendørs
fungerat
##minen
indvand
kis
##ref
preget
##ssenter
##zone
##oil
magasinet
mattet
##sperspektiv
froken
marine
nagorlunda
hir
mattan
wen
##iem
tilskudd
070
##herre
bestiller
øynene
##vendige
fodelse
divisjon
##intress
##umman
svak
##jern
overvejer
syrran
##esome
wc
jogg
zu
henvendelser
kandisar
##bunden
peak
hukomm
gnall
##inflamm
behandlinger
moh
fossil
tæller
fullstendig
nyfikenhet
lucas
drammen
glemmer
taylor
two
skære
##stemperatur
certifikat
møt
kare
oralsex
naturvetenskap
##nivan
helene
##sbor
##snat
essa
skubb
doman
subt
inval
grillen
##stjarna
skiner
freesp
dropp
##forbundets
##fys
kommenterar
namnt
bitco
sekretess
nettdating
evolution
##udier
straf
tilstrækkeligt
oar
reality
samarbejder
lykkelig
danish
##artiklar
dokt
oplagt
##oz
fullkomligt
##ialen
opptil
##vekst
##unst
oarna
hevder
trotthet
skrot
innebandy
##uset
mistan
barbar
direkta
flitigt
klagen
barnehagen
regnar
##ilskud
forskerne
skiten
##fabr
vy
forudsætninger
##atgarder
##formul
pryd
##ægler
skjuter
skadet
upphovsratt
flys
paminnelse
kaster
lederen
malta
tape
styrer
##klasse
iucn
erotikk
##emester
##eh
##kampen
tilltrade
byggeri
##slager
uthall
alexandra
##ligaste
forskarna
##skytt
##maling
##egaard
forstaelsen
hovedsag
heg
niger
slangde
galna
##sfall
b2
sif
ojam
##element
##ace
##ttid
a4
forlade
bekrafta
kvinnen
hvorfra
##sban
nykoping
kusse
forvantat
##forvaltning
skulptur
beloning
proteiner
##konkur
gag
indstillinger
situasjoner
##arkitekt
minste
matare
##flykt
biogas
kad
skandinavien
fysi
##aturen
somnar
##stenar
melodifestivalen
##aff
##iljø
illama
##overskrid
factor
##verdi
##frid
bing
menuen
opplevelser
##menne
tillats
modsatte
foretagande
indtægter
benene
##faste
kylen
inbyggd
opplysning
opslag
##kontroller
cupen
gravide
omgangar
jonathan
##institutioner
##ratts
##golv
##ikar
lidelser
henri
arbejdsmarked
risikerer
kommunikationen
##ibilitet
santiago
pappan
geomet
##icer
tilstede
fleire
begynt
##korning
ledighet
ostersjon
styrelseled
anpassat
ikt
sydlige
balansen
skrivna
stord
sjansen
valbefin
nora
riksrevis
##instrument
forbedringer
nitt
arabisk
##sigelse
afhængigt
lindgren
utsidan
klaus
raw
fordy
operasjon
gotalands
##lim
anbefaling
##ørgsel
roka
festiv
letat
berettiget
atervander
linkopings
url
motoren
vardel
friluftsliv
konsekvenserna
prefer
nytar
##wig
borgeren
kongens
relasjoner
nojes
skyldigheter
overtal
universum
sophie
rutt
edition
vark
sea
krogen
1904
##rostning
##foreningens
evighet
præsentation
representerer
##berne
rosor
invandring
##mys
blaste
network
##stral
bf
utdel
forpackning
cykling
##ffor
uppsattning
ridning
df
nanting
selge
luftkond
beviljas
sommart
1100
##ygdomme
lampar
datingsidor
revisorer
ulrika
bevisa
gudom
##kell
##kem
##fasen
satan
kritiske
lapparna
##betingelser
vrede
skapande
fattat
langsta
storebror
fryg
spj
##namnd
stærkere
##spapper
ofrukt
tømmer
leksak
kallaren
##gest
indgang
gissar
inledande
maraton
gjent
inlaggen
konger
minner
morkare
liggande
##verken
ninten
namnas
paradise
korea
indby
christop
axlar
hhv
teknologien
flyver
invas
nyd
##illade
stimulera
krok
##derslev
##senhet
##piller
meningsl
otrogen
leverantoren
lagade
hobb
inspirere
dry
brænder
sanne
ericsson
##øye
tranny
synlige
tillader
bekræft
##agelser
bolan
uppdaterade
coolt
hurra
karolinska
snallt
livskraft
sambon
finansiera
##skuld
fremstilling
passioner
nagel
tkr
tillige
polisens
##flodet
lindberg
155
##sbolig
##bevæg
reiste
##sbidrag
##ernas
skargard
moro
toaletten
##elag
christians
porte
##ligh
seder
sjukgym
##haha
##midler
redaktionen
##komster
telemark
synen
##ор
bibl
skyll
popularaste
nydelig
##maden
##listen
kompat
##frik
rs
gaende
##fara
##mæssig
niss
boost
wat
jattet
søen
hof
underveis
klockor
uttrycket
anvisningar
nyare
##skaffa
##beroende
komplikationer
##buss
smakade
family
##eback
slaktingar
radgivare
forbjudet
faser
tilmelding
rorde
##natet
ponny
##elekt
angrar
uppnatt
##etningen
inspirerende
kartof
dækning
registrerar
initiativet
samvitt
cour
forretningsm
grep
muham
##øbt
forlængelse
seksuelt
flexibilitet
ansokningar
densamma
styrem
##bjorn
abnet
resulterar
hemt
##bach
quote
biologiska
barnbarn
fallit
tokyo
ringar
regelbunden
greg
studenterna
storningar
hanvisar
mud
halvan
rehabiliter
quality
pose
sic
##dato
##roendet
horlur
pund
##billeder
101
flyet
placeringen
##alten
tingsratten
##shavn
##smidler
ødelæg
basil
##kostnad
spenderat
judar
upptagen
##avagen
smide
prenumerera
##yde
##rul
visningar
herpes
ivan
##insats
bosatta
##relser
devel
overgar
arbetstagare
presidenten
onodiga
##vækst
landa
sext
tilslutning
oljan
##berattelse
lejer
##market
##gul
blomstr
forsøker
konstnaren
reagerer
forluster
vurdert
forsik
hemska
adopt
undgar
tilt
zlat
regning
fjerner
mav
indsatsen
revisions
##alin
pavirkning
##lering
forventede
##ttet
##ættelse
uttrycker
arstid
dernæst
utlaningsprodukter
svek
almed
fargglad
strategiska
tusan
indblik
##butikker
grundare
stoppar
stold
samlades
##namndens
##ized
divisionen
cheshmeh
konkluder
klipper
##bun
sprungit
gyllene
legitimer
konkurransen
nulaget
beløbet
##cium
stone
prioritera
hurtigst
representerte
opskriften
##osystem
spredt
særskilt
nicklas
klanningen
elg
avslutad
obekv
wide
katolska
adm
befintlig
##skaffe
boks
108
vagrade
sannsynlig
marktes
##faglige
fjorden
bolden
##forsvaret
innehallsfor
derhjemme
##roner
stilren
slum
kirkens
jr
##glasogon
##skode
##ensborg
veron
ikapp
anse
strump
johansen
indbyggere
stoder
forsiktighet
solidaritet
tillampning
arenan
##perspektiv
injekt
mekanisk
attraktive
vanstra
reflekter
225
friedrich
##varan
paminna
redogor
vurderingen
utbyt
grater
anlægget
riktade
##ams
##funger
nufor
imorrn
tonars
##bolagen
ravarer
menighed
104
grey
prisvarda
inspireras
arsenal
##sforbundet
producerat
notter
helge
1870
overraskande
flaskor
utbildade
klist
##mur
##deler
fren
tore
##aken
##stenen
glimt
frigj
buck
wol
anstallnings
thi
sands
fou
msek
utgift
studentene
bragt
ansvarlige
huddinge
reporter
udenrig
##gelige
ruten
begravning
lanserades
frol
##forandringar
snackar
forsvinder
gladjen
##atning
brinnande
telefonsamtal
personoplysninger
tillbringa
##kusten
##ск
##tech
østr
ackumul
fordelning
forsiden
spontant
ranking
volt
##ores
tiv
ligget
##huvudstaden
forekomme
kommunstyrelsens
pelle
##prof
sikres
fengsel
##aktigt
##verdenen
trium
hagg
bau
lærerne
initiativer
ofruktbar
##projektet
##sving
##arier
##sklipp
repræsentanter
damen
watt
kravde
##essor
saff
frals
##slip
oftere
petra
##aturer
rann
##skontor
poser
##ancen
saret
##arkivet
sittande
vokal
stemningen
efterlev
sygdommen
tysta
##stjeneste
##nn
efterratt
##partiets
##styre
skrives
##irer
friidrott
antioxid
neutr
eurovision
##runda
forlov
husdyr
hejda
effektivare
forhor
##uler
##yng
help
terræn
anony
##ampar
presenterades
##kelses
andliga
skolorna
informasjonskap
passagerare
##raftt
skl
aviser
trakasserier
kompromis
biologi
fk
trykker
trio
psykoter
intensitet
oon
videok
p4
patrick
lasta
halsan
arbeidsp
beholder
##sbyggnad
fornuftig
##fack
skyltar
gavekort
opplevd
stens
##uan
nævne
utformad
atlant
skriftlige
##nalen
vort
##hamster
128
fd
hua
infordes
##ondition
lovlig
##fargad
linser
energy
##asi
##illstand
fastighetsagare
lift
nufortiden
##media
##ough
##nett
hoft
vinyl
maksimalt
klogere
stolthet
##styrning
tillvaron
bosnien
photoshop
krono
revet
zink
specific
solens
##beskyttelse
utrustade
##vanor
kruk
forund
dekker
nogenlunde
mottagare
kryddor
##ilog
##klær
luftfart
krasch
drabbar
ryger
##kin
##iii
symfon
mørkt
##kans
deck
tagna
##satgarder
guitar
storby
lancer
hittades
jamlik
##bilde
operator
mandlige
pand
trollhattan
regelverket
packade
bunn
forur
vetenskaplig
collection
##boliger
hjar
maxi
##ugn
##haus
judiska
halen
avunds
koder
vagina
p1
skidt
sour
hotellrum
sura
arbetsgivar
eksplos
##sto
rosten
anført
mødre
arbeidsmark
meddelelse
##illverk
##plus
kapa
145
ignor
pj
solsken
delstats
##larare
rede
mannens
kopman
planerna
indire
escorte
erstatte
fadern
##restaur
##bris
harig
ligefrem
takke
##unga
1901
avbrott
verne
buddh
pow
##pine
branchen
repræsenterer
skibet
principen
##hytt
klum
hvorledes
vokset
skjulte
##regnes
##utskott
rimlig
børns
supporter
double
##øvelse
direktivet
angelagen
fortare
deep
landade
tykke
produktiv
bubbel
##bragte
##kobling
vettigt
borgerliga
##porno
synder
engagement
blink
valpar
indsatser
enskilde
jatter
jattefin
##listor
##ught
signifikant
falkenberg
spesiell
##ægte
bredere
tyger
##amo
gennemsnitlige
bestilte
beboer
##sles
##foreninger
webbsidor
konvertering
##lighetens
muslimska
##indt
stipendi
hash
udbetal
spenderade
ct
##valgt
helgens
##sproblemer
gardagen
saknat
mario
mk
##iskor
verb
##deklar
##betalningar
knall
##kalender
prover
##final
##belopp
##bygd
mikrofon
opptak
##ktes
kapitlet
##utdanning
pasken
##aldo
vu
lovens
uppsagning
frukter
##urell
dugg
##sjukdom
vedvarende
##egangen
##opsis
uppmanar
tik
høres
privatperson
##valgte
sneg
tons
kompletta
vedrører
##riar
##annet
casinospel
litteraturen
fraser
utvecklades
agneta
dyrene
avslutat
##oooo
kukar
kretsar
pendel
radikal
##kommet
utnyttjas
oplevede
magic
sluttet
##edt
##forordningen
skyde
improvis
their
blommorna
fæ
exponering
niveauer
giss
foreløbig
flirt
efternamn
sensuell
omsætning
passera
##perne
kostym
pa¥
nærliggende
munk
panor
vov
##stationer
regionens
stygg
167
insatt
nysgerrig
##kins
kalifornien
##intresserade
konfron
pakken
nordsjælland
upprikt
pensionarer
felet
##spersoner
megen
onlines
##urch
opr
bestemmelsen
benj
skeptisk
frustrer
heat
asiatiske
molly
erbjudas
emotion
dikter
##sover
uppnas
alan
bokforing
dvarg
##onna
##opplysninger
sluttede
morsomt
baj
formaner
grannen
grens
##itis
gæsterne
##aktiviteter
##gebyr
pilg
felaktiga
fight
skutt
uppskattas
##ku
##anserna
kontrakten
fersk
tjeckien
uppmuntra
djav
dokumentere
never
kinky
utskick
forebyggende
myndighetene
##rand
listar
##svis
##skala
dekke
##oriter
##utbud
freespins
avstandet
garnet
pust
trappan
##ljud
bush
skylla
seil
menstruation
##undersøgelse
promenera
byt
typiske
indirekte
beslutsfatt
atlet
##gud
kontrollerar
folkhog
standig
##storlek
flitt
falske
pape
margr
tipsar
værdien
abc
handledning
kennel
handlet
akademiska
ther
behaller
utseendet
tillvaxten
kvinderne
lign
uøn
relax
hc
##branchen
empir
irri
hojden
##uttag
##natur
kottfar
testen
spildevand
##ssjef
utvand
beskad
boden
bransje
##goring
glide
##rorelse
##immar
henviser
planlægge
opprinnelige
##planter
##sgrad
fp
selvtill
knyta
flis
bodø
druckit
hvidt
representerade
##atisering
handværk
jog
##sset
poesi
begravet
begrebet
##kerte
hamtas
godkjenning
##look
rekommenderade
fab
marknadens
##shav
##pene
kopiera
omfatte
sikkerheden
##stykke
transaktioner
margareta
korrespon
olyckan
busty
kommunikations
bytas
published
kombinere
lovande
knullad
##pakke
##karl
utvidet
mare
landsbyen
venez
dilemma
dryg
##emo
beman
pannan
porslin
##sgiver
arsaken
##47
##stars
hetaste
atervande
kameror
frysen
biotekn
##farlig
yngsta
onskad
gylden
framtradande
olivolja
##butiken
felix
potentiale
vingar
inblick
corpor
synet
svea
visades
tags
laks
bym
##produs
vaknat
avsta
##chatt
upplands
sexshop
##immer
##serfar
sugar
bryder
inventar
genomtan
systematiskt
tecknade
##ilsynet
visum
fingrene
##gan
##ikkens
medeltida
##ет
##ktig
##bys
menneskets
henvises
##tøj
dragon
##nell
landar
##foreningar
flode
kliver
betragtning
karnkraft
##bbar
matilda
##tager
##rafiken
apelsin
herved
benjamin
raskere
framsidan
nort
fikade
overraskelse
innovative
greb
krank
##iano
professionellt
##llet
tillvaro
revisjon
fleshlight
beregnes
##styp
hemmal
behorig
overblick
dagbok
uppsats
volks
overvejelser
siffra
lip
##arning
##forbruk
reduktion
clean
##andelen
##ique
##bard
peng
menas
specifikationer
hassle
coola
myter
banor
kreditbetyg
grande
korridor
kronprins
kjend
detaljerna
sakerstaller
torsk
hob
rd
##lans
staderna
tight
##gymnas
plockat
kælder
agarna
katolske
ceremon
sparade
##py
1902
tjat
formogen
##frie
anita
østrig
cass
grova
##ities
kombineret
##kvarter
aterkomma
##sbordet
webbkamera
skv
##falla
basic
upprepade
medlemmene
jøder
##garn
foreskriv
sperma
regleras
runka
slutsatsen
elle
ambiti
ansigtet
##craft
##belon
spillea
gangs
lime
klattra
smalta
rakenskap
samarbetspartners
forfrag
helset
forventning
singapore
##rt
jok
##hord
ella
osakra
##hou
fv
anonymt
fanger
marocko
framstar
kurv
##alven
##shov
walk
active
interesserede
parat
##anlaggningar
snacks
ikraftt
##indik
friheten
##optimer
##inerade
hb
tranas
##rond
sektorn
##dingen
otro
entusiast
##avir
hendelser
fiender
dagsl
hangt
##ол
pyram
grymma
malning
noja
dekoration
anlagt
dov
ideell
gemme
muslimske
forflutna
dumma
norrtalje
proven
ydelse
fjen
##sstod
association
kasper
##foss
tillverkat
##ali
stativ
##reger
uddy
utenrik
leasing
wir
##ит
byggda
prostitution
##forsyning
korrekte
dukke
##gøres
yrken
akl
atkomst
staket
placeres
tøjet
##bility
grundade
finansminister
elen
møtes
teknologier
##odden
dryga
##ologien
betyget
##ierad
jaa
kunsten
##veckan
konverter
##øres
universal
fusion
fordons
fjernsyn
ligan
grind
##øen
beredda
stadgar
nutid
tugg
betalade
false
røre
##tema
handledare
skjønner
ال
dep
##oppgaver
precision
monument
hogtalare
skro
jattel
vardefull
##zel
produksjonen
seminarier
saman
tjuv
##blade
fragat
##opat
morgan
løfter
##skaberne
##grundlag
stillede
republiken
havda
##skivor
aus
overs
moz
udløb
##illede
skjuts
hane
210
annie
vida
etikett
##nandet
arbejdskraft
albin
stressen
anlegget
logistikk
rgb
gunilla
meller
sallskapet
##forbrukning
principper
formue
pakistan
jubilæ
herrens
bergman
dyrere
##linge
praglas
dialogen
bifog
producerer
planlagte
swedbank
##lid
dofter
bestallningar
##spartiet
whe
inneha
væggen
gentlem
laror
skattes
naværende
hantverkare
aringar
hode
##filtr
modsat
oppstart
illustrationer
##slost
komplekse
insatsen
kolesterol
##anien
generella
mød
ultimata
alar
##skorna
utses
knas
deltakere
sgu
sollentuna
sarbar
##urop
##riket
aksep
drak
bris
isar
efterfoljande
akryl
bestams
regerings
##fonster
##vey
slu
punk
looking
fødevare
produkterne
christopher
skots
julef
sjoar
kombineras
realtid
##ferdig
birger
valley
fremskr
jull
reproducer
plattan
##radgiver
pensioner
dolja
tavlade
its
permal
title
jacobsen
jenta
ferdigheter
akten
##kassen
hormoner
##opper
emp
mundt
planerad
vinnande
##sho
investerare
photo
tegning
##stillede
##radande
uppskattad
kristoffer
prognos
ugg
melodi
lew
router
halvparten
##pop
vedlegg
berakning
utenlandske
opnas
1903
producere
liderlige
synliga
satellit
utn
sanker
nicola
hacka
installd
lillasyster
tilfredsst
fotografen
##isade
kombinasjon
vasby
etage
idyll
cad
##edirekt
##stilsynet
personnummer
kjøpes
##gru
muren
inntrykk
trekker
frp
fatol
price
besokarna
##utskottet
bou
scanpix
##norr
1899
swingerklub
valds
transform
konen
tablet
samleje
##string
anette
registrerat
lonen
##sgrupp
gjø
forebyggelse
tillbringade
diamant
medlemskab
undersøgt
maskine
varighed
##rada
blaa
##nie
godkanna
##odling
smula
hjalmar
decennier
lukas
##begre
##rivill
bostadslan
udbredt
krydda
elbil
domina
modet
fiska
forskelle
##riske
irritation
cav
##sprodukt
##temperatur
styrkor
##odeller
hjemmefra
strukturen
katte
latest
pinsamt
egentliga
andan
psykiatri
etiop
snett
sept
tidsbeg
kampene
##artor
##ættet
liderlig
kakan
ljusstyrka
hemsk
osakerhet
##forandring
fish
hudik
butikerna
avlid
tørt
##ødning
uppratta
sammenhænge
dax
bevægelser
auktoriserad
servit
##sbal
skapt
radande
inflammation
utmerket
jab
eliza
##styper
arsaldern
svind
##smodell
kvalitetss
else
lengde
vendt
hits
een
##vidde
aktiek
bjuds
sjalvklara
##aro
##radio
elf
vaningar
existens
vl
grilla
instruktør
1850
porto
##taj
bestamd
paprika
praster
hjørnet
##hett
##oplevelse
##manden
bah
mansklig
schm
xhamster
##fulle
kommissionens
brune
kald
avkopp
mdr
statistisk
overskri
skadliga
forov
nade
justit
tilbudet
patienterna
##gardens
##vensk
leken
veiledning
##antorer
##husets
##holdere
computere
oppgjør
optagelse
##monster
einar
planeringen
tjockt
anmaler
formularet
cafeer
kapell
##graden
bristen
forekomsten
testamente
flyr
booking
##kladd
friidrett
prøvde
harris
arrester
##smon
samarbeten
##vida
awards
entreprenorer
paborjas
gjut
##intyg
trappa
graden
tidpunkten
uka
framling
planeten
##kle
##mojligheter
mw
frysa
naturreservat
telenor
genomforde
kommunic
sjef
finansierings
##prø
lekar
##49
betydeligt
afsen
starkaste
middelalder
uforpligt
raddningstjansten
stallningar
##behovet
philips
##sfullt
##arell
nakenbilder
perfect
fyrt
underviser
thy
firmaer
praxis
##emann
grundskola
detaljerad
magnes
##valda
rin
amar
##illo
##smøde
valbefinnande
level
namnen
##sbank
sammantaget
deal
betrakta
elektric
fetisch
variabel
nøye
bibelen
lrf
##tvatt
udlænd
##leverand
buen
flysel
lektionen
motivera
utlov
aningen
##stjenester
omb
moham
header
##pige
kompress
##sintr
say
overtræ
##promenad
##emaskiner
lofven
gluk
##istans
emer
##sdotter
organisera
varar
volont
undersokt
installationen
præsenterer
forpligtet
knappa
kabul
akademisk
##gjordes
##nia
garantier
passasjer
fleksibel
##atere
##marked
##faglig
monteret
godaste
meningar
sorgligt
lagligt
kompletterande
eco
fløj
##finger
skaffat
innr
sjølv
grot
##omsorgen
grafikk
glidmedel
##videnskab
budgeten
##round
bankerna
ankommer
udvide
##ærket
##glass
skadan
##bøker
sandt
databasen
##odd
sfs
##bakken
diagnoser
##drage
gatorna
##lorna
inhem
grundskolan
fritiden
##oleum
forlossningen
##arkvall
reflektera
##gorit
fastnat
manuellt
lir
satse
##inat
lyster
rasism
brukerne
genomgaende
trussel
klagar
cham
address
##ydelser
arstider
kliniske
kategoriserar
nationer
account
ops
understøtte
forestallning
##index
##skolds
netent
##esultat
langtat
##dommer
##kammer
genren
##rey
østfold
assister
reiseliv
##hes
##myndighet
acceptere
opinion
slicka
anlande
udt
##amoter
##svid
##splass
gynn
surfplatta
skred
##stips
speciall
##agarens
spenderar
reagera
heim
kemisk
gradda
tittelen
bridge
galden
strim
stravan
erektion
select
##jtnant
pyr
terrassen
faststalla
skapet
##igad
##gransen
koord
tidsskrift
##plar
handverk
hamburgare
dekket
spørgeskema
spana
##losningar
stenen
genombrott
canad
##ilder
##ylen
##entlige
teatern
##førende
cream
denmark
riskera
sri
partene
##matning
tunt
kuddar
fosfor
valma
##vejr
kritikk
mønstre
søknaden
##slokaler
guver
##avis
allergisk
djung
sterkere
charter
avanser
heldag
krak
knapt
blommar
udstillingen
forskolor
skuggan
##ampo
##løg
rekon
kommunestyr
forankring
haj
svampar
##belysning
undtagelse
sexliv
##punktet
prioritering
uppslag
blocket
misbru
##forsok
sprint
jødiske
naval
backa
##ræning
bokslut
##magasin
##øtet
intensiva
forratt
michel
herc
isbn
##igan
uppl
kirsten
applikation
##sax
opkald
code
anmodning
ranger
ci
ket
planlegging
spænding
##akadem
uppdrags
##cafe
##skærm
hembygds
##ojda
bour
stoter
supplerende
strikk
stegen
monopol
pontus
1860
entreprenad
akuta
blon
##fro
uppfattar
##drivna
sykeple
riskerna
##beskrivelse
##intresse
besøkende
folkhals
nedlagt
læsere
intervjun
masc
##ækkende
reglering
tyget
##stamman
tov
##anvisning
elect
besvara
digt
##ippe
indført
##hjer
satsningen
dubai
fullstandiga
revolutionen
trost
##ledere
samst
zone
##fodda
ekstern
osm
antarktis
matchmak
bullar
##møn
børnenes
jorgen
ate
innstilling
shar
henter
kel
california
numre
magaz
rakat
mirakel
##jong
##esl
hey
uplo
##foraldrar
vindue
skibe
nintendo
færø
inviteret
fylls
ungern
glitt
cannabis
##familien
tors
boston
##cts
villor
afrikanska
vegetarian
trust
riva
agerande
dansade
district
fiction
lss
oppgaven
inlar
##ævnt
hels
##ssituation
fylle
bolagen
registreras
##demokrat
egentlige
audio
motala
hind
avslutande
forsakrade
jersey
isted
##osteron
hawa
messen
uforpligtende
kista
stikk
tvers
helta
pornhub
hastigheten
##skir
hogtid
otillrack
##skravet
##blok
troen
fitte
formagor
unges
tass
artion
##stiller
##ipl
incit
individuel
##ols
##itta
utarbeidet
handlaggare
##sdata
zoom
fleksibilitet
models
illamaende
vika
lolland
pie
kapasitet
vels
##fristen
tidleg
##stadning
omhand
skaldjur
tval
forlanga
ted
##ston
##dsels
andrea
ungarna
##algi
næse
vp
gatu
paverkat
pott
dad
forvandlas
engine
moduler
tillvara
biltill
kombinationer
smagen
mannisko
##espil
volksw
borsen
applicera
ulovlig
stadigvæk
synge
feri
tonn
etapp
nisch
arthur
ontario
##inerad
separata
minimera
kulturhistor
##iddag
chefredakt
ift
kongressen
ornskolds
verkan
tillkann
rekommendation
##ches
dansen
længst
##ief
plattformen
gedigen
uppstatt
##bladig
##benet
gravida
grense
fullmaktige
runder
foretager
##itenskap
delvist
skagg
sorgen
##formular
rumpan
ballen
##web
##fyllt
materiel
ortod
mojliggora
opprettholde
fert
forvantan
meninger
kollektionen
forelasare
##uum
lesbiske
spruta
civila
##stamning
kortvar
##etiden
iværksætter
##vsjo
koloni
mellanoster
tendenser
##redningen
talk
behandlings
hender
fangst
forbli
kastrull
computeren
oppdr
these
sydkorea
##also
gangavstand
integreret
##rec
##rif
himmelen
muskul
##hof
border
opf
aab
##matta
koncentrera
medverkade
##spresent
lektor
teckning
salts
##fylt
overtid
romerske
resande
##virksomhed
bopæl
fotade
soppa
salta
betydelige
lagstiftningen
kjørt
axeln
familiens
laura
blid
bevidsthed
forverkliga
##sersattning
industrien
betegnelsen
##arena
onlinek
thro
farven
olov
##tagere
##familj
stug
##snes
konkurrensen
jum
analysere
##sprotokoll
forsikringen
p3
annans
##ænger
mistanke
akes
merker
##sledande
ignorer
##eje
##ansvaret
pill
uthyrning
brande
##aldt
##spolitiken
milano
varianten
tvattmaskin
##horningar
kungsb
kortfatt
##pek
grunner
vandret
coaching
magnesium
fis
beaktas
click
##hild
christoffer
skagen
sked
dagg
sture
oforand
plastik
vondt
modersmal
overføres
hemlig
lagts
machine
##samhallet
##satts
gubben
skotte
opfølgning
oser
inleder
melan
##moss
##innare
##utslapp
##løpet
hing
blickar
aterhamtning
subtrop
anka
forstarka
otaliga
passerade
##verd
parlamentar
chass
voldt
flexibla
forvantade
tillgodose
studierna
ryan
avnj
segrar
lidingo
levede
##yet
##tten
sammenhængende
stapeln
linux
##bloggen
højtt
##myndigheten
bryde
##otiska
magiskt
skabte
mottak
administrator
##skrivningar
grenar
crazy
hoff
parlor
sjalvklarhet
##oba
bestemmelse
behageligt
##illings
morsom
annonsera
usas
skild
##edning
lanets
tilgjengelige
ændrede
udarbejde
##øyet
forskningsprojekt
gemmer
skugga
##olycka
dubbels
framtra
##klare
snabbaste
##bron
tackade
##skrives
hjalpsam
mobilt
rasen
tverr
lockande
##alders
episode
bakifran
##rogna
psykologisk
kobber
##smin
fastholde
##ны
kang
##skomp
parterne
tarna
##usias
grundlagt
ligegyl
##ello
ntb
##nte
bc
ringt
##ssprak
##andning
brattom
omty
siffran
##loshet
vardnadshavare
skrika
##wards
##sprang
islands
##gelsen
rabarber
teorin
##joy
##uggest
##sbehandling
forhandlinger
cs
##varmen
##key
ivaret
skander
vægge
peka
homosexuell
baker
hjerter
##shu
misshand
##bjudanden
rimliga
torv
##irs
kompensation
##atoriet
##sektorn
##baren
hesten
##fjell
embed
beklag
##vuxen
##aman
bunke
aktien
angra
likval
musklerna
##berts
hahah
bisex
##cco
ejeren
##merter
diskusjon
##fint
adobe
##informasjon
løses
meteor
zlatan
##baner
nikk
libanon
djupet
##ask
skræd
rattvist
slutsats
fargt
##sinter
rattighet
generel
grunnlaget
motsetning
cloud
##ikum
samordning
tradte
bøkene
relevans
borgenarer
sorry
soja
informerar
forkyld
thailandska
mørket
##relaterade
mob
standiga
olik
##ione
##sser
lackra
sakrade
marc
##intens
##ingsas
nel
innehar
flaskan
branna
##garde
ordfører
opstaet
##spaket
virksomheter
vev
bryssel
engasjement
vilhelm
gavor
størstedelen
superbra
##setninger
kampade
##instrukt
varva
centerpartiet
malgruppe
formatet
berakna
ryttare
##cont
anstrangning
##ikerna
rullade
money
domaren
hvorpa
apart
hjalpen
america
oppgav
utdannings
konkurrencen
planlægger
kosttillskott
manuskript
brudd
skjorta
reservation
tandlakare
beslot
##fog
als
bestyrelsesmedlem
##41
krypt
skulden
##erg
bedrag
viken
utmed
bordel
uppdaterar
uppehallstillstand
synkron
pride
##møte
godnatt
##ektion
undersoker
twin
boliv
polske
##ikeren
nervøs
altanen
socialtjanst
##forsakringar
skaraborg
forside
kunnig
##skostnad
forsakra
ettersp
konstverk
taller
komplicerat
finale
luci
besvikelse
princippet
firas
foretrukne
elden
dansar
smad
velfærd
gladjande
opprette
##sbibliote
grupperna
medalj
skilsmisse
hay
presentere
##eltet
tilsynet
pocket
deci
avstang
plader
variationer
##samhall
olivia
##skiller
vine
pavag
clara
nordøst
brøndby
##ctive
frustration
forklaras
##itute
##sbevis
beter
graven
hosta
##guiden
forsigtigt
kenya
ovn
vata
sess
##inten
forfogande
spo
ramar
##kallande
##fur
hytte
korrekta
serum
frisor
bogstav
genomskin
mattnad
sjukskoterskor
##teren
bakade
klippe
friend
forebild
##ikkerhet
mottagaren
maskerad
pjas
##upplevelsen
forfær
##cyklar
##info
manual
inngar
mallor
dd
##faktorer
sprøjte
reddit
nemme
informere
laptop
notat
##inspir
belæg
utebl
##kup
##egenskaper
maa
stangde
arbejdspladsen
nisse
logge
raser
##grona
portioner
pædagogisk
skygge
foraldral
##46
barb
##ødder
genkende
vardagliga
107
bildade
avkopplande
nerver
rain
##hente
##esteder
opdaget
lojalitet
koble
varmek
medfoljer
##ffs
tilsammen
burg
1898
plas
entusias
##pase
##blank
##kompis
##oarna
##alag
skarpe
klister
dorrarna
glaset
kopplar
sædvanlige
illustration
2500
markeder
leter
drabbades
heidi
allihopa
##legetøj
zar
backup
reparationer
##otin
biblioteks
baner
beteenden
flydende
##ingets
##komplic
shang
keiser
gangvag
talan
afslappet
synligt
vasternorr
kakao
eskortt
bureau
attity
matas
strategiske
opstod
uld
kids
trykket
kvantitet
hale
118
lymf
urvalet
resmal
##andets
begrepet
omses
siri
langsom
##ugna
##motorer
##udenter
hede
muntlig
brygga
patenter
registrerad
##historien
hoppats
##skrit
vejleder
aktor
tveksam
##ræt
dominerende
stovlar
gjennomgang
##visande
jamte
avvatt
oppnad
afgørelsen
eksamens
beskedet
byradet
ansoknings
spott
away
valmaende
arrangere
helheten
karaktaren
bowling
beslutter
kongress
skogar
beretning
atmosfaren
ansluter
arbeidstak
hypot
ansættelse
meldinger
reper
forpligtelser
##arar
citrus
operationer
motas
tillval
##landska
modellerna
tummen
wii
torkar
##urope
terrass
filme
##reder
##roppar
##sspar
bandets
##yon
lokalerna
hemmelige
oppfyll
tjansterna
mixa
hundens
vandre
##repræsent
billet
formedlar
inspirert
blood
##hug
##skij
guard
##emet
helga
lv
viljan
responden
medvetenhet
reelle
namnd
nettbutikk
blande
medborgarna
piss
##analyse
vifte
kolum
udviklede
øyeblik
derude
##amt
bød
involveret
osten
semi
##sekonomi
komponent
vanja
##indlæg
grabbarna
four
delstatshuvudstaden
napole
##vidd
hyllan
##ales
tomme
##dec
##lappar
tilføjer
bars
forfor
hejsan
fs
##ørerne
hjemmelavet
varpa
taske
tilrettelæg
##alus
##hora
seriøs
konservative
##borden
havregr
acceler
##transport
foranstaltninger
##rea
hello
orim
##helgen
advarsel
forestilling
##ventil
##tecken
##etti
jø
miljard
bollnas
##max
hets
trot
##represent
bæ
misstankta
manuell
##nevnt
reglene
halsosam
oppsummer
jackpott
anvandbara
ofre
##ningsgrad
lattillgang
illust
kvinno
kritiken
iofs
berre
utfar
radion
xxl
petr
misbrug
sidel
##sbe
##utbildade
##registret
fand
konsept
omfanget
offert
publicerar
forts
doug
##hua
##leie
##latande
opgav
jomfru
experimenter
bjods
sovevær
##idorna
winter
kokt
jernbane
##iset
handjob
gomma
uter
søgte
##kalas
##ysen
sparat
tork
rullstol
observationer
rorlighet
eye
sure
##givna
kommerci
sert
109
tjus
vasen
sattes
mht
##slas
overbevist
tenk
forsikringssel
anerk
altfor
socialtjansten
board
##etninger
fortryck
banks
kontinu
##vandet
##corn
##sfrihet
##imo
advokater
1897
arist
rakor
gung
##finer
innført
underhalla
solceller
inbyggda
boys
tysklands
beord
clint
slov
fots
skolj
granit
650
spurt
outlet
hjartans
ambulans
oljor
forhabentlig
innehallsforteckning
streck
vunnet
aktieagare
koselig
ideella
##cupen
##forbindelse
##væg
hunder
skyldiga
lyrics
##pra
##nik
genomgatt
indtast
paborja
sloven
scout
mager
certifierad
skjort
chap
successivt
sykehuset
æstet
onskel
stekt
##lay
##stillfallen
irriterende
klang
organer
##manlands
##visade
ulrik
obligatoriskt
studion
strapon
##byggede
##angiv
primær
##agerne
pernilla
tata
##42
##bab
##krafter
##foten
utformade
rogaland
hanvisning
forsvare
utflykter
chick
terminal
aterstalla
##bestamm
sauna
joss
##rosa
##fatning
##bestall
tillatna
ulykker
##porten
testosteron
babys
foreslagna
toyota
paven
fastsættes
stella
##ummi
##lokal
lounge
ribe
featur
smel
utb
kundene
fugl
grave
matten
##jorer
##ecken
boxen
branche
nuet
visioner
inkludera
##ekonomi
player
impul
afsked
##verker
maksimal
##ovina
##ebygg
lægemidler
##genom
##ledninger
renovera
likte
overleve
##istere
sivil
arrond
eds
sveits
##ingsmiddel
laroplan
smage
##kkede
##regul
inrikes
nøjes
redovisar
kreves
rontgen
##rys
kalenderar
##artner
##nivaer
arrondiss
underliggande
placerar
opmærksomme
cigaretter
programledare
##istiker
upprepa
##tog
stephen
##skilte
doms
1895
hæve
##ejer
kvist
fredrikstad
fløde
lofte
rusk
##skjer
tabte
planbok
anker
also
##settes
##placer
##shog
##artan
migrationsverket
vidr
##budget
##avdelning
##sbut
laddat
kjolen
##kunskap
likvar
nostalg
secret
vederlag
expansion
##færds
lidelse
##host
spilleren
##kørsel
rettes
chall
bitcoin
sekel
connect
##olis
forsøke
mindful
##skamrater
bekostnad
uttryckt
ulykke
medarbeidere
##sappar
leop
##frukt
beautiful
bengtsson
akademi
lytter
romantiska
##skoterska
nøyaktig
medicinen
overgangs
udbyder
elektriker
herrer
2030
shirts
delhi
kreve
taktik
erkanner
instrumenter
bekymringer
komed
blandningen
##iljo
scenario
indledning
møbel
nyttige
##fø
##istre
underskrift
speciale
dreier
technology
ingredienserna
##ampe
##posit
stadsdelen
polism
hylde
tivoli
hjørring
kirurgi
kraftfulla
lonsamhet
bankens
oppført
komfortabel
svalna
selvstændigt
kari
##æmpelse
attra
##oider
database
tryckte
ambassa
oroliga
deltakerne
skinner
statistikk
rykten
roret
bip
overdre
elektricitet
159
sparen
##stillings
strømmen
##behandler
tdc
##klæring
skry
##laimer
gynnar
##jede
stories
etiske
mengder
##kjol
##deg
garaget
juridik
tillgangen
##omon
bandy
ungt
swing
##tta
træningen
##spillere
intervaller
##injen
institute
overfladen
ifragasatta
slal
skrivas
##administr
mattor
volley
forhallandevis
rammen
anfor
potentielle
##oland
kallelse
romantik
glip
##ogna
##ettan
550
redskab
##odell
fotografi
smukkeste
akupunkt
afgræns
##isont
maklar
locket
vibe
hovud
styv
##arbe
##analyser
edvard
intrade
opsætning
##aco
##alat
##ovar
linkedin
##flickor
##apt
karriaren
kombinerat
##øsning
##boda
##bens
pure
inskran
nyin
hemlag
mellanostern
romersk
kee
##etty
varldsm
folkeh
kontrolleras
anordnar
mottar
defekt
udgang
##naderna
dodsfall
##wald
periodiskt
kanadens
uttalanden
genrer
1896
litar
dee
markliga
ambitionen
værelserne
diagnose
utføres
##malt
ya
chokl
##savtalet
arb
church
betalte
gota
timen
anslutna
##forsakringen
protokollet
kollegaer
nordamerika
byrak
inspirerade
turism
chang
disclaimer
beige
involvert
##standard
kvinnelige
been
skadat
gemt
sæn
##splanering
leave
mølle
##yx
reservdelar
cb
udskiftning
flink
##stammer
sjæld
123
oversyn
præster
ventede
develop
malerier
snyggare
uppfost
##træning
organisk
ledsagare
tavlings
matchmaking
smalter
##bildet
sanden
release
##43
lagets
indbygget
nettside
##ел
flora
bebyggelsen
##fos
sære
vagnar
tras
roland
##rits
barrskog
trea
ungefarlig
framjar
sosialt
##middagen
disco
optræder
##nack
dybe
visp
berodde
duger
konsulter
burger
##stagaren
##efil
hsl
manskligheten
sallsynt
elsket
stjarnan
fylt
juleg
løv
sexualitet
bæl
pornografiska
##fyller
antonio
skilte
##iknande
flyget
korg
obligatoriska
scoret
demokratin
##batter
svarighet
atervinning
unike
##smatch
strommen
demokratiske
flytten
motsatsen
langsam
timmarna
##uns
##hire
erbjod
##kvaliteten
avde
aterfukt
sfo
hofter
verksamhetens
##aderna
##legge
kompetensutveckling
##istensen
rattare
switch
anvandbar
klikker
##dekor
##positionen
##hant
##inor
flickorna
aminos
departem
seksualitet
##89
butter
advan
biod
fornybar
anvendte
knat
dannes
##katalog
uteser
6000
vansinn
bekampa
##hangen
vannerna
oversatta
##stads
selskapets
besiktning
olamp
##ат
pulsen
pyssla
lyfte
motsats
vandløb
skabes
sasongens
##uma
##gata
##onne
forhandlingar
varifran
##ference
religioner
##rutan
stev
forlod
##pus
##studie
otur
spær
veil
evidens
trusler
##agnen
valbehov
##hoved
suz
##cta
alingsas
varn
anpassar
##stres
valjare
older
anpassning
blodtryk
harnos
malgrupper
##blo
##miljon
matrik
##sinformation
hok
oplyse
##ophold
##ødet
viv
##skrive
hott
blasa
medverkande
tvært
propaganda
selvstændige
fordjupa
angrepp
tacos
##konsol
pommes
##has
##orps
ersattningen
##skib
##banker
flybill
avsak
handball
profesjonelle
porrstjarnor
naboer
østlige
køretøj
onlinespel
utvecklad
kommentaren
uppfordes
knyt
##flyn
beklager
vestfold
fremmer
pagatt
reinfeldt
sjutton
likes
meir
miam
fult
##roja
fællesskabet
daily
##centre
##fartyg
ideologi
gips
ansættelses
canon
leverandøren
modig
destrukt
bely
##sverk
sidstnævnte
udsalg
afbry
meldte
cost
granserna
##medvet
dekk
dukket
##lægger
væsen
spurte
##ires
129
##oi
gert
kamrat
videnskabelige
begrænsninger
forfattarna
##potatis
styrt
græsk
##tainment
nd
kvinnene
migration
dominerande
samarbejdspartnere
##samfundet
sprids
elim
mogel
##shast
samlad
espress
where
gyldig
spetsen
afgang
##sparet
comeback
karol
##andringar
ulik
helgerna
lura
logik
##stegn
medlemsstater
besitter
##iggande
bekvamligheter
kvarstar
##fardig
cele
##attrakt
tidnings
opdagede
##vilkar
kartofler
##ieber
lastbilar
##gning
volkswagen
##betændelse
pornostjerne
orgel
redaktor
sva
oks
crist
aktivering
uri
anvandandet
flodar
##foretagare
nokia
tranaren
##fallande
tildeling
102
##ising
molde
læreren
iris
klippt
ernæring
ugns
fordelas
##senheten
skeden
##apest
omhygg
upphand
bokens
##strum
komite
puder
booty
makro
tolkas
overvægt
##86
halsning
premiaren
strikket
requ
##cera
##anpass
eus
##fund
tecknad
duk
halsningar
sjalvstandighet
sinnen
oplevelsen
forkant
truet
overenskomst
herceg
##holden
alternativen
gardin
betjening
sangare
exploder
##iate
academy
øyne
exception
ogonbryn
huvudman
uppskattning
forskjellen
henger
forbannad
otroliga
sneakers
##værdige
træde
kikade
allen
##havaren
spidsen
rydde
avverk
court
snabbast
stilte
##itlar
træffes
##indhold
sofistiker
smet
boenden
aksjon
utvecklare
six
vittnes
likviditet
overh
forvirring
beredskab
##ал
dogging
java
##byggerne
##mannens
##prat
##estyrelsen
mastercard
##otyper
пр
oas
##saftale
joy
sønderborg
##mitt
##од
omtanke
##smus
pull
snurrar
kejsar
forkerte
##hing
konstruktionen
seriøse
brok
pit
slægt
prostituerade
marathon
skiter
afsæt
##sholm
##drivende
##regnet
##spriset
figh
elizabeth
halsing
tilfeldig
##rygg
dab
penn
køretøjer
vassa
spion
kjemisk
oversku
brystet
fabriken
##ningsman
inham
politiets
##sprakiga
gigantisk
lyckan
##eling
fjernvarme
##vekt
repræsenteret
bum
polsk
arrangor
elevernes
dold
##kligen
vurderet
transparent
tipset
##lett
##zing
##jade
slovak
tænd
##jat
shl
danser
lyxigt
##skarmen
operativsystem
##oria
lasas
framkom
sexlegetøj
kronan
klippte
indsat
asylsokande
brands
sykdommer
##sev
##programmer
tilføjet
cf
kungsbacka
varuk
jævnligt
opfordrer
tm
##isolering
tynd
naglarna
twist
##artikel
##olje
mardrom
parallell
##vendigt
synger
indepen
begivenhed
brasilia
keb
lagene
gennemgaet
##salj
safari
ledaren
norda
artiller
sie
##iserande
rosterna
generos
medelaldern
utredningar
##kring
##reglerna
##forpack
kli
##skoga
##otekn
lobby
administrativt
##strategier
##kabel
abningstider
vardcentral
kvick
opdager
juan
nattflyn
dong
##stjarnan
synnerligen
rattigheterna
tycke
##ningsforetag
brutto
samspel
pastand
##ripa
forkæl
rigeligt
##udden
hustr
agentur
filma
ovantade
##hengige
timmer
##greb
hæm
brunn
oppover
verkstallande
gina
enklast
outf
valjs
kommersiell
nynas
luftkondition
koping
##emer
lagra
forsvarar
lovisa
mojligtvis
##vanner
atgarda
generera
professionelt
ovanliga
##størrelse
transporten
abd
kliniska
##olv
##stammar
mexik
laros
varmvatten
gader
oppning
chauff
rikta
schack
forbundets
drinkar
senget
##pose
skæb
drage
lansert
overga
folkeskolen
dræbt
værende
produktene
elektronikk
kriminella
malays
vennlig
stum
##stallas
nationalpark
##slaet
habit
protected
##færen
tibet
publicering
##icon
demonstration
treffe
arrangera
tilfredshed
##entligt
amning
##utover
beslutningen
broad
lutar
arbejdstid
ear
##slovens
tabu
mottagning
spand
veckas
[...]
