[PAD]
[unused0]
[unused1]
[unused2]
[unused3]
[unused4]
[unused5]
[unused6]
[unused7]
[unused8]
[unused9]
[unused10]
[unused11]
[unused12]
[unused13]
[unused14]
[unused15]
[unused16]
[unused17]
[unused18]
[unused19]
[unused20]
[unused21]
[unused22]
[unused23]
[unused24]
[unused25]
[unused26]
[unused27]
[unused28]
[unused29]
[unused30]
[unused31]
[unused32]
[unused33]
[unused34]
[unused35]
[unused36]
[unused37]
[unused38]
[unused39]
[unused40]
[unused41]
[unused42]
[unused43]
[unused44]
[unused45]
[unused46]
[unused47]
[unused48]
[unused49]
[unused50]
[unused51]
[unused52]
[unused53]
[unused54]
[unused55]
[unused56]
[unused57]
[unused58]
[unused59]
[unused60]
[unused61]
[unused62]
[unused63]
[unused64]
[unused65]
[unused66]
[unused67]
[unused68]
[unused69]
[unused70]
[unused71]
[unused72]
[unused73]
[unused74]
[unused75]
[unused76]
[unused77]
[unused78]
[unused79]
[unused80]
[unused81]
[unused82]
[unused83]
[unused84]
[unused85]
[unused86]
[unused87]
[unused88]
[unused89]
[unused90]
[unused91]
[unused92]
[unused93]
[unused94]
[unused95]
[unused96]
[unused97]
[unused98]
[unused99]
[unused100]
[unused101]
[unused102]
[unused103]
[unused104]
[unused105]
[unused106]
[unused107]
[unused108]
[unused109]
[unused110]
[unused111]
[unused112]
[unused113]
[unused114]
[unused115]
[unused116]
[unused117]
[unused118]
[unused119]
[unused120]
[unused121]
[unused122]
[unused123]
[unused124]
[unused125]
[unused126]
[unused127]
[unused128]
[unused129]
[unused130]
[unused131]
[unused132]
[unused133]
[unused134]
[unused135]
[unused136]
[unused137]
[unused138]
[unused139]
[unused140]
[unused141]
[unused142]
[unused143]
[unused144]
[unused145]
[unused146]
[unused147]
[unused148]
[unused149]
[unused150]
[unused151]
[unused152]
[unused153]
[unused154]
[unused155]
[unused156]
[unused157]
[unused158]
[unused159]
[unused160]
[unused161]
[unused162]
[unused163]
[unused164]
[unused165]
[unused166]
[unused167]
[unused168]
[unused169]
[unused170]
[unused171]
[unused172]
[unused173]
[unused174]
[unused175]
[unused176]
[unused177]
[unused178]
[unused179]
[unused180]
[unused181]
[unused182]
[unused183]
[unused184]
[unused185]
[unused186]
[unused187]
[unused188]
[unused189]
[unused190]
[unused191]
[unused192]
[unused193]
[unused194]
[unused195]
[unused196]
[unused197]
[unused198]
[unused199]
[unused200]
[unused201]
[unused202]
[unused203]
[unused204]
[unused205]
[unused206]
[unused207]
[unused208]
[unused209]
[unused210]
[unused211]
[unused212]
[unused213]
[unused214]
[unused215]
[unused216]
[unused217]
[unused218]
[unused219]
[unused220]
[unused221]
[unused222]
[unused223]
[unused224]
[unused225]
[unused226]
[unused227]
[unused228]
[unused229]
[unused230]
[unused231]
[unused232]
[unused233]
[unused234]
[unused235]
[unused236]
[unused237]
[unused238]
[unused239]
[unused240]
[unused241]
[unused242]
[unused243]
[unused244]
[unused245]
[unused246]
[unused247]
[unused248]
[unused249]
[unused250]
[unused251]
[unused252]
[unused253]
[unused254]
[unused255]
[unused256]
[unused257]
[unused258]
[unused259]
[unused260]
[unused261]
[unused262]
[unused263]
[unused264]
[unused265]
[unused266]
[unused267]
[unused268]
[unused269]
[unused270]
[unused271]
[unused272]
[unused273]
[unused274]
[unused275]
[unused276]
[unused277]
[unused278]
[unused279]
[unused280]
[unused281]
[unused282]
[unused283]
[unused284]
[unused285]
[unused286]
[unused287]
[unused288]
[unused289]
[unused290]
[unused291]
[unused292]
[unused293]
[unused294]
[unused295]
[unused296]
[unused297]
[unused298]
[unused299]
[unused300]
[unused301]
[unused302]
[unused303]
[unused304]
[unused305]
[unused306]
[unused307]
[unused308]
[unused309]
[unused310]
[unused311]
[unused312]
[unused313]
[unused314]
[unused315]
[unused316]
[unused317]
[unused318]
[unused319]
[unused320]
[unused321]
[unused322]
[unused323]
[unused324]
[unused325]
[unused326]
[unused327]
[unused328]
[unused329]
[unused330]
[unused331]
[unused332]
[unused333]
[unused334]
[unused335]
[unused336]
[unused337]
[unused338]
[unused339]
[unused340]
[unused341]
[unused342]
[unused343]
[unused344]
[unused345]
[unused346]
[unused347]
[unused348]
[unused349]
[unused350]
[unused351]
[unused352]
[unused353]
[unused354]
[unused355]
[unused356]
[unused357]
[unused358]
[unused359]
[unused360]
[unused361]
[unused362]
[unused363]
[unused364]
[unused365]
[unused366]
[unused367]
[unused368]
[unused369]
[unused370]
[unused371]
[unused372]
[unused373]
[unused374]
[unused375]
[unused376]
[unused377]
[unused378]
[unused379]
[unused380]
[unused381]
[unused382]
[unused383]
[unused384]
[unused385]
[unused386]
[unused387]
[unused388]
[unused389]
[unused390]
[unused391]
[unused392]
[unused393]
[unused394]
[unused395]
[unused396]
[unused397]
[unused398]
[unused399]
[unused400]
[unused401]
[unused402]
[unused403]
[unused404]
[unused405]
[unused406]
[unused407]
[unused408]
[unused409]
[unused410]
[unused411]
[unused412]
[unused413]
[unused414]
[unused415]
[unused416]
[unused417]
[unused418]
[unused419]
[unused420]
[unused421]
[unused422]
[unused423]
[unused424]
[unused425]
[unused426]
[unused427]
[unused428]
[unused429]
[unused430]
[unused431]
[unused432]
[unused433]
[unused434]
[unused435]
[unused436]
[unused437]
[unused438]
[unused439]
[unused440]
[unused441]
[unused442]
[unused443]
[unused444]
[unused445]
[unused446]
[unused447]
[unused448]
[unused449]
[unused450]
[unused451]
[unused452]
[unused453]
[unused454]
[unused455]
[unused456]
[unused457]
[unused458]
[unused459]
[unused460]
[unused461]
[unused462]
[unused463]
[unused464]
[unused465]
[unused466]
[unused467]
[unused468]
[unused469]
[unused470]
[unused471]
[unused472]
[unused473]
[unused474]
[unused475]
[unused476]
[unused477]
[unused478]
[unused479]
[unused480]
[unused481]
[unused482]
[unused483]
[unused484]
[unused485]
[unused486]
[unused487]
[unused488]
[unused489]
[unused490]
[unused491]
[unused492]
[unused493]
[unused494]
[unused495]
[unused496]
[unused497]
[unused498]
[unused499]
[unused500]
[unused501]
[unused502]
[unused503]
[unused504]
[unused505]
[unused506]
[unused507]
[unused508]
[unused509]
[unused510]
[unused511]
[unused512]
[unused513]
[unused514]
[unused515]
[unused516]
[unused517]
[unused518]
[unused519]
[unused520]
[unused521]
[unused522]
[unused523]
[unused524]
[unused525]
[unused526]
[unused527]
[unused528]
[unused529]
[unused530]
[unused531]
[unused532]
[unused533]
[unused534]
[unused535]
[unused536]
[unused537]
[unused538]
[unused539]
[unused540]
[unused541]
[unused542]
[unused543]
[unused544]
[unused545]
[unused546]
[unused547]
[unused548]
[unused549]
[unused550]
[unused551]
[unused552]
[unused553]
[unused554]
[unused555]
[unused556]
[unused557]
[unused558]
[unused559]
[unused560]
[unused561]
[unused562]
[unused563]
[unused564]
[unused565]
[unused566]
[unused567]
[unused568]
[unused569]
[unused570]
[unused571]
[unused572]
[unused573]
[unused574]
[unused575]
[unused576]
[unused577]
[unused578]
[unused579]
[unused580]
[unused581]
[unused582]
[unused583]
[unused584]
[unused585]
[unused586]
[unused587]
[unused588]
[unused589]
[unused590]
[unused591]
[unused592]
[unused593]
[unused594]
[unused595]
[unused596]
[unused597]
[unused598]
[unused599]
[unused600]
[unused601]
[unused602]
[unused603]
[unused604]
[unused605]
[unused606]
[unused607]
[unused608]
[unused609]
[unused610]
[unused611]
[unused612]
[unused613]
[unused614]
[unused615]
[unused616]
[unused617]
[unused618]
[unused619]
[unused620]
[unused621]
[unused622]
[unused623]
[unused624]
[unused625]
[unused626]
[unused627]
[unused628]
[unused629]
[unused630]
[unused631]
[unused632]
[unused633]
[unused634]
[unused635]
[unused636]
[unused637]
[unused638]
[unused639]
[unused640]
[unused641]
[unused642]
[unused643]
[unused644]
[unused645]
[unused646]
[unused647]
[unused648]
[unused649]
[unused650]
[unused651]
[unused652]
[unused653]
[unused654]
[unused655]
[unused656]
[unused657]
[unused658]
[unused659]
[unused660]
[unused661]
[unused662]
[unused663]
[unused664]
[unused665]
[unused666]
[unused667]
[unused668]
[unused669]
[unused670]
[unused671]
[unused672]
[unused673]
[unused674]
[unused675]
[unused676]
[unused677]
[unused678]
[unused679]
[unused680]
[unused681]
[unused682]
[unused683]
[unused684]
[unused685]
[unused686]
[unused687]
[unused688]
[unused689]
[unused690]
[unused691]
[unused692]
[unused693]
[unused694]
[unused695]
[unused696]
[unused697]
[unused698]
[unused699]
[unused700]
[unused701]
[unused702]
[unused703]
[unused704]
[unused705]
[unused706]
[unused707]
[unused708]
[unused709]
[unused710]
[unused711]
[unused712]
[unused713]
[unused714]
[unused715]
[unused716]
[unused717]
[unused718]
[unused719]
[unused720]
[unused721]
[unused722]
[unused723]
[unused724]
[unused725]
[unused726]
[unused727]
[unused728]
[unused729]
[unused730]
[unused731]
[unused732]
[unused733]
[unused734]
[unused735]
[unused736]
[unused737]
[unused738]
[unused739]
[unused740]
[unused741]
[unused742]
[unused743]
[unused744]
[unused745]
[unused746]
[unused747]
[unused748]
[unused749]
[unused750]
[unused751]
[unused752]
[unused753]
[unused754]
[unused755]
[unused756]
[unused757]
[unused758]
[unused759]
[unused760]
[unused761]
[unused762]
[unused763]
[unused764]
[unused765]
[unused766]
[unused767]
[unused768]
[unused769]
[unused770]
[unused771]
[unused772]
[unused773]
[unused774]
[unused775]
[unused776]
[unused777]
[unused778]
[unused779]
[unused780]
[unused781]
[unused782]
[unused783]
[unused784]
[unused785]
[unused786]
[unused787]
[unused788]
[unused789]
[unused790]
[unused791]
[unused792]
[unused793]
[unused794]
[unused795]
[unused796]
[unused797]
[unused798]
[unused799]
[unused800]
[unused801]
[unused802]
[unused803]
[unused804]
[unused805]
[unused806]
[unused807]
[unused808]
[unused809]
[unused810]
[unused811]
[unused812]
[unused813]
[unused814]
[unused815]
[unused816]
[unused817]
[unused818]
[unused819]
[unused820]
[unused821]
[unused822]
[unused823]
[unused824]
[unused825]
[unused826]
[unused827]
[unused828]
[unused829]
[unused830]
[unused831]
[unused832]
[unused833]
[unused834]
[unused835]
[unused836]
[unused837]
[unused838]
[unused839]
[unused840]
[unused841]
[unused842]
[unused843]
[unused844]
[unused845]
[unused846]
[unused847]
[unused848]
[unused849]
[unused850]
[unused851]
[unused852]
[unused853]
[unused854]
[unused855]
[unused856]
[unused857]
[unused858]
[unused859]
[unused860]
[unused861]
[unused862]
[unused863]
[unused864]
[unused865]
[unused866]
[unused867]
[unused868]
[unused869]
[unused870]
[unused871]
[unused872]
[unused873]
[unused874]
[unused875]
[unused876]
[unused877]
[unused878]
[unused879]
[unused880]
[unused881]
[unused882]
[unused883]
[unused884]
[unused885]
[unused886]
[unused887]
[unused888]
[unused889]
[unused890]
[unused891]
[unused892]
[unused893]
[unused894]
[unused895]
[unused896]
[unused897]
[unused898]
[unused899]
[unused900]
[unused901]
[unused902]
[unused903]
[unused904]
[unused905]
[unused906]
[unused907]
[unused908]
[unused909]
[unused910]
[unused911]
[unused912]
[unused913]
[unused914]
[unused915]
[unused916]
[unused917]
[unused918]
[unused919]
[unused920]
[unused921]
[unused922]
[unused923]
[unused924]
[unused925]
[unused926]
[unused927]
[unused928]
[unused929]
[unused930]
[unused931]
[unused932]
[unused933]
[unused934]
[unused935]
[unused936]
[unused937]
[unused938]
[unused939]
[unused940]
[unused941]
[unused942]
[unused943]
[unused944]
[unused945]
[unused946]
[unused947]
[unused948]
[unused949]
[unused950]
[unused951]
[unused952]
[unused953]
[unused954]
[unused955]
[unused956]
[unused957]
[unused958]
[unused959]
[unused960]
[unused961]
[unused962]
[unused963]
[unused964]
[unused965]
[unused966]
[unused967]
[unused968]
[unused969]
[unused970]
[unused971]
[unused972]
[unused973]
[unused974]
[unused975]
[unused976]
[unused977]
[unused978]
[unused979]
[unused980]
[unused981]
[unused982]
[unused983]
[unused984]
[unused985]
[unused986]
[unused987]
[unused988]
[unused989]
[unused990]
[unused991]
[unused992]
[unused993]
[unused994]
[unused995]
[unused996]
[unused997]
[unused998]
[unused999]
[UNK]
[CLS]
[SEP]
[MASK]
!
"
#
$
%
&
'
(
)
*
+
,
-
.
/
0
1
2
3
4
5
6
7
8
9
:
;
<
=
>
?
@
[
\
]
^
_
`
a
b
c
d
e
f
g
h
i
j
k
l
m
n
o
p
q
r
s
t
u
v
w
x
y
z
{
|
}
~
¡
¢
£
¤
¥
¦
§
¨
©
ª
«
¬
®
¯
°
±
²
³
´
µ
¶
·
¸
¹
º
»
¼
½
¾
¿
×
ß
æ
ð
÷
ø
þ
đ
ı
ł
œ
ƒ
ə
ɛ
ʹ
ˆ
ˇ
ˈ
ː
˚
ˮ
ͼ
α
β
γ
δ
ε
ζ
η
θ
ι
κ
λ
μ
ν
ξ
ο
π
ρ
ς
σ
τ
υ
φ
χ
ψ
ω
ϕ
а
б
в
г
д
е
ж
з
и
к
л
м
н
о
п
р
с
т
у
ф
х
ц
ч
ш
щ
ъ
ы
ь
э
ю
я
ђ
є
ѕ
і
ј
љ
ґ
һ
ա
א
ב
ג
ד
ה
ו
ח
ט
י
כ
ל
ם
מ
ן
נ
ס
ע
פ
ק
ר
ש
ת
،
ء
ا
ب
ة
ت
ث
ج
ح
خ
د
ذ
ر
ز
س
ش
ص
ض
ط
ظ
ع
غ
ـ
ف
ق
ك
ل
م
ن
ه
و
ى
ي
پ
چ
ک
گ
ی
क
ग
ज
त
द
न
प
ब
म
य
र
ल
व
स
ह
ा
ि
ी
ो
ক
ত
ন
ব
য
র
ল
স
া
ি
ে
க
த
ன
ப
ம
ர
ா
ி
ு
ు
ก
ข
ค
ง
จ
ช
ด
ต
ท
น
บ
ป
พ
ม
ย
ร
ล
ว
ส
ห
อ
ะ
า
฿
เ
แ
โ
ไ
ა
ე
ი
რ
ᄀ
ᄂ
ᄃ
ᄅ
ᄆ
ᄇ
ᄉ
ᄋ
ᄌ
ᄎ
ᄏ
ᄐ
ᄑ
ᄒ
ᅡ
ᅢ
ᅥ
ᅦ
ᅧ
ᅩ
ᅪ
ᅭ
ᅮ
ᅳ
ᅴ
ᅵ
ᆨ
ᆫ
ᆯ
ᆷ
ᆸ
ᆼ
ᐈ
‐
‑
‒
–
—
―
‘
’
‚
“
”
„
†
‡
•
…
‰
′
″
‹
›
₂
₨
€
℃
№
™
←
↑
→
↓
⇒
−
√
≈
≤
≥
─
■
□
▪
▫
▲
▶
►
▻
▼
○
●
☀
★
☆
☺
♀
♡
♣
♥
♦
✅
✌
✓
✔
✚
✨
✭
✰
❄
❑
❤
➔
⠀
⭐
ⰰ
、
。
「
」
【
】
あ
い
う
え
お
か
き
く
け
こ
さ
し
す
せ
そ
た
ち
っ
つ
て
と
な
に
の
は
ひ
へ
ま
み
め
も
や
よ
ら
り
る
れ
わ
を
ん
ア
ィ
イ
ウ
ェ
エ
オ
カ
キ
ク
ケ
コ
サ
シ
ス
セ
ソ
タ
チ
ッ
ツ
テ
ト
ナ
ニ
ネ
ノ
ハ
ヒ
フ
ヘ
ホ
マ
ミ
ム
メ
モ
ャ
ュ
ョ
ラ
リ
ル
レ
ロ
ワ
ン
・
ー
䄀
䈀
䌀
䐀
䔀
䜀
䠀
䤀
䬀
䰀
䴀
一
七
万
三
上
下
不
与
专
世
业
东
两
个
中
为
主
么
之
乐
九
也
买
了
争
事
二
于
五
交
产
京
人
什
今
他
仙
代
以
们
件
任
伀
会
传
位
体
何
作
你
使
供
保
信
值
元
先
光
免
入
全
八
公
六
关
其
具
典
内
円
册
准
出
刀
分
划
创
利
到
制
前
力
加
务
动
势
動
匀
包
化
北
区
十
单
南
博
历
原
县
及
双
发
取
口
可
台
号
司
吀
合
同
名
后
吗
和
品
哪
唀
商
嘀
器
四
回
国
图
在
地
场
址
坛
型
城
基
堂
場
士
备
外
多
大
天
太
奖
女
好
如
姐
娱
婆
子
字
学
安
官
定
宝
实
客
室
家
富
对
将
小
少
就
尾
展
山
川
州
工
巧
市
常
平
年
广
庆
库
店
度
建
开
式
当
录
彩
影
律
得
微
心
必
快
怎
思
性
总
情
意
感
戏
成
我
户
所
手
打
技
投
报
持
挂
指
推
提
播
教
数
文
料
斯
新
方
无
日
时
明
星
是
時
更
最
月
有
服
期
本
机
杀
来
東
枚
果
校
样
格
業
次
正
比
民
氓
気
水
江
河
法
波
注
活
流
测
海
港
游
源
澳
点
無
爱
片
版
牌
牛
物
特
狗
玄
王
玩
现
球
理
生
用
田
电
画
界
登
白
百
的
皇
盘
目
盲
直
相
看
県
真
着
知
码
社
神
票
福
科
程
空
立
站
第
等
算
管
精
系
红
线
组
经
结
统
网
美
群
老
者
而
肖
育
能
自
色
花
英
行
表
装
西
要
見
规
视
解
言
語
计
记
论
设
诗
财
费
资
赌
赛
赢
走
起
足
跑
路
身
车
软
载
过
这
进
送
选
通
道
選
部
都
里
重
量
金
钱
长
間
门
间
际
限
院
集
電
霸
面
音
预
食
香
马
高
黄
龙
ﬁ
ﬂ
！
（
）
，
：
？
ｩ
ｲ
ﾞ
𝐞
🌟
🌸
🍁
🎉
🏻
🏼
🏽
👊
👌
👍
👏
💕
💖
💗
💙
💚
💛
💜
💪
🔥
😀
😁
😂
😃
😄
😅
😆
😉
😊
😋
😍
😎
😏
😘
😛
😜
😝
😢
😦
😬
😭
😱
😳
🙁
🙂
🙄
🙈
🙌
🙏
🤔
🤗
🤣
##l
##e
##v
##s
##a
##r
##n
##p
##o
##t
##g
##k
##w
##d
##y
##4
##8
##2
##9
##5
##ø
##f
##u
##m
##c
##i
##0
##x
##1
##h
##b
##7
##3
##j
##z
##ᅡ
##ᆫ
##ᄆ
##ᅥ
##ᄅ
##ᅵ
##æ
##6
##q
##т
##е
##р
##о
##х
##и
##м
##ν
##α
##π
##λ
##σ
##η
##у
##ф
##к
##ে
##ন
##া
##н
##с
##ж
##д
##®
##า
##แ
##ต
##ม
##°
##ย
##ท
##ว
##น
##โ
##ด
##ล
##พ
##ร
##ر
##ه
##ا
##ت
##ی
##🙂
##χ
##υ
##τ
##ς
##ე
##რ
##ა
##イ
##ク
##も
##ᄎ
##ᅢ
##ᆨ
##´
##ı
##😄
##э
##һ
##я
##ь
##¸
##●
##す
##る
##た
##け
##て
##ヒ
##タ
##ッ
##ワ
##ー
##シ
##ョ
##フ
##ʹ
##¥
##€
##љ
##л
##г
##❤
##の
##と
##し
##а
##ラ
##ค
##อ
##จ
##เ
##ห
##ง
##©
##в
##ј
##👍
##ニ
##ュ
##ス
##ח
##ב
##ר
##י
##ם
##ل
##ب
##ـ
##د
##ع
##ᅩ
##ᄋ
##ᄀ
##ᅮ
##ᅭ
##😂
##ð
##²
##ц
##ы
##♡
##і
##п
##ч
##ω
##ł
##な
##い
##よ
##う
##こ
##з
##♥
##ი
##β
##っ
##レ
##ア
##キ
##ャ
##や
##テ
##ム
##か
##¬
##ю
##б
##り
##あ
##ん
##đ
##¤
##ز
##🏼
##ο
##ρ
##γ
##щ
##ث
##ي
##ن
##ᄑ
##ᅳ
##ᆯ
##ᆷ
##ส
##¨
##🙌
##🏻
##و
##ش
##˚
##く
##は
##オ
##ン
##コ
##ル
##ト
##カ
##そ
##م
##ط
##ি
##ব
##ক
##ص
##غ
##ђ
##س
##خ
##ɛ
##ə
##に
##ة
##נ
##ה
##ш
##ق
##♀
##þ
##😍
##−
##ح
##£
##ъ
##サ
##ソ
##ไ
##ก
##ß
##💪
##👊
##מ
##ש
##ק
##ו
##さ
##ロ
##ィ
##わ
##ケ
##え
##お
##ᄇ
##ف
##μ
##چ
##گ
##💗
##🌟
##त
##न
##ा
##บ
##ะ
##き
##ウ
##ˈ
##θ
##ヘ
##リ
##ᄒ
##ᅪ
##ᅴ
##×
##ノ
##ε
##φ
##ι
##ハ
##☺
##✔
##😘
##👌
##ج
##😊
##😉
##ि
##र
##ी
##ˮ
##ま
##ψ
##¼
##½
##🌸
##✨
##™
##µ
##ƒ
##マ
##ᄌ
##れ
##ら
##³
##ェ
##😆
##𝐞
##ป
##ﬁ
##😀
##₂
##😁
##ա
##❄
##א
##פ
##ס
##☀
##🙏
##エ
##😱
##🏽
##を
##😋
##ホ
##œ
##κ
##ͼ
##ˇ
##😳
##±
##せ
##ो
##ు
##ா
##ு
##み
##ᅦ
##↓
##º
##क
##ک
##ত
##র
##پ
##ช
##→
##🎉
##ナ
##😛
##ᅧ
##ת
##ˆ
##😃
##ː
##ء
##😜
##ᄂ
##ᆼ
##ד
##ѕ
##ᄏ
##δ
##ג
##😅
##ض
##ك
##🤗
##メ
##♣
##ע
##ह
##セ
##ி
##ம
##த
##ர
##💖
##チ
##💙
##כ
##ט
##य
##प
##க
##ன
##ᄉ
##ᄐ
##ζ
##😦
##🤔
##🙄
##ξ
##ミ
##✌
##🔥
##¹
##ᄃ
##👏
##ґ
##★
##÷
##ツ
##へ
##ল
##💚
##য
##व
##☆
##ל
##є
##め
##ज
##≥
##つ
##😎
##🙈
##ן
##ネ
##स
##ल
##ذ
##ひ
##○
##▲
##ब
##স
##ᆸ
##🤣
##¢
##ち
##√
##¦
##✓
##ظ
##■
##🍁
##⭐
##💕
##✅
##ข
##😬
##ﬂ
##≈
##¯
##💛
##♦
##म
##ى
##ப
##😏
##😢
##□
##ϕ
##℃
##द
##ग
##💜
##≤
##▼
##モ
##ª
##▻
##ﾞ
##↑
##⠀
##№
##¾
##😭
##😝
##✭
##▶
##✰
##►
##←
##ｲ
##ｩ
##⇒
##🙁
##ⰰ
##▫
##▪
##฿
##─
##➔
##❑
##✚
##er
##ar
##en
##an
##or
##et
##tt
##ll
##in
##om
##ag
##st
##ig
##ch
och
for
##de
##on
##ed
##ing
##at
##al
det
att
in
ar
en
##ra
##sk
pa
ti
##el
vi
som
##te
##ck
av
sa
##na
med
##kt
var
st
sk
har
##pp
##re
##as
an
de
jag
##sa
till
##and
##un
##ning
##ter
##lig
##ad
##ro
##all
##il
##ik
##it
om
##ol
##ver
den
##der
##is
##ang
##es
ut
##ade
kan
##att
##am
bl
##iv
##em
##id
inte
og
##ast
##ur
##ot
##ss
du
##eg
##isk
ett
##ran
##ion
men
man
##for
kom
all
##ta
##are
##ok
##og
##ut
##ller
##het
##ande
er
sp
##est
##itt
##ent
##var
un
upp
##mer
##ak
##us
##od
sam
##ens
##ist
nar
##inn
##ru
##ort
se
eller
##yck
##ul
##ell
min
han
##ska
be
ska
til
pro
##ma
hel
##ri
bar
##den
##ne
##fter
fran
##os
##ir
##art
##gen
nag
fl
##igt
##sl
##ull
kl
fra
##ker
fa
kon
and
ha
##ek
over
##bb
far
##ation
##sp
under
ny
##ill
##um
##ligt
val
##op
##ant
sl
##va
##ick
##yg
##ff
dar
##ud
at
al
##ft
##je
##ans
##dag
20
##ke
vara
efter
##arna
nu
##und
sig
##se
ta
stor
pl
da
##ett
##ser
##ost
##ers
##ock
sj
gr
##del
dag
li
##ov
##ev
kommer
gor
##bl
bor
lag
##bet
##ør
mo
##sen
mer
##sta
##ger
gj
del
allt
vil
vill
finn
##da
kun
mig
ann
kr
alla
##opp
##sam
##ark
fr
mot
sin
ju
##ikt
or
##ling
kv
##ga
bra
##erna
##ika
fram
bil
##jon
##ene
ver
##ass
sv
lite
lang
tr
tid
##ycket
##kl
hon
##era
inn
##gar
##ic
vid
beh
##ann
##im
vad
##ningen
pr
##org
mycket
##aste
ex
##ka
opp
gen
finns
mang
bara
hur
##edan
sy
##iska
##ekt
##eck
##liga
din
##ord
jo
##satt
##ats
##yr
##ende
blir
sex
sen
##iga
##dr
komm
re
##la
##ja
##vand
##oll
##ligen
##ott
ock
hem
aven
ocksa
##ulle
##ier
##ber
##ket
##jt
andra
tra
##jer
##av
sag
ser
##erson
##ack
##00
skulle
gar
201
##itet
##skap
hade
##alt
ol
##pl
mat
fin
dig
samt
detta
hand
##mar
hj
##men
ma
##ningar
bet
arbet
##bil
person
##ering
ik
##ank
##vis
ber
##alv
##ere
th
ty
##hall
verk
no
##sm
dat
sm
reg
##hol
##ske
##be
##ssa
##du
##ring
##per
##stall
##ygg
satt
spel
br
ch
##ige
gang
genom
el
res
oss
utan
on
##lag
bli
barn
##som
##ara
fort
##ju
van
anvand
nat
##enn
nagon
pre
##ala
et
svar
fol
manga
##riv
fors
##orr
##yn
ikke
##ighet
##aren
helt
tro
gl
sedan
##pa
##man
##kel
##ci
sven
nagot
##jting
##ie
best
##iskt
##me
##over
sn
##ult
19
##gang
hog
gora
##atis
dem
##ets
hall
##gi
##sb
ga
##ia
god
##lighet
##ug
bes
##ster
##tal
vet
##dre
liv
mal
##asta
##form
##ken
forsta
jobb
le
per
jeg
kra
##ote
##rad
inne
fun
fick
##ær
idag
sitt
##le
sjalv
tre
der
bru
tva
##orn
##ien
ratt
so
denna
gratis
##ys
##if
fil
hitt
mell
##ilj
##ef
##land
kommun
##else
##lar
ni
##nad
##jan
##verk
vag
hela
akt
sver
##nings
blev
vis
##ress
##ater
olika
##get
mar
##amn
saker
seg
kop
##ce
##ram
int
utv
nagra
dejting
di
ro
led
land
rikt
vikt
##yd
##akt
par
##ner
maste
##ytt
inter
##nas
##app
##amp
kj
##kom
##age
##sid
las
bade
sid
##bar
nya
##pt
##ingen
ble
of
##ks
dom
##net
##kar
mann
##ativ
tv
form
##ader
vin
va
hjal
su
varit
##ge
kanske
##ont
tran
kor
inom
frag
tyck
##etag
##des
hos
nor
sna
kvinn
moj
##ste
lan
##aller
##holm
##ym
igen
te
ans
##asjon
forst
##far
tar
ord
kont
rad
kar
mark
mellan
fatt
skol
ja
pol
##dom
bok
dessa
he
produ
lik
##pel
fast
mitt
sverige
10
##ikk
##ella
##takt
fakt
veck
##ine
borj
slut
bo
eg
##unn
skal
##str
##ert
ater
##ktion
hal
##slag
ka
lig
innan
mest
vilket
to
##ades
##uk
tan
##jen
str
ingen
dess
vald
stock
##fall
am
##utom
ov
bland
##ps
##rupp
just
##atten
##yl
annat
##eb
bak
##gr
dr
##orna
##rum
lar
alltid
stockholm
tag
ner
kn
star
ek
tal
gam
##sson
##unt
beg
ant
porr
mass
##ts
na
200
##fil
##met
##iva
##ata
etter
##ære
stora
plan
foretag
hu
gra
##fr
basta
ved
ur
fot
fall
##ow
forsk
##jekt
hen
behover
##sh
##nar
##sv
forb
kall
im
##bak
fre
sina
##oj
hv
batt
##erade
dette
##enter
##stem
##ns
##ess
##fatt
the
18
##alen
svenska
inform
pen
vart
varje
kunna
lin
tje
##skar
pris
nog
red
##sc
##øy
enkel
sager
##erar
##fl
skriv
##eter
eftersom
stall
mor
fy
ger
ogsa
##pro
tank
##pe
her
pass
##jud
hans
før
kontakt
sel
samma
varl
bro
stad
##orde
##yk
gick
sol
##ial
##led
##ings
##arbet
##ha
##igare
utveck
##ratt
##kter
hus
##bild
##rekt
##iken
valdigt
##samhet
##empel
riktigt
##esta
##stand
##anska
ge
##gram
sok
egen
##vet
flera
##blem
##bo
latt
mannisk
hopp
behov
##br
sist
by
koll
##vag
vide
ne
eu
tycker
##erad
tror
sal
##borg
tur
bad
em
full
bygg
bilder
##pr
bort
##io
15
sak
##hand
kort
snabb
dock
jul
##mal
##erat
##ret
blog
we
natur
mil
lu
##min
spe
##lem
pu
##iten
tiden
la
mina
##sten
battre
##elsen
kost
mus
ung
sh
ned
##ds
galler
##øre
ly
dating
enligt
12
##tra
ligger
lever
ditt
ste
##lagg
##iske
verkligen
##samm
ak
##ellt
grund
##par
##hus
gjort
##utt
##sdag
si
aldr
nytt
konst
komma
tack
rek
ca
##tid
##ister
intress
ad
erb
kro
##ator
ab
##agen
svart
##ler
##upp
fortsatt
anda
##nade
##dig
##lek
kunde
folk
##sak
##las
forsok
fam
ev
##ars
problem
me
##xt
##skil
rel
##dan
andre
##onom
##ipp
skall
mis
namn
information
runt
tim
##stad
##rade
syn
noen
my
##mark
kvar
##olog
##pet
##istor
exempel
kvinnor
redan
bed
##by
##orgon
##iver
speci
tog
ute
aldrig
##rakt
##val
##ektiv
##vud
deras
trad
styr
##berg
manniskor
##sch
##sammans
##ubb
##sfor
gjorde
##iet
##uter
##pen
30
##adde
fi
##sn
##orter
onl
tidigare
tillsammans
##cent
##ider
ag
fler
app
mindre
esc
ra
##ationer
##gifter
milj
org
svensk
##red
##anis
annan
tillbak
stud
lok
hitta
##ultat
lat
##aget
være
##elser
art
porn
##beid
direkt
##ung
ham
dina
11
fant
##assa
##rev
##etter
##ekn
enkelt
medlem
##rar
##eras
dagen
##uss
sjuk
##gor
##ition
##iker
eng
##ester
stod
krav
part
jam
##ingar
##ina
darfor
behand
##heten
post
alle
##det
hjalp
sma
webb
##giv
tillbaka
plats
stort
beratt
hor
samtid
honom
##øl
huvud
##andet
##spl
tjan
##egg
kval
##ct
hemma
liten
kvall
lyck
##river
lo
co
##ard
online
traff
forv
##res
kron
tel
mu
##ian
ok
infor
hun
hy
selv
##anden
mojlighet
stat
##lut
##rak
##tern
vel
norg
start
off
sar
son
noe
##ært
hadde
gran
polit
titt
rak
henne
##orer
##rik
##cis
##sf
17
ih
ofta
besk
##skol
lika
##ob
##omm
bild
##asin
saga
film
##lev
fel
##sikt
dessutom
bi
escort
vann
denne
##rat
faktiskt
16
fru
##med
eff
##mo
resultat
program
##illa
##amma
##heter
tor
##ennom
##atser
kanner
sta
grupp
nast
##radet
haft
tjejer
besok
verksamhet
personer
langt
matt
##lingen
tha
##yt
tekn
kat
inv
fred
##bland
typ
ind
##dighet
##slut
vack
fem
nett
rum
massage
viktig
dra
kropp
sø
anvanda
visa
precis
vatten
glad
bel
##andel
##fin
match
##ice
14
kanns
ror
##ennes
##ong
ansvar
gjennom
ytt
##bart
##ionen
dal
##nat
beslut
##inger
kul
ren
histor
dis
kons
##sattning
soci
pengar
aktiv
##jar
##kop
##ide
fri
mon
gote
bek
kna
disk
##icka
##iter
go
klar
##istr
sc
lange
##rift
innehall
goteborg
100
hennes
ob
via
ganska
betal
##ex
ville
litt
gre
##ationen
##iner
##ivit
##ons
end
inget
euro
##inner
##elig
sett
##unkt
met
kur
##ust
##raf
##illar
dagar
##rot
13
stra
hund
##eng
knull
##kor
bill
sommar
##fol
##dar
utbild
funger
forl
##amm
kopa
##ond
utfor
varfor
mid
##stallet
storre
##saker
ang
##vid
langre
##naden
aldre
nastan
inst
vilken
##lad
lø
samtidigt
norge
kult
borjar
hoppas
nord
id
alltsa
##fekt
##nen
##este
antal
vissa
fantast
##ite
##alla
##efon
##aga
senaste
san
vax
##elt
##inna
po
istallet
is
ganger
##lla
##ille
##ioner
##sida
25
##nader
joh
##otell
##andra
blivit
##els
##jur
gener
jatt
##ve
des
##jor
snart
##rang
gott
organis
kjø
ener
com
annu
##spro
folj
vidare
if
tillgang
50
##ip
##ale
varm
##ies
garna
los
bid
##gift
egent
extra
flytt
##tag
system
##ins
yo
##farande
00
nasta
tem
familj
##edel
##lige
dan
##atsen
##jus
kontro
vilka
##als
minst
tot
##dens
igar
ibland
byg
##under
##ven
utt
innebar
papp
finans
##dagen
000
##ternativ
borjade
deg
##ift
##iss
trots
##one
##ind
ot
projekt
video
mobil
lam
##spel
uten
lak
##itu
##sker
##ever
samman
haller
pos
dejtingsa
pat
leg
forut
anal
##bud
kred
##tes
vast
##klar
##ligare
ekonom
mange
sarskil
sjal
gamla
tav
halv
rik
bas
publ
ba
aret
vir
##alj
sista
visar
ben
meg
lagen
hotell
##int
##fer
do
krist
senare
fortfarande
sitter
##juder
arbeid
##anda
halla
lov
dam
bost
##ydd
sadan
blogg
bruk
høy
##vall
bare
##drag
##kur
helst
foren
jan
klart
sang
##styr
mater
stand
##oden
natt
kap
##rott
ytter
hittar
enda
##hor
enn
kultur
##vor
endast
as
manad
inga
##tera
sw
kok
##joner
ul
##vard
kvalitet
##bel
lasa
cent
##ummer
framfor
mag
komp
##ux
ho
mamma
slik
fore
vant
bety
lek
lad
ide
##ny
risk
##ron
esk
##drar
topp
##cka
livet
##aler
##kan
tom
alt
##esten
klass
gatt
aren
bon
##sok
perfekt
gu
mode
##dt
ap
##reg
heller
##jo
fragor
hast
##ras
gjøre
vært
alternativ
bran
##ument
kraft
##okus
hvor
ihop
erbjud
but
anvander
samhall
##ember
##ari
##eringen
pla
priv
hol
##anns
spela
soker
kansl
hva
serv
mye
##tem
pop
farg
##ystem
##ocker
bast
free
##eder
telefon
vard
##vik
rapp
pros
ford
ter
ovr
frem
##sett
tyd
##ograf
##ate
##gj
##bara
gir
##anger
##nam
mojligt
procent
moder
##uta
hver
##band
rom
##sin
funktion
erot
gangen
##grupp
##bol
smak
trev
snabbt
##svar
tips
##cept
tills
2017
bol
kredit
borja
##bin
fina
storsta
##sel
vare
##enskap
##of
intern
sidan
##før
timmar
produkt
host
sjalva
##ukt
knapp
nov
##ette
##anter
skriver
gav
##dejting
gud
mø
stan
ban
flesta
log
fokus
spar
stu
varlden
##raft
##ivet
##omen
casin
##raden
nak
flyg
egentligen
##hold
fyra
kam
fordel
ps
##van
viktigt
skolan
##ryck
gillar
musik
flere
morgon
##its
desig
##ogen
super
handlar
##arer
sing
vecka
dej
jamfor
ungdom
gjør
##klart
haha
tren
##ivt
##ivers
insp
ens
##ren
stark
borde
framtid
vanligt
arbete
skapa
##rack
##gjen
les
minuter
nara
##ommen
##otter
skriva
rund
slapp
199
fo
##ruk
bada
##alis
artik
egna
produkter
##bygg
pri
##slo
test
kamp
forslag
bank
sammen
2018
##ror
##tre
skj
tak
und
skar
bred
##uell
##ander
##bor
##igheter
##ifran
##full
natet
lilla
sch
ars
##he
kunskap
cy
##dat
skad
##ry
arbets
foral
fikk
ljus
vak
##lat
##faren
registr
tu
ovan
##senter
valja
handel
ton
bostad
##so
veckan
##samma
alskar
ring
##anta
lagga
ing
bal
dro
##dera
aka
##up
brukar
##fik
##ten
##lade
event
##eln
massa
##yndighet
emot
lev
aff
medan
vit
rost
sem
##ore
rep
resp
##aa
##derar
fraga
skatt
##ninger
kal
##uella
ac
kompl
24
car
##andring
univers
sida
hot
sov
##aten
vanlig
verkar
skick
malmo
kring
valkom
##inne
##rukt
dok
prov
natdejting
samarbet
21
gol
utveckling
sagt
##ium
sek
dejta
lug
##nande
dod
##rikt
##sst
##ity
fint
install
popul
føl
list
##ng
erbjuder
favor
dy
##ive
narm
##ike
##agg
40
##iges
bud
##hl
##sidor
rev
material
ins
tanka
aktivitet
kopp
22
dags
##egor
genomfor
internet
##kes
##snitt
##sakring
jon
kronor
elever
tanker
inkl
delar
trott
jun
webbpl
##eta
##annande
##anga
##iden
borjan
jord
##oc
##gard
passar
##ida
omfatt
##isen
disse
##ags
nej
vem
energi
rod
##ningarna
prakt
##lingar
vux
##iz
fanns
##ansen
tryck
tillfall
##ksjon
sall
første
##mor
gul
##bok
##eld
talet
effekt
lor
##ona
##frag
##yll
sveriges
##delse
siden
nye
forra
bestam
mellom
##alog
##ht
##lan
kunder
##ots
fisk
##yss
data
##kost
kanna
roll
situ
2016
erfaren
ogon
##koping
filmer
sarskilt
utanfor
##batt
##juk
##pan
varandra
kommit
it
otro
##fri
last
##plan
luft
usa
kvinna
nam
ata
##film
tjej
hjalpa
mott
##lam
roligt
##skriv
omradet
text
##xx
##rag
##let
##nt
##skin
2015
prat
avtal
dagens
gem
vagen
him
djur
##uren
norr
alder
sas
anled
rekommen
##fe
posit
kunne
##alet
sakerhet
##estaur
vanner
enkl
skap
##star
ten
##vs
klock
alls
restaur
klubb
jobbet
skont
##oter
inspir
##iser
kyr
abs
yr
##mt
fyll
marknad
grunn
akte
##atta
kund
tred
mak
fe
sik
##nes
karl
rett
godk
##skapet
utvik
indiv
anstall
##aster
date
##jter
traning
unga
amer
##oende
skill
inf
viss
beskriv
##ban
##kort
miljo
fag
veta
##ordan
##emot
##legg
kolla
tankte
tagit
arbetar
laget
øn
##ish
##sport
behandling
eget
stol
##verket
##ph
##iller
##ffe
igenom
imorgon
boken
veckor
allman
annars
noj
##ue
kol
sport
mand
driv
eskort
sakert
##ash
landet
##anc
ve
spr
##rek
ytterligare
dit
##sav
upps
##skan
##ko
##fors
23
gym
engel
##samt
johan
##emang
titta
fon
pe
cl
ram
hander
upplev
##øk
service
lyss
##elle
visst
##xa
oslo
psyk
##ension
mm
satta
vol
ost
cir
##eri
##kon
offent
##otek
##spr
nation
forsoka
##sar
##ca
##olut
gro
##varr
barnen
norsk
hvordan
utbildning
eks
##bund
2014
medel
ko
liksom
gi
inlagg
tredje
igjen
##boll
tyvarr
bruker
ej
##øn
##bro
thai
karlek
##entet
##llen
aug
store
fungerar
##co
hard
##jol
kroppen
bu
ander
social
##sade
##set
maj
stund
betala
##ita
prof
anvands
godt
konkur
arets
hej
##still
sil
oav
niva
famil
sand
blod
komment
spelar
##strom
ansok
##lund
annet
max
##unch
bilden
bakom
effektiv
sep
hele
fod
digit
nedan
##æring
ifran
##atan
##sidan
##kta
forel
minn
##part
span
spannande
uppgifter
##unden
apr
##book
juni
##ise
tillverk
##lin
okt
lara
innehaller
##arn
defin
ret
indu
traffa
##dere
varde
bilen
##mel
casino
heter
##back
privat
vardag
dec
forh
grad
mi
##ena
##ern
##iella
internation
kombin
oft
##veck
stør
skog
forstar
recept
##edag
design
bedom
hjel
##ligheten
forbatt
##okrat
forhall
lon
igang
lagt
stil
##varande
fest
60
##deles
mys
helgen
kara
hov
##assage
norske
universitet
totalt
sim
undersok
stam
nav
##ral
avslut
steg
later
##ova
utom
back
manader
beror
leder
hav
face
tol
fys
jobba
##bord
##ød
dejtingsajt
##handling
kvallen
hogre
paverk
holl
glom
##skatt
arrang
##ink
aker
pres
##jell
speciellt
##oren
berg
lamp
##sg
##sut
sexiga
##enser
knulla
ass
port
##oo
ph
wh
invest
tri
sprak
ww
fly
hjalper
klader
##uppgifter
##rett
trygg
##efar
##onser
myndighet
varld
folja
sant
bj
fastighet
##dde
##tak
##ure
plac
##oder
##stri
kompet
##dering
sten
forskning
##stol
personal
fas
kre
##los
regel
sent
valjer
cm
teck
bestall
##mat
forsvar
##skad
fragan
##agar
od
forsoker
oavsett
forfatt
##alist
##leg
##namn
lank
##malt
presenter
##kr
pal
sier
mote
nok
hvis
##ativt
oppna
avsl
##ces
glas
##ateg
##tar
##pon
##urn
##splan
feb
bit
lans
bev
elekt
##betal
storlek
skrev
bakgr
##mera
2013
##isa
nr
##øm
pot
ungefar
buss
##kn
##arnas
##ient
smart
##pass
porno
vatt
lagg
##agare
www
kommunen
soder
hum
##mi
peri
pappa
facebook
vinter
skil
##sd
##but
krit
##ly
fortsatta
gri
forutom
##po
blant
##asser
gemen
tyckte
betyd
fer
lordag
##ota
filmen
snygg
##produ
kart
eta
ske
##itut
sur
spes
##stid
otroligt
kontroll
##ba
##satta
resa
mars
oper
dist
##ygga
jav
tidlig
dju
uppta
meddel
rundt
ark
skon
forvar
skul
lamna
sker
goda
##lands
new
##rans
meter
ru
hjem
varldens
vackra
##ith
##edet
##mid
deltag
##skade
##ober
skyl
bestar
26
fredag
ivag
amerik
##rust
##lo
link
bla
ovriga
vanliga
xxx
kak
anv
avs
##ongen
28
stopp
samme
27
public
jobbar
##skt
region
##komm
huset
amator
sann
##amnar
##ugg
klockan
qu
yng
kapit
##usen
oftast
fan
ingar
ljud
##ager
stallet
##rav
lop
##angen
##ork
bod
mog
damer
dejtingsidor
sla
##bi
finner
##skor
nod
##ham
hjart
##otten
dokument
sju
##vart
forandring
hud
siste
tj
janu
##isjon
##ey
dejtingsajter
##atet
delta
##ild
septem
vilja
thaim
server
##san
##terna
2012
##ement
chr
prosjekt
alldeles
tjanster
september
##asjoner
gall
spelare
arbetet
##eden
kontakta
august
##igen
massor
veg
klipp
utman
##ffa
brost
lunch
##fte
fores
arbeta
drom
##kten
sym
ting
hit
blitt
ses
con
forklar
avl
wid
##huset
##uellt
forsakring
dejt
kand
##any
##ernas
naturligt
miljoner
##ologi
behovs
##50
matte
##iteten
tilbak
november
passa
##kring
mel
slutet
darmed
betyder
198
##vent
fullt
middag
##dress
##blad
rack
##kning
framst
forsv
trafik
##arbeid
foljande
fal
delen
lager
bur
bat
informasjon
april
lokal
kopte
europa
spring
trak
##allt
begyn
helg
##isar
##port
##olit
present
hoj
kil
ros
nan
intressant
beroende
##ativa
##skott
##qu
motor
elev
anvandas
##gaende
oktober
##assen
ras
gammal
kommunik
sine
dubb
##ente
flick
veldig
##fa
profil
rut
varen
29
ry
##ane
kategor
##hj
##øtt
samband
erfarenhet
exempelvis
ir
kravs
##ista
sort
thaimassage
##skl
namligen
kontroller
antligen
##use
##end
##cess
sitta
favorit
kostnad
dare
##har
daremot
fro
kande
##person
stre
utred
tradition
##za
foto
promen
menar
##bas
uppdrag
frukost
you
##jarn
##iat
##eringar
##ften
##juta
laser
mod
sad
web
ikvall
sondag
lata
videos
ident
##sø
tanke
##bruk
prata
##ruktur
liknande
##sing
etabl
##lys
sadana
##inst
berattar
vers
##skolan
kora
anmal
finne
press
htt
absolut
##erande
tok
hom
##garder
##rande
fitt
bloggen
autom
menne
hora
forvant
##garden
##bli
##folj
##ppar
erik
ønsker
lund
##af
rapport
bocker
##tering
darefter
fotboll
##rym
tillegg
fart
katt
scen
##ora
ume
ager
hittade
tio
dri
##icin
mannen
riktig
##klader
rapporter
chat
##uten
tjen
plus
##dater
2011
##fritt
##add
##wa
bry
##sattningar
butik
frukt
2010
bef
bygga
##dem
##repp
strateg
lage
klicka
kostnader
sommaren
regler
##cke
let
trodde
##ism
interv
##her
valj
foretaget
tand
##ilt
##oret
##ach
lagger
##20
##aljer
##smal
resten
sty
fotograf
slag
##nytt
31
gron
uppf
##ega
##skydd
innen
finnas
##komst
sjalvklart
oro
##vist
uppsala
sjukdom
hemsida
80
prin
langa
brott
##slan
torsdag
semester
skicka
fantastisk
##ica
##uts
verkt
omkring
sova
teknik
##ix
frit
##kont
##ias
industri
ensam
##les
##itter
dere
km
personliga
##anser
profess
##visning
behova
tatt
parker
vanster
##inder
neg
klara
nyhet
tas
typer
##zny
dla
##ligheter
##edd
forvalt
derfor
##ocka
len
##anych
tankt
individ
##owanych
zalog
##oczny
widoczny
zalogowanych
allvar
farger
##ald
##perat
maten
500
poj
dorr
øk
nær
dyr
##ea
familjen
foljer
tall
##rig
##foretag
skade
fang
70
##vin
##ode
beste
##inar
ed
##serv
##filmer
gikk
##itar
vantar
medlemmar
##sorg
chef
misst
team
##forande
billig
##tet
skydd
engelska
nojd
##verka
##lever
diskuter
opt
##seende
##kelig
##staende
mail
krig
##enting
mulig
hogt
valkommen
lander
cirka
##mann
historia
utgang
fortsatter
##stallning
priser
bør
##ations
bruke
##ub
hant
varme
foraldrar
##stra
omraden
poang
oka
osv
borjat
klok
##skaper
90
prova
rese
andel
forek
197
forsalj
##enner
##agra
##ensen
out
##iel
##unnit
##mon
juli
regn
##ola
spill
dela
ald
dejtingsida
forber
utmar
ore
daligt
samtliga
##ifier
resultatet
enskil
##ions
##punkt
tysk
tillrack
##foren
##erne
##vam
sidor
litet
live
visade
##ab
bedre
##gjør
tex
intresse
utifran
uppe
##hav
yngre
mens
tidigt
student
inklu
dator
##garna
videre
drag
transport
tvatt
##off
hoved
anna
framgang
platser
cam
##lare
slipp
anledning
mill
integr
tavling
##skje
##ovis
ont
larare
fj
tit
rull
vas
##sj
cykel
ingenting
solen
##syn
radd
standard
rec
punkt
onsdag
sasom
rent
skyd
hart
svara
umea
band
45
##stor
##bur
not
##hang
af
motsvar
nyheter
##gn
##urer
##emal
##janst
halsa
omrade
beratta
spør
sadant
##iera
exper
febru
gode
malet
##tr
uppmark
leva
##arbete
like
##mant
drift
nodvand
sund
dels
icke
girl
jack
ital
staden
reser
underhall
tw
villkor
inled
aktiviteter
sats
uttryck
##ana
blom
##ee
##bes
##vaxt
klim
dans
tilbake
##mm
##ører
tum
mart
varmt
salt
##urser
gjel
tidligere
##aka
##ierna
kalla
guld
ulike
##press
##teck
ena
bonus
kraver
##ersom
avsnitt
kung
##ump
dalig
antalet
saval
##rader
##skning
admin
drog
januari
fir
##ssystem
fø
exakt
lju
##bilder
utveckla
au
##urs
##rummet
salj
natten
##umenter
kanskje
hang
viagra
sociala
slutt
adress
ill
##isten
##ton
kvinner
hell
##ting
allra
##cc
##ich
søker
hoga
nakna
gjen
vur
skola
jes
cook
himla
skapar
vader
sat
fu
pan
kuk
samarbete
##kant
mej
statist
##bu
##ii
##smedel
avgor
gast
jatte
35
##ektive
arg
##hem
kandes
##bru
upptack
gay
makt
##slaget
mogna
onskar
kram
are
energ
viser
skit
2009
trevlig
gravid
prø
mojligheter
##yser
møte
kaffe
##delig
char
fjar
##ight
##ips
mera
utnytt
##ienter
infl
kott
##asjonen
##arken
stalla
##resent
europe
ku
spen
marker
anvandning
##kj
##delning
aut
anser
kille
puss
amb
onsk
lagre
##pport
black
snar
##iti
viktiga
menn
konto
agg
kata
##ksom
extre
valg
enor
##fs
##spunkt
forstas
december
programmet
arbetsm
##ble
arm
brand
hø
vitt
##gende
ovrigt
lind
platt
engag
got
##rep
senast
respektive
forskjell
skratt
##ycken
fritid
##lunda
forr
trevligt
soka
erbjuda
prote
##raff
nummer
tjanst
##hov
pra
##skri
net
##program
##yp
intervju
skillnad
helsing
##utbild
berak
grader
sangen
serien
##stans
princi
##sket
##ytte
##føre
bidra
produktion
trana
##samling
##ogg
with
yt
drar
spelet
framtiden
jur
##plats
jakt
skor
satte
##okt
##kraft
vok
lana
sør
sot
rabatt
medicin
kri
kallas
plots
visste
##laggning
mandag
dusch
lattare
##oppet
bekvam
kurs
nagonsin
isl
mjol
stockholms
##bon
naken
anslut
kansla
spa
##nummer
kir
webbplats
sign
centr
ah
bolag
##ors
enbart
varier
produc
uppgift
fantastiskt
ordent
automat
finansier
mom
atgarder
sms
##di
##onen
goog
glob
skrivit
##nn
##stav
samtal
plast
etc
satter
knappt
##fort
erotisk
spesi
boende
sjukt
sikker
fix
lill
bygger
vacker
ax
dryg
uppskatt
lyckas
normalt
njuta
oster
okar
triv
verksamheten
shopp
yrkes
porrfilm
##spektiv
vind
kunn
vanta
##ftet
inb
rolig
christ
kant
dest
##anse
gymnas
ansikt
##ningsvis
##ih
##satte
##vara
gal
testa
jenter
fordi
datum
saknar
studie
reda
##bundet
stang
##fun
hoger
##ben
idrott
byta
forhold
handla
##edagog
hals
først
##verksamhet
##pris
borta
dagarna
##ansvar
hogsta
personlig
laga
rid
saken
helse
leverant
finland
dvs
196
relig
detaljer
anders
regeringen
oppen
##alitet
forbi
boka
saklart
##utveck
utmarkt
lock
barnet
drabb
##len
undrar
sjun
stress
boll
lokala
hvil
2008
medvet
augusti
pension
##ungen
maskin
inred
##hal
hd
modell
##dels
utover
##ada
##sex
##lov
kast
langs
iaf
##agn
##kast
dø
givet
lakem
namnet
vuxna
fig
brev
##gran
##ekv
smar
bus
lugn
miss
##ansk
sluta
hosten
forening
paket
##roll
##ktioner
marknaden
reklam
lyssna
partner
##unkter
mask
lagenhet
##igg
##ordning
media
info
orebro
lesb
artikel
bilar
##kat
##passa
ris
##larna
verktyg
tankar
dotter
##ila
sno
entre
frisk
mjuk
##medel
barne
bidrag
spara
starka
##gren
##jut
halso
kunnat
##ialis
tider
plotsligt
up
forn
##bell
ep
##ktar
tillrackligt
journ
miljon
syd
##pas
can
slakt
##imer
##verkan
forest
##føl
fantastiska
jor
um
tanken
##lagt
lack
##oklad
##erer
##usive
nack
fett
svært
##makt
bom
centrum
finnes
alko
vita
300
komme
##sla
kjøp
priset
vore
##oga
foret
##gas
lett
##sliv
ligga
36
valt
oke
##cy
forekom
##stre
ster
ofte
side
##ube
samhallet
varden
##orlunda
naring
ihag
tube
wor
utgor
italien
ekonomiska
hamt
sub
##lø
##lande
timme
tillhor
javla
mesta
##spekt
tillstand
naturligtvis
framat
harligt
##ose
ansokan
##givare
jak
tisdag
mol
affar
kyl
dukt
gift
##folk
##slagen
handling
nagonting
je
rygg
stats
##anske
innov
still
problemet
medarbet
utbud
cookies
01
dersom
narmare
vinna
##sor
cit
##zz
opplev
##hu
ordforande
##skon
restaurang
fored
##styrelsen
mas
antingen
##atch
##natt
##cep
politik
sum
##sad
vagar
##ført
taget
stabil
##rens
bevis
nil
eksempel
##sled
kommande
minska
##bolag
konser
urspr
kjøpe
tapp
promenad
horn
detalj
##ffan
seri
formod
flytta
vuxen
http
projektet
mangd
##shus
##usjon
##hamn
##ykk
##dal
betyg
vattnet
##inal
##aland
utrust
gruppen
##udd
frank
overra
alkohol
slar
##igheten
organisation
##rid
rim
kjent
februari
##ake
##son
vall
serie
antag
huvudet
##lle
##fiken
fitta
bransch
##skomm
okej
##erte
uppfatt
matchen
strax
tonar
nyck
sasong
##vika
forum
datorn
08
blomm
##ningsm
bibli
ladda
##ines
forhopp
##revet
finansiella
tving
muse
harlig
sexlek
##una
##ningst
ekonomi
stick
søk
slags
tillamp
sos
##skont
temperat
##slos
ursprung
gjelder
##ama
hamta
lakemedel
prior
##demokrat
fla
##varden
##ya
prem
##skola
##terar
overv
studen
##vir
kommuner
polis
##jal
eftermid
annonser
choklad
rym
spelade
##andes
betydligt
vist
utform
##stalla
vinn
##centr
utval
studier
starkt
forlor
##rike
##iment
snygga
##gangen
07
hotellet
administr
special
medier
mork
##anner
enhet
endr
##dene
##pper
betydelse
##sprogram
op
##inge
vars
fonster
tung
overt
viktigaste
diskuss
nas
mg
syk
kostar
gallande
korde
underbart
##ction
marknadsfor
##alder
forhand
bakgrund
##ula
rosa
annen
danmark
hvert
verden
tun
##kade
##edi
monster
bestalla
##pren
##fred
mennesker
##ld
##ferens
will
strand
regl
fard
##sr
##lang
##aterial
fixa
tydligt
period
##sjon
pratar
##fyll
vand
vaster
##ema
##stone
maria
ersatt
rok
relativt
mate
vari
sky
09
yout
samarbeid
uppdat
##etten
bidrar
##lor
##we
jamfort
kommentar
2007
vinst
tittar
strom
gif
deres
forskol
##ærer
##ho
demokrat
milf
##utter
##byg
##lik
regering
cre
sod
##adress
##bler
##kommer
løpet
lapp
hjelp
intens
uk
##skrift
##rip
##kopp
sikt
utland
##elige
##asje
gard
ordning
polisen
sorter
kompetens
staller
##ringar
chans
underklader
laste
##por
##ib
tusen
elektron
toppen
valde
støtt
landst
hatt
peter
tema
spra
utsikt
##laget
##bef
systemet
motstand
##farg
##oss
##kker
killar
##gruppen
##eran
##splats
modeller
##ologisk
2000
koper
roliga
bolaget
økonom
anstallda
musk
accep
##kke
skam
##30
bestem
fredrik
budget
svarta
##igh
underbara
mik
angel
offentlig
forte
##pack
oppet
morgonen
##stod
goras
##istan
##heng
pet
større
##ment
nettst
total
lyckades
forhallande
ges
cialis
orig
riksdag
##delar
konsekv
vaxt
32
park
vetenskap
##ills
personuppgifter
straff
##iljo
vansk
trenger
##iell
fyr
skrift
forutsattningar
omsorg
kg
gors
kompis
##sratt
modern
##bank
bilderna
avgift
funn
balans
fyl
visas
ialla
skjer
##ura
##aden
atmin
magen
numera
kopt
annorlunda
##endet
grupper
run
##arder
dol
##emat
utsatt
##cker
##yttet
##ood
##hy
flash
##itivt
john
dyg
djup
city
papper
respekt
##unnen
##assan
happ
klimat
##eller
##talet
lista
lakare
hamn
##fton
don
hallbar
bord
prosent
grym
##sag
##spar
bestamm
foreningen
intresserad
redovis
drygt
uppdater
objekt
brukes
inlag
singlar
site
sannol
formodligen
##kk
vat
utrym
##givning
##ivan
##pla
driver
grav
hort
real
kontor
forsikt
lamnar
rem
hogst
##vers
kommentarer
##klubb
stig
syfte
relev
givetvis
fyller
##fest
##ap
##ec
##10
orkar
konstigt
##ball
##beider
col
us
194
bag
kommunikation
patient
##ctor
kampan
##cessen
stalle
##leva
sprang
fordon
ersattning
skane
skogen
mening
ideer
rummet
##amin
personen
iallafall
atminstone
lars
##dd
comm
tunn
institut
internationella
mogen
populara
##chef
##ifik
starta
singel
falt
faktum
forsaljning
google
##phone
japan
lys
tydligen
utvikling
paverkar
##hel
##pat
tyskland
atta
os
debatt
lugnt
##organis
kjær
norges
anpassa
##ase
forbattra
##marna
helsingborg
play
##ologiska
underbar
gratt
set
profession
##agram
##ollar
anses
prest
##urt
lav
hantera
##dus
carl
##ktor
##ckar
ip
##system
leda
klarar
resept
varum
##ire
symbol
jarn
##atar
sof
mener
siff
orsa
pengarna
formaga
tala
ordentligt
skott
minns
##anen
##pos
hittat
struktur
sasongen
het
forelas
bjud
this
fire
mansk
ungdomar
talar
løs
hyp
represent
rock
stal
smid
anvant
fell
##bum
soffan
nød
analyser
forbund
##aket
2006
##ics
youtube
pedagog
inklusive
invand
salja
lant
ordet
##erades
prioriter
slog
princip
##ular
sodra
saljer
funkar
##splatsen
pap
ug
spiller
##mot
sens
sexleksaker
##rast
øy
##bert
utvecklas
##ign
havet
kem
inkop
okad
former
hojd
##eres
##gt
ven
##prov
your
perioden
33
folket
manniska
sallan
##brott
slutade
##behor
##vel
##isering
##gelig
jesus
##behandling
synd
##tok
##oker
magn
herr
##sby
##vert
enkla
05
02
master
stav
##søkel
big
bre
roda
##uft
##ior
asikt
##iven
haret
racker
##maskin
stanna
tvek
flott
definitivt
##beskriv
##handa
mult
wik
##ønn
mojligheten
olyck
bir
hann
pek
##stift
cat
##omradet
mov
ingr
bilj
malt
svang
##sken
aldri
klad
##jas
sær
alex
uppen
##entyr
##fta
coll
##ugga
oj
##ower
aktie
kjære
byggnad
##bran
vaknade
chatt
##ssk
gamle
styrelsen
swed
plass
forsokte
gett
skid
pul
##hort
##fragan
55
por
normal
varken
brun
radio
sweden
##ivare
##rom
miljø
34
lekt
ladd
##ile
samtidig
mun
##fint
vackert
mysigt
grill
brist
losningar
gladje
appar
##halla
##ante
metod
perspektiv
##ppen
amnen
allmanna
pga
uppratt
06
hjar
##niva
##ox
begran
spesielt
popular
politiska
utvecklingen
camp
##rasjon
##enten
garanter
##uer
##resenter
dack
helhet
aller
kontin
positivt
##oster
losa
##blick
##yggen
torr
naturen
rattigheter
tyst
##anten
tradgard
##akning
martin
takt
mats
fukt
mitten
springa
utgangspunkt
metoder
lond
vaxer
situation
one
overg
##eratur
##stat
##eren
bestamt
flykt
marken
04
nasjon
natverk
studenter
##barn
##ancer
genomsnitt
samling
##fan
neste
ranta
##vagen
##ivitet
##bladet
avdel
tillvaxt
##øp
impon
##adem
lust
##imul
næring
cykl
##start
75
hak
erfar
##evel
tat
befinner
##ekst
##dex
kapital
mord
pam
era
kos
tyg
inspiration
nuvarande
golf
##kv
klubben
snarare
mad
publik
##arens
##klara
karri
##kam
##handel
##oteket
parti
humor
upplevelse
resan
##ekk
400
valet
fat
planer
##deras
##ius
ky
##ometer
##th
syns
utvar
sammanhang
funktioner
happy
norra
bjuder
intro
##stru
sajt
##roende
gull
##ses
dild
##vo
##derna
omedel
##xor
sted
##ific
mota
##kall
letar
stjarn
forandra
bete
fungera
##skraft
fodd
##asa
medarbetare
paverka
mojliga
venn
##server
undant
besvar
##klag
##ikker
rekommenderar
skr
jobbigt
bergen
kunnskap
øv
kanda
##draget
syster
syss
stolt
sattet
betalar
klin
##amen
besoka
undan
##annen
hed
overfor
oer
cont
motiv
aktuella
teg
innlegg
huden
kommune
##empl
##liv
##fon
risken
##llop
##ertid
exp
##stam
##god
socker
kyrkan
losning
amerikanska
ack
##esp
platsen
jorden
stral
rot
##sle
grat
legg
redo
fritt
##sakt
##mos
##ningsb
avstand
unge
##inen
arkite
deb
eleverna
uttal
klan
##elsens
##till
skru
##spart
syke
london
195
framforallt
illa
tekniska
pack
pil
inrikt
utdan
kallade
ringa
03
begrepp
foreb
##kyl
##mala
kill
narheten
hushall
fardig
følge
##annonser
##egaende
##uc
konstru
hinner
motiver
##flikt
##skal
fakta
##slapp
harliga
##hund
dram
behovde
flickor
##onger
britt
vanskelig
enklare
##vatt
chansen
relation
garant
russ
##own
kanslor
kyrk
##bla
##df
##vax
videor
##trad
##hen
naturlig
tru
##svall
stycken
standigt
inkomst
nyligen
lyx
forskjellige
box
tabell
skada
##skat
exkl
rest
lid
jonkoping
##rer
koket
##enden
fack
##kret
##way
##serna
##elefon
vinner
air
positiv
38
##iland
##edom
oppga
vent
separ
stranden
##ford
botten
isra
##laggande
gavle
##han
hyll
##funn
mic
specif
hundar
dager
okat
dim
undvika
bjorn
##tim
##fot
hunnit
smarta
##ange
vm
aventyr
unn
##skrifter
korrekt
brollop
##cha
bodde
39
sallskap
pratade
investering
beskriver
gas
formid
domstol
nere
div
entrepren
position
tju
2005
legge
egenskaper
spørsmal
produksjon
lopp
revis
billigt
##ms
kommenter
vasteras
allere
tvungen
##stral
banan
##øker
vila
hin
##derade
presid
kanslan
erotiska
rakt
vadret
fantas
lyckats
dine
livsmedel
betrakt
wa
underl
flex
trakigt
andersson
fleste
samhalle
show
fet
##assigt
##stalld
allerede
arene
lanet
##hag
golv
##forsakring
sara
##heim
fallet
digital
rekke
politiker
kallar
synes
perfekta
mc
omoj
oversikt
gjor
##platsen
##takter
kong
interes
vest
riktiga
kors
forhoppningsvis
glass
kommunens
mast
##oda
##ingene
est
##erier
sammanfatt
##ival
personalen
fylla
kollektiv
##derat
rader
aktivt
##pi
dog
##fi
brukt
felles
vastra
kunst
ron
registrering
dubbel
##sprak
1000
forvan
effektivt
offic
berattade
hittills
kran
grundlaggande
37
gis
vd
sommer
landsting
skuld
major
##til
langsikt
##ori
plock
sover
grov
initi
tus
gjerne
brod
vardags
##ledning
resurser
##bergs
block
##mes
##stret
kunden
##istiska
##sattningen
##gene
overens
tillfalle
##brik
##imal
hunden
##nasjon
handa
cert
silver
##olen
dikt
kompletter
skull
urval
##skole
slipper
historien
diagn
bb
##aker
utro
##valt
dre
##fulla
varma
senere
##varo
kollade
listan
avsug
andras
fry
motsvarande
knullar
ryss
##ktionen
##stil
##elen
moderna
matcher
extremt
webbplatser
funderar
njut
utlan
anvandare
hansyn
staten
anpass
dermed
##ledare
kursen
time
fing
postadress
##hets
renover
hyres
utst
hjer
##betalning
begrans
allmant
##fullt
fika
langst
visat
gitt
forbin
utomhus
potent
##atter
##otta
##ycke
asiat
##varl
glada
##grupper
pas
organ
webbplatsen
##ze
planen
parkering
nødven
inc
##lats
kjem
nev
samre
##skoter
tjock
##uff
stimul
iphone
daniel
alskade
##lertid
bem
monter
rov
daliga
48
top
lagom
##falt
jobbat
##rit
centrala
aktuell
hamnar
rakna
ori
##sats
mottag
varv
faktisk
gill
frakt
##osa
##vatten
arbeidet
##lak
syftet
individer
fragade
david
blommor
vanligtvis
snabbare
skole
patienter
huvudsak
##lok
ifall
linkoping
refl
trapp
smal
thailand
sade
tillgangliga
bio
slutar
##bra
avgifter
kroner
sugen
tittade
teater
sor
enskilda
langtar
dollar
kontrollera
omfattande
sosial
150
mikro
heta
startade
##ome
has
##gatan
konflikt
statistik
##cer
grona
internasjon
faller
##delen
narvarande
##fard
snyggt
##atorer
tecken
friv
##tatt
mobilen
hjul
konstnar
bloggar
##iosa
insatser
dum
dricka
##unda
##gora
moter
##ual
gemensamma
feil
##polit
kristen
termin
hjarn
ledare
##kul
snabba
##ino
erbjudanden
erotik
klick
##sprodu
representer
billiga
avseende
metall
dorren
##hallen
tillhanda
trum
mormor
ball
hotel
afr
erfarenheter
##isert
kallt
##histor
##risk
garden
utfordr
besøk
hande
##gande
central
myndigheter
atit
##janster
bussen
##ows
eventuella
##out
likevel
kamera
fodels
musl
varan
##stallningar
##odet
##vakt
##utveckling
forstaelse
flashback
##skost
##cel
##djur
##enny
karaktar
tydlig
privata
##ges
##sper
##ellan
mamm
fjer
bestamde
instru
leta
servic
nationella
##ids
tuff
dn
oerhort
besokare
vekt
bered
##slivet
kunskaper
betyr
fuck
finansiering
vanda
##ojd
##ynd
##fallet
gn
##ytande
forandringar
neder
sval
ringde
##jobb
##ensjon
pabor
skatte
##fragor
tjansten
##king
desto
ent
skra
logga
analys
svarar
tidningen
nagonstans
##alisering
##iens
##fel
##arm
##partem
##yta
største
##ksomhet
##hop
befolk
process
##isch
##hog
##tiden
anledningen
fortsatte
lamn
micro
begar
akta
unika
fria
##fisk
version
ogonen
langd
##fly
mangder
##11
nesten
hjarta
slott
##orerna
##klapp
sale
##lost
sonder
hoppa
##tekn
nytta
anges
godis
forny
bekraft
tjenester
stift
konkurr
stallen
tilgjen
leverans
korta
kjør
##visa
tillganglig
porrfilmer
dildo
##spolit
hehe
frankrike
guds
uppfy
frivill
65
bror
konstater
##iste
fris
arsm
ein
skand
badrum
handen
##platser
2004
##gl
smor
##edde
##rem
prins
uppleva
belopp
##minister
##ensioner
bjor
hjartat
forutsattning
album
skaffa
holde
##oner
svag
antall
kombination
vapen
traffar
nodvandigt
##burg
##raning
assist
mojlig
42
ort
##sted
forran
valkomna
levande
intressanta
lagenheten
aktiver
pagar
skiv
##ratten
lankar
utav
##kere
stro
ekte
inlagget
center
##jord
##pol
sette
avsugning
tax
##punkter
kontrakt
##uro
##ningsl
mjolk
gat
##intress
bolig
lenge
lycka
tant
sexy
rej
york
thom
varsta
##ffekt
brann
orsak
barna
potatis
nyckel
forfattare
traffade
support
johansson
##losa
skan
omgiv
avanc
ryska
skickas
frasch
foljd
lamnade
marie
dor
svenskt
##rare
##sporter
sakra
unik
overallt
##icy
ke
##partiet
##vi
##legget
girls
##afil
blanda
ganske
kry
##viken
bedomning
##ima
pasta
fargen
delvis
pin
mju
beb
ledig
misstan
##eten
halften
skickar
kina
framtida
eld
##arbetet
oh
##ede
shopping
konkret
osaker
regjer
even
saknas
oppnar
vintern
pc
fullstand
trygghet
dei
slappa
##ands
varav
##iger
grann
aning
sadar
##anvand
figur
44
deler
karn
anbef
mos
befint
sjo
hjelpe
klassiska
massasje
make
romant
##asen
##skyl
ryggen
undersokning
wind
seks
forsknings
onod
tids
ledande
##terade
##mus
vardering
fn
##best
forand
uppfolj
dekor
##verse
##gangar
##ric
plocka
piz
enheter
organisationer
##ordningen
ingredi
ratta
##orte
undersøkel
tilb
sarskilda
that
tiltak
##qvist
mobilt
positiva
introdu
digitala
fordelar
##kval
fjarde
##alender
kans
brom
resor
texten
landets
villa
betalning
##vd
##gra
expl
grunden
anmalan
artiklar
##si
england
blad
butiker
deltagare
##mannen
slit
grattis
eventuell
dos
##jande
timer
ange
46
tillagg
israel
mulighet
rob
bredvid
foraldr
overtyg
sjukhus
##eda
##oven
jurid
samfunn
betalnings
##angd
narmaste
bestammelser
hens
##deringar
stem
initiativ
langivare
love
plat
beskrivning
##delsen
##behov
kik
gemensamt
hundra
sags
##namnden
slike
##smark
tacka
begge
europeiska
produkten
stack
sus
barns
##onym
julklapp
vagg
funnits
redus
resul
kjærlighet
hanga
passade
utrustning
okade
##ect
økt
##plikt
snitt
nio
genomfora
sop
startar
inner
##vok
ofor
tycka
dokumenter
framover
##beroende
##resa
minskar
bilde
stammer
##ini
##erligen
dop
mala
49
tillfallen
minsta
##ockey
anti
193
escorts
leng
jonas
hemm
ekstra
anlagg
behandlingen
avfall
motion
ratten
##utbildning
krimin
forts
##staden
journalist
##holder
##varm
allting
linje
##yra
utga
minne
kurser
##fart
vurder
##ynt
guide
premi
egne
status
jar
kyck
line
paul
forman
##ennende
##ustr
##sek
sorg
mai
##ugan
##somrade
ansatte
tilbud
lyd
##12
konsument
tyska
ledar
kreativ
sekunder
varor
hanger
##iko
##resultat
vaxa
lokaler
inkluder
lul
skot
artikeln
altsa
fysisk
troll
##000
fiske
undantag
##ah
bekym
##onn
mini
arkitekt
egentlig
repar
##entals
##aner
##bilar
storbr
##haller
##delser
litteratur
olje
svt
agare
undervisning
enkelte
from
saledes
noll
##holdet
##box
somn
emma
##itann
hag
golvet
stann
skydda
verkligheten
##tav
##drett
manaden
forre
tomt
##umer
annon
besta
socialt
varre
alltfor
grej
##sentera
fragar
##kommande
vaga
##lades
mac
99
nom
##cken
civ
jud
##digheter
bett
##tokoll
sundsvall
instagram
##ftar
forklara
motet
##ningens
reflekt
##sreg
toal
nerv
swedish
imid
paris
virkelig
henrik
vei
ei
naturliga
rekry
##vere
il
blas
##byggnad
duktig
damm
##mande
imidlertid
restauranger
##rapport
##institut
##varlden
##skam
svaret
funksjon
speg
##sbol
##olf
##forsalj
fira
##mere
##ums
##fir
##olja
frihet
moten
isol
rena
##dige
##rument
marknadsforing
national
upplever
##ep
attrakt
##schen
##service
eldre
##ykke
oblig
storbritann
dialog
##fria
matemat
bestammer
prost
##stud
##omrade
lille
akadem
##forening
prosjektet
kommunal
utfora
ventil
##forbundet
##sven
eventuellt
delt
snall
##engt
world
mall
check
uppmarksamhet
fortroende
utbildningen
arbeids
tavlingen
forskott
alsk
rapporten
halm
samla
##ris
medfor
kasin
modellen
forslaget
##inform
##indra
fen
antar
##ffar
ref
##ebra
rant
##ringen
brett
fundera
hastar
appen
særlig
sortiment
verdens
champ
mek
bot
inre
rora
##ivalen
radda
satsa
arbetsmark
butiken
mine
##avtal
luften
##savgift
øst
bestamma
##lagen
hyr
generisk
stads
angaende
##matt
kandid
redig
osters
aktier
hinna
vise
##speri
kampen
domin
sexig
##riter
invan
190
inl
##sbruk
sota
##yer
sock
behovet
skador
forestall
minim
stedet
##sse
arv
##skyd
##ners
perio
more
##mail
registrera
posted
##amal
sd
##indu
aktiva
##iot
strategi
##js
##rarna
typen
cro
milit
blick
president
produs
lære
raknas
avgorande
##ølge
##mode
ment
vander
observer
diskutera
sikre
beslutet
anger
##sman
##ementer
lasare
pask
##40
##sform
reserv
horde
intell
thomas
##lysning
##jansten
illustr
nik
nyss
##anken
uppna
støtte
##rick
lart
kompisar
tillbehor
##somradet
47
skadespel
forekommer
192
turk
automatiskt
kvinne
anslutning
felakt
##demokraterna
rekt
##ivande
##bit
utok
##strin
##besok
sahar
##føring
stefan
handelser
sammant
demon
tillfallet
##bad
##læring
situationen
##spill
foll
hyra
aterigen
##mask
kalmar
høyere
noggran
distri
##ios
lokalt
43
offentliga
##anal
gaster
banken
kameran
exklus
lamnat
fik
2003
kines
nyfiken
ii
avvik
tip
##skrav
kryss
kategorier
poker
iv
arkiv
forsvinner
nojda
##juter
foregaende
karlstad
behandlas
gren
lj
##taget
millioner
utseende
##18
refer
avser
##landet
bjod
ansiktet
##irt
jer
prag
##kas
hypotek
latar
hemmet
utenfor
diverse
engagemang
gjenopp
##kurat
##irekt
eien
efterat
tillat
power
apple
##ela
ell
banker
lim
informationen
single
##ffer
##skom
cafe
venner
arbetst
søn
spelat
##fører
##umm
bedriv
turen
sun
islam
lese
##gere
behor
##kontakt
ledam
##rimin
strack
daglig
medveten
ull
ki
slang
##ves
##radd
faktorer
akkurat
##stallningen
##andre
hypotekslan
miljarder
austral
##got
original
##skog
fodelsedag
##60
##pre
inse
##erats
legger
kontinuer
forbindelse
kvinnan
klassen
tranings
##varor
sprid
magnus
##wn
##satter
bostader
##former
##øs
sec
##skj
framsta
bygge
##schef
arbetat
pigg
utrymme
##atisk
ryssland
##kro
uttr
indik
planering
forlag
pepp
##vn
##hjal
underlag
nilsson
tranar
reakt
dryck
nødvendig
##pot
tillfor
surf
undervis
sovrum
order
obe
franska
deltar
loss
tonaring
torg
tallet
##forbund
##linjer
noga
smitt
##sked
boras
rorelse
##ysning
##dra
norrkoping
pojk
stadig
##upplev
##gitt
ansvarig
mr
presentation
eva
##beskrivning
navn
garder
datings
##kande
enlighet
onskemal
##ros
himmel
familje
forskare
forsam
##byte
sannolikt
lulea
##rel
dia
skillnaden
utbildnings
salg
##vide
sarskild
##boken
grejer
ledning
rott
musikk
finna
skolor
turn
teen
##ikal
##fen
kompon
kristna
darlig
kaff
ansvarar
relationer
snack
##produkter
##etar
##80
##somraden
##hi
lamnas
rø
arbetsgiv
omfattar
cell
spennende
andelen
##illkor
##slyck
##nare
gom
driva
##klass
ike
windows
##ative
traffas
##opa
forsokt
penis
tolv
teknisk
apen
##ikke
##siden
##fam
##ikken
pir
##briken
vaxjo
reag
##aret
cup
gram
skolen
##inav
samverkan
fasta
politisk
omstand
gammel
fond
##aterna
##splatser
omedelbart
upptacka
koncentr
totala
ekonomisk
ola
##pac
obs
##huvud
temperatur
formed
##15
medborg
framgar
baten
##skrig
klas
jamn
kilometer
##partementet
##ortt
bakt
apotek
##ladd
##ley
bull
##omraden
##botten
eftermiddag
##domen
halva
svarare
mobiltelefon
https
##istisk
##sbygg
pann
##oper
rejalt
##sfri
##flytt
##maktige
inser
forpack
##smak
lagstift
flyttade
klassisk
handlade
##sene
##rass
##ple
innenfor
skiljer
oxa
marked
##aning
##øte
##itionen
ful
##vida
lesbisk
##sommar
protokoll
mysig
vær
emil
sti
hemsidan
intresserade
retur
ringer
arlig
skoj
##jet
##bal
##teras
exist
stri
##kal
sjon
styrka
bostadsratt
pers
misslyck
hjemme
cas
##tryck
spille
island
besl
skram
uts
sug
penger
optim
lagar
mont
svenskar
hverandre
hinder
intill
##edda
high
##tan
flexi
kortare
##inister
gun
komplett
utstyr
##ac
avlon
affars
forhallanden
bock
situationer
turist
baby
ifølge
##skort
evenemang
##cir
forteller
andreas
tradgar
traningen
lyssnar
##komma
pyss
##evis
leksaker
juster
##skvall
##ørt
inredning
amnet
ker
omojligt
alternativt
trang
##bby
faststall
##play
familjer
etik
ler
lax
wall
utdanning
nick
##icera
gru
asikter
##formen
rengor
religion
##mas
troligen
cancer
nem
diskussion
##unds
eiendom
bordet
skona
rekord
bandet
jattebra
##umt
##stu
innehallet
erbjudande
##bring
praktisk
foran
##ls
##arden
verd
kla
##go
bott
pi
antagligen
trevliga
##antering
jamt
kontakter
##gatt
plasser
##astro
tidig
leverantorer
vanligaste
##ingsdag
utvalg
leka
amne
fattar
lut
byen
fjor
##fag
flicka
overen
##vards
tyng
søke
eleven
blek
##inter
mika
pdf
41
dyker
sykdom
visserligen
skulder
##skop
250
gifta
utomlands
knappast
eskorter
født
eleg
varlds
presentera
anord
kallad
hellre
##vern
hvilke
##problem
##pit
imp
##oth
twitter
format
narmast
##ime
gunn
tillag
##ingarna
##li
bist
##savtal
varmen
startet
trond
##undersok
##øring
ekonomiskt
koncept
skapat
benen
trivs
##pend
##ege
rutiner
##angel
##oten
kollar
##hast
gemensam
##ettet
##rekte
planera
##ksjoner
##tere
##kket
##ians
tvart
kristian
lost
planerar
likt
kvitt
mkt
starten
##gjort
statens
sinn
##ytter
nt
59
foreslar
##material
##personer
##70
munnen
##garen
inomhus
rog
syr
kris
halmstad
rit
instit
52
forresten
kassa
##platt
index
manniskan
uke
##bs
effekter
allmanhet
fora
vakt
laten
jobbade
600
vanligen
lordagen
##sjekt
eier
overvag
##uch
fjall
##mun
terror
markt
axel
smatt
motesplatsen
arab
##gin
##ekul
snur
diam
taket
befolkningen
eneste
byggnader
##sbyg
##fast
2001
ago
kritik
wil
olja
ovanligt
behalla
invol
haper
oppr
##cam
##orp
utmaningar
##bat
pool
deretter
stannar
##kanna
fasc
##sas
jamfora
redakt
billigare
avslapp
forf
##mak
impl
ansl
utredning
konsekvenser
##skudd
kanal
darifran
##osof
##ney
hold
trening
karriar
##jejer
blogga
reha
tutt
cool
sikkerhet
2002
##klan
ikea
engelsk
##con
##landa
##agan
miner
##øv
ansvaret
idrett
veien
blond
cum
advok
avloningsdag
kyckling
gyn
høyre
angest
identitet
189
##elding
funnet
##ml
møter
hvem
tam
uppstar
ica
eftermiddagen
lou
løp
##hengig
##gu
jobber
aspekt
liker
liter
##ikte
##umin
glomt
##inarie
inkom
tradgarden
##atte
vardagen
##elses
##sfull
transporter
troligt
wal
petter
##isin
sluts
begynte
ferdig
##osen
tjana
##isera
grymt
koppla
##iled
betalas
identif
erbjuds
raka
read
tycks
war
##fo
relater
inslag
hvorfor
spark
cu
##amer
##arch
##log
summa
samm
house
linne
down
karin
fril
##drom
##iellt
kne
verksamheter
##biliter
##delningen
missa
##sne
atgard
##ografi
kategori
hack
doda
materialet
coach
mots
lic
ever
insats
victor
##peri
styrelse
##forvalt
##skill
gusta
##kod
arena
##au
uppenbar
##munt
knappen
spins
##ismen
tillsatt
front
speciella
rekommendera
sjek
##rost
prøve
bevilj
knut
vibr
##fit
konfer
manskliga
følger
knyttet
sto
mata
rida
strid
##ordin
emellan
##ents
kull
##rats
##sbrev
lediga
##stiden
hamnade
skjut
svarade
tusentals
sjukvard
utvikle
flyttar
##cus
partiet
sve
##fod
professor
ask
enormt
imor
##vær
processen
berom
garanti
sko
spraket
##agande
stallning
##vete
##bered
linda
forlang
stannade
storst
##lass
vandring
velge
papek
##ogon
gjøres
seger
##sil
konferens
mur
##ymer
##iam
formen
##rop
parad
##ningss
fysiska
cd
skinn
##rona
3d
get
traditionella
anvandar
##iler
informer
orden
sjalvstand
##lit
ox
west
verklighet
kraftigt
anvande
##smed
##losning
bibel
speciell
bibliotek
ple
##ationerna
roman
bedrift
andro
oberoende
umgas
120
slutligen
trend
forsamling
foton
plugga
##itor
have
ostra
lyfta
rus
suc
##16
medlemskap
goteborgs
runda
hantverk
##yndigheten
##ppa
##bolaget
##grund
andring
gront
slippa
høyt
##sna
##liggande
utgar
##ete
##do
##14
##freds
uppman
95
spanien
telefonnummer
texter
##gick
utrolig
gymnasie
paus
kod
argument
##sprodukter
##varme
posten
praktiskt
foljde
formul
##kopings
kus
stader
anstr
gutt
holder
##rades
larsson
ec
lane
faktur
medlemmer
jente
##tack
##fakt
suger
pag
korr
utstrack
bryr
kjøre
trom
tabl
appl
##que
##usk
insag
##nast
##mod
robert
green
85
tillsyn
hat
##rin
##banan
fjell
##ved
hamtade
mix
##ele
veckans
##oppa
yta
##itra
##ordet
skara
exempl
lagenheter
movies
landskap
strøm
bekant
bjuda
uc
beteende
##annes
betalt
mp
isa
expert
egendom
##klad
##rifter
fott
besoker
##asy
##ripande
180
##gubb
glomma
##sstil
absol
lask
forskolan
doft
rekommenderas
sende
stoppa
##samtal
sekund
certifier
eskil
olof
##estad
sambo
word
dagligen
diskrimin
tavla
##ansett
##bryt
distrikt
##varde
tap
bubb
kommet
opprett
avst
skape
ye
scenen
##porr
arbeider
56
avgjør
paga
bang
##foreningen
##ppe
irriter
bestallning
ordinarie
gronsaker
karleken
bens
atmos
mobler
ran
klokker
##jent
##ally
inbjud
bygget
generellt
kapitel
tilgjengelig
spelas
følgende
meddelande
forsak
##old
aud
syssel
##ubl
body
larande
kontaktannonser
##projekt
imorse
54
foremal
byn
somnade
relevant
asyl
liber
##lu
##hals
##17
utlaning
##spol
uansett
tradisjon
##rut
selskap
##vark
aks
trav
lamplig
lenger
pussy
kaka
##ski
micha
ledsen
fann
result
internett
instrument
meny
vr
jamforelse
intakter
pod
begynner
forvaltning
ht
##ards
bif
solid
traffat
overrask
pic
aw
##ani
lade
aktorer
##menn
biljetter
minnes
##iteter
kraftig
velat
53
##kvall
hev
##lysninger
upplevelser
sutt
##fragas
##ssp
svett
riksdagen
overlev
forvand
##bana
avsloj
malin
pavir
belon
##core
##tjanst
##skaff
lær
lone
maskiner
lei
call
nomin
morse
upphov
temat
##wood
kniv
losen
charl
##beratt
intraff
halsen
minut
skoter
fokusera
statt
hug
kontant
lena
good
stj
64
##ampa
utnyttja
##ited
gjord
##uelt
lyft
borg
##kje
ri
ski
kveld
##shem
flertal
##foring
andamal
##jning
##lista
gb
1800
fredags
saaa
leverantor
##gjøre
springer
alvor
##meddel
##ission
hastighet
tillater
##agt
##unk
femin
upplag
verkade
flest
personligt
forstark
##aldern
kostnaden
##ares
##verkt
dru
harda
##pporter
##osex
konsult
angiv
club
##sprojekt
styra
stallde
elin
hanna
selskapet
batter
##roller
ork
kompetanse
##egang
direkte
gubb
starkare
anonym
##sperson
andas
##isere
##cesser
element
brut
vaggen
yoga
##utvik
##imm
##ansvart
hasten
annons
sjukdomar
civil
regelbundet
telefonen
##pad
vite
barneh
voksne
karlsson
##istik
storbritannien
fagel
nyar
riv
sjukskoter
##dage
tunga
infrast
2019
historie
undersoka
##vetenskap
nivaer
favoriter
koka
plugg
##bordet
christian
lisa
belast
anlaggning
##onde
afton
ress
roligare
aga
pren
latta
orienter
handlingar
prop
android
gustav
tenke
##bri
brudar
konsert
praktik
##sre
##asjer
##agaren
##folkning
##uld
affarer
lør
sakerstalla
##19
look
museum
##iets
##agning
express
##acka
galla
avtalet
kannas
##fang
800
stada
gitar
farmor
djupt
kvad
home
##reter
phot
ovant
farre
##cia
regionen
avses
shem
definition
amerikansk
overenskomm
##shand
levitra
nettsteder
riktlinjer
livsstil
handler
insattning
protein
journal
genast
likad
kann
tuttar
abo
##vast
##fla
attack
##otika
pizza
invanare
final
betong
verket
##ones
intressen
konkurran
##rog
bomull
##iness
opplæring
##talje
halls
##sspel
gjennomføre
synner
kjenner
##ament
utslapp
gjenopprett
hockey
fara
veter
inspel
utstrackning
musiken
cla
##ogn
skarm
januar
gjorts
dygnet
gemenskap
melod
anne
recensioner
bytte
uker
beskriva
basert
utgifter
cor
konsumenter
midsommar
strum
##inska
raknar
##skurs
farligt
##entlig
regul
suttit
##onomi
apne
spons
handelse
##eks
jac
##otet
lot
##sforen
motte
##hr
praktiska
klatt
verkliga
sanna
##holmen
behandlar
dygn
loj
##cm
phil
jos
uppat
elit
##skra
tang
##uu
overst
##oppen
##rika
##ektion
shemale
fotball
storm
offer
##ykket
##atur
datorer
tera
##elden
##arbeider
##esjon
placering
premiar
foljt
goran
##edia
##sbes
##uppgift
framme
##agna
raskt
foretagets
somna
tvar
hatar
hammar
tempo
blu
hakan
ansikte
##uth
viktigste
snalla
moln
##stekn
ess
##hamt
##rustning
tidning
kim
motsvarar
vo
besikt
##ffs
trosor
innebara
baserat
##iftet
lanken
organisationen
market
##elsene
tør
eric
politiet
##bildning
##ked
fine
ugnen
lita
kyrka
forebygg
##vare
##fikk
##sjuk
trondheim
midt
psykisk
rosen
befintliga
bilaga
mojligen
##sall
##24
##kak
bin
tungt
##ksis
rette
##innande
medverk
##strand
tranare
styret
sekret
signal
##iering
##mene
navig
krev
mage
kjente
personlighet
arbetsgivare
days
##emid
##ningene
legat
act
gjordes
arenden
skonhet
##kok
julen
fordju
serios
fur
poeng
duktiga
svamp
leverera
minutter
##rikes
##vention
planerat
para
serier
obligator
prenumer
##dagar
57
anhor
##fat
##varna
aring
møtt
##vikt
forbud
##jef
##terat
grand
##behand
stycket
##sniva
lokale
rekommend
norden
tilbyr
levereras
harom
uppmunt
syftar
##iljø
##iene
lycklig
lung
kriter
our
georg
##ence
vardet
samlar
ud
kreditkort
varierar
hp
aterstall
annonsen
uppfattning
##ultur
##soft
forkyl
tvartom
gillade
##bruks
ukra
##13
inkluderar
##nads
spor
johanna
watch
øke
konsekvens
##emon
agen
attra
vett
vitamin
begrav
smidigt
kika
ert
##enta
tavlingar
negativa
varenda
nordiska
ledde
arbetslos
kalender
moss
##olution
dyrt
filosof
##ese
##och
bjør
hors
58
bakat
akut
##hjul
skje
livs
stott
reduc
##shop
stek
fastigheten
historiska
hr
smink
resultaten
station
1990
kollegor
lyst
##holde
jamstalld
diabet
##rater
muskel
asa
forklarar
##spa
mikael
##glas
lott
atervand
num
##atera
internationell
slapper
trist
parall
##dagens
##com
styrke
perman
forelig
aktenskap
##vagn
kass
landsbyg
##stjarn
##ikring
##ingo
##orten
skett
##jun
kabel
##illing
##eland
sympt
##giver
volym
bengt
bis
tenn
smaning
osc
rank
fenomen
69
arter
eme
valp
rask
sakta
verka
specifika
integritet
takk
ungdoms
bik
anlegg
##annsyn
studien
##park
##ye
##ojligheter
lovar
praktiken
##vig
skillnader
siffror
##alternativ
overlag
partier
feber
skala
behandla
##ifi
hjalpte
forandras
ink
inriktning
##grader
enheten
tvang
personligen
tydliga
poly
uppfor
fastigheter
##light
##ologiskt
##sland
gransen
##anna
what
pall
hygg
reise
##efte
que
snon
##ccin
foredrar
##ming
kvadrat
beach
utmaning
vantade
##vil
##our
##skottet
planet
femte
ingredienser
foretagen
kulture
berattelser
frig
innhold
trett
##ssons
bryta
stanga
frid
##ness
##sjo
masse
fattig
bri
tunnel
vaxter
steder
tekst
##center
##skick
intryck
##pacitet
foreldre
##estall
kvinnliga
rand
##appar
riskerar
##iox
##sler
sexuella
sondagen
##jam
reis
sentr
lopande
oppmer
naringsliv
ljuset
dagis
erfaring
stadens
kanon
utvecklar
speed
##mast
sorts
badoo
##bilitet
tilgang
smaningom
##formaga
##beide
##ianter
omt
ikkje
transa
##slin
##stuna
##slosa
mam
separat
halvar
slot
##formed
skrive
##itch
##isterna
##domar
##ifest
levererar
torn
kopen
kjønn
morka
##ath
##kun
plant
hundrat
his
past
insikt
drabbas
ogonblick
minnen
stressa
register
jula
katastro
fonder
##shandel
budsj
##anmark
##tas
ovre
storlekar
databas
faktura
teknologi
##offer
uppdraget
##sutveck
##meter
offentlige
global
galet
kalas
##essig
tillbring
vakna
grus
tapet
##line
##sko
drivs
spot
foder
life
dato
emeller
tvingas
##cial
blandning
avsluta
krydd
forvaltnings
sosiale
skrevet
klanning
emellertid
##zon
jarnvag
##ison
eskilstuna
homo
primar
##aks
tek
sed
delas
lun
spendera
##plass
uppfyller
omvand
pum
paverkas
webben
##esel
omrader
sanningen
##departementet
##holl
lærer
##vat
gotland
fragorna
##alten
kommunala
falla
forhandling
analy
##sgatan
tvatta
##artik
setter
enorm
anmala
1999
##mans
forlust
##konto
luk
troja
##programmet
##casin
tagg
##kommen
##yper
ig
minuters
rollen
effekten
##disk
pojkar
gatan
##forsk
##fig
gig
negativt
yrke
##varen
##ffektiv
##ssystemet
sajten
observera
##lene
##25
rutin
##inspekt
handerna
sci
dress
riktning
alumin
jordgubb
##uen
komplex
viste
##bba
##ansvarig
##ool
oppnade
business
webblas
manniskors
tjejerna
garderob
works
framgangs
##maskiner
interesser
bestille
##skommun
charm
##ano
recension
klag
branschen
hallet
innlegget
sannsyn
kraven
hette
type
hoppade
forfattaren
internationellt
debatten
##kong
gjennomført
drommar
andringar
trycka
sank
senior
foddes
uppgifterna
bbw
barnens
michael
erk
leag
##orth
##pten
dagliga
kond
##bile
beakt
gymnasiet
soll
ideal
##smet
##bocker
##skydds
##ico
forvir
viktige
##sned
inneholder
##pri
priserna
von
rehabiliter
yog
presenteras
publiken
forbru
bakgrunn
##ero
bd
##oser
rop
fatta
##splanen
batteri
hantering
radi
tings
##issar
packa
forskola
selvføl
skandinav
vikten
infekt
styre
##aring
programmer
forstor
bokstav
høre
prom
kick
vinster
bytt
aterf
oppett
tekniken
maned
##ktorn
##orier
spri
deltagarna
overnatt
samlat
##varda
budskap
utstallning
ivar
medans
cal
foreningens
avkast
utviklet
##information
tross
eskorte
befolkning
##ettere
##ned
skjul
##stilling
sites
farsk
døde
behag
ifragas
solna
hjarnan
##attan
begransad
mangf
lader
##essen
byggt
pagaende
betalningsanmark
jattef
ped
redov
cur
sprut
tad
forbed
identifier
aluminium
##enhet
kopenhamn
rika
bestaende
muslim
fredagen
barnets
sprida
malm
##ioxid
report
dun
##hør
ytan
##ikon
ønsket
delakt
baka
sider
konstant
67
book
##omb
##kommit
larm
oppettider
uppdatera
lordags
reglerna
fotter
##alte
bitar
forstod
##uel
##ical
armen
hallen
##okl
nyhetsbrev
spekt
dynam
pasient
##rollen
bredd
##lada
gunnar
##aaaa
fjarr
finaste
anstallning
kampanj
progn
##job
jobbe
nark
bul
cop
sparar
forsvann
forbjud
##atiska
nm
aktuellt
broder
holm
rast
##koppling
##budet
problemer
##ole
vek
##vardighet
1900
##22
##opt
##uttet
##station
granser
testat
morgen
endre
vinden
##skolen
##su
utbildningar
ast
oron
mem
kortet
mangden
##ati
eriksson
##ivna
marke
##esh
188
jenny
##litt
abonn
nøy
ida
konkurrens
unikt
human
dalarna
##iserade
##spris
rorelser
##urg
effektiva
misstag
forklaring
uppfyll
##sy
##hydr
stilla
velger
unna
##stein
jeans
fyllt
sexfilm
class
elva
garn
redovisning
volvo
slots
league
samord
virus
kronika
persson
##styrelsens
rosta
orolig
gustaf
studera
spin
utbetal
historier
arliga
arbetsplats
trag
silden
klasser
klær
begrens
##post
swing
beraknas
valuta
##storp
sikkert
homosex
samlet
##assiga
day
##øren
forvantningar
bebis
hyresg
applik
sildenafil
forsen
tt
vunnit
praksis
familie
mjuka
muligheter
gymmet
##funnet
vision
reson
foreskrifter
rester
katter
yttre
dyra
bolagets
##rod
fiber
anton
##byggd
endringer
uppfoljning
smslan
bind
flor
moment
##cks
dott
##resor
etn
##inns
##bt
vurdering
nemlig
spelautom
##teckning
rich
sallad
origin
migr
betydande
##kken
minus
efterfragan
innehalla
game
meningen
hyd
##erings
karakt
rat
##ugh
##ebror
ml
##stallda
vider
medisin
##opro
passion
##morgon
##skrona
chil
##finans
##ningsfor
teori
##skapen
hallbarhet
grepp
brasil
frida
forvag
laggs
##rigt
##igaste
holdt
small
lider
##kons
##yo
##ision
orgas
##fraga
økonomi
##idan
stavanger
##ystemet
danska
##alg
beveg
uppvarm
sthl
sjuka
orter
premium
##spass
olj
##nitt
omgang
skapade
harmon
shop
finalen
##ws
##atiskt
føre
##svagen
harry
kommunfull
##duk
##last
hvilken
talt
##produktion
##tain
inbland
dansk
klokke
hih
avlopp
##che
regnet
##stolen
utsatta
lis
forstatt
smuts
muligheten
tech
sofia
##leder
bekvamt
jakla
finska
enten
tidpunkt
##tagen
hardcore
tillgod
metoden
adam
bildet
66
##mart
utlandska
##ira
##dring
moms
##90
paborj
godkant
##strateg
blank
multi
langsamt
stodja
besø
representanter
hoja
presenterar
infrastruktur
sannolik
##øyd
ande
kvaliteten
nærmere
steget
underlatta
tull
medborgare
##rull
##følg
kilo
microsoft
jap
##isser
iden
skydds
##sbel
placera
ledarskap
vaknar
norrland
agera
lønn
elektr
tacksam
##emed
uppmarksamm
oppdrag
ist
##vas
##text
##idrag
##pool
orsaken
##idens
passer
involver
hamna
fader
togs
ytterst
##cell
risiko
lørdag
1998
norska
simon
##sagare
sva
##fra
oliv
negativ
sonen
##jd
##kurs
uppehall
##steg
william
dame
investeringar
ryck
spesial
ulf
universitetet
##enfor
dricker
roy
affaren
utredningen
fynd
dj
smaken
##ute
##arium
gammalt
fabrik
debut
bearbet
##gym
paverkan
dras
##skostnader
vild
nybor
advokat
livsl
varianter
utbr
##sig
63
føler
ovningar
intresset
##kra
besokte
##reterare
studio
##peut
alska
sakerhets
karta
innovation
##annan
##beth
esp
##position
foraldrarna
karakter
grun
sidorna
tillganglighet
alternativet
king
kvalite
gum
##verkets
foredrag
forsiktigt
##forsaljare
omtal
kvalific
internasjonale
belysning
staende
spont
suga
general
dahl
starter
cra
##75
cle
tillfreds
forsvars
anstalld
##sbo
bockerna
mobb
forhindra
##cing
latin
##entene
psykolog
munt
luck
biblioteket
kjæreste
##utrym
##ance
installation
51
##sbr
##hopp
variant
samlas
naz
##redovis
##ave
##parten
skrack
regeringens
##eftea
kommentera
##arke
backen
##trafik
##itten
myst
roster
advent
##tur
##spelet
##esen
traden
veckorna
beskrivs
forsiktig
nils
risker
endelig
##strid
doktor
##stin
observ
synpunkter
overfl
##inget
##beg
lod
hop
symptom
afrik
hungr
organisasjon
hundarna
##priset
bryter
ovanfor
##skador
##stillstand
foss
international
##bjud
flack
##kamp
paminner
tilldel
specifik
bollen
carol
##barhet
bron
mans
ellers
oppdater
##ytning
kas
##kelen
berattelse
larar
sticka
##kontroll
vegetar
##ykker
##just
leker
rea
##uktor
##visningar
ked
allmanheten
forvaring
##butik
rens
##nere
vaccin
brister
##massigt
losenord
forvantas
##issionen
krediter
maxim
premier
##fru
krever
##saken
deltog
sjø
mex
uppskattar
72
group
johannes
venstre
uppdatering
avsikt
##ylar
deleg
##pens
valgt
byter
fonstret
festival
##planen
rakar
ara
##uti
ledd
white
sammenlig
foreningar
kategorin
62
moral
himlen
fartyg
action
diabetes
pratat
stalls
private
halvt
regjeringen
sovit
##paket
lyser
plattform
##fold
##dags
tjanste
patienten
nic
installning
sthlm
1500
godkand
spanska
dvd
##´s
ene
opptatt
##design
forberedel
narings
herre
filter
forbruk
kollega
pant
frustr
medbor
symt
##eve
virksomhet
fortjan
inatt
varda
acceptera
afrika
open
##dack
kasta
restaurangen
aldsta
spann
avse
punkter
arrangemang
##marken
##blogg
##enne
interess
gotaland
kontoret
flyttat
meddela
##hh
ramen
enorma
byte
forsøk
tjejen
astad
arbetsuppgifter
synlig
##smalet
funktionsned
##gg
gilla
opprinn
ansoka
brittiska
party
##redning
overgripande
sana
lansstyrelsen
maneder
filer
borger
vik
boksta
korkort
auktor
upptackte
videon
utfly
pamin
linn
bondage
fac
##funktion
spis
##don
##løs
brukere
vantat
detsamma
henta
kvarter
omfattas
bakgrunden
morkt
besviken
skickade
timmars
tilsvar
##bare
email
##kamera
gras
missat
samlade
##sfall
høst
vistelse
lud
##alafil
fotterna
temperaturen
700
tø
okning
##dell
størr
jakob
variera
datingside
hil
##bod
rante
kenn
bos
forbereda
overgang
inneb
komfort
wi
##tals
##sproblem
may
tilf
roller
vedtak
skapas
tadalafil
kold
##kte
##akar
burde
automatisk
asiatiska
demokrati
##alism
killen
workshop
forlorade
konsul
##hn
##sbest
##hult
##grad
kommunikasjon
##varer
slett
kvart
destin
kaj
konver
##oom
ordna
##ript
tjanstem
access
##sug
fardiga
##ener
innefatt
kommunerna
skov
##tran
loppet
fanga
##branschen
dele
she
wikip
upphandling
rag
##smode
##okk
chatta
##slutning
obehag
##yrer
selvfølgelig
distans
ljung
##osta
losningen
tantra
begreppet
alv
##eth
##byggda
spelarna
fulla
mør
jobben
individuell
musikal
populart
##backen
##sbok
brygg
njuter
##imin
krang
##usi
kontra
##side
##itim
skiva
##dende
allvarligt
pens
perioder
##sbolag
forekomm
godkanner
##day
kommers
brud
##uggar
nedre
referens
##ydda
kvant
netta
trans
##ielle
avlag
oppdag
kompens
antik
##plassen
enskild
natter
nervos
##arbeidet
avgora
foralder
menyn
hensyn
kreditupp
##celler
forplikt
##felt
uav
##verktyg
citron
skatter
inspirerande
berlin
blatt
ostersund
##halsa
camping
virksom
alexander
traditionell
##øt
##bandet
##blog
snor
##tekt
saljs
erkanna
loser
ledamoter
ombord
fruktansvart
lampligt
stream
billigaste
iran
trykk
##hallanden
##enes
##porn
##cern
folke
skarp
tander
pump
olsson
##gjor
avsnittet
##65
escortt
buk
webcam
parter
grans
resultater
massan
##statt
tidningar
##innan
68
enst
teamet
prog
how
kin
##hoj
forloss
##asten
##lock
kapacitet
politiskt
gjorda
tomm
garanterat
skik
minskat
sammanfattning
klare
palit
informera
old
##emark
vav
nettopp
arbetsmiljo
utforska
##jare
aringen
##bbe
seminar
portug
lur
##jack
vagbeskrivning
sav
skift
##kna
friluft
skum
##jente
bevar
halvtim
##dorr
tillampas
utvecklings
fullstandigt
huru
##igar
orsaker
kropps
komplic
legen
søndag
##hantering
seriosa
miljoer
banklan
vaxande
##bost
jev
tydelig
##sling
tele
chock
##stran
balkong
læring
fardigt
ledningen
vg
bh
sammanlagt
oscar
##agarna
strang
prøver
repl
##sminister
reseptfritt
tillgangar
##mord
blomster
drack
fyllde
kanaler
bemot
muskler
##etøy
kollat
kostnads
##eman
count
taxi
kud
brit
operation
##ou
levde
jess
##boende
##oler
hjelper
morfar
##atgarder
##ymp
kladd
unnga
##frihet
dl
yttrande
##ous
soft
##belt
##bev
88
##ografiska
firma
produkterna
##temot
globala
##feller
tillit
##ømme
##centrum
spillet
nettet
slanga
parf
fungerande
vinnare
stille
slo
kru
##lopp
##visor
toalett
marks
##pert
skolans
oskar
##dalen
fysiskt
desember
usb
##usten
##een
ott
forlora
vold
nude
##svik
pred
1980
##speriod
etablering
##iserad
sej
##banken
fit
##sledare
##klipp
##imeter
panik
statliga
98
oversatt
skarmen
##iljon
##oci
vice
satsar
##spelare
virt
##etta
##sdagen
bea
krafter
enstaka
aterstar
##sforetag
kust
nodvandiga
utvardering
##stark
diskriminering
snacka
fota
lektion
##forsvar
##like
bruks
nærm
torka
##anmal
amnes
##hard
skyldig
meget
polen
kombinera
vasent
anstrang
versionen
byggnaden
viktigare
term
jazz
kontanter
well
valk
teoret
vaxte
##skriften
øye
outfit
grek
spanning
##21
##sprocessen
begynn
talat
begav
plag
grabb
fransk
licens
nyans
##sajter
februar
maltid
smaka
efterhand
anvandarna
##skall
sjukhuset
##orget
bdsm
cel
ib
deltagande
bredband
expon
anl
narhet
kunderna
##erende
##slok
##andan
##sprogrammet
kampar
aterkommer
##eksjon
##foljande
squ
arligt
policy
lyk
put
pojkvan
erhall
skylt
jacob
xx
kriget
dick
##rige
alm
skyddar
manniskorna
street
identifiera
merke
##slar
brad
overhuvud
snø
arig
##usjoner
##legging
barndom
smyg
hihi
##bj
permanent
tekniker
utvalda
skin
pappers
tjanar
heltid
##ooth
morsom
bistand
mekan
##rol
hyre
pig
sektor
mennesk
usch
##rov
plagg
fylkes
handika
kosta
aterupp
rav
drott
sokande
implementer
løsninger
langvar
##ils
79
stallt
upprep
revider
vilt
vager
kirke
matlag
suck
anmark
vanilj
kravet
##iff
##øst
legges
husk
##ssjuk
undersokningen
tendens
japanska
omstandigheter
cr
arendet
undvik
baserad
invig
rejal
diskret
97
##alu
##taket
foten
familien
bereg
resen
begag
##hjalp
fangelse
besked
##laren
forrige
##splikt
manus
fører
sr
74
kapp
konstatera
gissa
svensson
kva
inflytande
##data
demonstr
schwe
troligtvis
samle
provat
##ily
framja
helger
##visar
##lex
##skriget
vitlok
##lage
leverand
lastbil
klippa
room
mick
galen
klickar
forvarva
rengoring
svarigheter
nut
##bott
junior
navnet
misstank
utgiv
##jakt
##lander
##vest
parlam
intervjuer
josef
ipad
formular
##omet
redovisas
##ratter
tilby
utmark
larde
1970
studer
kolon
finger
##betyg
verktøy
##ospel
biljett
##supp
omfattning
1997
bøker
ves
rubriken
lyfter
gilt
titel
varderingar
byxor
omsattning
rektor
syri
73
##malm
##repet
radgivning
lagring
##smid
gjennomsnitt
##annet
militar
hentai
##stig
##koll
##hyr
##inlagg
nyttig
mattias
slappte
##flyg
skell
##bre
summer
##organ
majoriteten
ana
klassiker
utfors
swe
professionell
tolk
mist
centralt
##olv
##smannen
smaker
##ygger
parken
slutten
tviv
auto
meld
arende
lagstiftning
##jej
klarade
##blom
##ax
lettere
jas
##ruppen
spets
bratt
sken
##kansla
##regler
kampa
blott
##iviteter
import
utviklingen
labor
gransk
textil
utspel
syskon
##fram
##kyr
ursprungligen
oppgaver
slutat
utvecklats
utvecklat
sterk
##ush
fylld
##fre
##jk
##avgift
europas
fixade
intensiv
##deling
hahaha
immun
matematik
klima
overl
##nor
downlo
##rund
graviditet
78
plikt
arbetade
##gir
aterforsaljare
kalle
forbattring
privatpersoner
varumarken
##igheterna
fokuserar
bero
oppfølg
##skr
gest
##ovan
lockar
kommunfullmaktige
malen
##profil
peppar
trycker
##sser
vert
cykla
elegant
##etts
##miljo
head
##orts
forbl
producera
smaland
ts
eit
slump
utlandet
ersatta
prestand
##kanten
gitarr
vig
onska
forbundet
mull
installningar
tillverkad
serveras
##lakare
byggdes
titeln
sper
manag
vana
hangde
inlogg
##gorande
ambition
tyder
##yttes
lasning
##cykel
pensjon
gallde
nasjonal
foreligger
artister
medie
first
studi
tester
pick
pressa
begaran
##lon
prøv
##ced
korv
tenker
hemskt
grunder
madde
lukt
majoritet
publiceras
##ove
lakaren
##iør
##ydde
urin
julia
museet
maskinen
##file
##valla
varumark
##okument
samarbetet
lagsta
##datum
delarna
vaggar
##verre
add
elevene
casinon
##mn
oppnas
forlat
aftonbladet
engang
pay
egy
work
modul
pojke
##sbas
##stang
##ygien
##spir
grunnlag
elisa
foretagare
overklag
meng
76
##zy
fungerade
avsk
opplysninger
james
aik
jattem
malar
hobby
week
##otte
cock
forsø
koppar
##ely
tjeneste
tryg
marin
nei
sentrum
##stal
varumarke
satts
##spe
##sep
apoteket
tankarna
dart
tart
marcus
##ytan
skaff
kolleg
nike
##sakerhet
undervisningen
normala
potential
potens
##setning
##kelse
nordic
kjell
dagbladet
inge
kvinnorna
vie
utsl
bjork
specialist
nettstedet
experter
##verksamheten
vurdere
handikapp
##prosjekt
##øver
##ilte
ahl
##dating
maken
prosjekter
##inerande
forutsattningarna
##iansen
alene
kvm
adult
fungerer
snakke
organisasjoner
##hver
enter
pak
##ikan
##medlem
elsker
panc
kontinuerligt
schweiz
vedlike
omdom
italienska
koppling
wikipedia
medi
##forandring
##papper
##zer
bab
gula
foretags
rullar
vaska
jonsson
vande
myndigheten
forank
gur
minor
pian
##hs
anteck
brot
light
herren
satsning
innebærer
dubbla
arkitektur
spelen
77
##bruket
##ulette
noveller
galopp
fm
uttag
forsor
tidiga
##bek
stunder
onodigt
kandidat
webs
makten
trump
jenn
inkludert
mari
nederland
kaos
namna
klarer
flyt
tja
##chel
##isjoner
tipsa
##spra
gruppe
generation
flakt
##plat
sakna
firar
funktionsh
dagars
orkade
kristianstad
granskning
hormon
sjunga
bam
typiskt
underlatt
skjuta
odds
skyld
##pal
elektronisk
utvid
win
søknad
diskussioner
##ykte
hekt
gradde
voksen
fak
markligt
sykehus
##ify
sendt
iii
##oli
kjæresten
huruvida
kallor
tram
guid
overhuvudtaget
sovjet
rakade
##sagt
jamstalldhet
##oman
##vagar
oand
##ifte
høsten
##rapporter
brans
ekologisk
allvarliga
beslutade
minnas
##smat
aterv
avslutade
##everket
united
##ago
##ljus
myr
katol
##isjonen
##ware
glatt
sanger
komponenter
ekonomin
##grens
redd
profesjon
skepp
skivor
delade
vardenafil
anta
officiella
##issa
##stallande
##rim
formal
anfall
##sand
mynt
australien
død
##skiftet
innbyg
cyklar
tilsyn
mv
##inga
flask
vardera
thor
narmar
ensamstaende
heldig
##forbruk
palest
kock
tron
assa
realist
##wh
skjønn
uv
swingers
##no
nice
py
dyl
anslag
seb
sodertalje
##undersokning
farlig
tjugo
gla
julafton
aja
tillfalligt
fixat
##skval
grønn
anvants
kontakten
900
medlemmarna
genomfors
smycken
høye
hap
sjunger
missade
vardagsrum
##etch
jordbruk
vint
ado
##knipp
alg
flickvan
ambassa
profiler
lararna
omgaende
blue
funktionen
##strek
planerade
##circa
tumbl
adcirca
sorters
games
mora
asiatisk
##eled
kommunicera
##pul
##ado
##pis
sokt
installera
kampanjer
kjøper
##holds
##øse
kostnaderna
overenskommelse
avdelning
##mote
exklusiva
##ruta
supp
tett
##eror
formiddagen
uppfylla
tvekan
egenskap
leve
185
hogskole
gentemot
missbruk
download
##kjent
faste
beslutar
stjarnor
##kland
flertalet
breda
knep
##delige
saa
##utrustning
nad
lakar
bekymmer
fornøyd
##slig
##gjorde
konstruktion
robot
##utval
pur
klam
dansa
flotte
slatt
artist
estet
lenn
##bilj
atervin
ogat
tillslut
was
livets
manaderna
##omal
##ekte
kritisk
socialdemokrat
individuella
hmm
belaget
faktor
##systemet
riktar
ama
##potek
hogskolan
uppsk
gluten
hør
betydning
tacker
fans
socialdemokraterna
alp
##pade
opin
regi
##sokt
110
øker
glommer
##ualitet
mojligheterna
verdi
strategier
friska
hjalpmedel
##drene
pon
professionella
96
testade
89
187
forord
ekologiska
oftare
formagan
justin
selve
skedde
vantan
##svenskan
partners
##forn
##nende
hei
jatteg
magnet
ovning
kjøkken
imponerande
behall
processer
##bed
##iere
##jonen
aterbetal
##hallare
vaxel
adressen
abb
kolhydr
vaken
passet
virker
lof
godkjent
##ington
nj
cha
##istret
186
amat
montering
lakt
##juka
drikke
anvandes
##oty
presenterade
skri
ljusa
magasin
wo
uteslut
##iserar
psykiat
moderne
##ckande
84
victoria
godkannande
##bling
flygplatsen
investera
balkon
##sajt
##tro
##hallning
nationell
høyde
tumblr
finansinstitut
analysera
statsminister
##ages
commun
##vens
brukte
talade
arke
forvanad
##agne
1994
sannsynlig
ze
##ary
vindkraft
mental
##ecken
penn
##sliga
##juden
bay
koncern
##hallet
storleken
bære
narvaro
blyg
utføre
jern
who
ønske
lyssnade
flagg
##isse
bog
gna
leende
hoppar
forordning
bestod
tackar
##kram
sokte
hanterar
drive
##skarm
##naren
kondom
wow
##ussen
##kostnader
mt
ond
##hd
decenn
underteck
sir
##stjanst
tomas
undersokningar
##esser
ledigt
rang
besluta
##kene
seriost
mia
interesse
hogtal
definier
hastarna
##alisera
skradd
##dy
lugna
riks
##rutt
skelleftea
telefoner
allerg
##sty
ursprungliga
tomten
sunn
eksempl
synnerhet
##ullar
bestallde
tomma
koordin
likasa
rehabilitering
tagits
styrels
##jenester
##staller
tilfeller
linjer
avtale
##ywood
ken
barcel
liknar
ursakt
arligen
##makten
amanda
krava
tabellen
trafiken
sukker
##teknik
##sang
vardagsrummet
amerikanske
##oppga
afg
grunnleg
##shistor
aterbetalning
bun
glomde
odd
bokning
##livet
lengre
lands
bensin
uppenbart
tour
##etid
placeras
##pers
miljop
mobile
kup
servera
##kaka
##upplevelse
night
extrem
##ated
##itz
##sorganis
forknipp
aterkommande
##direkt
upphor
north
dessuten
##ni
##skolor
##sha
samrad
varna
drev
aldern
##plom
inviter
##shamn
kasino
distribut
katten
dyka
##meddelande
##ffel
cru
##oped
division
##rafik
muslimer
paret
filmerna
extern
mandat
talas
fantasi
smalt
arbetsmarknaden
atl
odling
hi
hemliga
here
ordin
viking
armar
##ocke
1995
vivan
skriftlig
neut
aspekter
budsjett
##amet
##olyck
depress
hallbart
turer
dragit
ljuv
skovde
gigant
uppenbarligen
utstallningen
website
middagen
flyga
##fund
frista
skratta
##knytning
##bilen
##ican
utfordringer
omhand
bonusar
bana
##perioden
##rakning
undra
lesbiska
##istiskt
gifte
##ikat
betting
long
##estene
talets
kopet
arne
viktor
medborgar
94
noter
digitalt
##ionens
kakor
beslutat
arbetsgivaren
##istens
##radare
##laggningar
laggas
bedoma
##sborg
lr
##serien
avhengig
1996
##okan
upphand
vans
##imot
sha
hjalpt
samfunnet
forvarv
nyan
ambul
beman
nodvandig
##ogs
##splas
tappar
kokos
havdar
beredskap
forbe
saft
##smaterial
damp
symtom
tryggt
vivanza
mangfald
spekul
skota
ff
##shuset
problemen
##berget
diesel
cou
fristaende
##33
##elie
college
hundratals
starte
skamt
##muse
markedet
glem
kje
løn
teknolog
stracker
wild
##ratta
##ickor
##styrka
##arbeten
kassan
interna
lagret
interakt
namnda
produktionen
kemikal
about
radsla
##entre
uppgiften
##bul
content
intellig
bekre
sjong
uppdaterad
skickat
pekar
glede
spillere
mins
##sutveckling
bedrag
stanger
##platta
orka
##familj
kjøtt
exemplar
utbudet
touch
##ights
varierande
farfar
erf
flykting
##cancer
##ssel
nrk
spir
eksp
syl
hm
lavere
norm
representant
ovanstaende
tillhorande
jens
baksidan
##jed
domstolen
institutionen
rytt
##iskop
nasjonale
glid
##bunden
uni
##middel
flag
##sal
hagen
sykkel
##pital
kusin
margar
any
salu
cer
kontrollen
panel
redigera
nettapotek
skur
matta
##ssitu
helena
gasterna
regionala
mejl
sit
##sem
scand
trafikk
notera
robin
exam
dumt
##ures
##stider
hallas
##øtet
avancerade
relevanta
##chen
ultim
##umtion
tillgangligt
darav
begynne
##ua
landslag
bidr
citat
fixar
sevard
sandra
ordentlig
killarna
##eliv
##svag
##forslag
send
##vapen
apnet
##ynda
intim
##industrin
saks
behandlingar
##lager
adel
quiz
mobila
opplever
jaja
##sband
##givande
avslutas
##elp
menade
bring
##dam
##splaner
konstaterar
disc
hustru
redusere
kommunstyrelsen
ansikts
blixt
fylke
utse
analyt
registrert
school
##lyst
##sperioden
##marknad
##infl
inuti
lampliga
flygplats
##emedlem
slagit
arbetsformed
gyll
rust
biverk
stugan
samarbetar
##srika
sku
locka
respons
##sklass
made
##varon
skriven
stok
fien
legitim
lova
nud
lina
fornuft
agna
ytterlig
gala
university
##figur
butikk
##ugen
remiss
sjukvarden
kreativa
##itte
avkastning
##skada
lady
forelasning
##istrasjon
bow
spise
tann
86
road
##pra
hamtar
utsatts
skjøn
##trykk
##iserte
arbeten
kontaktuppgifter
stralande
brak
##havare
##sbar
##havet
gbg
historisk
kristus
anvandningen
radet
beredd
regiss
meddelanden
##ule
jakten
fortsette
##esson
angr
celler
##aktig
patrik
##ksjonen
ytor
begr
pancake
blan
studenten
oppleve
tarta
skugg
tillverkning
tilsvarende
##forsor
siv
byggnads
trygga
##cs
trotta
##elly
havs
specialis
slip
besvik
##elserna
##test
bekvama
sanka
doden
##ømmer
populære
smakar
iron
sanning
medicinsk
dubbelt
sticker
##gb
mammas
behorighet
##slet
hogskola
avslutar
tranat
##alogen
way
che
##vandring
hvit
##riga
flaska
betale
anlaggningar
kallat
tillverkare
hensikt
onskan
introduktion
##eringer
fritids
##anne
##namnda
arbetsmarknad
dorrar
##resan
##aksjon
flit
forsikring
vardnad
forverk
otill
langden
avdelningen
foreg
mjukt
økonomisk
gel
bostaden
oppos
falun
rimligt
fair
##ørene
##stugan
salde
tonaringar
sajter
upptacker
##edig
borgen
langsiktigt
agaren
torra
##musik
alders
dagslaget
dessverre
##laddning
sams
lyn
skikkelig
rekrytering
##byxor
bedriva
spelaren
vilda
##laggare
forebyggande
oppfølging
tittat
generelt
##tral
berattelsen
kreativitet
forfall
huvudvark
##skontroll
stackars
kid
meste
krets
##motor
anpassade
women
##tillverk
wifi
holland
mojliggor
sjekke
rumpa
badrummet
bestemt
##jav
mack
##regl
1960
ariga
160
etablert
anledningar
tappa
##skvallen
forsakringsk
snick
##industri
##natur
landerna
rummen
accepterar
##ulin
kinesiska
shoppa
##stopp
forlorar
overdr
forskningen
kundtjanst
norway
##bilden
garage
##rus
dire
upplevt
dottern
hett
balt
receptet
bm
82
symboler
spok
slappt
##agor
sexfilmer
##parken
stein
tradgards
avbr
##utvikling
##bundna
##holms
minnet
greit
##fj
##entar
kompa
##lamp
bond
##bileum
140
stru
##ementet
inntil
fremtid
stipend
enhver
turkiet
bokstaver
##central
japansk
margin
tobak
lesbian
##analys
ending
sakerna
brinner
##forskning
##hotell
ødel
duschen
orsaka
dokumentation
##not
motorn
proffs
frivillig
aner
kanten
##yter
grundades
##sakra
kore
finansiell
non
dyrare
forskrift
anbud
kav
grovt
##ningslin
sesong
##lagga
passande
83
kryp
comments
fog
fortjanar
kladerna
##radets
##ikern
61
vanskap
blin
strek
missar
mysiga
nyborjare
tabletter
##vux
kvadratmeter
miljovan
kvalitets
fund
djuren
narmsta
prim
sondags
prestanda
regional
wel
hjerte
tappat
undersøkelse
virk
##shav
forlorat
##igenom
asf
93
externa
beteck
ljudet
ansluta
mandagen
smer
slapps
forvis
asp
after
infora
##antor
enklere
underhallning
scan
aggress
dartill
flyger
diplom
sjalvklar
grekland
ode
##pg
medicinska
photos
##sbru
succe
lil
drick
øvrige
kali
nedanfor
smidig
##sforbund
nackdelar
##casino
jamna
bedoms
html
indien
##ugor
cash
ping
##kunn
##iew
skrattade
konkurren
barcelona
prast
##cl
##yft
2020
kreditvardighet
favoritter
varldskriget
genomforande
display
tilltal
##trade
slikt
##inspektionen
hogkval
terrang
samarbeta
skrek
irland
##rorelsen
trakasser
avtalen
alskling
##stan
torsdagen
graf
tatu
##unge
glans
1993
politiske
varmland
bildene
romantisk
blaser
økonomiske
ansvarlig
skraddars
##klubben
##dret
##asj
skrap
130
##maren
##usjonen
udde
forenkl
orange
##junkt
vegas
##rukturen
##laggningen
kommunene
kalt
92
175
isen
baseras
stuga
##front
##esc
berorda
##iro
categor
verkstad
kret
fortelle
examen
##video
bestemm
vedtatt
rulla
rød
cross
mn
djupare
fax
##cket
webblasare
vandrar
heder
rh
uttrycka
manliga
##viker
##komsten
medic
bekanta
agent
gutter
mums
##fora
romer
##sack
ake
##ulen
sjekk
##marker
tennis
foraldra
rolle
##sider
##ferd
##seln
overtygad
1700
buff
frist
avancerad
klack
ce
inkomster
racka
##etenskap
omgivning
##peratur
eksister
bastu
##skande
tillkommer
sterkt
utd
##aganden
klient
##cast
intervall
##dahl
blow
arbetsdag
kjøpt
karol
chanser
##centralen
fjol
forsvinna
##kommun
##alar
leif
##vanlig
forelasningar
mammor
engasjer
##lapp
noje
funderingar
funderat
##innen
skym
klapp
##kott
frammande
republ
management
##ollen
##stock
##skriven
synas
redog
uppger
vanlige
lotta
hardare
##stak
deklar
storstad
spet
##imentet
##bag
skjedde
direktiv
##asjonene
lotter
##promen
retro
utgjør
katastrof
oroa
reaktion
stravar
##førte
rein
##faltet
spelautomater
stjer
chefer
mess
julklappar
##arv
svenske
pm
anhoriga
nedsatt
##samlingen
export
poster
##cal
stamning
konsol
tolkning
##ylt
introduc
ving
byggs
valgte
noggrant
testet
##dor
##forvaltningen
medlemsst
tagen
##oklipp
##nats
##rette
moll
personuppgift
feed
vetenskapliga
##skur
##aterade
skilja
lokalen
intyg
allvarlig
entreprenor
skip
redskap
nivan
varannan
jacka
##agda
mum
##vit
kvartalet
møtet
vagn
tradgardar
beund
svin
annika
haug
##stedt
tufft
natverket
lila
##underlag
lch
helvete
betraff
##cle
oppdat
##ads
ostergot
bestallt
sesongen
helsingfors
irak
sinne
##stendig
kartan
##priser
landstinget
math
frekv
cv
obeg
hemifran
roulette
wester
170
forekommande
fatal
now
semestern
klikk
xn
##chat
tommy
framgangsrika
utru
provade
politiken
##passet
provning
vattent
besluts
fortsetter
videoer
farliga
genu
page
vuxit
##rock
noggrann
reserver
xd
foster
##produkt
frys
ole
diagram
manager
oral
vagnen
vekst
##traff
##løp
##wer
innanfor
semin
skivan
184
diagnos
jimm
hytt
tv4
stiger
foreslas
##svillkor
upptackt
##ondition
forutsatt
##jenesten
forsaljningen
init
lednings
##foretaget
administration
##oppar
jessica
funktionsnedsattning
pastar
##ippa
gt
situasjonen
beaut
sne
##idor
startat
rensa
##tagna
bakterier
##zen
fremst
##uck
handlingen
##deln
##date
ifk
logg
##gav
87
##ife
grunnleggende
farska
konflikter
forfl
kvallens
kriterier
forret
##board
begara
fisken
avdrag
##fy
ordfor
##oen
minsann
##svin
skritt
personerna
bedrifter
drommer
##yren
rapporterar
framtidens
##gam
birgitt
ombud
skyldighet
jf
utrikes
inledning
forne
ukraina
##rorna
paminn
stel
snabblan
hungrig
flygplan
oversattning
analsex
protest
visning
anbefal
##gte
ugn
rorande
tillverkade
maila
halvlek
lyckad
filip
nettsted
iso
skrivbord
##pes
alice
##gel
uthyr
journalister
registrerade
##omer
anklag
##ict
evalu
##ides
forar
##aktt
festen
lekte
vanligvis
stamp
rakningar
aldrar
##kontor
saljare
##hagen
villkoren
forvantar
##ølv
conta
##ods
tappade
##ssaker
namnden
likhet
##ders
videoklipp
##villkor
skogs
padd
ling
syntes
##ankande
forebygga
##km
##ekonom
anvandaren
konkurs
##listan
medvetna
##itativ
ash
##ij
##panel
firade
bransle
prylar
##rygg
anpassad
mkr
stolta
##marknaden
viner
##unnet
##hamtning
sentral
##entr
fodda
arbetssatt
paketet
seier
haromdagen
cec
samtalet
##poang
nettverk
hamnat
instruktioner
##byra
kundens
narkotika
kanada
skadespelare
knack
konkl
##skrivna
lchf
sexuellt
bonde
##elset
##skrivning
indian
ish
allih
motesplats
##onto
##garant
tjansteman
##23
##tio
feta
niklas
##anas
fordelen
##flode
##otekn
laborator
skaper
byggde
hyggelig
blind
##entuna
filt
kongress
sjukdomen
bedomer
##stro
ekteskap
story
1992
minskade
insidan
bell
gos
##stuga
koldioxid
##ektionen
cos
##nos
forholdet
##stjanster
atal
hornet
flat
ggr
##vad
faglar
scener
##middag
hallbara
hallow
innefattar
betraktas
bagge
tir
##evin
producerar
vakre
hamnen
hjarna
vs
oppdatert
##ierade
retningslin
ebon
presentkort
genomforas
klubbens
vass
toner
forbered
##stren
##iar
meet
lappar
ljust
pel
varst
utl
lyckligt
loven
##mjol
onsdagen
##stick
find
specifikt
servicen
##grunn
utel
vaskan
epis
upplevelsen
samarbetspart
piller
utbygg
grannar
idol
dnr
myn
turister
science
ms
##ssen
##drift
##mers
gd
solo
programvara
color
lampor
lennart
aa
plockade
##holdt
undersø
##gs
cast
91
oppfor
repet
gator
typisk
forflytt
absolutt
##gjennom
chefen
##ekon
titlar
##journ
##irasjon
sjalvfort
##syk
##undersøkel
gøy
uppgick
korn
stry
underhallande
tjocka
rantor
tjeck
underlattar
innsats
##fron
##strad
oga
kvartal
filen
##ebo
kontaktann
##brid
##elin
nevnt
tillatet
hallit
javligt
##ward
befri
fargerna
hanteras
##komligt
tillhandahaller
##utdan
evangel
strumpor
avgjørende
menings
fordr
anlaggningen
vinkel
selvsagt
m2
minskning
bevara
##objekt
katalog
stoff
##ytor
there
ingang
##cernen
tillbaks
rantan
ordningen
##atsas
##ogra
##spolicy
fiskar
nasan
##gjord
gata
gummi
ensamma
bedriver
kle
øyebl
atmosfar
konkurrenskraft
##utna
virke
##annat
njot
##maskinen
##unna
bortsett
somras
berattat
##uru
virkel
ettersom
kriminal
endring
##rud
##ningssatt
##karna
##elever
ebony
5000
uppsta
kostnadsfritt
sokning
sexuell
kommissionen
##sklader
periode
lada
beton
##hallande
##skamp
##teringen
ytterligere
forsakringen
bege
trakig
senter
##akk
##vind
utby
kannet
##svikt
##reen
skadestand
ingrediens
forsvara
1950
##span
regjering
feng
##etr
##idrott
sola
ic
poolen
grata
mellanrum
##varu
genet
gava
valut
forstora
##vitt
tranade
abonnemang
pirat
escorter
gps
varsin
halland
klarte
forhallandet
hardt
alternativa
besokt
gris
henhold
ystad
mandags
##inci
utført
##cher
huvudsakligen
sound
instrukt
importer
kreditupplysning
laddar
orsakar
landskapet
forhin
jordgubbar
applic
arsredovis
hallon
pase
fakult
glim
##ammation
erfaringer
male
##namnet
diet
##venn
varat
nationellt
##baserade
talam
skatteverket
##ki
sopp
varer
tavlar
spørsmalet
inspirerad
##dsel
musiker
ansag
mandel
##fjord
lillebror
##vetet
betydelig
##lack
cons
kjører
##handeln
##glad
degen
hill
##ittel
oc
appel
kroppens
##gards
##fallen
##ttill
uttrykk
hamburg
##sti
az
oratt
##sbeslut
##ating
byra
slapptes
baren
350
##ident
tillverkas
raknat
aktivera
misstankt
forsvaret
chic
parag
mach
klev
rita
afghan
jean
71
forare
flytande
halt
##uelle
##rediter
samtycke
arhund
lex
ventilation
es
onan
pier
aktiebolag
stabilitet
vagrar
invandrare
utstall
ligg
bilda
folkets
bosatt
##sforvalt
tromsø
tunna
lamm
ss
##fsat
wiki
putt
##ony
hodet
##amnen
know
signer
sommeren
normer
frukosten
reste
marg
camilla
morkret
kvelden
mission
##deltag
##work
godkanda
nina
prisen
kyss
dykt
##sbeg
skrattar
fremme
progress
jackp
honung
andrar
##aton
markte
##adet
modernt
office
drottning
trolig
1991
smorg
ihjal
rose
suver
##avstand
soldater
##arbetare
ign
publicerat
effektivitet
##skas
samsung
##apper
ovrig
bygglov
##marke
innom
orgasm
tekniskt
##kvar
gleder
stryk
spotify
latina
##usion
insamling
##berga
##serie
##kvalitet
##xy
doma
sallsyn
derimot
grens
##rettel
korrig
##nede
avslo
reiser
##veien
##pump
raddningst
belagen
##ital
beskatt
skrivande
høg
kontrast
uppmarksam
lararen
farge
bokat
ratter
antibi
##organisation
omtr
akade
norw
tummarna
kjer
##stroms
rutan
##speg
hass
cecil
partik
batar
frost
pals
music
##rant
vinsten
sykl
##sbanken
beloppet
kanslig
search
individuellt
##bibli
handlat
##sokande
##plac
linnea
utsikten
klarat
luktar
ova
sf
##atorn
designer
onskade
arbetsloshet
sliter
klaga
##cos
blot
casinot
american
##kg
kulturen
servering
##ay
publisert
dur
##bror
##stillinger
##sklubb
halloween
tilrettel
ansoker
vistas
##fyllda
##adels
invester
##smiljo
meta
hemsidor
konkreta
integration
overgrepp
framsteg
##vardet
soldat
##insatser
diskuterar
diagnost
sønn
arskurs
mild
sovrummet
djupa
kasinon
##politik
##gro
lege
placerade
vintage
begransat
kontinuerlig
##uster
avslutning
utdelning
revolution
cykeln
skriker
belgi
##ppet
forvanta
rekommendationer
styck
benyttes
spell
##slost
flyttet
platta
kiss
intakt
minuten
undrade
etiketter
##99
ada
sprider
baserade
vaggarna
##itiv
inneha
brukade
##forum
##anmalan
##lange
kjærligheten
malgrupp
bt
aktuelle
visby
bibe
wordpress
nyt
deilig
##slen
##vaska
##mis
forklarade
favoritt
vell
bestammelserna
##snummer
##veis
varning
found
tig
okanda
minimum
hollywood
konkurranse
marknader
##bane
##delag
tanderna
3000
genomfort
##vision
høyeste
borte
tanter
projektledare
fula
forskar
albumet
##fran
kvallarna
videospel
vul
glasogon
passager
##mott
tydligare
jung
##spolitik
##terad
had
##itation
##block
opplevelse
##itativa
##kerne
administrasjon
lacker
omtrent
missn
svull
moderaterna
representerar
formedla
portratt
cirk
years
elect
regnskap
skak
expans
##allen
bokar
festivalen
##ryss
##skolans
byggas
explo
tidspunkt
nyheterna
plug
##hojd
handelsen
##hammar
mestadels
utnyttjar
rattvis
tvil
stiftelsen
##akes
flod
arbetsplatser
opera
orientering
fron
veteran
bebygg
vilkar
coop
##yder
uppdateras
##ilda
blodet
komplettera
spred
udda
cap
##forfatt
south
genomsnittet
recens
foreslag
enkle
jobbig
##moder
viet
unger
##ellen
avsloja
##iseras
gratul
basket
##smatch
1600
##plattor
missfor
teor
pad
##sgran
utb
mangler
kunskapen
revol
indiska
offens
##storlek
trøn
skorna
##pum
##oe
miljopart
##kjøp
##ifer
hygien
kjenn
oppgave
rike
kanel
manniskans
bildas
vip
##chester
bildar
blivande
regelverk
stilling
miljom
allas
holls
##visningen
gaming
christer
##ami
##stallt
handled
møtte
gh
sørge
##resultatet
##boy
bedomningen
kyla
size
varmare
maltider
markedsf
nadde
##ords
pite
dead
gjenoppretting
apner
betraffande
gold
biverkningar
lunds
nja
alfa
amerika
hundre
tisdagen
relaterade
##batten
##kann
klokt
overleva
kostade
great
snakker
parterna
overvakning
terrass
sammenheng
##cen
##vill
torget
##drer
fattas
apel
##esund
klubbar
##langd
##35
##punkten
beromda
agde
utformning
news
hyfsat
##halt
stodjer
isb
linjen
dimension
nylig
##skrid
tes
##fet
veterin
see
stangt
vagledning
##check
##jde
xnxx
elast
##asyster
##brod
##registr
##tradande
##rill
hjartan
ravaror
##prom
##stationen
pict
pyssel
slick
valfard
neuro
##dren
forma
roligaste
##jerna
motivation
##fordon
pasienter
lit
tomat
##trader
interessant
aland
passform
resurs
tillforlit
vitam
ledamot
elimin
##veg
overlat
renovering
halsar
360
letade
orn
bildades
overraskning
pix
##hvert
saknade
spik
skrammande
ferie
valkanda
rykte
antas
likadant
##sund
ressurser
##gjorda
flo
halvtimme
riket
young
skept
revisor
balkongen
rommet
benytte
dream
schema
rakning
##skyld
##estyr
skilda
vackraste
##plasser
bladd
##vice
videregaende
retten
rick
cirkel
string
##ialt
tillhandahalla
imot
##kalla
ern
##svatten
nordmenn
instruktion
125
tinder
tuffa
pilot
fug
styrket
sannolikhet
ansvariga
kandis
##hattan
tals
##arbeide
bibliote
meddelar
sverigedemokraterna
komplement
hiv
##opol
spray
offentligt
kafe
pok
##jarna
vacka
latex
tillverkar
##come
trakiga
##ikop
##astaende
nordisk
kungs
soffa
##ekom
rotter
ganget
valdtakt
uken
gardagens
berget
sentrale
betalningar
tiot
fb
lover
mj
##søk
birgitta
mysa
industr
erfarna
fastan
##tex
gjer
torrt
fordelarna
forsakringskassan
passerar
uavhengig
kolhydrater
fittor
every
skoll
buller
mira
jordbruks
ags
##ople
felt
##fas
fascin
folks
kampanjen
elisabeth
nek
##espiller
##lur
pluts
desp
koden
richard
##ji
vagade
kristians
spektak
kontaktar
peppark
lom
argumenter
next
utnyttj
arsmote
røy
##samman
##¤r
roger
langsiktig
##visas
avsedd
herreg
plutselig
konstiga
##øpet
meriter
skadade
##sveck
drama
slottet
##smassigt
sankt
kansliga
maxi
genomfordes
##verkar
##lop
ohalsa
myt
ekstre
mega
matcha
keram
##arter
pend
floden
papir
##cht
sommarlov
cigar
##ledes
begynnelsen
designen
veiled
pics
##savgiften
stamningen
rabattkod
prestation
onani
armband
##renover
anim
ub
fotografering
konvention
##bete
lasse
flickan
##redakt
##kommende
ai
dir
skruv
konserter
felaktig
##alerna
##vald
##emidler
##famil
utvikler
tilstand
m²
liver
tillata
rapportering
inblandade
##legge
trinn
vaxthus
##gjøring
bekost
montera
situasjon
##45
##sprosjekt
treng
spare
stenar
vikar
optimal
shirt
research
endret
lagst
vises
verdt
ryd
ankomst
##butikk
##bilda
anbefaler
smek
russiske
##tips
resultatene
uppmarksamma
nacka
konserv
klasse
skarpa
##vader
assistans
sande
publicera
fattiga
die
onda
husdjur
vagarna
contin
valfar
rider
sparas
ingrid
trenden
##bottens
##otyp
kk
##skiv
mamman
bestemte
kvinnors
idiot
diskuteras
##anvandning
matlagning
expressen
##slov
prostitu
##kapp
bn
kostnadsfri
##pedagog
##byn
pont
heldigvis
##pension
examens
omdome
##ikket
##langt
blandat
##glom
##samnen
pedagogisk
begransningar
begransa
umiddel
potentiella
bifog
##iserer
must
blabar
dari
##stjarnor
godkjen
kompos
absoluta
##pir
skader
##mass
anden
varia
aksep
##imenter
##allet
ovantat
innovasjon
blekinge
jattekul
reagerar
regioner
tilstrek
batterier
##brev
biskop
uddevalla
uppvarmning
burk
skrivet
bemotande
##idering
##ovning
##tell
langsiktiga
harifran
##inerna
##atik
principer
selger
smin
##ftt
##rap
inspirasjon
card
medium
bjørn
loner
forkort
venter
portugal
##eep
enskilt
forvisso
schemat
##feldt
##ellet
##varre
##emar
oppmerksom
genomgang
uppvaxt
##ankar
stracka
norweg
suks
borlange
##rene
interiør
lopning
energik
midler
name
##dragen
medvetet
##lagda
garanterar
stov
popularitet
upplys
migrations
care
##penning
palm
##sarbeid
nost
maja
asien
debiter
##ørende
kristina
ll
punkten
pp
religiosa
##angs
diameter
sling
kvallar
seni
publikum
sitte
farten
gifter
stressad
associ
break
snap
##arten
utforas
matcherna
armarna
justera
arbetskraft
framgangsrik
nobel
manaders
stemmer
testar
dokumentar
nyte
socken
intellekt
sikte
madrid
gass
use
##dafr
sess
bevisst
grasm
tallrik
arbetstid
lignende
corn
generell
hyresgast
shit
verklig
##zo
gy
netto
herregud
depression
rabatter
please
drakt
ekologiskt
marknads
##viv
merket
##ssyn
attraktiv
geograf
forvaltningen
##ansokan
omfattende
løsning
##blas
resur
sjutt
##bom
nø
globalt
##ersen
ryt
utbyte
kopare
vanligare
##stalle
##bot
##tagning
dobb
stir
nordland
##delt
##skiva
alltmer
komfor
olag
rymmer
##utbildningen
eur
##sskydd
olle
##beller
##utik
avklar
konstig
personlige
jose
fos
sjalvstandigt
motsatt
badkar
iaktt
napp
grafik
amerikan
##brand
try
loper
##sformer
talamod
utrymmen
teckna
trekke
##edal
brutt
vardagar
kyrkans
nyfik
##skot
utrustad
lyder
formiddag
stot
areal
vingar
onskat
taggad
penning
##eby
lovat
##modellen
tirsdag
kommand
##register
stunden
lt
prinsipp
samhallets
##instit
rulle
##massan
##skud
##sky
radik
krypa
forfar
uppror
##bostad
##vav
erbjudandet
kundservice
##finansiering
##ection
beseg
fasad
slappna
##utbildningar
##konst
overvak
variation
##sberg
##ungna
##cipl
##struktur
halsade
flu
people
enk
##jacka
foresla
filtr
##skons
cred
sagas
most
agar
##aaa
##ifikat
##skul
louise
operativ
kakel
sammantrade
pia
hemlighet
kreft
tilbakem
##lyser
nedenfor
##ilja
skrivs
internt
tarar
sjunker
kvinnlig
##yke
italiensk
##regel
theres
##onder
nul
##ladan
besøke
##ffen
##halls
tillracklig
##yrk
##format
food
statlig
sprit
##sbyggnad
mossa
obek
morker
##ungit
##ters
##orden
uppskatta
fastighets
erotiske
forandrats
forekomma
olymp
landsbygden
rettigheter
juridiska
webbsida
ungar
usikker
vaning
imorr
eventuelt
omedelbar
øver
only
varg
bilarna
astadkomma
stadning
##forvar
betalningsanmarkningar
dessvarre
fremover
##krit
karlskrona
kum
##effekt
compan
##ipul
##ption
bestaller
##istrikt
hydro
doften
##lende
##omsorg
stortinget
otal
movie
dna
foretradare
##kult
misstanker
##olin
royal
##ст
haftigt
producent
entusi
upphovsratt
resterande
promenader
laddning
uppratthalla
alliansen
skord
menneske
##linje
sterke
bø
arbetsformedlingen
##vant
##sforsakring
signaler
##emi
tyngre
forhallningssatt
##vaningen
agerar
cirkul
omdomen
maximal
##innar
singles
##øyt
faglig
##bias
slutsatser
medarbeider
funka
feder
##provning
##koden
little
ultra
oppdaget
rackte
skilj
ks
oronen
##chefen
engagerade
hurt
utgangspunktet
detaljplan
##foral
politikk
##odde
dolda
kallare
slav
kopplade
jamtland
tent
partierna
garan
##essige
bryt
def
##isol
vandra
##ends
vim
hjemmes
##omi
slutandan
##arig
race
##idning
vinne
spegel
##nu
##smojligheter
wash
funnit
##vene
overvikt
##inet
nyanser
bolags
##massa
jentene
##vc
##manland
gjeldende
splitt
sjukskoterska
##andare
##enterna
less
mobl
kjol
vantas
vinet
kitt
uppdateringar
metro
monstret
tenkt
##sorgen
oppmerksomhet
naglar
stamma
##prak
avgiften
##kvist
utmarkta
betyda
dagene
vedlikehold
##bus
##linjen
tillatelse
spesielle
kit
listen
fortro
blandade
slass
##uppdrag
##lere
lanade
##ygen
granne
handtag
forvent
milli
grøn
loppis
salen
markera
lysande
utvardera
egg
##unskap
talang
##vol
ef
sakerheten
##alken
##stadiet
##varld
taby
andrade
flexibel
scenar
runtom
atervanda
alf
ledelse
maklare
inntekt
vennskap
##reserv
##skorna
##øya
vitenskap
##yst
lab
benny
narliggande
alvorlig
jattes
varu
krok
##fond
dejten
faltet
kungen
informations
valkomst
age
##amerika
utfall
aterfinns
trender
eksempler
apent
garantera
##produc
konton
slaget
##filmen
starker
natterna
##uden
utmer
namns
utslipp
paragraf
trekant
resonemang
informasjonen
utgangen
torsdags
##styret
key
nest
##sbran
inneband
jaha
oklart
utebl
##skogen
##edy
##anke
prosessen
stilen
efterlangt
velkommen
minoritet
techn
sjalvfortroende
##mastare
klagomal
mineral
##pengar
hentet
fortsattning
##ymen
blowjob
veder
logist
grip
##vesen
sevardheter
##osten
naked
kliva
narstaende
##eborg
utdrag
##innor
##asc
##ville
##brist
##wor
hero
gate
norwegian
george
kopplas
##vek
forrad
##astning
partiled
surfa
##regn
falken
gods
nacken
spilte
publish
fremdeles
prick
vispa
existerar
historiskt
skidor
##fett
snubb
industrin
tenderar
bitt
attit
##klund
barnehage
arom
protester
blast
fylkeskommun
blogginlagg
inrednings
##stens
##rycket
##foljer
spørre
##egn
turne
manchester
some
brunn
mes
energin
summan
quote
konsten
micke
##isme
fullstandig
##27
ey
##briker
##vackande
maks
grekiska
duscha
numret
batteriet
##kron
vitaminer
1989
ringen
##ofs
nakne
konsumtion
##°c
besoket
sul
ovanpa
katar
varberg
##parker
fantastiske
subst
utslag
##anting
spridning
stiller
engl
sena
kristne
innspill
hemmag
##merad
christina
namnde
##vann
foreldrene
avg
casinospel
blods
##arp
uppre
uf
aro
nyckeln
leveran
bomb
fad
wood
##atoren
barnmor
##ject
bikini
##massage
svarte
vals
leser
dejtingsidan
##loss
uppfod
mir
tale
boy
tankas
kvarn
prostata
gumm
gradvis
##skran
rol
skilsm
stodet
latsas
explos
galleri
mona
drabbade
kontot
njur
tillampning
##produksjon
varas
veterinar
kondition
##butiker
##saret
parfym
stabilt
bingo
kammar
kulturer
polar
arbeide
tork
rattvisa
klocka
##xis
arbetsplatsen
frik
ursa
kent
lektioner
intensivt
gabri
sovmorgon
cart
mobel
deltid
river
kopia
ade
sjok
kandidater
##plock
##unga
fororen
anime
##ekreterare
##ious
langtid
naja
fras
##jeneste
redusert
##ree
snarast
##hyll
ming
utgora
bruna
arbeidsgiver
siri
rele
akademiker
kompakt
vannet
omgivningen
plockar
utflykt
miste
vente
berattig
##settes
##beck
##une
utmaningen
##sleder
tin
##syr
##stest
##lampa
##tabelt
spad
innholdet
undersøkelsen
##holdning
diskussionen
brunett
syre
vatska
regelbundna
brotts
##ups
kvalif
##skvalitet
##akim
##foret
##pati
anpassas
domare
fragestall
tankande
resulterade
malade
##bidrag
tell
uppkopp
manat
login
kottet
lux
indre
interessert
vap
avis
kosten
##seffekt
nb
##foder
patri
stolar
them
blomma
flam
hostens
leon
slanger
ramme
##atern
series
butt
zoo
##vak
nærheten
ohl
##put
##bitar
##yssel
villig
forval
sparet
81
##plic
langvarig
dopp
bonder
##34
##frist
##arrang
sud
indirekt
sho
ignor
##hjem
positive
##agd
bidragit
stotta
creamp
nato
##alk
##sbolaget
hindrar
hemmaplan
patent
ultral
tipp
drink
jesu
pannkak
emelie
##gna
vinnaren
##oon
hyper
jordens
politikerna
varnar
bibeln
utmanande
flog
poangen
naringslivet
pt
times
eh
hogra
tillverka
chips
løse
patag
iordning
spilt
ersatter
##bai
biler
vrid
genomsnittliga
utfard
##uder
ellen
##kostnad
##rent
fingrar
year
stallas
huvudsakliga
stere
lampa
motverka
low
leds
utk
droger
avdeling
nettsiden
kard
enna
nes
##quist
##historia
##sanal
funderade
solidar
individen
skadad
melodifest
##ared
inhand
##oft
kusten
atte
##bevis
##scen
##klin
størrelse
tilstrekkelig
valda
classic
utenland
komprom
##77
psykiska
svarat
sax
slack
feedback
sakerligen
hamtat
gjennomføring
##tekter
##ørsel
bredare
inneholl
##forsta
blondin
amatorer
forg
anvandarnamn
ansatt
fare
relationen
##26
mottes
markus
styrning
føle
##klassen
##pning
bortom
##tert
datas
blanc
behol
hook
fotografera
statistiken
studiet
ostergotland
toppar
##sarbete
##frisk
##uf
##win
paradis
##vardig
##xamen
verksamhets
drabbats
##hurt
marka
kirken
kjenne
kompati
resenarer
inger
##smorgon
delaktighet
opphold
planeras
sammanstallning
latit
tarm
##farger
bankkonto
xl
trivas
skjedd
kate
##korn
raden
nyheten
miljok
fortsattningen
ront
trener
darigenom
bekl
##rest
ego
danske
ray
kulturella
dek
givande
nyttigt
swinger
langiv
trim
paj
muskl
medeltid
##fiske
##ckit
husen
prepar
blandar
arige
view
forblir
carlsson
redovisa
fysik
rubrik
category
trail
underratt
sja
##steknik
attityd
tegn
kopplat
##artiklar
dyk
kh
digitale
irriterad
avslutades
joakim
##ful
rattegang
kramar
pitea
##stillingen
lunchen
hands
institutet
##95
##sloven
sunt
##jene
lantbruk
rymd
##sfullt
utmatt
##ikanska
etablerade
##borgs
svd
intet
hemat
kollektivavtal
biograf
astrid
tegel
manads
fordom
verken
##ria
##omrader
##dokument
##annelse
##shot
ukjent
##ding
##sforening
karaktarer
grin
behovas
##smessig
##sept
ngt
domen
##personal
##album
stina
sofie
valfri
homosexuella
treff
traditionellt
##somt
pluss
stretch
##latt
styrelsens
samvete
horsel
fattade
grot
pressmeddelande
pedagogiska
serverar
myndigheterna
##ologiske
##drakt
foreløp
anskaff
##nan
vilar
fingrarna
sill
darpa
inventer
monteras
vaningen
services
##intresse
institution
xbox
distribu
vaskor
hammarby
##ydlig
forfragan
##dukar
morg
genomforts
teman
trettio
qual
##ology
##dyr
##vakten
adhd
english
forumet
hittas
kalk
skulpt
visit
##spot
##øtter
hindra
afghanistan
virksomheten
bladdra
pus
##arg
##speci
##pak
##stallen
lanar
eksisterende
##desig
uppdel
asian
kommersiella
##agasin
intraffar
##sval
tripp
##finna
avveck
forban
slat
oppe
kommuns
latarna
##room
hvite
sommarens
spelande
semif
##vne
did
##urgi
deltagit
##fu
silikon
other
harddisk
##ampning
tvungna
kanneteck
##innet
svaren
branscher
utbildad
charlotte
dokumentasjon
epost
skattem
yes
tiderna
leveranser
tenkte
oppnat
simul
provet
trupp
prel
pettersson
##ways
okand
delat
##tek
tryckt
##cas
inbrott
omhandert
angeles
inde
maximalt
##install
bromma
fisket
toy
##sidig
møt
elite
skotsel
drin
forenings
unntak
andrat
marian
success
pist
cc
flyktingar
artikkelen
krigen
##sidorna
##rr
engagera
reportage
hansen
##sfakt
energie
elektrisk
rør
trafikverket
innovativa
rt
forbattringar
oliver
bespar
##traning
varmer
##stolar
skrik
ersatts
rakenskap
##kategor
kalen
##oratet
##sters
fastnade
##vning
husse
##sverket
dran
##sbe
ataganden
vindu
##stalls
##inrikt
minskad
##scent
##ekont
##artan
##univers
konserten
skalet
##ikation
##jta
fardigheter
utreda
juridisk
omfatter
internasjonalt
hører
##ен
levt
##bullar
tanda
##ory
militara
##bis
transf
studerar
bund
fusk
fyllda
emellanat
efterfrag
manlig
biten
same
differ
langtan
diar
prognos
##alth
hip
faren
adoos
agenda
place
##verige
smala
skrib
sortera
norde
1200
innvand
##yy
easy
##36
sysselsattning
##indrade
##ørs
samlag
vietnam
forbruker
mul
toler
apt
arn
skanska
enkat
postades
stolen
tros
ingaende
framgangsrikt
##zan
rimelig
brygger
##hart
##ovningar
maz
motstandare
konceptet
imorn
rinner
##ador
louis
cecilia
vansterpartiet
revision
desperat
kylskap
lejon
##umma
inspirera
utat
##savgifter
granny
arbetslosa
forutsatter
forbedre
stø
##auf
sammanhanget
trader
sports
fotbolls
avgang
enklaste
tjenesten
bekraftelse
##onus
ersattare
centimeter
receptfritt
##modell
##hastighet
##lyft
##nastik
ladan
skjema
##esi
mente
##byggt
begransade
therese
##smarknaden
##bjorn
akti
lugnare
rally
overd
mb
verkligt
hembyg
blicken
##alem
stans
trycket
budskapet
##pulver
retning
svenskarna
aktiviteten
##sinform
strikt
forestallningar
tilpas
slap
##lust
intag
null
##kull
##koder
klanningar
gdpr
frascha
##ops
klimatet
rapportera
uppskattat
hotels
soff
logistik
##ringer
femton
##blar
dm
##strar
avslojar
kallades
##28
beat
hull
mut
nit
møn
njutning
##ов
samsta
betalningsanmarkning
##strategi
tobias
fjerne
##gorelse
flug
##givaren
liverpool
angivna
##period
bristande
forestalla
##alismen
##fiber
matning
wars
tyngd
fordonet
stapel
1930
masser
tillfallig
fattigdom
lanka
##ligaste
ansprak
inbjudan
skold
misslyckas
yttersta
begagnade
krossa
klassiskt
forbattras
elektroniska
familjemedlem
ext
tangent
benytter
##jorden
tina
attraktiva
##cu
##ross
stilar
##saktiviteter
fangar
champagne
##ekort
##panna
flyttas
saljaren
laskigt
betalat
pent
reflex
postat
franvaro
rud
rorelsen
##hjelp
sjost
##edomning
monica
arsmotet
hugo
byr
##unes
##vnte
want
##sansvar
dennes
arabiska
##økene
##ssnitt
amate
opprettet
##erie
jaga
##skapande
1920
##ifiering
##salj
##skontoret
granska
segern
tveka
tekniske
traningspass
dispon
ded
backar
sou
##seffektiv
##sback
vamp
atgar
experiment
fortjust
timma
stjarna
syntet
foda
##runa
##blomm
blandas
arrangeras
merk
avslappnad
urban
##fattning
finan
forkl
forsaljnings
grott
rykt
sebast
##forhallanden
manifest
##anlegg
##entrepren
utforande
##smetoder
hbt
utfort
telia
sexstallningar
##fotograf
krak
konstrukt
rekrutt
katarina
stygg
generationer
anner
##ekj
sott
##helst
overforing
##rand
##eds
##papp
nedanstaende
annanstans
igjennom
helikop
magiska
siffrorna
##ilen
supers
koparen
minister
strunt
funksjoner
sasonger
kraften
beskjed
premie
soph
##bonus
sliten
font
forsvunnit
texas
tyske
irriterande
178
slakten
##card
rf
##altar
hojer
enastaende
boendet
kjøpte
fantasy
belastning
vasterbotten
namner
nordens
rostade
valkomnar
##iserat
##inas
automatis
slekt
##baserad
filosofi
##sindu
fliken
##list
stadat
faster
forbattrar
##sperspektiv
huvudstad
utmana
kortsikt
##px
##uge
sortimentet
kartor
kraftfull
kapas
##car
insett
misshandel
auktion
canada
valbered
tolka
kogn
lise
umu
##helg
##oplan
kroat
knappar
arbetsliv
image
platserna
kjøretøy
##him
konstnarer
grava
##formar
formar
terr
kollektivtrafik
bust
hostas
nettsider
sydafr
byx
funkade
##uls
saab
livslangd
pussel
elektronik
##iteen
behovt
erotic
bedrivs
##shavare
bloggare
conne
psykologi
passerat
arrangerar
##forhold
##forbud
karnkraft
flin
sander
##lasning
flek
##ingenjor
##deklar
trojor
drop
##ato
##mig
olycka
##eback
arlanda
timmen
##itution
overk
kub
water
overvaga
torde
##modeller
trøndelag
cola
##spo
anlita
##anlaggning
givit
uppgar
upplagg
gult
krankande
klist
##illgang
kungliga
øvrig
verdier
falska
snow
ordnar
imponerad
skyldes
usd
trop
tandlak
##29
##ifiera
inverkan
byggd
utbetalning
kastar
levere
billan
utgors
drommen
accept
selskaper
smith
religi
##undervisning
absor
##idas
flesh
tillvag
evne
fullmakt
sony
vasentligt
trakt
rostfritt
avd
varumarket
morr
kroppar
placerad
hult
optimalt
europeisk
satsningar
bortt
dens
##cca
institutt
bitter
lasar
ale
pom
##terapi
sydost
##krav
##synet
##tanke
trojan
imper
publicerad
forsvarsmakten
utarbet
tystnad
kontaktperson
ordforanden
arvid
cyk
##vagnen
influ
sommark
ingick
typiska
løy
##videos
itu
overlam
##seg
stop
##formular
benam
justering
meddelade
begravning
johns
##mater
ikon
vera
kemikalier
lyckliga
sektion
belagg
kombinerar
##akor
graset
settes
transpar
jesper
##krig
kalkyl
vattenfall
pengene
finare
jubileum
smartphone
##varan
apps
versjon
ferd
privatlan
##parlam
odla
hudvard
befann
jobbiga
##overket
flackar
studerande
##skytt
kemi
1988
revolut
rolf
bryn
gjeng
welcome
snu
tvivel
grunnen
uppskattade
osterrike
spania
##imat
##henger
##horde
inleds
print
spelades
flytte
klassific
##stora
agnar
##rine
fastnar
whisk
svek
chili
utbilda
aj
sjalvmord
##ship
pjas
omradena
lasaren
##ortering
##æren
pulver
kalles
##napp
##das
antibiotika
dromma
japp
hente
##biljetter
digitalisering
ios
rostar
tankbara
mattan
##69
vibrator
##smyndighet
fascinerande
hoppet
doc
##sve
bruken
kanslom
kylan
beskrev
skargard
havre
janne
##situ
narma
##krets
framgangar
##ropp
samuel
quest
satell
forbereder
legiti
patt
smooth
lonsamhet
##aktiver
##perspektiv
anmalt
##paret
kyrkor
##ffin
arr
gjennomføres
skytt
##illverk
##skold
jattemycket
prester
giss
basis
tingsratt
##øyde
right
##ørn
myster
socialstyrelsen
mich
tranga
provar
olsen
restaurant
##utstyr
erg
utspelar
engagerad
take
forse
##ogging
##sprocess
økte
lidande
##sallad
smeten
elevernas
poliser
kraftiga
expand
##rafta
velg
jensen
bevisa
sarah
motta
malvakt
aktive
onlin
otrolig
krom
disney
##medicin
demokratiska
leksak
behovdes
brant
second
grejen
##domstolen
klinisk
smartan
konstaterade
##stur
trene
citer
dokumentet
##øtte
intraffade
kerstin
##icia
organisasjonen
##bben
standarder
agnet
anhorig
telefoni
avsedda
omvard
sendes
forfog
koncernen
okande
hariga
testam
overskott
kannedom
kiruna
bokade
funktionshinder
babe
quick
ør
samsvar
##71
extrema
vakker
politi
escorttjej
ende
trygt
style
lador
forskole
##ky
##utte
makeup
##lassen
##legger
transaktion
medverka
pastor
lurt
##cin
papr
##smiljø
faktiska
jonkopings
kanalen
##angden
lampan
##rester
ventet
exped
flyter
##oken
##nov
##rede
landbruk
##vattnet
tomater
##yrkan
golden
lyssnat
leo
##vanliga
fager
utvalget
nyanlanda
glod
##istiske
##ssas
heliga
disken
korru
genus
posisjon
##fylld
dolj
kirk
strackan
##dotter
mastare
utvecklade
inledde
nasjonalt
##handlare
creampie
##ird
##ektor
reaktioner
sakrare
giv
bass
arch
kamper
##to
lagras
##ipa
##deler
##sammare
bangkok
retningslinjer
veckors
##etil
##given
mobiltelefoner
inratt
##okning
##count
fc
brostet
chan
førte
kreditt
tul
tide
dispens
rene
equ
russland
##eledam
avt
lay
kemiska
argent
utstallningar
ledet
bokfor
konferensen
tilfred
##bos
hovedsak
tillfalliga
##sadress
##korning
oland
##essan
radhus
kø
vra
##dinge
forestallningen
##bevar
##spersonal
ær
##srevis
drycker
##ental
middel
analysen
##nær
stiga
##skikt
tvinga
lest
shorts
bollar
tupp
halsband
salong
##straning
konsek
felaktigt
ruta
forbattrad
##issen
##grav
strategisk
##ordforande
##sgrupp
reform
interra
røde
garderoben
nedladdning
##run
aktører
##ates
bk
##ologin
##jel
##utvalget
##byran
##oarer
##bock
onsdags
konfir
levnad
upplevde
##forman
caroline
##kelige
teorier
basen
simma
##studier
aaa
##sey
barer
foraren
##ariga
hamtad
forfattar
##alds
orten
matchar
##fari
chill
##luft
fær
sangar
melding
olyckor
jamnt
##ynene
varandras
metal
drø
##ventionen
kalorier
sodermalm
hylla
audi
skrevs
trangt
fjort
kjend
viktigast
##atts
korning
redu
blackjack
##arkiv
dc
##iks
##skede
kontaktannons
vidta
##vagg
jansson
paras
co2
kastade
##my
slem
forlangning
fester
bekraftar
seminarium
avsevart
##house
fut
blodtryck
##slor
##cykl
##arl
##ofog
##asar
sjalen
vardefulla
dressyr
midnatt
##idningen
ungdomarna
wer
creme
1987
##ledaren
fallen
##svenska
graviditeten
nodvandigtvis
askad
bokforing
kritiska
barnbarn
kakade
tillskott
staffan
##bill
laddas
bærekraft
tej
mediciner
##kropp
syndrom
##akers
rap
forkylning
glam
hair
community
egypt
trek
miljob
sammank
erhalla
svaga
infektion
bussar
##stamm
kjempe
fortryck
escorttjejer
endte
hverdag
##kedja
mit
##autom
lovade
##strakt
strider
campus
beck
tilhør
trekk
##lakt
avn
##horn
##partner
pappas
foljs
nyfikna
harald
snakket
ryn
##ningsmet
utsett
utskrift
djurgarden
kd
dejtar
signifik
omvarlden
tisdags
tillampa
##firma
psykiskt
##kit
snus
gad
utov
publicerade
arsen
skjønnhet
##oment
tilskudd
overord
artikkel
##skyddet
luftk
##intresserade
allians
##vagnar
forpackning
fortell
forde
nedat
frascht
syv
##sparken
##holdene
forsamlingen
moa
offis
osyn
norrbotten
exakta
skype
mary
beta
snusk
overflod
##fonden
utdel
speglar
##endo
finlands
##egard
##ulara
syrien
gp
##smote
omega
dt
nal
##skurser
runde
tavlor
kronofog
##strack
drøm
skjor
undersøkelser
##rere
1940
effekterna
villiga
migran
##ienterna
officiellt
ebba
##olo
energis
betydelsen
ledere
dil
##utrymmet
kravande
bygd
dial
mort
stycke
arbetslivet
##mets
forsakringar
syrran
##gan
##angar
discipl
belgien
nettdating
astr
##ping
lass
malsattning
trill
##mund
manu
forvara
##aliseringen
reparation
datama
lyckat
kristin
styrs
##utet
utova
leie
##edning
uppgra
vesentlig
deltok
allsvenskan
løpe
uppfattas
medfora
##oka
fucking
##asjons
tripad
##bers
etterhvert
angrep
betaling
##festival
fotografier
1986
ft
ank
##blod
internasjonal
##spen
##ining
suksess
sender
cyklade
##psyk
dagtid
skyddas
omfang
##umen
bly
institusjon
institutioner
anmel
gnall
kapten
rede
za
taggar
##kontoret
boob
skiner
familjens
sapass
økning
vackte
pern
##valet
svak
amateur
skiten
nyfikenhet
forvaras
##ycker
jimmy
anstalla
##dis
traffades
skadar
umiddelbart
kommenterar
produceras
benyttet
##kultur
figurer
sanda
ups
meters
##ame
brons
magisk
bella
##edt
##lings
##ashion
kf
sektorn
brosch
##sbi
##nation
intra
bacon
tilpasset
namnt
optimer
uttalande
fullkomligt
##spapper
product
tort
kyrkog
kylen
slangde
##ivir
beloning
planlagt
##esultat
collect
freesp
landstings
450
##smo
upplosning
mangel
trell
undviker
begrenset
forfatter
##38
frekvens
annerledes
utoka
trotthet
##nr
somnar
opprinnelig
chelse
veier
tilfel
barnehagen
nagorlunda
##wi
pryd
friends
paminnelse
slas
gatu
##skare
kapittel
sjunde
hemt
drept
fundament
##foretagen
##nis
##sat
avslag
##trafiken
##esty
distribution
tvist
ført
foretagande
erbj
pojken
tidens
galna
krona
landskrona
komplexa
folkhog
odm
jevn
fotot
##sprinci
propag
##chi
##festivalen
sattas
proff
vasa
aust
parallellt
kulturell
skoler
ledighet
##filter
inflytt
valdes
forvantat
tf
arbetare
valbef
php
fungerat
porslin
underholdning
illama
lades
letat
bekrafta
##hub
rune
friskt
goa
barbara
##iket
nedgang
datingsidor
sexual
fasen
miljopartiet
##mu
maskerad
vark
##sdirekt
flert
objektiv
hvilket
foreløpig
realt
nanting
torp
pappan
cyber
anknytning
evighet
datingsider
stadium
froken
tripadvisor
vardel
070
lagade
feel
##bang
saljas
tyckt
kaffet
##bryn
nhl
##dubb
numer
##nivan
tvaa
##row
koks
aqu
interracial
uthall
valget
solned
oce
oppfatt
sekreterare
benet
umgang
apelsin
##essa
##havn
klokken
gissar
etterpa
##konstru
erotikk
understre
##64
handeln
##akare
##ammare
likvid
skyldigheter
kjørte
##point
segel
lapparna
riksrevis
hk
##enheter
snallt
##posten
arbetsgivar
roka
fattat
inbyggd
anpassat
marina
beviljas
1985
livstid
sambon
comp
kind
##odd
leverantoren
cho
naturvetenskap
historik
##universitet
prosess
##byggnaden
##rets
konsekvenserna
skalen
forskarna
##ungar
handels
manipul
huvudstaden
regnar
terapi
##filer
##tabel
##mens
mentalt
malat
##hot
inleddes
smas
bygde
smakade
##brom
##skel
turnering
bakken
##angt
skjuter
##ningstiden
##cation
toaletten
kalv
vedkommende
utsidan
##banor
samarbeidet
amp
ljusare
uppdaterade
otrogen
lampar
##bella
proport
##cted
coolt
tamligen
##rapporten
cougar
sebastian
##ymbol
synonym
##iliteter
etablera
random
balansen
sjatte
scb
steph
##drat
##kol
doman
allergi
frans
linus
konvers
svanger
##buss
##artor
tilltrade
##svetenskap
jagar
##fukt
179
handle
exklusiv
varsel
stimulera
sjukgym
skatten
spenderat
opplevelser
##oa
##brudd
##uv
##ekan
##assist
prenumerera
nykoping
registrerar
kandisar
##iskor
passe
horlur
blaste
utlaningsprodukter
positioner
bern
swedbank
##ærende
zon
ressur
##ombud
##glasogon
##sfest
tusan
kristall
trenings
anvisningar
aber
##golv
##resta
angrar
verksamma
situasjoner
##hemmet
hex
receptionen
samlingen
retor
stater
##ekyl
stadsdel
onodiga
##ili
strander
##egen
##tein
##runda
klump
wahl
##ommet
kallaren
somal
##ikor
##slosningar
mineraler
axlar
myk
##gare
gustafsson
sekt
##cont
##fix
ansokningar
##derad
hiss
hemska
##gilt
klanningen
##egge
eventuelle
tredjedel
gave
relasjoner
innehallsfor
prioritera
reading
flexibilitet
imorrn
daribland
handlingsplan
boj
arbetstagare
rosor
spur
belys
direkta
##forklar
##inos
invandring
efterratt
ekster
nisch
prisvarda
europaparlam
##petens
kjemp
bolan
##eldinger
skapande
polisens
##lans
nulaget
asfalt
##vardering
##interv
milliarder
##nick
badet
osk
tilfelle
butikken
##rukket
snackar
uh
##eriet
nagel
hf
kunstner
sprungit
piano
itunes
##riper
yoghurt
publicerades
utlandsk
##insats
tiger
self
svalt
##minen
brevet
##arerna
##itioner
atom
spre
##aser
oljan
ikapp
fost
befintlig
##olan
obekvam
##berattelse
broderna
heart
finansiera
they
inspireras
when
landslaget
budd
##39
##jak
javasc
##ikationer
opplysning
enig
##sattnings
gladjen
omgangen
hanvisar
##edin
inlaggen
tingsratten
respon
stoppar
knullkontakt
aran
øynene
skrot
nødvendige
lykkes
evigt
versioner
javascript
sjelden
informasjonskap
ral
popularaste
tl
msek
luftkondition
rig
foundation
flaskor
uteslutande
engasj
##loppet
sahl
underlaget
upplaga
##anpassa
doll
visningar
paminna
skuespiller
utesl
nufor
regelbunden
materiale
nøk
omfatta
ons
marktes
pub
jattet
carina
##stader
strump
ekv
forsiktighet
dep
dugg
##bolagen
resmal
##lorna
##forsorjning
cover
skarpt
##wall
tab
vedlegg
##avgifter
##zi
elektriska
##flodet
tradisjonelle
##amatch
##ential
gon
##senhet
ansett
moderat
forandringen
##wan
##helm
##sklipp
forordningen
synen
kommunstyrelsens
liste
klockor
stold
rutt
skattef
elef
upptagen
##oke
studenterna
##sstod
brown
hejda
hage
##kler
##tit
resulterar
##stede
forbjudet
gyl
##fack
uppnatt
##namndens
ishockey
nojes
fetish
##ply
notter
støtter
tvingades
##messig
storningar
kombinationen
##skaffa
##kir
eid
scha
overs
biog
atervander
umulig
true
##kunskap
bmw
##flykt
fonden
ponny
uttrycker
##organisationer
tillats
inlam
arsskiftet
##32
grater
utgift
vy
strategiska
guiden
##anol
##risen
almed
brinnande
nederlanderna
solsken
packade
##forare
##skilt
inledande
halsan
avbryt
romanen
stoder
frykt
gjens
champions
psyko
fastighetsagare
##smann
##ledningen
##vinkel
##rening
msn
##usalem
dron
fortalte
##ommun
milfs
oste
huvudperson
kaller
tillbringa
jfr
1984
skutt
##haha
##delingen
svea
##terings
##riska
tysta
pressen
##66
flitigt
tras
fisker
medlems
effektivare
vettigt
##stjarna
##yth
jattefin
##haug
##trakt
fortid
kilde
##natet
bob
##chatt
copyr
redogor
trakasserier
##jem
isak
unionen
husets
behandlet
nufortiden
mygg
##alan
gudom
samhalls
##sfun
anstallnings
##raget
##cet
perm
skjuts
susanne
adresse
##uttag
##ded
##entets
##byen
##spunkter
tillvaron
elektro
brid
gardagen
densamma
washington
##gre
leverer
næringsliv
kristiansand
avunds
svagt
stemme
boss
blogger
##peraturen
programmering
##ektorn
avslutad
løper
##emin
##made
##37
indisk
jerusalem
##sele
law
dyn
harig
##sverk
hotellrum
følelser
prefer
begynt
amatør
##insen
spenderade
kukar
arbeidsmark
liggande
webbsidor
chris
kanin
bunn
europeiske
##phones
temperaturer
atskill
saknat
enskilde
brasilien
##andid
skyltar
kvarts
ration
bubbel
tkr
uppsagning
verksam
kryddor
##alistiska
rorde
underveis
track
fortare
liga
proced
##betalningar
stolthet
biologiska
##ason
##obi
##rakningen
tos
##spark
trelleborg
abort
uppsattning
##ripa
medverkar
kanter
##styrning
universum
adresser
motes
onlines
vond
isolering
oon
##sche
dyre
utlø
fashion
oppstar
ingenjor
pock
secur
kink
##mad
overraskande
influen
studentene
drabbar
regelverket
helgens
nasa
juice
##lighetens
sensuell
company
ringar
moster
##vaxter
handboll
operator
##stenar
tagna
økende
erbjudas
##ving
jamlik
overstiger
utformad
##mare
utskick
samlingar
academ
skolorna
profet
styrelseledam
tipsar
##garanti
##44
##eger
bertil
upprikt
vastern
morkare
rimlig
hotellets
felet
##sutvik
uppmanar
##immer
nuru
promenera
105
finsk
celeb
haf
tilfredsst
marit
ypper
grannen
ribb
##opplysninger
selge
sura
gestalt
##ergi
mottatt
lasta
omgangar
##holt
arbetsmilj
trost
fordelning
ulrika
aer
berakna
bransje
skylla
tilnær
dommer
dods
territ
telefonsamtal
forhor
knullad
##invest
kottfar
sommart
inteck
idrotts
##tvatt
langsta
kompletta
fetisch
##blet
##eliga
skuff
##øen
kristine
rann
davarande
opplevd
##belopp
##lubb
##forsaljning
lake
frysen
##vap
grep
druckit
strukturer
prover
##gruppe
freespins
##rotok
marknadens
##lav
fikade
md
##mg
akl
innebandy
herrar
weekend
##ribut
##ception
##oro
##saks
handverk
knall
##deringen
likest
vanstra
uppmuntra
mottagare
##eraturen
##smot
forskjellig
rysk
##kre
model
##verken
##attack
turneringen
landade
startades
zoom
vaknat
cookie
##rostning
albert
149
uttrycket
polyester
trappan
##uma
angelagen
overlever
exponering
million
beslutsfatt
riktade
hetaste
##etting
sistnamnda
rettet
smed
taler
db
avbrott
forbran
olivolja
nabo
ostersjon
nekt
kopiera
elsa
##forbrukning
beslag
pip
kreditbetyg
felaktiga
utrustade
##fargade
copyright
anat
##junktur
tugg
dagbok
vurdert
traditioner
akershus
mannens
##hur
resort
hangt
hamtas
kurset
analyse
forluster
samlades
koncentration
##biler
sjukvards
mature
genomtan
puls
##100
onskad
behorig
##oni
runka
##iche
##vags
webbkamera
krisen
godkjenning
gyllene
##spiller
plockat
soner
huddinge
marianne
sakerstaller
joel
fjader
mentor
inblick
##ра
donald
innbyggere
behaller
##flix
driften
diff
radgivare
spy
##vardigt
1982
bytas
melodifestivalen
omslag
uppnas
##familjer
andliga
mester
come
agneta
saud
formaner
##manad
dramat
standarden
##icitet
dark
etablere
##iren
travel
bosatta
oversv
plassen
rosten
##organisationen
bestand
uppstod
##dade
slaktingar
konfigur
kontrollerar
##smast
kopier
knyta
##elett
novell
samarbetspartners
exot
forberedelser
borr
utnyttjas
##plast
inkluderer
portion
valpar
tillvaxten
kliver
tjat
skapades
pink
karolinska
##isont
kb
vekk
forfrag
overblick
hemmal
detaljerna
##egrupp
standig
##kende
rekommenderade
uppsats
principen
##esome
egnet
coola
landar
dumma
pah
bryst
##agningen
applikationer
##ningstid
##isterande
motorcykel
hansson
foreskriv
##befolk
##status
hørt
kameror
grev
pannan
signatur
manglende
bely
ovar
sparade
##pisar
##kusten
handledning
marginal
kvinnen
vri
##nett
hurtig
lem
grymma
##driv
naturvards
##ljud
mosk
overtra
avslutat
trollhattan
##sbrott
##ammer
fremtiden
forsøker
plassert
sporten
queen
zlat
nova
solgt
malgruppen
aterkomma
lovande
innbygger
systematiskt
saff
jackpot
olav
##ffarer
##skivor
perf
##iction
logo
kopman
hevder
framsidan
jour
##hc
##promenad
depri
brow
sjof
fitness
osakra
##market
##festen
##aken
passera
##mys
fragat
return
stilren
glitter
atkomst
##less
profilen
sittande
##gade
##forandringar
minimal
##artat
professionellt
blommorna
##rorelse
smalta
##sbyra
beredda
hamp
##splasser
stadigt
robust
jennifer
levert
moun
tillvaro
kosttill
uppr
landa
dofter
india
lee
##rics
minner
jø
##nara
##fokus
noja
ged
antyder
nos
sollentuna
flode
karna
poet
agder
banen
dryga
siffra
fryser
grafisk
ultimata
racing
tranny
planerna
##svan
country
hogtalare
nærmeste
kostym
jattel
handledare
##88
halvan
amazon
stram
##intyg
##valda
organisering
minutt
##banen
##stoff
klattra
hemsk
##litteratur
##ovic
health
##sfon
vetenskaplig
bluet
ensamhet
##kyrka
hagg
blues
bestallningar
etikett
##ikar
frivilligt
potter
##utvecklingen
svan
bista
melde
tits
##sproses
##ryl
##jek
bedriften
yrken
menas
frals
leke
avsluttet
chelsea
hjemmel
##resp
nyhets
betyget
staket
fatol
bostadslan
forflutna
passagerare
##utan
lindgren
kapa
apparater
agarna
butikker
falkenberg
##arin
stationen
nakenbilder
##forel
giftet
jim
offert
song
galt
##opplev
pinsamt
surt
logistikk
insatsen
autent
pensionarer
##eli
konkurrenter
##spre
##spartner
##styp
obama
nass
klor
termer
agil
##ilar
1975
orkester
smula
##lagd
##adens
##øye
##smodell
linkopings
regleras
kinesisk
##ttid
krydda
spol
varens
bing
##gelige
aringar
laror
olyckan
legendar
grova
##oooo
formann
precision
polska
aktor
##field
flock
slutsatsen
##bbar
kollektion
slu
kakan
##ito
madrass
sannsynligvis
transform
comment
listor
inntrykk
generella
##ize
auktoriserad
formalet
##sbordet
##goring
skjønner
##nd
##omme
framstar
##atoriska
##forbundets
hassel
investerare
utø
sjalvklara
lonen
formularet
muslimska
havda
deck
skl
##orns
##spresent
gross
djav
##unget
snakk
varakt
friheten
sentralt
bohus
bjuds
kamrat
vagrade
##staten
##plex
munch
debuter
lc
omradene
slam
##order
ranking
anmaler
avsta
installd
fiska
dance
hacka
besokarna
huske
avsked
##jong
eventyr
uppskattas
hantverkare
avkopp
tillverkat
dolja
skrid
obligatorisk
butikerna
berakning
administrativa
##sljus
kombineras
##stander
plattan
##ojda
akademi
##miljø
jaa
helset
opptak
falsk
##faktor
revisjon
kevin
##55
##но
sakalte
charlie
##emiddel
lærere
sark
##resjon
##satts
bostads
kommunic
arten
snett
stadgar
overtid
entreprenad
systematisk
fallit
lackra
godkanna
litter
frysa
skrivna
ledende
betalade
forov
eksper
avstandet
fordons
glidmedel
fish
godaste
ava
ora
insulin
jull
aur
vardefull
ljusstyrka
lg
##itiva
bestams
prot
sorgligt
assistent
given
registrerat
utseendet
##larare
ovenfor
##yen
hyster
raddningstjansten
seminarier
andan
lekar
hverdagen
lrf
minste
matilda
##iza
##usa
judar
tranas
##riar
norrtalje
chi
arenan
regim
##smyndigheten
sanker
producerat
presenterades
foreslog
motivera
rasism
banor
##glada
pavirke
aningen
skadliga
valbefinnande
brus
sala
irrit
##dringer
osakerhet
##arkvall
langtat
avled
diagnosen
patienterna
jenta
##sdal
brunt
nordvast
drammen
hojden
ferdigheter
hord
ligge
proces
frukter
##urell
##rickor
backa
##okande
##parti
husker
medelalder
##avtalet
##ume
gradda
surfplatta
anlit
slicka
utvand
klitor
##can
dekke
##grunden
stallningar
ross
tonars
branna
spenderar
reflektera
bestill
nitt
##føringen
##strøm
##tavling
referenser
##elia
bilens
##mojligheter
author
fastnat
yngsta
impro
nydelig
angrepp
ds
klagar
forlossningen
fjerde
departementet
knappa
##nev
hybrid
produsert
##summer
lykke
nyare
jpg
forkyld
raskere
markedsføring
fp
##inkt
excel
lønns
arsaldern
##inf
telen
haver
utdannings
##tter
##fabrik
hamburgare
glade
##master
sammantaget
skaffat
##utor
dk
wien
##sspar
animer
krono
##sstud
shir
vask
##butiken
grundare
pitt
direktør
##match
##ielt
jurist
paborjas
planeringen
bankerna
listar
kuddar
##rafiken
titan
finnmark
dropp
##umul
detaljerad
insyn
risik
vinnande
alexandra
kompletterande
mim
mistet
##kara
##veckan
##urens
spana
uppskattad
bokslut
budgeten
datter
krog
gunilla
akuta
##odling
lagligt
escorte
##savtalet
poll
fantasier
folkhals
pluk
realis
##ippi
hoft
##rogen
canc
##agon
utses
scott
##nivaer
##ekonomi
samarbeten
framling
bluetooth
ideell
grø
bullar
destination
skapet
behar
egypten
applen
leken
##føres
cust
upprepade
manuellt
skadan
grundskola
sperma
akvar
##oto
riskera
##sbidrag
uppratta
operationen
ali
oppstart
vasby
sco
isar
##nevnte
reiseliv
sydvast
##kladd
opptil
acc
skagg
bristen
kronisk
meningar
planerad
230
intervjun
isk
synliga
forskolor
besvara
tyget
valma
reagera
kompress
slum
løsningen
##ektioner
##hord
konsekvent
spansk
gymnasium
brukerne
240
vansinn
##fonster
##imp
helikopter
ikt
##ketter
sundby
##stadning
radande
lovet
##examen
blocket
riskerna
##mede
lp
lanserades
gry
moro
nora
beskrivelse
##husen
veiledning
##bilde
mekanis
galden
lektionen
fle
##oppgaver
ere
hert
rasmus
tapeter
spesiell
akademiska
grundskolan
borgerliga
trappa
judiska
sjel
##ierad
praglas
quality
fullmaktige
søknaden
handlaggare
##teg
slant
nystart
fullstendig
lofven
chal
##olycka
kravene
byggda
skede
operasjon
##utbud
friluftsliv
ericsson
##tagande
##olvet
planlegging
forratt
fleshlight
forsakrade
bestamd
tony
applicera
##vekst
stjal
følte
##loshet
arsaken
privatperson
ala
##utdanning
hassle
uppfattar
750
entreprenorer
tove
##well
fitte
vital
rumpan
mansklig
jones
##plet
betrakta
netflix
##ogenhet
malning
##skostnad
##sens
trivsel
manen
rabb
##utskott
sushi
##vade
starkaste
##oja
rakat
styl
uthyrning
##falla
kretsar
lss
fodelse
rekommendation
uka
rgb
##omsorgen
spruta
byt
kastrull
##rotokoll
fotade
grilla
##ennelse
reformer
italia
##200
fylls
lives
tillvara
helen
##sersattning
illamaende
dansade
forestallning
skuggan
##funktioner
sb
gangavstand
gavs
gynn
mp3
frp
smaforetag
saldes
forvantan
israels
milan
oppgjør
1973
elias
##fore
faststalla
gjut
tvattmaskin
immunforsvar
seo
bf
##rec
##rettet
hittades
##oar
##svid
djung
stoter
kvick
vastervik
skaldjur
gatorna
kjøpes
stravan
##pix
santa
abra
lurer
hindre
##losningar
tval
opinion
soderut
220
blommar
##smuse
heltack
konstnaren
soppa
organisera
##plo
minimera
##matta
salv
utgitt
##sbor
fossil
saint
##fjell
forbunds
slet
intelligens
planbok
registreras
lapt
##isade
bie
tecknade
genomgaende
andres
##upplevelsen
hunger
konf
##fect
foregang
brattom
##ofta
tunt
glitt
##version
regionalt
svare
lillasyster
beaktas
##holdsvis
affisch
inlar
popp
praxis
dax
agerande
uppdrags
storebror
sjalvklarhet
krogen
latest
annonsera
##iderna
reglering
##dec
##plar
sfs
kommersi
veron
hogtid
hjalpsam
continue
utkast
upplands
nøye
antis
flexibla
forverkliga
tillgodose
bolagen
befolknings
blickar
forlanga
huv
##sforbundet
hudik
##frek
kravde
magiskt
utbildade
lockande
nicklas
fornyelse
gravida
##ekret
scandinav
##avfall
##ender
##ologer
##anj
lime
dør
dov
##kninger
annans
dyp
overgangen
koncentrera
strip
gardiner
tik
mattnad
##sledande
forvandlas
##partiets
existens
##bjudanden
ambulans
smabarn
##eknik
vardnadshavare
trekker
fullstandiga
persons
##virkning
##aki
formagor
##dejt
##aktigt
eksam
skrika
utmerket
very
##adan
rimliga
tempel
livskvalitet
##miljon
##detaljer
busty
tidpunkten
partene
##skrivningar
enige
##monster
bakifran
tenk
ytre
area
slad
##arkite
cry
karen
kirurg
sweet
gubben
petra
edu
kare
sis
tjenest
##galler
##85
foot
cp
grim
kista
##namnd
##samhallet
konflikten
gin
lagstiftningen
merit
tjuv
##inson
kwh
møtes
##æringen
uppslag
massiv
preget
##sforeningen
##etabl
rattvist
johnny
##hz
kyrko
grenser
##die
fylle
mojliggora
nærmest
efterfoljande
superbra
gymnastik
misshand
claes
##dals
avslutande
chicago
paverkat
axeln
##utslapp
rattighet
aterhamtning
nede
case
##cion
jorgen
hode
ringt
namnas
##sbank
lindberg
bredt
musklerna
tight
informerar
forvantade
uppdaterar
energieffektiv
##orry
stug
mulige
ogonbryn
socialtjanst
satsningen
parlamentet
konkurrensen
##pase
iss
blaa
gladjande
dodsfall
intensiva
##head
otaliga
borgenarer
kosttillskott
myndighetene
##fodda
pavag
##slager
varar
flaskan
fungere
opph
hjalpen
stoppet
##kla
##eklass
##bris
hahah
slutsats
ridning
##avor
##sstor
godnatt
klem
forelasare
frisor
peka
valen
1974
inleder
hydra
review
ntb
xham
tilstede
forstarka
##skifte
##antorer
their
##ummet
jane
##vanligt
##ibelt
ekskl
biotekn
##umret
bakade
ulla
vegetarian
radets
netent
##ovlig
##spaket
thailandska
share
charles
##somme
dessert
avkopplande
rullade
intu
##scy
fars
hul
##skru
kunnig
subjekt
pontus
skjorta
efternamn
##agarens
gent
mordet
arsredovisning
oppgaven
stapeln
oppf
homosexuell
##øter
##yttan
ansoknings
##trada
##planer
skriftligt
verkan
pala
beteenden
allihopa
zomb
borsen
sykeple
villor
eskortt
deltakere
1979
forsakra
##rekk
kostnadseffektiv
##umb
medfoljer
oforand
##ifa
forskere
uppstatt
norrut
sjukskoterskor
kw
##ream
attraktivt
##shantering
melder
omtyck
komplicerat
##valg
boenden
gangvag
##cho
forventet
parlor
hjort
sekretes
##foraldrar
##ody
vondt
demens
##agaz
varva
djupet
skugga
##kompis
##forsakringar
resande
anstrangning
levende
forbli
##fargad
uppehallstillstand
volont
##elius
cirkus
merker
herlig
ugg
fab
vika
guy
representerer
beter
mixa
undersoker
personnummer
##spolitiken
user
sands
skulden
siffran
opposition
færre
plattformen
skots
lagts
besvikelse
stovlar
##svarde
##ostnader
pelle
snabbaste
sakrade
photoshop
##cat
dorrarna
##sbacka
redaktion
foregar
likval
kamer
##karl
kombinasjon
phone
lojalitet
kopplar
##jade
grabbarna
tandlakare
urvalet
vata
tarna
luci
riva
##ligheterna
namnen
sterkere
job
energim
besøkende
ufor
##tech
##berry
tjansterna
innr
##grona
streaming
hejsan
ramar
sved
registrerad
##flyt
tass
##stars
glaset
korte
hoppats
opprettholde
iofs
##vsjo
presentere
angra
mardrom
schamp
valmaende
##ligh
avlid
jordb
tyger
helheten
nettbutikk
beskedet
tummen
francis
torkar
##rala
tackade
deut
##stamma
##ialen
jackpott
spo
korrekta
skolj
hastigheten
kritiker
gavor
##møte
ansags
halsosam
genomskin
##sinformation
champion
##sbud
forfogande
temp
mottagaren
help
vardagliga
hest
agnes
space
staderna
fia
teckning
salta
koster
kjørt
domaren
defens
formel
utarbeidet
hemlig
indel
spam
##fal
tjus
foraldral
##operat
balsam
hyllan
reporter
biologisk
##kapital
katolska
innehallsforteckning
yn
skaffe
##hm
##opplæring
onskel
talan
cupen
decennier
##pter
##iseringen
standiga
pavirker
formedlar
alfred
naval
##etning
##via
##media
ingrepp
hipp
p4
socialtjansten
sølv
framtradande
clo
elg
##erav
sparat
attity
##malet
passerade
##egenskap
##ikerna
##altet
##peuter
##lasser
avstang
kroatien
tjur
##visande
##tecken
chauf
short
family
hjartans
medvetenhet
sallskapet
##odden
otto
orim
utlov
1968
arbeidstak
skattes
##innehall
skry
woman
##terer
partiets
fiender
hurra
artion
tida
spontan
dou
lattillgang
vanja
medborgarna
certifierad
kis
heldag
motas
tilgjengelige
evig
wide
dansar
##ikkerhet
##skatten
##tøy
vida
##prins
##latande
##ssjef
leter
##ssenter
viljan
finish
drivkraft
atel
rakor
##admin
overlevnad
##rutan
##bestall
##sesid
##kortet
passiv
trig
stangde
henven
brygga
oljor
models
tilfeldig
separata
##hett
##nades
utenlandske
##ørte
##omt
ng
omvardnad
##smass
fou
anvandbara
bjods
##utbildade
beskytt
smil
two
tore
aktieagare
wc
##vinn
beskrevet
nordost
utflykter
gjennomgang
##stillfallen
styrkor
##atin
##splass
##radande
midten
klippet
stasjon
rullstol
vinteren
core
state
sned
forklaras
tver
telef
##nek
omsesid
##cyklar
nordea
##oma
##ized
boden
publicerar
##vaxling
adidas
underhalla
mannisko
##floden
gomma
bitco
##pekt
lofte
laddat
##ryt
arkiver
luther
tillval
tillt
rar
##førsel
joss
workshops
renovera
##foreningar
obligatoriskt
motorer
svalna
##cake
katrine
##kalas
naturreserv
inbyggda
vaningar
konstverk
centerpartiet
##olk
grunner
stamm
oppfyll
kampade
atmosfaren
kals
inhem
olik
feltet
firas
sikrer
reddit
redovisar
##nok
##ingsas
stekt
##illstand
koselig
ryttare
##arenden
diskusjon
##srel
rorlighet
miljard
##hogskolan
fods
##oso
ice
1945
upprepa
##sledam
##reger
##fika
laroplan
elden
ungarna
anlande
than
ingredienserna
kjøn
foreslagna
studierna
onlinek
misstankta
##matning
kundene
hemlag
##sstat
##skyldig
##86
collection
elf
bidrog
zlatan
artikler
skyldiga
tillkann
paborja
vassa
palestin
kyst
krasch
moh
##vidd
bnp
##verdi
dvar
gedigen
modellerna
fraser
friend
tvers
hembygds
##givningen
bonn
migrationsverket
podcast
##emen
kunders
mcdon
afrikanska
manuell
##sfrihet
apparat
##skontrakt
maler
ove
skank
##vering
muntlig
##informasjon
##glass
whisky
rorels
kristi
hosta
snyggare
##kers
##stips
garaget
oppsummer
skjort
##bloggen
kloster
##sdotter
ledsagare
115
fengsel
litar
tyres
franske
177
foreninger
tillbringade
gynnar
tvn
##sprotokoll
##sbrevet
mister
ideella
kommission
oroliga
sammens
kosmet
infordes
skotte
aterstalla
##lege
blandningen
tryckte
ornskold
inkludera
locket
##gardar
town
dialekt
kallelse
kokt
regulering
motala
##handlingar
adop
paprika
lokalerna
##ido
presidenten
aterfukt
klitoris
##iseres
1978
ifragasatta
forklaringen
visades
##lappar
virksomheter
kvinno
forster
reservdelar
##athan
spontant
bergman
##klam
pernilla
twe
margareta
duger
tilbudet
pyssla
relax
##ellack
##vei
##forvaltning
animal
gung
vurderer
##shjal
kompetensutveckling
abraham
forebild
vurderes
leverandør
samtalen
##flickor
hsl
##borden
clar
1976
besiktning
proposition
ivrig
engasjement
##idi
ungefarlig
##museum
utgjorde
grupperna
underliggande
adri
##samhall
##bygging
4000
karaktaren
mattor
molly
pornografiska
##løsning
stegen
smartphones
jen
##fyllt
sydafrika
supporter
onlinespel
rattare
##gymnas
timmarna
ateranvand
##frid
ettersp
##ulla
framkom
branden
##andets
styrker
sif
hets
malta
verksamhetens
1983
valbehov
deal
innehar
##imera
truppen
##vensjon
oden
##pill
##processen
##være
##vari
kommunale
##gener
sving
utfar
framjar
165
sjoar
##barns
##denter
##skultur
##resund
##skigt
porrstjarnor
##terapeut
kraftfulla
jattero
avbok
dennis
knat
##andning
flyget
smalter
##represent
herunder
kaliforn
samst
kolum
beting
illeg
kapasitet
tillatna
ornskoldsvik
##31
evaluering
bodø
atervinning
##ience
anpassar
##sbilder
uteserver
protokollet
filipp
##utred
hanvisning
kritiken
##retten
1972
expansion
fadern
##istene
playstation
experimenter
vulkan
utformade
##vuxen
placerar
##sdata
##betet
bekostnad
kombinerat
ersattningen
opprette
albin
##tema
cher
midlertid
rio
kreativt
samordning
toll
civila
drap
1981
markliga
fordjupa
obligatoriska
snapchat
##asson
korset
##potatis
morsomt
skadat
main
blasa
otur
tillgangen
demokratin
pyn
bisex
erkanner
elvis
barbar
samhallen
##skjut
casual
##orienter
layout
paulus
florida
oar
##farenhet
bekvamligheter
##akon
amster
johnson
reglene
sovjetun
##roppar
medarbeidere
streck
joe
drast
pov
##ер
konkurransen
genomgatt
##war
##egu
realtid
nint
##ransat
kontrolleras
helgerna
volt
anordnar
vannerna
##ible
praktiske
psy
gm
uttalanden
zo
kunskaps
oralsex
forutset
##splanering
nettside
terapeut
studion
døds
anvandbar
nylon
##uri
##nord
ansluter
radion
journalisten
romantiska
polism
##usse
dow
oct
valjare
klienter
kvalifik
oversyn
mvh
damen
pause
kikade
satser
innehav
grenar
forbannad
##forsakringen
halsningar
relevante
ronn
rontgen
klippt
##ostern
lidingo
svarighet
medlemmene
fox
erov
##krafter
linser
anslutna
##plant
visp
##itas
planter
##rice
oil
takket
østfold
brudd
##prat
genomforde
transfer
peng
karlsk
teorin
duk
kinder
arrangor
skifte
flickorna
##sfordelning
cyl
voll
halsning
##skift
chip
##skamrater
title
fysiske
handtere
##ualis
##ty
##alag
lyfte
kennel
##rist
alternativen
harmoni
##osystem
otroliga
dekker
##rada
kreve
vasternorr
amsterdam
sekretess
##smiddel
forsøke
##relaterade
##senheten
kartlaggning
intrade
fornybar
spinn
##stemperatur
olamp
ballen
lyxigt
##ternat
nytte
forfor
##ssprak
##rende
##element
miljøet
skiter
datt
##fyller
##kligen
kommunalt
vardcentral
snurrar
inskran
##цr
flyr
##nack
minimer
naglarna
##alle
feir
##allar
prøvde
varuk
utmed
fordeler
brittisk
kreves
sammenlignet
##inor
##edagen
negative
##skarna
##ilton
rs
prisk
##befolkningen
annie
hogskol
sexualitet
elevens
strommen
##shast
east
##oid
frokost
samlad
korrid
motsatsen
##genom
sykehuset
juryn
##medvet
besitter
jonathan
##ningsforetag
kvarstar
##lador
lura
anpassning
##urd
klippte
fots
sture
gjent
byrak
union
tipset
##vt
##sbranschen
##ipl
##elag
matchmak
scene
##forordningen
kio
utvecklare
sexkontakt
faglige
realistisk
##ando
gangbang
##dejta
hendelser
forhallandevis
frivillige
ideen
fordelas
sked
flytten
##rekord
bebyggelse
deltakerne
xhamster
medelaldern
##ileg
##tradde
manskligheten
turism
##srad
hjertet
halvparten
##varet
##vallen
##skans
##sutbildning
varmvatten
skrivas
namnd
1400
mønster
byer
jog
gangs
hektar
lakemed
snabbast
satan
##forpack
##usson
fargton
sjutton
##givna
oarna
pagatt
utføres
##debatt
##ioder
langsam
##middagen
beauty
##riket
drinkar
biltillverk
markant
atgarda
andersen
##verker
enklast
examin
kapitlet
screen
øl
kone
arbetsdagar
tycke
##udden
plank
lanserar
lyckan
prostituerade
##nene
pow
sprids
bollnas
segrar
permal
tub
skapt
kompetent
sanden
arrangement
these
##ites
intelligent
looking
ovantade
##hin
prioritet
veckas
##bour
pun
##spor
asylsokande
##pig
uppfin
lastbilar
jamte
skiller
##ransjen
kryd
velvære
galaxy
vagled
produksjonen
statistikk
mountain
##jeller
##værende
naturlige
uppskattning
sparen
mottagning
mogel
samspel
granserna
##foto
fren
avsak
##aku
anor
##snat
##spriset
112
avverk
fult
##kil
ojam
dobbelt
##blank
##mester
buck
##boda
raw
point
dikter
bekampa
stikk
eli
valkomnande
lasas
mottar
kvantitet
otrohet
uppdaterat
anmalda
##skontor
gamm
##usik
##produs
rikta
vandrarhem
vaglangd
fulgt
generera
kartong
fastighetsag
representerade
henger
lutar
##emer
anka
##emm
magi
365
luftt
uppkopplad
##kle
fav
heja
heders
tranaren
##ysst
fordela
kliniska
rart
##alistisk
møteplassen
sasongens
mind
fleksi
helene
maklar
mellanostern
ligan
lydnad
##ranta
moskva
verne
##orren
##bjudande
##ovar
solidaritet
apost
produktet
account
kontrovers
generos
smoret
dilem
jordan
ultraljud
informasjonskapsler
bjudit
hane
##ues
lanets
vennlig
attrah
canna
##inte
##deg
oskarshamn
skre
olycksfall
ledelsen
pornhub
huvudman
henry
handlaggning
bebisen
unike
kikar
troende
oversatta
alingsas
kilder
papekar
##anvisning
hels
successivt
spiser
tempot
tata
otack
innkjøp
##rt
nybygg
sæ
bedomningar
##sbak
dildos
skaka
##fulle
gruv
hammer
behandle
mojligtvis
##skjer
dekk
anvandandet
hjalmar
carolina
##48
##landska
guider
p1
bbc
mottak
ella
##avagen
elektronikk
##skv
likte
korten
benamn
aptit
onskas
etnisk
smet
##liggende
ojamn
badade
published
##ebygg
syra
tecknad
kloka
##ught
altfor
dammsu
##enge
##restaur
##narna
størst
blink
produktene
pappret
##algi
handlare
grønne
grafikk
segt
beslot
##anan
utvecklad
sosialt
virket
##ped
##kans
entusiast
project
##hamta
papeka
##ologen
##ograph
vittnes
hocke
##leie
a4
jattefint
direktivet
endel
##sbild
ns
generelle
url
laptop
miljopa
european
dekket
##produktionen
berodde
##onda
spesif
hobb
oser
bords
control
kriminella
storting
portfolj
##smon
arme
adolf
atanke
apos
forekomst
wii
##vardiga
prenumeration
sannolikheten
##redaktor
kopas
##stag
utredningar
marknadsfora
utgaende
inspirerade
##kalender
prestige
laxor
kungsbacka
evolution
1969
matten
traktor
##jes
forsvarar
utvidet
##sporten
##mannens
vattendrag
##sprang
gil
snyggaste
insekter
telemark
pojkarna
motivet
##ни
##syra
okningen
emotion
##kunskaper
##oskop
tolkas
certifierade
##adel
##sgrad
bokens
tvattar
dataskydds
provas
##setting
inrikes
leksand
strategiskt
jet
sert
moped
philip
landsbygd
##upplevelser
ay
karaktarerna
lagra
naturens
aften
okom
besatt
##fro
##feltet
fikt
dreier
treffe
nycklar
monte
skynda
kritikk
laros
foref
genomforandet
forfattarna
##nte
pill
kommunestyr
fritidshem
##vakter
meddelas
generosa
arrangera
dylikt
##stallas
filma
fulgte
pluggar
projektets
merce
friidrott
stede
fk
orm
##olje
##relater
##yndig
1977
forste
australia
kli
sorry
tredjepart
pa¥
bestammelsen
smile
##aria
medarbetarna
##vidt
##67
##fektion
##artikel
##ope
forhindrar
aklag
julgran
##jorer
vev
sensor
fd
ansluten
utkik
videref
header
uter
vaxla
lyrics
glogg
edition
varifran
tidnings
forskjellen
tacos
erbjod
##stabil
astma
handduk
begransning
scenario
##bestamm
address
ocean
etapp
utvecklades
vips
hotar
stadion
konkrete
kopplad
skillnaderna
##instrument
moon
##itta
hemmagjord
synnerligen
smerte
visse
steve
varpa
klat
valjs
tvingar
fordro
ifragasatt
uppfost
never
forberedd
##studie
akust
utformas
halvaret
forhandlingar
elbil
oppfat
kvinnene
##hat
anlander
gards
bryssel
begransas
##slista
genombrott
slippe
onekligen
likadan
varianten
##andringar
aterga
lir
tingene
grunnlaget
ackligt
##ktligen
skv
besøker
stallningst
pocket
##revlig
fakturor
##eslag
tolkar
##starka
vagnar
bengtsson
investerar
##eler
connect
bagage
spanningen
skeptisk
lucia
##uppe
manatliga
vilje
nøyaktig
behaglig
##esterol
kvaliten
svarer
##bøker
ankl
##oteller
fluff
spelverksamhet
premiaren
troms
##ро
semest
nackdel
tveksam
oppning
seniorer
kampat
utsokt
droj
##ampen
gabriel
##forsok
returner
bøn
filmens
strava
drabbades
##nets
##kladda
miljontals
konsept
sjalvkansla
enkoping
lugnet
pupper
onanerar
##anlaggningar
kritiskt
ingenstans
bluff
##alin
samverk
costa
##ningsbar
msk
##odande
andam
##ettan
nanstans
##arbe
gubbe
hydraul
network
##jefen
porten
##loven
##ternativer
rattigheterna
fakturan
ingef
overfora
active
delikat
##handlingen
tavlan
cali
kenneth
finansierings
##mont
boxen
ledaren
##lampor
forklarer
##joy
pride
sandviken
snackade
umgange
nyaste
##spsyk
medfoljande
vardepapper
kulor
##ileder
cand
oljem
indikerar
upplevs
##odell
anlegget
laur
tayl
##rium
sammansattning
hier
sykdommer
##ilding
##burit
dug
sea
vetenskapligt
grunderna
avde
miljopaverkan
traum
viset
##frest
slickar
perfect
uttryckt
##sledning
##arkivet
ritu
selskapets
##lader
maleri
##sinst
##bygd
fakultet
photo
fantasin
##sinn
shl
territor
baj
##hed
dold
##biner
sponsor
vvs
vokser
##skunskap
jagare
##fflor
##estr
##rix
opplysningene
pastaenden
teksten
##stationer
bøkene
fylt
alskare
klur
motsats
kortfatt
##splatt
##peppar
grundar
hovedsa
sprint
lida
##porno
grey
fight
slutliga
tvill
spetsen
##skridande
##listor
slos
verb
devel
sjef
jattest
sekel
##corn
juridik
##gad
boliger
hind
##intervju
torkt
biom
soul
nettles
ovanliga
inje
##orm
kompletteras
pasar
cyklister
oversta
inflammation
##index
mexico
sokmotor
matchmaking
medverkande
stimulerande
aksjon
anteckningar
losas
##somhelst
sald
lm
samliv
bankid
omed
antallet
vasen
uppkommer
##rich
tillstandet
##ities
vov
globen
marx
tilldelas
jackan
sallsynt
krevende
##iana
pedagoger
need
stangs
##dommer
##sekonomi
paramet
kjemisk
daglige
aterkall
packat
fackliga
##skoll
certifikat
baksida
zen
forsakringsbolag
rada
dirig
tilkn
tandvard
rasen
hovedsakelig
по
systemer
##gjøres
landene
danne
friskvard
cow
ifraga
##hai
arrangert
klage
arbeidsmarked
nagellack
kastet
dann
skilt
integrerad
##ives
metode
fargade
##ssokande
innsikt
klyft
salda
antioxid
nevne
##iful
helga
forklare
sexshop
##arets
##bredd
##utover
##onomisk
##ionerna
bedt
kungalv
prestera
##iki
##atene
##emellan
cream
utenrik
karam
lanat
harnos
##lines
stangd
basic
yrket
varn
mellanmal
##alom
##eeee
konfirm
ilska
##stamning
bita
placeringar
nynas
leverandører
alvorlige
ngn
snurra
hakt
1967
performan
øya
trot
kommentarerna
clean
##usentals
##svir
anita
##setter
1971
##iknande
maraton
forlaget
folkeh
##hammer
anbefales
spesifik
##verkstad
##blin
osann
hudiksvall
sjeld
herman
valling
##visade
profesjonelle
tararna
diskuterade
##zar
nyttiga
fortroendet
trea
##hon
lego
konsulter
saaaa
##helgen
its
##ivaler
bredden
e4
##ury
fjellet
meldinger
forald
##sutvikling
designad
specialister
##foten
ensamkommande
##vur
farga
##slagna
graver
klassrummet
##svart
##bility
forund
tillverkaren
dill
skjerm
avdelningar
stories
innh
magic
skipp
##skriter
avtaler
programmen
mike
living
hong
xxl
langivaren
toa
##meddelanden
kronofogden
museer
talen
eleganta
volks
forete
oforuts
beskrivningen
tackt
fortviv
##arth
##68
gjester
##uper
dromt
##spromen
parla
reception
knyt
##pin
støy
fangsl
vinyl
##noveller
tjeckien
lopar
##merna
anfor
##sinne
stativ
øyne
ankom
rabattkoder
kad
arsenal
alarm
rettfer
grundig
teoretiska
streama
##ilitet
##ningsbara
temaet
tradet
##also
##emor
morgan
tabeller
blankett
jocke
bindande
##alens
forpackningen
##atum
dammsug
halen
søte
datan
##sbonus
older
otillrack
##tagit
infall
stigande
blota
postadressen
mattet
samtale
avlagsna
universitets
leveres
menneskene
efterlev
##hangen
socialnamnden
svarmor
hugg
massvis
lette
andetag
harmed
radera
flir
roret
##rosa
dragon
depp
utforske
oppbevar
agt
kjønns
forpliktelser
##asing
##eleder
jatten
##sbro
##behovet
naværende
skruva
##ommes
angelholm
irri
vidt
deep
##ffet
sinnes
redde
omojlig
##sbibli
okomplic
##vita
tyckas
genre
varvet
registrere
##slip
##rier
bokmark
avvikelser
##utvecklare
opprinnelige
fargglada
marklig
skottland
##positionen
forpackningar
skjermen
pafrest
garningsm
##kobling
##user
undersøke
agnat
roma
narmade
frigj
##stedet
sadel
uro
undersokt
berakningar
horisont
##strum
vardar
tors
ulik
glo
##ogna
teatern
##minskning
afrikansk
##mjolk
bær
obehagligt
mengder
ersattnings
datat
##sette
ct
gluk
drojer
##pop
##jat
step
foljaktligen
trailer
julbord
muff
##sprov
##guide
garantier
##stjarnan
sjonk
utfordring
##aktiv
skams
michel
anse
lyxig
lucas
vl
doftar
romaner
##skoterska
orat
forna
petro
forklaringar
##visen
befatt
utrustningen
##ej
datumet
tvingade
medelalders
forlossning
forha
lave
spillerne
dalen
##steder
brodet
kajsa
morten
##artade
angar
##utvalg
tyreso
##prisen
##ет
##sbyn
##baserat
##backa
pie
nyin
##usias
planboken
befinna
tverr
##see
oppover
##fartyg
skrivare
##samfunn
tet
korg
##balans
antagning
beskytte
detaljerade
##redskap
##sregionen
toaletter
inneburit
gruppens
wolf
biter
ambassad
funktionshindrade
fenomenet
mercedes
erstat
tildelt
frivilliga
stoppe
chass
##øg
deltakelse
##47
overkl
geografiska
etiska
drevet
lister
scout
##ego
click
cykling
ointress
hava
grillen
fronten
##ttelefon
##riller
##gers
skapad
paborjat
fredrikstad
##skostnaden
logiskt
erkannande
texterna
gota
thank
droppar
tyrk
##plattan
##knapp
##heterna
pahitt
##lim
dansen
forfarande
rogaland
##dekor
asia
konstnarliga
bulgar
tilknytning
##gryn
##prise
picknick
frolunda
primara
vaxlar
garnet
rosterna
volksw
##overforing
##ffaren
fastna
sick
##uset
tacket
piss
morot
klamma
##kede
##aldo
##funktionen
also
##sløs
neutral
morgondagens
anony
spelets
terminen
mulighetene
##brygg
thro
servit
arkitekter
##shog
anmarknings
andrats
raknade
godare
tjenestene
piggare
##bletter
machine
fabriken
##atorerna
ube
olivia
anordnas
hemmalaget
foretagens
spurte
lym
##blast
punk
parkeringen
dragkedja
byggar
prøvd
dominerande
uppenbara
##flo
skogar
stjarnan
gronom
justeras
hjør
autor
mentala
blomst
##pek
ted
utenom
excell
femtio
nevnte
ya
biogas
dramatisk
pasken
medalj
granssnitt
exklusivt
lojligt
fittan
##lede
chalmers
kang
palitlig
spack
select
fullgora
##kningar
##skarmen
portal
##fronten
oftest
##skilj
fysio
vattens
kvalitetssa
salongen
utmanar
seder
hender
slutgilt
patientens
depon
varelser
kanterna
svind
amatorporr
tilpasse
##yds
##intill
undertecknad
varmepum
soja
switch
molekyl
utrymmet
halsing
##skalla
awesome
airport
hoteller
fingret
niss
meditation
følg
varnamo
##petanse
calle
lovisa
reglerar
##49
atgarden
svikt
b2
##lid
##berts
underst
oandligt
karlskoga
heltackande
konsumenten
seksjon
larsen
akryl
##ikevel
funktionalitet
ursakta
bryll
veronica
livmoder
ntnu
klarna
forovrigt
rattsliga
spurt
fjad
forvanande
arens
##bollar
forstarkning
altanen
hogkvalitativa
kommentaren
vagat
bars
##ytta
##olas
entusias
rytm
##hum
estland
himmelen
gina
##89
225
##skjema
##hanter
##radio
##skapets
##øyet
fotografen
erika
sjalvt
vasentlig
oppgitt
timmes
fornya
kronan
idrotten
konferenser
vanligast
orsakerna
konsistens
vasentliga
picture
optimera
vagina
inspelning
gangna
horor
marten
avgors
binder
ramm
##sveckan
forholdene
arb
slita
##forslaget
hoppades
##politiken
##emester
skanes
kari
stottar
fordelt
buffe
##sert
oas
##ojor
hjemmet
##lett
avkoppling
avbryta
##komna
vagde
risikoen
direktor
sallsynta
godmorgon
inng
trade
panna
distriktet
overdrivet
herpes
forskjeller
vyk
##egler
soligt
overraskad
##asinon
involvert
##skamrat
##bay
hemmel
##imals
quot
umeas
stabila
kolesterol
glider
##oks
telenor
tape
double
##max
føles
##ez
upprord
##shistoria
##intens
##immar
vannen
likheter
pannkakor
booty
##sopp
tone
odmjuk
frest
valfarden
##utskottet
matningar
##okrater
borsta
##gaard
##astad
tillfredsstallande
##slokaler
##hylla
huvudmannen
surfplattor
##iews
presentert
##hant
kurserna
hitler
joseph
varorna
kalifornien
forfolj
programledare
tonn
mario
likadana
##museet
olagligt
lindra
fylkesmannen
perfekte
attraktion
##lagte
lagets
fastighetsmak
spisen
improvis
kommersiell
##oversikt
dokumentera
boter
pron
sjansen
exemplet
invanarna
##ints
hek
##arena
##vanor
timmer
fritiden
ambitioner
scanpix
fortalt
migration
infektioner
hjulen
##bles
inngar
felix
##inspir
storbritannia
foreta
accessoarer
##attra
tuffare
##vanner
mazily
sysslar
##gata
innstilling
regionale
vits
eko
osannol
anonymt
halet
ele
##ebel
sortens
fanny
enz
bakre
##utiker
kommende
øyeblikk
crazy
bakar
##hild
mjukare
##ui
insatt
tartan
##garn
kvarteret
##budsj
erkl
vackt
orkat
stromm
mirakel
handbok
motsatta
ansvara
##fina
interessante
innskudd
spegeln
arsak
avsett
kommunikationen
##manlands
sog
riktige
nøkkel
designet
generationen
markning
tavlade
rengora
reiste
inleda
##sbehandling
pasienten
etablerat
##iii
eben
insikter
##ны
utbyggnad
tjug
styring
rymliga
been
driven
bestemmer
keramik
gradd
tekster
kryper
bachel
prisvard
britiske
tvars
vurderinger
saudi
##fragorna
##sbord
stimulerar
lært
marmor
##itenskap
kontak
steam
vetat
blandad
godkj
##kameror
fyn
karet
##kest
bowling
##hengige
medeltida
lamin
riktad
slitna
##emo
##utrymme
meddelandet
bakteri
farmas
fordomar
##present
genuint
krim
##sco
studerat
inledningsvis
101
religios
hjalm
porrbilder
allergisk
konung
ovningen
delad
rebe
reflektion
idealisk
inloggning
kalendern
søt
produktivitet
bearbetning
partnerskap
savida
vp
zu
karriaren
forstaelsen
##miar
kvalificerad
##turer
##alven
##provet
laggning
gag
ansikten
placerat
utend
beakta
rickard
penetr
##brer
skaffar
hallt
botan
parallell
kriminalitet
skadas
##vecka
##slage
hanteringen
rinna
accel
##opat
upplysningar
sparande
alger
##vakning
sjalvstandighet
forvirrad
oresund
generals
svets
samfund
heav
##utsikt
mottagande
##bien
forhoppning
genomford
begrunn
alster
##blommor
omd
tillsvid
##egangen
bransjen
tunnelbanan
##ль
spender
formulera
verkstallande
styrkan
hemtjanst
transaktioner
beløp
medgivande
oppnad
##ols
kopior
virgin
##gjordes
##iggande
bibehalla
stannat
supert
vern
kava
ekstremt
avstangd
##ooo
farj
kreditupplys
fynda
##cirkel
liam
level
utslappen
korsbar
##gron
peters
jamforas
beskrivningar
jackson
veterinaren
mk
vindar
overgar
##falle
##urope
##athon
tøff
jordbruket
historiske
sluten
livradd
##løse
somnat
mors
privileg
salts
arbeidst
rokning
##sprocesser
iverk
##spack
##liknande
##von
tilh
fork
bitcoin
##webb
frek
naringsamnen
aktiveras
tecknat
erhaller
valent
pund
money
stul
innkall
skrivbordet
kompetans
utvil
##asso
vt
lera
skille
modet
entren
husbil
knas
fragestallningar
##anterna
proteiner
kvinnelige
morotter
169
rymden
rapporterade
overnattning
hassleholm
##spension
stralar
##agangs
trygge
##belysning
oppenhet
loggar
mikrofon
whe
##scykel
vanor
##espill
inspekt
drivit
##aksjoner
inredningen
foga
yrkesutbildningar
where
ambitionen
##giro
release
##forbin
##smetod
##edirekt
levering
inspirert
##undersokningar
betydde
beprov
smorgas
agentur
flygbolag
faglarna
reality
onodan
western
lyxiga
lv
siktar
sour
einar
uteluk
##propp
klokka
alta
lopare
darutover
korea
webshop
stella
fargmodellen
fickor
signifikant
sattes
lukas
lugnande
fargutrymmet
sorm
legitimation
jør
isbn
debiteras
foljare
popcorn
##agerar
hexdec
bonor
##fargkoden
##imalsfargkoden
hexdecimalsfargkoden
krigs
nintendo
taylor
katterna
##godis
##arts
##ifierad
##haft
atskilliga
##merade
bakverk
##givere
##istans
joda
torsk
eldste
##lement
##sinter
basil
rubb
statistiska
##tjanster
kinky
barnehag
##vetter
##gat
trio
dynamisk
sinnen
medisinsk
france
tjene
brottet
lyr
##arta
kondens
homofile
brukeren
konkurrans
##elekt
##psjon
foljas
fyllas
originalet
torkade
gavleborg
sommarjobb
##aling
syften
malsattningen
##iggen
doms
skamm
lappen
##akningen
mete
pott
rammer
prelimin
nykter
medelhavet
lix
payday
singap
bæ
##olia
##aliserade
##rekker
sørger
agility
orsakade
regnes
motivering
helge
følelse
stoppade
##publ
##ит
vardefullt
bc
##kurser
kaffeb
oskyld
nagons
utrustat
##jant
skyddet
skogbruk
filme
uppgrader
planeten
genererar
besoks
##korea
berors
##how
finansk
gaende
kopplingar
gutta
##zing
loken
kot
motionen
paron
##ather
haftig
paven
##egger
##hangare
enkelhet
passasjer
uteplats
utbrott
##odor
lagat
fuktig
##sacken
skapats
##eser
grillade
finansieras
dedik
peru
kollektionen
komplikationer
koder
datamaskin
##yre
blonde
maling
skred
##rakte
vasterbottens
##skrivet
gjennomsnittlig
poesi
sans
lie
motsetning
penna
135
##ssituation
which
stroke
##somrader
##xen
exception
hb
traditionen
tradlosa
raddning
onskningar
verktyget
rekre
elementer
dubai
maur
solarium
##ка
inteckning
tidsbeg
raser
note
singapore
##paj
adobe
##uropa
horlurar
ingvar
##bostadshus
definiera
skyddad
grafiska
darlige
adekv
sate
bestatt
laddade
pluggat
reinfeldt
beautiful
rabar
border
efterlangtade
ljungby
##urella
ropade
##sfulla
##okker
medfører
schack
##rads
##porten
walk
grammat
beregnet
kth
##ynn
amal
opinions
bandy
##skepp
brilj
anar
##ai
byggher
##erapi
##alisert
tillsvidare
osten
skyddade
philips
forlov
forvalta
inifran
##fug
sies
foretak
leave
##cup
bonusen
luftkonditionering
sasen
dromde
lavt
indones
apart
handjob
parkerings
chokladen
tillika
hunder
strapon
diskmaskin
vegg
inngatt
lidkoping
kunniga
tørr
publicering
ackumul
2030
vestfold
sap
fritidshus
hustr
##egenskaper
pion
kants
kanslorna
##rys
##col
peder
##orrar
sidene
definieras
gemenskapen
pedagogik
redaktor
avel
##menter
##sprakiga
sjekket
levererat
sugna
##resurser
ender
grundade
util
innført
tradar
soderhamn
dejtat
visdom
leden
navigation
##faktorer
##sbestamm
forutsag
flirt
hyl
apenbart
intensitet
##peci
divisjon
brutit
sivil
german
oandliga
brf
forankring
##fess
nackdelen
gymnasieskola
##ometern
initiativet
potensial
##bind
##behandlingen
ow
##skansla
scor
besluten
magaz
bakgrunnen
##varv
##behandlingar
##slopp
teoretisk
riksforbund
##innes
##efall
lockade
skriftliga
sondagar
nin
forventninger
framre
mastur
foredra
utvide
##zu
##linge
lengde
##satsen
sher
fjarrvarme
fordringar
##flaska
##ace
##sforhallanden
teat
##sbyran
lararexamen
stamman
arstid
solglasogon
rollspel
vardcentralen
##inalen
lum
synsatt
tavlings
##forestall
plantera
tillhandahalls
visum
allihop
kapell
bosse
bloggat
lundberg
anbefale
wol
handelserna
homofil
clas
flow
skrifter
honor
credit
energy
upptrader
ifra
forstarkt
kontraktet
eco
sjunka
##vask
tales
forekomsten
omstandigheterna
##cert
ofver
handdukar
engine
##spersoner
pell
vaners
forbundets
##guiden
blodsocker
##kjente
tackning
brynas
##ocken
barber
klassrum
base
trottnat
biff
##motet
predik
arts
omne
institusjoner
player
vigsel
##skriver
##entusi
fellesskap
gmail
sugar
bemanning
##agangssatt
requ
rykten
##debatten
løfte
forfragningar
somliga
tallene
##stund
##ømte
bidraget
alsklingen
deltav
session
ston
monument
ronne
beige
beskrivas
talmod
##escort
gambling
sykdommen
##ppene
tandlakaren
##ray
tusenvis
hello
cams
analog
iall
redaktionen
bestemmelser
ivareta
##asjen
forakt
iver
tidningarna
sistone
luta
medelstora
tillvagagangssatt
avgar
pizz
##ydliga
kuken
##rivill
fotbollen
portfol
konfron
pumpa
nedover
pafyll
##enget
boost
fed
##sindustrin
##ignal
regner
cockta
christop
domanen
manadens
keb
kvinnans
kulturm
regisser
virkning
morgondagen
lol
abstrakt
##smøte
molde
##nojd
events
checka
paradise
absorber
stjarnorna
granen
flink
lamnats
##usch
mjukvara
expertis
repre
overgrep
forskollar
menneskerett
markta
tillrackliga
##eligt
begrepet
##mobler
merparten
forad
snacks
##ilog
talk
jast
sammanfatta
truck
williams
##etty
ryan
tags
statligt
boobs
medierna
seminariet
##motorer
verre
byrakrat
gladare
farbror
prosesser
rekrytera
##ikre
masc
##alans
dubbels
utgangspunkten
##spelning
##banden
bent
solar
##rup
tillagga
evt
summor
begra
utford
forberedelse
tillhorde
##dans
tvaan
besøkte
regne
sult
bevakning
refinansiering
produktiv
##vinning
incl
radjur
arrangerade
kompletterar
armat
creative
##atal
lucka
motivasjon
skargarden
##eling
traningsvark
magnes
slim
fonstren
assoc
hanfor
horison
lift
rorliga
samler
lip
pryl
sagan
bestemme
incest
moren
performance
innføring
##dres
bevaka
forberett
ersattas
##pendent
##berattig
hyresgaster
1300
##idrett
joy
existerande
vedr
intelligen
elak
regna
certifiering
specific
kunnskaps
##round
belg
teste
##kjøring
##gladje
betalningen
svalja
grannarna
tilltalande
mycke
##ilsynet
ekspert
twin
##lich
varldsklass
stab
##holts
##iop
##skonferens
respektera
das
stay
systrar
##sskyl
##ikyr
##haver
karlshamn
karnan
chick
reaksjon
personopplysninger
beraknad
medis
familier
##41
inflamm
stilt
flertall
propp
pastas
##jonens
##blikk
##manns
##faller
##dorren
fjern
eye
olofsson
industriell
##mur
deckare
noterade
dimensioner
fs
kallan
barnvakt
##ockor
##personell
hc
##leden
ernst
flee
nyttja
##spartiet
mathias
allikevel
produsere
dottrar
ate
##aliteter
eskorttjejer
smut
formatet
jatteroligt
##brun
kvalificerade
smyck
væ
komplicerade
cannabis
sammenhen
##bakt
kristendom
##kryss
opplevde
##kontakter
nærmer
autism
somnen
scra
##sokta
altan
brollopet
svans
forsøkt
##safton
kombinationer
skandinavien
fortydlig
sove
birger
vegan
vastmanland
huvudkontor
varann
orsakas
volkswagen
intraffat
lanseras
##sspelare
paborjade
kylskapet
omklad
##sevne
##vaskor
bekraftat
biologi
##asse
krister
tomte
militær
uen
stone
kottbullar
hotade
relativ
rostat
aksjer
abc
oljemassage
kee
vagor
hok
##roret
##skuddet
##dagarna
pensionar
tjockt
pagick
arstider
##jorda
##ianska
onlinekasinon
hjemmeside
ettan
sle
bush
misten
opplyser
ekip
forlorad
##oy
tidsperiod
smutsiga
katal
litteraturen
##paverkan
provoc
##stammar
pors
framtagen
ludvig
rebecca
hallning
revisions
finansiellt
masten
##vennlig
derby
##ku
##dorrar
##eksjoner
blood
##amman
tjo
panor
installningen
tillaten
logotyp
beng
##arkitekt
tokyo
webbsidan
midjan
tenta
plikter
outf
officiell
transparent
hojt
aktiek
malene
dys
bladen
forstand
eus
##elagen
##unta
think
tradlos
branner
##betalt
omnejd
##andelse
##farlig
grasmattan
hua
sovjetunionen
storande
##institutet
veget
##bygget
ingefara
praster
spørsmalene
##inflammation
p3
patrick
##even
##orps
delades
##83
##look
watt
eder
cour
levererade
##fristiga
stord
facket
##sparet
zink
verdenskrig
##slas
##verdig
##klubbar
torbjorn
##havaren
roland
haninge
##drivna
annonsering
forhoppningar
##sammanhang
##eloven
kommunestyret
hojdpunkt
kopi
intrycket
lantagare
##varmen
anmarkning
viken
##regat
sits
utgave
##skravande
##kostnaden
lages
installationen
avtryck
145
idyll
stressen
anmalningar
say
##benen
##øve
riksdagsledam
øvre
doser
foras
##savdelningen
natta
magnesium
symbolen
stadsdelen
forslagen
nødvendigvis
kids
##kelsen
tavlande
##buffe
bokstavligen
avok
dagg
linde
styv
##sservice
##ornet
##følgende
demokratisk
##odag
kudde
nuet
tai
framfora
kanadens
tjockare
ordnade
##damp
nyckeltal
##linjerna
utbygging
mobiler
##brett
godkann
valborg
tillfrag
##graden
##kallande
false
aklagaren
siktet
bladet
skickades
langta
programvare
##biljett
leveransen
webbas
##stamman
studerade
hing
omgivande
##skravet
mengde
stundtals
tablett
loste
##banker
forhalla
saknades
a¤r
strukturen
##massiga
##skrivare
##ssidan
##eval
chatten
##folket
atervande
liseberg
haftiga
4k
avhandling
gap
revolutionen
tenar
næringsmiddel
ovanlig
matematikk
##slatt
##ekanis
factor
##db
##rullen
##ough
hovratten
farmasøyt
tavlingarna
ropar
##safe
catering
ekspl
forurens
stugor
##bedomning
##okal
1965
##idelse
halvvags
lande
##oil
inspirerar
prostitution
forhap
##kabel
skadet
##sappar
##utta
fjernet
teknikk
strong
muss
##smott
##bron
secret
##46
1917
##erapeut
bert
fødsel
##info
##skod
massing
slutspel
trovardighet
oppfordrer
jakligt
##forstaelse
##bildet
##pasar
colomb
droja
genomga
ungern
##kap
gardar
avskaff
medverkan
kvaliteter
okant
utforming
samtida
prevent
undervisnings
ket
##formagan
femt
##beloppet
forvantningarna
##vaskan
##show
knullade
##rasjoner
cumshot
doktorn
bebo
##registret
diamant
##has
totale
contact
##jnings
alltih
postadresse
##datter
innga
utfører
universitetssjuk
##dringar
svaraste
pasen
cuck
##42
spion
pornstar
##fasen
krypt
##nyck
dander
casinos
##bibliotek
argentina
pape
##yng
viktigere
##kannas
salonger
overvagande
akesson
##saft
mastercard
##rie
##aktiga
##slang
##vret
##faste
lansert
behandles
gedig
advan
1964
essa
lilje
multipl
seksuelle
vellykket
populært
mørke
##iotalet
##ifierade
strukt
##ifta
operativsystem
##vise
tapetser
##riktad
pakke
klipper
##tta
yl
##ensur
egentliga
befal
ettermiddag
belysa
##sekonom
intervaller
##atisering
##indik
vykort
onodig
##meny
taktik
rejala
##skraven
byar
##ismens
sladd
trosa
eker
##bun
hare
##verna
sorgen
bydel
stilte
kvel
presset
mejer
##schefen
##sbrist
permalanken
oroar
aktien
genomtankt
forandrade
kjøkkenet
sympat
##revligt
figuren
cad
mulliga
axlarna
gangerna
##harig
fuktighet
grekisk
kupong
forstarker
perspektivet
hbtq
wir
ludvika
apro
kongen
ceremon
fordubb
##ansvaret
tilbe
valparna
munn
happypan
##lika
##ssar
outlet
brannande
biod
ratts
heim
forsakrings
pakistan
dekoration
##sbek
pedersen
fyrkant
anven
dotterbolag
impul
stillinger
gles
prisvart
kolleger
stens
toda
##stillverk
##bø
##inredning
figh
##konsol
kassaflode
klager
radslan
overlevde
retter
strategin
marketing
fosfor
##store
##smedlem
kravas
gigantiska
sever
price
spannmal
representera
extreme
##intakter
pyram
hl
ound
katalogen
##grupperna
##projektet
databasen
container
aha
fastsatt
enkaten
referat
kontinu
forsker
famili
glida
officer
atlant
canon
samtlige
reply
allian
router
##anderatt
##otik
temper
##naderna
##sokning
##gorit
java
mapp
tulpan
##myndigheten
lindstrom
knuten
##splassen
blonda
daily
technology
volymen
hemlagad
riksdagens
tjocklek
paraply
##jern
##regionen
andamalsen
##43
lakan
##ifisert
##spress
drømmer
svard
følelsen
byggts
fiende
forvanansvart
envis
optimala
##skinn
2500
gommer
alternativer
##progn
sept
fraget
betaler
forsav
monopol
seil
##svarden
kommunikations
kvalitativ
kejs
skarmar
mjolken
eliminera
##resen
herrens
rikligt
fordelat
usas
##agnet
feat
valjarna
##bys
presse
spilleautom
fange
gadd
emilia
##vaggar
##menyn
holdes
nært
mangsid
tretton
comeback
beslutande
døgn
oversvam
solig
##artad
turner
styrde
lyster
##lers
pommes
tillsatta
valkomstbonus
##bull
domar
mejla
forsavitt
skapel
langesen
kaffek
delaktiga
##sol
upply
##folja
residens
tillfora
behoven
inat
##sjukdom
sytt
styrketraning
meller
##vendig
bann
kvist
##sforslag
intressenter
brevladan
uppfattningen
##uggen
##kart
eviga
##gardens
pinne
##yrning
##sforvaltningen
mugg
engagerar
swish
tiar
arbeidslivet
natural
individens
winter
##legges
happypancake
solberg
##etti
fangst
omsorgs
##ømm
hojder
clara
##coach
underlever
trust
##smodeller
wilhelm
faststalls
##kursen
inval
elen
forenkla
##smodellen
##beskrivningar
noens
segling
mallor
##standard
##favor
ideologi
1962
aar
antogs
uppmuntrar
kurt
torktum
utskott
diagnoser
##klanning
doljer
fakturering
tacke
orsakat
corpor
ønsk
berglund
buskar
hyllor
stalldes
enighet
sigt
anette
kopplingen
##budget
gillat
better
gulligt
utforma
bortskam
##somhet
slutfora
opphav
skanker
konvertering
forbudet
dirt
meriterande
californ
##finalen
jr
eksamen
##gott
hedmark
##sident
intresserar
funder
antisem
forsin
behandlade
incit
projekten
##lank
vasal
tillga
medger
plas
##vorna
rencont
##arka
lyfts
promenaden
ordnas
beger
dala
forholde
arlige
##fys
tradera
etta
utvalgte
exploat
dokt
domdes
arsmøtet
befar
##marta
##tainment
plattformar
geomet
sammanfattningsvis
stralning
strim
bearbeta
frilans
##skapene
##passning
villan
ci
##rah
slogs
##sanalys
##skoler
arsju
##ali
##stt
ackrediter
##skonfer
forsedd
punkterna
##unst
begatt
haga
##skader
dømt
nassjo
andrea
overlagsen
##musk
sofistik
bidrags
cia
demen
##esystem
duss
frustration
presentationer
raddnings
sims
dominerar
naturvardsverket
kongressen
tionde
handfull
presentasjon
##storningar
##overskridande
blancolan
##polis
bjer
valgor
dramatiska
##omat
ads
##jakten
nacke
##lof
insida
##umman
##redit
konsent
sjanse
##iano
ordnat
dekorera
nynashamn
entreprenorskap
slutte
experience
vanskelige
taste
hogskolor
motstandet
##ameter
personbil
uppvuxen
dee
byxorna
hundens
rundan
bane
##ornas
1100
##sidene
delagare
barnever
##gaser
prioritering
likestilling
møteplass
bedrageri
##firmor
omtanke
##ferds
##akan
matchande
rekommenderat
været
specifikationer
##esse
portioner
arbetslosheten
##ummi
##spraket
anledningarna
ragg
volymer
facit
##skyldighet
guard
slitage
evenemanget
uttala
alternative
salunda
felicia
sogn
##hammed
aska
loften
##ventil
tidigast
sannerligen
gjeld
medvetande
eurovision
##skningen
sporter
overraskende
##smorgonen
effektive
begransar
##jul
understr
##overvakning
kling
gjest
##slund
##ки
regissoren
lunsj
burkar
regnade
##recept
utøver
varldar
interior
##skonst
tungan
##iotal
tyn
foresp
medeltiden
##gru
undertøy
artig
luss
##terte
serum
nostalg
bærekraftig
protected
##valget
uppmarksammade
engasjert
furu
mah
##то
utfordrende
##myndighet
##ogram
##cit
##udde
engro
210
jamforelser
motsta
vardegrund
##osyn
tast
nærings
liberal
##akade
##kontrollen
##magasin
bukt
radon
frat
charmiga
##otterna
illustrationer
rin
hemmafru
faciliteter
benj
solut
на
##wards
varierer
intent
forbehaller
code
overta
linux
1966
hapet
##itive
exporter
forband
hogkvalitativ
skolverket
virkeligheten
sophie
gips
graa
knullfilm
politikere
bestallningen
videok
harnosand
battle
sendte
##egr
klinik
bunt
##sfot
restri
uber
##hatt
lixom
fv
uppbyggnad
##poj
stationer
nl
tights
tidskrift
gulliga
##stammer
givna
trium
belagna
tacksamma
tradlost
sponsorer
pulsen
sikret
##filen
toget
wen
##titlar
##valitet
##straff
forhandla
##øps
give
rødt
vu
kristoffer
igarkvall
##orre
rorlig
materiella
lankarna
proven
omstallning
valgorande
##kedjan
folkbok
court
skikt
konsumer
toyota
behagligt
##ants
##ssex
##varn
kedja
materialer
asper
##gning
mosa
lakemedlet
##bid
baddar
america
sandberg
hovratt
vinklar
insekt
##foretak
bult
fotografi
pojkv
gigantisk
anvandbart
desc
beholde
lanseringen
##holdes
oppnades
giltig
##bloggar
oll
hoppat
aktuelt
espress
strangnas
kvalet
upprattas
alvsjo
sandnes
nedladd
anm
fartyget
pierre
sangare
samtycker
##rukost
krama
bokt
skynd
blam
##iterna
develop
##srett
gymnasieskolan
foretrades
##lappen
radios
##andrag
skallen
brutalt
bevegelse
halsok
##process
##sasong
geb
varmek
##slosning
organisert
reviews
##ified
likes
artionden
tillampar
ordnings
microgam
gradden
konversation
tacksamhet
##uda
dejtingapp
##ktig
musikken
institu
gjø
dialogen
##geren
cloud
ærlig
lyckligtvis
award
##kare
linj
##retter
varvid
prinsessan
##pappers
##svardet
leilighet
bergstrom
edward
jum
##imension
søvn
##ymnas
hede
##skiner
##viks
##etik
##entes
utvek
paverkade
##forfattare
revisorer
##semester
falk
propaganda
fansen
tillate
hensikten
universal
spand
##aljen
##uggor
vegetarisk
tvatten
maff
##bords
verste
reglera
dricksvatten
##buk
accepterat
intrang
luftfukt
sprutar
##ising
forvente
forfatteren
sjalvfallet
transp
##versionen
folkhogskola
sylt
videop
citrus
frojd
dell
upphav
vunnet
omfor
vrida
hanvisa
##plus
##hack
pand
fiction
døpt
forandrar
samarbeide
edit
ober
yah
fotografer
partiledare
bajs
snurr
##standen
malvakten
fulle
##bladets
##act
6000
benjamin
stadade
landat
varierat
##oller
grønnsaker
enjoy
sext
rain
##fardig
anvandningsomraden
betalkort
regeln
##ransport
napol
force
##sasongen
husvagn
pynt
##estaende
omkladnings
##lasare
sportlov
##navn
bakplat
tilgjengel
kex
##sto
automatiska
psykiske
kaste
mobbing
matsal
palme
##rits
hogstadiet
##cium
pedagogiskt
tatuering
foreskrivs
substans
akutt
##isi
##henburg
awards
##baren
lede
ljuvligt
association
svein
gudstjanst
kjerne
francisco
komponent
moz
inntekter
##omradene
bant
packning
##svis
formogenhet
vete
upplagget
tral
nykom
drak
halsosamt
rekomen
pure
gaver
agnade
trasiga
vegne
mackor
oskuld
borst
lear
forsvag
kvitto
##berattelser
aminos
images
eter
valley
##nda
pictures
funktionella
personens
bokningar
overrasket
forbindelser
##juice
##jag
##basen
forlusten
vinterdack
rd
oppdage
anga
##sbevis
tiltre
graden
boys
cass
bjorklund
##onna
riksrevisjonens
namnts
vene
bevil
##bildningen
trengte
##ield
ivaret
kated
##plagg
##kust
handlingarna
##elos
kja
forelasningen
utmarkelsen
genren
brydde
##moen
##manniskor
skaraborg
sjalvstandig
naturreservat
masterskap
##fargen
##familjen
sanne
##valdig
##krediter
1963
gled
rovdjur
binda
##sformed
##styrelse
genomsnittlig
##ores
kraftfullt
##armen
sluttet
##kran
byggande
romantik
samlats
uthallighet
prestationer
navigera
##bostader
gulv
today
strap
klister
bostadsratter
##ffekter
##strafik
prioriterar
rikedom
earth
dogg
handlinger
affarside
bredde
myter
nelly
familjerna
##sgjer
ryggsack
gaffel
systembolaget
##psi
pk
bim
mobbning
hypote
sundbyberg
langsammare
høres
custom
formanen
utstilling
hawa
historiken
seriet
kablar
integritetspolicy
mittfalt
krock
inspirationen
raddade
parlamentar
regionens
arsaker
kullen
engroshandel
##sansvarig
lonar
geografisk
kjennet
diamond
overlatelse
nastintill
regissor
##sombud
brottslighet
utfallet
##vang
applikation
musikaliska
teckens
badd
gjestene
into
##slitt
vittnar
##edlem
hjalte
modersmal
lusten
128
farmasøytisk
akademisk
##avdelning
magasinet
##otin
function
korsord
forsorjning
##dav
framga
##karen
hendelsen
strackor
slutresultatet
resultera
inledningen
koh
muffins
fjallen
##reglerna
vanskeligere
feg
ullared
spindel
rabarber
koble
disciplin
##mitt
##formade
bygninger
clint
##ryg
gothenburg
andnings
##slutningen
skiftet
##stillgangar
nudist
bryggan
mango
oppført
vanstern
sjog
timra
krangel
pyjam
hjulet
##icer
##kad
ogras
##otto
##aktivitet
different
langu
boston
linkedin
challen
nødt
fasaden
fortroendevalda
##poeng
modig
nedbryt
busker
sjunkit
professional
geir
##prosjektet
tvilling
televis
safe
svep
##oz
fordes
v75
innehallande
mystiska
milano
skild
kedjan
misstanks
skanka
##igan
arkt
kladsel
installationer
skiftande
##ekar
tont
studiebesok
allehanda
raa
niger
spott
##utredning
solens
installerat
startsidan
attityder
bygges
artiklarna
##oppgjør
##stycke
##sformaga
availa
skogsbruk
zeeland
uppl
registret
familjemedlemmar
##key
prisene
inhemska
##jung
funktionerna
trasig
manual
plassering
omg
illust
skadespeler
##chs
##kombin
delux
trappor
afri
##hyllan
rb
galleries
planlegge
kreditvardering
munchen
##analyser
##forstor
chrome
##historiska
anam
##ningsmedel
##ifikation
bærer
arskurser
sakalt
overraskningar
fjord
mekanisk
godsaker
##undersøkelse
##rykk
omslaget
##oppning
lyckade
babys
bridge
##ssven
##stenen
fros
##tte
tilrettelegg
ebenholts
##teckningar
##ningsuppgifter
atervinnings
forstklass
meddelat
##slack
kirurgi
pastaende
##jningen
placeringen
stiftet
push
kruk
##hundra
##antik
parl
##ellom
eran
jad
##viser
domina
hamar
instammer
550
##ostat
1944
##kup
mere
##samfund
behoriga
forlagets
bursdag
asker
antenn
forenade
##oproblem
tryggare
##halten
##stop
##stagande
##basert
pest
1948
save
##skram
##beteck
dosen
##vaggen
irritation
hotellen
##orf
650
hostter
askadare
##sregler
utbetalningar
##deklaration
##bard
coun
jobs
utforts
javlar
putin
dukker
elektriker
##ittande
informerade
##asongen
##irs
zie
brother
##shel
##на
##junga
harvard
bios
##urch
ear
knulle
konsum
oppdatering
sigtuna
alig
##boj
##ques
nerat
slarv
##stjenester
markerade
systems
barbro
parørende
dramatiskt
##cil
##fing
besparingar
krf
##shov
darligere
mcc
##spolitiska
##ssakerhet
##sort
##icle
omsattningen
##onia
##byr
##stiltak
varmepump
follow
##sforeningar
##mang
shad
##energi
reduksjon
overtyga
reparera
##snittet
populær
satsat
daremellan
sokanden
##cafe
##oriter
##fog
##kins
erkant
##smassiga
symptomer
turkiska
skriftligen
smartare
flodet
°c
##jorna
##armer
##egarden
##foljd
pallar
slappas
osl
fortlop
jarnvagen
upptagna
hetta
hangande
grensen
vallentuna
charmig
samtaler
tilbakemeldinger
lysa
##ancy
macka
kostnadsfria
utgivare
1a
aldrarna
skandinaviska
semi
bega
nødnummer
inbjudna
sexbutik
adren
skakade
mexiko
##sess
skruvar
lounge
stillingen
profesjonell
btw
##korg
kontors
##horighet
##ла
attonde
##kyrkan
##injen
hojs
##sefter
oskydd
bransl
muren
pensionars
tiotal
doppa
dani
##settelse
nyarsafton
kannetecknas
trakten
sistnevnte
løpende
tillatt
miami
uppmarksammas
lilj
innebord
vegeta
##nandet
155
##ense
utstallare
knana
##splant
plattor
utnytte
##ssats
forefaller
##nal
ramlade
##ief
partiklar
##linger
støv
1918
hastigt
ltd
bekreftet
krym
elektroniskt
foretatt
lord
skrapa
##roja
county
spesialist
bolagsst
producenter
ledarna
kramig
fikat
kommunicerar
sofa
stenen
discover
gullig
sinnet
christoffer
inaktiver
formellt
obehor
designa
kommunernas
bosn
##haus
dodar
##oval
bildade
##sprincipen
bioteknologisk
gryta
tele2
sønnen
hofter
prisbel
##ssy
##estam
skinka
forventer
magnusson
skidakning
antagen
kliniken
ingemar
nordiske
##ighetene
rubriker
listas
bankens
brevid
heidi
##vana
satellit
##badd
søkte
##moten
rammet
##sackar
utforda
##alas
upplagan
molndal
viktminskning
fns
hemligt
statlige
##renn
ladies
badar
identifierar
søster
balanserad
gotalands
saljes
overvaldig
inngang
bryts
1939
tvattat
psykiatri
1961
lattnad
misjon
backe
##analy
departem
potentiellt
tillmote
midlertidig
utfør
overvaningen
testas
##amo
arkivet
jackor
lagenheterna
board
##gjørelse
vargar
pinter
##sregister
insam
humoret
cav
##mil
##alden
##byten
lurar
forkant
industi
##mastaren
skvatt
vasternorrland
mant
mandagar
ritningar
##stallelse
selma
representation
forned
##oarna
tempor
##bia
shar
spenning
##osteron
uppt
vastkusten
##losen
vinnarna
niclas
organiserade
bunke
motverkar
utformningen
atgarderna
dilemma
##hallar
ombyggnad
##sfond
minskas
jersey
faser
arga
##ografisk
obegransat
forverklig
bøl
##rutiner
utendørs
##temperatur
forretnings
##hundar
otrogna
##scentrum
##eh
innovationer
psykos
dunder
viol
speltitlar
missnojd
fysi
ostermalm
muligens
##kvarter
spinning
##skansl
kumla
##bens
##savdelning
undantaget
snapp
leger
uppvisar
kompensera
skrym
cuckold
handball
portugis
hemligheter
flygande
clips
andning
laxa
webbshop
##fotboll
lantagaren
forem
kostymer
huvudrollen
shoppade
##asi
orgie
##sprid
aktorerna
pvc
framstaende
brocc
detaljvarer
atmosf
oundvik
123
artisten
##ssch
ulovlig
allmenn
##stodet
##skala
##sektorn
entertainment
valfritt
##nabb
tm
labb
client
##kanslan
laven
##jev
uppst
dagstid
##sbron
forhapentlig
øvelser
delars
patenter
oppdrett
##ligan
designade
dosering
konspir
millimeter
kakao
##verd
pinn
uppgorelse
naringsid
overtal
innflyt
generat
koping
svanga
goth
##jup
mallorca
marine
noensinne
valdet
delaktig
papeker
cs
##stjansten
graven
forsoket
smarttelefon
procentenheter
hormoner
dominer
stank
##siff
deles
ordfører
strikk
fickan
##demokrater
haugesund
alesund
payp
uppdateringen
nysgjer
skvaller
arbeidstaker
rengjøring
lanen
handskar
tvattstugan
##foss
prisut
##ummen
##atorisk
bota
resulterat
ashley
klum
##bbel
videreutvik
##benet
reparationer
pse
hager
valberedningen
narmre
eiendommen
verksamheterna
indikator
local
vokse
##utiken
traningar
##ulering
##ningstider
tesla
aterskap
atn
samtykke
potatisen
##duken
aktierna
overtygade
minusgrader
petrole
carro
tornet
sisa
prosjektleder
jattefina
verkstall
skat
##representer
roven
bemark
fyrverker
uppfyllda
idio
##osjon
spelbolag
bachelor
meldt
##rapportering
fortlopande
kupp
##faglig
sokes
forbjuda
kulturarv
##bage
synder
hindret
tillhora
maktiga
ingangen
natal
##ollo
microgaming
##rekke
stamnings
uttrak
nk
engelske
influensa
##utstallning
##slever
barnehager
isf
smoothie
trer
svars
headset
bidratt
kompetenta
##grans
1958
##smater
juridiskt
ogillar
transl
tillgangligheten
##stads
trukket
semifinal
naromradet
kes
##63
bah
palitliga
##ørr
##besvar
liban
##grat
appro
shang
lattaste
##sjukdomar
thriller
coaching
##arie
plantor
tvunget
lundgren
defa
kalenderar
pim
skav
vedtaket
behandlings
lyset
larom
middagar
overvager
innvil
##betala
born
skraddarsydda
gurka
beraknat
##87
promenerade
2x
smidigare
forekommit
desper
##agatan
sic
maneden
ukene
prix
acceler
grind
gustavsson
temaer
forvaltar
tilbehør
keep
##itativt
tillmotes
pinnar
enl
puts
forvaning
radar
skrivelse
reservation
##gransen
statoil
fokusere
tankta
aggen
nybl
aterspeg
kungsholmen
hvitt
sommartid
kravdes
##emann
utomstaende
cut
tyr
adekvat
3g
kommitten
pigga
pull
forutse
koras
terreng
##ams
##litter
upptag
##voll
104
synkron
examensarbete
ahh
##olyckor
uppsjo
##avdelningen
installeras
helsingborgs
##emedel
jamlikhet
orattvist
strids
klinker
uppgradera
lete
korresp
trogen
##flicka
##elson
tonen
bjar
audio
brunch
tvingats
tapt
##pann
øyeblikket
lasaret
almedalen
centre
fangade
logn
##xxx
##armad
arsmøte
emer
pornografi
utesluta
frisyr
##500
##ripligt
tils
zara
allen
ziehen
lordagens
traffen
tryggheten
##rea
##ikansk
##svalg
terje
preparat
parkera
lakarna
lovlig
##administr
klang
akter
invas
krukor
cf
lustigt
pigment
planlegger
##stillfallet
konjunktur
##ли
##ursen
ljuger
lappstift
bris
hms
søkemot
vank
fresh
lotus
vittnen
lukten
inforandet
##okningar
nutid
olov
tangentbord
stormen
102
##planering
upplevas
##bør
hax
jeff
##studenter
statistisk
burken
glimt
##arare
reklamen
sein
##brytare
passat
##typer
modo
socialdemokratiska
##forskare
##cre
ensem
forint
##forsamling
kontrollere
fral
oforglom
omvarld
##61
##skategor
##ycklig
##vaxten
porriga
johansen
##vagarna
##upen
hasse
miljobalken
lanserade
trada
##ifisering
utvecklande
stimulans
investeringer
stekpanna
tv3
riktas
nyhetsbrevet
innvandrere
##shjalp
##dato
havdade
giltigt
stubb
##proses
virtuella
adopt
##ulturen
software
illustration
safari
ipod
107
jury
##naring
##numret
ødelagt
ther
zero
toppa
tryckta
vansinnigt
varumarkes
##sfast
pts
cin
marock
stiftelse
##ryd
##mit
brø
##otyper
stota
funktionell
skildrar
stamde
##iode
were
##fickor
wonder
specialiserade
rymlig
skiss
sjofart
kuvert
valfards
too
instruktor
kino
##grunder
beskyttelse
osa
mfl
soliga
109
##works
##akat
hudens
##emjol
yttrandefrihet
rencontre
##snor
framkall
again
lagstad
why
halter
stangda
hungriga
vegetabil
flerbostadshus
vegetarianer
henholdsvis
hallbarhets
##bber
djuret
##smys
diskutere
alskad
##mix
sammanhangande
bp
fersk
forkast
samhandling
styling
oppgavene
avviker
medaljer
utskottet
parfymer
analytics
##sendt
1910
##hengighet
rys
wet
##mol
##terande
peker
laktos
forsberg
kokar
menu
overensstammer
bruten
##foreningens
director
##sbev
kortere
kvallstid
pilg
tidskriften
##final
forskningsprojekt
##fabriken
mariestad
unic
forsøkte
chile
famn
avundsjuk
##irektor
avsikten
disp
##ionde
solljus
tratt
mcdonalds
##iert
##cco
hott
sekretari
##korgen
forestill
forstud
nisse
høring
rehab
##retning
jult
kunnande
skattebetal
høgskolen
##rorelser
twist
undvikas
overvaka
trevligare
##skrit
forteckning
oppdatere
gubbar
##anien
googla
festivaler
##halvaret
solskydd
mindf
##angest
begrep
anmalning
supple
rackvidd
lonn
pinterest
##forordning
atferd
##ples
omtalt
##irer
inreda
metabol
forskrack
unibet
##kass
søknader
liberala
apropa
utsedd
rall
storhet
tree
##ningsmetoder
independent
offisielle
dominant
elevers
forbattrade
handelsbanken
oupp
phu
##zzi
rapporteras
##ston
følges
missbru
empati
##elsest
googles
pretty
##reglering
backup
flagga
##onstru
tea
skulptur
away
sakkunn
problemat
##alderen
##egatan
oppt
fortjus
education
vandrade
forvirring
yahoo
gotlands
missforstand
lesere
ahlens
ine
amnena
marc
graders
gynna
chauffor
##ety
skippa
lyhord
konsesjon
catalog
##lingarna
badds
bekampning
forsvarlig
skyddande
bvc
lagene
##sku
medicinen
reagerade
undervisa
bryte
##unde
alskat
103
betalda
##otering
transportera
kjøle
markes
apning
tonaren
trix
##golvet
bestammelse
evel
anordna
sack
slutfor
posta
russisk
installt
inriktad
fredagar
##mentet
begreppen
##egas
forknippas
lordagar
plaster
##centraler
naturligvis
##infar
upphora
falkoping
would
attribut
##fjorden
vartannat
ungt
anvandande
##losningen
rorelseresultat
##hej
forbannat
##skyrkan
##xten
square
kommissionens
kjøring
uppriktig
##odagen
roberts
foralskad
fardas
jerry
halvtid
patraff
tunnelbana
tvattas
slalom
bestilling
##sben
malays
boverket
polic
variabel
tox
implementering
tande
forandrat
proportion
##arrangemang
nell
rokt
akvare
barnas
koncernens
alva
invigdes
1956
fracka
gjennomsikt
##besikt
tilhører
##snas
flad
rodbet
selvstendig
##smidler
pust
reta
analyserar
uppnar
betes
skickats
forandringarna
eliza
berord
hyllning
torsten
##girl
medlemsstaterna
##ssall
##typ
large
clear
##oider
##isation
arbetsutskott
anmalnings
kladdkaka
##sfragor
##sedel
##brunn
bristfall
pb
rostratt
##designer
noterar
stressade
knapt
næringslivet
##undersokningen
pornos
##smastare
kjønnsle
mock
mascara
##vakta
forestaller
rama
##fos
##pler
stk
mingel
scandic
kalcium
##ssatt
institute
##hev
laka
##derlig
tidskrifter
charter
omtyckt
andamalet
trengs
innovativ
##lind
plata
vintertid
##ery
webblasaren
rycka
paypal
inneholde
lindr
arbeidsplasser
satse
edge
pleier
leste
volum
framstallning
rabatten
##elighet
øster
arbetssokande
samarbetspartner
estetiska
makal
registrerte
skyn
forebilder
anonyma
tillb
##emt
tøns
valdig
docka
ungdommer
angen
##ries
beskrive
uppland
##uler
rutor
kidnapp
gyllen
paren
verdif
infors
sykehjem
generasjon
##platserna
##shoj
skattemassiga
filtrera
tilhørende
kladda
lew
svettas
stopper
sjalvrisk
vanersborg
ero
spag
riktat
begart
tokig
smahus
##rate
komite
muskul
##apital
##ansch
talare
##priserna
sq
ugns
showen
myser
dd
stotte
morsomme
flyktninger
##kampen
besvikna
bærum
logik
stigit
kalsonger
##farliga
##ration
vertik
lagens
skicklighet
uppmarksammar
hyf
##boks
tillfredsstalla
prasten
##smor
129
offentlighet
rasande
own
alban
drunk
##strasjon
vog
guldet
utanforskap
motorfordon
kajak
schakt
bonuss
likviditet
##revis
##pact
hyran
gaza
skisser
sarbar
magdalen
##brad
reager
mf
fortune
konkurrera
##ekraft
available
##ikerer
##exper
omedelbara
miljovanliga
dad
##universitetet
kusiner
svagare
kontext
pytt
turbo
tecknings
##utrymmen
styrt
genomslag
##spartnere
destrukt
avsatt
##sburg
testosteron
acceptans
##sklimat
##kontroller
##profess
grundlag
malningar
klarhet
##zonen
##sbelopp
flis
julkalender
besvaras
kvave
revolusjon
demo
##socker
stilles
uppfattningar
np
julkort
nettverket
kollektivtrafiken
lucky
##ending
ulyk
320
moden
##arige
raff
specialpedagog
byens
videopoker
raps
##aktiviteter
outlook
##komment
forskriv
utlanings
##ssyke
magazine
vincent
##bled
stryka
sambandet
introdus
nd
indexering
opplevelsen
academy
##assistent
samspill
##amnande
relevans
psal
vyer
volley
sakene
instrum
##forlust
dyb
transporten
arbetark
samverkans
trakk
kappa
marta
palace
innled
postnummer
##iansk
plante
##panelen
identifisere
##optimer
hamster
funksjonshem
simpel
utefter
presenterer
kapitalet
meteor
eslov
mestring
hau
utsp
sysselsatta
##politikk
##roprakt
matar
aldreomsorgen
##sorganisation
genomforda
terminal
tankene
exklusive
injektion
definitionen
tabu
redigering
tillampliga
monetar
bieber
incitament
rss
##ickan
slupp
algorit
oslag
snal
religioner
katrineholm
etablerte
vilse
sagor
##øres
isteden
##jtn
etiop
##anvandare
##vardes
utfordringene
spelning
eøs
spektakulara
uppfrisk
forklarat
##sjekk
##itara
brorsan
betank
føds
shower
lansering
##utga
registreringen
valgorenhet
##laning
virka
endres
lyse
ruter
insattningar
stenhart
##smassan
zar
1957
ifragasatter
frack
kunga
lillehammer
kryssning
##friheten
massiva
oppdrags
##sprosessen
ofrivill
##verktøy
##løpet
rente
tillverkades
smat
bortglom
aklagare
omtale
puck
utsm
##umo
stadar
befintligt
betonar
##llor
avvikande
##snes
ryms
upptrada
mattlig
female
akademin
arbetsgrupp
ridit
karib
parten
##areal
arbeidstakere
##62
death
hardrock
saffran
granskar
security
##byggnader
chockad
jarfalla
kronprins
aktenskapet
##shotell
incheck
##ssad
kontakte
##farten
##samhalle
california
overnatting
ragnar
##varldens
julp
konsumenterna
##ises
skilsmassa
oppvarm
prosjektene
##imo
overraska
ea
oppvekst
variationer
explorer
neon
makro
kjendiser
latthet
billy
hits
mognad
sunne
guys
hustrun
kontaktade
hotet
ck
komplicerad
marathon
kortsiktiga
konstruktionen
gallerier
stoffer
invalid
##ulan
isafall
tunge
##ei
ljuvliga
gjensid
utøvere
erst
108
oonskade
frus
##vey
beru
relasjon
inbjudande
haj
##efil
karriere
integrera
bivir
##idera
invitert
##oh
vardepappers
administrator
arvika
skrivits
fordelade
##aliserad
stephen
##casinon
jungfru
friday
vred
much
kastas
##ovo
##blandning
pepparkakor
psykologiska
##strategier
uttryckte
gynek
framkant
##lot
erstatt
flora
nervs
spj
##ftes
hood
avslutningsvis
arbeidsmiljø
##ysk
##forbrukningen
##ampor
rating
mindful
wallen
##matare
lont
knubb
left
##sutvecklingen
potensielle
##sapp
##fell
fullo
skim
avratt
change
bey
direct
valkand
##sades
##aman
##bonat
skyte
erhallas
atlas
fortsattningsvis
tittelen
packar
likabehandling
fцr
aterstaende
versa
##parad
endringene
##statistik
chefredaktor
ubehag
armer
motivationen
festa
##smessige
reducera
inforande
slakting
glemme
strekker
sudd
##framkallande
skonare
eksempelvis
prognosen
noterat
sikkerhets
friske
vetenskapen
understry
kartlagga
tradde
artific
ortod
amortering
melk
##slokal
kings
høyest
soffor
neppe
##sloshet
betald
vinsterna
fanget
dyktige
omojliga
pale
konge
##sno
forebygge
##yna
##bab
samordna
crist
prickar
arrester
solceller
1946
begagnad
##valv
stars
alderen
anstand
evaku
lungt
vaku
ofar
167
frø
polare
madele
##ansvard
bitradande
lantbruks
hannah
kiroprakt
kjedelig
regist
jernban
##løst
lattlast
belyser
angiven
lindes
##skillnad
##hjel
twi
hjalpsamma
søkere
finansinspektionen
forhallandena
four
haven
henge
konstnarlig
kontinuitet
spru
svim
sjukgymnast
lona
cartoon
norrbottens
andy
demokratiskt
duo
##skontroller
aggressiv
##barnen
##borste
##ficka
helvetet
##ovr
arrangementer
bunden
##itel
pik
##jener
orhangen
farden
##ierat
sammenligne
smaksatt
traffats
seksuell
havregryn
gf
##kjen
##penger
econom
inram
##luck
akuten
utstral
hemland
justerbar
seglar
farjan
##uit
malgrupper
hoppe
teknologien
sektionen
dypt
##olar
sydney
varmdo
mørk
hørte
##ritt
sega
fodelsedagspresent
##hos
##ground
slank
flexibelt
klistra
##bestand
lotteri
iakttag
uti
skylten
riktlinjerna
trog
pollen
halver
fastighetsagaren
bagaget
matas
greps
##redovisning
standpunkt
christopher
jasa
jay
folkom
##inske
grum
skro
sortering
gravde
betraktar
oy
fremmed
skollagen
bevitt
##ierar
prospekt
cafeer
isabella
diska
##laga
osakert
##beslut
##journalist
##placering
ersattningar
vardgivare
ovantad
lif
sneakers
invanda
hjernen
##mansk
utrednings
pseud
formell
##stilt
##ieren
paper
##care
fremfor
##uligheter
##eldingen
anglar
##fyr
skaffade
logner
blikk
straks
inforskaff
tilfellet
##vattens
blund
presentationen
iris
##konsolidering
hvorvidt
##badet
segment
1947
sangklader
##esis
##sbalken
##styrkan
##rakningar
alltifran
##øper
##ppel
ravar
##visningarna
johans
slosa
pw
uppfodare
##midler
tecknar
defekt
platen
boot
sjøen
##marnas
sedermera
arrangemanget
##pell
visuell
##ipe
riz
skansen
##boka
flot
##nav
##anpassade
forutsetninger
##llan
##fox
underskott
astro
##buren
attent
lasarna
klikke
hytta
strunta
avkastningen
m3
balanse
forhapentligvis
##roman
kjennskap
riga
schampo
##sgod
forespra
##etiden
preg
118
##ilbud
hons
symfon
sanks
klubber
redaksjon
telefonsex
##betalda
smorj
redovisningen
medlemsstat
biblioteks
##defin
##løk
larmet
sydde
##vaning
berattigade
##slandet
forson
grillat
luktade
##intag
medverkat
understreker
##pil
##bildningar
struntar
kombiner
prioriteras
jevnt
vegvesen
attacker
avancerat
inblandad
##iiii
fravær
sjøl
bagar
##py
##ales
##uman
latter
visionen
knopp
##baten
okomplicerad
bruce
sisadar
andelar
##kasse
##hallaren
##hugg
grillad
militære
forlangningen
robb
renod
##gest
##videor
docent
##riken
##driven
roker
valdsamma
##karlek
porrsajter
##iserande
##massig
##kelser
viker
smag
broad
andrad
##kurran
kassor
lcd
milt
beaktande
##pern
forev
pkt
harstammar
visu
bokas
gef
utdannet
doktorand
##online
hordes
##kvaliteten
##agenhet
episode
omgiven
ال
##vekt
oppleves
##skylt
##rundan
##beting
##dringen
termen
vittna
kjolen
##iala
utrikesminister
skuldkonsolidering
nyeste
jennie
studios
kyll
forser
nans
milda
##zel
utgava
bedomas
dev
sau
##ells
hendene
##sbutik
##arat
klassiske
xvideos
##gryta
frustrerande
suz
etterspørsel
samisk
adgang
prioriteringar
onskelista
antika
drojde
kommunisere
fact
vidareutveck
studere
simning
kollektivt
panelen
[...]
