{"version":"1.0","truncation":null,"padding":null,"added_tokens":[{"id":0,"special":true,"content":"<unk>","single_word":false,"lstrip":false,"rstrip":false,"normalized":false}],"normalizer":{"type":"Sequence","normalizers":[{"type":"NFD"},{"type":"StripAccents"}]},"pre_tokenizer":{"type":"Whitespace"},"post_processor":null,"decoder":{"type":"Metaspace","replacement":"▁","str_rep":"▁","add_prefix_space":true},"model":{"type":"BPE","dropout":null,"unk_token":null,"continuing_subword_prefix":null,"end_of_word_suffix":null,"fuse_unk":false,"vocab":{"<unk>":0,"\u0000":1,"\u0003":2,"\u0006":3,"\u0007":4,"\b":5,"\u0013":6,"\u001f":7,"!":8,"\"":9,"#":10,"$":11,"%":12,"&":13,"'":14,"(":15,")":16,"*":17,"+":18,",":19,"-":20,".":21,"/":22,"0":23,"1":24,"2":25,"3":26,"4":27,"5":28,"6":29,"7":30,"8":31,"9":32,":":33,";":34,"<":35,"=":36,">":37,"?":38,"@":39,"A":40,"B":41,"C":42,"D":43,"E":44,"F":45,"G":46,"H":47,"I":48,"J":49,"K":50,"L":51,"M":52,"N":53,"O":54,"P":55,"Q":56,"R":57,"S":58,"T":59,"U":60,"V":61,"W":62,"X":63,"Y":64,"Z":65,"[":66,"\\":67,"]":68,"^":69,"_":70,"`":71,"a":72,"b":73,"c":74,"d":75,"e":76,"f":77,"g":78,"h":79,"i":80,"j":81,"k":82,"l":83,"m":84,"n":85,"o":86,"p":87,"q":88,"r":89,"s":90,"t":91,"u":92,"v":93,"w":94,"x":95,"y":96,"z":97,"{":98,"|":99,"}":100,"~":101,"":102,"":103,"":104,"":105,"":106,"":107,"":108,"":109,"":110,"":111,"¡":112,"¢":113,"£":114,"¤":115,"¥":116,"¦":117,"§":118,"¨":119,"©":120,"«":121,"¬":122,"­":123,"®":124,"¯":125,"°":126,"±":127,"²":128,"³":129,"´":130,"µ":131,"¶":132,"·":133,"¸":134,"¹":135,"º":136,"»":137,"¼":138,"½":139,"¾":140,"¿":141,"Æ":142,"Ð":143,"×":144,"Ø":145,"Þ":146,"ß":147,"æ":148,"ð":149,"÷":150,"ø":151,"þ":152,"Đ":153,"đ":154,"ı":155,"Ł":156,"ł":157,"Œ":158,"œ":159,"ƒ":160,"ɔ":161,"ə":162,"ɛ":163,"ʹ":164,"ʿ":165,"ˆ":166,"ˇ":167,"ˈ":168,"ː":169,"˚":170,"ͼ":171,"Α":172,"Γ":173,"Δ":174,"Ε":175,"Ι":176,"Κ":177,"Λ":178,"Μ":179,"Ο":180,"Π":181,"Σ":182,"Τ":183,"Φ":184,"Ω":185,"α":186,"β":187,"γ":188,"δ":189,"ε":190,"ζ":191,"η":192,"θ":193,"ι":194,"κ":195,"λ":196,"μ":197,"ν":198,"ξ":199,"ο":200,"π":201,"ρ":202,"ς":203,"σ":204,"τ":205,"υ":206,"φ":207,"χ":208,"ω":209,"Ђ":210,"Ѕ":211,"І":212,"А":213,"Б":214,"В":215,"Г":216,"Д":217,"Е":218,"Ж":219,"З":220,"И":221,"К":222,"Л":223,"М":224,"Н":225,"О":226,"П":227,"Р":228,"С":229,"Т":230,"У":231,"Ф":232,"Х":233,"Ц":234,"Ч":235,"Ш":236,"Щ":237,"Э":238,"Я":239,"а":240,"б":241,"в":242,"г":243,"д":244,"е":245,"ж":246,"з":247,"и":248,"к":249,"л":250,"м":251,"н":252,"о":253,"п":254,"р":255,"с":256,"т":257,"у":258,"ф":259,"х":260,"ц":261,"ч":262,"ш":263,"щ":264,"ъ":265,"ы":266,"ь":267,"э":268,"ю":269,"я":270,"ѕ":271,"і":272,"ј":273,"Ґ":274,"һ":275,"ա":276,"ն":277,"ր":278,"א":279,"ב":280,"ג":281,"ד":282,"ה":283,"ו":284,"ח":285,"ט":286,"י":287,"כ":288,"ל":289,"ם":290,"מ":291,"ן":292,"נ":293,"ס":294,"ע":295,"פ":296,"ק":297,"ר":298,"ש":299,"ת":300,"،":301,"ء":302,"ا":303,"ب":304,"ة":305,"ت":306,"ث":307,"ج":308,"ح":309,"خ":310,"د":311,"ذ":312,"ر":313,"ز":314,"س":315,"ش":316,"ص":317,"ض":318,"ط":319,"ظ":320,"ع":321,"غ":322,"ـ":323,"ف":324,"ق":325,"ك":326,"ل":327,"م":328,"ن":329,"ه":330,"و":331,"ى":332,"ي":333,"پ":334,"چ":335,"ک":336,"گ":337,"ی":338,"ە":339,"क":340,"ज":341,"त":342,"द":343,"न":344,"प":345,"म":346,"य":347,"र":348,"ल":349,"व":350,"स":351,"ह":352,"ক":353,"ন":354,"ব":355,"র":356,"க":357,"த":358,"ம":359,"ก":360,"ข":361,"ค":362,"ง":363,"จ":364,"ช":365,"ด":366,"ต":367,"ท":368,"น":369,"บ":370,"ป":371,"พ":372,"ม":373,"ย":374,"ร":375,"ล":376,"ว":377,"ส":378,"ห":379,"อ":380,"ะ":381,"า":382,"เ":383,"แ":384,"ไ":385,"་":386,"ა":387,"ე":388,"ი":389,"ლ":390,"ო":391,"რ":392,"ს":393,"ᄀ":394,"ᄂ":395,"ᄃ":396,"ᄅ":397,"ᄆ":398,"ᄇ":399,"ᄉ":400,"ᄋ":401,"ᄌ":402,"ᄎ":403,"ᄐ":404,"ᄑ":405,"ᄒ":406,"ᅡ":407,"ᅢ":408,"ᅥ":409,"ᅦ":410,"ᅧ":411,"ᅩ":412,"ᅪ":413,"ᅬ":414,"ᅭ":415,"ᅮ":416,"ᅳ":417,"ᅵ":418,"ᆨ":419,"ᆫ":420,"ᆯ":421,"ᆷ":422,"ᆸ":423,"ᆼ":424,"ᐈ":425,"​":426,"‌":427,"‍":428,"‎":429,"‐":430,"‑":431,"‒":432,"–":433,"—":434,"‘":435,"’":436,"‚":437,"“":438,"”":439,"„":440,"†":441,"•":442,"…":443,"‪":444,"‬":445,"′":446,"″":447,"‹":448,"›":449,"₂":450,"₨":451,"€":452,"℃":453,"№":454,"™":455,"←":456,"↑":457,"→":458,"↓":459,"⇒":460,"−":461,"√":462,"≤":463,"≥":464,"─":465,"■":466,"□":467,"▪":468,"▫":469,"▲":470,"▶":471,"►":472,"▻":473,"▼":474,"○":475,"●":476,"☀":477,"★":478,"☆":479,"☺":480,"♀":481,"♡":482,"♥":483,"♦":484,"✅":485,"✌":486,"✓":487,"✔":488,"✚":489,"✨":490,"✭":491,"❑":492,"❤":493,"➔":494,"⠀":495,"⭐":496,"Ⰰ":497,"、":498,"。":499,"「":500,"」":501,"【":502,"】":503,"あ":504,"い":505,"う":506,"え":507,"お":508,"か":509,"き":510,"く":511,"け":512,"こ":513,"さ":514,"し":515,"す":516,"せ":517,"そ":518,"た":519,"ち":520,"っ":521,"つ":522,"て":523,"と":524,"な":525,"に":526,"の":527,"は":528,"ま":529,"み":530,"め":531,"も":532,"や":533,"よ":534,"ら":535,"り":536,"る":537,"れ":538,"わ":539,"を":540,"ん":541,"ア":542,"ィ":543,"イ":544,"ウ":545,"ェ":546,"エ":547,"オ":548,"カ":549,"キ":550,"ク":551,"ケ":552,"コ":553,"サ":554,"シ":555,"ス":556,"セ":557,"タ":558,"チ":559,"ッ":560,"ツ":561,"テ":562,"ト":563,"ナ":564,"ニ":565,"ハ":566,"ヒ":567,"フ":568,"ヘ":569,"ホ":570,"マ":571,"ミ":572,"ム":573,"メ":574,"ャ":575,"ュ":576,"ョ":577,"ラ":578,"リ":579,"ル":580,"レ":581,"ロ":582,"ン":583,"・":584,"ー":585,"䄀":586,"䈀":587,"䔀":588,"䜀":589,"䠀":590,"䤀":591,"䬀":592,"䰀":593,"䴀":594,"一":595,"万":596,"三":597,"上":598,"下":599,"不":600,"与":601,"世":602,"业":603,"东":604,"个":605,"中":606,"为":607,"主":608,"么":609,"之":610,"乐":611,"九":612,"也":613,"乡":614,"买":615,"了":616,"争":617,"事":618,"二":619,"于":620,"五":621,"交":622,"产":623,"京":624,"人":625,"什":626,"今":627,"他":628,"仙":629,"代":630,"以":631,"们":632,"件":633,"伀":634,"会":635,"位":636,"体":637,"何":638,"作":639,"使":640,"保":641,"信":642,"元":643,"光":644,"免":645,"入":646,"全":647,"八":648,"公":649,"六":650,"内":651,"円":652,"准":653,"出":654,"刀":655,"分":656,"划":657,"利":658,"到":659,"制":660,"前":661,"力":662,"加":663,"动":664,"势":665,"動":666,"匀":667,"化":668,"北":669,"区":670,"十":671,"单":672,"南":673,"博":674,"原":675,"县":676,"双":677,"发":678,"取":679,"口":680,"可":681,"台":682,"号":683,"司":684,"吀":685,"合":686,"同":687,"名":688,"后":689,"吗":690,"和":691,"品":692,"哪":693,"唀":694,"商":695,"器":696,"四":697,"回":698,"国":699,"图":700,"在":701,"地":702,"场":703,"址":704,"坛":705,"城":706,"場":707,"外":708,"多":709,"大":710,"天":711,"太":712,"头":713,"奖":714,"女":715,"好":716,"如":717,"姐":718,"娱":719,"婆":720,"子":721,"字":722,"学":723,"安":724,"官":725,"定":726,"宝":727,"实":728,"客":729,"家":730,"富":731,"对":732,"小":733,"少":734,"就":735,"尾":736,"山":737,"川":738,"州":739,"工":740,"巧":741,"市":742,"平":743,"年":744,"广":745,"庆":746,"库":747,"店":748,"度":749,"建":750,"开":751,"式":752,"当":753,"录":754,"彩":755,"影":756,"律":757,"得":758,"微":759,"心":760,"必":761,"忙":762,"快":763,"怎":764,"思":765,"性":766,"情":767,"意":768,"感":769,"戏":770,"成":771,"我":772,"户":773,"所":774,"手":775,"打":776,"技":777,"投":778,"报":779,"拉":780,"挂":781,"指":782,"提":783,"播":784,"教":785,"数":786,"文":787,"料":788,"斯":789,"新":790,"方":791,"无":792,"日":793,"时":794,"明":795,"星":796,"是":797,"時":798,"更":799,"最":800,"月":801,"有":802,"服":803,"期":804,"木":805,"本":806,"机":807,"杀":808,"来":809,"東":810,"林":811,"枚":812,"果":813,"格":814,"業":815,"正":816,"比":817,"民":818,"氓":819,"水":820,"江":821,"河":822,"法":823,"波":824,"注":825,"活":826,"流":827,"测":828,"海":829,"港":830,"游":831,"澳":832,"点":833,"爱":834,"片":835,"版":836,"牌":837,"牛":838,"物":839,"特":840,"狗":841,"玄":842,"王":843,"玩":844,"现":845,"球":846,"理":847,"生":848,"用":849,"田":850,"电":851,"白":852,"百":853,"的":854,"目":855,"盲":856,"直":857,"相":858,"看":859,"県":860,"真":861,"知":862,"石":863,"码":864,"社":865,"神":866,"票":867,"福":868,"科":869,"站":870,"第":871,"等":872,"算":873,"管":874,"精":875,"系":876,"红":877,"线":878,"组":879,"经":880,"结":881,"网":882,"美":883,"群":884,"老":885,"者":886,"肖":887,"能":888,"自":889,"色":890,"花":891,"行":892,"表":893,"西":894,"要":895,"规":896,"视":897,"解":898,"计":899,"记":900,"论":901,"诗":902,"财":903,"费":904,"资":905,"赌":906,"赛":907,"赢":908,"走":909,"跑":910,"路":911,"车":912,"软":913,"载":914,"这":915,"送":916,"选":917,"通":918,"道":919,"部":920,"都":921,"酶":922,"里":923,"重":924,"金":925,"钱":926,"镇":927,"长":928,"間":929,"门":930,"阳":931,"限":932,"院":933,"集":934,"霸":935,"青":936,"面":937,"音":938,"香":939,"马":940,"高":941,"黄":942,"龙":943,"":944,"":945,"":946,"":947,"":948,"":949,"ﬁ":950,"ﬂ":951,"﻿":952,"！":953,"（":954,"）":955,"，":956,"：":957,"ﾞ":958,"�":959,"🌟":960,"🌸":961,"🎉":962,"🏻":963,"🏼":964,"👌":965,"👍":966,"👏":967,"💕":968,"💖":969,"💗":970,"💙":971,"💚":972,"💜":973,"💪":974,"😀":975,"😁":976,"😂":977,"😃":978,"😄":979,"😅":980,"😆":981,"😉":982,"😊":983,"😋":984,"😍":985,"😎":986,"😘":987,"😛":988,"😜":989,"😦":990,"😱":991,"😳":992,"🙁":993,"🙂":994,"🙄":995,"🙈":996,"🙌":997,"🙏":998,"🤔":999,"🤗":1000,"er":1001,"en":1002,"ar":1003,"an":1004,"et":1005,"or":1006,"in":1007,"at":1008,"st":1009,"de":1010,"ll":1011,"om":1012,"ig":1013,"sk":1014,"ag":1015,"for":1016,"ti":1017,"ed":1018,"al":1019,"ing":1020,"on":1021,"oc":1022,"att":1023,"sa":1024,"og":1025,"re":1026,"ra":1027,"och":1028,"pa":1029,"vi":1030,"el":1031,"det":1032,"te":1033,"av":1034,"som":1035,"den":1036,"un":1037,"der":1038,"var":1039,"med":1040,"li":1041,"ter":1042,"na":1043,"lig":1044,"all":1045,"and":1046,"ver":1047,"har":1048,"se":1049,"ut":1050,"ri":1051,"le":1052,"ning":1053,"pp":1054,"si":1055,"kt":1056,"as":1057,"be":1058,"ro":1059,"kan":1060,"ol":1061,"man":1062,"ck":1063,"ne":1064,"till":1065,"ad":1066,"il":1067,"men":1068,"til":1069,"ell":1070,"ta":1071,"sp":1072,"it":1073,"ska":1074,"am":1075,"du":1076,"ur":1077,"ang":1078,"ke":1079,"eg":1080,"ot":1081,"jag":1082,"af":1083,"ser":1084,"ade":1085,"kom":1086,"mer":1087,"ik":1088,"ett":1089,"sen":1090,"es":1091,"ma":1092,"sam":1093,"ste":1094,"ati":1095,"del":1096,"ru":1097,"ok":1098,"sl":1099,"ran":1100,"ud":1101,"inte":1102,"are":1103,"Det":1104,"da":1105,"op":1106,"ør":1107,"kl":1108,"ve":1109,"ss":1110,"va":1111,"eller":1112,"dag":1113,"sta":1114,"over":1115,"od":1116,"min":1117,"dig":1118,"nar":1119,"ka":1120,"het":1121,"em":1122,"ker":1123,"inn":1124,"han":1125,"ger":1126,"per":1127,"ef":1128,"ort":1129,"ul":1130,"gi":1131,"bar":1132,"gen":1133,"fa":1134,"me":1135,"ge":1136,"bli":1137,"far":1138,"fra":1139,"..":1140,"sig":1141,"upp":1142,"bet":1143,"kon":1144,"is":1145,"la":1146,"ill":1147,"tt":1148,"ven":1149,"ær":1150,"val":1151,"us":1152,"ch":1153,"under":1154,"ny":1155,"ande":1156,"ga":1157,"isk":1158,"mar":1159,"bl":1160,"hel":1161,"ster":1162,"bor":1163,"ber":1164,"20":1165,"ation":1166,"ju":1167,"kti":1168,"ho":1169,"pl":1170,"gar":1171,"ble":1172,"pro":1173,"je":1174,"stor":1175,"tr":1176,"ikke":1177,"ann":1178,"lag":1179,"vis":1180,"yck":1181,"ens":1182,"und":1183,"ha":1184,"ligt":1185,"fl":1186,"fran":1187,"by":1188,"vil":1189,"kr":1190,"id":1191,"gr":1192,"sy":1193,"ken":1194,"ull":1195,"tid":1196,"efter":1197,"ock":1198,"ske":1199,"di":1200,"mo":1201,"van":1202,"ere":1203,"igt":1204,"ba":1205,"ten":1206,"opp":1207,"ord":1208,"ende":1209,"nu":1210,"sin":1211,"bil":1212,"Vi":1213,"tra":1214,"nag":1215,"gang":1216,"dr":1217,"of":1218,"ingen":1219,"vet":1220,"satt":1221,"sj":1222,"kun":1223,"tal":1224,"hol":1225,"dar":1226,"pr":1227,"sag":1228,"alla":1229,"son":1230,"Den":1231,"00":1232,"mal":1233,"gj":1234,"hand":1235,"vara":1236,"For":1237,"kommer":1238,"kar":1239,"red":1240,"fin":1241,"ko":1242,"gor":1243,"fe":1244,"um":1245,"fi":1246,"jeg":1247,"par":1248,"mig":1249,"ent":1250,"ater":1251,"ige":1252,"po":1253,"star":1254,"lan":1255,"bru":1256,"des":1257,"ft":1258,"tag":1259,"hj":1260,"ket":1261,"Jag":1262,"ene":1263,"væ":1264,"ner":1265,"19":1266,"ved":1267,"met":1268,"itt":1269,"ex":1270,"vill":1271,"ind":1272,"din":1273,"In":1274,"no":1275,"jer":1276,"ja":1277,"mot":1278,"lang":1279,"vid":1280,"svar":1281,"vor":1282,"ningen":1283,"hed":1284,"ty":1285,"os":1286,"res":1287,"else":1288,"hav":1289,"æn":1290,"finn":1291,"En":1292,"tet":1293,"vad":1294,"str":1295,"skal":1296,"bo":1297,"St":1298,"jo":1299,"ni":1300,"bb":1301,"mat":1302,"yr":1303,"skri":1304,"201":1305,"vin":1306,"gl":1307,"stall":1308,"sel":1309,"hall":1310,"gg":1311,"kel":1312,"Men":1313,"form":1314,"finns":1315,"An":1316,"sten":1317,"arna":1318,"bra":1319,"slut":1320,"net":1321,"ce":1322,"dan":1323,"sm":1324,"tan":1325,"ci":1326,"bara":1327,"ling":1328,"land":1329,"før":1330,"ycket":1331,"tro":1332,"ulle":1333,"fram":1334,"liga":1335,"fol":1336,"oner":1337,"dom":1338,"De":1339,"andra":1340,"lite":1341,"tar":1342,"nat":1343,"im":1344,"arbet":1345,"ry":1346,"vand":1347,"vær":1348,"dt":1349,"mun":1350,"led":1351,"hon":1352,"god":1353,"fø":1354,"verk":1355,"pri":1356,"ats":1357,"sø":1358,"iga":1359,"person":1360,"ly":1361,"skulle":1362,"alt":1363,"dre":1364,"hem":1365,"blev":1366,"mycket":1367,"ek":1368,"ting":1369,"era":1370,"ogsa":1371,"dem":1372,"sex":1373,"hur":1374,"spel":1375,"nog":1376,"ligen":1377,"ned":1378,"pen":1379,"være":1380,"blir":1381,"...":1382,"lar":1383,"vag":1384,"lige":1385,"ir":1386,"fil":1387,"he":1388,"oli":1389,"arbe":1390,"mu":1391,"dat":1392,"ov":1393,"kra":1394,"fort":1395,"ocksa":1396,"fatt":1397,"fter":1398,"klar":1399,"aven":1400,"jen":1401,"yn":1402,"sok":1403,"fri":1404,"rag":1405,"bi":1406,"tre":1407,"mark":1408,"Ar":1409,"ant":1410,"skap":1411,"org":1412,"helt":1413,"ier":1414,"hade":1415,"allt":1416,"dej":1417,"hu":1418,"ratt":1419,"hen":1420,"ningar":1421,"kter":1422,"onen":1423,"kor":1424,"hvor":1425,"jan":1426,"oss":1427,"samt":1428,"ds":1429,"sti":1430,"to":1431,"her":1432,"lin":1433,"alv":1434,"hus":1435,"ram":1436,"pre":1437,"genom":1438,"ans":1439,"mas":1440,"nings":1441,"stad":1442,"kke":1443,"Har":1444,"mell":1445,"fun":1446,"æl":1447,"pe":1448,"ret":1449,"kv":1450,"øn":1451,"ug":1452,"ult":1453,"Sa":1454,").":1455,"fy":1456,"utan":1457,"edan":1458,"rad":1459,"hi":1460,"igen":1461,"br":1462,"Pa":1463,"akt":1464,"cer":1465,"digt":1466,"nes":1467,"tter":1468,"fall":1469,"vs":1470,"slag":1471,"spe":1472,"rel":1473,"ings":1474,"ie":1475,"ak":1476,"kommun":1477,"ale":1478,"Du":1479,"heter":1480,"vel":1481,"fre":1482,"produ":1483,"por":1484,"saker":1485,"barn":1486,"ien":1487,"ingar":1488,"hog":1489,"sker":1490,"bland":1491,"nor":1492,"Han":1493,"skol":1494,"10":1495,"18":1496,"atis":1497,"stan":1498,"tor":1499,"veck":1500,"læ":1501,"gora":1502,"nagon":1503,"bade":1504,"lø":1505,"etter":1506,"fly":1507,"eget":1508,"ia":1509,"fik":1510,"ets":1511,"pas":1512,"forsta":1513,"rum":1514,"maste":1515,"ala":1516,"ons":1517,"rikt":1518,"alle":1519,"stra":1520,"Nar":1521,"tu":1522,"inne":1523,"bu":1524,"Jeg":1525,"arbej":1526,"kten":1527,"ung":1528,"inter":1529,"hø":1530,"bed":1531,"kker":1532,"inger":1533,"200":1534,"plan":1535,"mor":1536,"ts":1537,"nagot":1538,"selv":1539,"vir":1540,"lu":1541,"ban":1542,"manga":1543,"stand":1544,"Om":1545,"heten":1546,"ks":1547,"gel":1548,"detta":1549,"sn":1550,"bel":1551,"sky":1552,"mi":1553,"ler":1554,"dejting":1555,"ham":1556,"ligger":1557,"app":1558,"cen":1559,"so":1560,"forsk":1561,"ff":1562,"lle":1563,"Sk":1564,"ller":1565,"ca":1566,"batt":1567,"ren":1568,"tva":1569,"still":1570,"fick":1571,"mm":1572,"sedan":1573,"aren":1574,"akti":1575,"kn":1576,"hor":1577,"run":1578,"lla":1579,"pel":1580,"lo":1581,"hos":1582,"ski":1583,"anvand":1584,"ars":1585,"sted":1586,"mil":1587,"su":1588,"Der":1589,"art":1590,"tem":1591,"erne":1592,"fam":1593,"ele":1594,"mann":1595,"frag":1596,"las":1597,"andre":1598,"ata":1599,"nas":1600,"gra":1601,"olika":1602,"føl":1603,"rupp":1604,"iske":1605,"jar":1606,"omra":1607,"itet":1608,"foret":1609,"seg":1610,"bok":1611,"lever":1612,"sjalv":1613,"Sver":1614,"tiden":1615,"dagen":1616,"ben":1617,"hal":1618,"grund":1619,"syn":1620,"set":1621,"hver":1622,"uren":1623,"kort":1624,"kop":1625,"vikt":1626,"frem":1627,"nam":1628,"sven":1629,"lem":1630,"sal":1631,"hela":1632,"utom":1633,"hun":1634,"we":1635,"tte":1636,"hy":1637,"Med":1638,"fer":1639,"end":1640,"tion":1641,"bro":1642,"ott":1643,"mel":1644,"delse":1645,"sty":1646,"hjal":1647,"vt":1648,"skar":1649,"vilket":1650,"15":1651,"bygg":1652,"tran":1653,"bild":1654,"Var":1655,"gt":1656,"mange":1657,"holm":1658,"hold":1659,"sma":1660,"byg":1661,"gratis":1662,"kj":1663,"go":1664,"age":1665,"mest":1666,"stem":1667,"sna":1668,"nagra":1669,"Li":1670,"kli":1671,"skt":1672,"beg":1673,"nem":1674,"get":1675,"sion":1676,"jon":1677,"folk":1678,"fast":1679,"poli":1680,"dri":1681,"liv":1682,"ninger":1683,"uden":1684,"sage":1685,"borg":1686,"ic":1687,"medel":1688,"sak":1689,"beho":1690,"mere":1691,"ns":1692,"huv":1693,"sid":1694,"bord":1695,"nya":1696,"varit":1697,"vatt":1698,"spr":1699,"grupp":1700,"meget":1701,"beh":1702,"Nor":1703,"denna":1704,"kring":1705,"sol":1706,"moj":1707,"lat":1708,"sæ":1709,"Un":1710,"hop":1711,"Och":1712,"amp":1713,"lik":1714,"øre":1715,"reg":1716,"cka":1717,"inom":1718,"aller":1719,"enkel":1720,"gam":1721,"full":1722,"meter":1723,"samman":1724,"fan":1725,"samma":1726,"Nu":1727,"foretag":1728,"ari":1729,"ella":1730,"dens":1731,"mellan":1732,"takt":1733,"aldr":1734,"sor":1735,"kur":1736,"dette":1737,"ment":1738,"ali":1739,"egen":1740,"hans":1741,"denne":1742,"do":1743,"enn":1744,"ab":1745,"tidig":1746,"kanske":1747,"styr":1748,"skil":1749,"30":1750,"12":1751,"regi":1752,"ades":1753,"bud":1754,"Jo":1755,"bety":1756,"erna":1757,"idag":1758,"kte":1759,"ød":1760,"stru":1761,"vide":1762,"mod":1763,"kommen":1764,"behand":1765,"kunne":1766,"runt":1767,"eter":1768,"tyck":1769,"vart":1770,"sammen":1771,"nad":1772,"innan":1773,"my":1774,"rak":1775,"Da":1776,"nen":1777,"Al":1778,"klu":1779,"olog":1780,"huvud":1781,"ide":1782,"annat":1783,"ina":1784,"),":1785,"tik":1786,"Sverige":1787,"ogram":1788,"co":1789,"anda":1790,"fore":1791,"gav":1792,"io":1793,"bill":1794,"jekt":1795,"itta":1796,"lad":1797,"Dan":1798,"les":1799,"sko":1800,"ps":1801,"ockholm":1802,"kri":1803,"sitt":1804,"vit":1805,"fot":1806,"tog":1807,"siden":1808,"Man":1809,"ring":1810,"berg":1811,"uni":1812,"ses":1813,"sju":1814,"stam":1815,"17":1816,"mana":1817,"kost":1818,"san":1819,"pt":1820,"job":1821,"famil":1822,"utveck":1823,"ast":1824,"sson":1825,"vax":1826,"Re":1827,"fle":1828,"sar":1829,"dire":1830,"bin":1831,"skre":1832,"iska":1833,"medlem":1834,"Ma":1835,"ue":1836,"Som":1837,"dere":1838,"ationer":1839,"mindre":1840,"sager":1841,"gjor":1842,"proble":1843,"mid":1844,"lighet":1845,"Mar":1846,"sik":1847,"godt":1848,"ial":1849,"spill":1850,"gjort":1851,"sat":1852,"kø":1853,"elt":1854,"ering":1855,"ktion":1856,"landet":1857,"neder":1858,"16":1859,"natur":1860,"snitt":1861,"alen":1862,"inform":1863,"sv":1864,"50":1865,"ror":1866,"ron":1867,"Ja":1868,"komp":1869,"lok":1870,"atte":1871,"alltid":1872,"Efter":1873,"sina":1874,"kval":1875,"bare":1876,"anden":1877,"try":1878,"tta":1879,"sjon":1880,"dy":1881,"film":1882,"ville":1883,"stod":1884,"line":1885,"jor":1886,"pu":1887,"Kom":1888,"hvis":1889,"ej":1890,"klas":1891,"fal":1892,"ym":1893,"betal":1894,"dessa":1895,"Sex":1896,"ede":1897,"dra":1898,"varl":1899,"histor":1900,"drag":1901,"nytt":1902,"gan":1903,"latt":1904,"kro":1905,"sett":1906,"bør":1907,"Her":1908,"gick":1909,"lighed":1910,"kvinn":1911,"spar":1912,"speci":1913,"rik":1914,"km":1915,"kna":1916,"14":1917,"stora":1918,"lagg":1919,"000":1920,"behover":1921,"Be":1922,"tes":1923,"kunna":1924,"flere":1925,"elle":1926,"let":1927,"mitt":1928,"organ":1929,"blog":1930,"eri":1931,"bol":1932,"gre":1933,"sch":1934,"andet":1935,"uro":1936,"hjem":1937,"!!":1938,"bad":1939,"Sam":1940,"plats":1941,"nederbord":1942,"lam":1943,"stat":1944,"delen":1945,"kvar":1946,"mini":1947,"konom":1948,"basta":1949,"tror":1950,"ine":1951,"deres":1952,"jud":1953,"ator":1954,"havde":1955,"isse":1956,"int":1957,"bort":1958,"pass":1959,"agen":1960,"bilder":1961,"tur":1962,"perat":1963,"gjorde":1964,"nye":1965,"første":1966,"bliver":1967,"ræ":1968,"have":1969,"pan":1970,"sli":1971,"dating":1972,"Mo":1973,"11":1974,"enda":1975,"aldrig":1976,"tel":1977,"ktor":1978,"stri":1979,"ys":1980,"fakti":1981,"Og":1982,"tern":1983,"rett":1984,"sikt":1985,"eder":1986,"aft":1987,"iskt":1988,"kontakt":1989,"soc":1990,"cort":1991,"Kon":1992,"mit":1993,"lev":1994,"lav":1995,"stør":1996,"visa":1997,"Se":1998,"just":1999,"kvin":2000,"ager":2001,"mø":2002,"træ":2003,"ob":2004,"pun":2005,"sadan":2006,"proc":2007,"skon":2008,"rat":2009,"alog":2010,"klart":2011,"mon":2012,"ener":2013,"tim":2014,"komma":2015,"rar":2016,"mannisk":2017,"lek":2018,"valdigt":2019,"flera":2020,"temperat":2021,"sla":2022,"riktigt":2023,"tera":2024,"hele":2025,"vare":2026,"ansvar":2027,"dess":2028,"bri":2029,"iner":2030,"kall":2031,"tje":2032,"pla":2033,"stort":2034,"unn":2035,"kla":2036,"ationen":2037,"varje":2038,"effe":2039,"talet":2040,"fo":2041,"cy":2042,"jobb":2043,"kunde":2044,"program":2045,"ow":2046,"Att":2047,"plat":2048,"13":2049,"kam":2050,"foren":2051,"kil":2052,"ultat":2053,"sida":2054,"gifter":2055,"elsen":2056,"ki":2057,"Pro":2058,"SA":2059,"namn":2060,"galler":2061,"bas":2062,"Under":2063,"ordan":2064,"elser":2065,"au":2066,"ofta":2067,"vem":2068,"stre":2069,"bry":2070,"enkelt":2071,"vores":2072,"ppa":2073,"battre":2074,"ellt":2075,"adde":2076,"deras":2077,"haller":2078,"ard":2079,"ote":2080,"forst":2081,"Kan":2082,"noget":2083,"kat":2084,"ksom":2085,"personer":2086,"rang":2087,"pi":2088,"rigt":2089,"tycker":2090,"store":2091,"vikl":2092,"behov":2093,"rom":2094,"vitet":2095,"massage":2096,"vat":2097,"eftersom":2098,"gener":2099,"Stockholm":2100,"kraft":2101,"politi":2102,"ute":2103,"empel":2104,"hitta":2105,"erb":2106,"presen":2107,"vordan":2108,"ighet":2109,"brug":2110,"dit":2111,"verkligen":2112,"vatten":2113,"natt":2114,"tv":2115,"ER":2116,"fortsatt":2117,"øj":2118,"beslut":2119,"Ro":2120,"ara":2121,"ust":2122,"via":2123,"nett":2124,"com":2125,"folj":2126,"fel":2127,"mina":2128,"skall":2129,"dock":2130,"haft":2131,"fler":2132,"vej":2133,"aret":2134,"online":2135,"cker":2136,"vært":2137,"vning":2138,"fanta":2139,"gran":2140,"fred":2141,"annan":2142,"Por":2143,"Des":2144,"stallet":2145,"orna":2146,":)":2147,"fru":2148,"ditt":2149,"høj":2150,"off":2151,"Detta":2152,"forsok":2153,"øy":2154,"sammans":2155,"borj":2156,"mand":2157,"25":2158,"uten":2159,"ære":2160,"Ny":2161,"dags":2162,"Le":2163,"the":2164,"kvall":2165,"bla":2166,"tidigt":2167,"mis":2168,"ton":2169,"disk":2170,"ativ":2171,"bak":2172,"svart":2173,"dal":2174,"oku":2175,"stil":2176,"side":2177,"kul":2178,"Gr":2179,"ckan":2180,"hadde":2181,"information":2182,"hund":2183,"sport":2184,"mt":2185,"svenska":2186,"porr":2187,"manaden":2188,"verksam":2189,"temperaturen":2190,"199":2191,"Ch":2192,"skab":2193,"tjan":2194,"Sven":2195,"All":2196,"snar":2197,"konst":2198,"ou":2199,"nade":2200,"næ":2201,"baka":2202,"band":2203,"garna":2204,"vann":2205,"Ta":2206,"smal":2207,"tekn":2208,"exempel":2209,"Per":2210,"manniskor":2211,"derna":2212,"kropp":2213,"staden":2214,"gør":2215,"ori":2216,"hjalp":2217,"slo":2218,"dagar":2219,"hvad":2220,"jam":2221,"nær":2222,"mang":2223,"Till":2224,"Ett":2225,"bid":2226,"noen":2227,"sidan":2228,"ili":2229,"styrel":2230,"ften":2231,"arbete":2232,"tidigare":2233,"gende":2234,"rig":2235,"langt":2236,"beratt":2237,"redan":2238,"gu":2239,"aste":2240,"inde":2241,"uld":2242,"glad":2243,"est":2244,"lingen":2245,"direkt":2246,"dd":2247,"stol":2248,"Gen":2249,"nord":2250,"arti":2251,"lidt":2252,"enligt":2253,"illi":2254,"cis":2255,"lange":2256,"sang":2257,"bart":2258,"snabb":2259,"Mal":2260,"bag":2261,"resultat":2262,"stud":2263,"posi":2264,"læg":2265,"len":2266,"asin":2267,"lika":2268,"samme":2269,"ac":2270,"problem":2271,"100":2272,"tillsammans":2273,"Dette":2274,"Bo":2275,"gangen":2276,"jul":2277,"llar":2278,"uter":2279,"valg":2280,"up":2281,"\".":2282,"bran":2283,"livet":2284,"saj":2285,"medeltemperaturen":2286,"Hvis":2287,"honom":2288,"kning":2289,"kal":2290,"mmer":2291,"mater":2292,"regn":2293,"sing":2294,"dam":2295,"funger":2296,"hvordan":2297,"været":2298,"Ut":2299,"behandling":2300,"lov":2301,"IN":2302,"elig":2303,"tillbaka":2304,"mens":2305,"familjen":2306,"40":2307,"omradet":2308,"bred":2309,"dina":2310,"arbejde":2311,"asjon":2312,"inga":2313,"centr":2314,"typ":2315,"gennem":2316,"kontro":2317,"llen":2318,"Ber":2319,"liten":2320,"Stor":2321,"infor":2322,"lys":2323,"kult":2324,"trad":2325,"pet":2326,"erede":2327,"ometer":2328,"sikker":2329,"henne":2330,"projekt":2331,"mode":2332,"gift":2333,"kta":2334,"skriver":2335,"disse":2336,"fem":2337,"anga":2338,"pris":2339,"vol":2340,"noe":2341,"produkter":2342,"utbild":2343,"storre":2344,"ick":2345,"Hon":2346,"lagt":2347,"pra":2348,"ganska":2349,"besok":2350,"ellige":2351,"dende":2352,"skolan":2353,"bon":2354,"giver":2355,"hemma":2356,"vice":2357,"nation":2358,"menne":2359,"pper":2360,"fag":2361,"EN":2362,"match":2363,"Er":2364,"alder":2365,"kes":2366,"kvinnor":2367,"video":2368,"havet":2369,"vik":2370,"saga":2371,"janu":2372,"nok":2373,"hjæl":2374,"Fran":2375,"arter":2376,"Min":2377,"erfar":2378,"ogra":2379,"vard":2380,"inget":2381,"port":2382,"aler":2383,"skad":2384,"log":2385,"præ":2386,"rund":2387,"musik":2388,"ligere":2389,"orgon":2390,"ost":2391,"tage":2392,"bre":2393,"Kar":2394,"Danmark":2395,"kilometer":2396,"tering":2397,"huset":2398,"milj":2399,"Ba":2400,"halla":2401,"inden":2402,"sommar":2403,"lyck":2404,"fli":2405,"kanner":2406,"ist":2407,"mær":2408,"nogle":2409,"versi":2410,"kk":2411,"skatt":2412,"taget":2413,"sjuk":2414,"vist":2415,"kap":2416,"vilken":2417,"slakt":2418,"Sen":2419,"faktiskt":2420,"The":2421,"AR":2422,"tek":2423,"hitt":2424,"ku":2425,"leg":2426,"blive":2427,"lor":2428,"halv":2429,"rapp":2430,"Ha":2431,"omkring":2432,"Val":2433,"mask":2434,"spør":2435,"24":2436,"stu":2437,"minst":2438,"kket":2439,"kred":2440,"telef":2441,"sfor":2442,"ogen":2443,"tri":2444,"kvalitet":2445,"kande":2446,"delar":2447,"La":2448,"anvanda":2449,"Sy":2450,"gjenn":2451,"sem":2452,"gjennom":2453,"hopp":2454,"60":2455,"iden":2456,"vant":2457,"mellem":2458,"ww":2459,"trakten":2460,"parti":2461,"Na":2462,"tack":2463,"stade":2464,"begyn":2465,"kas":2466,"kron":2467,"eng":2468,"fod":2469,"heller":2470,"verkar":2471,"gler":2472,"roligt":2473,"stit":2474,"webb":2475,"Dar":2476,"ital":2477,"AN":2478,"Genom":2479,"los":2480,"samhall":2481,"virksom":2482,"Hel":2483,"sent":2484,"krav":2485,"stø":2486,"derfor":2487,"lade":2488,"ktiv":2489,"ika":2490,"Tra":2491,"forhold":2492,"anal":2493,"pengar":2494,"vok":2495,"egent":2496,"øm":2497,"tell":2498,"jord":2499,"tryck":2500,"kre":2501,"fon":2502,"Ty":2503,"publi":2504,"ansi":2505,"Par":2506,"one":2507,"hin":2508,"læn":2509,"jur":2510,"sep":2511,"milli":2512,"dte":2513,"desig":2514,"hoved":2515,"fisk":2516,"even":2517,"enhet":2518,"heder":2519,"viser":2520,"escort":2521,"dog":2522,"ena":2523,"bal":2524,"sigt":2525,"eta":2526,"pop":2527,"ikk":2528,"nav":2529,"kunder":2530,"ganger":2531,"gere":2532,"energi":2533,"iser":2534,"bruk":2535,"ass":2536,"sattning":2537,"igaste":2538,"tning":2539,"Vad":2540,"Or":2541,"Hur":2542,"ledning":2543,"orter":2544,"ktioner":2545,"bestam":2546,"tav":2547,"kant":2548,"Fa":2549,"gri":2550,"anti":2551,"aga":2552,"søg":2553,"skade":2554,"svensk":2555,"\",":2556,"Av":2557,"Euro":2558,"assage":2559,"lands":2560,"yl":2561,"kelig":2562,"Bar":2563,"back":2564,"kalla":2565,"snart":2566,"helst":2567,"beskre":2568,"Cat":2569,"gerne":2570,"ert":2571,"ører":2572,"uti":2573,"lær":2574,"hennes":2575,"agg":2576,"Ne":2577,"aug":2578,"langre":2579,"organis":2580,"komme":2581,"somra":2582,"22":2583,"skriv":2584,"system":2585,"udd":2586,"2017":2587,"visar":2588,"sagt":2589,"sade":2590,"gjør":2591,"aget":2592,"mam":2593,"kanns":2594,"gøre":2595,"borjar":2596,"vander":2597,"fantast":2598,"dater":2599,"fte":2600,"slapp":2601,"bedre":2602,"bun":2603,"yndig":2604,"tex":2605,"situ":2606,"gode":2607,"anger":2608,"like":2609,"perfe":2610,"deg":2611,"tale":2612,"iger":2613,"blivit":2614,"holder":2615,"naden":2616,"satta":2617,"tj":2618,"omfatt":2619,"prø":2620,"Va":2621,"tha":2622,"juli":2623,"aktivitet":2624,"sidor":2625,"menter":2626,"spir":2627,"tjejer":2628,"skyl":2629,"utfor":2630,"erade":2631,"fint":2632,"satte":2633,"handling":2634,"viktig":2635,"mulighed":2636,"forslag":2637,"Inga":2638,"mag":2639,"gatt":2640,"OR":2641,"ins":2642,"Upp":2643,"tak":2644,"tot":2645,"fordi":2646,"handel":2647,"2018":2648,"dk":2649,"arbeid":2650,"kken":2651,"....":2652,"styrelsen":2653,"darfor":2654,"orer":2655,"bur":2656,"inner":2657,"Norge":2658,"innebar":2659,"nastan":2660,"nan":2661,"ytter":2662,"fyl":2663,"forskellige":2664,"spun":2665,"farande":2666,"borjade":2667,"høy":2668,"okt":2669,"altern":2670,"hæn":2671,"Til":2672,"By":2673,"ST":2674,"intres":2675,"registr":2676,"leder":2677,"ap":2678,"ænd":2679,"Idag":2680,"procent":2681,"uppgifter":2682,"21":2683,"tillgang":2684,"koll":2685,"befolk":2686,"smar":2687,"sjal":2688,"kopa":2689,"fragor":2690,"precis":2691,"egi":2692,"ekonom":2693,"ligare":2694,"legg":2695,"sær":2696,"kultur":2697,"staende":2698,"80":2699,"ober":2700,"laget":2701,"elever":2702,"ux":2703,"kok":2704,"ktur":2705,"positi":2706,"lun":2707,"Bil":2708,"service":2709,"rist":2710,"xx":2711,"senaste":2712,"holde":2713,"70":2714,"stallning":2715,"nummer":2716,"nara":2717,"moder":2718,"hot":2719,"juni":2720,"erat":2721,"offent":2722,"ofte":2723,"kry":2724,"Es":2725,"malt":2726,"iet":2727,"senare":2728,"engel":2729,"fors":2730,"eret":2731,"Life":2732,"kopp":2733,"vagen":2734,"indi":2735,"vanligt":2736,"kjø":2737,"jd":2738,"forut":2739,"rej":2740,"litt":2741,"skj":2742,"topp":2743,"23":2744,"annu":2745,"fikk":2746,"gott":2747,"farg":2748,"jus":2749,"hotell":2750,"Car":2751,"extra":2752,"lasa":2753,"bit":2754,"storsta":2755,"skill":2756,"ønsker":2757,"vidare":2758,"øde":2759,"utveckling":2760,"istallet":2761,"ple":2762,"verksamhet":2763,"grad":2764,"grun":2765,"dine":2766,"samling":2767,"start":2768,"sine":2769,"januari":2770,"tager":2771,"slaktet":2772,"ange":2773,"mobil":2774,"juder":2775,"æg":2776,"”.":2777,"enter":2778,"følge":2779,"syk":2780,"visning":2781,"Ni":2782,"skapa":2783,"dyr":2784,"Kommun":2785,"Vid":2786,"Gratis":2787,"lille":2788,"filmer":2789,"stalla":2790,"fordel":2791,"server":2792,"varlden":2793,"alltsa":2794,"skole":2795,"iti":2796,"fortfarande":2797,"oder":2798,"risk":2799,"fu":2800,"finansi":2801,"Co":2802,"ank":2803,"privat":2804,"hjemme":2805,"ders":2806,"pot":2807,"tred":2808,"aldre":2809,"tom":2810,"skra":2811,"tyd":2812,"beskrevs":2813,"Vil":2814,"kredit":2815,"væl":2816,"blogg":2817,"meg":2818,"th":2819,"Ex":2820,"vall":2821,"ads":2822,"dene":2823,"skor":2824,"gard":2825,"perio":2826,"niva":2827,"famili":2828,"tade":2829,"Las":2830,"tisk":2831,"børn":2832,"prakti":2833,"dejtingsaj":2834,"spro":2835,"qu":2836,"2016":2837,"asj":2838,"blom":2839,"samtidigt":2840,"staur":2841,"post":2842,"USA":2843,"sista":2844,"sc":2845,"strom":2846,"massa":2847,"popul":2848,"don":2849,"underarter":2850,"arbets":2851,"sarskil":2852,"rundt":2853,"ations":2854,"hittar":2855,"atta":2856,"altid":2857,"erar":2858,"doku":2859,"2015":2860,"sitter":2861,"bat":2862,"EU":2863,"listade":2864,"ihop":2865,"ffa":2866,"skog":2867,"bestar":2868,"ht":2869,"super":2870,"bage":2871,"skriva":2872,"invan":2873,"ero":2874,"klader":2875,"alogue":2876,"verden":2877,"æll":2878,"Catalogue":2879,"ifran":2880,"vissa":2881,"salj":2882,"sek":2883,"Te":2884,"udvikl":2885,"data":2886,"Di":2887,"material":2888,"tills":2889,"Ho":2890,"mojlig":2891,"made":2892,"Pri":2893,"anns":2894,"uta":2895,"finde":2896,"vilka":2897,"Alla":2898,"rid":2899,"veckan":2900,"Johan":2901,"agra":2902,"dels":2903,"TV":2904,"kamp":2905,"vigt":2906,"mera":2907,"dec":2908,"maj":2909,"videre":2910,"timmar":2911,"genomsnitt":2912,"atur":2913,"ate":2914,"lon":2915,"gamla":2916,"unge":2917,"igheter":2918,"endast":2919,"annon":2920,"inspir":2921,"soci":2922,"nt":2923,"fes":2924,"Fin":2925,"Hun":2926,"antal":2927,"omrade":2928,"cir":2929,"luft":2930,"anvander":2931,"sper":2932,"con":2933,"forbin":2934,"klubb":2935,"nasta":2936,"gir":2937,"tember":2938,"erbjud":2939,"telefon":2940,"mye":2941,"nr":2942,"aliser":2943,"okus":2944,"steg":2945,"cm":2946,"nads":2947,"framfor":2948,"blevet":2949,"Su":2950,"spunkt":2951,"Nord":2952,"hende":2953,"varme":2954,"gjøre":2955,"fav":2956,"serna":2957,"Bor":2958,"mentet":2959,"out":2960,"oper":2961,"Tro":2962,"eksem":2963,"sdag":2964,"AL":2965,"igar":2966,"asino":2967,"fær":2968,"AB":2969,"ay":2970,"ful":2971,"løs":2972,"mojligt":2973,"fyll":2974,"tips":2975,"tidligere":2976,"skort":2977,"kommit":2978,"ress":2979,"nader":2980,"heden":2981,"ungdom":2982,"handlar":2983,"lagga":2984,"erad":2985,"ibland":2986,"annet":2987,"tok":2988,"versitet":2989,"ocker":2990,"sis":2991,"2014":2992,"huvudstaden":2993,"pati":2994,"tagit":2995,"mennesker":2996,"sand":2997,"spela":2998,"kvad":2999,"konkur":3000,"betyder":3001,"invanare":3002,"grunn":3003,"Ved":3004,"Vill":3005,"soker":3006,"part":3007,"teck":3008,"vember":3009,"fina":3010,"skan":3011,"flesta":3012,"tere":3013,"skapet":3014,"ise":3015,"stik":3016,"ført":3017,"øv":3018,"kret":3019,"ure":3020,"glas":3021,"sket":3022,"vecka":3023,"sprak":3024,"kol":3025,"198":3026,"cep":3027,"mail":3028,"snabbt":3029,"mellom":3030,"giv":3031,"26":3032,"Far":3033,"fla":3034,"forklar":3035,"ore":3036,"skick":3037,"ativt":3038,"fyra":3039,"unga":3040,"smu":3041,"28":3042,"regler":3043,"september":3044,"borde":3045,"last":3046,"litet":3047,"arrang":3048,"dor":3049,"borja":3050,"At":3051,"verket":3052,"chef":3053,"inge":3054,"27":3055,"kvadrat":3056,"relse":3057,"Ser":3058,"Sp":3059,"Kø":3060,"aka":3061,"hurt":3062,"Po":3063,"sjalva":3064,"interes":3065,"sens":3066,"Gud":3067,"minuter":3068,"Vis":3069,"tæn":3070,"række":3071,"vur":3072,"our":3073,"Gote":3074,"Et":3075,"restaur":3076,"pril":3077,"egna":3078,"Fred":3079,"morgon":3080,"web":3081,"unt":3082,"No":3083,"kanna":3084,"ember":3085,"viktigt":3086,"givning":3087,"kræ":3088,"Ars":3089,"tilbage":3090,"hoppas":3091,"tanker":3092,"tids":3093,"mande":3094,"Goteborg":3095,"dessutom":3096,"mamma":3097,"stedet":3098,"Fri":3099,"gro":3100,"emot":3101,"AT":3102,"29":3103,"ont":3104,"vende":3105,"brukar":3106,"Mi":3107,"vester":3108,"ges":3109,"Mer":3110,"indu":3111,"mester":3112,"Porr":3113,"varm":3114,"trev":3115,"valja":3116,"november":3117,"book":3118,"sist":3119,"varfor":3120,"SE":3121,"Fol":3122,"terna":3123,"febru":3124,"Eller":3125,"nød":3126,"install":3127,"traff":3128,"iges":3129,"oktober":3130,"havn":3131,"dagens":3132,"fokus":3133,"che":3134,"stille":3135,"ameri":3136,"raste":3137,"større":3138,"natet":3139,"ct":3140,"Sel":3141,"Hen":3142,"oppet":3143,"lug":3144,"platser":3145,"bø":3146,"hang":3147,"deles":3148,"sene":3149,"atter":3150,"regel":3151,"motor":3152,"oms":3153,"dering":3154,"slik":3155,"sland":3156,"miljo":3157,"ologi":3158,"hets":3159,"punkt":3160,"hvert":3161,"lagen":3162,"kontroll":3163,"Si":3164,"sad":3165,"sats":3166,"sh":3167,"SK":3168,"fang":3169,"kyr":3170,"produkt":3171,"ssy":3172,"sny":3173,"tredje":3174,"danske":3175,"test":3176,"slan":3177,"reger":3178,"orden":3179,"kroppen":3180,"sall":3181,"hard":3182,"forand":3183,"dansk":3184,"Aven":3185,"mad":3186,"hom":3187,"He":3188,"sert":3189,"Ste":3190,"fraga":3191,"kombin":3192,"cept":3193,"betyd":3194,"dro":3195,"sit":3196,"stemet":3197,"splan":3198,"vanlig":3199,"tress":3200,"egentligen":3201,"Mat":3202,"usti":3203,"za":3204,"marked":3205,"Denne":3206,"inklu":3207,"rader":3208,"myndig":3209,"hast":3210,"Go":3211,"gym":3212,"knapp":3213,"køb":3214,"eras":3215,"sætte":3216,"djur":3217,"fta":3218,"ET":3219,"bedste":3220,"kir":3221,"mulig":3222,"borjan":3223,"dage":3224,"teknik":3225,"ille":3226,"2013":3227,"kompet":3228,"sjo":3229,"skrift":3230,"skydd":3231,"detal":3232,"skaper":3233,"El":3234,"him":3235,"ljus":3236,"alls":3237,"flytt":3238,"utbildning":3239,"presenter":3240,"arbetar":3241,"bast":3242,"profes":3243,"april":3244,"fanns":3245,"fest":3246,"blod":3247,"Kn":3248,"ras":3249,"197":3250,"Escort":3251,"allman":3252,"gillar":3253,"kaf":3254,"Inte":3255,"Denna":3256,"45":3257,"hva":3258,"stockholm":3259,"bilen":3260,"sisk":3261,"Mu":3262,"tren":3263,"kommunen":3264,"krig":3265,"aa":3266,"forstar":3267,"Lu":3268,"skola":3269,"omen":3270,"90":3271,"finner":3272,"stads":3273,"trots":3274,"anser":3275,"varmaste":3276,"give":3277,"bolag":3278,"span":3279,"xa":3280,"perfekt":3281,"strat":3282,"Ju":3283,"først":3284,"bada":3285,"medan":3286,"forfatt":3287,"sas":3288,"gol":3289,"avslut":3290,"klimat":3291,"matte":3292,"Del":3293,"placer":3294,"Tha":3295,"pres":3296,"hit":3297,"porn":3298,"minister":3299,"mars":3300,"kallaste":3301,"december":3302,"Over":3303,"lede":3304,"ktionen":3305,"millimeter":3306,"føre":3307,"eneste":3308,"We":3309,"porno":3310,"Ti":3311,"gruppen":3312,"sidste":3313,"gren":3314,"brott":3315,"mojlighet":3316,"vast":3317,"livs":3318,"prin":3319,"date":3320,"Arsmedeltemperaturen":3321,"vanliga":3322,"gas":3323,"snittlig":3324,"kand":3325,"bidrag":3326,"erbjuder":3327,"kronor":3328,"tede":3329,"valt":3330,"spil":3331,"syd":3332,"sto":3333,"eventu":3334,"butik":3335,"dod":3336,"ordning":3337,"demok":3338,"sav":3339,"tanka":3340,"dige":3341,"nø":3342,"buti":3343,"Ud":3344,"yll":3345,"tillfall":3346,"effekti":3347,"ong":3348,"kvadratkilometer":3349,"forskning":3350,"yg":3351,"boken":3352,"moti":3353,"uddann":3354,"virkelig":3355,"garden":3356,"ian":3357,"siger":3358,"Ver":3359,"stadig":3360,"lilla":3361,"derne":3362,"cent":3363,"beste":3364,"proces":3365,"Ri":3366,"haha":3367,"velser":3368,"invester":3369,"design":3370,"flyg":3371,"etabl":3372,"dare":3373,"forel":3374,"2012":3375,"Ska":3376,"kere":3377,"dejta":3378,"trafik":3379,"pat":3380,"defin":3381,"tall":3382,"forbindelse":3383,"Jon":3384,"timer":3385,"tatt":3386,"miss":3387,"vux":3388,"orit":3389,"løb":3390,"Svenska":3391,"igenom":3392,"Bra":3393,"sym":3394,"jobbet":3395,"steder":3396,"sund":3397,"Sedan":3398,"Genomsnittlig":3399,"deltag":3400,"matt":3401,"spelare":3402,"mannen":3403,"koping":3404,"ev":3405,"augusti":3406,"hjel":3407,"bered":3408,"hogsta":3409,"Dag":3410,"ffe":3411,"torraste":3412,"Pr":3413,"intress":3414,"IT":3415,"regnigaste":3416,"resten":3417,"Sveriges":3418,"arsnederbord":3419,"natdejting":3420,"kare":3421,"bruger":3422,"atisk":3423,"akte":3424,"Sch":3425,"ots":3426,"givet":3427,"dera":3428,"varandra":3429,"bank":3430,"studen":3431,"bus":3432,"otter":3433,"boll":3434,"tas":3435,"titta":3436,"forsa":3437,"Tor":3438,"stid":3439,"utter":3440,"igjen":3441,"huvudsak":3442,"free":3443,"35":3444,"dition":3445,"grupper":3446,"affar":3447,"priser":3448,"fullt":3449,"levelse":3450,"ega":3451,"ity":3452,"funktion":3453,"Sj":3454,"utanfor":3455,"Fre":3456,"spann":3457,"meddel":3458,"indivi":3459,"passar":3460,"spelar":3461,"hjalpa":3462,"foljande":3463,"skrev":3464,"økonom":3465,"vanner":3466,"gæl":3467,"knull":3468,"enten":3469,"prat":3470,"komst":3471,"tol":3472,"rus":3473,"lokal":3474,"stiska":3475,"elekt":3476,"delser":3477,"ies":3478,"middag":3479,"eksempel":3480,"”,":3481,"stilling":3482,"aktu":3483,"sioner":3484,"rummet":3485,"Ad":3486,"alskar":3487,"kjen":3488,"dator":3489,"gø":3490,"forening":3491,"bruge":3492,"ork":3493,"hander":3494,"vinter":3495,"bundet":3496,"fantastisk":3497,"inlagg":3498,"søger":3499,"sil":3500,"can":3501,"gange":3502,"Lin":3503,"sason":3504,"rigtig":3505,"spørg":3506,"nars":3507,"egg":3508,"delig":3509,"kontor":3510,"Europa":3511,"sende":3512,"sof":3513,"fragan":3514,"igang":3515,"sier":3516,"ftet":3517,"illa":3518,"bocker":3519,"analy":3520,"fora":3521,"gamle":3522,"rut":3523,"2010":3524,"hl":3525,"arbetet":3526,"rost":3527,"gemen":3528,"profil":3529,"spiller":3530,"Ge":3531,"bot":3532,"forsvar":3533,"ogon":3534,"Ko":3535,"Fil":3536,"varde":3537,"ces":3538,"synes":3539,"lara":3540,"internation":3541,"xi":3542,"fir":3543,"nit":3544,"Hol":3545,"klare":3546,"fredag":3547,"sakert":3548,"teg":3549,"maske":3550,"gron":3551,"31":3552,"medic":3553,"alternativ":3554,"2011":3555,"ris":3556,"196":3557,"Af":3558,"bund":3559,"stund":3560,"personal":3561,"veckor":3562,":-":3563,"dele":3564,"fas":3565,"hvilket":3566,"sim":3567,"resa":3568,"Mil":3569,"narheten":3570,"risti":3571,"platt":3572,"thai":3573,"aledes":3574,"rade":3575,"sommer":3576,"rent":3577,"fjer":3578,"passer":3579,"eli":3580,"oster":3581,"drom":3582,"hjælp":3583,"utvikl":3584,"cykel":3585,"eld":3586,"typer":3587,"lager":3588,"Mon":3589,"ovan":3590,"trott":3591,"rapport":3592,"nede":3593,"rack":3594,"demokr":3595,"tanke":3596,"maskin":3597,"kvinder":3598,"sarskilt":3599,"oende":3600,"kommentar":3601,"gik":3602,"Hans":3603,"nogen":3604,"ky":3605,"skom":3606,"hn":3607,"oka":3608,"følgende":3609,"makt":3610,"veta":3611,"Dess":3612,"vitt":3613,"oppen":3614,"tilby":3615,"egor":3616,"allerede":3617,"pal":3618,"skaber":3619,"stav":3620,"rer":3621,"tit":3622,"mine":3623,"finder":3624,"Ra":3625,"tat":3626,"absol":3627,"sov":3628,"tæ":3629,"tilf":3630,"Hu":3631,"sant":3632,"sur":3633,"arbei":3634,"cebook":3635,"Ter":3636,"sked":3637,"svært":3638,"fører":3639,"kansk":3640,"stran":3641,"varen":3642,"billig":3643,"dø":3644,"Allt":3645,"filmen":3646,"rym":3647,"Me":3648,"fritt":3649,"autom":3650,"ON":3651,"kommunik":3652,"slags":3653,"redo":3654,"atan":3655,"fj":3656,"hør":3657,"pol":3658,"roll":3659,"Bru":3660,"klam":3661,"forra":3662,"Sw":3663,"IS":3664,"anven":3665,"On":3666,"dæ":3667,"former":3668,"urn":3669,"stal":3670,"kendt":3671,"leve":3672,"arki":3673,"bolig":3674,"arbejder":3675,"sann":3676,"edag":3677,"vaxt":3678,"ppar":3679,"benhavn":3680,"New":3681,"avtal":3682,"fleste":3683,"anvands":3684,"EL":3685,"dde":3686,"favorit":3687,"undersok":3688,"forhall":3689,"Fot":3690,"gul":3691,"dju":3692,"universitet":3693,"respe":3694,"barnet":3695,"største":3696,"AS":3697,"sere":3698,"scen":3699,"leva":3700,"nødven":3701,"varr":3702,"instit":3703,"ers":3704,"helgen":3705,"gave":3706,"forsoka":3707,"værel":3708,"rekommen":3709,"www":3710,"prov":3711,"ministr":3712,"sje":3713,"spa":3714,"mote":3715,"enor":3716,"bog":3717,"artikel":3718,"stag":3719,"ING":3720,"ssel":3721,"Karl":3722,"skont":3723,"psyk":3724,"jø":3725,"euro":3726,"Uni":3727,"byen":3728,"platsen":3729,"delsen":3730,"skyd":3731,"derar":3732,"Alle":3733,"IK":3734,"instru":3735,"bygger":3736,"To":3737,"samtal":3738,"II":3739,"vack":3740,"ældre":3741,"bestem":3742,"traning":3743,"holdt":3744,"industri":3745,"ryg":3746,"Str":3747,"wit":3748,"betala":3749,"vande":3750,"Sol":3751,"ada":3752,"kast":3753,"mind":3754,"uppdrag":3755,"manad":3756,"rott":3757,"kons":3758,"anta":3759,"casino":3760,"dringer":3761,"sakerhet":3762,"tio":3763,"struktur":3764,"Lo":3765,"drift":3766,"Pre":3767,"tiska":3768,"undersø":3769,"Massage":3770,"ighed":3771,"sikre":3772,"blandt":3773,"tider":3774,"græn":3775,"bes":3776,"kade":3777,"holl":3778,"pag":3779,"spen":3780,"vn":3781,"vo":3782,"senere":3783,"teret":3784,"tifi":3785,"alist":3786,"stral":3787,"ball":3788,"fald":3789,"lyst":3790,"ED":3791,"Tje":3792,"efar":3793,"Ol":3794,"fungerar":3795,"muligt":3796,"kvinna":3797,"lyss":3798,"spørgsmal":3799,"ana":3800,"eks":3801,"mænd":3802,"bær":3803,"foraldr":3804,"kunst":3805,"drar":3806,"konto":3807,"internet":3808,"vinn":3809,"ytterligare":3810,"sider":3811,"tis":3812,"liksom":3813,"familj":3814,"riga":3815,"faktisk":3816,"blant":3817,"ælles":3818,"aktiviteter":3819,"tilbud":3820,"ander":3821,"manader":3822,"ette":3823,"ash":3824,"veten":3825,";)":3826,"absolut":3827,"brev":3828,"nj":3829,"Bu":3830,"kara":3831,"ish":3832,"norske":3833,"lande":3834,"fuld":3835,"arbeta":3836,"miljø":3837,"altsa":3838,"Jan":3839,"Bi":3840,"Ham":3841,"siska":3842,"alis":3843,"kurs":3844,"æss":3845,"igur":3846,"serien":3847,"bruker":3848,"later":3849,"//":3850,"beskri":3851,"provin":3852,"titt":3853,"arbejd":3854,"sør":3855,"spannande":3856,"garder":3857,"niska":3858,"erer":3859,"Com":3860,"beror":3861,"mus":3862,"anbe":3863,"medicin":3864,"IL":3865,"innehaller":3866,"Ingen":3867,"forbatt":3868,"ppe":3869,"ckar":3870,"lave":3871,"smil":3872,"Kun":3873,"kolla":3874,"Gar":3875,"arets":3876,"barnen":3877,"skul":3878,"februari":3879,"kaffe":3880,"saledes":3881,"lysninger":3882,"avsett":3883,"Inter":3884,"lage":3885,"bakom":3886,"ekstra":3887,"spri":3888,"rø":3889,"medlemmar":3890,"social":3891,"Tan":3892,"funder":3893,"hæ":3894,"aker":3895,"2009":3896,"ktions":3897,"fotogra":3898,"hogre":3899,"faet":3900,"vind":3901,"kæ":3902,"handler":3903,"kunskap":3904,"skel":3905,"alitet":3906,"Land":3907,"partner":3908,"otte":3909,"plads":3910,"36":3911,"støtte":3912,"søn":3913,"forven":3914,"Res":3915,"Hej":3916,"bedom":3917,"lander":3918,"slar":3919,"folja":3920,"ves":3921,"endnu":3922,"goda":3923,"punkten":3924,"varande":3925,"navn":3926,"ogle":3927,"195":3928,"norsk":3929,"pul":3930,"norr":3931,"Gam":3932,"ister":3933,"Reg":3934,"Peter":3935,"Person":3936,"OL":3937,"500":3938,"innen":3939,"kund":3940,"bod":3941,"saken":3942,"tjej":3943,"Hall":3944,"blitt":3945,"Lar":3946,"chan":3947,"ion":3948,"samtidig":3949,"satter":3950,"vise":3951,"any":3952,"jobba":3953,"aten":3954,"recept":3955,"peri":3956,"osv":3957,"viss":3958,"hud":3959,"skland":3960,"jatte":3961,"væk":3962,"kvallen":3963,"lej":3964,"ach":3965,"SM":3966,"serie":3967,"tankte":3968,"kjent":3969,"besø":3970,"Dessutom":3971,"mojligheter":3972,"kloc":3973,"eden":3974,"Mag":3975,"riks":3976,"mener":3977,"ringar":3978,"Ku":3979,"Dat":3980,"jol":3981,"gymna":3982,"radet":3983,"anstall":3984,"rele":3985,"fire":3986,"vita":3987,"hjalper":3988,"vas":3989,"tjanster":3990,"stig":3991,"fjar":3992,"nov":3993,"seks":3994,"parker":3995,"Malmo":3996,"Manga":3997,"ksjon":3998,"systemet":3999,"grader":4000,"bilden":4001,"ativa":4002,"idler":4003,"gene":4004,"rust":4005,"ald":4006,"Ben":4007,"sige":4008,"angen":4009,"link":4010,"wa":4011,"valjer":4012,"Con":4013,"ding":4014,"Dessa":4015,"gelig":4016,"atet":4017,"malet":4018,"sionen":4019,"hjar":4020,"marker":4021,"sive":4022,"sekven":4023,"traffa":4024,"fores":4025,"Mor":4026,"rolig":4027,"slaget":4028,"konta":4029,"rige":4030,"seende":4031,"ative":4032,"lats":4033,"skolen":4034,"bum":4035,"bjud":4036,"neg":4037,"slutet":4038,"lut":4039,"hum":4040,"2008":4041,"fart":4042,"bake":4043,"Ka":4044,"varer":4045,"supp":4046,"rin":4047,"alet":4048,"ningarna":4049,"holdet":4050,"tavling":4051,"enkelte":4052,"egne":4053,"zz":4054,"hora":4055,"tradition":4056,"kommande":4057,"radi":4058,"vinna":4059,"spesi":4060,"penge":4061,"atten":4062,"stopp":4063,"ama":4064,"verka":4065,"blad":4066,"Gu":4067,"medlemmer":4068,"eren":4069,"programmet":4070,"forsalj":4071,"naturlig":4072,"redu":4073,"Oslo":4074,"flytta":4075,"vacker":4076,"bygge":4077,"anmal":4078,"skam":4079,"foretaget":4080,"bliote":4081,"ube":4082,"stans":4083,"Op":4084,"fyr":4085,"ktive":4086,"heds":4087,"vilja":4088,"tillverk":4089,"gaver":4090,"hag":4091,"gga":4092,"chat":4093,"Fra":4094,".”":4095,"varld":4096,"siske":4097,"skabet":4098,"Fl":4099,"fortsatta":4100,"oo":4101,"ID":4102,"brand":4103,"Tre":4104,"ppet":4105,"OM":4106,"Kli":4107,"God":4108,"33":4109,"glom":4110,"varden":4111,"cken":4112,"mju":4113,"forsoker":4114,"dejtingsajt":4115,"Jes":4116,"øren":4117,"Knull":4118,"RA":4119,"arbejdet":4120,"host":4121,"rangen":4122,"findes":4123,"prøve":4124,"??":4125,"skud":4126,"klag":4127,"Fast":4128,"Hal":4129,"fen":4130,"htt":4131,"offer":4132,"nemlig":4133,"likn":4134,"Van":4135,"75":4136,"Am":4137,"una":4138,"vari":4139,"Kat":4140,"damer":4141,"Vide":4142,"nod":4143,"ckor":4144,"forande":4145,"gdom":4146,"cirka":4147,"sera":4148,"ye":4149,"hort":4150,"IF":4151,"verkt":4152,"serv":4153,"forbi":4154,"gaende":4155,"tene":4156,"begran":4157,"Erik":4158,"detaljer":4159,"klub":4160,"Derfor":4161,"ite":4162,"uddannelse":4163,"lamna":4164,"bloggen":4165,"siste":4166,"ckt":4167,"sne":4168,"ungefar":4169,"spor":4170,"terar":4171,"menn":4172,"Bla":4173,"vest":4174,"Dej":4175,"Rad":4176,".\"":4177,"faktor":4178,"bygga":4179,"Andre":4180,"eringen":4181,"mik":4182,"naturligt":4183,"lex":4184,"Lang":4185,"imassage":4186,"jav":4187,"gall":4188,"marknaden":4189,"stats":4190,"kontra":4191,"Gre":4192,"present":4193,"region":4194,"vaster":4195,"viden":4196,"Trakten":4197,"effekt":4198,"nedan":4199,"bom":4200,"foreningen":4201,"provinsen":4202,"uppdater":4203,"gjen":4204,"udvikling":4205,"tilbake":4206,"født":4207,"ivag":4208,"samband":4209,"længere":4210,"Hj":4211,"miljoner":4212,"smart":4213,"potek":4214,"sasom":4215,"sku":4216,"Ga":4217,"øl":4218,"visst":4219,"ligheten":4220,"administr":4221,"Just":4222,"direkte":4223,"litter":4224,"Tran":4225,"ristian":4226,"tin":4227,"Hi":4228,"anledning":4229,"stati":4230,"IG":4231,"sjoner":4232,"stro":4233,"historia":4234,"tyckte":4235,"ola":4236,"lata":4237,"ifi":4238,"stin":4239,"tru":4240,"dret":4241,"kig":4242,"gikk":4243,"foku":4244,"speciellt":4245,"soder":4246,"oven":4247,"antag":4248,"muse":4249,"skot":4250,"forvar":4251,"normalt":4252,"Ind":4253,"Bet":4254,"værdi":4255,"perioden":4256,"jobbar":4257,"villkor":4258,"ES":4259,"Selv":4260,"arbejds":4261,"194":4262,"sjekt":4263,"press":4264,"retning":4265,"nere":4266,"værk":4267,"how":4268,"intresser":4269,"Tack":4270,"lop":4271,"varldens":4272,"Pu":4273,"talt":4274,"liknande":4275,"erte":4276,"fælles":4277,"oden":4278,"transport":4279,"jatt":4280,"rør":4281,"rette":4282,"politik":4283,"fat":4284,"Regi":4285,"likt":4286,"konstru":4287,"ytt":4288,"://":4289,"beroende":4290,"oppna":4291,"verkan":4292,"tvatt":4293,"grøn":4294,"utred":4295,"klok":4296,"innehall":4297,"ked":4298,"ome":4299,"Hand":4300,"rod":4301,"sjukdom":4302,"ordin":4303,"Mot":4304,"otroligt":4305,"fry":4306,"gruppe":4307,"omraden":4308,"anvandas":4309,"Bill":4310,"oker":4311,"tilfæl":4312,"behovs":4313,"sexu":4314,"siv":4315,"team":4316,"tyg":4317,"princi":4318,"mare":4319,"tand":4320,"stang":4321,"tiske":4322,"digit":4323,"aner":4324,"langa":4325,"jorden":4326,"varmt":4327,"lay":4328,"sver":4329,"oro":4330,"Etter":4331,"sala":4332,"semester":4333,"tillegg":4334,"blot":4335,"fortæ":4336,"Kanske":4337,"hvil":4338,"Hvor":4339,"Nej":4340,"risi":4341,"Poli":4342,"pappa":4343,"modeller":4344,"bror":4345,"papper":4346,"bler":4347,"wid":4348,"viagra":4349,"rede":4350,"2007":4351,"Runt":4352,"stival":4353,"imorgon":4354,"ium":4355,"massor":4356,"sikkert":4357,"John":4358,"yder":4359,"Soc":4360,"pade":4361,"--":4362,"ein":4363,"marken":4364,"visade":4365,"æng":4366,"markt":4367,"bilar":4368,"foran":4369,"San":4370,"totalt":4371,"ls":4372,"Hem":4373,"samhalle":4374,"tryk":4375,"hæng":4376,"iel":4377,"dring":4378,"nej":4379,"nyt":4380,"dning":4381,"frukt":4382,"Kontakt":4383,"34":4384,"studie":4385,"staller":4386,"begge":4387,"øs":4388,"ip":4389,"Nag":4390,"sum":4391,"øst":4392,"Kor":4393,"omrader":4394,"ffar":4395,"Porn":4396,"natten":4397,"mes":4398,"trygg":4399,"foljer":4400,"inten":4401,"vantar":4402,"poang":4403,"Ek":4404,"staten":4405,"sken":4406,"Sc":4407,"kommune":4408,"alldeles":4409,"sions":4410,"København":4411,"arer":4412,"problemer":4413,"teborg":4414,"vanta":4415,"dokument":4416,"hjul":4417,"riktig":4418,"opti":4419,"oftast":4420,"Enligt":4421,"kg":4422,"salg":4423,"stk":4424,"pack":4425,"bedri":4426,"sæt":4427,"Lund":4428,"piger":4429,"historie":4430,"æk":4431,"tør":4432,"vald":4433,"2000":4434,"sætter":4435,"løbet":4436,"studier":4437,"Gi":4438,"soka":4439,"kora":4440,"dejtingsidor":4441,"farger":4442,"39":4443,"annars":4444,"kill":4445,"ogna":4446,"sitta":4447,"appar":4448,"boende":4449,"Svensk":4450,"kompis":4451,"Spe":4452,"langs":4453,"kør":4454,"OS":4455,"tant":4456,"hurtigt":4457,"use":4458,"offi":4459,"ude":4460,"yngre":4461,"mili":4462,"sej":4463,"Gra":4464,"relig":4465,"sed":4466,"tankt":4467,"normal":4468,"rande":4469,"æs":4470,"old":4471,"spelet":4472,"ordent":4473,"drog":4474,"lunch":4475,"US":4476,"kravs":4477,"bibliote":4478,"uppe":4479,"varier":4480,"samfun":4481,"hamn":4482,"mene":4483,"Dom":4484,"spra":4485,"Arbet":4486,"morgen":4487,"afil":4488,"forskj":4489,"medier":4490,"38":4491,"billeder":4492,"fej":4493,"finne":4494,"standard":4495,"icke":4496,"gammal":4497,"ire":4498,"enheter":4499,"gravid":4500,"bili":4501,"klin":4502,"jarn":4503,"kommet":4504,"journ":4505,"menar":4506,"produktion":4507,"Din":4508,"gangspunkt":4509,"organisation":4510,"overra":4511,"bonus":4512,"ze":4513,"32":4514,"vaxer":4515,"ight":4516,"kvalit":4517,"agt":4518,"ode":4519,"splat":4520,"snygg":4521,"laser":4522,"190":4523,"berattar":4524,"sut":4525,"serne":4526,"Sta":4527,"asi":4528,"namligen":4529,"PR":4530,"vision":4531,"handa":4532,"lagger":4533,"klara":4534,"kene":4535,"klass":4536,"debatt":4537,"vælge":4538,"vader":4539,"nettet":4540,"rapporter":4541,"intressant":4542,"virksomhed":4543,"dermed":4544,"dla":4545,"cit":4546,"regionen":4547,"nojd":4548,"dejtingsajter":4549,"fardig":4550,"veg":4551,"veldig":4552,"blik":4553,"pap":4554,"interv":4555,"klockan":4556,"skrive":4557,"AD":4558,"skit":4559,"familie":4560,"oplysninger":4561,"goteborg":4562,"oft":4563,"Tel":4564,"Lat":4565,"mandag":4566,".)":4567,"nasjon":4568,"hat":4569,"løn":4570,"sno":4571,"als":4572,"vig":4573,"AG":4574,"gli":4575,"ganske":4576,"punkter":4577,"sattningar":4578,"fakt":4579,"Ve":4580,"centrum":4581,"sw":4582,"helg":4583,"ologisk":4584,"Gor":4585,"Mart":4586,"bransch":4587,"ensam":4588,"situation":4589,"nande":4590,"ocka":4591,"erfarenhet":4592,"frisk":4593,"halsa":4594,"stæn":4595,"intresse":4596,"ttelse":4597,"skott":4598,"annen":4599,"sister":4600,"udvalg":4601,"sjonen":4602,"delta":4603,"klubben":4604,"svag":4605,"passa":4606,"vek":4607,"funktioner":4608,"rika":4609,"borjat":4610,"Eftersom":4611,"els":4612,"entre":4613,"offentlig":4614,"konsekven":4615,"strand":4616,"ppen":4617,"kansla":4618,"Ly":4619,"stær":4620,".,":4621,"anter":4622,"utman":4623,"tillrack":4624,"finnas":4625,"korre":4626,"So":4627,"kompl":4628,"følgelig":4629,"sommaren":4630,"sering":4631,"tjanst":4632,"Bland":4633,"darmed":4634,"arnas":4635,"spoli":4636,"urs":4637,"virke":4638,"arm":4639,"poner":4640,"Jam":4641,"fro":4642,"veau":4643,"kommuner":4644,"lju":4645,"gangs":4646,"text":4647,"væg":4648,"37":4649,"prata":4650,"svara":4651,"Sal":4652,"Hog":4653,"iz":4654,"ljud":4655,"profession":4656,"taler":4657,"Bro":4658,"købe":4659,"salt":4660,"Facebook":4661,"Hot":4662,"cha":4663,"hendes":4664,"Kop":4665,"smak":4666,"EM":4667,"besky":4668,"prote":4669,"brit":4670,"formul":4671,"accep":4672,"live":4673,"Darfor":4674,"rakt":4675,"rese":4676,"Anna":4677,"hant":4678,"2006":4679,"lopp":4680,"Finn":4681,"eres":4682,"exempelvis":4683,"skat":4684,"begre":4685,"Tid":4686,"guld":4687,"Hor":4688,"igh":4689,"fodd":4690,"center":4691,"sort":4692,"modell":4693,"paket":4694,"ess":4695,"satser":4696,"dets":4697,"55":4698,"cam":4699,"Tom":4700,"slet":4701,"valget":4702,"dukt":4703,"befolkat":4704,"kopte":4705,"personlig":4706,"visas":4707,"!!!":4708,"flu":4709,"zny":4710,"enti":4711,"resultatet":4712,"Lon":4713,"Oster":4714,"Tyskland":4715,"kende":4716,"behova":4717,"ep":4718,"elige":4719,"sova":4720,"tjene":4721,"plas":4722,"masse":4723,"Ander":4724,"forsø":4725,"lader":4726,"bygget":4727,"hone":4728,"namnet":4729,"foraldrar":4730,"metoder":4731,"centrala":4732,"spæn":4733,"isa":4734,"99":4735,"kapital":4736,"losa":4737,"Hus":4738,"freds":4739,"maten":4740,"somrade":4741,"projektet":4742,"framst":4743,"attra":4744,"anych":4745,"præsen":4746,"owanych":4747,"stift":4748,"zalog":4749,"oczny":4750,"widoczny":4751,"zalogowanych":4752,"lock":4753,"dvs":4754,"kostnader":4755,"you":4756,"chok":4757,"album":4758,"planer":4759,"hjælpe":4760,"producer":4761,"bruke":4762,"Jen":4763,"bete":4764,"kvinde":4765,"pig":4766,"oj":4767,"stj":4768,"dubb":4769,"anner":4770,"sadana":4771,"eln":4772,"hemsida":4773,"emal":4774,"plass":4775,"fron":4776,"Før":4777,"enbart":4778,"maneder":4779,"plus":4780,"sangen":4781,"sprung":4782,"ledningen":4783,"allvar":4784,"øje":4785,"studer":4786,"viktiga":4787,"sub":4788,"virker":4789,"gud":4790,"Hos":4791,"olen":4792,"hoj":4793,"mos":4794,"lære":4795,"ya":4796,"ideer":4797,"handen":4798,"Anders":4799,"sluta":4800,"utt":4801,"vackra":4802,"snit":4803,"grunden":4804,"sterna":4805,"Ca":4806,"gymnasi":4807,"reklam":4808,"tioner":4809,"ox":4810,"skrifter":4811,"forbundet":4812,"tema":4813,"diskus":4814,"marknads":4815,"lista":4816,"bordet":4817,"hvilke":4818,"vigtigt":4819,"Bes":4820,"UN":4821,"eskort":4822,"dela":4823,"valgt":4824,"odra":4825,"anbefal":4826,"nom":4827,"gatan":4828,"deling":4829,"spille":4830,"rygg":4831,"solen":4832,"time":4833,"larare":4834,"personliga":4835,"ovriga":4836,"Sund":4837,"glæ":4838,"Opp":4839,"Norr":4840,"Bli":4841,"mea":4842,"stress":4843,"ulike":4844,"Plan":4845,"laga":4846,"gammel":4847,"næste":4848,"fotboll":4849,"vetenskap":4850,"okar":4851,"klad":4852,"ingene":4853,"minutter":4854,"alko":4855,"aften":4856,"top":4857,"kolle":4858,"verdens":4859,"terade":4860,"tallet":4861,"vore":4862,"poj":4863,"budget":4864,"engelska":4865,"Br":4866,"gal":4867,"not":4868,"musi":4869,"strateg":4870,"sadant":4871,"riktning":4872,"fortsatter":4873,"følger":4874,"Bri":4875,"kej":4876,"mate":4877,"best":4878,"trodde":4879,"aut":4880,"pum":4881,"Tjejer":4882,"eligt":4883,"65":4884,"hart":4885,"FOR":4886,"strøm":4887,"Hop":4888,"etten":4889,"vene":4890,"karna":4891,"Hvad":4892,"skabe":4893,"ledare":4894,"initi":4895,"kroner":4896,"oren":4897,"fyller":4898,"daligt":4899,"site":4900,"skapar":4901,"sign":4902,"maned":4903,"bolaget":4904,"Je":4905,"ica":4906,"skrevet":4907,"næsten":4908,"asjoner":4909,"cook":4910,"jet":4911,"individu":4912,"Kvinn":4913,"fr":4914,"vagar":4915,"forsv":4916,"feren":4917,"yd":4918,"igennem":4919,"karri":4920,"Arbe":4921,"etc":4922,"ils":4923,"sprogram":4924,"angi":4925,"Natur":4926,"lamp":4927,"annonser":4928,"tyvarr":4929,"verksamheten":4930,"cera":4931,"formen":4932,"uppmark":4933,"kommende":4934,"kanska":4935,"anse":4936,"stader":4937,"uppskatt":4938,"antalet":4939,"Red":4940,"føres":4941,"givningarna":4942,"fallet":4943,"venner":4944,"enskil":4945,"hjart":4946,"Ero":4947,"oavsett":4948,"pæ":4949,"standigt":4950,"smi":4951,"straff":4952,"tillhor":4953,"Terrangen":4954,"behag":4955,"starka":4956,"slutning":4957,"figur":4958,"hittade":4959,"Tri":4960,"fiske":4961,"framtiden":4962,"info":4963,"Is":4964,"300":4965,"lokale":4966,"anvandning":4967,"lett":4968,"brost":4969,"kategor":4970,"forlor":4971,"Free":4972,"Th":4973,"vak":4974,"Sty":4975,"mening":4976,"Mid":4977,"kallas":4978,"læse":4979,"integr":4980,"relsen":4981,"ini":4982,"formaga":4983,"skillnad":4984,"behor":4985,"hals":4986,"falt":4987,"hvorfor":4988,"App":4989,"nodvand":4990,"juster":4991,"kler":4992,"informasjon":4993,"ultur":4994,"skning":4995,"halso":4996,"kanda":4997,"respektive":4998,"brun":4999,"gjel":5000,"diag":5001,"undervisning":5002,"festival":5003,"styck":5004,"lavet":5005,"ei":5006,"gors":5007,"aring":5008,"station":5009,"kata":5010,"niveau":5011,"klipp":5012,"botten":5013,"Igar":5014,"kunn":5015,"fet":5016,"stret":5017,"mindst":5018,"karlek":5019,"grav":5020,"erhver":5021,"Dam":5022,"prom":5023,"Em":5024,"virksomheder":5025,"Thai":5026,"anlagg":5027,"patienter":5028,"fix":5029,"tvi":5030,"bba":5031,"Helsing":5032,"varu":5033,"sled":5034,"samarbete":5035,"tusen":5036,"aterna":5037,"ford":5038,"ingenting":5039,"særlig":5040,"Lars":5041,"allra":5042,"vanster":5043,"Rom":5044,"sydo":5045,"Au":5046,"alene":5047,"char":5048,"orten":5049,"handla":5050,"lom":5051,"ulti":5052,"hatt":5053,"08":5054,"betalning":5055,"skøn":5056,"leksaker":5057,"lot":5058,"tum":5059,"vattnet":5060,"Ul":5061,"48":5062,"forstas":5063,"partiet":5064,"CH":5065,"selvfølgelig":5066,"testa":5067,"mej":5068,"utveckla":5069,"dejtingsida":5070,"samarbejde":5071,"hind":5072,"cel":5073,"fria":5074,"ygt":5075,"prosjekt":5076,"frukost":5077,"seri":5078,"2005":5079,"asjonen":5080,"ution":5081,"VM":5082,"timme":5083,"almin":5084,"motsvar":5085,"tals":5086,"oga":5087,"sokt":5088,"Krist":5089,"skær":5090,"Lag":5091,"hoga":5092,"sug":5093,"ond":5094,"Kir":5095,"øb":5096,"atiska":5097,"slog":5098,"leverant":5099,"kraver":5100,"box":5101,"regl":5102,"vie":5103,"somradet":5104,"its":5105,"ratten":5106,"Super":5107,"herunder":5108,"mjol":5109,"bekv":5110,"sverige":5111,"Sø":5112,"Ikke":5113,"januar":5114,"Mange":5115,"stallningar":5116,"igheten":5117,"sprog":5118,"ømme":5119,"glob":5120,"kandes":5121,"reda":5122,"rettet":5123,"Vaster":5124,"konkurren":5125,"Lind":5126,"ovrigt":5127,"banan":5128,"ave":5129,"Sko":5130,"burg":5131,"Pen":5132,"ylland":5133,"arbeidet":5134,"kamera":5135,"gaet":5136,"helse":5137,"ekonomiska":5138,"bj":5139,"TE":5140,"saval":5141,"hygg":5142,"bert":5143,"Fort":5144,"bjer":5145,"vejen":5146,"levelser":5147,"My":5148,"ønske":5149,"Finland":5150,"bruges":5151,"shop":5152,"ratta":5153,"rabatt":5154,"dagarna":5155,"imod":5156,"Dare":5157,"SV":5158,"toppen":5159,"uge":5160,"dotter":5161,"besvar":5162,"Foto":5163,"beratta":5164,"kni":5165,"politiker":5166,"09":5167,"delning":5168,"spelade":5169,"bek":5170,"IP":5171,"klan":5172,"ld":5173,"aktiv":5174,"tala":5175,"samlet":5176,"Ele":5177,"ellers":5178,"01":5179,"jendom":5180,"sociala":5181,"fund":5182,"kkes":5183,"løsning":5184,"lagre":5185,"OK":5186,"egentlig":5187,"ane":5188,"udfor":5189,"Char":5190,"Nat":5191,"ringer":5192,"møde":5193,"utifran":5194,"adres":5195,"hogt":5196,"fika":5197,"tæt":5198,"urser":5199,"Maria":5200,"sektor":5201,"terer":5202,"stede":5203,"egori":5204,"Dating":5205,"Bok":5206,"priset":5207,"sasongen":5208,"Stockholms":5209,"ferie":5210,"Ac":5211,"skæ":5212,"tida":5213,"roliga":5214,"ettet":5215,"lunda":5216,"fored":5217,"uttryck":5218,"Sand":5219,"Ru":5220,"kyl":5221,"beskriv":5222,"Skan":5223,"stillinger":5224,"intervju":5225,"skyldig":5226,"ungen":5227,"prova":5228,"trak":5229,"perspe":5230,"skelig":5231,"jas":5232,"vl":5233,"betaling":5234,"antligen":5235,"overfor":5236,"Varfor":5237,"dalig":5238,"spi":5239,"wn":5240,"forstaelse":5241,"spon":5242,"publicer":5243,"mg":5244,"utrym":5245,"Hy":5246,"Star":5247,"Ital":5248,"Sjalv":5249,"værende":5250,"psy":5251,"gn":5252,"xxx":5253,"cu":5254,"uppgift":5255,"sle":5256,"Uppsala":5257,"kæm":5258,"slam":5259,"Fi":5260,"Svar":5261,"kvinner":5262,"Ann":5263,"chen":5264,"relativt":5265,"lyd":5266,"borger":5267,"berak":5268,"njuta":5269,"bruks":5270,"plast":5271,"himla":5272,"skrivit":5273,"promen":5274,"bandet":5275,"møte":5276,"ink":5277,"forum":5278,"borta":5279,"arene":5280,"cks":5281,"Disse":5282,"delige":5283,"ona":5284,"vens":5285,"eksp":5286,"erbjuda":5287,"atgarder":5288,"omsorg":5289,"period":5290,"Carl":5291,"iker":5292,"ytte":5293,"ningsvis":5294,"finnes":5295,"forval":5296,"oll":5297,"samhallet":5298,"marknad":5299,"AM":5300,"iks":5301,"arrange":5302,"vikle":5303,"mast":5304,"http":5305,"-,":5306,"agare":5307,"elsker":5308,"skicka":5309,"Bade":5310,"alkohol":5311,"Lake":5312,"avsnitt":5313,"Span":5314,"uppta":5315,"ild":5316,"Barn":5317,"midler":5318,"især":5319,"but":5320,"Sim":5321,"lust":5322,"urer":5323,"samhet":5324,"uer":5325,"formid":5326,"innov":5327,"stark":5328,"key":5329,"vika":5330,"arkite":5331,"Cam":5332,"rim":5333,"SS":5334,"IC":5335,"hoger":5336,"Fe":5337,":-)":5338,"organiser":5339,"dans":5340,"regeringen":5341,"Thom":5342,"tilfælde":5343,"risiko":5344,"øver":5345,"bidra":5346,"kne":5347,"ordningen":5348,"rejse":5349,"gland":5350,"hallen":5351,"elektron":5352,"karakter":5353,"inal":5354,"publik":5355,"barne":5356,"smæss":5357,"Eli":5358,"afe":5359,"orien":5360,"ii":5361,"spillet":5362,"datum":5363,"Mad":5364,"nagonsin":5365,"byta":5366,"foto":5367,"exakt":5368,"verktyg":5369,"ordet":5370,"losning":5371,"lod":5372,"car":5373,"sikring":5374,"gitt":5375,"planen":5376,"Kra":5377,"inen":5378,"lattare":5379,"rens":5380,"fastighet":5381,"edagog":5382,"RE":5383,"diskuter":5384,"jamfor":5385,"bul":5386,"pension":5387,"gy":5388,"dejt":5389,"cookies":5390,"innlegg":5391,"okan":5392,"ordforande":5393,"olf":5394,"dia":5395,"renover":5396,"Kommune":5397,"kommunikation":5398,"IV":5399,"valet":5400,"buss":5401,"dis":5402,"ktivitet":5403,"spise":5404,"Tur":5405,"siga":5406,"vastra":5407,"førte":5408,"Spel":5409,"stet":5410,"gte":5411,"byggnad":5412,"bisk":5413,"roman":5414,"lægg":5415,"…]":5416,"ino":5417,"gallande":5418,"velsen":5419,"Gener":5420,"trana":5421,"44":5422,"banken":5423,"kansl":5424,"priori":5425,"garanti":5426,"cialis":5427,"ior":5428,"frivill":5429,"Fal":5430,"sakra":5431,"kontakta":5432,"mangd":5433,"bostad":5434,"Berg":5435,"firma":5436,"bevis":5437,"lakare":5438,"ografi":5439,"bevar":5440,"ura":5441,"vuxna":5442,"underhall":5443,"Sil":5444,"sette":5445,"bladet":5446,"Tot":5447,"London":5448,"sags":5449,"way":5450,"historien":5451,"hens":5452,"deler":5453,"organisationer":5454,"viste":5455,"ood":5456,"jakt":5457,"bbar":5458,"løpet":5459,"trodu":5460,"aktiver":5461,"Soder":5462,"status":5463,"verse":5464,"tung":5465,"mør":5466,"Anvand":5467,"forhand":5468,"stop":5469,"pige":5470,"storlek":5471,"suc":5472,"bane":5473,"sikr":5474,"Tek":5475,"[…]":5476,"Dansk":5477,"ikvall":5478,"utnytt":5479,"ultater":5480,"Mycket":5481,"personen":5482,"miljon":5483,"with":5484,"que":5485,"teras":5486,"død":5487,"lyckas":5488,"Dejting":5489,"vigtig":5490,"fulla":5491,"gælder":5492,"brugt":5493,"kart":5494,"udet":5495,"folket":5496,"materi":5497,"forsamling":5498,"ax":5499,"mord":5500,"dør":5501,"forvalt":5502,"længe":5503,"2004":5504,"Alt":5505,"penis":5506,"arbetare":5507,"fød":5508,"alvor":5509,"netop":5510,"lana":5511,"Met":5512,"overens":5513,"plad":5514,"bergs":5515,"smag":5516,"Martin":5517,"cia":5518,"trevlig":5519,"strikt":5520,"orig":5521,"statistik":5522,"jun":5523,"tillrackligt":5524,"kostnad":5525,"skoter":5526,"naturen":5527,"Bjor":5528,"hvilken":5529,"holds":5530,"tøj":5531,"Les":5532,"mærksom":5533,"As":5534,"Social":5535,"trevligt":5536,"givare":5537,"iken":5538,"uppfatt":5539,"nis":5540,"søker":5541,"hjelp":5542,"tionen":5543,"tyn":5544,"døde":5545,"orges":5546,"meste":5547,"vinst":5548,"special":5549,"95":5550,"andras":5551,"blas":5552,"Skri":5553,"serar":5554,"05":5555,"iteten":5556,"mærke":5557,"Ski":5558,"Stora":5559,"kus":5560,"skru":5561,"inspiration":5562,"oer":5563,"fit":5564,"extre":5565,"Varje":5566,"huden":5567,"iaf":5568,"troll":5569,"driver":5570,"bestemt":5571,"anses":5572,"refle":5573,"07":5574,"formal":5575,"vurder":5576,"Intern":5577,"visningen":5578,"radd":5579,"PS":5580,"Vin":5581,"skatte":5582,"Jesus":5583,"hvem":5584,"fukt":5585,"nyheter":5586,"vider":5587,"kapit":5588,"heng":5589,"udover":5590,"ores":5591,"flykt":5592,"ani":5593,"Syd":5594,"kunnat":5595,"Hoppas":5596,"rit":5597,"opmærksom":5598,"adgang":5599,"inse":5600,"iddel":5601,"Fly":5602,"vne":5603,"darefter":5604,"samtliga":5605,"cre":5606,"lokala":5607,"ign":5608,"shopp":5609,"forsakr":5610,"kott":5611,"stalle":5612,"bio":5613,"Tank":5614,"Anal":5615,"høre":5616,"utrust":5617,"sætning":5618,"media":5619,"Trots":5620,"tankar":5621,"konstater":5622,"potenti":5623,"46":5624,"tidspunkt":5625,"muligheder":5626,"hinanden":5627,"vakt":5628,"Mas":5629,"starten":5630,"hjemmeside":5631,"tanter":5632,"sagde":5633,"eran":5634,"otsligt":5635,"goras":5636,"dager":5637,"idrott":5638,"atiskt":5639,"skaff":5640,"karakt":5641,"Produ":5642,"sendt":5643,"seksu":5644,"Bon":5645,"syns":5646,"Pe":5647,"høje":5648,"lim":5649,"løse":5650,"styrke":5651,"Kvinnor":5652,"Bara":5653,"parte":5654,"jenter":5655,"kille":5656,"onskar":5657,"katt":5658,"dusch":5659,"lund":5660,"avan":5661,"06":5662,"Son":5663,"mentar":5664,"sexiga":5665,"styret":5666,"webbplats":5667,"bestall":5668,"lake":5669,"ley":5670,"Ed":5671,"Resultat":5672,"Gran":5673,"kontroller":5674,"bis":5675,"vars":5676,"Lad":5677,"knappt":5678,"flot":5679,"slin":5680,"linjer":5681,"leda":5682,"hojd":5683,"max":5684,"lign":5685,"huvudet":5686,"krist":5687,"klassen":5688,"sia":5689,"fonster":5690,"skogen":5691,"emat":5692,"Mitt":5693,"slos":5694,"Col":5695,"Got":5696,"pren":5697,"endet":5698,"aktivt":5699,"Gust":5700,"ctor":5701,"fett":5702,"sproc":5703,"miner":5704,"spændende":5705,"ringen":5706,"visste":5707,"slang":5708,"ider":5709,"forvan":5710,"matchen":5711,"forman":5712,"slagen":5713,"forutom":5714,"kanskje":5715,"lare":5716,"starkt":5717,"Tu":5718,"sygdom":5719,"hotellet":5720,"knulla":5721,"talte":5722,"tral":5723,"mesta":5724,"utvikling":5725,"Fram":5726,"ligga":5727,"Lite":5728,"pga":5729,"tank":5730,"mottag":5731,"Mari":5732,"føring":5733,"konfli":5734,"ihag":5735,"spek":5736,"varor":5737,"starta":5738,"Gun":5739,"genomfor":5740,"grat":5741,"kans":5742,"Chi":5743,"sident":5744,"thaimassage":5745,"torsdag":5746,"ansokan":5747,"monster":5748,"lege":5749,"Net":5750,"lærer":5751,"besøg":5752,"domstol":5753,"senast":5754,"hører":5755,"datter":5756,"ursprung":5757,"400":5758,"saklart":5759,"ordentligt":5760,"pil":5761,"vei":5762,"regering":5763,"ack":5764,"lugn":5765,"ligg":5766,"deligt":5767,"sjalvklart":5768,"stim":5769,"minska":5770,"fantastiskt":5771,"hosten":5772,"pligt":5773,"linje":5774,"Skulle":5775,"forbund":5776,"indtil":5777,"gs":5778,"ational":5779,"ansatte":5780,"lordag":5781,"terne":5782,"bilitet":5783,"AC":5784,"talar":5785,".[":5786,"konsu":5787,"orlunda":5788,"synlig":5789,"dei":5790,"chi":5791,"fortæller":5792,"sjukt":5793,"saknar":5794,"nødvendig":5795,"fortro":5796,"haret":5797,"Helt":5798,"Vel":5799,"medarbej":5800,"problemet":5801,"Kj":5802,"bt":5803,"premi":5804,"benytte":5805,"kær":5806,"Vara":5807,"maskiner":5808,"Ah":5809,"gæ":5810,"ric":5811,"sover":5812,"Internet":5813,"værelse":5814,"hell":5815,"kontin":5816,"Google":5817,"Sid":5818,"Kal":5819,"forud":5820,"fordon":5821,"bekym":5822,"kran":5823,"Hav":5824,"konkret":5825,"hamta":5826,"utmarkt":5827,"Kultur":5828,"OT":5829,"Can":5830,"framat":5831,"promenad":5832,"oni":5833,"strategi":5834,"pin":5835,"bygning":5836,"given":5837,"skjer":5838,"skada":5839,"ssystem":5840,"videos":5841,"fx":5842,"England":5843,"orgonen":5844,"ph":5845,"Vol":5846,"spo":5847,"dialog":5848,"periode":5849,"onsk":5850,"».":5851,"begar":5852,"kommentarer":5853,"sili":5854,"august":5855,"Bel":5856,"definiti":5857,"rek":5858,"fine":5859,"pad":5860,"loss":5861,"Kina":5862,"bostads":5863,"Mel":5864,"Bir":5865,"tillstand":5866,"prak":5867,"markedet":5868,"klæ":5869,"uger":5870,"Amer":5871,"gent":5872,"Vet":5873,"butiker":5874,"erfaring":5875,"vardering":5876,"fantastiska":5877,"Foren":5878,"jern":5879,"socker":5880,"kampen":5881,"Online":5882,"identifi":5883,"47":5884,"vidt":5885,"sning":5886,"giften":5887,"Stat":5888,"vapen":5889,"fyldt":5890,"ekonomi":5891,"Sad":5892,"ttet":5893,"forældre":5894,"millioner":5895,"betydelse":5896,"billed":5897,"sæl":5898,"klassi":5899,"elses":5900,"beskriver":5901,"kirke":5902,"antall":5903,"kjøp":5904,"anset":5905,"skapen":5906,"Alex":5907,"legge":5908,"Inform":5909,"Hade":5910,"ryck":5911,"nagonting":5912,"upplevelse":5913,"anlæg":5914,"leken":5915,"sler":5916,"ledes":5917,"42":5918,"Cre":5919,"undrar":5920,"49":5921,"boka":5922,"cell":5923,"styre":5924,"rull":5925,"tanken":5926,"landets":5927,"150":5928,"ula":5929,"vakna":5930,"lans":5931,"vanda":5932,"skov":5933,"isol":5934,"bold":5935,"sprang":5936,"fylla":5937,"djup":5938,"version":5939,"kuper":5940,"drabb":5941,"kkede":5942,"1000":5943,"mitten":5944,"stranden":5945,"gjelder":5946,"andel":5947,"anstallda":5948,"forhallande":5949,"Gro":5950,"ckning":5951,"Bygg":5952,"stammer":5953,"positivt":5954,"angel":5955,"betydligt":5956,"Frankri":5957,"voksne":5958,"motiv":5959,"vanskelig":5960,"dum":5961,"total":5962,"ora":5963,"Hvordan":5964,"regul":5965,"Ibland":5966,"viktigaste":5967,"general":5968,"sot":5969,"angre":5970,"styrelse":5971,"vaxter":5972,"kny":5973,"ender":5974,"Beg":5975,"diagno":5976,"Pas":5977,"02":5978,"von":5979,"hurtig":5980,"atorer":5981,"betale":5982,"Ob":5983,"kram":5984,"NA":5985,"kompeten":5986,"bell":5987,"park":5988,"narmare":5989,"plu":5990,"bereg":5991,"gge":5992,"delt":5993,"positiv":5994,"imponer":5995,"pik":5996,"sorti":5997,"manu":5998,"køre":5999,"guide":6000,"flyt":6001,"samlingen":6002,"kapa":6003,"vert":6004,"skrig":6005,"tube":6006,"kender":6007,"mak":6008,"gørelse":6009,"statt":6010,"ansikt":6011,"størrelse":6012,"Umea":6013,"enden":6014,"Læs":6015,"ago":6016,"familien":6017,"Indi":6018,"ellan":6019,"gade":6020,"moderne":6021,"gru":6022,"HD":6023,"inred":6024,"hensyn":6025,"bekvam":6026,"betydning":6027,"85":6028,"Ener":6029,"skraft":6030,"betyg":6031,"kjøpe":6032,"tilbyder":6033,"forandring":6034,"færdig":6035,"lækker":6036,"brist":6037,"kostar":6038,"skje":6039,"egaende":6040,"nene":6041,"lagenhet":6042,"daremot":6043,"Frag":6044,"aterial":6045,"symbol":6046,"midt":6047,"valde":6048,"hyr":6049,"gards":6050,"iller":6051,"imidler":6052,"studenter":6053,"vægt":6054,"mmelse":6055,"Henrik":6056,"Tva":6057,"føler":6058,"recen":6059,"bere":6060,"jekter":6061,"larna":6062,"effektivt":6063,"Histor":6064,"brukes":6065,"AND":6066,"brik":6067,"javla":6068,"gaard":6069,"SP":6070,"Ven":6071,"type":6072,"imidlertid":6073,"slot":6074,"afall":6075,"stjer":6076,"teller":6077,"pedagog":6078,"tagen":6079,"tig":6080,"git":6081,"relation":6082,"titet":6083,"værre":6084,"koncer":6085,"engelsk":6086,"format":6087,"populara":6088,"Fam":6089,"Kri":6090,"Amat":6091,"tydligt":6092,"kvalitets":6093,"Vart":6094,"nyck":6095,"folke":6096,"valgte":6097,"inkluder":6098,"Nam":6099,"litteratur":6100,"datorn":6101,"Dock":6102,"yer":6103,"heim":6104,"skolor":6105,"aland":6106,"Hitta":6107,"okad":6108,"malmo":6109,"Ore":6110,"Thomas":6111,"kriti":6112,"dack":6113,"eksister":6114,"spørsmal":6115,"iland":6116,"metod":6117,"matcher":6118,"Side":6119,"middagen":6120,"sikkerhed":6121,"lysning":6122,"Danmarks":6123,"got":6124,"snygga":6125,"tic":6126,"separ":6127,"resultater":6128,"bestille":6129,"central":6130,"indeholder":6131,"perspektiv":6132,"Andra":6133,"ejendom":6134,"lades":6135,"dokumenter":6136,"modellen":6137,"fed":6138,"vnt":6139,"sosi":6140,"Bre":6141,"urt":6142,"bile":6143,"tekst":6144,"rattigheter":6145,"organisa":6146,"olja":6147,"satts":6148,"City":6149,"driv":6150,"prog":6151,"Christian":6152,"wor":6153,"master":6154,"effektiv":6155,"visor":6156,"sman":6157,"kendte":6158,"vinner":6159,"utvecklingen":6160,"Marie":6161,"2003":6162,"ums":6163,"foreg":6164,"enhver":6165,"Eskort":6166,"enkla":6167,"introdu":6168,"bedst":6169,"arig":6170,"tunn":6171,"finansiering":6172,"bidrar":6173,"Pi":6174,"klasse":6175,"skaps":6176,"ros":6177,"Qu":6178,"blick":6179,"reser":6180,"fysisk":6181,"sitet":6182,"num":6183,"FF":6184,"rog":6185,"vuxen":6186,"korrekt":6187,"lyssna":6188,"interesser":6189,"nyttet":6190,"stiller":6191,"magen":6192,"distrikt":6193,"politisk":6194,"lart":6195,"hjer":6196,"mansk":6197,"restaurang":6198,"allige":6199,"foring":6200,"smas":6201,"sondag":6202,"fortsatte":6203,"jf":6204,"forsaljning":6205,"kandid":6206,"kalen":6207,"iP":6208,"stisk":6209,"elev":6210,"Film":6211,"læring":6212,"vold":6213,"offentlige":6214,"Sport":6215,"frihet":6216,"arhus":6217,"forvant":6218,"pratar":6219,"plotsligt":6220,"Pal":6221,"britann":6222,"starter":6223,"representer":6224,"hastar":6225,"Samtidigt":6226,"rød":6227,"Stud":6228,"show":6229,"ynd":6230,"elles":6231,"splats":6232,"hov":6233,"allafall":6234,"hyll":6235,"skid":6236,"skratt":6237,"bytte":6238,"intresserad":6239,"ceret":6240,"offici":6241,"kopt":6242,"motiver":6243,"resan":6244,"Ry":6245,"lyckades":6246,"bjerg":6247,"korde":6248,"fing":6249,"italien":6250,"repar":6251,"lub":6252,"serier":6253,"pool":6254,"inklusive":6255,"Frankrike":6256,"finansiella":6257,"myndigheter":6258,"departe":6259,"sagen":6260,"sien":6261,"exper":6262,"oret":6263,"bilj":6264,"besked":6265,"formod":6266,"sodra":6267,"vindu":6268,"minne":6269,"fixa":6270,"OG":6271,"resor":6272,"David":6273,"Dal":6274,"skli":6275,"stjar":6276,"=)":6277,"lejlighed":6278,"teater":6279,"cher":6280,"retur":6281,"laste":6282,"oplevelse":6283,"kurser":6284,"listan":6285,"celler":6286,"japan":6287,"sivt":6288,"04":6289,"harlig":6290,"forsakring":6291,"Cor":6292,"Ur":6293,"kompetens":6294,"sms":6295,"stiden":6296,"essen":6297,"samfund":6298,"Narmaste":6299,"SL":6300,"spara":6301,"jande":6302,"jule":6303,"lamnar":6304,"utbud":6305,"deren":6306,"gin":6307,"ologiska":6308,"kningen":6309,"rosa":6310,"rigtige":6311,"ostra":6312,"politiska":6313,"kallt":6314,"kontrakt":6315,"neste":6316,"æreste":6317,"behandlingen":6318,"strax":6319,"rekke":6320,"forn":6321,"ægte":6322,"ah":6323,"antingen":6324,"kampan":6325,"Fredrik":6326,"Vores":6327,"beskrivning":6328,"skin":6329,"ction":6330,"asy":6331,"Region":6332,"Norges":6333,"kle":6334,"day":6335,"akta":6336,"CO":6337,"relater":6338,"traffar":6339,"gladje":6340,"budet":6341,"Forsta":6342,"amnen":6343,"gett":6344,"marke":6345,"passade":6346,"position":6347,"børne":6348,"losningar":6349,"undan":6350,"sjukvar":6351,"morgonen":6352,"nemt":6353,"sammanhang":6354,"Dig":6355,"forutsattningar":6356,"chans":6357,"forbered":6358,"nordvast":6359,"Vag":6360,"misstan":6361,"fand":6362,"Log":6363,"Lan":6364,"turen":6365,"SD":6366,"faktorer":6367,"siva":6368,"Folk":6369,"kuk":6370,"dekor":6371,"Jer":6372,"ms":6373,"avgift":6374,"køkken":6375,"Sna":6376,"fejl":6377,"ryggen":6378,"iter":6379,"vog":6380,"stjan":6381,"fundet":6382,"kod":6383,"ventil":6384,"Pl":6385,"Pat":6386,"jamfort":6387,"stolt":6388,"trenger":6389,"Kommer":6390,"grill":6391,"betalt":6392,"strup":6393,"Storbritann":6394,"omgang":6395,"manniska":6396,"kuperad":6397,"anmel":6398,"eu":6399,"onsdag":6400,"argu":6401,"put":6402,"vardag":6403,"norra":6404,"funnit":6405,"slutade":6406,"afhæng":6407,"Kron":6408,"Video":6409,"radio":6410,"aben":6411,"prosent":6412,"koncentr":6413,"bjuder":6414,"masser":6415,"aktie":6416,"minstone":6417,"kerne":6418,"Foret":6419,"gles":6420,"illu":6421,"februar":6422,"kommunens":6423,"koper":6424,"gjø":6425,"stimul":6426,"forsikt":6427,"Finns":6428,"mikro":6429,"Skol":6430,"somt":6431,"risker":6432,"choklad":6433,"Mø":6434,"annorlunda":6435,"juk":6436,"søge":6437,"standar":6438,"Christ":6439,"kjør":6440,"kallade":6441,"brukt":6442,"billede":6443,"praksis":6444,"tittar":6445,"yt":6446,"Ke":6447,"bull":6448,"kræver":6449,"Paris":6450,"%.":6451,"Black":6452,"ratts":6453,"vers":6454,"situationer":6455,"inlag":6456,"bakgrund":6457,"opgaver":6458,"venn":6459,"papir":6460,"Air":6461,"historier":6462,"tving":6463,"klicka":6464,"kanten":6465,"sættes":6466,"brod":6467,"ranta":6468,"blommor":6469,"Sar":6470,"pamin":6471,"valkom":6472,"splad":6473,"Nagra":6474,"hunden":6475,"arige":6476,"gem":6477,"ela":6478,"lakemedel":6479,"rael":6480,"norge":6481,"mjuk":6482,"LE":6483,"osof":6484,"Forst":6485,"Nak":6486,"Art":6487,"03":6488,"motet":6489,"vnte":6490,"Paul":6491,"64":6492,"vila":6493,"York":6494,"erande":6495,"AP":6496,"Vest":6497,"skifte":6498,"Vir":6499,"kyrkan":6500,"marna":6501,"\")":6502,"selig":6503,"erings":6504,"underbara":6505,"øse":6506,"represen":6507,"rolle":6508,"itter":6509,"fant":6510,"kjær":6511,"knyttet":6512,"lost":6513,"ejer":6514,"Speci":6515,"drer":6516,"vurdering":6517,"egn":6518,"ledelse":6519,"mom":6520,"undersokning":6521,"termin":6522,"givande":6523,"stabil":6524,"kombination":6525,"?!":6526,"iv":6527,"Do":6528,"Inn":6529,"skador":6530,"fard":6531,"hjælper":6532,"kkende":6533,"kritik":6534,"spillere":6535,"utrustning":6536,"rammer":6537,"sterne":6538,"flytte":6539,"Porno":6540,"billigt":6541,"svang":6542,"paverkar":6543,"tilfreds":6544,"ferdig":6545,"begræn":6546,"lass":6547,"sjun":6548,"vede":6549,"kunden":6550,"Kort":6551,"(\"":6552,"aktion":6553,"kallar":6554,"europe":6555,"Kam":6556,"Ring":6557,"Sten":6558,"rike":6559,"Bank":6560,"kine":6561,"klær":6562,"sede":6563,"Juli":6564,"splatsen":6565,"hittat":6566,"Universitet":6567,"faller":6568,"bilderna":6569,"navnet":6570,"dato":6571,"kategori":6572,"alsk":6573,"smukke":6574,"effekter":6575,"sasong":6576,"NING":6577,"personuppgifter":6578,"gorande":6579,"smer":6580,"befinner":6581,"188":6582,"utvecklas":6583,"refer":6584,"adel":6585,"Don":6586,"prøver":6587,"harligt":6588,"private":6589,"ønn":6590,"endelig":6591,"stændig":6592,"alisering":6593,"Daniel":6594,"naturligtvis":6595,"utdan":6596,"mans":6597,"kog":6598,"Bør":6599,"Lok":6600,"66":6601,"189":6602,"kong":6603,"bevæ":6604,"Italien":6605,"amator":6606,"ockey":6607,"drygt":6608,"olyck":6609,"sæson":6610,"aldri":6611,"ungdomar":6612,"2002":6613,"serer":6614,"Nya":6615,"\u0000\u0000":6616,"brud":6617,"pande":6618,"2001":6619,"parkering":6620,"ansen":6621,"underklader":6622,"medvet":6623,"selvom":6624,"gay":6625,"hotel":6626,"syster":6627,"idet":6628,"kortet":6629,"læge":6630,"resept":6631,"hil":6632,"dent":6633,"rene":6634,"mede":6635,"kors":6636,"Bol":6637,"ambi":6638,"mota":6639,"wi":6640,"vattendrag":6641,"lea":6642,"takter":6643,"stallen":6644,"resul":6645,"ters":6646,"daglig":6647,"forbattra":6648,"lanet":6649,"tysk":6650,"Knulla":6651,"vd":6652,"sic":6653,"tecken":6654,"erotisk":6655,"belopp":6656,"ligesom":6657,"salja":6658,"egenskaper":6659,"Ab":6660,"stof":6661,"Port":6662,"syfte":6663,"verdi":6664,"camp":6665,"jene":6666,"Kvin":6667,"kend":6668,"joner":6669,"jda":6670,"ance":6671,"Ag":6672,"lugnt":6673,"indik":6674,"Max":6675,"humor":6676,"apotek":6677,"liste":6678,"Toppen":6679,"eger":6680,"soffan":6681,"ledande":6682,"nærmere":6683,"viken":6684,"intet":6685,"huvudsakligen":6686,"klarar":6687,"numera":6688,"plock":6689,"højt":6690,"ness":6691,"sprodu":6692,"bbl":6693,"kraftig":6694,"veien":6695,"PC":6696,"banen":6697,"indre":6698,"Sexiga":6699,"ism":6700,"Orebro":6701,"befolkningen":6702,"hagen":6703,"æt":6704,"lane":6705,"fungerer":6706,"Fu":6707,"forekommer":6708,"amerikanska":6709,"sidder":6710,"hogst":6711,"utform":6712,"prisen":6713,"bben":6714,"temperatur":6715,"hantera":6716,"hr":6717,"princip":6718,"amerikanske":6719,"43":6720,"utover":6721,"byn":6722,"titel":6723,"ving":6724,"ssatt":6725,"student":6726,"darlig":6727,"branschen":6728,"ycker":6729,"view":6730,"eleg":6731,"atiske":6732,"pasta":6733,"41":6734,"arens":6735,"leje":6736,"killar":6737,"pon":6738,"Guds":6739,"slipper":6740,"byra":6741,"konstigt":6742,"byte":6743,"Sara":6744,"motstand":6745,"stycken":6746,"!)":6747,"indenfor":6748,"ows":6749,"forskjellige":6750,"pek":6751,"diska":6752,"nordost":6753,"hallbar":6754,"kvalifi":6755,"fack":6756,"male":6757,"sallan":6758,"langd":6759,"orkar":6760,"Bal":6761,"halls":6762,"sannoli":6763,"bussen":6764,"Led":6765,"servi":6766,"visat":6767,"stykke":6768,"funktions":6769,"Wor":6770,"samarbeid":6771,"OP":6772,"elen":6773,"konstnar":6774,"yrkes":6775,"revol":6776,"Kro":6777,"Basta":6778,"You":6779,"Fun":6780,"taket":6781,"karen":6782,"holdes":6783,"bestamt":6784,"OB":6785,"cere":6786,"svarta":6787,"vardags":6788,"kninger":6789,"stein":6790,"stallningen":6791,"Cy":6792,"departementet":6793,"vælger":6794,"Sof":6795,"omgivningarna":6796,"synet":6797,"sporter":6798,"anvendes":6799,"gens":6800,"nuvarande":6801,"kunskaper":6802,"lokaler":6803,"inder":6804,"skuld":6805,"omedel":6806,"tart":6807,"AV":6808,"racker":6809,"horn":6810,"underbart":6811,"ersattning":6812,"ition":6813,"):":6814,"nus":6815,"Play":6816,"svarende":6817,"Lou":6818,"Mic":6819,"stillingen":6820,"baby":6821,"stræ":6822,"pli":6823,"situationen":6824,"sattningen":6825,"tabl":6826,"smor":6827,"iallafall":6828,"retten":6829,"byr":6830,"satsen":6831,"mangler":6832,"ildo":6833,"grym":6834,"saljer":6835,"dae":6836,"internationella":6837,"interesse":6838,"mekan":6839,"lægge":6840,"vent":6841,"Nav":6842,"akade":6843,"hundar":6844,"anvande":6845,"rot":6846,"pengarna":6847,"forvaltning":6848,"atminstone":6849,"ladda":6850,"okat":6851,"glada":6852,"jeres":6853,"cin":6854,"læng":6855,"stanna":6856,"stitut":6857,"sekunder":6858,"faktum":6859,"vilkar":6860,"dren":6861,"fog":6862,"skler":6863,"lignende":6864,"lyser":6865,"ptom":6866,"Japan":6867,"lant":6868,"Fer":6869,"skilt":6870,"processen":6871,"para":6872,"ologiske":6873,"anne":6874,"plug":6875,"soft":6876,"definitivt":6877,"KT":6878,"krop":6879,"Valkommen":6880,"forhopp":6881,"flotte":6882,"ALL":6883,"belast":6884,"**":6885,"professor":6886,"setter":6887,"porrfilm":6888,"sammenlig":6889,"cykl":6890,"vata":6891,"krimin":6892,"if":6893,"ungdoms":6894,"speg":6895,"ingred":6896,"Dri":6897,"69":6898,"mojliga":6899,"IM":6900,"svaret":6901,"biler":6902,"rester":6903,"avent":6904,"natverk":6905,"turner":6906,"bana":6907,"vida":6908,"tju":6909,"utgor":6910,"Tyvarr":6911,"farver":6912,"hovedet":6913,"Forutom":6914,"kanslor":6915,"lly":6916,"syge":6917,"mala":6918,"cancer":6919,"67":6920,"mojligheten":6921,"patient":6922,"Mand":6923,"springa":6924,"UT":6925,"sattet":6926,"funkar":6927,"hann":6928,"naken":6929,"yta":6930,"latta":6931,"Tag":6932,"Mere":6933,"soli":6934,"stick":6935,"dik":6936,"hemmet":6937,"fandt":6938,"Vissa":6939,"kjem":6940,"Kung":6941,"ano":6942,"detalj":6943,"Tim":6944,"syke":6945,"sjons":6946,"SF":6947,"jung":6948,"unik":6949,"bunden":6950,"Dem":6951,"rock":6952,"vaga":6953,"formodligen":6954,"dru":6955,"invol":6956,"træning":6957,"jonen":6958,"Pol":6959,"avgifter":6960,"Ov":6961,"medarbejdere":6962,"veje":6963,"baggrund":6964,"gjerne":6965,"inkomst":6966,"fug":6967,"varken":6968,"sydvast":6969,"namnden":6970,"outube":6971,"alligevel":6972,"styrelsens":6973,"batteri":6974,"bodde":6975,"fakta":6976,"øg":6977,"medlems":6978,"ekte":6979,"medarbetare":6980,"ifølge":6981,"Gav":6982,"hinder":6983,"skull":6984,"olie":6985,"forsokte":6986,"Visst":6987,"grann":6988,"evt":6989,"saf":6990,"jør":6991,"king":6992,"CD":6993,"varlds":6994,"varet":6995,"hantering":6996,"backen":6997,"ids":6998,"tegn":6999,"filosof":7000,"avdel":7001,"udgangspunkt":7002,"paverka":7003,"diverse":7004,"diga":7005,"ral":7006,"amerikansk":7007,"vandet":7008,"cor":7009,"alister":7010,"seneste":7011,"væsent":7012,"ftig":7013,"spons":7014,"fotografer":7015,"sling":7016,"xor":7017,"fungera":7018,"onne":7019,"glesbefolkat":7020,"kontakter":7021,"Tak":7022,"modern":7023,"talen":7024,"Vilken":7025,"Projekt":7026,"okej":7027,"strid":7028,"avstand":7029,"gæn":7030,"hundra":7031,"Ban":7032,"rest":7033,"ark":7034,"gast":7035,"smarta":7036,"Nagon":7037,"betalar":7038,"praktisk":7039,"dubbel":7040,"artner":7041,"Sti":7042,"fattar":7043,"burde":7044,"forandringar":7045,"Micha":7046,"styrka":7047,"Aldre":7048,"forelas":7049,"tidlig":7050,"startade":7051,"dern":7052,"kaka":7053,"jobbigt":7054,"langi":7055,"politiske":7056,"citet":7057,"letter":7058,"bærer":7059,"ringa":7060,"ege":7061,"mysigt":7062,"fæ":7063,"PA":7064,"religi":7065,"Ras":7066,"paverk":7067,"kompli":7068,"kommunal":7069,"forny":7070,"lægger":7071,"polisen":7072,"Mam":7073,"personlige":7074,"roda":7075,"respekt":7076,"finalen":7077,"osa":7078,"lider":7079,"højere":7080,"unna":7081,"besoka":7082,"singlar":7083,"wer":7084,"hardt":7085,"bott":7086,"særligt":7087,"relser":7088,"facebook":7089,"kristen":7090,"legger":7091,"koppling":7092,"desto":7093,"Angel":7094,"utioner":7095,"ktar":7096,"golv":7097,"traffade":7098,"forslaget":7099,"relationer":7100,"usen":7101,"singel":7102,"underbar":7103,"venstre":7104,"Valj":7105,"øk":7106,"gum":7107,"Hotel":7108,"sydost":7109,"rapporten":7110,"lapp":7111,"Freder":7112,"typisk":7113,"spesielt":7114,"bøger":7115,"SEK":7116,"fysi":7117,"Sør":7118,"syste":7119,"ladd":7120,"foder":7121,"tænke":7122,"delvis":7123,"virkning":7124,"Ram":7125,"tyst":7126,"blo":7127,"nart":7128,"upple":7129,"dress":7130,"market":7131,"68":7132,"58":7133,"VD":7134,"opna":7135,"Bred":7136,"selve":7137,"vises":7138,"bryster":7139,"Arets":7140,"bring":7141,"Kol":7142,"ava":7143,"tydligen":7144,"stry":7145,"Fick":7146,"57":7147,"handlingar":7148,"relevant":7149,"godis":7150,"Island":7151,"levande":7152,"skas":7153,"Kr":7154,"foljd":7155,"løsninger":7156,"187":7157,"Sag":7158,"FC":7159,"MS":7160,"vackert":7161,"Mc":7162,"mjolk":7163,"forbud":7164,"ump":7165,"uen":7166,"Stort":7167,"dorren":7168,"analys":7169,"Ren":7170,"cerad":7171,"wee":7172,"tages":7173,"tvivl":7174,"lamnade":7175,"kæmpe":7176,"spur":7177,"oblig":7178,"underlag":7179,"59":7180,"1990":7181,"sting":7182,"Samtidig":7183,"laggande":7184,"bbe":7185,"Hoved":7186,"senter":7187,"bestammel":7188,"forløb":7189,"demon":7190,"seson":7191,"startet":7192,"your":7193,"Bak":7194,"ellem":7195,"ney":7196,"arbeids":7197,"moten":7198,"skriften":7199,"uri":7200,"Søn":7201,"600":7202,"luften":7203,"eit":7204,"hoppa":7205,"snabba":7206,"appen":7207,"Dagens":7208,"fragade":7209,"nik":7210,"landska":7211,"behovet":7212,"tvungen":7213,"varder":7214,"Tror":7215,"trykk":7216,"casin":7217,"stres":7218,"heldig":7219,"flash":7220,"pleje":7221,"aventyr":7222,"XX":7223,"simpel":7224,"Fy":7225,"givetvis":7226,"UR":7227,"stillet":7228,"flam":7229,"behovde":7230,"hunnit":7231,"stalld":7232,"passet":7233,"forr":7234,"oter":7235,"DR":7236,"programmer":7237,"aktuella":7238,"Sig":7239,"organisationen":7240,"faste":7241,"andes":7242,"minns":7243,"samlede":7244,"distri":7245,"sugen":7246,"Jar":7247,"mai":7248,"sjov":7249,"chansen":7250,"betalnings":7251,"repræsen":7252,"enskom":7253,"sorg":7254,"Nil":7255,"kategorier":7256,"2019":7257,"snarare":7258,"undersøg":7259,"vandring":7260,"multi":7261,"رر":7262,"løp":7263,"ml":7264,"konsul":7265,"ørdag":7266,"Slut":7267,"dighet":7268,"ice":7269,"undvika":7270,"Norsk":7271,"Kap":7272,"forhallanden":7273,"feil":7274,"engang":7275,"naturligvis":7276,"Kuh":7277,"OD":7278,"glæde":7279,"farve":7280,"trade":7281,"Bus":7282,"irri":7283,"ligtvis":7284,"Ant":7285,"laggning":7286,"slu":7287,"beting":7288,"bedomning":7289,"AA":7290,"mente":7291,"succes":7292,"tyder":7293,"skydds":7294,"menneske":7295,"kanslan":7296,"fødsel":7297,"isen":7298,"derefter":7299,"indlæg":7300,"enklare":7301,"anges":7302,"korta":7303,"bestemm":7304,"risken":7305,"Blu":7306,"resurser":7307,"compu":7308,"generisk":7309,"lyckats":7310,"tillgangliga":7311,"medal":7312,"tillfalle":7313,"real":7314,"anvandare":7315,"Skane":7316,"økonomiske":7317,"leverand":7318,"major":7319,"mp":7320,"sortiment":7321,"typen":7322,"skrivning":7323,"belig":7324,"levde":7325,"hinner":7326,"rev":7327,"sæd":7328,"okade":7329,"tyr":7330,"internasjon":7331,"aftale":7332,"fulde":7333,"varmen":7334,"FN":7335,"bind":7336,"varo":7337,"yp":7338,"sop":7339,"Fru":7340,"rekommenderar":7341,"teknologi":7342,"kjente":7343,"vitra":7344,"Wind":7345,"familjer":7346,"kik":7347,"skift":7348,"bestalla":7349,"harliga":7350,"materiale":7351,"rollen":7352,"»,":7353,"Skal":7354,"golf":7355,"250":7356,"starte":7357,"Afri":7358,"middel":7359,"trang":7360,"gaster":7361,"popular":7362,"varan":7363,"Inne":7364,"tip":7365,"make":7366,"ktivt":7367,"aldern":7368,"parken":7369,"ckande":7370,"bs":7371,"forsknings":7372,"mæng":7373,"sallskap":7374,"bilde":7375,"skader":7376,"møder":7377,"belys":7378,"56":7379,"​​":7380,"Sor":7381,"Pris":7382,"tagelse":7383,"glem":7384,"infe":7385,"mogna":7386,"register":7387,"tabel":7388,"nytta":7389,"recep":7390,"bakter":7391,"skiftet":7392,"forfattare":7393,"drø":7394,"Wil":7395,"buk":7396,"rorelse":7397,"zon":7398,"EG":7399,"opr":7400,"ramme":7401,"tranings":7402,"fortroende":7403,"blomster":7404,"skyldes":7405,"omfattande":7406,"Ali":7407,"llop":7408,"banker":7409,"naderna":7410,"skjut":7411,"parla":7412,"hamnar":7413,"koket":7414,"fullmakt":7415,"ledig":7416,"Wi":7417,"ffer":7418,"Haha":7419,"88":7420,"fekt":7421,"vadret":7422,"ico":7423,"omoj":7424,"Bed":7425,"ansvaret":7426,"Andersson":7427,"slutt":7428,"semin":7429,"tyske":7430,"onom":7431,"erier":7432,"plikt":7433,"domen":7434,"sekret":7435,"digital":7436,"fabrik":7437,"bloggar":7438,"himmel":7439,"ments":7440,"aktier":7441,"lyder":7442,"Kur":7443,"Aug":7444,"dighed":7445,"52":7446,"valj":7447,"objekt":7448,"cerade":7449,"Dy":7450,"gull":7451,"Vær":7452,"Jonas":7453,"war":7454,"barns":7455,"Energi":7456,"Vej":7457,"sender":7458,"berattade":7459,"ji":7460,"terat":7461,"ands":7462,"Siden":7463,"Grund":7464,"brollop":7465,"onym":7466,"serade":7467,"cafe":7468,"skaffa":7469,"Bur":7470,"overfl":7471,"mur":7472,"melig":7473,"Service":7474,"rister":7475,"riktiga":7476,"andina":7477,"agera":7478,"disp":7479,"sidst":7480,"Ogsa":7481,"Casino":7482,"Ger":7483,"MA":7484,"tydlig":7485,"registrering":7486,"utrolig":7487,"begyndte":7488,"legi":7489,"artiklar":7490,"forbru":7491,"Amator":7492,"behø":7493,"generelt":7494,"dollar":7495,"forsøg":7496,"klima":7497,"overrask":7498,"socialt":7499,"isjon":7500,"Store":7501,"økonomi":7502,"Austral":7503,"sociale":7504,"laver":7505,"Of":7506,"finger":7507,"Ton":7508,"varian":7509,"tions":7510,"svall":7511,"bræn":7512,"utgangspunkt":7513,"glass":7514,"atit":7515,"moter":7516,"Nakna":7517,"rekord":7518,"rem":7519,"modu":7520,"hansyn":7521,"Pet":7522,"tjenester":7523,"Danske":7524,"individer":7525,"gjengel":7526,"huse":7527,"amne":7528,"uttal":7529,"udstyr":7530,"Verk":7531,"skur":7532,"øvrige":7533,"knappen":7534,"flickor":7535,"loc":7536,"orgas":7537,"stagram":7538,"dol":7539,"this":7540,"Nik":7541,"lamnat":7542,"rarna":7543,"fjell":7544,"1999":7545,"slutar":7546,"holdning":7547,"adress":7548,"Innan":7549,"yng":7550,"illustr":7551,"BR":7552,"spekt":7553,"pratade":7554,"erbjudanden":7555,"begynder":7556,"konsekvenser":7557,"narings":7558,"lack":7559,"maskinen":7560,"hande":7561,"forbed":7562,"Park":7563,"Hote":7564,"grona":7565,"svam":7566,"Vem":7567,"betyr":7568,"seger":7569,"stoffer":7570,"uppratt":7571,"Tar":7572,"teres":7573,"avheng":7574,"Ken":7575,"muskler":7576,"smatt":7577,"sjæl":7578,"kanal":7579,"varma":7580,"framgang":7581,"indhold":7582,"lenge":7583,"aning":7584,"møn":7585,"ogonen":7586,"1800":7587,"helhet":7588,"arie":7589,"milf":7590,"Lam":7591,"hjerte":7592,"metall":7593,"perfekta":7594,"Michael":7595,"sess":7596,"moderna":7597,"Im":7598,"hej":7599,"Nagot":7600,"tjeneste":7601,"finna":7602,"yderligere":7603,"unika":7604,"rigtigt":7605,"Politi":7606,"identitet":7607,"ople":7608,"populære":7609,"model":7610,"fitta":7611,"ligheter":7612,"vekt":7613,"samre":7614,"skop":7615,"Stad":7616,"sperio":7617,"loven":7618,"somraden":7619,"mobilen":7620,"Utan":7621,"cus":7622,"Fo":7623,"skyld":7624,"placering":7625,"projekter":7626,"nesten":7627,"tad":7628,"chatt":7629,"varav":7630,"yo":7631,"Ki":7632,"køn":7633,"kærlighed":7634,"bogen":7635,"engage":7636,"felles":7637,"skoler":7638,"sklimat":7639,"opprett":7640,"ledde":7641,"Grupp":7642,"ræk":7643,"gad":7644,"Program":7645,"ila":7646,"Bag":7647,"120":7648,"LO":7649,"langsikt":7650,"neden":7651,"forar":7652,"telefoner":7653,"bredt":7654,"torr":7655,"Jack":7656,"butiken":7657,"kelige":7658,"ingredien":7659,"gje":7660,"framforallt":7661,"utsatt":7662,"varre":7663,"somme":7664,"radgivning":7665,"besokare":7666,"gøres":7667,"mier":7668,"Visa":7669,"gaven":7670,"Stra":7671,"vante":7672,"Spanien":7673,"alborg":7674,"alders":7675,"Telef":7676,"nyfik":7677,"Stk":7678,"Cla":7679,"daliga":7680,"Sing":7681,"nack":7682,"opleve":7683,"synd":7684,"nerv":7685,"udtryk":7686,"ped":7687,"erfarenheter":7688,"Thaimassage":7689,"own":7690,"desuden":7691,"Bilder":7692,"framtid":7693,"dricka":7694,"Tex":7695,"ming":7696,"ytan":7697,"smø":7698,"oslo":7699,"miljar":7700,"gemensamma":7701,"advok":7702,"delas":7703,"lide":7704,"Mac":7705,"fuldt":7706,"terror":7707,"økonomisk":7708,"trakigt":7709,"framgangs":7710,"værkt":7711,"jobbat":7712,"Cen":7713,"Lagg":7714,"pler":7715,"golvet":7716,"lyx":7717,"Hell":7718,"utsikt":7719,"felt":7720,"motsvarande":7721,"yrke":7722,"tekniska":7723,"tillganglig":7724,"Annars":7725,"Andreas":7726,"engager":7727,"varna":7728,"minut":7729,"teknisk":7730,"hallet":7731,"ilt":7732,"mangder":7733,"svarer":7734,"utlan":7735,"rutiner":7736,"skue":7737,"homo":7738,"imor":7739,"egnet":7740,"lettere":7741,"Center":7742,"Mina":7743,"aktiva":7744,"cens":7745,"postad":7746,"fransk":7747,"Hotell":7748,"tatbefolkat":7749,"allmanna":7750,"bjor":7751,"alternati":7752,"hjarta":7753,"tilgjengel":7754,"symptom":7755,"orsak":7756,"Bry":7757,"py":7758,"anska":7759,"Bod":7760,"zonen":7761,"sjø":7762,"sukker":7763,"arbetat":7764,"snabbare":7765,"kull":7766,"arv":7767,"Vilket":7768,"øye":7769,"automatisk":7770,"draget":7771,"DE":7772,"ændringer":7773,"villa":7774,"kulture":7775,"befint":7776,"brett":7777,"bokstav":7778,"meddelande":7779,"Hela":7780,"velkommen":7781,"gede":7782,"Ord":7783,"studerende":7784,"slen":7785,"kører":7786,"skum":7787,"bestyrelsen":7788,"kets":7789,"fritid":7790,"vækst":7791,"stiger":7792,"skost":7793,"bekendt":7794,"Klicka":7795,"shopping":7796,"brag":7797,"Anne":7798,"fond":7799,"syr":7800,"leks":7801,"support":7802,"Totalt":7803,"grundlaggande":7804,"invi":7805,"gis":7806,"spin":7807,"sundhed":7808,"avseende":7809,"uppen":7810,"intressanta":7811,"svarar":7812,"klassisk":7813,"kelsen":7814,"atch":7815,"ændre":7816,"extremt":7817,"Nogle":7818,"eleverna":7819,"kompletter":7820,"telefonen":7821,"Wal":7822,"melse":7823,"barna":7824,"standen":7825,"ansett":7826,"plo":7827,"qvist":7828,"54":7829,"kontoret":7830,"enskilda":7831,"Vax":7832,"Kanada":7833,"skede":7834,"tidens":7835,"forran":7836,"Medel":7837,"videor":7838,"alskade":7839,"sonder":7840,"nyligen":7841,"Mun":7842,"bibliotek":7843,"siff":7844,"UL":7845,"gram":7846,"lank":7847,"liggende":7848,"jylland":7849,"deltagare":7850,"look":7851,"sajt":7852,"museum":7853,"etik":7854,"illar":7855,"800":7856,"pote":7857,"ssar":7858,"Svart":7859,"Sav":7860,"deltog":7861,"narvarande":7862,"kvaliteten":7863,"Storbritannien":7864,"involver":7865,"Post":7866,"lit":7867,"initiativ":7868,"passe":7869,"tillhanda":7870,"betrakt":7871,"Aarhus":7872,"drene":7873,"personligt":7874,"konven":7875,"henhold":7876,"51":7877,"befolkning":7878,"areal":7879,"modtager":7880,"jæ":7881,"Dis":7882,"AF":7883,"planet":7884,"avfall":7885,"omfatter":7886,"vaknade":7887,"\":":7888,"bebo":7889,"dobb":7890,"opgave":7891,"ppade":7892,"insatser":7893,"terad":7894,"tidningen":7895,"kursen":7896,"asen":7897,"col":7898,"sperson":7899,"Kristian":7900,"une":7901,"mormor":7902,"utbildningen":7903,"Blir":7904,"zo":7905,"rov":7906,"utav":7907,"gjord":7908,"bestamde":7909,"letar":7910,"Øn":7911,"skjed":7912,"tittade":7913,"karl":7914,"flyttade":7915,"hjelpe":7916,"familje":7917,"webbplatser":7918,"utrymme":7919,"dejlig":7920,"gat":7921,"sadar":7922,"silver":7923,"dop":7924,"ovre":7925,"markeds":7926,"uppleva":7927,"fos":7928,"jack":7929,"arbeten":7930,"TR":7931,"gelser":7932,"gger":7933,"vite":7934,"Que":7935,"formed":7936,"UC":7937,"partier":7938,"nodvandigt":7939,"Jul":7940,"pens":7941,"bron":7942,"president":7943,"garanter":7944,"panel":7945,"pagar":7946,"amen":7947,"avslo":7948,"Magnus":7949,"demokrati":7950,"mol":7951,"venter":7952,"dagog":7953,"muskel":7954,"grundlag":7955,"manden":7956,"dikt":7957,"Bad":7958,"Samman":7959,"illiam":7960,"teen":7961,"ova":7962,"funnits":7963,"Information":7964,"meld":7965,"smin":7966,"has":7967,"rakna":7968,"isar":7969,"jente":7970,"1970":7971,"analyser":7972,"udgifter":7973,"1980":7974,"konomi":7975,"tacka":7976,"vild":7977,"hjartat":7978,"dominer":7979,"uk":7980,"tvær":7981,"tjanste":7982,"53":7983,"Medlem":7984,"levitra":7985,"videoer":7986,"polis":7987,"kraftigt":7988,"kontakte":7989,"særlige":7990,"tiv":7991,"Thor":7992,"veget":7993,"kvan":7994,"tus":7995,",-":7996,"butikker":7997,"zza":7998,"sexuella":7999,"sklu":8000,"regj":8001,"minim":8002,"happ":8003,"følg":8004,"ansvarig":8005,"ønsket":8006,"anten":8007,"kabel":8008,"Noen":8009,"tillfallen":8010,"overenskom":8011,"myndighet":8012,"mani":8013,"inlagget":8014,"liter":8015,"kryd":8016,"spelat":8017,"mund":8018,"trapp":8019,"webbplatsen":8020,"lankar":8021,"62":8022,"vagg":8023,"anlegg":8024,"Hva":8025,"utstyr":8026,"oerhort":8027,"tert":8028,"kelser":8029,"snyggt":8030,"Mark":8031,"ae":8032,"Matt":8033,"haber":8034,"Skar":8035,"brød":8036,"terier":8037,"marts":8038,"uppmarksam":8039,"kollade":8040,"gyn":8041,"dimen":8042,"1998":8043,"77":8044,"bekraft":8045,"tilgæn":8046,"forutsattning":8047,"gnet":8048,"kallad":8049,"grejer":8050,"scenen":8051,"mission":8052,"militar":8053,"black":8054,"posten":8055,"single":8056,"myn":8057,"ee":8058,"kiat":8059,"drikke":8060,"varv":8061,"ture":8062,"undantag":8063,"fjarde":8064,"oversikt":8065,"frakt":8066,"bostader":8067,"basen":8068,"Sma":8069,"frek":8070,"lekar":8071,"slappa":8072,"wood":8073,"Big":8074,"Organ":8075,"texten":8076,"Jens":8077,"vintern":8078,"tyska":8079,"kyrka":8080,"Dire":8081,"dersom":8082,"Vast":8083,"nio":8084,"akut":8085,"byer":8086,"køber":8087,"rinning":8088,"garn":8089,"færd":8090,"ofil":8091,"leta":8092,"farligt":8093,"bia":8094,"forhandling":8095,"forhind":8096,"ware":8097,"glade":8098,"behøver":8099,"ansvarlig":8100,"exklu":8101,"lagom":8102,"akten":8103,"ismen":8104,"Stefan":8105,"radda":8106,"tabe":8107,"ært":8108,"dommer":8109,"hastighet":8110,"fragar":8111,"værd":8112,"svin":8113,"tjansten":8114,"esel":8115,"utionen":8116,"pir":8117,"upptack":8118,"foredrag":8119,"63":8120,"verkade":8121,"nivaer":8122,"søke":8123,"Brun":8124,"terape":8125,"erotik":8126,"tain":8127,"umer":8128,"unda":8129,"tors":8130,"Fli":8131,"Israel":8132,"beskyttelse":8133,"Nasta":8134,"omfang":8135,"sakal":8136,"bildning":8137,"levering":8138,"romanti":8139,"privata":8140,"landa":8141,"oppnar":8142,"EF":8143,"haven":8144,"Bergen":8145,"livsmedel":8146,"open":8147,"Johansson":8148,"stekn":8149,"inkop":8150,"uanset":8151,"danmark":8152,"Are":8153,"horde":8154,"that":8155,"erhvervs":8156,"Micro":8157,"nuværende":8158,"sakerhets":8159,"Ater":8160,"Data":8161,"Daremot":8162,"forandra":8163,"HA":8164,"alu":8165,"dustri":8166,"framtida":8167,"raknas":8168,"intresserade":8169,"udvikle":8170,"følelse":8171,"foreningens":8172,"ledar":8173,"Cer":8174,"Gay":8175,"issa":8176,"flashback":8177,"Europe":8178,"dildo":8179,"Pan":8180,"latar":8181,"fodels":8182,"ssons":8183,"tab":8184,"dyre":8185,"SB":8186,"tradgard":8187,"flo":8188,"William":8189,"startar":8190,"politiet":8191,"play":8192,"kostnads":8193,"roller":8194,"jordbruks":8195,"Hansen":8196,"filer":8197,"karaktar":8198,"tø":8199,"unde":8200,"mulighet":8201,"ringde":8202,"1900":8203,"olje":8204,"direktør":8205,"vandr":8206,"musikk":8207,"Swed":8208,"valda":8209,"Pla":8210,"islam":8211,"utredning":8212,"from":8213,"anvant":8214,"utdanning":8215,"anvendelse":8216,"retter":8217,"Rys":8218,"siffror":8219,"ktivet":8220,"ellen":8221,"flertal":8222,"Robert":8223,"Peder":8224,"beskæ":8225,"Jaco":8226,"positiva":8227,"brut":8228,"Imorgon":8229,"protein":8230,"liggande":8231,"nyhets":8232,"ius":8233,"atmos":8234,"tilfø":8235,"anmark":8236,"hittills":8237,"legen":8238,"gien":8239,"varsta":8240,"ælland":8241,"eventuella":8242,"strang":8243,"stot":8244,"Helsingborg":8245,"Musik":8246,"arch":8247,"frig":8248,"konser":8249,"stalls":8250,"forstor":8251,"klassiska":8252,"tokoll":8253,"onod":8254,"rinn":8255,"mall":8256,"Kommunen":8257,"girl":8258,"skickar":8259,"gill":8260,"jning":8261,"cro":8262,"Proble":8263,"anmalan":8264,"ratter":8265,"kore":8266,"lingar":8267,"skulder":8268,"enormt":8269,"frasch":8270,"bevil":8271,"konstant":8272,"lei":8273,"fotograf":8274,"syfta":8275,"orier":8276,"Flere":8277,"nagonstans":8278,"ferens":8279,"now":8280,"løbende":8281,"mogen":8282,"minskar":8283,"økt":8284,"tilgang":8285,"Oden":8286,"Varm":8287,"halften":8288,"sekund":8289,"pes":8290,"Fore":8291,"armen":8292,"Len":8293,"Rapp":8294,"stens":8295,".....":8296,"Web":8297,"skinn":8298,"pic":8299,"fritids":8300,"bjod":8301,"baseret":8302,"leverans":8303,"GR":8304,"runda":8305,"core":8306,"børnene":8307,"faglige":8308,"tillvaxt":8309,"DK":8310,"Gri":8311,"Eva":8312,"serio":8313,"eldre":8314,"rora":8315,"kelse":8316,"billiga":8317,"kollektiv":8318,"efterfølgende":8319,"sentr":8320,"hanger":8321,"usjon":8322,"nationella":8323,"somn":8324,"baten":8325,"lasare":8326,"fiber":8327,"valkommen":8328,"laten":8329,"Jør":8330,"ugan":8331,"ego":8332,"Live":8333,"fabri":8334,"ummer":8335,"hanga":8336,"lamnas":8337,"Rik":8338,"certifi":8339,"stjarnor":8340,";-":8341,"inci":8342,"undersøgelse":8343,"standet":8344,"trods":8345,"erfaringer":8346,"tillam":8347,"skrav":8348,"forsikring":8349,"fasta":8350,"penger":8351,"Start":8352,"kompisar":8353,"langst":8354,"gæld":8355,"verksamheter":8356,"potatis":8357,"hvid":8358,"Berlin":8359,"nødvendigt":8360,"lax":8361,"fattig":8362,"peppar":8363,"gom":8364,"hyres":8365,"Ran":8366,"finan":8367,"trans":8368,"basert":8369,"strin":8370,"rena":8371,"Darefter":8372,"lese":8373,"andinavi":8374,"IR":8375,"oppe":8376,"lings":8377,"tænker":8378,"desværre":8379,"stolen":8380,"Bran":8381,"deri":8382,"genomfora":8383,"forskare":8384,"stren":8385,"handlade":8386,"list":8387,"ugh":8388,"unnit":8389,"Ryssland":8390,"more":8391,"handlingen":8392,"skickas":8393,"smiljø":8394,"snor":8395,"nojda":8396,"højde":8397,"skarm":8398,"tycka":8399,"entet":8400,"hushall":8401,"smy":8402,"iten":8403,"motion":8404,"stræk":8405,"snu":8406,"down":8407,"lokalt":8408,"Windows":8409,"sprojekt":8410,"sjukhus":8411,"78":8412,"tilskud":8413,"KL":8414,"spins":8415,"nyckel":8416,"Sadan":8417,"DF":8418,"rup":8419,"naturliga":8420,"98":8421,"sikrer":8422,"vejledning":8423,"presentation":8424,"stallt":8425,"mix":8426,"asjons":8427,"iness":8428,"begynte":8429,"holdsvis":8430,"framover":8431,"sendes":8432,"eftermiddag":8433,"Emma":8434,"simpelt":8435,"final":8436,"knappa":8437,"listen":8438,"kurat":8439,"ower":8440,"karriar":8441,"zi":8442,"konkurran":8443,"LED":8444,"kakor":8445,"cat":8446,"js":8447,"Arki":8448,"Pra":8449,"vente":8450,"plocka":8451,"fordelar":8452,"sprodukter":8453,"andam":8454,"bringe":8455,"uly":8456,"ckade":8457,"loppet":8458,"West":8459,"delstaten":8460,"original":8461,"prag":8462,"vete":8463,"https":8464,"Ron":8465,"sota":8466,"overallt":8467,"boliger":8468,"ose":8469,"selskab":8470,"Gir":8471,"handle":8472,"Hver":8473,"reise":8474,"stoff":8475,"Ung":8476,"vaxa":8477,"bore":8478,"hyra":8479,"tika":8480,"valu":8481,"hehe":8482,"!!!!":8483,"hænger":8484,"tea":8485,"Gavle":8486,"Mann":8487,"vanligtvis":8488,"bredvid":8489,"tive":8490,"sajter":8491,"EC":8492,"Rus":8493,"anslutning":8494,"fortælle":8495,"World":8496,"ciner":8497,"Bud":8498,"umiddel":8499,"karta":8500,"byder":8501,"paa":8502,"ktu":8503,"arlig":8504,"nytte":8505,"fortsat":8506,"gardar":8507,"TER":8508,"tillfallet":8509,"langivare":8510,"kontinuer":8511,"herre":8512,"Gustav":8513,"computer":8514,"behalla":8515,"digitala":8516,"rona":8517,"Saker":8518,"kob":8519,"Skriv":8520,"Mex":8521,"betrag":8522,"vagn":8523,"personalen":8524,"indsats":8525,"eksisterende":8526,"festivalen":8527,"sprid":8528,"perioder":8529,"praktik":8530,"61":8531,"søndag":8532,"klapp":8533,"UD":8534,"Ifølge":8535,"vac":8536,"sikten":8537,"kollega":8538,"vaxtart":8539,"Jensen":8540,"urval":8541,"eledes":8542,"mangl":8543,"vurdere":8544,"halsen":8545,"odi":8546,"spred":8547,"agna":8548,"idrett":8549,"kvi":8550,"lita":8551,"hinna":8552,"Victor":8553,"sove":8554,"befolkad":8555,"leverantorer":8556,"Ref":8557,"andring":8558,"restauranger":8559,"fjern":8560,"Cham":8561,"pus":8562,"likevel":8563,"love":8564,"frække":8565,"mio":8566,"driva":8567,"skydda":8568,"utomhus":8569,"aver":8570,"Inom":8571,"aktig":8572,"belysning":8573,"materialet":8574,"byggt":8575,"produktionen":8576,"demokraterna":8577,"Design":8578,"Sok":8579,"gjordes":8580,"tolv":8581,"Riks":8582,"ledam":8583,"alli":8584,"ærer":8585,"Ax":8586,"herr":8587,"Los":8588,"nare":8589,"foregaende":8590,"øvrigt":8591,"belon":8592,"ION":8593,"lip":8594,"tempo":8595,"inre":8596,"foreslar":8597,"duktig":8598,"Spar":8599,"flytande":8600,"huske":8601,"bitar":8602,"samle":8603,"afslut":8604,"forklara":8605,"Sv":8606,"direktor":8607,"Lever":8608,"henven":8609,"utenfor":8610,"grepp":8611,"gjøres":8612,"abne":8613,"rekry":8614,"Tron":8615,"sakr":8616,"sart":8617,"tavlingen":8618,"omfattar":8619,"handelser":8620,"frit":8621,"sele":8622,"Muse":8623,"biska":8624,"NT":8625,"badrum":8626,"foregar":8627,"undervisningen":8628,"heta":8629,"witter":8630,"nakna":8631,"kendelse":8632,"betalas":8633,"kontant":8634,"lørdag":8635,"undga":8636,"Dagen":8637,"øjer":8638,"funnet":8639,"skerne":8640,"spej":8641,"Dog":8642,"teori":8643,"utfora":8644,"kos":8645,"fornu":8646,"HL":8647,"stater":8648,"Blev":8649,"ktiva":8650,"denafil":8651,"uc":8652,"toal":8653,"happy":8654,"tret":8655,"Derudover":8656,"forelig":8657,"rørende":8658,"iens":8659,"bestammer":8660,"spenn":8661,"melding":8662,"kontrol":8663,"Antal":8664,"bestamma":8665,"uppna":8666,"Sammen":8667,"Team":8668,"juter":8669,"investering":8670,"erende":8671,"informer":8672,"foll":8673,"rump":8674,"narmaste":8675,"Precis":8676,"sites":8677,"Maste":8678,"borgere":8679,"falla":8680,"parten":8681,"framsta":8682,"gørende":8683,"Mol":8684,"konferen":8685,"Ir":8686,"front":8687,"Erotisk":8688,"benen":8689,"signal":8690,"ugen":8691,"tillbehor":8692,"coach":8693,"terede":8694,"vanza":8695,"nødt":8696,"Arti":8697,"bestaende":8698,"høyere":8699,"hente":8700,"hørt":8701,"Soker":8702,"Lor":8703,"Malet":8704,"sarskilda":8705,"….":8706,"slike":8707,"paverkan":8708,"forbrug":8709,"marknadsforing":8710,"block":8711,"sommeren":8712,"lavere":8713,"Ungdom":8714,"betes":8715,"kropps":8716,"fodbold":8717,"holdelse":8718,"løst":8719,"BB":8720,"balans":8721,"flest":8722,"lyse":8723,"oxa":8724,"spraket":8725,"høye":8726,"Samt":8727,"dalen":8728,"rida":8729,"lykke":8730,"nyde":8731,"alltfor":8732,"kers":8733,"habili":8734,"Kim":8735,"lia":8736,"allmant":8737,"beløb":8738,"tap":8739,"Lid":8740,"grej":8741,"minsta":8742,"utera":8743,"Vilka":8744,"samverkan":8745,"new":8746,"saa":8747,"byxor":8748,"nie":8749,"Rikt":8750,"gemensamt":8751,"fann":8752,"maler":8753,"spital":8754,"mart":8755,"Dra":8756,"prosjektet":8757,",,":8758,"vies":8759,"Ofta":8760,"aktor":8761,"Fro":8762,"træk":8763,"gransen":8764,"nævnte":8765,"behandlas":8766,"ryska":8767,"fira":8768,"pakke":8769,"?)":8770,"tvang":8771,"1997":8772,"Tube":8773,"onde":8774,"anord":8775,"primær":8776,"leverantor":8777,"__":8778,"sval":8779,"dram":8780,"fuck":8781,"kameran":8782,"Damer":8783,"dyb":8784,"arbeider":8785,"tomt":8786,"utbildningar":8787,"dygt":8788,"føde":8789,"Off":8790,"Apple":8791,"mental":8792,"hh":8793,"naring":8794,"angaende":8795,"kjærlighet":8796,"spolitik":8797,"cerat":8798,"Glo":8799,"skala":8800,"girls":8801,"iki":8802,"fjor":8803,"plet":8804,"national":8805,"72":8806,"allergi":8807,"omkost":8808,"papp":8809,"runde":8810,"syntes":8811,"fargen":8812,"nærings":8813,"plant":8814,"hverdag":8815,".-":8816,"givelser":8817,"intakter":8818,"youtube":8819,"hip":8820,"1960":8821,"parter":8822,"samla":8823,"upplever":8824,"voksen":8825,"Posted":8826,"beveg":8827,"imellem":8828,"forvaltningen":8829,"regnet":8830,"mobler":8831,"bespar":8832,"digare":8833,"visnings":8834,"jes":8835,"kapitel":8836,"gældende":8837,"chel":8838,"tve":8839,"forhoppningsvis":8840,"sikkerhet":8841,"anlaggning":8842,"københavn":8843,"TA":8844,"Publi":8845,"Sweden":8846,"ague":8847,"virksomheden":8848,"værker":8849,"IB":8850,"visu":8851,"pct":8852,"æv":8853,"psykisk":8854,"forklaring":8855,"Ret":8856,"fantastiske":8857,"Real":8858,"stallde":8859,"koster":8860,"imple":8861,"forret":8862,"pædagog":8863,"handels":8864,"hverandre":8865,"stationer":8866,"pasi":8867,"lur":8868,"servera":8869,"Resultatet":8870,"sche":8871,"forpack":8872,"ston":8873,"light":8874,"fale":8875,"transporter":8876,"ence":8877,"avgorande":8878,"lie":8879,"forvand":8880,"franska":8881,"forsor":8882,"feb":8883,"produksjon":8884,"moms":8885,"saknas":8886,"højre":8887,"utseende":8888,"livsstil":8889,"komsten":8890,"Kval":8891,"eftermiddagen":8892,"sloven":8893,"trygghet":8894,"kvinne":8895,"terings":8896,"skudd":8897,"Tillsammans":8898,"ansøg":8899,"milit":8900,"War":8901,"edi":8902,"Stre":8903,"stationen":8904,"funderar":8905,"forpligt":8906,"skolans":8907,"PL":8908,"forfatter":8909,"SC":8910,"verkligheten":8911,"Alltsa":8912,"aktorer":8913,"træn":8914,"opfyl":8915,"ags":8916,"Camp":8917,"maxi":8918,"mata":8919,"plar":8920,"turist":8921,"landsk":8922,"EA":8923,"forlag":8924,"entrepren":8925,"stemme":8926,"Oavsett":8927,"debatten":8928,"innenfor":8929,"kyck":8930,"erin":8931,"keligt":8932,"Cha":8933,"ole":8934,"smiljo":8935,"forsvinner":8936,"bjuda":8937,"byggnaden":8938,"flexi":8939,"foretagen":8940,"endte":8941,"njut":8942,"fodelsedag":8943,"gjorda":8944,"Djur":8945,"Skog":8946,"Aut":8947,"berom":8948,"foreningar":8949,"eriet":8950,"dras":8951,"oth":8952,"cas":8953,"hypotek":8954,"matemat":8955,"smut":8956,"Sov":8957,"vinster":8958,"Hit":8959,"stilles":8960,"ersatt":8961,"iPhone":8962,"saft":8963,"tilsvarende":8964,"Flera":8965,"kone":8966,"standig":8967,"hydr":8968,"automatiskt":8969,"katastro":8970,"uppfolj":8971,"lis":8972,"tilsyn":8973,"hjør":8974,"Nyheter":8975,"Spr":8976,"angar":8977,"gig":8978,"Spa":8979,"cering":8980,"fantasi":8981,"Ak":8982,"Mogna":8983,"kunnskap":8984,"skommun":8985,"cle":8986,"emang":8987,"beth":8988,"vidst":8989,"gelsen":8990,"abonne":8991,"udel":8992,"stider":8993,"bygd":8994,"fedt":8995,"tiltak":8996,"kru":8997,"ikker":8998,"sly":8999,"piskt":9000,"anna":9001,"Tycker":9002,"ytor":9003,"massasje":9004,"amat":9005,"antallet":9006,"miljarder":9007,"infra":9008,"delingen":9009,"Mika":9010,"favori":9011,"skiljer":9012,"produkten":9013,"lt":9014,"One":9015,"ansiktet":9016,"skriven":9017,"kæreste":9018,"Ratt":9019,"kung":9020,"flick":9021,"Lov":9022,"fotball":9023,"satsa":9024,"vinkel":9025,"oplever":9026,"atom":9027,"sjekter":9028,"oplevelser":9029,"traffat":9030,"Sjo":9031,"skvall":9032,"specifi":9033,"riska":9034,"uke":9035,"System":9036,"mysig":9037,"seng":9038,"byggnader":9039,"Konst":9040,"RK":9041,"Geor":9042,"levende":9043,"slatt":9044,"spre":9045,"Kata":9046,"wh":9047,"garan":9048,"langtar":9049,"Grøn":9050,",\"":9051,"serte":9052,"jade":9053,"vans":9054,"nast":9055,"ikkje":9056,"grens":9057,"smæssige":9058,"brann":9059,"lagar":9060,"teringen":9061,"sokande":9062,"spare":9063,"kompetanse":9064,"Thailand":9065,"arkitekt":9066,"beslutet":9067,"vde":9068,"spring":9069,"Søren":9070,"dommen":9071,"win":9072,"pask":9073,"pyn":9074,"doktor":9075,"forebygg":9076,"baserad":9077,"element":9078,"Lille":9079,"OV":9080,"offentliga":9081,"amnet":9082,"verkliga":9083,"vitamin":9084,"lagenheten":9085,"obefolkad":9086,"byggd":9087,"sydostra":9088,"bryt":9089,"vern":9090,"UM":9091,"hypotekslan":9092,"Rasmus":9093,"givningen":9094,"sexleksaker":9095,"nødvendige":9096,"deltar":9097,"institut":9098,"assist":9099,"utru":9100,"nærmest":9101,"historisk":9102,"Tal":9103,"noga":9104,"ringe":9105,"Jacob":9106,"diskussion":9107,"vardet":9108,"enlighet":9109,"Top":9110,"forlang":9111,"instrument":9112,"anslut":9113,"Motor":9114,"reserv":9115,"rien":9116,"gle":9117,"Trafik":9118,"Plus":9119,"vibr":9120,"vejr":9121,"gennemsnit":9122,"Skon":9123,"Mamma":9124,"formand":9125,"barnets":9126,"Goteborgs":9127,"bett":9128,"linjen":9129,"Iran":9130,"body":9131,"annons":9132,"analyse":9133,"levere":9134,"terapi":9135,"ader":9136,"pod":9137,"ssystemet":9138,"Bat":9139,"foræl":9140,"springer":9141,"ffet":9142,"hunde":9143,"kryss":9144,"tillamp":9145,"perman":9146,"arligt":9147,"bby":9148,"reager":9149,"bære":9150,"triv":9151,"kopings":9152,"index":9153,"kanaler":9154,"bens":9155,"Nilsson":9156,"læser":9157,"fyllt":9158,"kunstner":9159,"avlon":9160,"inkl":9161,"smyndig":9162,"sanger":9163,"evne":9164,"71":9165,"syssel":9166,"Kost":9167,"plom":9168,"vav":9169,"femte":9170,"dyrt":9171,"raka":9172,"adresse":9173,"forskel":9174,"lyft":9175,"netværk":9176,"forteller":9177,"snall":9178,"mende":9179,"blan":9180,"avser":9181,"Full":9182,"onerna":9183,"plud":9184,"specielt":9185,"faktur":9186,"tron":9187,"smyck":9188,"allting":9189,"dræ":9190,"medie":9191,"National":9192,"Ole":9193,"Famil":9194,"klasser":9195,"feber":9196,"namnda":9197,"stemmer":9198,"konver":9199,"ressour":9200,"filter":9201,"medarbejder":9202,"skivor":9203,"tisdag":9204,"aktive":9205,"noll":9206,"Tr":9207,"møter":9208,"diskutera":9209,"sproble":9210,"skogs":9211,"big":9212,"anbefaler":9213,"elserne":9214,"tranar":9215,"doms":9216,"funk":9217,"ældende":9218,"ophold":9219,"works":9220,"forts":9221,"cerede":9222,"Vastra":9223,"publiken":9224,"poeng":9225,"spot":9226,"fundera":9227,"vantat":9228,"tjock":9229,"1994":9230,"GB":9231,"krigen":9232,"Brand":9233,"1996":9234,"zy":9235,"Gamla":9236,"Beslut":9237,"Kul":9238,"kristna":9239,"spennende":9240,"morse":9241,"rende":9242,"onskemal":9243,"Rum":9244,"damm":9245,"79":9246,"ingo":9247,"funktionen":9248,"orsa":9249,"ligheder":9250,"insats":9251,"stykker":9252,"specifik":9253,"tjen":9254,"lagstift":9255,"Hed":9256,"halva":9257,"mv":9258,"cal":9259,"Jose":9260,"mork":9261,"Blog":9262,"kosten":9263,"festen":9264,"Bild":9265,"sve":9266,"religion":9267,"harda":9268,"Bjorn":9269,"apen":9270,"Maske":9271,"PP":9272,"eventuellt":9273,"framgar":9274,"sinne":9275,"dot":9276,"mader":9277,"Nielsen":9278,"Hennes":9279,"ifall":9280,"overvag":9281,"ødel":9282,"Odense":9283,"selskap":9284,"grønne":9285,"schef":9286,"Perfekt":9287,"lagenheter":9288,"hull":9289,"metoden":9290,"mulige":9291,"Stand":9292,"ighets":9293,"asikter":9294,"Sun":9295,"Strand":9296,"erotiska":9297,"psykolog":9298,"forsokt":9299,"trække":9300,"assi":9301,"poster":9302,"stærkt":9303,"ressen":9304,"museet":9305,"hul":9306,"traffas":9307,"bøl":9308,"skram":9309,"Øst":9310,"ansvarar":9311,"upptacka":9312,"kad":9313,"lægges":9314,"anbefale":9315,"debut":9316,"togs":9317,"institutioner":9318,"formag":9319,"tillagg":9320,"regnskab":9321,"tapp":9322,"rings":9323,"League":9324,"biljetter":9325,"udviklet":9326,"intill":9327,"opfatt":9328,"erhverv":9329,"fagel":9330,"kasse":9331,"faren":9332,"Ror":9333,"vask":9334,"Klas":9335,"opdater":9336,"sjukdomar":9337,"Xxx":9338,"overva":9339,"snakke":9340,"alderen":9341,"texter":9342,"Kontakta":9343,"Kjø":9344,"nyss":9345,"obje":9346,"Omgivningarna":9347,"Master":9348,"splanen":9349,"stene":9350,"kortare":9351,"totala":9352,"point":9353,"gymnasiet":9354,"narna":9355,"snur":9356,"svarare":9357,"blandning":9358,"Simon":9359,"bos":9360,"fremme":9361,"tillat":9362,"svenske":9363,"iør":9364,"ekstre":9365,"Ten":9366,"elden":9367,"pizza":9368,"steget":9369,"pengene":9370,"bygninger":9371,"løber":9372,"kannas":9373,"Sve":9374,"Mod":9375,"interessant":9376,"1995":9377,"beret":9378,"vigtigste":9379,"afton":9380,"Snart":9381,"trevliga":9382,"utslapp":9383,"skottet":9384,"foremal":9385,"sidorna":9386,"gangar":9387,"Extra":9388,"process":9389,"eier":9390,"Rosen":9391,"skona":9392,"BA":9393,"vivanza":9394,"oxid":9395,"forsakrings":9396,"tifik":9397,"lask":9398,"urin":9399,"Nett":9400,"harmon":9401,"Figur":9402,"vaggen":9403,"udi":9404,"skorter":9405,"sexy":9406,"liber":9407,"Veg":9408,"kontrollera":9409,"Exempel":9410,"visse":9411,"stadens":9412,"Australien":9413,"vanligaste":9414,"bollen":9415,"hyggelig":9416,"rejser":9417,"inslag":9418,"uppmarksamhet":9419,"mærker":9420,"eksempelvis":9421,"annelse":9422,"beton":9423,"almindelige":9424,"føle":9425,"aff":9426,"forvir":9427,"aktuelle":9428,"historiska":9429,"flyttet":9430,"stern":9431,"gardin":9432,"Karin":9433,"benhav":9434,"skiva":9435,"gifta":9436,"omedelbart":9437,"Fag":9438,"strukt":9439,"fare":9440,"fremgar":9441,"check":9442,"arbejdsplad":9443,"sannolikt":9444,"hd":9445,"finans":9446,"emo":9447,"bæk":9448,"utvikle":9449,"værks":9450,"Desuden":9451,"baserat":9452,"gelige":9453,"systemer":9454,"seret":9455,"landske":9456,"Liv":9457,"order":9458,"TT":9459,"flicka":9460,"blok":9461,"inredning":9462,"Huv":9463,"stalt":9464,"zen":9465,"utro":9466,"ligge":9467,"kapacitet":9468,"sjuka":9469,"visen":9470,"Dersom":9471,"journalist":9472,"forbedre":9473,"operation":9474,"Aalborg":9475,"revis":9476,"Out":9477,"inrikt":9478,"cht":9479,"relevante":9480,"700":9481,"købt":9482,"Kanns":9483,"Telefon":9484,"antar":9485,"Wall":9486,"senest":9487,"plugg":9488,"Petter":9489,"Arbej":9490,"Radio":9491,"hett":9492,"forholdet":9493,"bestallning":9494,"III":9495,"ledere":9496,"fatta":9497,"leka":9498,"isin":9499,"ingsdag":9500,"entu":9501,"minimum":9502,"parad":9503,"origin":9504,"Folke":9505,"forb":9506,"ited":9507,"oprinde":9508,"liker":9509,"krets":9510,"valkomna":9511,"rejalt":9512,"die":9513,"tele":9514,"TIL":9515,"utbred":9516,"%)":9517,"forsy":9518,"telefonnummer":9519,"klage":9520,"græ":9521,"skapat":9522,"Blom":9523,"Vasteras":9524,"datab":9525,"trakt":9526,"anvende":9527,"forsen":9528,"Try":9529,"berett":9530,"Mit":9531,"alafil":9532,"upplevelser":9533,"komfort":9534,"foljde":9535,"semi":9536,"ønskede":9537,"karn":9538,"vedrørende":9539,"kandidat":9540,"Først":9541,"tagna":9542,"Lige":9543,"sarskild":9544,"arhund":9545,"Hvorfor":9546,"baserade":9547,"omstand":9548,"Næ":9549,"kin":9550,"lækre":9551,"igheder":9552,"Brasili":9553,"omfattende":9554,"dyker":9555,"skjul":9556,"spartner":9557,"oken":9558,"Videos":9559,"Anton":9560,"Sky":9561,"beteende":9562,"forbe":9563,"bero":9564,"fullmaktige":9565,"serligen":9566,"bryta":9567,"flek":9568,"premiar":9569,"ward":9570,"trycket":9571,"vedlige":9572,"Johannes":9573,"cool":9574,"falder":9575,"ograf":9576,"kræft":9577,"stue":9578,"dame":9579,"89":9580,"Trond":9581,"Hard":9582,"leverer":9583,"trag":9584,"ekonomisk":9585,"erbjudande":9586,"feltet":9587,"latin":9588,"grov":9589,"lyssnar":9590,"itets":9591,"hab":9592,"Syn":9593,"Che":9594,"VI":9595,"will":9596,"faktura":9597,"uppstar":9598,";-)":9599,"NE":9600,"sallad":9601,"kirken":9602,"Jørgen":9603,"redovisning":9604,"dobbelt":9605,"akkurat":9606,"Ons":9607,"utomlands":9608,"Bjør":9609,"samhalls":9610,"Mode":9611,"engagemang":9612,"SVT":9613,"kanter":9614,"vardera":9615,"Harry":9616,"vade":9617,"skilde":9618,"agne":9619,"deltage":9620,"noveller":9621,"forskott":9622,"sættelse":9623,"Klimat":9624,"traningen":9625,"tantra":9626,"Husk":9627,"base":9628,"spelas":9629,"omojligt":9630,"loj":9631,"Antalet":9632,"avhengig":9633,"missionen":9634,"elly":9635,"gitar":9636,"elva":9637,"materialer":9638,"ensi":9639,"arbetade":9640,"NY":9641,"kemi":9642,"katalog":9643,"fjerne":9644,"sovrum":9645,"Has":9646,"plejer":9647,"soldater":9648,"ftar":9649,"eleven":9650,"visningar":9651,"planter":9652,"lenger":9653,"berget":9654,"Wa":9655,"ekonomiskt":9656,"utstra":9657,"varianter":9658,"DN":9659,"Frem":9660,"lv":9661,"Istallet":9662,"fremtiden":9663,"flyttar":9664,"hemale":9665,"ix":9666,"camping":9667,"fars":9668,"vards":9669,"Holm":9670,"boreala":9671,"jobber":9672,"sidde":9673,"dorr":9674,"Inget":9675,"storm":9676,"Fili":9677,"work":9678,"stensen":9679,"ete":9680,"lanser":9681,"Rock":9682,"klimatzonen":9683,"stemning":9684,"venlig":9685,"tillverkar":9686,"inser":9687,"ameter":9688,"fysiske":9689,"Fj":9690,"Olof":9691,"juri":9692,"Sus":9693,"fjarils":9694,"stugan":9695,"udvalget":9696,"SU":9697,"city":9698,"ferd":9699,"FR":9700,"exem":9701,"vinder":9702,"affarer":9703,"Green":9704,"knu":9705,"pigg":9706,"ingredienser":9707,"LA":9708,"sports":9709,"røde":9710,"solgt":9711,"budsj":9712,"Ce":9713,"hemsidan":9714,"Sl":9715,"utvecklings":9716,"trening":9717,"Privat":9718,"udviklingen":9719,"Saf":9720,"blin":9721,"savel":9722,"metode":9723,"cke":9724,"tydelig":9725,"udelu":9726,"borgar":9727,"tilstand":9728,"gifte":9729,"Osc":9730,"Sh":9731,"Redan":9732,"værelser":9733,"elef":9734,"bebygg":9735,"holmen":9736,"rorelsen":9737,"Afrika":9738,"konflikt":9739,"halvt":9740,"kot":9741,"biblioteket":9742,"presentera":9743,"dryck":9744,"arenden":9745,"gemensam":9746,"1500":9747,"advokat":9748,"chefen":9749,"dejligt":9750,"Vatten":9751,"floden":9752,"rich":9753,"stream":9754,"sjukvard":9755,"lere":9756,"munnen":9757,"Ap":9758,"Sha":9759,"Find":9760,"eksa":9761,"knings":9762,"diskri":9763,"gyl":9764,"blikket":9765,"ords":9766,"1992":9767,"tavla":9768,"Tit":9769,"rubri":9770,"tidige":9771,"afri":9772,"Vidare":9773,"utvalg":9774,"øjne":9775,"arg":9776,"processer":9777,"svard":9778,"Fon":9779,"Enda":9780,"weiz":9781,"hedder":9782,"staet":9783,"lof":9784,"allmanhet":9785,"Kyr":9786,"kens":9787,"porrfilmer":9788,"designer":9789,"faci":9790,"trar":9791,"Hjal":9792,"house":9793,"angest":9794,"koden":9795,"kilo":9796,"narmast":9797,"støtter":9798,"orget":9799,"Lac":9800,"3D":9801,"betalningar":9802,"utmaningar":9803,"informationen":9804,"Utover":9805,"doda":9806,"passager":9807,"skabt":9808,"velge":9809,"smartp":9810,"nabo":9811,"ally":9812,"Kalmar":9813,"Fanta":9814,"tydliga":9815,"raden":9816,"endda":9817,"presse":9818,"ghan":9819,"forbere":9820,"kjenner":9821,"tradi":9822,"ovanligt":9823,"ventet":9824,"ration":9825,"human":9826,"Let":9827,"sahar":9828,"indr":9829,"mstad":9830,"obligator":9831,"reflekter":9832,"rask":9833,"Byg":9834,"bøker":9835,"sind":9836,"1993":9837,"mangel":9838,"Eric":9839,"ile":9840,"agar":9841,"ida":9842,"avtalet":9843,"slap":9844,"aterigen":9845,"stracker":9846,"blogga":9847,"Nov":9848,"hite":9849,"meny":9850,"nogra":9851,"øget":9852,"fylld":9853,"pladsen":9854,"effekten":9855,"okning":9856,"lægning":9857,"faglig":9858,"stannar":9859,"inled":9860,"andamal":9861,"Kram":9862,"ison":9863,"planering":9864,"gjorts":9865,"fjarilsart":9866,"Chat":9867,"mastare":9868,"tycks":9869,"MEN":9870,"TS":9871,"Rog":9872,"utbildnings":9873,"intell":9874,"tir":9875,"troligen":9876,"oma":9877,"landerna":9878,"vinden":9879,"korn":9880,"strategier":9881,"kassa":9882,"ony":9883,"86":9884,"2020":9885,"tende":9886,"Hjem":9887,"virksomhet":9888,"OC":9889,"tvav":9890,"gummi":9891,"turer":9892,"berattelse":9893,"Lyck":9894,"ool":9895,"Fisk":9896,"Mats":9897,"kreter":9898,"massan":9899,"andringar":9900,"jamfora":9901,"yal":9902,"Lig":9903,"avar":9904,"uttar":9905,"forne":9906,"bestod":9907,"rep":9908,"klager":9909,"perfekte":9910,"kalender":9911,"oritet":9912,"pagældende":9913,"Webb":9914,"hær":9915,"delarna":9916,"Adam":9917,"segl":9918,"grans":9919,"Grand":9920,"konkrete":9921,"overtyg":9922,"Forsk":9923,"konsult":9924,"lone":9925,"74":9926,"swinger":9927,"isme":9928,"ægg":9929,"selskabet":9930,"Gjen":9931,"bekant":9932,"brugte":9933,"slas":9934,"oppdater":9935,"ikken":9936,"spelen":9937,"arkiv":9938,"anderledes":9939,"stycket":9940,"manskliga":9941,"vidste":9942,"mæss":9943,"tungt":9944,"skape":9945,"marks":9946,"Kas":9947,"revi":9948,"daglige":9949,"vark":9950,"76":9951,"Arhus":9952,"komponen":9953,"mie":9954,"sember":9955,"avloningsdag":9956,"stuga":9957,"besøk":9958,"fs":9959,"elementer":9960,"tten":9961,"alternativt":9962,"dørs":9963,"Gol":9964,"slosa":9965,"innehallet":9966,"FA":9967,"hvide":9968,"lid":9969,"teckning":9970,"Linkoping":9971,"begynner":9972,"ortering":9973,"ovningar":9974,"fattning":9975,"entlig":9976,"jordbruksmark":9977,"frist":9978,"fredags":9979,"gras":9980,"unikt":9981,"Instagram":9982,"utgifter":9983,"yoga":9984,"gymnasie":9985,"!\"":9986,"hamnade":9987,"seksuelle":9988,"enheten":9989,"vaska":9990,"skillnaden":9991,"kalas":9992,"stande":9993,"billigare":9994,"klokker":9995,"orth":9996,"Vand":9997,"svamp":9998,"lyfta":9999,"Vik":10000,"Klu":10001,"Lot":10002,"Gustaf":10003,"cake":10004,"iget":10005,"svenskar":10006,"intressen":10007,"resse":10008,"demonstr":10009,"well":10010,"destin":10011,"fjall":10012,"Rod":10013,"cra":10014,"jattebra":10015,"eventuelt":10016,"Otta":10017,"depres":10018,"udfordringer":10019,"Grun":10020,"Studen":10021,"erbjuds":10022,"splatser":10023,"lill":10024,"andelen":10025,"mkt":10026,"ng":10027,"fara":10028,"urgi":10029,"RF":10030,"nivan":10031,"Industri":10032,"æld":10033,"planerar":10034,"kvinnan":10035,"sakta":10036,"givaren":10037,"slad":10038,"OCH":10039,"tradgarden":10040,"1950":10041,"forskell":10042,"anpass":10043,"unty":10044,"artikeln":10045,"slok":10046,"knappast":10047,"Frank":10048,"parall":10049,"ado":10050,"tapet":10051,"setning":10052,"forsamlingen":10053,"prøvet":10054,"utmaning":10055,"Filmen":10056,"afsnit":10057,"fastigheter":10058,"benhavns":10059,"smuk":10060,"Norden":10061,"udsigt":10062,"gripande":10063,"anpas":10064,"hellre":10065,"ingerne":10066,"virket":10067,"losen":10068,"traden":10069,"Ric":10070,"beslutning":10071,"das":10072,"svarade":10073,"Linda":10074,"maden":10075,"fili":10076,"lycka":10077,"tidning":10078,"versity":10079,"hvornar":10080,"Mellan":10081,"Læ":10082,"avslapp":10083,"Even":10084,"anen":10085,"Spør":10086,"plassen":10087,"Vikt":10088,"kostnaden":10089,"klanning":10090,"Oper":10091,"faltet":10092,"tilgjengelig":10093,"Enkel":10094,"konstruktion":10095,"forretning":10096,"aktuell":10097,"Helsingfors":10098,"psykiat":10099,"?\"":10100,"SMS":10101,"Høj":10102,"trivs":10103,"fortalte":10104,"iler":10105,"sinstitut":10106,"Mik":10107,"Kall":10108,"startede":10109,"Spi":10110,"dokumentation":10111,"piller":10112,"rats":10113,"kommersi":10114,"spis":10115,"manniskan":10116,"traditionella":10117,"speciella":10118,"primært":10119,"gives":10120,"lada":10121,"vandt":10122,"VAR":10123,"vardagen":10124,"handelse":10125,"vejs":10126,"gritet":10127,"svenskt":10128,"tjana":10129,"pressen":10130,"artikler":10131,"maltid":10132,"sse":10133,"mage":10134,"Avs":10135,"umiddelbart":10136,"legat":10137,"ativitet":10138,"poker":10139,"talje":10140,"James":10141,"Emil":10142,"Boken":10143,"nick":10144,"Tekn":10145,"beskrivelse":10146,"CC":10147,"96":10148,"kterna":10149,"International":10150,"løbe":10151,"efterat":10152,"vendt":10153,"desember":10154,"styring":10155,"Lud":10156,"73":10157,"skurs":10158,"Mig":10159,"kollar":10160,"separat":10161,"gæster":10162,"vinde":10163,"slippa":10164,"kongen":10165,"planera":10166,"utstallning":10167,"manglende":10168,"DA":10169,"kit":10170,"platta":10171,"koncept":10172,"Mens":10173,"speciell":10174,"uru":10175,"gront":10176,"bestammelser":10177,"Mang":10178,"bestemte":10179,"fysiska":10180,"farlig":10181,"Syftet":10182,"sildenafil":10183,"minnen":10184,"mog":10185,"Forsvar":10186,"Lill":10187,"teoret":10188,"maskine":10189,"bakterier":10190,"enorm":10191,"ligeledes":10192,"utviklet":10193,"Alexander":10194,"hjemmet":10195,"uu":10196,"lopande":10197,"Ned":10198,"ledende":10199,"betaler":10200,"Eg":10201,"virus":10202,"Ford":10203,"rekommendera":10204,"kjære":10205,"medveten":10206,"farten":10207,"emellan":10208,"følelser":10209,"hamtade":10210,"blank":10211,"funksjon":10212,"sakring":10213,"fisse":10214,"come":10215,"bik":10216,"kanon":10217,"benyttes":10218,"kveld":10219,"Andersen":10220,"Føl":10221,"stoppa":10222,"øya":10223,"kalt":10224,"non":10225,"olin":10226,"bakat":10227,"naturlige":10228,"straks":10229,"cur":10230,"Jakob":10231,"myr":10232,"kede":10233,"maling":10234,"franske":10235,"komplett":10236,"publikum":10237,"byggda":10238,"very":10239,"korte":10240,"specifika":10241,"døren":10242,"Pop":10243,"deltager":10244,"Eng":10245,"Bas":10246,"jobbade":10247,"ase":10248,"krigs":10249,"asyl":10250,"berattelser":10251,"bh":10252,"Cu":10253,"stel":10254,"Sommer":10255,"Ell":10256,"Mis":10257,"suger":10258,"stack":10259,"grunder":10260,"lasning":10261,"afgørende":10262,"tekniske":10263,"slivet":10264,"tranare":10265,"etablering":10266,"nos":10267,"Fir":10268,"riske":10269,"Bos":10270,"raskt":10271,"Huvud":10272,"pladser":10273,"getøj":10274,"drott":10275,"applik":10276,"Transport":10277,"uppfattning":10278,"undet":10279,"spiser":10280,"profiler":10281,"Instit":10282,"anstallning":10283,"Back":10284,":(":10285,"glæder":10286,"Ottawa":10287,"Cup":10288,"tillag":10289,"plugga":10290,"ryt":10291,"billedet":10292,"Gron":10293,"fragas":10294,"lind":10295,"utgar":10296,"stilt":10297,"hverken":10298,"Bang":10299,"besikt":10300,"omo":10301,"Holl":10302,"andas":10303,"darifran":10304,"surf":10305,"styra":10306,"stannade":10307,"verklighet":10308,"pos":10309,"haver":10310,"maet":10311,"glomma":10312,"Dor":10313,"tam":10314,"ilde":10315,"jagt":10316,"rehabili":10317,"havs":10318,"tavlingar":10319,"nitt":10320,"selskapet":10321,"svær":10322,"weekend":10323,"skræ":10324,"himlen":10325,"paga":10326,"NU":10327,"janst":10328,"synner":10329,"Lø":10330,"medlemskap":10331,"stedt":10332,"minium":10333,"apr":10334,"ansok":10335,"ith":10336,"----":10337,"Samma":10338,"versionen":10339,"Tidigare":10340,"konsert":10341,"medi":10342,"Isa":10343,"fulgt":10344,"Asi":10345,"1991":10346,"Foreningen":10347,"grønt":10348,"viktigste":10349,"slyck":10350,"ordna":10351,"recensioner":10352,"søk":10353,"regne":10354,"eventuell":10355,"kritisk":10356,"laddning":10357,"Varl":10358,"kannande":10359,"Satt":10360,"low":10361,"fjord":10362,"prosjekter":10363,"omgivande":10364,"høyt":10365,"umgas":10366,"hustru":10367,"patienten":10368,"byens":10369,"negativt":10370,"Københavns":10371,"bilag":10372,"stallda":10373,"sørge":10374,"affars":10375,"alistisk":10376,"uel":10377,"cover":10378,"kreditkort":10379,"komster":10380,"tagning":10381,",”":10382,"udgør":10383,"tunnel":10384,"jons":10385,"Sodra":10386,"oten":10387,"Miljø":10388,"delade":10389,"igare":10390,"Jonkoping":10391,"skabel":10392,"smule":10393,"immun":10394,"Lik":10395,"syre":10396,"umu":10397,"sprut":10398,"lagde":10399,"koppla":10400,"zer":10401,"Ytter":10402,"galla":10403,"rektor":10404,"dic":10405,"muslim":10406,"Fem":10407,"videok":10408,"atti":10409,"load":10410,"mærket":10411,"Ky":10412,"graviditet":10413,"effektivitet":10414,"emær":10415,"Kirke":10416,"ryd":10417,"besoker":10418,"examen":10419,"gronsaker":10420,"koordin":10421,"tilhør":10422,"ymp":10423,"kriterier":10424,"Club":10425,"skatter":10426,"slinjer":10427,"overord":10428,"VA":10429,"auf":10430,"drommar":10431,"oberoende":10432,"ary":10433,"slit":10434,"''":10435,"argument":10436,"ath":10437,"albumet":10438,"midten":10439,"vanlige":10440,"110":10441,"stock":10442,"diskret":10443,"behør":10444,"ansk":10445,"Norra":10446,"fasciner":10447,"samfunn":10448,"ingeart":10449,"tvavingeart":10450,"rip":10451,"Køb":10452,"inspe":10453,"bryr":10454,"glomt":10455,"fyn":10456,"Jim":10457,"krafter":10458,"Forfatt":10459,"kland":10460,"Fler":10461,"92":10462,"Elin":10463,"formar":10464,"forstod":10465,"sprocessen":10466,"Dr":10467,"stilla":10468,"Wik":10469,"dækker":10470,"atgard":10471,"afdeling":10472,"klokke":10473,"kobl":10474,"julen":10475,"fonder":10476,"radgiver":10477,"datorer":10478,"lanken":10479,"foretags":10480,"Nils":10481,"aspek":10482,"moment":10483,"sie":10484,"avrinning":10485,"BL":10486,"Larsson":10487,"frustr":10488,"].":10489,"ændret":10490,"Ass":10491,"seres":10492,"egendom":10493,"August":10494,"fragorna":10495,"rulle":10496,"beskrevet":10497,"planerat":10498,"email":10499,"jamforelse":10500,"sonen":10501,"tegne":10502,"Trad":10503,"antagligen":10504,"pulver":10505,"starkare":10506,"færre":10507,"havare":10508,"tz":10509,"pludselig":10510,"varda":10511,"variant":10512,"basis":10513,"rakning":10514,"Arbets":10515,"paus":10516,"escorts":10517,"jef":10518,"cup":10519,"fonden":10520,"leng":10521,"neut":10522,"Polen":10523,"tadalafil":10524,"velat":10525,"bords":10526,"Mikael":10527,"Phi":10528,"observ":10529,"fyllda":10530,"registrera":10531,"\u0000\u0000\u0000\u0000":10532,"INTE":10533,"board":10534,"historiske":10535,"intern":10536,"uker":10537,"digitale":10538,"installation":10539,"tekt":10540,"ikon":10541,"Ze":10542,"andan":10543,"foton":10544,"duk":10545,"brom":10546,"læst":10547,"trist":10548,"bevidst":10549,"Lena":10550,"Elekt":10551,"boy":10552,"Akti":10553,"Indien":10554,"magt":10555,"Engel":10556,"senior":10557,"nyhet":10558,"aringar":10559,"kyckling":10560,"negativ":10561,"begransad":10562,"Ani":10563,"osi":10564,"etta":10565,"samlar":10566,"83":10567,"individ":10568,"Forra":10569,"fans":10570,"præcis":10571,"musli":10572,"irt":10573,"rop":10574,"genop":10575,"dagligen":10576,"infrastruktur":10577,"personale":10578,"dun":10579,"event":10580,"vedkommende":10581,"frugt":10582,"Oli":10583,"hantverk":10584,"hyl":10585,"eventuelle":10586,"inomhus":10587,"tenke":10588,"dynam":10589,"førelse":10590,"stands":10591,"sammenhæng":10592,"trader":10593,"begra":10594,"mn":10595,"flug":10596,"tunga":10597,"tillater":10598,"reglerna":10599,"kje":10600,"BE":10601,"motsvarar":10602,"Bengt":10603,"slutningen":10604,"Gunnar":10605,"Tem":10606,"pæiske":10607,"Mobil":10608,"Hag":10609,"Allman":10610,"Lisa":10611,"landskapet":10612,"flag":10613,"bygningen":10614,"vaske":10615,"utvecklar":10616,"istan":10617,"skoj":10618,"metal":10619,"vits":10620,"træder":10621,"Statens":10622,"dede":10623,"oftest":10624,"forlust":10625,"inflam":10626,"rets":10627,"landskap":10628,"butikken":10629,"Goran":10630,"blu":10631,"Disk":10632,"regelbundet":10633,"oppgaver":10634,"Press":10635,"stjerne":10636,"ovning":10637,"knullar":10638,"Love":10639,"kriget":10640,"nedenfor":10641,"Lau":10642,"drive":10643,"karriere":10644,"storp":10645,"Moder":10646,"tilpas":10647,"Skole":10648,"Proc":10649,"almindelig":10650,"uppgifterna":10651,"hage":10652,"riket":10653,"seffe":10654,"fleksi":10655,"nelse":10656,"amer":10657,"kniv":10658,"insag":10659,"Twitter":10660,"pann":10661,"efterhanden":10662,"riktlinjer":10663,"Kanner":10664,"samtale":10665,"Hanna":10666,"Vit":10667,"fruktansvar":10668,"Fan":10669,"ægt":10670,"bøn":10671,"ugnen":10672,"tang":10673,"deretter":10674,"%,":10675,"granser":10676,"mæl":10677,"utstrackning":10678,"University":10679,"kvart":10680,"bildet":10681,"domstolen":10682,"82":10683,"navig":10684,"postadress":10685,"900":10686,"fenomen":10687,"Typ":10688,"effektiva":10689,"hasten":10690,"tradisjon":10691,"behandlar":10692,"respek":10693,"nys":10694,"sløs":10695,"kontrollen":10696,"gengæld":10697,"nævnt":10698,"ktiviteter":10699,"mangden":10700,"ariga":10701,"broder":10702,"misslyck":10703,"eien":10704,"trafiken":10705,"mentera":10706,"97":10707,"varierar":10708,"tillfor":10709,"brevet":10710,"Offi":10711,"bilda":10712,"eland":10713,"Coll":10714,"Sjalvklart":10715,"brugere":10716,"sølv":10717,"BM":10718,"bian":10719,"Ost":10720,"spelaren":10721,"Naken":10722,"undersoka":10723,"dygnet":10724,"installning":10725,"behandlet":10726,"avses":10727,"stærke":10728,"Lans":10729,"krediter":10730,"Selvom":10731,"wo":10732,"heldigvis":10733,"erades":10734,"days":10735,"restaurant":10736,"doft":10737,"bryter":10738,"raknar":10739,"tekniker":10740,".:":10741,"træner":10742,"foddes":10743,"kopi":10744,"misk":10745,"End":10746,"Neder":10747,"familier":10748,"OBS":10749,"vett":10750,"ATT":10751,"anvandar":10752,"Kons":10753,"exister":10754,"praktiskt":10755,"Registr":10756,"bely":10757,"meng":10758,"forordning":10759,"vogn":10760,"tusentals":10761,"lycklig":10762,"centralt":10763,"fornøy":10764,"villig":10765,"aktioner":10766,"fonstret":10767,"borator":10768,"ordinarie":10769,"fold":10770,"m2":10771,"Stav":10772,"slapper":10773,"Bef":10774,"delningen":10775,"kollegor":10776,"dof":10777,"sambo":10778,"hallas":10779,"stiskt":10780,"Leg":10781,"dods":10782,"��":10783,"viten":10784,"spelarna":10785,"legges":10786,"storlekar":10787,"frokost":10788,"værktøj":10789,"befintliga":10790,"opprinn":10791,"hack":10792,"Cle":10793,"stada":10794,"dejlige":10795,"Titta":10796,"designet":10797,"hospital":10798,"oler":10799,"simpelthen":10800,"styrker":10801,"sajten":10802,"musiken":10803,"orts":10804,"tent":10805,"grafik":10806,"kvarter":10807,"ingom":10808,"meningen":10809,"lf":10810,"sons":10811,"rap":10812,"forenings":10813,"beskriva":10814,"Ovriga":10815,"Hou":10816,"abo":10817,"pry":10818,"kampa":10819,"Bog":10820,"Ker":10821,"vardenafil":10822,"oppnade":10823,"positive":10824,"smaterial":10825,"iss":10826,"opplysninger":10827,"ocken":10828,"lakt":10829,"syftar":10830,"magasin":10831,"?”":10832,"Batt":10833,"tæg":10834,"rækker":10835,"Restaur":10836,"brænd":10837,"utlaning":10838,"enkle":10839,"modtaget":10840,"coll":10841,"nettsteder":10842,"HT":10843,"84":10844,"stallande":10845,"Jord":10846,"ellertid":10847,"ordentlig":10848,"makten":10849,"laggs":10850,"holms":10851,"Sitter":10852,"ansæ":10853,"betydelig":10854,"Nic":10855,"arten":10856,"Kopa":10857,"snack":10858,"kiet":10859,"proff":10860,"nogens":10861,"sys":10862,"Gym":10863,"valuta":10864,"91":10865,"Ikvall":10866,"foljt":10867,"champ":10868,"menten":10869,"eksempler":10870,"skval":10871,"distan":10872,"180":10873,"tilrett":10874,"øge":10875,"forskjell":10876,"kjøre":10877,"Oscar":10878,"anledningen":10879,"bege":10880,"vile":10881,"baren":10882,"generation":10883,"provning":10884,"aringen":10885,"unden":10886,"larande":10887,"uppat":10888,"landsting":10889,"Kvinna":10890,"skarp":10891,"malm":10892,"revisor":10893,"djupt":10894,"begrepp":10895,"volym":10896,"klassiker":10897,"sakerstalla":10898,"fokusera":10899,"syv":10900,"ledsen":10901,"Tog":10902,"rengor":10903,"dl":10904,"morka":10905,"influ":10906,"beva":10907,"uppenbar":10908,"verkets":10909,"citron":10910,"udbud":10911,"raff":10912,"utnyttja":10913,"øke":10914,"elektronisk":10915,"filen":10916,"fæl":10917,"foreligger":10918,"byggere":10919,"roligare":10920,"sjukskoter":10921,"mmes":10922,"Sommar":10923,"borgare":10924,"Kl":10925,"tagits":10926,"Mest":10927,"itu":10928,"workshop":10929,"Power":10930,"osaker":10931,"klarer":10932,"motte":10933,"annonsen":10934,"tendens":10935,"mørke":10936,"rand":10937,"larm":10938,"Tav":10939,"utgang":10940,"MP":10941,"emidler":10942,"innebara":10943,"hette":10944,"specialiser":10945,"virkninger":10946,"blon":10947,"handeln":10948,"fotografi":10949,"diabetes":10950,"tai":10951,"sugning":10952,"Karlsson":10953,"miljøet":10954,"søde":10955,"dos":10956,"vags":10957,"Will":10958,"Tjan":10959,"adskill":10960,"KE":10961,"skett":10962,"vikten":10963,"sexuell":10964,"Swedish":10965,"kud":10966,"mennesk":10967,"talade":10968,"gulv":10969,"merket":10970,"sessen":10971,"prostit":10972,"dokumentar":10973,"Dermed":10974,"grymt":10975,"spark":10976,"skriget":10977,"Lilla":10978,"spender":10979,"dad":10980,"stere":10981,"flod":10982,"omgivelser":10983,"cirkul":10984,"inspel":10985,"MC":10986,"støv":10987,"internationale":10988,"Cir":10989,"minus":10990,"yog":10991,"sjovt":10992,"bebis":10993,"inriktning":10994,"Stati":10995,"string":10996,"NO":10997,"ous":10998,"inna":10999,"Not":11000,"87":11001,"klubbens":11002,"stander":11003,"kæl":11004,"gjenopprett":11005,"erstat":11006,"sakt":11007,"sælger":11008,"Rel":11009,"aly":11010,"europeiska":11011,"definition":11012,"Galler":11013,"spænd":11014,"forstatt":11015,"Trom":11016,"olade":11017,"pornogra":11018,"otal":11019,"see":11020,"univer":11021,"fræk":11022,"skarmen":11023,"tilbyr":11024,"ors":11025,"flott":11026,"kode":11027,"istisk":11028,"næv":11029,"Cro":11030,"mers":11031,"konferens":11032,"lakar":11033,"Microsoft":11034,"lagte":11035,"skik":11036,"strum":11037,"merksom":11038,"bryll":11039,"93":11040,"kryp":11041,"spunkter":11042,"\"-":11043,"sød":11044,"94":11045,"genast":11046,"forkyl":11047,"ansikte":11048,"kontakten":11049,"kolon":11050,"King":11051,"suttit":11052,"sensor":11053,"dringen":11054,"hverdagen":11055,"Livet":11056,"lediga":11057,"trent":11058,"Forslag":11059,"benytter":11060,"foreldre":11061,"Creek":11062,"somnade":11063,"opdag":11064,"ORT":11065,"fotbolls":11066,"permanent":11067,"ingenjor":11068,"romer":11069,"farmor":11070,"Carol":11071,"sendte":11072,"betingelser":11073,"belø":11074,"Altern":11075,"forresten":11076,"dygn":11077,"Kunst":11078,"Morten":11079,"hap":11080,"batterier":11081,"begiven":11082,"sklas":11083,"beskæftig":11084,"ington":11085,"miljoer":11086,"forklarar":11087,"somna":11088,"nogensinde":11089,"integritet":11090,"spørge":11091,"likad":11092,"bir":11093,"indgar":11094,"værdier":11095,"personlighet":11096,"Effe":11097,"Brug":11098,"ics":11099,"Bare":11100,"udvi":11101,"drøm":11102,"sjef":11103,"medfor":11104,"diskrimin":11105,"rikes":11106,"begav":11107,"leverera":11108,"plade":11109,"arkitektur":11110,"arium":11111,"musiker":11112,"diskussioner":11113,"livets":11114,"varsel":11115,"inneholder":11116,"vartom":11117,"stanga":11118,"forker":11119,"uppman":11120,"Deras":11121,"Problemet":11122,"renovering":11123,"kys":11124,"Bada":11125,"Nas":11126,"smaningom":11127,"gørelsen":11128,"forni":11129,"kkelig":11130,"Run":11131,"bockerna":11132,"utbredning":11133,"frie":11134,"kamer":11135,"forare":11136,");":11137,"byggdes":11138,"praktiken":11139,"antik":11140,"inkluderar":11141,"ministeriet":11142,"evalu":11143,"bergen":11144,"ifik":11145,"Jor":11146,"party":11147,"serad":11148,"1989":11149,"apne":11150,"SR":11151,"merke":11152,"ey":11153,"Ara":11154,"Cas":11155,"ogn":11156,"affaren":11157,"næst":11158,"hid":11159,"organisasjon":11160,"vana":11161,"ungar":11162,"Grat":11163,"foral":11164,"Tips":11165,"sorts":11166,"modtage":11167,"distribu":11168,"fremover":11169,"pæn":11170,"terrangen":11171,"United":11172,"sagare":11173,"ambas":11174,"grænse":11175,"Milf":11176,"dannet":11177,"sul":11178,"skep":11179,"uttag":11180,"lovar":11181,"stærk":11182,"arbeide":11183,"oppmerksom":11184,"skilst":11185,"natter":11186,"Material":11187,"logga":11188,"leveres":11189,"omstandigheter":11190,"trend":11191,"radik":11192,"overensste":11193,"blød":11194,"konsumenter":11195,"cyklar":11196,"Boras":11197,"negativa":11198,"ledd":11199,"Sak":11200,"aspekter":11201,"ttere":11202,"regioner":11203,"hundrat":11204,"frivillige":11205,"tilstræk":11206,"Lulea":11207,"uddannelsen":11208,"omfattet":11209,"ular":11210,"inbjud":11211,"fodda":11212,"Plat":11213,"anbefales":11214,"universitetet":11215,"standiga":11216,"ombord":11217,"hyre":11218,"sosiale":11219,"svett":11220,"favoriter":11221,"Første":11222,"gator":11223,"kørsel":11224,"anpassa":11225,"deklar":11226,"slutten":11227,"oppdrag":11228,"sparti":11229,"Johanna":11230,"hænge":11231,"brø":11232,"xt":11233,"sekreter":11234,"farre":11235,"vunnit":11236,"framme":11237,"ragende":11238,"fylke":11239,"forventes":11240,"darna":11241,"ckta":11242,"rei":11243,"smidigt":11244,"mys":11245,"Mr":11246,"praktiska":11247,"førsel":11248,"præci":11249,"inat":11250,"rorelser":11251,"Væl":11252,"lene":11253,"konserv":11254,"viktige":11255,"borgs":11256,"teknolog":11257,"vekst":11258,"enige":11259,"redig":11260,"skriftlig":11261,"naren":11262,"behandler":11263,"varig":11264,"ongen":11265,"skapade":11266,"foretagare":11267,"abri":11268,"cing":11269,"terras":11270,"stamma":11271,"bbel":11272,"power":11273,"Bay":11274,"pape":11275,"Fyn":11276,"ktet":11277,"duktiga":11278,"foreskrifter":11279,"adelse":11280,"Sønder":11281,"spanning":11282,"lovet":11283,"vantade":11284,"forandras":11285,"Sum":11286,"vistelse":11287,"indfly":11288,"baks":11289,"ingarna":11290,"beloppet":11291,"Alskar":11292,"nærmeste":11293,"verre":11294,"Juni":11295,"ruppen":11296,"byggnads":11297,"forsaljare":11298,"Chri":11299,"fester":11300,"syra":11301,"arbetslos":11302,"reserver":11303,"import":11304,"emner":11305,"fugl":11306,"omas":11307,"velse":11308,"hallare":11309,"IA":11310,"Home":11311,"muligheter":11312,"Lek":11313,"støj":11314,"Fle":11315,"trycka":11316,"fotter":11317,"udenfor":11318,"rutin":11319,"Nær":11320,"Frederiks":11321,"tett":11322,"edygt":11323,"verktøy":11324,"bestemmelser":11325,"eleverne":11326,"damp":11327,"husen":11328,"Trondheim":11329,"It":11330,"Arne":11331,"Sny":11332,"sperioden":11333,"Andro":11334,"jeans":11335,"skorte":11336,"skridt":11337,"had":11338,"blandade":11339,"behandla":11340,"belastning":11341,"istik":11342,"studio":11343,"ljuset":11344,"unds":11345,"fardiga":11346,"amerikan":11347,"praktiske":11348,"Jesper":11349,"reaktion":11350,"uppmun":11351,"anmala":11352,"bevæg":11353,"bryst":11354,"funda":11355,"liteter":11356,"opplæring":11357,"fortæll":11358,"vna":11359,"nominer":11360,"klo":11361,"hentet":11362,"angs":11363,"rekommend":11364,"næring":11365,"head":11366,"sprogrammet":11367,"trykke":11368,"informations":11369,"HR":11370,"Lands":11371,"Norrkoping":11372,"produktions":11373,"foretagets":11374,"usa":11375,"tryg":11376,"hjalpte":11377,"Tryck":11378,"tingene":11379,"sidig":11380,"fortsætter":11381,"trin":11382,"anonym":11383,"smæssigt":11384,"fartyg":11385,"fornuft":11386,"Ida":11387,"eme":11388,"moss":11389,"vagnen":11390,"pump":11391,"promena":11392,"........":11393,"respon":11394,"mmelig":11395,"overvej":11396,"hjemmesiden":11397,"arbetsgivare":11398,"verne":11399,"grunde":11400,"enhed":11401,"kommand":11402,"Ditt":11403,"tross":11404,"stoppe":11405,"skilstuna":11406,"smitt":11407,"aluminium":11408,"internasjonale":11409,"Tall":11410,"kravet":11411,"Bolig":11412,"balanser":11413,"samfunnet":11414,"some":11415,"innovation":11416,"1700":11417,"samlade":11418,"protokoll":11419,"tykke":11420,"terte":11421,"skrivna":11422,"Akade":11423,"minuters":11424,"narko":11425,"dagis":11426,"drabbas":11427,"ceae":11428,"sundheds":11429,"innhold":11430,"gjennomført":11431,"Norske":11432,"lært":11433,"lukket":11434,"Glom":11435,"jazz":11436,"Foretag":11437,"kategorin":11438,"bomull":11439,"lyn":11440,"Lagen":11441,"penning":11442,"forsøger":11443,"matematik":11444,"tonaring":11445,"tvung":11446,"brow":11447,"elegant":11448,"riskerar":11449,"troja":11450,"domar":11451,"apote":11452,"sesongen":11453,"konflikter":11454,"høyre":11455,"sakerna":11456,"gry":11457,"slots":11458,"DER":11459,"samfundet":11460,"jacka":11461,"stamning":11462,"aktør":11463,"1920":11464,"vetenskapliga":11465,"brotts":11466,"melige":11467,"slett":11468,"avkast":11469,"spekul":11470,"bede":11471,"HAR":11472,"Smart":11473,"insekt":11474,"outfit":11475,"Nedan":11476,"sætninger":11477,"idi":11478,"overbe":11479,"Klik":11480,"signaler":11481,"kød":11482,"Elisa":11483,"fiska":11484,"vaggar":11485,"Nør":11486,"kaldt":11487,"skelige":11488,"edia":11489,"drivs":11490,"lesbisk":11491,"tikkel":11492,"Lof":11493,"Luft":11494,"udgave":11495,"ierna":11496,"Pun":11497,"eksper":11498,"tester":11499,"komponenter":11500,"helsing":11501,"sorte":11502,"trækker":11503,"Trump":11504,"tilbyde":11505,"utmar":11506,"vardighet":11507,"flugor":11508,"æd":11509,"fota":11510,"badet":11511,"ican":11512,"leker":11513,"aaaa":11514,"gava":11515,"galt":11516,"enhamn":11517,"butikk":11518,"-/":11519,"snittet":11520,"karleken":11521,"kampe":11522,"intryck":11523,"internationell":11524,"ningens":11525,"Egent":11526,"leveret":11527,"transa":11528,"komple":11529,"positioner":11530,"svare":11531,"asje":11532,"130":11533,"cs":11534,"blatt":11535,"Sofia":11536,"utsatta":11537,"bjorn":11538,"skaffe":11539,"And":11540,"svarigheter":11541,"stjarn":11542,"arena":11543,"webben":11544,"melde":11545,"unionen":11546,"Hill":11547,"menyn":11548,"levererar":11549,"mjuka":11550,"Drag":11551,"Sur":11552,"diff":11553,"værdig":11554,"trum":11555,"reson":11556,"formation":11557,"tvingas":11558,"paverkas":11559,"pensions":11560,"kigge":11561,"George":11562,"konsument":11563,"mul":11564,"hoppade":11565,"Filmer":11566,"hockey":11567,"Porrfilm":11568,"fur":11569,"ningerne":11570,"cho":11571,"emellertid":11572,"lordagen":11573,"vaxande":11574,"Høy":11575,"hoja":11576,"kilde":11577,"medborgare":11578,"ordre":11579,"samlat":11580,"plagg":11581,"arden":11582,"jamn":11583,"drev":11584,"zu":11585,"danne":11586,"amet":11587,"budskap":11588,"Pay":11589,"læggende":11590,"djupa":11591,"annoncer":11592,"legetøj":11593,"kaldes":11594,"vildt":11595,"Gul":11596,"brukere":11597,"rotter":11598,"sjen":11599,"HF":11600,"kommunale":11601,"lordags":11602,"Swinger":11603,"hoteller":11604,"uppsala":11605,"gne":11606,"Kontroll":11607,"high":11608,"adels":11609,"grunnlag":11610,"tander":11611,"gubbar":11612,"innlegget":11613,"forskolan":11614,"haper":11615,"trosor":11616,"ledningar":11617,"vaningen":11618,"artister":11619,"kontaktannonser":11620,"vera":11621,"expan":11622,"saks":11623,"Mannisk":11624,"klokken":11625,"institution":11626,"Malin":11627,"servering":11628,"Billig":11629,"skara":11630,"forsvann":11631,"Hotellet":11632,"betong":11633,"komfor":11634,"Brost":11635,"Tankte":11636,"prenor":11637,"værelset":11638,"Europas":11639,"vigtige":11640,"tænkt":11641,"Eriksson":11642,"1930":11643,"Øster":11644,"loser":11645,"cet":11646,"klassiske":11647,"smerte":11648,"Stall":11649,"malen":11650,"lakaren":11651,"redit":11652,"stige":11653,"avdelning":11654,"!.":11655,"small":11656,"barhet":11657,"hormon":11658,"temot":11659,"betjen":11660,"roster":11661,"stok":11662,"forrige":11663,"lamplig":11664,"onger":11665,"adressen":11666,"Media":11667,"fjerde":11668,".»":11669,"fangelse":11670,"ami":11671,"Analy":11672,"klubber":11673,"svi":11674,"SN":11675,"slott":11676,"robot":11677,"gillade":11678,"godkendt":11679,"movies":11680,"stera":11681,"ping":11682,"grus":11683,"beskytte":11684,"toner":11685,"industrin":11686,"Persson":11687,"betydande":11688,"konsum":11689,"1988":11690,"Mogen":11691,"vanligen":11692,"Vaxjo":11693,"distriktet":11694,"optimer":11695,"Bio":11696,"evenemang":11697,"brister":11698,"Jobb":11699,"forstyr":11700,"fallen":11701,"packa":11702,"direktiv":11703,"pendi":11704,"fynd":11705,"skrona":11706,"Linne":11707,"endringer":11708,"regeringens":11709,"faldet":11710,"øen":11711,"omet":11712,"undersøgelser":11713,"jde":11714,"kristne":11715,"nadde":11716,"wal":11717,"overensstemmelse":11718,"foten":11719,"area":11720,"Hund":11721,"salen":11722,"enkl":11723,"vilje":11724,"kastet":11725,"Group":11726,"HP":11727,"foredrar":11728,"Jean":11729,"dagliga":11730,"pase":11731,"holdene":11732,"anhor":11733,"plag":11734,"DC":11735,"byran":11736,"studi":11737,"saret":11738,"Skatte":11739,"fasen":11740,"Volvo":11741,"MED":11742,"hult":11743,"Ide":11744,"81":11745,"brygg":11746,"kvinnliga":11747,"handerna":11748,"manniskors":11749,"Gjennom":11750,"kursus":11751,"stabilitet":11752,"anlaggningar":11753,"hallning":11754,"Word":11755,"Huset":11756,"fader":11757,"find":11758,"kræfter":11759,"slav":11760,"hallit":11761,"kulturen":11762,"ologiskt":11763,"Test":11764,"mød":11765,"webblas":11766,"klock":11767,"scener":11768,"sack":11769,"ifragas":11770,"raf":11771,"Kristi":11772,"Box":11773,"astad":11774,"uch":11775,"GE":11776,"presenteras":11777,"formagan":11778,"rok":11779,"priserna":11780,"pere":11781,"Afghan":11782,"Lokal":11783,"tninger":11784,"ply":11785,"sande":11786,"hogskolan":11787,"eksklu":11788,"forfattaren":11789,"xy":11790,"uppfyller":11791,"Maj":11792,"Mes":11793,"hemi":11794,"cial":11795,"Barcel":11796,"henholdsvis":11797,"bang":11798,"halt":11799,"tans":11800,"tydeligt":11801,"savgift":11802,"sedd":11803,"Android":11804,"sprida":11805,"lampor":11806,"less":11807,"bakgrunn":11808,"hungr":11809,"uafhæng":11810,"matta":11811,"trom":11812,"BN":11813,"DS":11814,"beraknas":11815,"vanil":11816,"Cal":11817,"ged":11818,"ftes":11819,"kreativitet":11820,"ffen":11821,"kraven":11822,"arrangementer":11823,"placeret":11824,"veterin":11825,"bekvamt":11826,"begrænset":11827,"...]":11828,"High":11829,"Ulf":11830,"representanter":11831,"KS":11832,"larar":11833,"Rio":11834,"fordelt":11835,"Nytt":11836,"psyko":11837,"likhet":11838,"poly":11839,"magnet":11840,"sistens":11841,"Ci":11842,"jobbe":11843,"Regeringen":11844,"sørger":11845,"Fr":11846,"Robin":11847,"kammer":11848,"bekan":11849,"forklarer":11850,"stek":11851,"farliga":11852,"arliga":11853,"isering":11854,"forskningen":11855,"mation":11856,"USB":11857,"snon":11858,"lednings":11859,"aldsta":11860,"Tanken":11861,"Dahl":11862,"tillsyn":11863,"KR":11864,"Medic":11865,"fortjan":11866,"cipl":11867,"kladd":11868,"gods":11869,"njuter":11870,"Nation":11871,"uppdraget":11872,"umea":11873,"manget":11874,"varenda":11875,"jut":11876,"Doku":11877,"tværs":11878,"eriod":11879,"kommunala":11880,"Litt":11881,"administration":11882,"betales":11883,"vilt":11884,"revet":11885,"nyttig":11886,"cast":11887,"forsvaret":11888,"Mini":11889,"CE":11890,"cirkel":11891,"Erhver":11892,"Def":11893,"fjorden":11894,"Fredag":11895,"bour":11896,"intim":11897,"søvn":11898,"blind":11899,"Bibel":11900,"optimal":11901,"ramen":11902,"alier":11903,"indga":11904,"biljett":11905,"erotiske":11906,"beskrivs":11907,"vedr":11908,"tillfreds":11909,"lette":11910,"Villa":11911,"Anmal":11912,"maksi":11913,"kraften":11914,"frivillig":11915,"veder":11916,"tyng":11917,"resen":11918,"ledet":11919,"katter":11920,"manus":11921,"forber":11922,"studera":11923,"report":11924,"omvand":11925,"forlorade":11926,"Tour":11927,"bakken":11928,"testet":11929,"Down":11930,"Vard":11931,"experi":11932,"ræn":11933,"signer":11934,"tabletter":11935,"bolagets":11936,"kompetencer":11937,"politiskt":11938,"splaner":11939,"1940":11940,"Book":11941,"uppfor":11942,"oron":11943,"Ing":11944,"plattform":11945,"spendera":11946,"Bredden":11947,"Sundsvall":11948,"temper":11949,"plante":11950,"ministeren":11951,"Inde":11952,"ceptet":11953,"matik":11954,"Kok":11955,"varderingar":11956,"stallas":11957,"oty":11958,"140":11959,"rater":11960,"følte":11961,"eventyr":11962,"DM":11963,"testat":11964,"entrum":11965,"fællesskab":11966,"vilde":11967,"kampanj":11968,"flode":11969,"DET":11970,",.":11971,"drømme":11972,"regnes":11973,"betalningsanmark":11974,"pagaende":11975,"jt":11976,"nevnt":11977,"uli":11978,"smaker":11979,"logg":11980,"kondom":11981,"ernes":11982,"ikapp":11983,"højeste":11984,"slaet":11985,"ups":11986,"foreninger":11987,"رررر":11988,"skønne":11989,"stodja":11990,"offentligt":11991,"innehalla":11992,"undersokningar":11993,"trykket":11994,"menings":11995,"domin":11996,"tekster":11997,"skontor":11998,"ike":11999,"settes":12000,"pause":12001,"misstag":12002,"medisin":12003,"rengør":12004,"uppre":12005,"selskaber":12006,"koder":12007,"enig":12008,"befri":12009,"rekommenderas":12010,"Cop":12011,"journali":12012,"bokning":12013,"stram":12014,"Mars":12015,"Inden":12016,"besøge":12017,"kasta":12018,"herefter":12019,"smes":12020,"spray":12021,"Guld":12022,"egner":12023,"Projektet":12024,"Vux":12025,"creme":12026,"opret":12027,"internationellt":12028,"muligheden":12029,"handlinger":12030,"Sovjet":12031,"Cra":12032,"tekniken":12033,"sung":12034,"paret":12035,"Egy":12036,"Hele":12037,"Knut":12038,"aliforni":12039,"ændring":12040,"Besok":12041,"væsentlig":12042,"Schweiz":12043,"russiske":12044,"sif":12045,"ards":12046,"sparet":12047,"Namn":12048,"riksdagen":12049,"nøgen":12050,"Rid":12051,"hjarnan":12052,"tirsdag":12053,"erklær":12054,"visserligen":12055,"stolar":12056,"stigende":12057,"Best":12058,"avse":12059,"seren":12060,"deltagarna":12061,"GA":12062,"vaxtlighet":12063,"ktig":12064,"sparar":12065,"ambul":12066,"Kvinder":12067,"samhallen":12068,"væsen":12069,"erats":12070,"bytt":12071,"diplom":12072,"ateri":12073,"snakker":12074,"pojkar":12075,"mut":12076,"skilda":12077,"Hakan":12078,"myndigheten":12079,"ansat":12080,"Omradet":12081,"Jenny":12082,"stiske":12083,"tuff":12084,"brid":12085,"indflydelse":12086,"House":12087,"forvag":12088,"øjeblik":12089,"orolig":12090,"ogonblick":12091,"invig":12092,"samlas":12093,"investeringar":12094,"skorna":12095,"danska":12096,"mobiltelefon":12097,"stigning":12098,"pene":12099,"utviklingen":12100,"muslimer":12101,"hamna":12102,"Medan":12103,"hovs":12104,"Niels":12105,"Golf":12106,"fulgte":12107,"stenar":12108,"thailand":12109,"Kolla":12110,"CV":12111,"kvalite":12112,"mødes":12113,"avvi":12114,"primar":12115,"stjarna":12116,"bruket":12117,"good":12118,"blanda":12119,"Axel":12120,"forsvars":12121,"overgang":12122,"midsommar":12123,"figurer":12124,"klen":12125,"Ake":12126,"klister":12127,"forklare":12128,"hia":12129,"fungere":12130,"Helse":12131,"ømte":12132,"resultaten":12133,"fremragende":12134,"knap":12135,"snalla":12136,"skickade":12137,"Larsen":12138,"forvaltnings":12139,"hors":12140,"forsakra":12141,"høyde":12142,"mojligen":12143,"flaska":12144,"nyar":12145,"batar":12146,"KOM":12147,"radighed":12148,"bredd":12149,"timmars":12150,"Nordic":12151,"Tantra":12152,"hygge":12153,"helm":12154,"Borg":12155,"gjer":12156,"pis":12157,"Ein":12158,"Elever":12159,"omkostninger":12160,"forvantningar":12161,"air":12162,"øve":12163,"stunder":12164,"slanga":12165,"Fitta":12166,"tilkny":12167,"sving":12168,"hogskola":12169,"fysik":12170,"!”":12171,"døds":12172,"stroms":12173,"socken":12174,"ria":12175,"Kuk":12176,"tillverkare":12177,"kvm":12178,"hjertet":12179,"vaxte":12180,"sokte":12181,"husets":12182,"Beh":12183,"tryckt":12184,"Arten":12185,"Tech":12186,"sir":12187,"skatten":12188,"Nye":12189,"oman":12190,"bygging":12191,"Bot":12192,"kalder":12193,"lægget":12194,"mastar":12195,"1987":12196,"Fragan":12197,"losningen":12198,"hs":12199,"funktionsned":12200,"Vall":12201,"motorer":12202,"indkøb":12203,"planlagt":12204,"Matti":12205,"skonhet":12206,"Dre":12207,"observer":12208,"pall":12209,"skand":12210,"gymmet":12211,"moln":12212,"BT":12213,"jamstalld":12214,"navne":12215,"overnatt":12216,"eftea":12217,"anstrang":12218,"casinon":12219,"Read":12220,"lektioner":12221,"dorrar":12222,"indholdet":12223,"kvartal":12224,"turister":12225,"Slot":12226,"serios":12227,"byter":12228,"taxi":12229,"glasogon":12230,"moral":12231,"opptatt":12232,"avtale":12233,"moden":12234,"bemær":12235,"skrack":12236,"avsugning":12237,"fungerande":12238,"Jylland":12239,"action":12240,"lejer":12241,"synligvis":12242,"SO":12243,"trav":12244,"utredningen":12245,"koks":12246,"etisk":12247,"itte":12248,"sporten":12249,"studiet":12250,"alternativet":12251,"1986":12252,"ates":12253,"skærm":12254,"flad":12255,"bjør":12256,"overlag":12257,"Wh":12258,"gata":12259,"Hammar":12260,"bly":12261,"titeln":12262,"stjanst":12263,"ferien":12264,"velger":12265,"hyggeligt":12266,"muligheten":12267,"UK":12268,"varmning":12269,"tennis":12270,"flyttat":12271,"istiske":12272,"Anda":12273,"odd":12274,"fastigheten":12275,"føles":12276,"Tele":12277,"cli":12278,"forplikt":12279,"politiken":12280,"centi":12281,"hatar":12282,"belt":12283,"symboler":12284,"rys":12285,"HER":12286,"Kristus":12287,"cos":12288,"Profes":12289,"kika":12290,"rosta":12291,"odds":12292,"referen":12293,"orke":12294,"backa":12295,"kampar":12296,"benytt":12297,"valla":12298,"norska":12299,"begyndt":12300,"leverandør":12301,"meddelanden":12302,"greb":12303,"Nick":12304,"felakt":12305,"summer":12306,"montering":12307,"rimelig":12308,"studien":12309,"Forskning":12310,"ninge":12311,"tillgod":12312,"tilbehør":12313,"billige":12314,"tax":12315,"user":12316,"vaccin":12317,"markant":12318,"DI":12319,"øjen":12320,"deci":12321,"finaste":12322,"skillnader":12323,"BK":12324,"presenterar":12325,"Utveck":12326,"aser":12327,"yttre":12328,"gut":12329,"træt":12330,"beman":12331,"aliska":12332,"ceras":12333,"tidningar":12334,"160":12335,"anstalld":12336,"underlatta":12337,"overblik":12338,"Bostad":12339,"krever":12340,"jamt":12341,"brudd":12342,"olj":12343,"behandlingar":12344,"Vinter":12345,"smerter":12346,"sticka":12347,"øvelser":12348,"Kna":12349,"Cap":12350,"redning":12351,"kontanter":12352,"samarbet":12353,"room":12354,"kningar":12355,"henblik":12356,"hænder":12357,"udelukkende":12358,"forretnings":12359,"nyfiken":12360,"hev":12361,"kvadratmeter":12362,"seier":12363,"gammalt":12364,"specifikt":12365,"opfor":12366,"bildar":12367,"anvandes":12368,"overhovedet":12369,"ligheden":12370,"agement":12371,"hobby":12372,"skiner":12373,"succe":12374,"datingside":12375,"massigt":12376,"opstar":12377,"vokser":12378,"generellt":12379,"1984":12380,"Strom":12381,"lærere":12382,"bygden":12383,"faldt":12384,"Mannen":12385,"Sout":12386,"engelske":12387,"jakla":12388,"lækkert":12389,"atar":12390,"satsning":12391,"konkurs":12392,"skapas":12393,"ycke":12394,"forsiktig":12395,"bistand":12396,"imorse":12397,"Happ":12398,"dok":12399,"df":12400,"finska":12401,"slutligen":12402,"isch":12403,"invand":12404,"inc":12405,"jobben":12406,"ipedia":12407,"serat":12408,"mass":12409,"besokte":12410,"jurid":12411,"udført":12412,"talat":12413,"konklu":12414,"Infor":12415,"sagtens":12416,"ily":12417,"eksamen":12418,"intensiv":12419,"sjukhuset":12420,"sansvar":12421,"veckorna":12422,"arder":12423,"ydelser":12424,"uppehall":12425,"søster":12426,"tabell":12427,"ellet":12428,"temat":12429,"webcam":12430,"Frederik":12431,"Sep":12432,"Kong":12433,"øret":12434,"naz":12435,"Lim":12436,"Afghanistan":12437,"ladan":12438,"was":12439,"vurderer":12440,"ideal":12441,"Business":12442,"hemiboreala":12443,"lover":12444,"feed":12445,"deltok":12446,"somrader":12447,"forhindra":12448,"nel":12449,"frø":12450,"foraldrarna":12451,"fylde":12452,"medicinsk":12453,"galet":12454,"alar":12455,"Richard":12456,"1985":12457,"smat":12458,"Central":12459,"langsamt":12460,"lagret":12461,"oppdag":12462,"forlu":12463,"ota":12464,"stjerner":12465,"produktet":12466,"korv":12467,"Shar":12468,"britiske":12469,"tilrettel":12470,"Vas":12471,"pavirke":12472,"handtere":12473,"ørende":12474,"fardigt":12475,"journalister":12476,"1600":12477,"forma":12478,"levet":12479,"stasjon":12480,"konge":12481,"stur":12482,"bergig":12483,"Præ":12484,"symptomer":12485,"kaos":12486,"ligner":12487,"værket":12488,"skolens":12489,"Gennem":12490,"bransle":12491,"Sida":12492,"Tru":12493,"utlandska":12494,"miga":12495,"Famili":12496,"PDF":12497,"chefer":12498,"Band":12499,"graden":12500,"flor":12501,"kyst":12502,"avsnittet":12503,"hlm":12504,"kust":12505,"orn":12506,"bullar":12507,"kris":12508,"dj":12509,"aktører":12510,"forstand":12511,"nedgang":12512,"understre":12513,"Clas":12514,"nelsen":12515,"amatør":12516,"levereras":12517,"filtr":12518,"bedrag":12519,"Vo":12520,"virkeligheden":12521,"fotterna":12522,"befal":12523,"Hold":12524,"grundlæggende":12525,"trol":12526,"sleder":12527,"Teater":12528,"globalt":12529,"indret":12530,"tjejerna":12531,"Olsson":12532,"sykkel":12533,"tillverkning":12534,"klat":12535,"begynde":12536,"insattning":12537,"citat":12538,"virtu":12539,"fredagen":12540,"julklapp":12541,"avlopp":12542,"anske":12543,"kly":12544,"allmanheten":12545,"margin":12546,"tidligt":12547,"fuldstændig":12548,"brot":12549,"køle":12550,"Hvem":12551,"bredband":12552,"dagligt":12553,"undersøkelse":12554,"opmærksomhed":12555,"Barcelona":12556,"bec":12557,"videon":12558,"fyllde":12559,"vul":12560,"katol":12561,"nyeste":12562,"spilte":12563,"stuen":12564,"centralen":12565,"forvantas":12566,"his":12567,"dahl":12568,"MAN":12569,"alska":12570,"Miljo":12571,"afstand":12572,"Endast":12573,"vic":12574,"frihed":12575,"rakar":12576,"sikret":12577,"mødet":12578,"[...]":12579,"meldt":12580,"oen":12581,"Stu":12582,"appel":12583,"blanding":12584,"trop":12585,"uppdatera":12586,"parlamentet":12587,"ovanfor":12588,"distans":12589,"troller":12590,"kald":12591,"reglerne":12592,"specialist":12593,"fæng":12594,"Produkt":12595,"koncern":12596,"ias":12597,"titlar":12598,"gradde":12599,"balan":12600,"forsiktigt":12601,"lipp":12602,"medans":12603,"Ljus":12604,"besta":12605,"bibel":12606,"aldrar":12607,"cum":12608,"inflytande":12609,"sokning":12610,"formiddagen":12611,"diameter":12612,"ween":12613,"formular":12614,"forskola":12615,"hands":12616,"iko":12617,"hørte":12618,"bolagen":12619,"avsluta":12620,"nylig":12621,"kompen":12622,"vestlige":12623,"arbetsplats":12624,"bringer":12625,"boks":12626,"Pedersen":12627,"staka":12628,"kallor":12629,"kalde":12630,"pussy":12631,"normer":12632,"Fire":12633,"Folj":12634,"kjæreste":12635,"Dels":12636,"dron":12637,"foresla":12638,"benet":12639,"atoren":12640,"vy":12641,"cket":12642,"Ari":12643,"Watch":12644,"vurderes":12645,"givelse":12646,"Ill":12647,"bevægelse":12648,"krydd":12649,"kling":12650,"DU":12651,"skrid":12652,"Moj":12653,"Hil":12654,"nødvendigvis":12655,"missa":12656,"behandlings":12657,"styrning":12658,"Still":12659,"Brasilien":12660,"savtal":12661,"intellig":12662,"pur":12663,"læder":12664,"hjemmel":12665,"utvi":12666,":.":12667,"MT":12668,"Sym":12669,"sentrum":12670,"arealer":12671,"atag":12672,"skrivelse":12673,"husker":12674,"sannolik":12675,"ging":12676,"inkludert":12677,"rt":12678,"seriosa":12679,"pratat":12680,"tacksam":12681,"minskning":12682,"tings":12683,"Artikel":12684,"brukte":12685,"'.":12686,"agaren":12687,"jak":12688,"sset":12689,"sovit":12690,"vinduer":12691,"synpunkter":12692,"ærende":12693,"grænser":12694,"medlemmarna":12695,"høst":12696,"Beach":12697,"kanalen":12698,"spillede":12699,"teksten":12700,"Kre":12701,"paminner":12702,"relaterade":12703,"eliv":12704,"Herr":12705,"overgripande":12706,"tvatta":12707,"ML":12708,"drenge":12709,"utbredningsomrade":12710,"350":12711,"lønn":12712,"anpassade":12713,"brede":12714,"auktor":12715,"teamet":12716,"samler":12717,"klarade":12718,"sformed":12719,"legging":12720,"Erotik":12721,"asinon":12722,"overskud":12723,"arme":12724,"havnen":12725,"Ott":12726,"skalbag":12727,"Kommentar":12728,"Fakti":12729,"statliga":12730,"Riktigt":12731,"læs":12732,"Nr":12733,"websted":12734,"ENS":12735,"stillstand":12736,"manaderna":12737,"omfattas":12738,"obe":12739,"husk":12740,"vager":12741,"konkurrence":12742,"kørte":12743,"Louise":12744,"ktorer":12745,"klubbar":12746,"odling":12747,"cience":12748,"file":12749,"kopier":12750,"Foretaget":12751,"koka":12752,"sterke":12753,"pavirker":12754,"trukket":12755,"upplevelsen":12756,"takti":12757,"Line":12758,"ombud":12759,"berør":12760,"omgaende":12761,"dækket":12762,"sus":12763,"eskorter":12764,"fanga":12765,"ulette":12766,"varia":12767,"populart":12768,"kiska":12769,"stole":12770,"Jamfor":12771,"hvorefter":12772,"aggres":12773,"DVD":12774,"plasser":12775,"rart":12776,"nemmere":12777,"ual":12778,"Artens":12779,"onska":12780,"Træ":12781,"blandskog":12782,"panik":12783,"vaknar":12784,"Marcus":12785,"løfte":12786,"instruktioner":12787,"alvorlig":12788,"hihi":12789,"jenester":12790,"Like":12791,"Karlstad":12792,"elit":12793,"lykkes":12794,"glede":12795,"ofilm":12796,"definier":12797,"tabellen":12798,"Deres":12799,"tillskott":12800,"suga":12801,"stadning":12802,"summa":12803,"Forum":12804,"dricker":12805,"kommunerna":12806,"kemik":12807,"Blue":12808,"toil":12809,"Kin":12810,"hie":12811,"lappar":12812,"speed":12813,"Ola":12814,"bragt":12815,"uppskattar":12816,"mister":12817,"ansoka":12818,"utvecklat":12819,"leden":12820,"saaa":12821,"morkt":12822,"laggas":12823,"mosa":12824,"Tren":12825,"ytterst":12826,"avgora":12827,"bildades":12828,"ledige":12829,"skyn":12830,"sondagen":12831,"jog":12832,"missat":12833,"altan":12834,"Os":12835,"sokan":12836,"Samtliga":12837,"kosta":12838,"dennes":12839,"variera":12840,"gennemført":12841,"ocke":12842,"sproces":12843,"anvan":12844,"sektorn":12845,"prenumer":12846,"karleks":12847,"besviken":12848,"strar":12849,"lacker":12850,"jerne":12851,"civil":12852,"Ønsker":12853,"forsikr":12854,"ondt":12855,"Sop":12856,"Begge":12857,"Gotland":12858,"klinik":12859,"tram":12860,"begreppet":12861,"sledare":12862,"fton":12863,"spet":12864,"pix":12865,"miste":12866,"Asa":12867,"Smit":12868,"filosofi":12869,"Nog":12870,"hjelper":12871,"begrun":12872,"cerar":12873,"beliggende":12874,"kallat":12875,"drevet":12876,"efterfragan":12877,"skran":12878,"terri":12879,"gilt":12880,"zar":12881,"Madrid":12882,"Victoria":12883,"edning":12884,"rullar":12885,"Fel":12886,"listor":12887,"Ansvar":12888,"forbruk":12889,"fremt":12890,"Sju":12891,"vinnare":12892,"sykdom":12893,"kage":12894,"Bul":12895,"mindste":12896,"Meget":12897,"helger":12898,"Tropiskt":12899,"spurgte":12900,"upptackte":12901,"besluttet":12902,"display":12903,"slappte":12904,"arke":12905,"Indone":12906,"Glad":12907,"førende":12908,"sexig":12909,"erkanna":12910,"generelle":12911,"vaken":12912,"øjet":12913,"Valdigt":12914,"forskere":12915,"tiskt":12916,"doc":12917,"benam":12918,"Mote":12919,"hogskole":12920,"uansett":12921,"Vare":12922,"forbereda":12923,"proced":12924,"1945":12925,"klikke":12926,"expert":12927,"nets":12928,"spanska":12929,"kandidater":12930,"harde":12931,"noje":12932,"1982":12933,"syg":12934,"epis":12935,"sberg":12936,"modne":12937,"There":12938,"lykkedes":12939,"gna":12940,"forhin":12941,"sjældent":12942,"skete":12943,"forvaring":12944,"forventer":12945,"fastighets":12946,"omtrent":12947,"etiska":12948,"redskap":12949,"vagt":12950,"ulin":12951,"LIG":12952,"olymp":12953,"vejret":12954,"Lær":12955,"sekreterare":12956,"veil":12957,"glatt":12958,"ketter":12959,"Tiden":12960,"Vælg":12961,"mængde":12962,"Ukra":12963,"kroppens":12964,"mannens":12965,"godkanner":12966,"minskat":12967,"sorden":12968,"vedtak":12969,"mandat":12970,"centret":12971,"krog":12972,"Bemær":12973,"prestand":12974,"vandra":12975,"Ljung":12976,"tunge":12977,"orientering":12978,"ægge":12979,"konkurrens":12980,"anklag":12981,"Champi":12982,"officiella":12983,"slat":12984,"samord":12985,"spris":12986,"øker":12987,"præsent":12988,"talets":12989,"recension":12990,"svenskan":12991,"GT":12992,"sygdomme":12993,"provat":12994,"May":12995,"upptackt":12996,"acceptera":12997,"matning":12998,"spets":12999,"krang":13000,"brittiska":13001,"kusten":13002,"obehag":13003,"køret":13004,"stendig":13005,"Roskilde":13006,"tillampas":13007,"behandles":13008,"strukturen":13009,"forskar":13010,"uret":13011,"sofa":13012,"Baby":13013,"Øv":13014,"samtaler":13015,"jonkoping":13016,"smaken":13017,"Detal":13018,"ritu":13019,"ua":13020,"stilte":13021,"vinteren":13022,"Folket":13023,"lockar":13024,"smukt":13025,"Antligen":13026,"ugning":13027,"debu":13028,"terande":13029,"Soci":13030,"NRK":13031,"barnens":13032,"Saint":13033,"eksperi":13034,"Step":13035,"lavt":13036,"intervjuer":13037,"ely":13038,"ressourcer":13039,"explo":13040,"Flyg":13041,"sey":13042,"banor":13043,"kilder":13044,"fordele":13045,"nats":13046,"rast":13047,"opro":13048,"grundades":13049,"?.":13050,"friluft":13051,"planerade":13052,"huvudtaget":13053,"atal":13054,"stapp":13055,"Fyl":13056,"hundarna":13057,"Vegas":13058,"auto":13059,"rea":13060,"lampa":13061,"blodet":13062,"Sexleksaker":13063,"kvitt":13064,"arlige":13065,"tech":13066,"landst":13067,"afsl":13068,"demokrater":13069,"darlige":13070,"vikar":13071,"aton":13072,"videregaende":13073,"tilstede":13074,"skedde":13075,"Anti":13076,"skuespiller":13077,"hm":13078,"Portug":13079,"Arena":13080,"Mandag":13081,"Lav":13082,"Klimatet":13083,"klappar":13084,"symt":13085,"undra":13086,"avdelningen":13087,"banklan":13088,"tillgangar":13089,"klaga":13090,"udgivet":13091,"rutan":13092,"kkel":13093,"etablert":13094,"tvartom":13095,"fac":13096,"farsk":13097,"faciliteter":13098,"skjøn":13099,"Hei":13100,"enorma":13101,"hei":13102,"digitalt":13103,"trivsel":13104,"aro":13105,"skrivs":13106,"passende":13107,"Date":13108,"Cit":13109,"^^":13110,"statens":13111,"rehabilitering":13112,"versioner":13113,"kontinuerligt":13114,"Stavanger":13115,"friske":13116,"vinning":13117,"reseptfritt":13118,"partiets":13119,"inspirerande":13120,"upplysning":13121,"smet":13122,"talas":13123,"EP":13124,"SEX":13125,"hylla":13126,"bonusar":13127,"Glas":13128,"oplysning":13129,"Virksom":13130,"ront":13131,"Leon":13132,"pojkvan":13133,"størrelser":13134,"ovenfor":13135,"apnet":13136,"forventninger":13137,"standarder":13138,"sprøj":13139,"mønster":13140,"jy":13141,"Hum":13142,"Annon":13143,"skylt":13144,"tagande":13145,"sjælland":13146,"safremt":13147,"rante":13148,"held":13149,"borgen":13150,"lerne":13151,"opbevar":13152,"Und":13153,"drig":13154,"rud":13155,"artikkel":13156,"korning":13157,"bundna":13158,"satsar":13159,"risikoen":13160,"hjalpmedel":13161,"oversatt":13162,"italiensk":13163,"Uanset":13164,"tillganglighet":13165,"Museum":13166,"uddannelser":13167,"laborator":13168,"Up":13169,"klassifi":13170,"heste":13171,"arab":13172,"Mur":13173,"gla":13174,"beskatt":13175,"kompa":13176,"lung":13177,"Handels":13178,"utvecklats":13179,"bensin":13180,"varldskriget":13181,"Kvar":13182,"græs":13183,"fitt":13184,"Stig":13185,"Svend":13186,"syskon":13187,"speriod":13188,"tros":13189,"producera":13190,"troligt":13191,"varumarken":13192,"veckans":13193,"links":13194,"ingens":13195,"Him":13196,"forlora":13197,"allvarligt":13198,"hvorvidt":13199,"raddar":13200,"1968":13201,"smarker":13202,"ksjonen":13203,"division":13204,"lektion":13205,"adfærd":13206,"professionell":13207,"annoncen":13208,"ærlig":13209,"kinesiska":13210,"acces":13211,"JA":13212,"HV":13213,"Tam":13214,"biskop":13215,"sanningen":13216,"sexfilm":13217,"nedre":13218,"Smal":13219,"Halmstad":13220,"visionen":13221,"strik":13222,"ines":13223,"Institut":13224,"pers":13225,"palit":13226,"forloss":13227,"chauf":13228,"nodvandiga":13229,"Tjej":13230,"nordiska":13231,"progno":13232,"rente":13233,"Fyll":13234,"pilot":13235,"field":13236,"Open":13237,"Gott":13238,"fullstandigt":13239,"aterstall":13240,"Eksem":13241,"FL":13242,"fornøyd":13243,"branchen":13244,"sters":13245,"restauranter":13246,"world":13247,"særdeles":13248,"udby":13249,"1979":13250,"omsattning":13251,"hallbarhet":13252,"stian":13253,"Via":13254,"Latt":13255,"bedrifter":13256,"1973":13257,"fortsætte":13258,"Svensson":13259,"unnga":13260,"utlandet":13261,"1975":13262,"Hud":13263,"appli":13264,"radets":13265,"uppfoljning":13266,"sana":13267,"Styrelsen":13268,"grep":13269,"favoritter":13270,"Sjælland":13271,"privatpersoner":13272,"producenter":13273,"handtering":13274,"digvis":13275,"kysten":13276,"begyndelsen":13277,"sell":13278,"ira":13279,"lampligt":13280,"Cerro":13281,"minnes":13282,"aktenskap":13283,"sme":13284,"HE":13285,"deltagande":13286,"nettopp":13287,"skred":13288,"komprom":13289,"Amerika":13290,"stom":13291,"jattef":13292,"innet":13293,"lastbil":13294,"repet":13295,"storst":13296,"affald":13297,"larde":13298,"Dagbladet":13299,"statsminister":13300,"PM":13301,"kirurgi":13302,"forsker":13303,"tjanar":13304,"jubile":13305,"ume":13306,"vasent":13307,"implementer":13308,"demokrat":13309,"usch":13310,"namns":13311,"malar":13312,"fugle":13313,"interview":13314,"Atlan":13315,"villkoren":13316,"regning":13317,"kollat":13318,"killen":13319,"abner":13320,"Vak":13321,"landbrug":13322,"kassen":13323,"komna":13324,"varumarke":13325,"gotland":13326,"1974":13327,"noter":13328,"reste":13329,"fjarr":13330,"blow":13331,"andres":13332,"arier":13333,"vagnar":13334,"mots":13335,"Internation":13336,"lott":13337,"stjene":13338,"1972":13339,"medfører":13340,"kostnaderna":13341,"nevnte":13342,"vender":13343,"klippa":13344,"toalett":13345,"Gillar":13346,"anvants":13347,"undersokningen":13348,"delag":13349,"tide":13350,"baner":13351,"viktigare":13352,"lengre":13353,"derimod":13354,"hojden":13355,"ISK":13356,"lagstiftning":13357,"robu":13358,"gallde":13359,"etn":13360,"spørger":13361,"kaste":13362,"icera":13363,"jorde":13364,"avlag":13365,"bukser":13366,"vitenskap":13367,"effektiviser":13368,"Ostersund":13369,"Uden":13370,"torka":13371,"ursprungliga":13372,"redovisas":13373,"range":13374,"junior":13375,"Cook":13376,"skema":13377,"upplag":13378,"framja":13379,"anfall":13380,"White":13381,"fysiskt":13382,"kann":13383,"depression":13384,"galen":13385,"skivan":13386,"leverandører":13387,"Sæ":13388,"brygger":13389,"ationerna":13390,"klog":13391,"passion":13392,"delat":13393,"()":13394,"saljs":13395,"begransat":13396,"møtte":13397,"traditionell":13398,"ledelsen":13399,"rasjon":13400,"etablere":13401,"handtag":13402,"discipl":13403,"hing":13404,"stilen":13405,"Behover":13406,"katten":13407,"fisken":13408,"sorter":13409,"fronten":13410,"ogat":13411,"website":13412,"kampanjer":13413,"ministra":13414,"Gang":13415,"agere":13416,"Sas":13417,"Ros":13418,"motta":13419,"missbruk":13420,"uth":13421,"emne":13422,"darligt":13423,"slutat":13424,"strumpor":13425,"Dina":13426,"gulvet":13427,"styrket":13428,"Risk":13429,"iværks":13430,"nyhetsbrev":13431,"Kungs":13432,"fikke":13433,"tidiga":13434,"farge":13435,"sønn":13436,"Jonsson":13437,"ugo":13438,"integration":13439,"rettigheder":13440,"klatt":13441,"Hau":13442,"ikop":13443,"Lager":13444,"sjer":13445,"arbejdes":13446,"kulle":13447,"barndom":13448,"maf":13449,"Kors":13450,"skulpt":13451,"faglar":13452,"representant":13453,"Midt":13454,"kokos":13455,"Sista":13456,"Bolaget":13457,"skapande":13458,"romantisk":13459,"Royal":13460,"Vester":13461,"1971":13462,"boli":13463,"huru":13464,"guiden":13465,"godkand":13466,"fruktansvart":13467,"aktuellt":13468,"skug":13469,"life":13470,"klickar":13471,"masker":13472,"glans":13473,"skrivet":13474,"Egen":13475,"ersatta":13476,"Administr":13477,"juden":13478,"cop":13479,"Utbild":13480,"Styr":13481,"konstatera":13482,"afrika":13483,"policy":13484,"Show":13485,"mons":13486,"drakt":13487,"konvention":13488,"arrangemang":13489,"dsm":13490,"Kjell":13491,"kali":13492,"valp":13493,"dengang":13494,"skjor":13495,"deltagere":13496,"bedrift":13497,"fig":13498,"gur":13499,"dagars":13500,"Gotaland":13501,"smuligheder":13502,"tillæg":13503,"enskild":13504,"125":13505,"slapptes":13506,"Alltid":13507,"militær":13508,"mill":13509,"retningslinjer":13510,"badoo":13511,"meddela":13512,"lyset":13513,"karton":13514,"lavede":13515,"pend":13516,"read":13517,"Kopenhamn":13518,"tjejen":13519,"BO":13520,"rapportering":13521,"bæredygt":13522,"nationale":13523,"avdrag":13524,"rakningar":13525,"behagelig":13526,"experter":13527,"Olsen":13528,"feldt":13529,"Pil":13530,"skjuta":13531,"Sjuk":13532,"3000":13533,"efterhand":13534,"gula":13535,"japansk":13536,"ART":13537,"Pati":13538,"skyddar":13539,"interesseret":13540,"historik":13541,"kreativ":13542,"paborj":13543,"betegn":13544,"Gymna":13545,"eloven":13546,"slipp":13547,"Bjørn":13548,"Gal":13549,"Mattias":13550,"vaxten":13551,"licen":13552,"intresset":13553,"bblan":13554,"bestyrelse":13555,"namna":13556,"hektar":13557,"here":13558,"beregnet":13559,"pys":13560,"rn":13561,"orange":13562,"forsam":13563,"fortalt":13564,"mojligheterna":13565,"globala":13566,"sparken":13567,"Bast":13568,"Happy":13569,"GO":13570,"artist":13571,"helsingborg":13572,"forebyggande":13573,"komite":13574,"enstaka":13575,"danner":13576,"høsten":13577,"ankomst":13578,"primer":13579,"Justin":13580,"opposi":13581,"stillede":13582,"billigaste":13583,"skadespelare":13584,"angreb":13585,"fungerade":13586,"femin":13587,"hugg":13588,"udvikler":13589,"minde":13590,"Oppna":13591,"cted":13592,"tacker":13593,"noggran":13594,"billetter":13595,"orebro":13596,"drack":13597,"Blanda":13598,"Est":13599,"legitim":13600,"Troll":13601,"sadanne":13602,"Stats":13603,"skilja":13604,"blr":13605,"terapeut":13606,"danskere":13607,"ugn":13608,"informera":13609,"lister":13610,"abent":13611,"sakaldte":13612,"afgørelse":13613,"global":13614,"budsjett":13615,"5000":13616,"verken":13617,"komplex":13618,"restaurangen":13619,"handlare":13620,"omfattning":13621,"granskning":13622,"stipendi":13623,"potential":13624,"tarta":13625,"Dia":13626,"lyfter":13627,"Senaste":13628,"sattes":13629,"deltagelse":13630,"Ej":13631,"overveje":13632,"gers":13633,"NM":13634,"agde":13635,"Match":13636,"Louis":13637,"ssjuk":13638,"allvarliga":13639,"eskorte":13640,"vendte":13641,"vingar":13642,"narhet":13643,"beslutade":13644,"tabelt":13645,"Leif":13646,"hodet":13647,"rammen":13648,"tales":13649,"Blon":13650,"1983":13651,"hamtning":13652,"aftaler":13653,"rommet":13654,"drama":13655,"driften":13656,"Ox":13657,"sælge":13658,"arbetstag":13659,"Holly":13660,"Prin":13661,"vallen":13662,"Vita":13663,"investerings":13664,"dannelse":13665,"mien":13666,"Ei":13667,"Direkt":13668,"benyttet":13669,"heltid":13670,"sikter":13671,"sorgen":13672,"minder":13673,"sweden":13674,"gemenskap":13675,"tyget":13676,"Total":13677,"ogne":13678,"Lis":13679,"1976":13680,"organisasjoner":13681,"chanser":13682,"rejal":13683,"aturen":13684,"Unga":13685,"Irak":13686,"Mine":13687,"Skapa":13688,"rute":13689,"varg":13690,"360":13691,"avn":13692,"utvalda":13693,"dry":13694,"???":13695,"manniskorna":13696,"automat":13697,"smycken":13698,"udarbejdet":13699,"vaxel":13700,"kladerna":13701,"rads":13702,"bevare":13703,"enheder":13704,"Journ":13705,"rick":13706,"lus":13707,"givende":13708,"behandle":13709,"frid":13710,"Mia":13711,"jamna":13712,"fokuserar":13713,"Mexico":13714,"halvar":13715,"fiskar":13716,"effektive":13717,"livslang":13718,"æren":13719,"Julia":13720,"Cast":13721,"tradde":13722,"gilla":13723,"ita":13724,"slippe":13725,"alg":13726,"sica":13727,"CO2":13728,"utvalget":13729,"samtlige":13730,"begrav":13731,"korrig":13732,"forlat":13733,"Cru":13734,"dyra":13735,"ledigt":13736,"innebærer":13737,"1978":13738,"bebyggelse":13739,"foreslas":13740,"bug":13741,"anvandningen":13742,"stanger":13743,"emar":13744,"upphandling":13745,"slottet":13746,"Trev":13747,"viks":13748,"tilfeller":13749,"hammar":13750,"leie":13751,"FS":13752,"Kamp":13753,"ask":13754,"Digital":13755,"tiker":13756,"endelige":13757,"bekvama":13758,"filmerna":13759,"pkt":13760,"mentering":13761,"hypp":13762,"øverste":13763,"fotografering":13764,"angri":13765,"dals":13766,"vagarna":13767,"atorn":13768,"matlag":13769,"liknar":13770,"tillgangligt":13771,"paketet":13772,"naede":13773,"Tomas":13774,"majoritet":13775,"licens":13776,"Avsugning":13777,"vanligvis":13778,"spid":13779,"HO":13780,"Innehall":13781,"armar":13782,"hones":13783,"ativet":13784,"Stift":13785,"pdf":13786,"fange":13787,"sjunga":13788,"identifiera":13789,"narvaro":13790,"1981":13791,"lyste":13792,"viner":13793,"Ange":13794,"grense":13795,"poolen":13796,"vinne":13797,"uthyr":13798,"garage":13799,"givna":13800,"krut":13801,"døgn":13802,"Sant":13803,"splas":13804,"optaget":13805,"Tol":13806,"VG":13807,"regiss":13808,"keram":13809,"pappers":13810,"bg":13811,"minimal":13812,"Bull":13813,"netto":13814,"spilt":13815,"Gull":13816,"anteck":13817,"parfy":13818,"slakte":13819,"rider":13820,"style":13821,"hest":13822,"ulov":13823,"onskade":13824,"diskriminering":13825,"entreprenor":13826,"nul":13827,"lagring":13828,"garanterat":13829,"exemplar":13830,"udstyret":13831,"DEN":13832,"tun":13833,"ansigt":13834,"tradgards":13835,"henger":13836,"General":13837,"flygt":13838,"Parti":13839,"fortj":13840,"fjol":13841,"Miss":13842,"nøgne":13843,"forvarva":13844,"mistet":13845,"tagare":13846,"kendskab":13847,"morfar":13848,"sun":13849,"utbudet":13850,"sterkt":13851,"plattor":13852,"brak":13853,"SJ":13854,"Swe":13855,"holls":13856,"okande":13857,"Haller":13858,"sticker":13859,"Mak":13860,"frost":13861,"tolkning":13862,"</":13863,"takk":13864,"arende":13865,"blæ":13866,"øjnene":13867,"Teen":13868,"kundens":13869,"smidler":13870,"elin":13871,"GL":13872,"telle":13873,"Herren":13874,"rubriken":13875,"haf":13876,"cykla":13877,"diesel":13878,"mestadels":13879,"udlandet":13880,"Stan":13881,"impor":13882,"mia":13883,"hotos":13884,"vaben":13885,"She":13886,"stillings":13887,"chester":13888,"forordningen":13889,"Finan":13890,"barber":13891,"aterstar":13892,"begaran":13893,"centimeter":13894,"tænkte":13895,"aterforsaljare":13896,"Boka":13897,"Rud":13898,"isolering":13899,"Savann":13900,"puls":13901,"tuttar":13902,"KA":13903,"stikk":13904,"skostnader":13905,"Gick":13906,"iva":13907,"skes":13908,"reaktioner":13909,"fanget":13910,"Befol":13911,"argumenter":13912,"sposi":13913,"Aker":13914,"FO":13915,"skyddet":13916,"anvendt":13917,"muligvis":13918,"Nan":13919,"suver":13920,"sjunger":13921,"spelautom":13922,"Skicka":13923,"kunderna":13924,"Win":13925,"givar":13926,"fylder":13927,"Barnen":13928,"content":13929,"oplevet":13930,"dreng":13931,"aktionen":13932,"afdel":13933,"Lika":13934,"ods":13935,"kammar":13936,"portion":13937,"tænder":13938,"smo":13939,"dubbla":13940,"ther":13941,"vitlok":13942,"lotte":13943,"AIK":13944,"uppgick":13945,"frekven":13946,"klet":13947,"igg":13948,"exponer":13949,"netta":13950,"normala":13951,"Skont":13952,"Anledningen":13953,"ern":13954,"konkurranse":13955,"Traffa":13956,"Savannklimat":13957,"fremtid":13958,"forsøk":13959,"add":13960,"IST":13961,"ights":13962,"chokolade":13963,"skyldighet":13964,"This":13965,"forløbet":13966,"forbindelser":13967,"sigtet":13968,"begrens":13969,"ganget":13970,"home":13971,"Last":13972,"parørende":13973,"kyrk":13974,"underhallning":13975,"Stal":13976,"balance":13977,"forkert":13978,"Tidligere":13979,"North":13980,"tomat":13981,"pakker":13982,"decen":13983,"seras":13984,"dæk":13985,"industrien":13986,"circa":13987,"sium":13988,"reen":13989,"sedda":13990,"sakna":13991,"Day":13992,"rantor":13993,"grattis":13994,"openhagen":13995,"dumt":13996,"tillid":13997,"bange":13998,"medborgar":13999,"bollar":14000,"Born":14001,"HEL":14002,"hemskt":14003,"erstatning":14004,"medvetna":14005,"edom":14006,"harom":14007,"Grattis":14008,"Kloc":14009,"losenord":14010,"bestemme":14011,"Milj":14012,"usjoner":14013,"Bø":14014,"tilpasset":14015,"dagene":14016,"ISO":14017,"untain":14018,"Street":14019,"Brom":14020,"mega":14021,"Poul":14022,"Camilla":14023,"galopp":14024,"lytte":14025,"spart":14026,"Afton":14027,"kolhydr":14028,"Grekland":14029,"ekonomin":14030,"fødselsdag":14031,"placeras":14032,"smslan":14033,"numret":14034,"Nastan":14035,"oppnas":14036,"kasino":14037,"Standard":14038,"krava":14039,"ledarskap":14040,"saljare":14041,"verdenskrig":14042,"melder":14043,"Mell":14044,"pant":14045,"Viagra":14046,"asikt":14047,"blade":14048,"knæ":14049,"Shi":14050,"ventilation":14051,"kære":14052,"chock":14053,"narm":14054,"ekort":14055,"meldinger":14056,"ст":14057,"Viktor":14058,"avtalen":14059,"sorters":14060,"sningar":14061,"pancake":14062,"gentemot":14063,"Yo":14064,"kulturer":14065,"generalforsamling":14066,"grid":14067,"Knullar":14068,"inatt":14069,"lukt":14070,"tiltag":14071,"Fraga":14072,"foraldra":14073,"sosial":14074,"emi":14075,"pc":14076,"nasjonal":14077,"publiceras":14078,"nete":14079,"1977":14080,"komne":14081,"synnerhet":14082,"sydlig":14083,"Nike":14084,"strukturer":14085,"Rak":14086,"turne":14087,"hoppar":14088,"smør":14089,"Holland":14090,"Tommy":14091,"forsin":14092,"solid":14093,"debat":14094,"Teknik":14095,"frage":14096,"olycka":14097,"ato":14098,"mum":14099,"Ellers":14100,"markedsføring":14101,"belagen":14102,"Snabb":14103,"placera":14104,"revolution":14105,"kjenne":14106,"angst":14107,"tranat":14108,"allas":14109,"million":14110,"opplevelse":14111,"musikal":14112,"Generisk":14113,"1969":14114,"endvidere":14115,"Ønske":14116,"overklag":14117,"underlatt":14118,"Helena":14119,"slov":14120,"arrangement":14121,"luks":14122,"Programmet":14123,"minnet":14124,"berattelsen":14125,"producent":14126,"conta":14127,"bakgrunden":14128,"tenker":14129,"kopplad":14130,"oppfølg":14131,"skabs":14132,"ksjoner":14133,"vedlike":14134,"skadade":14135,"personligen":14136,"vaskan":14137,"ENT":14138,"PT":14139,"Tum":14140,"informationer":14141,"Dalarna":14142,"presenterade":14143,"bekre":14144,"hamnen":14145,"call":14146,"hæl":14147,"godkant":14148,"hangde":14149,"verkstad":14150,"rediger":14151,"suk":14152,"klick":14153,"Hør":14154,"maneden":14155,"idrotts":14156,"fulle":14157,"Klin":14158,"tilbag":14159,"sydvastra":14160,"decenni":14161,"lova":14162,"brudar":14163,"Hø":14164,"korna":14165,"yright":14166,"nøy":14167,"seln":14168,"raddning":14169,"øvelse":14170,"Body":14171,"Abo":14172,"name":14173,"slappt":14174,"firar":14175,"trygt":14176,"avgjør":14177,"vere":14178,"stas":14179,"foretage":14180,"anmeldelser":14181,"coc":14182,"wiki":14183,"cykeln":14184,"vendig":14185,"situasjonen":14186,"MAR":14187,"eto":14188,"nev":14189,"trycker":14190,"narmar":14191,"arbetsmiljo":14192,"profesjon":14193,"Portugal":14194,"pastar":14195,"avslutade":14196,"dimensioner":14197,"okon":14198,"intelle":14199,"motivation":14200,"soderut":14201,"skepp":14202,"anpassad":14203,"utfordringer":14204,"kup":14205,"Udd":14206,"aksjon":14207,"ages":14208,"produkterna":14209,"ktisk":14210,"chili":14211,"Ock":14212,"pale":14213,"betæn":14214,"hyf":14215,"Charles":14216,"miska":14217,"karet":14218,"1967":14219,"tjugo":14220,"handlat":14221,"hensigt":14222,"regjeringen":14223,"storleken":14224,"tavlings":14225,"minnas":14226,"uddannet":14227,"affe":14228,"FM":14229,"Randers":14230,"jp":14231,"nadens":14232,"fixade":14233,"skoll":14234,"pom":14235,"!?":14236,"diet":14237,"BI":14238,"brem":14239,"politikk":14240,"Indonesien":14241,"Mall":14242,"stiga":14243,"Rag":14244,"demokratiska":14245,"vardig":14246,"utforska":14247,"shemale":14248,"hamtar":14249,"derved":14250,"Mos":14251,"',":14252,"bandy":14253,"vikling":14254,"norrut":14255,"iosa":14256,"torp":14257,"UV":14258,"Sla":14259,"individuelle":14260,"internettet":14261,"breda":14262,"grasmarker":14263,"Observera":14264,"porten":14265,"kopet":14266,"kjøpt":14267,"genomfors":14268,"nordostra":14269,"beliggen":14270,"kompon":14271,"utrymmen":14272,"forsøge":14273,"Lasse":14274,"skickat":14275,"gasterna":14276,"omal":14277,"professionella":14278,"juice":14279,"gavs":14280,"panna":14281,"Servi":14282,"gardiner":14283,"Fakt":14284,"motesplatsen":14285,"købte":14286,"Pia":14287,"1200":14288,"Ofte":14289,"Mount":14290,"oand":14291,"blø":14292,"Malm":14293,"koppar":14294,"locka":14295,"høg":14296,"nasjonale":14297,"uppfylla":14298,"disken":14299,"forkni":14300,"menu":14301,"operativ":14302,"skip":14303,"tillit":14304,"fornøj":14305,"generationer":14306,"stravar":14307,"kassan":14308,"berattig":14309,"tvekan":14310,"influen":14311,"konton":14312,"asjer":14313,"agarna":14314,"FT":14315,"mobile":14316,"rigs":14317,"folks":14318,"mem":14319,"smidig":14320,"tappa":14321,"anskaff":14322,"foretages":14323,"nude":14324,"beslutar":14325,"onodigt":14326,"langden":14327,"riktar":14328,"jat":14329,"slip":14330,"anvandarna":14331,"forventet":14332,"Slik":14333,"vejer":14334,"Vejle":14335,"offen":14336,"begag":14337,"oftare":14338,"mynt":14339,"bonde":14340,"ovn":14341,"Chile":14342,"vegne":14343,"trolig":14344,"parat":14345,"Senare":14346,"Ameri":14347,"zin":14348,"Eventu":14349,"fjaril":14350,"avkastning":14351,"møtet":14352,"Elisabeth":14353,"elleftea":14354,"kaldet":14355,"hyggelige":14356,"pojke":14357,"sesong":14358,"registrert":14359,"fixat":14360,"utbildade":14361,"foster":14362,"Spill":14363,"infektion":14364,"Betal":14365,"gluten":14366,"verklig":14367,"Kund":14368,"regulering":14369,"løsningen":14370,"maltider":14371,"milliarder":14372,"undersøge":14373,"Europeiska":14374,"undervisnings":14375,"møbler":14376,"umen":14377,"vantan":14378,"ØR":14379,"vanilj":14380,"motorn":14381,"Organis":14382,"fugt":14383,"øjeblikket":14384,"Annu":14385,"sattnings":14386,"italienska":14387,"Champions":14388,"foralder":14389,"bop":14390,"tegnet":14391,"kjøkken":14392,"itel":14393,"helikop":14394,"regjering":14395,"tia":14396,"situasjon":14397,"europæiske":14398,"Oj":14399,"Skill":14400,"ending":14401,"sax":14402,"Bruk":14403,"samarbetet":14404,"Tyr":14405,"optimalt":14406,"prestanda":14407,"sjukvarden":14408,"stabilt":14409,"trykker":14410,"arbejdsgiver":14411,"strun":14412,"vinsten":14413,"boo":14414,"ason":14415,"apoteket":14416,"Sexy":14417,"oprette":14418,"tarm":14419,"skrives":14420,"placerade":14421,"sanka":14422,"imot":14423,"friska":14424,"slagit":14425,"slutter":14426,"keborg":14427,"overvakning":14428,"arendet":14429,"simul":14430,"stopper":14431,"mobb":14432,"alistiska":14433,"search":14434,"hurtigere":14435,"smink":14436,"tillhorande":14437,"isten":14438,"overhuvudtaget":14439,"ledaren":14440,"politikere":14441,"kreative":14442,"Eskilstuna":14443,"arn":14444,"skyr":14445,"kalk":14446,"slump":14447,"sikkerheds":14448,"Rosa":14449,"forutsattningarna":14450,"øvrig":14451,"bias":14452,"tilknytning":14453,"mæn":14454,"bekymmer":14455,"hastarna":14456,"bestilling":14457,"delses":14458,"dyka":14459,"falde":14460,"gate":14461,"oppar":14462,"bedt":14463,"lagsta":14464,"installningar":14465,"DNA":14466,"menade":14467,"Oh":14468,"Skandinavi":14469,"game":14470,"revision":14471,"skalbaggs":14472,"nyanser":14473,"Donald":14474,"ryn":14475,"spindel":14476,"centrale":14477,"verkande":14478,"Ama":14479,"scene":14480,"lampliga":14481,"saktiviteter":14482,"giganti":14483,"beslag":14484,"ICA":14485,"tildelt":14486,"reiser":14487,"nettstedet":14488,"hjerne":14489,"Hov":14490,"munt":14491,"snø":14492,"jole":14493,"prylar":14494,"sterk":14495,"alvorlige":14496,"skalbaggsart":14497,"professionelle":14498,"egenskaber":14499,"samarbejd":14500,"feng":14501,"godkendelse":14502,"kombinera":14503,"exklusiva":14504,"tann":14505,"kraftverk":14506,"sjove":14507,"Regn":14508,"orkade":14509,"vedligeholdelse":14510,"sels":14511,"nervos":14512,"flygplatsen":14513,"leende":14514,"oppettider":14515,"drett":14516,"ript":14517,"dybt":14518,"Dec":14519,"udføre":14520,"kopplade":14521,"bekanta":14522,"oween":14523,"Kle":14524,"More":14525,"kommunicera":14526,"dukker":14527,"doden":14528,"tilhørende":14529,"blet":14530,"uken":14531,"introduktion":14532,"Charlotte":14533,"varmare":14534,"Torsdag":14535,"arligen":14536,"balkong":14537,"opgaven":14538,"skjedde":14539,"vesen":14540,"Fit":14541,"VS":14542,"iphone":14543,"individuella":14544,"reta":14545,"udlej":14546,"syl":14547,"fremtidige":14548,"bien":14549,"insektsart":14550,"ares":14551,"aliteten":14552,"havdar":14553,"traditioner":14554,"NAT":14555,"pill":14556,"Menne":14557,"bemot":14558,"EX":14559,"Lut":14560,"sengen":14561,"cou":14562,"tillverkade":14563,"utgjør":14564,"betting":14565,"Cafe":14566,"variation":14567,"Sikker":14568,"jævn":14569,"kommunikasjon":14570,"Personer":14571,"biten":14572,"forsakringen":14573,"værktøjer":14574,"raknat":14575,"frygt":14576,"bure":14577,"staf":14578,"Velkommen":14579,"serveras":14580,"arsag":14581,"beakt":14582,"utfors":14583,",«":14584,"knep":14585,"pekar":14586,"inven":14587,"begynne":14588,"idræ":14589,"right":14590,"avel":14591,"trotta":14592,"dragit":14593,"tappar":14594,"Salt":14595,"sanna":14596,"personalet":14597,"hanterar":14598,"godkjent":14599,"Sang":14600,"Ceci":14601,"delakt":14602,"peratur":14603,"trafikk":14604,"aterkommer":14605,"Time":14606,"hygien":14607,"table":14608,"stronom":14609,"kjæresten":14610,"salde":14611,"kigger":14612,"auti":14613,"cigar":14614,"heterna":14615,"stodet":14616,"VE":14617,"vidunder":14618,"idae":14619,"Fælles":14620,"Flor":14621,"Spørg":14622,"holt":14623,"opfattelse":14624,"Stads":14625,"Fortsatt":14626,"jal":14627,"svan":14628,"Gruppen":14629,"sjekke":14630,"ref":14631,"bygges":14632,"forrad":14633,"Mette":14634,"vannet":14635,"neutr":14636,"gie":14637,"Forsakring":14638,"Entre":14639,"ideen":14640,"sentral":14641,"garen":14642,"Bemærk":14643,"skota":14644,"kvinnorna":14645,"forsakringar":14646,"Smith":14647,"fortsette":14648,"skrap":14649,"Festival":14650,"regner":14651,"uppdatering":14652,"iro":14653,"Ville":14654,"forvanad":14655,"Multi":14656,"dome":14657,"Klockan":14658,"lador":14659,"kvallar":14660,"slor":14661,"barer":14662,"Samsung":14663,"iPad":14664,"fjernet":14665,"forholdene":14666,"syftet":14667,"row":14668,"flyga":14669,"padd":14670,"Inge":14671,"Bob":14672,"drejer":14673,"bai":14674,"skvalitet":14675,"langsomt":14676,"smæssig":14677,"begri":14678,"ævnet":14679,"sætningen":14680,"Alice":14681,"cupen":14682,"ides":14683,"drage":14684,"Livs":14685,"skriftligt":14686,"radande":14687,"stenen":14688,"Bjer":14689,"stracka":14690,"Logga":14691,"Bestalla":14692,"seud":14693,"oprindelige":14694,"sakerheten":14695,"skamt":14696,"spillerne":14697,"cerer":14698,"size":14699,"Your":14700,"leger":14701,"regerings":14702,"yderst":14703,"skontroll":14704,"Formalet":14705,"ssan":14706,"kontrast":14707,"hallbart":14708,"spridning":14709,"Mus":14710,"udføres":14711,"sau":14712,"antas":14713,"omsorgs":14714,"Kommunik":14715,"tankarna":14716,"sisten":14717,"Girl":14718,"teorier":14719,"wan":14720,"stjanster":14721,"djuren":14722,"preci":14723,"aterkommande":14724,"lægen":14725,"vitaminer":14726,"gruppens":14727,"kjøper":14728,"principer":14729,"Parker":14730,"onsul":14731,"’.":14732,"Rø":14733,"provet":14734,"innsats":14735,"israel":14736,"tægter":14737,"Blo":14738,"Amanda":14739,"søgning":14740,"derade":14741,"ledamot":14742,"Godt":14743,"Egentligen":14744,"orka":14745,"akul":14746,"Asien":14747,"udp":14748,"negative":14749,"alisera":14750,"strack":14751,"korkort":14752,"vikles":14753,"ssyn":14754,"Supp":14755,"sondags":14756,"Senere":14757,"bilaga":14758,"Autom":14759,"kørt":14760,"medicinska":14761,"klarat":14762,"suppler":14763,"troligtvis":14764,"Pic":14765,"spinn":14766,"hemliga":14767,"returner":14768,"direktivet":14769,"orsaken":14770,"stata":14771,"tjener":14772,"nærheden":14773,"tomma":14774,"finansinstitut":14775,"konfir":14776,"uppgiften":14777,"beslutninger":14778,"Jun":14779,"inntil":14780,"Strat":14781,"aftenen":14782,"fattas":14783,"MER":14784,"Bibliote":14785,"sante":14786,"portioner":14787,"apparat":14788,"synligt":14789,"endes":14790,"ønns":14791,"ursakt":14792,"mejl":14793,"fft":14794,"Tun":14795,"kjønn":14796,"send":14797,"reservat":14798,"heraf":14799,"klarte":14800,"nordvastra":14801,"delad":14802,"Skov":14803,"uto":14804,".«":14805,"aspe":14806,"ansøgning":14807,"South":14808,"besluta":14809,"attraktiv":14810,"analysera":14811,"Jamt":14812,"Sm":14813,"ashington":14814,"IKEA":14815,"Cli":14816,"Frankrig":14817,"Ahl":14818,"gitarr":14819,"upphovs":14820,"nodvandig":14821,"kyll":14822,"investera":14823,"avsikt":14824,"tull":14825,"boede":14826,"yren":14827,"Feli":14828,"venlige":14829,"afhængig":14830,"fisket":14831,"NOR":14832,"yttrande":14833,"grati":14834,"avslutning":14835,"Irland":14836,"assistent":14837,"størrelsen":14838,"word":14839,"mop":14840,"drifts":14841,"rass":14842,"Rød":14843,"varierande":14844,"lovgivning":14845,"varmer":14846,"Speciellt":14847,"ignor":14848,"helbred":14849,"pick":14850,"frekvens":14851,"fase":14852,"aterbetalning":14853,"utvardering":14854,"beslutat":14855,"sproblem":14856,"tify":14857,"bedoma":14858,"motes":14859,"hjarn":14860,"hyper":14861,"Allian":14862,"skratta":14863,"Byen":14864,"webshop":14865,"portratt":14866,"Forel":14867,"bestemmer":14868,"Videre":14869,"dirig":14870,"rakade":14871,"løg":14872,"glommer":14873,"Office":14874,"bæ":14875,"elektrisk":14876,"Hast":14877,"sprit":14878,"rengøring":14879,"skib":14880,"servicen":14881,"ansvars":14882,"upplys":14883,"Well":14884,"uppenbart":14885,"oppgave":14886,"Pir":14887,"Topp":14888,"Rund":14889,"startat":14890,"radsla":14891,"ument":14892,"overskri":14893,"flade":14894,"skiv":14895,"blott":14896,"rorande":14897,"Set":14898,"Tok":14899,"igheds":14900,"rytt":14901,"stov":14902,"neuro":14903,"Pier":14904,"Kvinde":14905,"Stør":14906,"dioxid":14907,"leggende":14908,"manads":14909,"ensamstaende":14910,"ljusa":14911,"Opfyldt":14912,"musikken":14913,"BU":14914,"jour":14915,"interna":14916,"wall":14917,"omstændig":14918,"belaget":14919,"tankande":14920,"problemen":14921,"bratt":14922,"lyssnade":14923,"tiderna":14924,"Frida":14925,"vandrare":14926,"hornet":14927,"dækning":14928,"godkannande":14929,"infora":14930,"elektronik":14931,"dansa":14932,"grunnen":14933,"Brøn":14934,"installera":14935,"Rem":14936,"klocka":14937,"IKT":14938,"iværksæ":14939,"gutter":14940,"strad":14941,"lugna":14942,"club":14943,"nifi":14944,"certifik":14945,"orsaka":14946,"Valg":14947,"luf":14948,"GD":14949,"Margar":14950,"nyder":14951,"\").":14952,"missade":14953,"adcirca":14954,"Kraft":14955,"sho":14956,"ialis":14957,"villing":14958,"CR":14959,"skim":14960,"iets":14961,"ated":14962,"slø":14963,"attack":14964,"Santa":14965,"stillende":14966,"utstallningen":14967,"Bell":14968,"IFK":14969,"’,":14970,"verkningar":14971,"relevanta":14972,"kerna":14973,"varon":14974,"kusin":14975,"indsigt":14976,"studenten":14977,"Bort":14978,"anas":14979,"ffin":14980,"opera":14981,"smid":14982,"kortere":14983,"konsulent":14984,"teste":14985,"VR":14986,"samlinger":14987,"flygplan":14988,
[...]
