{"version":"1.0","truncation":null,"padding":null,"added_tokens":[{"id":0,"special":true,"content":"<unk>","single_word":false,"lstrip":false,"rstrip":false,"normalized":false}],"normalizer":{"type":"Sequence","normalizers":[{"type":"NFD"},{"type":"StripAccents"}]},"pre_tokenizer":{"type":"Whitespace"},"post_processor":null,"decoder":{"type":"Metaspace","replacement":"▁","str_rep":"▁","add_prefix_space":true},"model":{"type":"BPE","dropout":null,"unk_token":null,"continuing_subword_prefix":null,"end_of_word_suffix":null,"fuse_unk":false,"vocab":{"<unk>":0,"!":1,"\"":2,"#":3,"$":4,"%":5,"&":6,"'":7,"(":8,")":9,"*":10,"+":11,",":12,"-":13,".":14,"/":15,"0":16,"1":17,"2":18,"3":19,"4":20,"5":21,"6":22,"7":23,"8":24,"9":25,":":26,";":27,"=":28,"?":29,"@":30,"A":31,"B":32,"C":33,"D":34,"E":35,"F":36,"G":37,"H":38,"I":39,"J":40,"K":41,"L":42,"M":43,"N":44,"O":45,"P":46,"Q":47,"R":48,"S":49,"T":50,"U":51,"V":52,"W":53,"X":54,"Y":55,"Z":56,"[":57,"\\":58,"]":59,"^":60,"_":61,"`":62,"a":63,"b":64,"c":65,"d":66,"e":67,"f":68,"g":69,"h":70,"i":71,"j":72,"k":73,"l":74,"m":75,"n":76,"o":77,"p":78,"q":79,"r":80,"s":81,"t":82,"u":83,"v":84,"w":85,"x":86,"y":87,"z":88,"{":89,"|":90,"}":91,"~":92,"¡":93,"£":94,"§":95,"¨":96,"«":97,"¬":98,"­":99,"®":100,"¯":101,"°":102,"±":103,"²":104,"³":105,"´":106,"µ":107,"·":108,"¹":109,"º":110,"»":111,"¼":112,"½":113,"¾":114,"Æ":115,"Ð":116,"×":117,"Ø":118,"Þ":119,"ß":120,"æ":121,"ð":122,"÷":123,"ø":124,"þ":125,"Đ":126,"đ":127,"Ħ":128,"ħ":129,"ı":130,"Ł":131,"ł":132,"ŋ":133,"Œ":134,"œ":135,"Ə":136,"ɐ":137,"ɑ":138,"ɒ":139,"ɔ":140,"ɕ":141,"ə":142,"ɛ":143,"ɡ":144,"ɨ":145,"ɪ":146,"ɾ":147,"ʀ":148,"ʁ":149,"ʃ":150,"ʊ":151,"ʌ":152,"ʒ":153,"ʔ":154,"ʰ":155,"ʲ":156,"ʹ":157,"ʻ":158,"ʼ":159,"ʾ":160,"ʿ":161,"ˈ":162,"ˌ":163,"ː":164,"˚":165,"Α":166,"Β":167,"Γ":168,"Δ":169,"Ε":170,"Ζ":171,"Η":172,"Θ":173,"Ι":174,"Κ":175,"Λ":176,"Μ":177,"Ν":178,"Ο":179,"Π":180,"Ρ":181,"Σ":182,"Τ":183,"Υ":184,"Φ":185,"Χ":186,"Ψ":187,"Ω":188,"α":189,"β":190,"γ":191,"δ":192,"ε":193,"ζ":194,"η":195,"θ":196,"ι":197,"κ":198,"λ":199,"μ":200,"ν":201,"ξ":202,"ο":203,"π":204,"ρ":205,"ς":206,"σ":207,"τ":208,"υ":209,"φ":210,"χ":211,"ψ":212,"ω":213,"І":214,"Ј":215,"А":216,"Б":217,"В":218,"Г":219,"Д":220,"Е":221,"Ж":222,"З":223,"И":224,"К":225,"Л":226,"М":227,"Н":228,"О":229,"П":230,"Р":231,"С":232,"Т":233,"У":234,"Ф":235,"Х":236,"Ц":237,"Ч":238,"Ш":239,"Э":240,"Ю":241,"Я":242,"а":243,"б":244,"в":245,"г":246,"д":247,"е":248,"ж":249,"з":250,"и":251,"к":252,"л":253,"м":254,"н":255,"о":256,"п":257,"р":258,"с":259,"т":260,"у":261,"ф":262,"х":263,"ц":264,"ч":265,"ш":266,"щ":267,"ъ":268,"ы":269,"ь":270,"э":271,"ю":272,"я":273,"і":274,"ј":275,"љ":276,"њ":277,"ћ":278,"џ":279,"қ":280,"ү":281,"ә":282,"ө":283,"Ա":284,"Լ":285,"Հ":286,"Մ":287,"Ս":288,"ա":289,"բ":290,"գ":291,"դ":292,"ե":293,"զ":294,"թ":295,"ի":296,"լ":297,"կ":298,"ղ":299,"մ":300,"յ":301,"ն":302,"շ":303,"ո":304,"ռ":305,"ս":306,"վ":307,"տ":308,"ր":309,"ւ":310,"ք":311,"א":312,"ב":313,"ג":314,"ד":315,"ה":316,"ו":317,"ז":318,"ח":319,"ט":320,"י":321,"כ":322,"ל":323,"ם":324,"מ":325,"ן":326,"נ":327,"ס":328,"ע":329,"ף":330,"פ":331,"צ":332,"ק":333,"ר":334,"ש":335,"ת":336,"ء":337,"ا":338,"ب":339,"ة":340,"ت":341,"ث":342,"ج":343,"ح":344,"خ":345,"د":346,"ذ":347,"ر":348,"ز":349,"س":350,"ش":351,"ص":352,"ض":353,"ط":354,"ظ":355,"ع":356,"غ":357,"ـ":358,"ف":359,"ق":360,"ك":361,"ل":362,"م":363,"ن":364,"ه":365,"و":366,"ى":367,"ي":368,"پ":369,"چ":370,"ژ":371,"ک":372,"گ":373,"ھ":374,"ہ":375,"ۆ":376,"ی":377,"ێ":378,"ە":379,"ܐ":380,"ܘ":381,"ܝ":382,"ܪ":383,"अ":384,"क":385,"ग":386,"च":387,"ज":388,"ट":389,"ड":390,"ण":391,"त":392,"द":393,"ध":394,"न":395,"प":396,"ब":397,"भ":398,"म":399,"य":400,"र":401,"ल":402,"व":403,"श":404,"ष":405,"स":406,"ह":407,"॥":408,"ক":409,"জ":410,"ত":411,"দ":412,"ন":413,"ব":414,"ম":415,"য":416,"র":417,"ল":418,"ਅ":419,"ਆ":420,"ਕ":421,"ਖ":422,"ਗ":423,"ਜ":424,"ਣ":425,"ਤ":426,"ਦ":427,"ਨ":428,"ਪ":429,"ਮ":430,"ਰ":431,"ਲ":432,"ਵ":433,"ਸ":434,"ਹ":435,"க":436,"ச":437,"ட":438,"த":439,"ன":440,"ப":441,"ம":442,"ர":443,"வ":444,"ల":445,"ก":446,"ค":447,"ง":448,"จ":449,"ช":450,"ด":451,"ต":452,"ท":453,"น":454,"บ":455,"ป":456,"พ":457,"ม":458,"ย":459,"ร":460,"ล":461,"ว":462,"ส":463,"ห":464,"อ":465,"ะ":466,"า":467,"เ":468,"་":469,"།":470,"ཀ":471,"ག":472,"ང":473,"ཆ":474,"ད":475,"ན":476,"པ":477,"བ":478,"མ":479,"འ":480,"ར":481,"ལ":482,"ས":483,"ა":484,"ბ":485,"გ":486,"დ":487,"ე":488,"ვ":489,"ზ":490,"თ":491,"ი":492,"კ":493,"ლ":494,"მ":495,"ნ":496,"ო":497,"პ":498,"რ":499,"ს":500,"ტ":501,"უ":502,"ფ":503,"ქ":504,"ყ":505,"შ":506,"ც":507,"ძ":508,"წ":509,"ხ":510,"ᄀ":511,"ᄂ":512,"ᄃ":513,"ᄅ":514,"ᄆ":515,"ᄇ":516,"ᄉ":517,"ᄋ":518,"ᄌ":519,"ᄎ":520,"ᄏ":521,"ᄐ":522,"ᄑ":523,"ᄒ":524,"ᅡ":525,"ᅢ":526,"ᅣ":527,"ᅥ":528,"ᅦ":529,"ᅧ":530,"ᅨ":531,"ᅩ":532,"ᅪ":533,"ᅬ":534,"ᅭ":535,"ᅮ":536,"ᅯ":537,"ᅱ":538,"ᅲ":539,"ᅳ":540,"ᅴ":541,"ᅵ":542,"ᆨ":543,"ᆫ":544,"ᆯ":545,"ᆷ":546,"ᆸ":547,"ᆺ":548,"ᆼ":549,"ᚢ":550,"ᚦ":551,"ᚱ":552,"ᚴ":553,"ᚾ":554,"ᛁ":555,"ᛅ":556,"ᛋ":557,"ᛏ":558,"᛫":559,"រ":560,"​":561,"‌":562,"‎":563,"‐":564,"‑":565,"–":566,"—":567,"‘":568,"’":569,"“":570,"”":571,"„":572,"†":573,"•":574,"…":575,"‰":576,"′":577,"″":578,"€":579,"℃":580,"ℓ":581,"№":582,"™":583,"⅓":584,"→":585,"∂":586,"∇":587,"∈":588,"−":589,"√":590,"∞":591,"≈":592,"≤":593,"≥":594,"⋅":595,"─":596,"│":597,"└":598,"├":599,"●":600,"★":601,"♠":602,"♥":603,"♭":604,"♯":605,"⟨":606,"⟩":607,"い":608,"う":609,"か":610,"き":611,"し":612,"た":613,"と":614,"の":615,"り":616,"ん":617,"ア":618,"イ":619,"ウ":620,"カ":621,"キ":622,"ク":623,"コ":624,"サ":625,"シ":626,"ス":627,"タ":628,"ッ":629,"テ":630,"ト":631,"ハ":632,"ヒ":633,"フ":634,"ホ":635,"マ":636,"ラ":637,"リ":638,"ル":639,"レ":640,"ロ":641,"ン":642,"・":643,"ー":644,"一":645,"丁":646,"七":647,"万":648,"三":649,"上":650,"下":651,"世":652,"东":653,"中":654,"丰":655,"临":656,"主":657,"义":658,"之":659,"乌":660,"乐":661,"九":662,"乡":663,"二":664,"云":665,"五":666,"井":667,"京":668,"人":669,"仁":670,"仙":671,"代":672,"伊":673,"会":674,"佛":675,"依":676,"保":677,"信":678,"元":679,"光":680,"克":681,"八":682,"公":683,"六":684,"兰":685,"关":686,"兴":687,"内":688,"军":689,"农":690,"凤":691,"刘":692,"利":693,"前":694,"劉":695,"力":696,"加":697,"勒":698,"化":699,"北":700,"区":701,"十":702,"千":703,"华":704,"南":705,"博":706,"卡":707,"原":708,"县":709,"双":710,"口":711,"古":712,"台":713,"司":714,"合":715,"吉":716,"同":717,"后":718,"吴":719,"周":720,"和":721,"哈":722,"唐":723,"嘉":724,"嘎":725,"四":726,"回":727,"团":728,"园":729,"国":730,"图":731,"國":732,"土":733,"地":734,"场":735,"址":736,"坊":737,"坑":738,"坝":739,"坡":740,"坪":741,"城":742,"堂":743,"堡":744,"塔":745,"塘":746,"士":747,"夏":748,"多":749,"大":750,"天":751,"太":752,"头":753,"女":754,"如":755,"子":756,"字":757,"学":758,"學":759,"宁":760,"安":761,"宋":762,"宗":763,"官":764,"定":765,"宝":766,"家":767,"富":768,"寨":769,"寺":770,"小":771,"尔":772,"尖":773,"尼":774,"居":775,"屯":776,"山":777,"屿":778,"岗":779,"岛":780,"岩":781,"岭":782,"峰":783,"島":784,"川":785,"州":786,"工":787,"巴":788,"市":789,"布":790,"帝":791,"干":792,"平":793,"年":794,"广":795,"庄":796,"庆":797,"库":798,"店":799,"庙":800,"府":801,"康":802,"建":803,"式":804,"张":805,"張":806,"彝":807,"彦":808,"徐":809,"德":810,"心":811,"成":812,"所":813,"扎":814,"拉":815,"政":816,"教":817,"文":818,"斯":819,"新":820,"方":821,"族":822,"旗":823,"日":824,"昌":825,"明":826,"星":827,"春":828,"普":829,"景":830,"曲":831,"會":832,"月":833,"朝":834,"木":835,"本":836,"朱":837,"机":838,"李":839,"村":840,"来":841,"杨":842,"東":843,"松":844,"林":845,"果":846,"查":847,"柳":848,"树":849,"株":850,"根":851,"格":852,"桃":853,"桑":854,"桥":855,"梁":856,"梅":857,"楼":858,"横":859,"正":860,"武":861,"毛":862,"民":863,"水":864,"永":865,"汉":866,"江":867,"池":868,"沙":869,"沟":870,"河":871,"治":872,"泉":873,"法":874,"波":875,"洋":876,"洛":877,"洞":878,"津":879,"洪":880,"洲":881,"流":882,"浦":883,"海":884,"清":885,"渡":886,"港":887,"湖":888,"湾":889,"源":890,"溪":891,"满":892,"滩":893,"漢":894,"潭":895,"灣":896,"热":897,"牛":898,"物":899,"特":900,"玉":901,"王":902,"玛":903,"珠":904,"理":905,"瓦":906,"生":907,"田":908,"甲":909,"界":910,"白":911,"百":912,"皇":913,"真":914,"石":915,"社":916,"神":917,"福":918,"秀":919,"秦":920,"空":921,"立":922,"章":923,"竹":924,"經":925,"红":926,"纳":927,"罗":928,"羅":929,"羊":930,"美":931,"群":932,"義":933,"老":934,"胜":935,"胡":936,"自":937,"良":938,"花":939,"苏":940,"苗":941,"英":942,"茶":943,"草":944,"華":945,"营":946,"藏":947,"虎":948,"行":949,"街":950,"西":951,"角":952,"谷":953,"赵":954,"路":955,"车":956,"达":957,"连":958,"通":959,"道":960,"遗":961,"那":962,"郎":963,"部":964,"郭":965,"都":966,"里":967,"野":968,"金":969,"铁":970,"铺":971,"错":972,"镇":973,"長":974,"长":975,"門":976,"门":977,"阳":978,"阿":979,"陈":980,"院":981,"陵":982,"隆":983,"雄":984,"雅":985,"集":986,"雪":987,"青":988,"音":989,"顶":990,"风":991,"香":992,"馬":993,"马":994,"高":995,"鲁":996,"麻":997,"黄":998,"黑":999,"龙":1000,"en":1001,"er":1002,"ar":1003,"an":1004,"et":1005,"st":1006,"or":1007,"in":1008,"de":1009,"om":1010,"at":1011,"li":1012,"ed":1013,"al":1014,"il":1015,"sk":1016,"ra":1017,"av":1018,"den":1019,"on":1020,"og":1021,"un":1022,"re":1023,"ch":1024,"ing":1025,"el":1026,"och":1027,"for":1028,"kt":1029,"am":1030,"te":1031,"le":1032,"la":1033,"med":1034,"and":1035,"som":1036,"der":1037,"lig":1038,"ri":1039,"ste":1040,"ter":1041,"var":1042,"ol":1043,"til":1044,"it":1045,"del":1046,"pa":1047,"ov":1048,"ur":1049,"ord":1050,"sta":1051,"ig":1052,"va":1053,"be":1054,"19":1055,"per":1056,"is":1057,"eter":1058,"se":1059,"ut":1060,"Den":1061,"det":1062,"da":1063,"att":1064,"man":1065,"na":1066,"op":1067,"land":1068,"sa":1069,"gen":1070,"ning":1071,"es":1072,"ik":1073,"us":1074,"ma":1075,"id":1076,"ger":1077,"ud":1078,"me":1079,"eder":1080,"ot":1081,"ck":1082,"isk":1083,"inn":1084,"sn":1085,"sen":1086,"men":1087,"kten":1088,"ber":1089,"sp":1090,"ran":1091,"are":1092,"art":1093,"ler":1094,"bord":1095,"han":1096,"ederbord":1097,"itt":1098,"od":1099,"ta":1100,"ne":1101,"ver":1102,"20":1103,"over":1104,"of":1105,"mm":1106,"ru":1107,"ion":1108,"tem":1109,"ga":1110,"under":1111,"meter":1112,"ke":1113,"ett":1114,"ble":1115,"har":1116,"pr":1117,"ska":1118,"sam":1119,"ul":1120,"run":1121,"fe":1122,"atur":1123,"till":1124,"rakten":1125,"hu":1126,"as":1127,"ør":1128,"jen":1129,"ster":1130,"ad":1131,"km":1132,"temper":1133,"ia":1134,"all":1135,"iv":1136,"ade":1137,"ge":1138,"sy":1139,"kom":1140,"medel":1141,"aturen":1142,"aden":1143,"temperaturen":1144,"ingar":1145,"medeltemperaturen":1146,"sla":1147,"In":1148,"vud":1149,"huvud":1150,"fra":1151,"snitt":1152,"Ar":1153,"manaden":1154,"ligger":1155,"van":1156,"omsnitt":1157,"hav":1158,"nederbord":1159,"os":1160,"em":1161,"reg":1162,"lan":1163,"rev":1164,"af":1165,"ok":1166,"pp":1167,"stor":1168,"ari":1169,"finn":1170,"ser":1171,"18":1172,"tr":1173,"ue":1174,"des":1175,"by":1176,"sj":1177,"trakten":1178,"fam":1179,"finns":1180,"kan":1181,"kil":1182,"mat":1183,"tor":1184,"fol":1185,"ktet":1186,"jan":1187,"um":1188,"ir":1189,"Det":1190,"Li":1191,"ometer":1192,"ost":1193,"skrev":1194,"kilometer":1195,"kal":1196,"opp":1197,"dr":1198,"nar":1199,"famil":1200,"mar":1201,"si":1202,"runt":1203,"arter":1204,"familjen":1205,"delen":1206,"het":1207,"maste":1208,"gan":1209,"landet":1210,"ens":1211,"kon":1212,"atal":1213,"slaktet":1214,"Han":1215,"beskrev":1216,"ic":1217,"ag":1218,"havet":1219,"ust":1220,"ene":1221,"beskrevs":1222,"lista":1223,"underarter":1224,"Life":1225,"atalog":1226,"ve":1227,"Catalog":1228,"Catalogue":1229,"staden":1230,"Inga":1231,"ug":1232,"listade":1233,"00":1234,"ær":1235,"mer":1236,"mil":1237,"kalla":1238,"son":1239,"ind":1240,"sl":1241,"ka":1242,"iga":1243,"bru":1244,"ske":1245,"nord":1246,"eller":1247,"huvudstaden":1248,"ju":1249,"ba":1250,"ist":1251,"br":1252,"sin":1253,"folk":1254,"ort":1255,"he":1256,"200":1257,"mun":1258,"ere":1259,"fl":1260,"kva":1261,"regn":1262,"ock":1263,"fter":1264,"ha":1265,"tal":1266,"ann":1267,"Gen":1268,"invan":1269,"ien":1270,"milli":1271,"blev":1272,"tid":1273,"ell":1274,"invanare":1275,"janu":1276,"je":1277,"ven":1278,"vast":1279,"lag":1280,"yr":1281,"Ars":1282,"Arsmedeltemperaturen":1283,"varmaste":1284,"kallaste":1285,"syd":1286,"drat":1287,"yt":1288,"kvadrat":1289,"ten":1290,"igaste":1291,"kvadratkilometer":1292,"millimeter":1293,"raste":1294,"genomsnitt":1295,"før":1296,"omsnittlig":1297,"sak":1298,"arsn":1299,"torraste":1300,"Genomsnittlig":1301,"arsnederbord":1302,"regnigaste":1303,"arna":1304,"limat":1305,"nor":1306,"vax":1307,"ande":1308,"fran":1309,"ro":1310,"januari":1311,"An":1312,"vid":1313,"ala":1314,"bor":1315,"lit":1316,"bet":1317,"La":1318,"gar":1319,"hol":1320,"juli":1321,"pl":1322,"ling":1323,"ation":1324,"201":1325,"ker":1326,"befolk":1327,"iske":1328,"St":1329,"kr":1330,"giv":1331,"ved":1332,"dt":1333,"unt":1334,"ft":1335,"sig":1336,"kl":1337,"vil":1338,"mot":1339,"eg":1340,"kommun":1341,"ub":1342,"ang":1343,"vis":1344,"iska":1345,"ovin":1346,"upp":1347,"hi":1348,"hog":1349,"hal":1350,"byg":1351,"ende":1352,"skap":1353,"ent":1354,"ks":1355,"berg":1356,").":1357,"ember":1358,"heten":1359,"net":1360,"ket":1361,"De":1362,"di":1363,"199":1364,"ant":1365,"ss":1366,"rader":1367,"ken":1368,"ugust":1369,"ab":1370,"fø":1371,"ak":1372,"get":1373,"huvudsak":1374,"ier":1375,"sjon":1376,"pun":1377,"ds":1378,"Al":1379,"yn":1380,"provin":1381,"par":1382,"vi":1383,"bar":1384,"august":1385,"efter":1386,"Trakten":1387,"oder":1388,"ob":1389,"gs":1390,"fi":1391,"min":1392,"les":1393,"rangen":1394,"Ch":1395,"gra":1396,"lige":1397,"uni":1398,"En":1399,"provinsen":1400,"val":1401,"ti":1402,"kun":1403,"jer":1404,"ce":1405,"tet":1406,"198":1407,"stat":1408,"star":1409,"dra":1410,"narheten":1411,"mal":1412,"red":1413,"17":1414,"ningen":1415,"\".":1416,"to":1417,"jon":1418,"kri":1419,"etter":1420,"ingen":1421,"jar":1422,"klimat":1423,"far":1424,"spel":1425,"gi":1426,"hogsta":1427,"tra":1428,"ek":1429,"ogsa":1430,"ner":1431,"197":1432,"),":1433,"\",":1434,"fa":1435,"Ter":1436,"yl":1437,"amp":1438,"ill":1439,"Runt":1440,"skri":1441,"im":1442,"ionen":1443,"augusti":1444,"ap":1445,"her":1446,"punkten":1447,"ikk":1448,"befolkat":1449,"ater":1450,"dar":1451,"ny":1452,"ie":1453,"sten":1454,"ty":1455,"ou":1456,"gr":1457,"bli":1458,"ina":1459,"oc":1460,"ningarna":1461,"gj":1462,"196":1463,"hel":1464,"Un":1465,"radet":1466,"kar":1467,"ana":1468,"tre":1469,"pre":1470,"Terrangen":1471,"ry":1472,"ikke":1473,"mel":1474,"grun":1475,"po":1476,"gt":1477,"oster":1478,"cen":1479,"mark":1480,"øy":1481,"febru":1482,"givningarna":1483,"talet":1484,"skog":1485,"slut":1486,"ige":1487,"vatt":1488,"hen":1489,"Nor":1490,"ale":1491,"und":1492,"io":1493,"ogra":1494,"ligt":1495,"rit":1496,"Jo":1497,"bo":1498,"alt":1499,"juni":1500,"Pa":1501,"las":1502,"nam":1503,"str":1504,"ein":1505,"For":1506,"gel":1507,"16":1508,"bland":1509,"Le":1510,"Nar":1511,"sydost":1512,"bil":1513,"15":1514,"sep":1515,"fram":1516,"tva":1517,"ku":1518,"ans":1519,"fin":1520,"Ma":1521,"hans":1522,"vor":1523,"seg":1524,"hus":1525,"ly":1526,"sø":1527,"hor":1528,"fil":1529,"ex":1530,"iet":1531,"okt":1532,"194":1533,"ober":1534,"195":1535,"nes":1536,"uk":1537,"fler":1538,"tat":1539,"my":1540,"mo":1541,"led":1542,"ja":1543,"sel":1544,"Mar":1545,"nordvast":1546,"dom":1547,"had":1548,"vaster":1549,"dec":1550,"sart":1551,"kor":1552,"ca":1553,"forst":1554,"aven":1555,"februari":1556,"ligen":1557,"norr":1558,"ard":1559,"oll":1560,"stad":1561,"alb":1562,"nov":1563,"193":1564,"ben":1565,"ulle":1566,"ham":1567,"oppen":1568,"vaxt":1569,"storre":1570,"hon":1571,"ades":1572,"vatten":1573,"ane":1574,"oli":1575,"nordost":1576,"lat":1577,"Fran":1578,"december":1579,"hadde":1580,"vart":1581,"tember":1582,"andre":1583,"september":1584,"hand":1585,"indre":1586,"første":1587,"plat":1588,"rin":1589,"Ne":1590,"centr":1591,"Et":1592,"ali":1593,"bestar":1594,"sti":1595,"ow":1596,"spil":1597,"liga":1598,"ung":1599,"ansk":1600,"vær":1601,"verk":1602,"soder":1603,"10":1604,"rade":1605,"sydvast":1606,"sitt":1607,"inte":1608,"fod":1609,"ong":1610,"november":1611,"mus":1612,"ei":1613,"inne":1614,"ningsom":1615,"hade":1616,"akt":1617,"dø":1618,"res":1619,"lar":1620,"fors":1621,"ets":1622,"bl":1623,"fri":1624,"ida":1625,"stra":1626,"else":1627,"ton":1628,"amer":1629,"wa":1630,"dig":1631,"leg":1632,"Ku":1633,"lang":1634,"ts":1635,"ili":1636,"nu":1637,"kuper":1638,"gru":1639,"sven":1640,"uc":1641,"ata":1642,"Lake":1643,"ron":1644,"hvor":1645,"sit":1646,"mars":1647,"andra":1648,"mindre":1649,"samt":1650,"rikt":1651,"bel":1652,"iser":1653,"kuperad":1654,"mann":1655,"ære":1656,"oktober":1657,"halle":1658,"fer":1659,"jord":1660,"kra":1661,"hj":1662,"samhalle":1663,"est":1664,"hov":1665,"iskt":1666,"kring":1667,"lik":1668,"fatt":1669,"tur":1670,"rik":1671,"vik":1672,"drag":1673,"olog":1674,"ganska":1675,"Narmaste":1676,"vand":1677,"kte":1678,"ski":1679,"Om":1680,"kel":1681,"pen":1682,"ara":1683,"inter":1684,"Sver":1685,"ott":1686,"tes":1687,"hun":1688,"gang":1689,"bi":1690,"Ber":1691,"Be":1692,"regionen":1693,"form":1694,"rom":1695,"rem":1696,"lø":1697,"ho":1698,"bu":1699,"192":1700,"centrala":1701,"mp":1702,"Sp":1703,"apr":1704,"14":1705,"alen":1706,"ele":1707,"maj":1708,"yd":1709,"lin":1710,"Re":1711,"gles":1712,"au":1713,"æn":1714,"lem":1715,"prod":1716,"april":1717,"tog":1718,"siden":1719,"dag":1720,"mi":1721,"dre":1722,"nara":1723,"co":1724,"arbe":1725,"glesbefolkat":1726,"aren":1727,"født":1728,"øn":1729,"allet":1730,"no":1731,"Toppen":1732,"namn":1733,"omgivningarna":1734,"lad":1735,"vaxer":1736,"190":1737,"gor":1738,"Mo":1739,"mon":1740,"The":1741,"12":1742,"omradet":1743,"jande":1744,"Par":1745,"Sa":1746,"ret":1747,"13":1748,"nings":1749,"forb":1750,"nog":1751,"lands":1752,"fly":1753,"arl":1754,"Kuh":1755,"forsta":1756,"skulle":1757,"Me":1758,"ings":1759,"fick":1760,"platt":1761,"stil":1762,"off":1763,"beg":1764,"ine":1765,"amerik":1766,"fodd":1767,"met":1768,"ban":1769,"fta":1770,"kk":1771,"len":1772,"Ba":1773,"bygg":1774,"san":1775,"liv":1776,"band":1777,"tar":1778,"sat":1779,"rad":1780,"ert":1781,"gav":1782,"ningar":1783,"delstat":1784,"don":1785,"rak":1786,"ned":1787,"tv":1788,"ris":1789,"Sk":1790,"satt":1791,"erne":1792,"foljande":1793,"hem":1794,"rat":1795,"Sch":1796,"ys":1797,"ella":1798,"vattendrag":1799,"fjar":1800,"histor":1801,"ull":1802,"part":1803,"dis":1804,"ich":1805,"stand":1806,"old":1807,"holm":1808,"genom":1809,"ren":1810,"ac":1811,"ellom":1812,"ns":1813,"erna":1814,"omkring":1815,"\")":1816,"plan":1817,"tatbefolkat":1818,"bred":1819,"edan":1820,"kv":1821,"gjor":1822,"Sverige":1823,"cket":1824,"polit":1825,"nav":1826,"onen":1827,"ars":1828,"Stor":1829,"000":1830,"Under":1831,"dens":1832,"up":1833,"person":1834,"hall":1835,"Her":1836,"mmer":1837,"stru":1838,"ci":1839,"Dan":1840,"sammen":1841,"pla":1842,"lov":1843,"huvudsakligen":1844,"dem":1845,"189":1846,"Bo":1847,"(\"":1848,"nen":1849,"tidig":1850,"fun":1851,"forsk":1852,"ef":1853,"SA":1854,"skil":1855,"sjo":1856,"kke":1857,"mentet":1858,"El":1859,"dan":1860,"ki":1861,"gjen":1862,"sv":1863,"brit":1864,"vaxtart":1865,"mellom":1866,"ae":1867,"inge":1868,"vilket":1869,"fot":1870,"alle":1871,"skapet":1872,"mu":1873,"arbet":1874,"føl":1875,"Man":1876,"fjaril":1877,"kn":1878,"ede":1879,"mor":1880,"grupp":1881,"Da":1882,"mycket":1883,"yp":1884,"frem":1885,"Co":1886,"lia":1887,"jor":1888,"kter":1889,"rinningsom":1890,"Nord":1891,"hed":1892,"sted":1893,"skland":1894,"syfta":1895,"hø":1896,"kommer":1897,"Ot":1898,"San":1899,"sing":1900,"Ha":1901,"gjorde":1902,"iker":1903,"ister":1904,"sklimat":1905,"dri":1906,"ff":1907,"Gu":1908,"kommunen":1909,"kjen":1910,"nom":1911,"befolkad":1912,"Ge":1913,"Tr":1914,"gu":1915,"set":1916,"elle":1917,"atter":1918,"vat":1919,"bas":1920,"flere":1921,"stør":1922,"bra":1923,"ess":1924,"delse":1925,"tok":1926,"pe":1927,"mest":1928,"Se":1929,"storsta":1930,"styr":1931,"dist":1932,"odra":1933,"vaxter":1934,"dod":1935,"cer":1936,"ocksa":1937,"fore":1938,"188":1939,"qu":1940,"riktning":1941,"vel":1942,"USA":1943,"versit":1944,"idae":1945,"inga":1946,"pro":1947,"anada":1948,"Ut":1949,"samling":1950,"Or":1951,"mod":1952,"blir":1953,"flyt":1954,"kj":1955,"kyr":1956,"Bar":1957,"Bra":1958,"dte":1959,"11":1960,"borg":1961,"ole":1962,"ya":1963,"Te":1964,"rel":1965,"obefolkad":1966,"mellan":1967,"denne":1968,"album":1969,"grund":1970,"ligere":1971,"gam":1972,"bade":1973,"lien":1974,"ye":1975,"jordbru":1976,"Som":1977,"jur":1978,"Efter":1979,"Hel":1980,"kall":1981,"vit":1982,"rid":1983,"lighet":1984,"delstaten":1985,"30":1986,"ola":1987,"vest":1988,"æl":1989,"organ":1990,"nas":1991,"Wil":1992,"Stock":1993,"stall":1994,"New":1995,"hn":1996,"bur":1997,"svar":1998,"pub":1999,"stu":2000,"svensk":2001,"mid":2002,"Omgivningarna":2003,"rett":2004,"sty":2005,"Ro":2006,"fik":2007,"elsen":2008,"natur":2009,"ats":2010,"vin":2011,"bore":2012,"..":2013,"Sam":2014,"syn":2015,"ment":2016,"pri":2017,"Is":2018,"lant":2019,"klar":2020,"Pr":2021,"samman":2022,"sedan":2023,"nad":2024,"ica":2025,"kul":2026,"Eur":2027,"skol":2028,"let":2029,"Col":2030,"uss":2031,"zonen":2032,"nation":2033,"lis":2034,"Stockholm":2035,"ive":2036,"Fin":2037,"inger":2038,"gre":2039,"ommun":2040,"enn":2041,"dette":2042,"Mon":2043,"Har":2044,"sydostra":2045,"kraft":2046,"konom":2047,"ula":2048,"lam":2049,"platser":2050,"boreala":2051,"klimatzonen":2052,"mange":2053,"oss":2054,"fikk":2055,"dei":2056,"elt":2057,"Hen":2058,"187":2059,"igt":2060,"eit":2061,"stem":2062,"fle":2063,"II":2064,"186":2065,"dal":2066,"hoved":2067,"være":2068,"mens":2069,"fjarilsart":2070,"laget":2071,"lav":2072,"klub":2073,"bok":2074,"hold":2075,"Hon":2076,"ian":2077,"jordbruks":2078,"ast":2079,"asjon":2080,"grunn":2081,"ip":2082,"lu":2083,"int":2084,"presen":2085,"avann":2086,"slag":2087,"ct":2088,"Kanada":2089,"50":2090,"stod":2091,"Hans":2092,"annat":2093,"iner":2094,"tvav":2095,"atte":2096,"musik":2097,"egen":2098,"Art":2099,"heter":2100,"byen":2101,"vir":2102,"opiskt":2103,"yg":2104,"lo":2105,"veck":2106,"do":2107,"store":2108,"hos":2109,"Der":2110,"spe":2111,"lagt":2112,"vet":2113,"ninger":2114,"Ty":2115,"Kon":2116,"ko":2117,"Per":2118,"jordbruksmark":2119,"Hi":2120,"dels":2121,"havde":2122,"pet":2123,"utan":2124,"sodra":2125,"norra":2126,"cker":2127,"bla":2128,"sch":2129,"ile":2130,"film":2131,"sid":2132,"Hun":2133,"sar":2134,"tvavinge":2135,"tvavingeart":2136,"alla":2137,"rist":2138,"mis":2139,"selv":2140,"Cer":2141,"Lac":2142,"pt":2143,"rum":2144,"ogram":2145,"kur":2146,"Th":2147,"Otta":2148,"try":2149,"kort":2150,"Ottawa":2151,"pel":2152,"sma":2153,"kunne":2154,"ide":2155,"mand":2156,"oph":2157,"Ta":2158,"hver":2159,"Norge":2160,"ges":2161,"kir":2162,"fem":2163,"død":2164,"omgiv":2165,"vann":2166,"Ett":2167,"stan":2168,"kat":2169,"sør":2170,"Cre":2171,"dess":2172,"ora":2173,"tidligere":2174,"skal":2175,"the":2176,"ses":2177,"god":2178,"ukt":2179,"spiller":2180,"senere":2181,"anske":2182,"djur":2183,"kes":2184,"inom":2185,"samma":2186,"utbred":2187,"annet":2188,"ensis":2189,"øst":2190,"gras":2191,"ium":2192,"ph":2193,"aller":2194,"25":2195,"uten":2196,"avrinningsom":2197,"ote":2198,"ins":2199,"du":2200,"He":2201,"kamp":2202,"sine":2203,"begyn":2204,"eri":2205,"mmet":2206,"oly":2207,"medlem":2208,"ni":2209,"era":2210,"Frankri":2211,"gte":2212,"start":2213,"Ra":2214,"ratt":2215,"litt":2216,"Ka":2217,"Johan":2218,"oppet":2219,"nær":2220,"ville":2221,"lite":2222,"marker":2223,"Ste":2224,"gener":2225,"minist":2226,"Med":2227,"opa":2228,"parte":2229,"iden":2230,"sal":2231,"Aust":2232,"lok":2233,"stam":2234,"tallet":2235,"kand":2236,"like":2237,"kop":2238,"forts":2239,"basen":2240,"engel":2241,"vært":2242,"aret":2243,"ire":2244,"riks":2245,"2010":2246,"tiden":2247,"vag":2248,"anvand":2249,"vikt":2250,"ioner":2251,"inse":2252,"rich":2253,"represen":2254,"disse":2255,"trad":2256,"John":2257,"itet":2258,"lade":2259,"ostra":2260,"Fra":2261,"ald":2262,"sc":2263,"At":2264,"Av":2265,"fisk":2266,"øt":2267,"che":2268,"ivis":2269,"fyl":2270,"foren":2271,"Kommun":2272,"departe":2273,"prof":2274,"vara":2275,"ktor":2276,"risti":2277,"samme":2278,"Ad":2279,"za":2280,"oma":2281,"Ko":2282,"Va":2283,"Bred":2284,"famili":2285,"ød":2286,"norsk":2287,"go":2288,"ator":2289,"ceae":2290,"pper":2291,"Creek":2292,"gjennom":2293,"Hol":2294,"jo":2295,"ander":2296,"gende":2297,"vastra":2298,"Lon":2299,"ring":2300,"sson":2301,"slo":2302,"pra":2303,"sol":2304,"ick":2305,"Etter":2306,"fan":2307,"rek":2308,"24":2309,"Klimat":2310,"fort":2311,"2008":2312,"vok":2313,"gren":2314,"flera":2315,"bed":2316,"andet":2317,"Con":2318,"Dette":2319,"2007":2320,"Po":2321,"bak":2322,"omgivande":2323,"tu":2324,"fast":2325,"von":2326,"ate":2327,"dene":2328,"skar":2329,"ball":2330,"2006":2331,"stud":2332,"gere":2333,"øl":2334,"blant":2335,"komp":2336,"nyt":2337,"sprak":2338,"terrangen":2339,"gick":2340,"Bu":2341,"varl":2342,"peri":2343,"fj":2344,"sina":2345,"2000":2346,"hy":2347,"versitet":2348,"Bredden":2349,"tag":2350,"ofte":2351,"departementet":2352,"enligt":2353,"tan":2354,"hemi":2355,"dere":2356,"tilba":2357,"fall":2358,"senare":2359,"Finland":2360,"barn":2361,"oner":2362,"ps":2363,"kol":2364,"21":2365,"Sy":2366,"olika":2367,"ish":2368,"sker":2369,"kommune":2370,"utveck":2371,"hemiboreala":2372,"Mal":2373,"Sc":2374,"perio":2375,"Tor":2376,"Eng":2377,"Kar":2378,"nag":2379,"Su":2380,"bergig":2381,"end":2382,"185":2383,"dock":2384,"gift":2385,"ius":2386,"2011":2387,"ena":2388,"anska":2389,"tred":2390,"Que":2391,"Histor":2392,"vaxtlighet":2393,"ningsomrade":2394,"unn":2395,"pas":2396,"kin":2397,"æt":2398,"ført":2399,"Danmark":2400,"23":2401,"ea":2402,"Mor":2403,"Ed":2404,"lingen":2405,"konst":2406,"nat":2407,"alder":2408,"mit":2409,"publi":2410,"Carl":2411,"gens":2412,"deres":2413,"Geor":2414,"bia":2415,"pop":2416,"ura":2417,"eld":2418,"Frankrike":2419,"2009":2420,"Ja":2421,"Car":2422,"dy":2423,"Artens":2424,"Ver":2425,"detta":2426,"London":2427,"lever":2428,"Men":2429,"utbredningsomrade":2430,"184":2431,"ografi":2432,"Tropiskt":2433,"oppr":2434,"dire":2435,"Sta":2436,"22":2437,"blandskog":2438,"kla":2439,"nye":2440,"flug":2441,"Mel":2442,"Medel":2443,"burg":2444,"Karl":2445,"tidigare":2446,"bin":2447,"tran":2448,"oper":2449,"ationen":2450,"rer":2451,"bre":2452,"strom":2453,"Tyskland":2454,"stort":2455,"».":2456,"2005":2457,"nem":2458,"Ph":2459,"Kr":2460,"amerikansk":2461,"Del":2462,"OL":2463,"moder":2464,"2012":2465,"Ri":2466,"Arten":2467,"cia":2468,"innan":2469,"oken":2470,"gall":2471,"januar":2472,"aler":2473,"nt":2474,"Uni":2475,"one":2476,"Gr":2477,"28":2478,"songen":2479,"Austra":2480,"jet":2481,"Br":2482,"arten":2483,"igen":2484,"navn":2485,"Are":2486,"26":2487,"albag":2488,"ider":2489,"skalbag":2490,"kjent":2491,"høy":2492,"Cerro":2493,"Bi":2494,"nasjon":2495,"kam":2496,"27":2497,"tysk":2498,"klas":2499,"Ju":2500,"eng":2501,"Ser":2502,"minister":2503,"ota":2504,"sammans":2505,"foret":2506,"Ho":2507,"Klimatet":2508,"forsamling":2509,"mester":2510,"spor":2511,"Europa":2512,"ologi":2513,"flugor":2514,"dae":2515,"bruk":2516,"Mex":2517,"organis":2518,"sett":2519,"natt":2520,"VM":2521,"Ca":2522,"fte":2523,"ions":2524,"britann":2525,"halv":2526,"vant":2527,"kvinn":2528,"dansk":2529,"Lu":2530,"sem":2531,"TV":2532,"tillhor":2533,"Storbritann":2534,"hur":2535,"ama":2536,"ity":2537,"alv":2538,"svenska":2539,"blom":2540,"fire":2541,"Cor":2542,"enda":2543,"arta":2544,"Jak":2545,"borj":2546,"gran":2547,"sle":2548,"ofta":2549,"con":2550,"ucer":2551,"2004":2552,"Savann":2553,"Savannklimat":2554,"antalet":2555,"full":2556,"ope":2557,"plass":2558,"største":2559,"ivt":2560,"ristian":2561,"Bor":2562,"rundt":2563,"insekt":2564,"uden":2565,"exem":2566,"So":2567,"ey":2568,"administ":2569,"Helsing":2570,"cher":2571,"fal":2572,"esi":2573,"Char":2574,"blitt":2575,"gard":2576,"nade":2577,"Dar":2578,"aten":2579,"skj":2580,"ym":2581,"ful":2582,"milit":2583,"verden":2584,"por":2585,"list":2586,"ico":2587,"2016":2588,"utom":2589,"distri":2590,"namnet":2591,"fag":2592,"kultur":2593,"gul":2594,"tredje":2595,"gsart":2596,"stre":2597,"ice":2598,"Kina":2599,"Ind":2600,"Ny":2601,"divis":2602,"Gra":2603,"elser":2604,"29":2605,"yra":2606,"ley":2607,"grav":2608,"karri":2609,"Land":2610,"erat":2611,"Ale":2612,"igh":2613,"Ham":2614,"representer":2615,"cent":2616,"lede":2617,"ktur":2618,"grasmarker":2619,"profess":2620,"ytter":2621,"ppklimat":2622,"lor":2623,"søn":2624,"skole":2625,"indel":2626,"ekonom":2627,"fred":2628,"kallt":2629,"Fil":2630,"Gun":2631,"rig":2632,"skalbaggsart":2633,"sport":2634,"kvar":2635,"2014":2636,"plats":2637,"Vid":2638,"insektsart":2639,"slaget":2640,"arbej":2641,"tot":2642,"sub":2643,"Je":2644,"manga":2645,"Di":2646,"England":2647,"mang":2648,"ons":2649,"øm":2650,"gent":2651,"ona":2652,"Fr":2653,"ori":2654,"Na":2655,"bilda":2656,"serien":2657,"100":2658,"gangen":2659,"40":2660,"gjort":2661,"gruppen":2662,"helt":2663,"inde":2664,"gje":2665,"cir":2666,"bety":2667,"Fri":2668,"Brasi":2669,"1990":2670,"Mu":2671,"sjonen":2672,"2013":2673,"kap":2674,"medal":2675,"sun":2676,"ationer":2677,"fatter":2678,"ror":2679,"ze":2680,"but":2681,"ika":2682,"delt":2683,"omrade":2684,"ition":2685,"hallen":2686,"førte":2687,"Er":2688,"sert":2689,"gitt":2690,"hør":2691,"gikk":2692,"Hu":2693,"tillsammans":2694,"olf":2695,"2015":2696,"ila":2697,"vig":2698,"1970":2699,"kket":2700,"bild":2701,"Reg":2702,"studer":2703,"kunst":2704,"omfatt":2705,"muse":2706,"pers":2707,"bare":2708,"gallande":2709,"To":2710,"Fol":2711,"huset":2712,"Arean":2713,"ops":2714,"rag":2715,"Peter":2716,"Am":2717,"Com":2718,"infor":2719,"sær":2720,"stappklimat":2721,"lege":2722,"væ":2723,"su":2724,"otter":2725,"denna":2726,"anden":2727,"filmen":2728,"stit":2729,"1980":2730,"slakte":2731,"Oslo":2732,"dog":2733,"As":2734,"lades":2735,"alli":2736,"Ol":2737,"buskland":2738,"Sel":2739,"busklandskap":2740,"spr":2741,"stora":2742,"port":2743,"unge":2744,"konkur":2745,"Rom":2746,"Sven":2747,"sydlig":2748,"personer":2749,"hele":2750,"borjade":2751,"Iran":2752,"forsvar":2753,"Andre":2754,"leder":2755,"legg":2756,"gene":2757,"hennes":2758,"popul":2759,"ira":2760,"gl":2761,"landsk":2762,"kite":2763,"utvik":2764,"navnet":2765,"60":2766,"Ben":2767,"exempel":2768,"pil":2769,"stads":2770,"kulle":2771,"Ita":2772,"bro":2773,"tit":2774,"februar":2775,"Antalet":2776,"elen":2777,"Ru":2778,"olen":2779,"spelare":2780,"bara":2781,"cu":2782,"mellem":2783,"norske":2784,"skab":2785,"reger":2786,"først":2787,"illa":2788,"ani":2789,"Wal":2790,"bandet":2791,"2003":2792,"sydvastra":2793,"Ved":2794,"via":2795,"albumet":2796,"motor":2797,"Pe":2798,"unta":2799,"sock":2800,"vo":2801,"pav":2802,"Willi":2803,"menne":2804,"2002":2805,"Hav":2806,"tatt":2807,"ork":2808,"vastlig":2809,"havn":2810,"Helsingfors":2811,"Indon":2812,"universitet":2813,"bane":2814,"ustri":2815,"medle":2816,"jø":2817,"Rio":2818,"eur":2819,"etab":2820,"næ":2821,"1960":2822,"nordostra":2823,"dor":2824,"forfatt":2825,"»,":2826,"arran":2827,"okenklimat":2828,"holdt":2829,"bb":2830,"ots":2831,"Indones":2832,"flyg":2833,"oni":2834,"partiet":2835,"fann":2836,"noen":2837,"døde":2838,"hoj":2839,"fest":2840,"alp":2841,"Vi":2842,"183":2843,"skade":2844,"Si":2845,"2001":2846,"Kommunen":2847,"arbeid":2848,"Sen":2849,"distriktet":2850,"tro":2851,"sor":2852,"gron":2853,"kines":2854,"hl":2855,"landsklimat":2856,"Lag":2857,"jorden":2858,"Bro":2859,"mas":2860,"2018":2861,"atus":2862,"præ":2863,"forbun":2864,"ino":2865,"jarn":2866,"stracker":2867,"vers":2868,"noe":2869,"lovskog":2870,"blad":2871,"resul":2872,"krit":2873,"roll":2874,"sident":2875,"ellt":2876,"Des":2877,"tyske":2878,"tav":2879,"Jam":2880,"spar":2881,"William":2882,"syste":2883,"Indonesien":2884,"litter":2885,"ften":2886,"ise":2887,"sil":2888,"vert":2889,"oci":2890,"etabler":2891,"enskap":2892,"back":2893,"2017":2894,"tekn":2895,"City":2896,"ky":2897,"grad":2898,"menter":2899,"fel":2900,"sang":2901,"ighet":2902,"hjem":2903,"sag":2904,"iz":2905,"ganger":2906,"rol":2907,"isse":2908,"fart":2909,"perioden":2910,"Syd":2911,"stein":2912,"Ve":2913,"side":2914,"heran":2915,"dare":2916,"pat":2917,"Mad":2918,"tede":2919,"naturlig":2920,"producer":2921,"allt":2922,"samhallen":2923,"raden":2924,"Mag":2925,"ash":2926,"nis":2927,"sjalv":2928,"sex":2929,"idet":2930,"ua":2931,"stri":2932,"læ":2933,"anda":2934,"enkel":2935,"1999":2936,"Jakarta":2937,"nok":2938,"stekel":2939,"servat":2940,"hr":2941,"Dav":2942,"ener":2943,"Mari":2944,"Var":2945,"amerikanske":2946,"skriv":2947,"Teheran":2948,"bid":2949,"ftet":2950,"dessa":2951,"Ander":2952,"ille":2953,"følge":2954,"flo":2955,"steklar":2956,"Mount":2957,"ep":2958,"kker":2959,"Val":2960,"Cha":2961,"rike":2962,"area":2963,"yer":2964,"ux":2965,"eta":2966,"olymp":2967,"plas":2968,"boll":2969,"mask":2970,"its":2971,"Oster":2972,"ovjet":2973,"Kor":2974,"stekelart":2975,"Inter":2976,"nummer":2977,"illet":2978,"ita":2979,"lev":2980,"itali":2981,"handling":2982,"iva":2983,"nya":2984,"nordvastra":2985,"gas":2986,"We":2987,"cirka":2988,"Paris":2989,"mosa":2990,"klubben":2991,"Mart":2992,"persiska":2993,"ros":2994,"isjon":2995,"lande":2996,"Af":2997,"Ga":2998,"øya":2999,"sjø":3000,"cy":3001,"Kø":3002,"sna":3003,"mere":3004,"bert":3005,"omy":3006,"80":3007,"bon":3008,"ellige":3009,"sent":3010,"Bur":3011,"chen":3012,"Pri":3013,"rukt":3014,"øre":3015,"uth":3016,"udd":3017,"Kir":3018,"shuvudstaden":3019,"træ":3020,"spelade":3021,"Paul":3022,"Span":3023,"gat":3024,"jern":3025,"bran":3026,"støt":3027,"ova":3028,"istan":3029,"kontr":3030,"if":3031,"Medelhav":3032,"ekonomiska":3033,"pol":3034,"sens":3035,"djursart":3036,"bal":3037,"sku":3038,"verksam":3039,"Lin":3040,"ric":3041,"Mus":3042,"Gar":3043,"Sal":3044,"større":3045,"landskapet":3046,"pan":3047,"atta":3048,"familien":3049,"70":3050,"arkite":3051,"innen":3052,"jerne":3053,"cis":3054,"Ex":3055,"stats":3056,"Medelhavsklimat":3057,"Sør":3058,"we":3059,"iel":3060,"myn":3061,"dyr":3062,"industri":3063,"Go":3064,"tru":3065,"hot":3066,"system":3067,"180":3068,"tilbake":3069,"siste":3070,"ford":3071,"inkl":3072,"kateg":3073,"ji":3074,"zz":3075,"eln":3076,"kirke":3077,"jene":3078,"31":3079,"langt":3080,"mes":3081,"mai":3082,"varier":3083,"tak":3084,"ava":3085,"fyra":3086,"nytt":3087,"erte":3088,"1998":3089,"varit":3090,"vist":3091,"bygget":3092,"kunde":3093,"øv":3094,"ides":3095,"Fa":3096,"period":3097,"Inlandsklimat":3098,"medan":3099,"semp":3100,"ark":3101,"region":3102,"bus":3103,"bror":3104,"finalen":3105,"slik":3106,"2019":3107,"elekt":3108,"Str":3109,"als":3110,"fjell":3111,"hin":3112,"Mich":3113,"ii":3114,"honom":3115,"lingar":3116,"sprun":3117,"Denne":3118,"teg":3119,"delar":3120,"Qu":3121,"By":3122,"Sant":3123,"1992":3124,"Australien":3125,"ers":3126,"tek":3127,"bergs":3128,"bag":3129,"pos":3130,"Jon":3131,"bot":3132,"vanlig":3133,"videre":3134,"Ac":3135,"lub":3136,"1994":3137,"gelse":3138,"kre":3139,"fen":3140,"borjan":3141,"kant":3142,"Fred":3143,"Køben":3144,"Bla":3145,"kron":3146,"Christian":3147,"Klad":3148,"vol":3149,"professor":3150,"mosaik":3151,"una":3152,"deltok":3153,"tempererat":3154,"Mc":3155,"rinningsomradet":3156,"Avrinningsomradet":3157,"avrinningsomrade":3158,"bat":3159,"lj":3160,"litet":3161,"flytta":3162,"sket":3163,"Thom":3164,"krig":3165,"1996":3166,"erede":3167,"dagen":3168,"Upp":3169,"ligg":3170,"staende":3171,"mø":3172,"ovri":3173,"fon":3174,"Island":3175,"hund":3176,"Kladogram":3177,"My":3178,"administrat":3179,"langs":3180,"viktig":3181,"hela":3182,"offent":3183,"ogn":3184,"uri":3185,"stadse":3186,"jap":3187,"brun":3188,"Lo":3189,"betyd":3190,"matte":3191,"1900":3192,"satte":3193,"anger":3194,"esh":3195,"ras":3196,"ting":3197,"Hy":3198,"fransk":3199,"Ti":3200,"Amer":3201,"iti":3202,"Tid":3203,"stadsegron":3204,"forekommer":3205,"nev":3206,"aktiv":3207,"Storbritannien":3208,"garden":3209,"lot":3210,"rede":3211,"stilling":3212,"uler":3213,"beste":3214,"Befolk":3215,"prakt":3216,"yo":3217,"fyr":3218,"urt":3219,"Gote":3220,"radi":3221,"Nam":3222,"danske":3223,"eret":3224,"engelsk":3225,"ktar":3226,"instru":3227,"York":3228,"ktiv":3229,"stedet":3230,"Lou":3231,"model":3232,"1997":3233,"mitt":3234,"fanns":3235,"antal":3236,"savann":3237,"Chile":3238,"publik":3239,"Brit":3240,"Ab":3241,"vande":3242,"aria":3243,"lær":3244,"grupper":3245,"gennem":3246,"dam":3247,"sprung":3248,"kategor":3249,"vare":3250,"gamle":3251,"offic":3252,"nagra":3253,"Ul":3254,"arene":3255,"1991":3256,"sok":3257,"1995":3258,"Mer":3259,"syk":3260,"orden":3261,"ræ":3262,"90":3263,"meget":3264,"Til":3265,"iko":3266,"kalt":3267,"riket":3268,"høj":3269,"menn":3270,"lange":3271,".\"":3272,"iken":3273,"Detta":3274,"Mot":3275,"smal":3276,"utveckling":3277,"naden":3278,"heim":3279,"Alex":3280,"distrikt":3281,"Mil":3282,"produkt":3283,"count":3284,"tri":3285,"kta":3286,"rar":3287,"italien":3288,"1993":3289,"roman":3290,"mt":3291,"slapp":3292,"socken":3293,"forsø":3294,"igur":3295,"verdens":3296,"th":3297,"No":3298,"totalt":3299,"stitut":3300,"innebar":3301,"1950":3302,"uel":3303,"ktion":3304,"ksom":3305,"øver":3306,"Kun":3307,"Nation":3308,"samtidig":3309,"Bel":3310,"kning":3311,"sik":3312,"ult":3313,"mag":3314,"derfor":3315,"Dom":3316,"ass":3317,"Gunung":3318,"Pal":3319,"inen":3320,"los":3321,"punkt":3322,"fang":3323,"deltog":3324,"igjen":3325,"spelar":3326,"erade":3327,"Sjon":3328,"myr":3329,"pris":3330,"krigen":3331,"que":3332,"aldri":3333,"foretag":3334,"rot":3335,"forfatter":3336,"program":3337,"eksemp":3338,"okrat":3339,"Fer":3340,"Rober":3341,"formen":3342,"kong":3343,"bisk":3344,"inner":3345,"forbin":3346,"ette":3347,"iss":3348,"folj":3349,"ini":3350,"ore":3351,"Ag":3352,"general":3353,"proble":3354,"Air":3355,"Tan":3356,"aust":3357,"sidan":3358,"oku":3359,"uder":3360,"helm":3361,"monsun":3362,"bort":3363,"1988":3364,"sist":3365,"Alger":3366,"været":3367,"cus":3368,"skrevet":3369,"Hal":3370,"lt":3371,"angre":3372,"luft":3373,"skra":3374,"økonom":3375,"vs":3376,"fab":3377,"ppe":3378,"knyt":3379,"vad":3380,"Don":3381,"regnskog":3382,"kanton":3383,"Tra":3384,"Tur":3385,"orki":3386,"monsunklimat":3387,"post":3388,"Vest":3389,"ikkje":3390,"fotball":3391,"vapen":3392,"%.":3393,"Freder":3394,"klass":3395,"materi":3396,"hopp":3397,"sad":3398,"uter":3399,"Kat":3400,"1800":3401,"ure":3402,"svamp":3403,"holl":3404,"ansvar":3405,"UC":3406,"ite":3407,"tol":3408,"Van":3409,"Till":3410,"arranger":3411,"ograf":3412,"1989":3413,"ves":3414,"lertid":3415,"relig":3416,"sida":3417,"orkide":3418,"Sommer":3419,"turner":3420,"beslut":3421,"serie":3422,"konge":3423,"ont":3424,"ursprung":3425,"skolan":3426,"Gran":3427,"osof":3428,"spindel":3429,"hett":3430,"fleste":3431,"bos":3432,"Pro":3433,"sember":3434,"historie":3435,"verket":3436,"chef":3437,"Sar":3438,"tillegg":3439,"langd":3440,"ox":3441,"grev":3442,"desember":3443,"national":3444,"stav":3445,"jam":3446,"bron":3447,"bri":3448,"ockey":3449,"seks":3450,"bit":3451,"Dra":3452,"Can":3453,"delta":3454,"forn":3455,"bø":3456,"1971":3457,"proc":3458,"Mid":3459,"com":3460,"rekke":3461,"Provin":3462,"gande":3463,"65":3464,"dotter":3465,"Count":3466,"brukt":3467,"finnes":3468,"Met":3469,"1984":3470,"amen":3471,"fug":3472,"Du":3473,"1920":3474,"gruppe":3475,"anvands":3476,"Hand":3477,"hop":3478,"meh":3479,"lek":3480,"ood":3481,"Hor":3482,"ney":3483,"usen":3484,"Gre":3485,"mos":3486,"tex":3487,"fli":3488,"onia":3489,"henne":3490,"sene":3491,"tale":3492,"president":3493,"Maria":3494,"adi":3495,"effe":3496,"bec":3497,"Eg":3498,"teret":3499,"Sol":3500,"Kn":3501,"trakt":3502,"Universit":3503,"Pre":3504,"vide":3505,"liten":3506,"Mat":3507,"have":3508,"mare":3509,"hvert":3510,"ces":3511,"pass":3512,"regnskogsklimat":3513,"norrut":3514,"ped":3515,"iges":3516,"bol":3517,"kantonen":3518,"parti":3519,"seud":3520,"sommar":3521,"yll":3522,"sek":3523,"els":3524,"kyrk":3525,"Berlin":3526,"\").":3527,"Kal":3528,"iro":3529,"countyt":3530,"fordes":3531,"skul":3532,"1987":3533,"forening":3534,"arts":3535,"guver":3536,"1986":3537,"nagon":3538,"George":3539,"sjuk":3540,"bør":3541,"1940":3542,"soderut":3543,"Cen":3544,"arbeidet":3545,"russ":3546,"brev":3547,"skrift":3548,"Lar":3549,"can":3550,"vilken":3551,"lagg":3552,"seende":3553,"pal":3554,"fortsatte":3555,"Gam":3556,"heder":3557,"Tri":3558,"SM":3559,"sand":3560,"teater":3561,"tjan":3562,"1930":3563,"vard":3564,"studen":3565,"vinter":3566,"eksempel":3567,"ampar":3568,"Mexico":3569,"mulig":3570,"Ger":3571,"Wa":3572,"Bre":3573,"arab":3574,"Saint":3575,"Mun":3576,"bod":3577,"bom":3578,"kli":3579,"former":3580,"Nav":3581,"lys":3582,"Dist":3583,"35":3584,"holder":3585,"ruktbar":3586,"\"),":3587,"ogen":3588,"livet":3589,"lif":3590,"1972":3591,"forma":3592,"uer":3593,"nagot":3594,"Jer":3595,"Eu":3596,"orten":3597,"1985":3598,"filosof":3599,"Sha":3600,"Chesh":3601,"følgende":3602,"mannen":3603,"County":3604,"sommer":3605,"slatt":3606,"ungdom":3607,"forbindelse":3608,"ike":3609,"typ":3610,"bud":3611,"hamn":3612,"adem":3613,"sm":3614,"Cheshmeh":3615,"direkt":3616,"fører":3617,"øde":3618,"tac":3619,"Bak":3620,"handel":3621,"eks":3622,"makt":3623,"spir":3624,"Ry":3625,"skon":3626,"deras":3627,"hektar":3628,"Lan":3629,"500":3630,"Ban":3631,"musikk":3632,"Min":3633,"utgor":3634,"Brasilien":3635,"fotboll":3636,"git":3637,"1968":3638,"1974":3639,"Robert":3640,"64":3641,"byggere":3642,"Los":3643,"]]":3644,"spekt":3645,"onom":3646,"spilte":3647,"valg":3648,"1945":3649,"ghan":3650,"Sveriges":3651,"moj":3652,"[[":3653,"bad":3654,"Ke":3655,"politiker":3656,"jør":3657,"kret":3658,"IUC":3659,"ppen":3660,"saker":3661,"IUCN":3662,"spun":3663,"Gi":3664,"sæt":3665,"ove":3666,"Ni":3667,"Sim":3668,"Jac":3669,"besk":3670,"ofruktbar":3671,"kyrkan":3672,"tids":3673,"eget":3674,"1979":3675,"placer":3676,"miss":3677,"Pol":3678,"Eli":3679,"IF":3680,"speci":3681,"sentr":3682,"progra":3683,"alet":3684,"takt":3685,"Mac":3686,"Tom":3687,"karakt":3688,"amot":3689,"virke":3690,"Sh":3691,"resultat":3692,"test":3693,"opter":3694,"trod":3695,"taget":3696,"osa":3697,"Rich":3698,"Før":3699,"Thomas":3700,"1982":3701,"borgs":3702,"2020":3703,"AB":3704,"usjon":3705,"stig":3706,"Res":3707,"din":3708,"Quebec":3709,"blevet":3710,"Spanien":3711,"styrel":3712,"viser":3713,"kas":3714,"inden":3715,"atet":3716,"FC":3717,"idrett":3718,"romer":3719,"endast":3720,"Far":3721,"jekt":3722,"1976":3723,"Sand":3724,"Jap":3725,"Bl":3726,"hjart":3727,"1983":3728,"ward":3729,"skilt":3730,"svart":3731,"On":3732,"kendt":3733,"179":3734,"forhold":3735,"regjer":3736,"Mas":3737,"Pet":3738,"København":3739,"samband":3740,"sjoner":3741,"song":3742,"cken":3743,"doku":3744,"blandt":3745,"inat":3746,"Do":3747,"sh":3748,"aldre":3749,"darefter":3750,"Colom":3751,"1973":3752,"Pas":3753,"ettet":3754,"føre":3755,"hang":3756,"vei":3757,"fukt":3758,"kjø":3759,"klubb":3760,"ordning":3761,"Tim":3762,"cha":3763,"David":3764,"sasongen":3765,"utgav":3766,"1981":3767,"dermed":3768,"ria":3769,"Op":3770,"inkluder":3771,"datter":3772,"lil":3773,"ations":3774,"figur":3775,"varande":3776,"grunda":3777,"staf":3778,"lie":3779,"framst":3780,"givet":3781,"skrig":3782,"ktis":3783,"osterut":3784,"so":3785,"atten":3786,"Kab":3787,"bold":3788,"franske":3789,"uta":3790,"begge":3791,"vasterut":3792,"rod":3793,"Schw":3794,"Ons":3795,"gjør":3796,"orter":3797,"disk":3798,"bum":3799,"risk":3800,"bun":3801,"Bir":3802,"fordi":3803,"Port":3804,"æng":3805,"produs":3806,"kategoriser":3807,"1964":3808,"itz":3809,"tropiskt":3810,"Enligt":3811,"Bon":3812,"Erik":3813,"Jan":3814,"enga":3815,"orna":3816,"bart":3817,"haf":3818,"delig":3819,"ato":3820,"1975":3821,"glob":3822,"Nu":3823,"forskj":3824,"strand":3825,"bry":3826,"delsen":3827,"studier":3828,"()":3829,"fjorden":3830,"ryg":3831,"1978":3832,"espil":3833,"fær":3834,"mak":3835,"Rad":3836,"ving":3837,"orth":3838,"ulike":3839,"1969":3840,"heng":3841,"imid":3842,"vent":3843,"All":3844,"slutet":3845,"1967":3846,"avrinningsomradet":3847,"Havet":3848,"Ir":3849,"rock":3850,"hører":3851,"num":3852,"Ly":3853,"tida":3854,"utt":3855,"spesi":3856,"internation":3857,"1977":3858,"eren":3859,"sju":3860,"sav":3861,"hær":3862,"imidlertid":3863,"iks":3864,"Lud":3865,"cka":3866,"tilbage":3867,"museum":3868,"sto":3869,"gaende":3870,"krigs":3871,"ht":3872,"Cal":3873,"biskop":3874,"gik":3875,"Jean":3876,"klassen":3877,"guld":3878,"banen":3879,"ies":3880,"dann":3881,"Region":3882,"anal":3883,"hit":3884,"ero":3885,"trop":3886,"britiske":3887,"nast":3888,"begynte":3889,"Bul":3890,"ario":3891,"sym":3892,"University":3893,"folket":3894,"aland":3895,"Filmen":3896,"skriver":3897,"konstru":3898,"soci":3899,"Afri":3900,"45":3901,"Bru":3902,"kjem":3903,"neder":3904,"job":3905,"malt":3906,"Vil":3907,"West":3908,"demokrat":3909,"Stockholms":3910,"prin":3911,"75":3912,"Sten":3913,"Mont":3914,"ati":3915,"forbundet":3916,"1952":3917,"nadde":3918,"rop":3919,"privat":3920,"lament":3921,"vill":3922,"Christ":3923,"Lang":3924,"sikt":3925,"deler":3926,"Afghan":3927,"sold":3928,"kontor":3929,"chi":3930,"Ken":3931,"sky":3932,"urna":3933,"mast":3934,"Historie":3935,"hjel":3936,"Nil":3937,"terna":3938,"stift":3939,"Ant":3940,"sked":3941,"Colum":3942,"cm":3943,"1965":3944,"cho":3945,"Em":3946,"gade":3947,"zi":3948,"skola":3949,"sista":3950,"eftersom":3951,"Georg":3952,"Pi":3953,"flod":3954,"Pan":3955,"isen":3956,"III":3957,"gelsen":3958,"alis":3959,"lander":3960,"Gru":3961,"blei":3962,"ativ":3963,"mene":3964,"Distri":3965,"1962":3966,"Ont":3967,"Mexiko":3968,"delas":3969,"stopp":3970,"valgt":3971,"representerte":3972,"avslut":3973,"nande":3974,"stero":3975,"Las":3976,"Liv":3977,"indiv":3978,"spillet":3979,".,":3980,"bliver":3981,"forande":3982,"unionen":3983,"ute":3984,"ordet":3985,"skapa":3986,"espiller":3987,"sas":3988,"agen":3989,"Son":3990,"Afghanistan":3991,"terade":3992,"Ze":3993,"falt":3994,"svampar":3995,"systemet":3996,"EM":3997,"ppa":3998,"Pla":3999,"Berg":4000,"kategoriserar":4001,"fron":4002,"samfun":4003,"ito":4004,"Ek":4005,"eneste":4006,"Charles":4007,"nede":4008,"Mi":4009,"derna":4010,"dret":4011,"isi":4012,"bygd":4013,"forde":4014,"Stat":4015,"delstatshuvudstaden":4016,"omrader":4017,"kyrka":4018,"Gud":4019,"tas":4020,"ikken":4021,"Vol":4022,"ledde":4023,"sanger":4024,"løpet":4025,"divisionen":4026,"Ven":4027,"vej":4028,"Italien":4029,"Martin":4030,"fir":4031,"deling":4032,"mur":4033,"Mounta":4034,"1966":4035,"Cla":4036,"udi":4037,"Koh":4038,"Svenska":4039,"haller":4040,"rang":4041,"ovrigt":4042,"rost":4043,"James":4044,"arbejde":4045,"Over":4046,"Vic":4047,"bladig":4048,"mannisk":4049,"vidare":4050,"kallas":4051,"fjer":4052,"kare":4053,"hard":4054,"lans":4055,"Dei":4056,"Biografi":4057,"benyt":4058,"Sj":4059,"Cu":4060,"Norr":4061,"August":4062,"kø":4063,"idag":4064,"isa":4065,"opsis":4066,"River":4067,"fru":4068,"Byg":4069,"Bog":4070,"178":4071,"fys":4072,"funger":4073,"Dag":4074,"varld":4075,"liser":4076,"mmar":4077,"Norra":4078,"Tre":4079,"hora":4080,"anna":4081,"latin":4082,"læg":4083,"kene":4084,"orl":4085,"forskning":4086,"emat":4087,"cel":4088,"ild":4089,"paras":4090,"vende":4091,"Kom":4092,"Bal":4093,"tyska":4094,"skot":4095,"draget":4096,"tere":4097,"hv":4098,"Bergen":4099,"Ap":4100,"erer":4101,"vari":4102,"litteratur":4103,"Fe":4104,"gull":4105,"kast":4106,"Goteborg":4107,"National":4108,"middel":4109,"europe":4110,"Hall":4111,"bygger":4112,"bildades":4113,"Il":4114,"Kri":4115,"regis":4116,"ano":4117,"horn":4118,"osi":4119,"skriget":4120,"Sovjet":4121,"Kra":4122,"ering":4123,"fjarilar":4124,"ral":4125,"Norges":4126,"hvilket":4127,"ogs":4128,"nelsen":4129,"spindelart":4130,"arbete":4131,"ague":4132,"lius":4133,"oven":4134,"flyn":4135,"ligare":4136,"Antar":4137,"eksp":4138,"South":4139,"myndig":4140,"Wilhelm":4141,"Bland":4142,"skolen":4143,"British":4144,"godt":4145,"Inn":4146,"zo":4147,"Ram":4148,"byt":4149,"bul":4150,"mesta":4151,"Hill":4152,"Angel":4153,"1948":4154,"Fre":4155,"marks":4156,"svært":4157,"Sil":4158,"Henrik":4159,"mær":4160,"oth":4161,"regel":4162,"War":4163,"redan":4164,"debu":4165,"spind":4166,"skaper":4167,"debut":4168,"Japan":4169,"minst":4170,"Indien":4171,"ordningen":4172,"\"-":4173,"viste":4174,"car":4175,"horningar":4176,"folke":4177,"1963":4178,"parlament":4179,"Lind":4180,"beteg":4181,"joner":4182,"udvik":4183,"nattflyn":4184,"aut":4185,"Lars":4186,"aner":4187,"topp":4188,"cep":4189,"Lund":4190,"vise":4191,"1956":4192,"sala":4193,"gemen":4194,"republi":4195,"vagen":4196,".-":4197,"avvatt":4198,"meste":4199,"Dal":4200,"col":4201,"dende":4202,"kvinnor":4203,"skyl":4204,"Bay":4205,"bada":4206,"matare":4207,"Rab":4208,"tig":4209,"verdenskrig":4210,"Vaster":4211,"1939":4212,"internasjon":4213,"kropp":4214,"ach":4215,"defin":4216,"utgitt":4217,"last":4218,"tom":4219,"landets":4220,"karriere":4221,"hatt":4222,"række":4223,"administrativ":4224,"drev":4225,"Kust":4226,"Fal":4227,"særlig":4228,"formula":4229,"vandt":4230,"medlemmer":4231,"søl":4232,"das":4233,"jung":4234,"veg":4235,"formula_":4236,"ards":4237,"forskellige":4238,"forfattare":4239,"Jar":4240,"ame":4241,"hou":4242,"yrk":4243,"britt":4244,"nus":4245,"barr":4246,"iteten":4247,"fo":4248,"Cy":4249,"innare":4250,"400":4251,"Disse":4252,"sesongen":4253,"ugh":4254,"ytan":4255,"spindlar":4256,"arnas":4257,"Gust":4258,"rondisse":4259,"Argent":4260,"mennesker":4261,"Es":4262,"skuespiller":4263,"Mic":4264,"isert":4265,"skip":4266,"Mol":4267,"hjalp":4268,"styre":4269,"borger":4270,"redakt":4271,"Befolknings":4272,"Hov":4273,"1961":4274,"Fo":4275,"Sun":4276,"hjartbladig":4277,"vattnet":4278,"master":4279,"fre":4280,"gora":4281,"slot":4282,"OS":4283,"Brasilia":4284,"startet":4285,"Universitet":4286,"periode":4287,"hvis":4288,"Grand":4289,"Madrid":4290,"utanfor":4291,"koping":4292,"Ein":4293,"33":4294,"revol":4295,"periodiskt":4296,"stroms":4297,"Byen":4298,"stid":4299,"Aven":4300,"dannet":4301,"mye":4302,"Russ":4303,"ign":4304,"Jes":4305,"Plat":4306,"arrondisse":4307,"ael":4308,"latt":4309,"teck":4310,"regi":4311,"Uppsala":4312,"allman":4313,"saga":4314,"virksom":4315,"Park":4316,"ath":4317,"Fried":4318,"millioner":4319,"Chi":4320,"annan":4321,"sæ":4322,"1958":4323,"gammel":4324,"1944":4325,"bliote":4326,"støtte":4327,"edon":4328,"skyd":4329,"stal":4330,"reproducer":4331,"ledet":4332,"bestod":4333,"ela":4334,"amerikanska":4335,"svampart":4336,"gud":4337,"Josep":4338,"rolle":4339,"kallar":4340,"Cap":4341,"areal":4342,"1912":4343,"Colombia":4344,"filmer":4345,"moderne":4346,"sølv":4347,"tillverk":4348,"scen":4349,"lokal":4350,"Tu":4351,"aledes":4352,"Kabul":4353,"League":4354,"ssel":4355,"steder":4356,"festiv":4357,"aldrig":4358,"spra":4359,"Soder":4360,"lyck":4361,"sags":4362,"Kam":4363,"vissa":4364,"Camp":4365,"uttry":4366,"parasit":4367,"ple":4368,"mith":4369,"Gustav":4370,"Bill":4371,"kost":4372,"icus":4373,"ktes":4374,"boken":4375,"mana":4376,"got":4377,"1936":4378,"Kan":4379,"istallet":4380,"Jose":4381,"ight":4382,"øj":4383,"Columbia":4384,"1941":4385,"Wien":4386,"Kong":4387,"Befolkningsutveckling":4388,"skt":4389,"tjene":4390,"nene":4391,"krav":4392,"Part":4393,"cord":4394,"produk":4395,"kommen":4396,"Alexander":4397,"fla":4398,"Marie":4399,"Pat":4400,"1938":4401,"fuktigt":4402,"elva":4403,"Joseph":4404,"Bou":4405,"Anton":4406,"byggdes":4407,"station":4408,"subtropiskt":4409,"own":4410,"gamla":4411,"1918":4412,"kallad":4413,"byggnad":4414,"heden":4415,"eiz":4416,"Og":4417,"ritor":4418,"bis":4419,"barrskog":4420,"liggende":4421,"findes":4422,"ding":4423,"Johannes":4424,"%,":4425,"fabrik":4426,"Louis":4427,"1910":4428,"Øst":4429,"Cam":4430,"ix":4431,"relat":4432,"skiv":4433,"arrondissementet":4434,"svenske":4435,"vind":4436,"interes":4437,"odi":4438,"vas":4439,"reproducerande":4440,"kommand":4441,"arkitekt":4442,"34":4443,"way":4444,"kung":4445,"ypt":4446,"rollen":4447,"36":4448,"dalen":4449,"offici":4450,"staur":4451,"yng":4452,"staten":4453,"varje":4454,"terte":4455,"1957":4456,"Kustklimat":4457,"Santa":4458,"myg":4459,"pres":4460,"fekk":4461,"ith":4462,"oka":4463,"historia":4464,"pes":4465,"Argentina":4466,"felt":4467,"sli":4468,"politisk":4469,"kej":4470,"omyia":4471,"uli":4472,"ordforande":4473,"titt":4474,"wan":4475,"skraft":4476,"slags":4477,"slutten":4478,"Kol":4479,"وه":4480,"37":4481,"Pra":4482,"nett":4483,"iger":4484,"ordan":4485,"sluttar":4486,"jarvi":4487,"bevar":4488,"Provincia":4489,"Ontario":4490,"journa":4491,"behov":4492,"opro":4493,"Neder":4494,"oren":4495,"globalt":4496,"anvan":4497,"1959":4498,"darfor":4499,"annen":4500,"allerede":4501,"1946":4502,"Mountain":4503,"niva":4504,"inspir":4505,"passa":4506,"artik":4507,"ev":4508,"Henry":4509,"egent":4510,"hire":4511,"avax":4512,"Por":4513,"Gri":4514,"cks":4515,"1947":4516,"park":4517,"fr":4518,"1914":4519,"177":4520,"mestadels":4521,"karriar":4522,"sjons":4523,"valget":4524,"Sav":4525,"hojden":4526,"holde":4527,"Ou":4528,"Tall":4529,"HI":4530,"sister":4531,"Pseud":4532,"Che":4533,"format":4534,"fas":4535,"baka":4536,"rapp":4537,"Band":4538,"sønn":4539,"NA":4540,"sej":4541,"ram":4542,"arbetade":4543,"Francis":4544,"Bri":4545,"ec":4546,"tradis":4547,"Got":4548,"gir":4549,"lika":4550,"midt":4551,"motstand":4552,"Tron":4553,"følger":4554,"Friedrich":4555,"begre":4556,"finner":4557,"trafik":4558,"vald":4559,"Ur":4560,"kanda":4561,"Sara":4562,"1942":4563,"blivit":4564,"næv":4565,"32":4566,"stol":4567,"Ep":4568,"xi":4569,"eck":4570,"flyttade":4571,"Fredrik":4572,"1928":4573,"behand":4574,"Vis":4575,"asjonen":4576,"ony":4577,"bill":4578,"aris":4579,"hast":4580,"39":4581,"dagens":4582,"Denna":4583,"Fi":4584,"300":4585,"Ele":4586,"landska":4587,"kandid":4588,"38":4589,"Bag":4590,"rige":4591,"valet":4592,"1908":4593,"Leon":4594,"1955":4595,"premi":4596,"1949":4597,"sess":4598,"1924":4599,"olit":4600,"Afrika":4601,"bygge":4602,"nere":4603,"vilka":4604,"kinesiska":4605,"krist":4606,"Album":4607,"Bosn":4608,"bestem":4609,"rael":4610,"ledning":4611,"forbund":4612,"lere":4613,"1943":4614,"regering":4615,"gifte":4616,"iago":4617,"byggna":4618,"blod":4619,"flyttet":4620,"Anna":4621,"familie":4622,"alter":4623,"spinnare":4624,"1954":4625,"Herc":4626,"ogon":4627,"orig":4628,"igheter":4629,"Victor":4630,"veien":4631,"Ak":4632,"kallade":4633,"48":4634,"slutt":4635,"Pen":4636,"Gor":4637,"ytor":4638,"urg":4639,"fic":4640,"SS":4641,"1919":4642,"langhorningar":4643,"struktur":4644,"Rock":4645,"Loma":4646,"ete":4647,"1917":4648,"pot":4649,"spelen":4650,"Sedan":4651,"bock":4652,"haft":4653,"vux":4654,"enkelt":4655,"fylke":4656,"høg":4657,"Smith":4658,"skom":4659,"gatt":4660,"spilt":4661,"ocko":4662,"Tam":4663,"savannskog":4664,"dige":4665,"xa":4666,"vetenskap":4667,"ologisk":4668,"dikt":4669,"jud":4670,"vun":4671,"55":4672,"astr":4673,"stadig":4674,"konstnar":4675,"log":4676,"brukes":4677,"katol":4678,"dokt":4679,"dagar":4680,"Santiago":4681,"%).":4682,"framfor":4683,"Ud":4684,"rov":4685,"sut":4686,"pte":4687,"oversatt":4688,"fodbold":4689,"spillede":4690,"befolkningen":4691,"kontrakt":4692,"bog":4693,"ago":4694,"Dor":4695,"elli":4696,"fores":4697,"militær":4698,"Unit":4699,"mord":4700,"cul":4701,"engelska":4702,"1953":4703,"1933":4704,"gin":4705,"prov":4706,"ias":4707,"forest":4708,"vek":4709,"ome":4710,"tage":4711,"valt":4712,"tillbaka":4713,"kjente":4714,"politiske":4715,"dav":4716,"isten":4717,"programmet":4718,"Richard":4719,"udde":4720,"ansi":4721,"Michael":4722,"talt":4723,"vice":4724,"fleire":4725,"linje":4726,"saledes":4727,"betra":4728,"fjord":4729,"stant":4730,"Ali":4731,"ungefar":4732,"tral":4733,"Mur":4734,"ledamot":4735,"statt":4736,"1937":4737,"ington":4738,"ovina":4739,"Roy":4740,"stes":4741,"bes":4742,"orld":4743,"Muse":4744,"1913":4745,"kran":4746,"ital":4747,"kart":4748,"stallning":4749,"Jack":4750,"Bran":4751,"forklar":4752,"strit":4753,"istisk":4754,"erad":4755,"handels":4756,"tett":4757,"1932":4758,"skrifter":4759,"lon":4760,"innbyggere":4761,"verksamhet":4762,"1911":4763,"ej":4764,"utgiv":4765,"varlden":4766,"gon":4767,"holdet":4768,"landske":4769,"aliforn":4770,"zar":4771,"dat":4772,"Hus":4773,"fortsatt":4774,"Ran":4775,"institut":4776,"bebyg":4777,"giver":4778,"tradisjon":4779,"sko":4780,"hitt":4781,"utbild":4782,"dele":4783,"kriget":4784,"varierad":4785,"ffe":4786,"bygning":4787,"1935":4788,"Herceg":4789,"Handling":4790,"Plan":4791,"sovjet":4792,"Stra":4793,"spela":4794,"brada":4795,"sul":4796,"Vast":4797,"dju":4798,"1700":4799,"sende":4800,"dron":4801,"Kul":4802,"nogle":4803,"undervis":4804,"deretter":4805,"tert":4806,"Red":4807,"opprinne":4808,"spille":4809,"resten":4810,"1934":4811,"kontroll":4812,"press":4813,"drar":4814,"orien":4815,"loss":4816,"1951":4817,"studerade":4818,"kors":4819,"rott":4820,"uppstroms":4821,"stritar":4822,"Fly":4823,"Krist":4824,"lager":4825,"delser":4826,"nit":4827,"wood":4828,"Cast":4829,"tidleg":4830,"ovan":4831,"levde":4832,"gla":4833,"1929":4834,"cht":4835,"intre":4836,"Sodra":4837,"restaur":4838,"ljus":4839,"ører":4840,"Malmo":4841,"Rud":4842,"beratt":4843,"tradition":4844,"cor":4845,"Jawa":4846,"kvalif":4847,"Quebrada":4848,"franska":4849,"United":4850,"stasjon":4851,"dia":4852,"Lam":4853,"66":4854,"SMHI":4855,"Tar":4856,"sade":4857,"zon":4858,"gri":4859,"Historia":4860,"sasom":4861,"spunkt":4862,"Hein":4863,"anven":4864,"Marocko":4865,"kunna":4866,"jag":4867,"jarnen":4868,"Bas":4869,"Punta":4870,"foran":4871,"Trond":4872,"Bosnien":4873,"origin":4874,"tidlig":4875,"Tran":4876,"delavrinningsomrade":4877,"Skan":4878,"kampen":4879,"Dem":4880,"1921":4881,"hojd":4882,"Storbritannia":4883,"Ara":4884,"Rabat":4885,"læn":4886,"Polit":4887,"blomm":4888,"Hercegovina":4889,"47":4890,"engelske":4891,"mera":4892,"Delavrinningsomrade":4893,"sland":4894,"ender":4895,"kry":4896,"yngre":4897,"tvahjartbladig":4898,"Bat":4899,"varlds":4900,"foreningen":4901,"fæl":4902,"græn":4903,"retning":4904,"sattes":4905,"istiske":4906,"Prin":4907,"oden":4908,"friidrett":4909,"vattenytor":4910,"Sve":4911,"laten":4912,"arhund":4913,"rester":4914,"kroppen":4915,"1906":4916,"øk":4917,"holds":4918,"gør":4919,"Luc":4920,"omraden":4921,"oprocent":4922,"pag":4923,"forbunds":4924,"sjoprocent":4925,"myggor":4926,"gangs":4927,"besø":4928,"skan":4929,"1927":4930,"Klub":4931,"150":4932,"Gro":4933,"Jab":4934,"marts":4935,"publicer":4936,"varg":4937,"bibliote":4938,"slekt":4939,"forskjellige":4940,"Polen":4941,"aver":4942,"verkade":4943,"zer":4944,"mir":4945,"1925":4946,"gym":4947,"rej":4948,"oller":4949,"1926":4950,"Fili":4951,"digt":4952,"skva":4953,"doktor":4954,"lett":4955,"Sovjetunionen":4956,"wn":4957,"ellen":4958,"Medelhojden":4959,"isering":4960,"Vir":4961,"basta":4962,"skabet":4963,"iver":4964,"gatan":4965,"amo":4966,"1922":4967,"forel":4968,"okus":4969,"deles":4970,"jel":4971,"Record":4972,"chus":4973,"Mes":4974,"oft":4975,"jorn":4976,"vene":4977,"sendt":4978,"Yo":4979,"Omradet":4980,"ppet":4981,"dags":4982,"kirken":4983,"oret":4984,"tall":4985,"status":4986,"Ron":4987,"brott":4988,"dets":4989,"sur":4990,"sats":4991,"slapptes":4992,"offentlig":4993,"kompon":4994,"eden":4995,"varldskriget":4996,"Brun":4997,"ilis":4998,"leng":4999,"klart":5000,"oa":5001,"relse":5002,"ytterligare":5003,"plasser":5004,"Jacob":5005,"Beg":5006,"1916":5007,"Bil":5008,"oppda":5009,"buk":5010,"Italia":5011,"World":5012,"vars":5013,"1907":5014,"sidste":5015,"nuvarande":5016,"1905":5017,"Black":5018,"skall":5019,"direkte":5020,"North":5021,"konkurran":5022,"knyttet":5023,"ryska":5024,"Dess":5025,"osten":5026,"upptac":5027,"Anders":5028,"odes":5029,"170":5030,"1909":5031,"win":5032,"Kristian":5033,"jektet":5034,"forhall":5035,"arer":5036,"fur":5037,"Ox":5038,"ms":5039,"posit":5040,"bredelse":5041,"soldater":5042,"1931":5043,"lac":5044,"kanal":5045,"ump":5046,"bær":5047,"stj":5048,"ikker":5049,"Os":5050,"æg":5051,"lic":5052,"omen":5053,"blive":5054,"Australia":5055,"løs":5056,"drift":5057,"iaceae":5058,"rekord":5059,"Lit":5060,"mitten":5061,"Bern":5062,"eds":5063,"uts":5064,"major":5065,"basert":5066,"miljoner":5067,"komme":5068,"Dessa":5069,"kolon":5070,"bach":5071,"effekt":5072,"Ain":5073,"delige":5074,"livs":5075,"løp":5076,"lus":5077,"Cat":5078,"tradde":5079,"Est":5080,"kna":5081,"lod":5082,"hets":5083,"leve":5084,"Gol":5085,"sein":5086,"ologiske":5087,"fiskart":5088,"Fam":5089,"Sig":5090,"hallet":5091,"offer":5092,"farande":5093,"produ":5094,"tjanst":5095,"gal":5096,"arme":5097,"rien":5098,"kysten":5099,"Oper":5100,"Gil":5101,"Bogota":5102,"open":5103,"flesta":5104,"68":5105,"lut":5106,"Nag":5107,"anus":5108,"kongen":5109,"sons":5110,"Ras":5111,"oen":5112,"Ker":5113,"steg":5114,"stader":5115,"mør":5116,"talen":5117,"1923":5118,"mastare":5119,"arrangert":5120,"komst":5121,"Tel":5122,"Selv":5123,"tele":5124,"175":5125,"Kung":5126,"oul":5127,"Super":5128,"floden":5129,"rog":5130,"kont":5131,"ppar":5132,"bjer":5133,"reser":5134,"gards":5135,"ytt":5136,"prefe":5137,"fader":5138,"49":5139,"gjerne":5140,"hili":5141,"etten":5142,"togs":5143,"Kro":5144,"stern":5145,"District":5146,"regist":5147,"karakter":5148,"innes":5149,"orkideer":5150,"Utseende":5151,"mande":5152,"1915":5153,"sjøen":5154,"vestlige":5155,"snart":5156,"Dis":5157,"Dy":5158,"delvis":5159,"Osc":5160,"field":5161,"Algeriet":5162,"ishockey":5163,"vall":5164,"armen":5165,"batt":5166,"ands":5167,"کوه":5168,"Alle":5169,"tab":5170,"edi":5171,"liste":5172,"hovud":5173,"Thor":5174,"67":5175,"Max":5176,"kraftdjursart":5177,"yta":5178,"Hot":5179,"feren":5180,"alderen":5181,"avrinningsomraden":5182,"uti":5183,"pros":5184,"AS":5185,"inna":5186,"olympiska":5187,"inus":5188,"Au":5189,"Rog":5190,"befolkning":5191,"anser":5192,"Ten":5193,"fat":5194,"ellet":5195,"brok":5196,"faren":5197,"gitar":5198,"konser":5199,"Canada":5200,"introd":5201,"inget":5202,"ibland":5203,"unds":5204,"Sur":5205,"Namnet":5206,"miljø":5207,"rus":5208,"varen":5209,"nr":5210,"fiske":5211,"1904":5212,"linjen":5213,"ølv":5214,"brot":5215,"dub":5216,"ismen":5217,"Gustaf":5218,"kommuner":5219,"strøm":5220,"deri":5221,"relativt":5222,"ode":5223,"orts":5224,"Pier":5225,"Brook":5226,"asjoner":5227,"slutade":5228,"44":5229,"Cup":5230,"byer":5231,"heller":5232,"insk":5233,"beve":5234,"Gul":5235,"semi":5236,"energi":5237,"Flor":5238,"Antarktis":5239,"urs":5240,"senter":5241,"uen":5242,"Desa":5243,"grøn":5244,"ack":5245,"rika":5246,"maler":5247,"provinshuvudstaden":5248,"japansk":5249,"cupen":5250,"orer":5251,"ænd":5252,"egne":5253,"Nat":5254,"Nik":5255,"Opp":5256,"lei":5257,"oprin":5258,"Otto":5259,"lamnade":5260,"utfor":5261,"derne":5262,"respekt":5263,"begyndte":5264,"Kap":5265,"bodde":5266,"ay":5267,"bergstopp":5268,"botten":5269,"arke":5270,"skaps":5271,"1600":5272,"International":5273,"byr":5274,"kopp":5275,"lille":5276,"varmt":5277,"loppet":5278,"samlingen":5279,"betyder":5280,"bevis":5281,"undersø":5282,"alltid":5283,"Mange":5284,"problem":5285,"krets":5286,"final":5287,"Rod":5288,"dad":5289,"medalje":5290,"beskriv":5291,"matcher":5292,"beth":5293,"arv":5294,"lim":5295,"fokus":5296,"bolag":5297,"Bol":5298,"ress":5299,"hjul":5300,"darmed":5301,"atom":5302,"fortfarande":5303,"russisk":5304,"innehaller":5305,"utter":5306,"Hem":5307,"orke":5308,"sann":5309,"Siden":5310,"galler":5311,"avheng":5312,"69":5313,"oj":5314,"skrive":5315,"langre":5316,"tio":5317,"saman":5318,"museet":5319,"kje":5320,"Vin":5321,"mans":5322,"ires":5323,"lokale":5324,"unga":5325,"oarna":5326,"Dam":5327,"Delhi":5328,"samtidigt":5329,"Hog":5330,"spill":5331,"biflo":5332,"visar":5333,"Grun":5334,"stammer":5335,"medic":5336,"varav":5337,"oker":5338,"skatt":5339,"okte":5340,"regler":5341,"lagen":5342,"sangen":5343,"isme":5344,"dans":5345,"nant":5346,"Hø":5347,"ose":5348,"brug":5349,"olia":5350,"Schweiz":5351,"chy":5352,"prisen":5353,"orkideart":5354,"sarskilt":5355,"Records":5356,"alist":5357,"Frank":5358,"nades":5359,"1500":5360,"Sw":5361,"kore":5362,"matemat":5363,"skapen":5364,"iens":5365,"politik":5366,"Ama":5367,"Jen":5368,"cc":5369,"flodar":5370,"centrum":5371,"Skar":5372,"avvattnar":5373,"journalist":5374,"roller":5375,"ierna":5376,"suk":5377,"sne":5378,"ors":5379,"liknande":5380,"territor":5381,"medlemmar":5382,"studio":5383,"gjordes":5384,"bolaget":5385,"Daniel":5386,"jas":5387,"Tek":5388,"Ji":5389,"Airport":5390,"korea":5391,"Albumet":5392,"Mark":5393,"IV":5394,"radio":5395,"talte":5396,"lings":5397,"hustru":5398,"tjeneste":5399,"icola":5400,"tidigt":5401,"nordlige":5402,"sien":5403,"synlig":5404,"anse":5405,"prefektur":5406,"poang":5407,"yder":5408,"ania":5409,"Bet":5410,"ales":5411,"halla":5412,"skadespelare":5413,"desordning":5414,"biflodesordning":5415,"reh":5416,"gave":5417,"anses":5418,"menneske":5419,"sall":5420,"odor":5421,"aliser":5422,"direktør":5423,"Amerika":5424,"enkelte":5425,"Kh":5426,"dominer":5427,"valgte":5428,"anvandes":5429,"singel":5430,"Jabal":5431,"God":5432,"praktfjarilar":5433,"Norsk":5434,"livskraft":5435,"Hennes":5436,"nig":5437,"bronse":5438,"tera":5439,"Nederland":5440,"gange":5441,"grundades":5442,"slakt":5443,"bank":5444,"ah":5445,"1902":5446,"syl":5447,"avdel":5448,"tren":5449,"asi":5450,"Song":5451,"Fort":5452,"osia":5453,"Run":5454,"oides":5455,"prote":5456,"laga":5457,"spør":5458,"kvart":5459,"Noreg":5460,"Nya":5461,"mede":5462,"guverne":5463,"Russland":5464,"nevnt":5465,"wig":5466,"trent":5467,"Sid":5468,"tunn":5469,"Arro":5470,"ink":5471,"republiken":5472,"konfli":5473,"mad":5474,"Arbe":5475,"Lat":5476,"1901":5477,"kande":5478,"motsvar":5479,"fjerde":5480,"Edward":5481,"Adolf":5482,"az":5483,"indtil":5484,"nest":5485,"midten":5486,"1903":5487,"ledare":5488,"sikker":5489,"nende":5490,"Rob":5491,"lopp":5492,"sjef":5493,"42":5494,"aget":5495,"Wales":5496,"skill":5497,"værende":5498,"sey":5499,"idu":5500,"abri":5501,"mund":5502,"forand":5503,"spelades":5504,"kraftig":5505,"behandling":5506,"Lep":5507,"endte":5508,"bildade":5509,"mass":5510,"fant":5511,"eral":5512,"fakt":5513,"ferdig":5514,"æs":5515,"US":5516,"ordin":5517,"styrker":5518,"procent":5519,"platsen":5520,"version":5521,"strid":5522,"uppr":5523,"vingar":5524,"data":5525,"Kyr":5526,"1890":5527,"italiensk":5528,"psyk":5529,"Tour":5530,"ksjon":5531,"offisi":5532,"HL":5533,"femte":5534,"hev":5535,"gifter":5536,"ogne":5537,"reservat":5538,"eland":5539,"Barn":5540,"Ki":5541,"byggnaden":5542,"Hoved":5543,"Osterrike":5544,"Magnus":5545,"jev":5546,"Sing":5547,"ansen":5548,"Fram":5549,"oga":5550,"Frederik":5551,"Sogn":5552,"Rid":5553,"Has":5554,"gro":5555,"sim":5556,"85":5557,"Buen":5558,"Tot":5559,"Johann":5560,"pul":5561,"tart":5562,"kere":5563,"You":5564,"Gl":5565,"stallet":5566,"ffer":5567,"pi":5568,"kontakt":5569,"passer":5570,"fus":5571,"fagel":5572,"dvarg":5573,"profession":5574,"Senere":5575,"cens":5576,"malet":5577,"Ax":5578,"Lapp":5579,"astronom":5580,"unda":5581,"formel":5582,"livskraftig":5583,"somradet":5584,"regeringen":5585,"sva":5586,"ilus":5587,"kloster":5588,"irk":5589,"gavs":5590,"ston":5591,"Israel":5592,"rul":5593,"dring":5594,"komma":5595,"spelet":5596,"Albert":5597,"ovo":5598,"dater":5599,"paver":5600,"arbeider":5601,"King":5602,"46":5603,"anstall":5604,"typer":5605,"student":5606,"use":5607,"Angeles":5608,"skaber":5609,"østlige":5610,"anne":5611,"gaard":5612,"sprog":5613,"intres":5614,"belagen":5615,"rør":5616,"Aren":5617,"cke":5618,"gjer":5619,"utviklet":5620,"musiker":5621,"atan":5622,"grader":5623,"portr":5624,"ssland":5625,"brud":5626,"kansk":5627,"iets":5628,"sign":5629,"kinesisk":5630,"EU":5631,"zen":5632,"kombin":5633,"Shan":5634,"parasitsteklar":5635,"Rh":5636,"æk":5637,"modern":5638,"brokparasitsteklar":5639,"tj":5640,"kvinner":5641,"pu":5642,"straff":5643,"finansi":5644,"trom":5645,"sman":5646,"brand":5647,"nesten":5648,"Mala":5649,"kandidat":5650,"kust":5651,"lidae":5652,"She":5653,"alternat":5654,"mekan":5655,"Ple":5656,"gjøre":5657,"160":5658,"tidlegare":5659,"egna":5660,"nik":5661,"standard":5662,"kommit":5663,"nød":5664,"eksister":5665,"biller":5666,"CD":5667,"Sankt":5668,"produksjon":5669,"betydning":5670,"allen":5671,"Hit":5672,"historisk":5673,"Skott":5674,"tus":5675,"olin":5676,"Liban":5677,"Kin":5678,"rest":5679,"runde":5680,"vigt":5681,"Para":5682,"plom":5683,"match":5684,"Kirke":5685,"Foren":5686,"ude":5687,"dit":5688,"Irland":5689,"uan":5690,"kh":5691,"ool":5692,"vore":5693,"ophila":5694,"starten":5695,"bidrag":5696,"Gron":5697,"Les":5698,"gy":5699,"langa":5700,"ovis":5701,"ush":5702,"rys":5703,"ønder":5704,"ima":5705,"Tet":5706,"cin":5707,"vinn":5708,"civ":5709,"Hj":5710,"Hed":5711,"Fu":5712,"arar":5713,"situ":5714,"organisation":5715,"forlor":5716,"funnet":5717,"spis":5718,"huvudort":5719,"slog":5720,"styret":5721,"Film":5722,"But":5723,"Phil":5724,"sosi":5725,"Rosen":5726,"høye":5727,"universitetet":5728,"manu":5729,"hjemme":5730,"ave":5731,"konservat":5732,"iller":5733,"populær":5734,"Clar":5735,"plassen":5736,"sider":5737,"hjelp":5738,"slott":5739,"samlet":5740,"oftast":5741,"ior":5742,"minne":5743,"isseau":5744,"viss":5745,"sken":5746,"refer":5747,"ado":5748,"fulgte":5749,"manniskor":5750,"rettet":5751,"ager":5752,"dd":5753,"Ghar":5754,"uppe":5755,"ution":5756,"sjal":5757,"skov":5758,"produktion":5759,"Litt":5760,"russiske":5761,"Fl":5762,"tant":5763,"fotbolls":5764,"Buk":5765,"Underarter":5766,"opprettet":5767,"jørn":5768,"makedon":5769,"keiser":5770,"ary":5771,"numera":5772,"sakal":5773,"sonen":5774,"Ruisseau":5775,"Phili":5776,"Administ":5777,"800":5778,"silver":5779,"Hom":5780,"stede":5781,"obser":5782,"bøl":5783,"hom":5784,"IK":5785,"ism":5786,"Trondheim":5787,"tilhører":5788,"rust":5789,"omfatter":5790,"fund":5791,"myt":5792,"mob":5793,"nte":5794,"wer":5795,"historien":5796,"1898":5797,"dade":5798,"frit":5799,"backen":5800,"1897":5801,"omfattar":5802,"nan":5803,"Finn":5804,"rym":5805,"herr":5806,"Nap":5807,"Øster":5808,"riske":5809,"splan":5810,"Ky":5811,"køb":5812,"Moskva":5813,"gerne":5814,"Peak":5815,"internasjonale":5816,"sled":5817,"Dje":5818,"inder":5819,"planet":5820,"bestam":5821,"skriven":5822,"skiftet":5823,"dager":5824,"familj":5825,"ganske":5826,"gelser":5827,"æv":5828,"astero":5829,"tion":5830,"Oscar":5831,"Sof":5832,"kompos":5833,"tering":5834,"kolle":5835,"dium":5836,"41":5837,"ærende":5838,"vuxna":5839,"garen":5840,"delades":5841,"riksdelen":5842,"exempelvis":5843,"ktioner":5844,"43":5845,"holdsvis":5846,"jing":5847,"fordel":5848,"religi":5849,"Cle":5850,"rack":5851,"gede":5852,"hert":5853,"etta":5854,"versjon":5855,"trots":5856,"grevskapet":5857,"kristen":5858,"95":5859,"kraftverk":5860,"Mul":5861,"Divis":5862,"pap":5863,"tiller":5864,"makten":5865,"terne":5866,"ckor":5867,"Gal":5868,"omtrent":5869,"elektron":5870,"urus":5871,"tel":5872,"forvalt":5873,"gode":5874,"andin":5875,"suc":5876,"Matt":5877,"Tex":5878,"ursprungligen":5879,"premiar":5880,"kanske":5881,"byn":5882,"lærer":5883,"bryt":5884,"normalt":5885,"diam":5886,"dro":5887,"lund":5888,"etablert":5889,"andt":5890,"barne":5891,"varme":5892,"pha":5893,"1899":5894,"1896":5895,"ids":5896,"unde":5897,"sund":5898,"spesielt":5899,"division":5900,"pus":5901,"amn":5902,"ond":5903,"Tro":5904,"kers":5905,"skulp":5906,"insekter":5907,"gasin":5908,"sekret":5909,"stran":5910,"bedri":5911,"Champ":5912,"begrav":5913,"1880":5914,"divisjon":5915,"harad":5916,"dde":5917,"mente":5918,"ulus":5919,"Universitetet":5920,"-,":5921,"Dare":5922,"Mak":5923,"tildelt":5924,"bs":5925,".)":5926,"strat":5927,"erades":5928,"foretaget":5929,"vanligt":5930,"bruker":5931,"Utbredelse":5932,"uppgick":5933,"kval":5934,"rød":5935,"Eup":5936,"gjekk":5937,"nastan":5938,"Sor":5939,"kende":5940,"øse":5941,"63":5942,"liber":5943,"bedre":5944,"Skottland":5945,"kæ":5946,"rø":5947,"kunstner":5948,"arabiska":5949,"ament":5950,"Stre":5951,"pin":5952,"lighed":5953,"Danmarks":5954,"oende":5955,"spraket":5956,"selskapet":5957,"tekst":5958,"Stan":5959,"same":5960,"anta":5961,"bese":5962,"Mos":5963,"Trom":5964,"forbundslandet":5965,"flock":5966,"social":5967,"jevo":5968,"opus":5969,"1895":5970,"urner":5971,"Eri":5972,"obbel":5973,"Az":5974,"Andra":5975,"listen":5976,"Kj":5977,"gammal":5978,"Point":5979,"Djebel":5980,"ingo":5981,"styrelsen":5982,"toppen":5983,"isjonen":5984,"hes":5985,"transport":5986,"99":5987,"organiser":5988,"symbol":5989,"bour":5990,"sberg":5991,"spred":5992,"politiska":5993,"ytte":5994,"Aires":5995,"Jane":5996,"dent":5997,"bygningen":5998,"IS":5999,"separ":6000,"bladet":6001,"ape":6002,"sjukdom":6003,"eksped":6004,"hovedsa":6005,"Buenos":6006,"landeart":6007,"befal":6008,"artvaxter":6009,"sadan":6010,"hip":6011,"byggjar":6012,"cet":6013,"hendes":6014,"jes":6015,"øs":6016,"titel":6017,"mate":6018,"Karri":6019,"bocker":6020,"ovriga":6021,"verkar":6022,"apnet":6023,"utvikling":6024,"innenfor":6025,"vekt":6026,"bir":6027,"fiskar":6028,"Kur":6029,"historiske":6030,"Boli":6031,"delag":6032,"Ore":6033,"Heinrich":6034,"flertal":6035,"88":6036,"Grek":6037,"broder":6038,"skick":6039,"parken":6040,"mik":6041,"Alfred":6042,"central":6043,"stille":6044,"forslag":6045,"djup":6046,"Cham":6047,"atis":6048,"Chan":6049,"ruz":6050,"Dre":6051,"direktor":6052,"guvernementet":6053,"Miss":6054,"Fj":6055,"Spr":6056,"serna":6057,"rup":6058,"Stora":6059,"vitt":6060,"made":6061,"maskart":6062,"dommen":6063,"ical":6064,"Teater":6065,"drog":6066,"berre":6067,"nasjonal":6068,"edd":6069,"Befolkningen":6070,"edet":6071,"jakt":6072,"fien":6073,"Sle":6074,"iter":6075,"spart":6076,"lop":6077,"vitenskap":6078,"hvordan":6079,"lister":6080,"spro":6081,"uren":6082,"handler":6083,"sere":6084,"Pu":6085,"62":6086,"ungdoms":6087,"møt":6088,"600":6089,"tack":6090,"line":6091,"udgivet":6092,"Ros":6093,"Ost":6094,"Royal":6095,"ilt":6096,"britisk":6097,"sje":6098,"pian":6099,"informat":6100,"Indi":6101,"handlar":6102,"57":6103,"Not":6104,"Anne":6105,"styrke":6106,"popular":6107,"Geografi":6108,"andinav":6109,"².":6110,"opera":6111,"Nan":6112,"hjæl":6113,"beteck":6114,"eda":6115,"1870":6116,"Belg":6117,"inst":6118,"lats":6119,"1000":6120,"enten":6121,"nasi":6122,"seier":6123,"ernas":6124,"somrade":6125,"initi":6126,"Central":6127,"likt":6128,"mentar":6129,"Goteborgs":6130,"jeg":6131,"lene":6132,"super":6133,"Stav":6134,"Laguna":6135,"herre":6136,"kommunal":6137,"Rak":6138,"Cas":6139,"bedste":6140,"manus":6141,"respektive":6142,"Gora":6143,"standen":6144,"farg":6145,"Kommune":6146,"ower":6147,"Monte":6148,"igheten":6149,"Darreh":6150,"vanliga":6151,"ekte":6152,"Lor":6153,"Ang":6154,"utenfor":6155,"fragor":6156,"anen":6157,"olympiske":6158,"tilsvar":6159,"nst":6160,"turneringen":6161,"jun":6162,"Bry":6163,"Ren":6164,"bilder":6165,"seinare":6166,"Long":6167,"Little":6168,"skor":6169,"publikken":6170,"Ana":6171,"saken":6172,"stiftet":6173,"valdes":6174,"58":6175,"rater":6176,"uppfordes":6177,"Star":6178,"Rap":6179,"Navnet":6180,"avsnitt":6181,"Seoul":6182,"best":6183,"kamper":6184,"likevel":6185,"slandor":6186,"arie":6187,"Sab":6188,"serier":6189,"tør":6190,"nelse":6191,"Nils":6192,"kvinne":6193,"lyckades":6194,"bestaende":6195,"artist":6196,"atum":6197,"tills":6198,"not":6199,"stjarn":6200,"slandeart":6201,"arah":6202,"Musik":6203,"CA":6204,"glas":6205,"1893":6206,"Europe":6207,"marken":6208,"bolig":6209,"Dia":6210,"temperatur":6211,"funktion":6212,"Poly":6213,"sack":6214,"kalles":6215,"Adam":6216,"klock":6217,"agg":6218,"landslaget":6219,"Pot":6220,"just":6221,"gern":6222,"kopings":6223,"ologiska":6224,"militar":6225,"betal":6226,"hug":6227,"baggar":6228,"vanske":6229,"hørte":6230,"Olav":6231,"maneder":6232,"etts":6233,"neste":6234,"Dol":6235,"emal":6236,"salt":6237,"maet":6238,"Ari":6239,"77":6240,"snabb":6241,"vere":6242,"1889":6243,"plads":6244,"innbyggjar":6245,"varandra":6246,"1892":6247,"Ryssland":6248,"his":6249,"Koud":6250,"bind":6251,"anten":6252,"værk":6253,"diplom":6254,"eres":6255,"Sydney":6256,"tider":6257,"elever":6258,"Tem":6259,"europ":6260,"Sarajevo":6261,"landskommun":6262,"Tal":6263,"olympisk":6264,"medaljer":6265,"Aar":6266,"Lappland":6267,"lingarna":6268,"ridge":6269,"Sem":6270,"Simon":6271,"parten":6272,"Mary":6273,"nads":6274,".»":6275,"banan":6276,"Riks":6277,"otus":6278,"angrep":6279,"1894":6280,"bjerg":6281,"give":6282,"nytta":6283,"nordvest":6284,"Libanon":6285,"sette":6286,"otte":6287,"bevæ":6288,"inea":6289,"ال":6290,"61":6291,"ank":6292,"startade":6293,"øyene":6294,"cal":6295,"ques":6296,"skat":6297,"Pierre":6298,"Vinter":6299,"grens":6300,"øret":6301,"regnes":6302,"bøker":6303,"produc":6304,"artvaxtart":6305,"kken":6306,"Ob":6307,"planer":6308,"sentrum":6309,"Cra":6310,"ømme":6311,"Kl":6312,"amerika":6313,"ømmer":6314,"FA":6315,"utbildning":6316,"opprinnelig":6317,"enhet":6318,"ollar":6319,"1862":6320,"grek":6321,"arean":6322,"tillhorde":6323,"desig":6324,"kritik":6325,"Lille":6326,"naede":6327,"Tha":6328,"annu":6329,"brack":6330,"Ludvig":6331,"Stefan":6332,"rei":6333,"atisk":6334,"brukar":6335,"viden":6336,"Feder":6337,"Hansen":6338,"tradte":6339,"ansprak":6340,"festivalen":6341,"Prod":6342,"stral":6343,"NR":6344,"kelig":6345,"istiska":6346,"Ifølge":6347,"Bad":6348,"gad":6349,"dvargstritar":6350,"vakt":6351,"material":6352,"troll":6353,"Arroyo":6354,"Jakob":6355,"strek":6356,"pad":6357,"valde":6358,"lanet":6359,"Ober":6360,"elses":6361,"ance":6362,"Za":6363,"Tanjung":6364,"vul":6365,"vite":6366,"top":6367,"biart":6368,"rick":6369,"mesterskapet":6370,"Wash":6371,"Dyn":6372,"gresk":6373,"cta":6374,"(«":6375,"metal":6376,"eh":6377,"ason":6378,"orkester":6379,"Radio":6380,"slutningen":6381,"æld":6382,"Timur":6383,"pade":6384,"mul":6385,"poli":6386,"hogre":6387,"eldre":6388,"1891":6389,"Agu":6390,"benyttet":6391,"iteter":6392,"romerske":6393,"arhundrede":6394,"Ah":6395,"Roma":6396,"især":6397,"hertug":6398,"Villa":6399,"Sin":6400,"liksom":6401,"berget":6402,"hind":6403,"loven":6404,"jd":6405,"Bade":6406,"Division":6407,"iere":6408,"MS":6409,"brittiska":6410,"detal":6411,"union":6412,"hat":6413,"taler":6414,"illust":6415,"inae":6416,"iket":6417,"live":6418,"Sul":6419,"ylla":6420,"dommer":6421,"Ala":6422,"antar":6423,"Henri":6424,"felles":6425,"Elisa":6426,"78":6427,"avstand":6428,"sigt":6429,"bjorn":6430,"tron":6431,"Tol":6432,"1888":6433,"jeck":6434,"sommeren":6435,"jt":6436,"die":6437,"gn":6438,"sburg":6439,"statsminister":6440,"cell":6441,"esia":6442,"jazz":6443,"120":6444,"1885":6445,"illo":6446,"regjering":6447,"hjal":6448,"klær":6449,"ami":6450,"tolv":6451,"betydelse":6452,"type":6453,"klok":6454,"inratt":6455,"lea":6456,"Fyl":6457,"Shi":6458,"kommunik":6459,"Bang":6460,"avled":6461,"stendig":6462,"Spe":6463,"Ce":6464,"Atlan":6465,"Eric":6466,"kampe":6467,"militære":6468,"video":6469,"jak":6470,"ift":6471,"meister":6472,"satta":6473,"sjølv":6474,"kallades":6475,"vanligvis":6476,"venstre":6477,"turne":6478,"kyst":6479,"Trich":6480,"dramat":6481,"ulerade":6482,"Blan":6483,"forlag":6484,"dobbel":6485,"Soc":6486,"mac":6487,"ringen":6488,"spelte":6489,"rapporter":6490,"forsvars":6491,"Whi":6492,"Tak":6493,"selskap":6494,"bana":6495,"board":6496,"fjellet":6497,"modell":6498,"faktor":6499,"sager":6500,"lyst":6501,"Grekland":6502,"gangar":6503,"demon":6504,"traff":6505,"gransen":6506,"Kron":6507,"Rus":6508,"Grande":6509,"kro":6510,"Carol":6511,"Green":6512,"skold":6513,"turel":6514,"Walker":6515,"dorf":6516,"Peder":6517,"esel":6518,"havns":6519,"meir":6520,"Bygg":6521,"Bjor":6522,"Shu":6523,"kg":6524,"sasong":6525,"tagit":6526,"lage":6527,"visade":6528,"Hyp":6529,"motiv":6530,"lignende":6531,"larare":6532,"Sydkorea":6533,"varian":6534,"tinget":6535,"Bot":6536,"normal":6537,"moss":6538,"well":6539,"ows":6540,"1860":6541,"noget":6542,"Washington":6543,"ørs":6544,"Kle":6545,"bytte":6546,"bracksteklar":6547,"klasse":6548,"Len":6549,"omra":6550,"kerne":6551,"eldste":6552,"omet":6553,"gle":6554,"pavir":6555,"fanter":6556,"Folke":6557,"Californ":6558,"kok":6559,"gara":6560,"uro":6561,"stiden":6562,"Vastra":6563,"...":6564,"Museum":6565,"Music":6566,"Lee":6567,"kos":6568,"medverkade":6569,"Love":6570,"dekor":6571,"spansk":6572,"konkurrer":6573,"brukte":6574,"Ludwig":6575,"ischer":6576,"ligheten":6577,"Fir":6578,"Egyp":6579,"blot":6580,"fora":6581,"forkort":6582,"ligheter":6583,"spolit":6584,"lyd":6585,"Kultur":6586,"rikes":6587,"kede":6588,"How":6589,"Big":6590,"spelat":6591,"College":6592,"wi":6593,"org":6594,"Staden":6595,"foddes":6596,"ingick":6597,"Ped":6598,"Grøn":6599,"Bob":6600,"Cent":6601,"%)":6602,"kræ":6603,"Queens":6604,"skjer":6605,"latar":6606,"Jør":6607,"Mellan":6608,"king":6609,"Ernst":6610,"anti":6611,"sattning":6612,"Folket":6613,"sommarspelen":6614,"olis":6615,"foral":6616,"Stil":6617,"Tang":6618,"moh":6619,"Genom":6620,"Bis":6621,"59":6622,"Mit":6623,"enbart":6624,"poeng":6625,"serne":6626,"utnamn":6627,"slav":6628,"ringar":6629,"uma":6630,"stjer":6631,"inkludert":6632,"ambas":6633,"sede":6634,"øen":6635,"otball":6636,"typisk":6637,"besok":6638,"holms":6639,"Just":6640,"sige":6641,"Oly":6642,"dringer":6643,"matt":6644,"invig":6645,"solgt":6646,"sve":6647,"historiker":6648,"arig":6649,"titeln":6650,"Lil":6651,"uppdrag":6652,"byens":6653,"diameter":6654,"Lom":6655,"Bow":6656,"jul":6657,"zhou":6658,"opphav":6659,"ckel":6660,"Sammen":6661,"setning":6662,"Sang":6663,"Pon":6664,"Hil":6665,"yi":6666,"mangd":6667,"syv":6668,"dæ":6669,"manader":6670,"elv":6671,"anvanda":6672,"pastor":6673,"reformen":6674,"mission":6675,"ters":6676,"Ray":6677,"pon":6678,"repræ":6679,"starkt":6680,"representant":6681,"span":6682,"nominer":6683,"utbredt":6684,"ocar":6685,"maskin":6686,"sagt":6687,"flag":6688,"forut":6689,"soma":6690,"ventu":6691,"skipet":6692,"inva":6693,"ctic":6694,"miljo":6695,"kanalen":6696,"pens":6697,"1887":6698,"Reser":6699,"samhallet":6700,"Utover":6701,"internationella":6702,"uch":6703,"52":6704,"zy":6705,"see":6706,"tittelen":6707,"ulata":6708,"yang":6709,"Fest":6710,"Aten":6711,"SC":6712,"Mars":6713,"prest":6714,"arbetar":6715,"utdan":6716,"formet":6717,"italienske":6718,"Sud":6719,"vu":6720,"prins":6721,"holmen":6722,"æst":6723,"anvandas":6724,"betydelig":6725,"duk":6726,"uppmark":6727,"stoff":6728,"grunnlagt":6729,"Jesus":6730,"stær":6731,"inske":6732,"School":6733,"brons":6734,"Nas":6735,"forhallanden":6736,"1884":6737,"forekom":6738,"ory":6739,"98":6740,"svan":6741,"gate":6742,"Lis":6743,"økonomiske":6744,"Cro":6745,"meng":6746,"viet":6747,"ktene":6748,"sum":6749,"sjalva":6750,"misjon":6751,"erar":6752,"entet":6753,"slutning":6754,"ican":6755,"flockblomm":6756,"utstall":6757,"skrivit":6758,"sekretær":6759,"kontroller":6760,"Dub":6761,"prot":6762,"leker":6763,"hag":6764,"skij":6765,"Victoria":6766,"dubbel":6767,"øren":6768,"Wind":6769,"hjer":6770,"It":6771,"kendte":6772,"oslav":6773,"hidae":6774,"klare":6775,"arkitektur":6776,"kjend":6777,"Harry":6778,"fjarde":6779,"Bei":6780,"fartyg":6781,"strateg":6782,"lers":6783,"Champions":6784,"Idr":6785,"vinner":6786,"une":6787,"amar":6788,"begynnelsen":6789,"Kungliga":6790,"pave":6791,"Administrat":6792,"East":6793,"72":6794,"tving":6795,"bast":6796,"vold":6797,"Munchen":6798,"dry":6799,"Ogsa":6800,"Hei":6801,"ollen":6802,"Bod":6803,"Syn":6804,"olje":6805,"desuden":6806,"Arthur":6807,"dessutom":6808,"hof":6809,"1886":6810,"NM":6811,"Ole":6812,"problemer":6813,"avaxter":6814,"historik":6815,"fu":6816,"Kroat":6817,"sekr":6818,"høje":6819,"stillingen":6820,"sommaren":6821,"vokat":6822,"bakken":6823,"Kopen":6824,"1878":6825,"bosatt":6826,"ophyll":6827,"byggnader":6828,"blomster":6829,"lex":6830,"dela":6831,"mist":6832,"konsert":6833,"stæn":6834,"Pop":6835,"tilf":6836,"løb":6837,"midler":6838,"Bart":6839,"utnevnt":6840,"spelaren":6841,"systemat":6842,"dennes":6843,"Moder":6844,"Tru":6845,"kyrko":6846,"Hau":6847,"landskap":6848,"168":6849,"Ass":6850,"Kil":6851,"funn":6852,"skifte":6853,"yan":6854,"vap":6855,"arbeten":6856,"itionen":6857,"Organ":6858,"strup":6859,"akadem":6860,"elev":6861,"Valle":6862,"Kre":6863,"Portug":6864,"Olof":6865,"lagde":6866,"oe":6867,"orm":6868,"landsby":6869,"slin":6870,"ackum":6871,"kommet":6872,"inten":6873,"Axel":6874,"jurid":6875,"Alto":6876,"linger":6877,"urn":6878,"plar":6879,"inled":6880,"1882":6881,"rund":6882,"hæn":6883,"uther":6884,"idrott":6885,"Holm":6886,"Abo":6887,"innbyggjarar":6888,"tif":6889,"skel":6890,"ois":6891,"bygninger":6892,"ungar":6893,"FN":6894,"viken":6895,"Egypten":6896,"war":6897,"base":6898,"samarbeid":6899,"magasin":6900,"betyr":6901,"Amp":6902,"Lov":6903,"DR":6904,"bakom":6905,"Margar":6906,"luk":6907,"fylkes":6908,"lagd":6909,"Ring":6910,"Noen":6911,"79":6912,"avan":6913,"forbindel":6914,"individu":6915,"deligt":6916,"lita":6917,"børn":6918,"ib":6919,"formann":6920,"esen":6921,"altsa":6922,"Klubben":6923,"german":6924,"omfattande":6925,"ugu":6926,"obel":6927,"India":6928,"ador":6929,"mond":6930,"perman":6931,"chsen":6932,"lovak":6933,"examen":6934,"officer":6935,"klassi":6936,"initiativ":6937,"modeller":6938,"vendte":6939,"stilt":6940,"skilda":6941,"Eurovis":6942,"High":6943,"nødven":6944,"SV":6945,"Andreas":6946,"kulturel":6947,"Spel":6948,"vede":6949,"komite":6950,"forsok":6951,"utvi":6952,"Irak":6953,"voksne":6954,"forhand":6955,"71":6956,"iri":6957,"iserte":6958,"1863":6959,"Ing":6960,"naz":6961,"fallet":6962,"Spania":6963,"ido":6964,"gdom":6965,"Harald":6966,"islam":6967,"Gunnar":6968,"ilia":6969,"odon":6970,"alvor":6971,"1879":6972,"issi":6973,"Sao":6974,"Store":6975,"ledende":6976,"frukt":6977,"Københavns":6978,"kaldt":6979,"Forsvar":6980,"bryg":6981,"spillere":6982,"White":6983,"RA":6984,"redaktør":6985,"56":6986,"avaxtart":6987,"Olymp":6988,"debuterade":6989,"Dic":6990,"Rol":6991,"Vit":6992,"diale":6993,"lære":6994,"skriften":6995,"54":6996,"hæng":6997,"lid":6998,"dynast":6999,"skjed":7000,"Gav":7001,"yen":7002,"gsel":7003,"yah":7004,"visa":7005,"sterkt":7006,"Eurovision":7007,"løbet":7008,"Jag":7009,"Chic":7010,"orn":7011,"Frankrig":7012,"Bell":7013,"Wer":7014,"osus":7015,"fotbollsspelare":7016,"1864":7017,"verd":7018,"fuld":7019,"ackumulerade":7020,"hæren":7021,"tegnet":7022,"løst":7023,"Cry":7024,"Barat":7025,"pseud":7026,"arane":7027,"tun":7028,"Brasil":7029,"Aret":7030,"hogskolan":7031,"rent":7032,"vaxte":7033,"Rag":7034,"studerte":7035,"Tok":7036,"almin":7037,"Kunst":7038,"1881":7039,"Bayer":7040,"Høy":7041,"pur":7042,"stræ":7043,"Alla":7044,"bruges":7045,"Leve":7046,"entiteten":7047,"Knut":7048,"drama":7049,"1883":7050,"Tit":7051,"delade":7052,"France":7053,"kontra":7054,"Ukra":7055,"Scot":7056,"250":7057,"anvander":7058,"NRK":7059,"Stud":7060,"prop":7061,"raknas":7062,"stater":7063,"sendte":7064,"finne":7065,"siv":7066,"51":7067,"parall":7068,"VD":7069,"yx":7070,"Institut":7071,"framsta":7072,"artiller":7073,"dop":7074,"freds":7075,"katolske":7076,"Vo":7077,"kvarter":7078,"historiska":7079,"hvil":7080,"alene":7081,"has":7082,"Vilhelm":7083,"stø":7084,"Emil":7085,"ristians":7086,"Prix":7087,"eli":7088,"fyrste":7089,"Gruppen":7090,"bong":7091,"bek":7092,"hack":7093,"giftet":7094,"mala":7095,"Wood":7096,"aceae":7097,"Francisco":7098,"kristne":7099,"still":7100,"mmel":7101,"Nov":7102,"gers":7103,"ines":7104,"tillrack":7105,"Kas":7106,"forsamlingen":7107,"parlamentet":7108,"hum":7109,"Skane":7110,"hara":7111,"legen":7112,"ledelse":7113,"Liber":7114,"jol":7115,"seri":7116,"inspel":7117,"Kim":7118,"grasart":7119,"ifølge":7120,"dator":7121,"etn":7122,"stedt":7123,"eten":7124,"700":7125,"iret":7126,"Vas":7127,"fald":7128,"antall":7129,"bered":7130,"skaff":7131,"Vik":7132,"romersk":7133,"skulptur":7134,"økonomisk":7135,"BC":7136,"biner":7137,"beskriver":7138,"beliggende":7139,"planter":7140,"foss":7141,"»)":7142,"invol":7143,"Ferdin":7144,"erstatt":7145,"agde":7146,"tryck":7147,"filosofi":7148,"registrer":7149,"saari":7150,"projekt":7151,"jød":7152,"varer":7153,"befinner":7154,"emot":7155,"Sund":7156,"gjel":7157,"Norske":7158,"Isa":7159,"Club":7160,"produsert":7161,"løse":7162,"foljd":7163,"Tab":7164,"Off":7165,"eras":7166,"130":7167,"tyd":7168,"vingene":7169,"Bus":7170,"day":7171,"gis":7172,"vur":7173,"Lands":7174,"kle":7175,"klin":7176,"kammer":7177,"ان":7178,"uavheng":7179,"Scott":7180,"Cr":7181,"Gon":7182,"rh":7183,"trykk":7184,"arande":7185,"holls":7186,"tand":7187,"76":7188,"gane":7189,"mig":7190,"1875":7191,"Jens":7192,"ønn":7193,"1865":7194,"sentral":7195,"analy":7196,"arbetet":7197,"ordenen":7198,"talets":7199,"skript":7200,"ouse":7201,"føring":7202,"erobr":7203,"horde":7204,"ligaen":7205,"amt":7206,"Franco":7207,"geli":7208,"adel":7209,"terede":7210,"søster":7211,"Sø":7212,"rute":7213,"در":7214,"studie":7215,"naturreservat":7216,"wards":7217,"vanligen":7218,"General":7219,"aldsta":7220,"53":7221,"spanske":7222,"vejen":7223,"soner":7224,"bestemt":7225,"Tysk":7226,"nationella":7227,"Das":7228,"Hard":7229,"ihop":7230,"psy":7231,"linjer":7232,"dell":7233,"Nova":7234,"listan":7235,"pans":7236,"sjalvstand":7237,"produkter":7238,"beck":7239,"stationen":7240,"design":7241,"erstattet":7242,"Kos":7243,"sterna":7244,"hei":7245,"1850":7246,"Manga":7247,"ktig":7248,"Arn":7249,"VI":7250,"fandt":7251,"DS":7252,"bruke":7253,"overfor":7254,"lanser":7255,"chester":7256,"lenger":7257,"Ann":7258,"slottet":7259,"inneholder":7260,"garn":7261,"flygplan":7262,"1877":7263,"ums":7264,"Pod":7265,"Serien":7266,"our":7267,"imod":7268,"plad":7269,"bergspass":7270,"inklus":7271,"anthus":7272,"jus":7273,"forlorade":7274,"malar":7275,"arist":7276,"kanten":7277,"other":7278,"kapa":7279,"Statens":7280,"erb":7281,"1200":7282,"domen":7283,"olo":7284,"Tele":7285,"cos":7286,"Ferdinand":7287,"sjek":7288,"bury":7289,"hia":7290,"syster":7291,"dari":7292,"media":7293,"Stavanger":7294,"Bolivia":7295,"vre":7296,"ophyllum":7297,"indbyggere":7298,"umet":7299,"havs":7300,"Fag":7301,"ello":7302,"taxa":7303,"Die":7304,"noko":7305,"væk":7306,"Juan":7307,"74":7308,"sentrale":7309,"oro":7310,"verdi":7311,"Sn":7312,"desse":7313,"mænd":7314,"begran":7315,"Nikola":7316,"cup":7317,"øndelag":7318,"usten":7319,"suksess":7320,"universit":7321,"gaver":7322,"reakt":7323,"Ned":7324,"slet":7325,"teori":7326,"bibliotek":7327,"sprin":7328,"skilde":7329,"kreis":7330,"igenom":7331,"fold":7332,"formal":7333,"arbets":7334,"Gard":7335,"Im":7336,"ente":7337,"gymnasi":7338,"omfattende":7339,"Dun":7340,"ics":7341,"primær":7342,"Herr":7343,"bidra":7344,"text":7345,"Utbred":7346,"organisasjon":7347,"Andersson":7348,"finst":7349,"tager":7350,"landslag":7351,"eus":7352,"upptacktes":7353,"sili":7354,"atervande":7355,"sena":7356,"Gir":7357,"klarte":7358,"tunnel":7359,"undersok":7360,"amask":7361,"ingenjor":7362,"Bandet":7363,"faglar":7364,"fallande":7365,"fullt":7366,"brann":7367,"dokumentar":7368,"Gott":7369,"Folk":7370,"Hab":7371,"Fle":7372,"Varm":7373,"belag":7374,"hotad":7375,"europeiske":7376,"vika":7377,"Chri":7378,"sekreter":7379,"Darefter":7380,"Trøndelag":7381,"fars":7382,"anga":7383,"Pasir":7384,"betet":7385,"Natur":7386,"Kot":7387,"kans":7388,"liggande":7389,"epis":7390,"dvs":7391,"1874":7392,"ival":7393,"formand":7394,"utgjorde":7395,"fulgt":7396,"Nic":7397,"tusen":7398,"Charlot":7399,"mane":7400,"cip":7401,"infl":7402,"korre":7403,"alls":7404,"rac":7405,"sterne":7406,"danska":7407,"blok":7408,"Filipp":7409,"73":7410,"Dansk":7411,"kov":7412,"dannelse":7413,"agua":7414,"\"\"":7415,"Had":7416,"Pic":7417,"Step":7418,"davarande":7419,"brugt":7420,"arbejder":7421,"songer":7422,"drene":7423,"1866":7424,"dals":7425,"Levevis":7426,"sjoarna":7427,"ident":7428,"Kha":7429,"Tekn":7430,"lenge":7431,"viktigaste":7432,"arden":7433,"puter":7434,"offentlige":7435,"ugo":7436,"rita":7437,"bredt":7438,"Kamp":7439,"non":7440,"reb":7441,"kade":7442,"traf":7443,"værker":7444,"Will":7445,"Shar":7446,"wald":7447,"EP":7448,"Frem":7449,"Glac":7450,"Pter":7451,"Top":7452,"svarte":7453,"1876":7454,"Queensland":7455,"individer":7456,"American":7457,"140":7458,"krimin":7459,"rask":7460,"konkurransen":7461,"kroner":7462,"perioder":7463,"skud":7464,"enes":7465,"undervisning":7466,"skre":7467,"ønske":7468,"icke":7469,"ladi":7470,"1871":7471,"esp":7472,"Chu":7473,"idi":7474,"Glacier":7475,"ligan":7476,"høyde":7477,"viktigste":7478,"instrument":7479,"Contest":7480,"bygde":7481,"camp":7482,"nordøst":7483,"sche":7484,"dollar":7485,"iler":7486,"Zag":7487,"Nielsen":7488,"bygga":7489,"lave":7490,"Bun":7491,"Bukit":7492,"sitter":7493,"qvist":7494,"oar":7495,"avis":7496,"relsen":7497,"studenter":7498,"vens":7499,"syke":7500,"fog":7501,"atar":7502,"ivet":7503,"vic":7504,"Teg":7505,"centi":7506,"Hermann":7507,"inska":7508,"prom":7509,"klassisk":7510,"essen":7511,"hovedsakelig":7512,"gelig":7513,"yet":7514,"hai":7515,"fugl":7516,"Janeiro":7517,"hyl":7518,"Asp":7519,"Norden":7520,"angreb":7521,"iør":7522,"Johans":7523,"kapit":7524,")\"":7525,"preg":7526,"allra":7527,"interesse":7528,"stadion":7529,"gruppa":7530,"Khan":7531,"Lie":7532,"out":7533,"lass":7534,"Franz":7535,"rea":7536,"Blom":7537,"Fru":7538,"Frederiks":7539,"cur":7540,"ophora":7541,"forsy":7542,"omer":7543,"daga":7544,"framgangs":7545,"jente":7546,"verka":7547,"Dur":7548,"ates":7549,"oblast":7550,"japanske":7551,"Santo":7552,"sutøver":7553,"App":7554,"Py":7555,"skrigen":7556,"chs":7557,"Antonio":7558,"kunn":7559,"vita":7560,"Bris":7561,"tross":7562,"oca":7563,"Pala":7564,"tros":7565,"romanen":7566,"mont":7567,"ingart":7568,"1848":7569,"Turner":7570,"Rei":7571,"senteret":7572,"halls":7573,"Viet":7574,"Republi":7575,"”.":7576,"stadens":7577,"ademien":7578,"kens":7579,"tillgang":7580,"Brown":7581,"Pap":7582,"Massa":7583,"Hart":7584,"bott":7585,"Blant":7586,"juvel":7587,"annon":7588,"Mega":7589,"sørvest":7590,"js":7591,"negat":7592,"Kopenhamn":7593,"hva":7594,"California":7595,"Heter":7596,"hverandre":7597,"pest":7598,"varde":7599,"korte":7600,"forvar":7601,"driv":7602,"emon":7603,"konkurren":7604,"skedde":7605,"Jørgen":7606,"Sag":7607,"igare":7608,"Hag":7609,"observat":7610,"vigtig":7611,"uttal":7612,"dage":7613,"Smal":7614,"1868":7615,"tema":7616,"wadi":7617,"Ford":7618,"koloni":7619,"ici":7620,"berøm":7621,"tidspunkt":7622,"tryk":7623,"religion":7624,"grunden":7625,"inert":7626,"Jebel":7627,"rene":7628,"priset":7629,"nasjonale":7630,"organisationen":7631,"Barcel":7632,"later":7633,"Dyntaxa":7634,"rekl":7635,"ældre":7636,"borjar":7637,"1872":7638,"vags":7639,"umen":7640,"døy":7641,"gelige":7642,"vester":7643,"Engel":7644,"arm":7645,"Kateg":7646,"amat":7647,"ylland":7648,"dokumenter":7649,"dekk":7650,"sno":7651,"harkran":7652,"kontin":7653,"skabe":7654,"Flere":7655,"oto":7656,"narmaste":7657,"lian":7658,"Pil":7659,"overtog":7660,"assist":7661,"imm":7662,"mmy":7663,"flykt":7664,"MW":7665,"ming":7666,"Lø":7667,"stjerne":7668,"oppna":7669,"Asia":7670,"lykke":7671,"May":7672,"bærer":7673,"mansk":7674,"frivil":7675,"Nort":7676,"bjornspinnare":7677,"saval":7678,"stallde":7679,"harkrankar":7680,"angri":7681,"Abra":7682,"skriva":7683,"stens":7684,"Pere":7685,"bili":7686,"app":7687,"1869":7688,"antik":7689,"aux":7690,"Union":7691,"ration":7692,"Domin":7693,"turnering":7694,"artene":7695,"kanon":7696,"86":7697,"metall":7698,"brittisk":7699,"gress":7700,"1867":7701,"stas":7702,"partier":7703,"nader":7704,"\";":7705,"trans":7706,"ønsket":7707,"Soci":7708,"lakare":7709,"venn":7710,"Ivan":7711,"Rudolf":7712,"Hos":7713,"modellen":7714,"hende":7715,"nogen":7716,"okar":7717,"Tjeck":7718,"110":7719,"zan":7720,"driver":7721,"Att":7722,"FF":7723,"uddann":7724,"Chal":7725,"Djur":7726,"revolusjon":7727,"Stein":7728,"Let":7729,"hoff":7730,"96":7731,"long":7732,"iae":7733,"Bes":7734,"inflyt":7735,"1873":7736,"iana":7737,"Blu":7738,"kinesiske":7739,"stren":7740,"autom":7741,"Sangen":7742,"slar":7743,"føres":7744,"lare":7745,"Napole":7746,"skild":7747,"fraga":7748,"rette":7749,"Pin":7750,"ikanska":7751,"Ribe":7752,"priser":7753,"Ingen":7754,"diri":7755,"raskt":7756,"konsul":7757,"kungen":7758,"lengre":7759,"arets":7760,"Bakgrunn":7761,"betrakt":7762,"Strand":7763,"ægte":7764,"hoga":7765,"samle":7766,"Guy":7767,"Kall":7768,"reiste":7769,"kronor":7770,"Mellom":7771,"front":7772,"Gym":7773,"fry":7774,"given":7775,"Pel":7776,"ømm":7777,"tz":7778,"herunder":7779,"1861":7780,"orsak":7781,"alko":7782,"mart":7783,"ax":7784,"snar":7785,"alltsa":7786,"gol":7787,"etenskap":7788,"Stortinget":7789,"afri":7790,"lera":7791,"fos":7792,"okrater":7793,"reise":7794,"akten":7795,"vern":7796,"berak":7797,"97":7798,"Rey":7799,"Sir":7800,"plante":7801,"hir":7802,"stang":7803,"forbud":7804,"infanter":7805,"rygg":7806,"NT":7807,"Ola":7808,"Teng":7809,"elven":7810,"artister":7811,"slekten":7812,"regnet":7813,"ange":7814,"Senare":7815,"92":7816,"medis":7817,"ui":7818,"brø":7819,"Historik":7820,"stillinger":7821,"snabbt":7822,"inklusive":7823,"villa":7824,"Utloppet":7825,"nod":7826,"metoder":7827,"Portugal":7828,"dsel":7829,"ones":7830,"Chil":7831,"strack":7832,"ada":7833,"aring":7834,"Chicago":7835,"Ye":7836,"Sat":7837,"Abu":7838,"Sula":7839,"stemmer":7840,"tyder":7841,"Jones":7842,"esjon":7843,"bt":7844,"mangfot":7845,"elin":7846,"gjeve":7847,"ettersom":7848,"Tas":7849,"cover":7850,"skillnad":7851,"iland":7852,"kamer":7853,"regjeringen":7854,"rigt":7855,"bens":7856,"myndigheter":7857,"varldens":7858,"fotballspiller":7859,"Famili":7860,"hals":7861,"hovedstad":7862,"Kategori":7863,"stjar":7864,"deltag":7865,"ders":7866,"fjern":7867,"levende":7868,"flav":7869,"losa":7870,"Texas":7871,"tillrackligt":7872,"advokat":7873,"bruks":7874,"deb":7875,"skepp":7876,"medaljen":7877,"ellers":7878,"ursprungliga":7879,"lej":7880,"ktionen":7881,"Dessutom":7882,"cra":7883,"debuterte":7884,"Administrativ":7885,"Rein":7886,"hoe":7887,"Law":7888,"Riv":7889,"hil":7890,"mani":7891,"Dr":7892,"Od":7893,"sekreterare":7894,"chia":7895,"yth":7896,"troligen":7897,"landsbyen":7898,"Kroatien":7899,"Jensen":7900,"Samuel":7901,"foljde":7902,"Cir":7903,"farger":7904,"gods":7905,"danner":7906,"plate":7907,"Gronland":7908,"jernbane":7909,"lix":7910,"ugoslav":7911,"kammar":7912,"Station":7913,"sekun":7914,"erstat":7915,"posten":7916,"byra":7917,"forsknings":7918,"norska":7919,"undan":7920,"ов":7921,"utgang":7922,"Amt":7923,"junior":7924,"Glav":7925,"Lad":7926,"trekk":7927,"Trots":7928,"Mann":7929,"riska":7930,"møn":7931,"ussen":7932,"gøre":7933,"ægt":7934,"erov":7935,"lesvig":7936,"kejser":7937,"Tenga":7938,"wick":7939,"oda":7940,"vunnet":7941,"solen":7942,"fav":7943,"Sveits":7944,"solo":7945,"betegnelsen":7946,"endnu":7947,"Wolf":7948,"marevaxter":7949,"chin":7950,"legge":7951,"overtok":7952,"Pula":7953,"stykke":7954,"oi":7955,"kred":7956,"tidningen":7957,"strof":7958,"ressen":7959,"Slaget":7960,"skib":7961,"Mens":7962,"unger":7963,"mossart":7964,"rorelsen":7965,"kob":7966,"Phou":7967,"bys":7968,"fundet":7969,"blan":7970,"ekstra":7971,"fodboldspiller":7972,"Sla":7973,"Vel":7974,"samen":7975,"osc":7976,"Stal":7977,"skogs":7978,"ogrammet":7979,"bai":7980,"sporter":7981,"Compan":7982,"Tengah":7983,"center":7984,"torn":7985,"redus":7986,"fritt":7987,"syns":7988,"sluttet":7989,"hardt":7990,"Gabri":7991,"otta":7992,"prø":7993,"mind":7994,"anlagg":7995,"rande":7996,"delte":7997,"Alban":7998,"gotland":7999,"plassert":8000,"sesong":8001,"Cop":8002,"sja":8003,"styrelse":8004,"Kort":8005,"stipen":8006,"information":8007,"fabri":8008,"anter":8009,"finsk":8010,"Forsamlingen":8011,"arrester":8012,"inntil":8013,"strax":8014,"gementet":8015,"grundade":8016,"tapte":8017,"avn":8018,"orda":8019,"Nes":8020,"bladmossart":8021,"desh":8022,"typen":8023,"kvalitet":8024,"flora":8025,"offiser":8026,"flate":8027,"tata":8028,"hastighet":8029,"mater":8030,"sporsack":8031,"eksem":8032,"udiat":8033,"fera":8034,"protest":8035,"hart":8036,"jekter":8037,"pennis":8038,"beroende":8039,"Jamt":8040,"Barcelona":8041,"symp":8042,"arbeta":8043,"Hamp":8044,"egnet":8045,"Lyn":8046,"næsten":8047,"vinde":8048,"angel":8049,"sporsacksvampar":8050,"musikal":8051,"varia":8052,"ikon":8053,"utstyr":8054,"timer":8055,"Sri":8056,"legger":8057,"Koudiat":8058,"Serra":8059,"Ordet":8060,"legget":8061,"avrinningsomradena":8062,"spring":8063,"Raknas":8064,"stade":8065,"drom":8066,"beskrevet":8067,"\"(":8068,"celler":8069,"mener":8070,"guvernor":8071,"93":8072,"Bom":8073,"deren":8074,"Coll":8075,"stop":8076,"Hvis":8077,"eventu":8078,"cephal":8079,"strids":8080,"drept":8081,"NS":8082,"forsøk":8083,"Utbredning":8084,"gemente":8085,"kav":8086,"populære":8087,"belg":8088,"mykje":8089,"vie":8090,"char":8091,"ylus":8092,"Castle":8093,"tilsvarende":8094,"jader":8095,"tals":8096,"kaldes":8097,"CO":8098,"Elisabeth":8099,"ckte":8100,"derefter":8101,"Suc":8102,"Brisbane":8103,"spen":8104,"cas":8105,"anvande":8106,"verds":8107,"spon":8108,"IA":8109,"portug":8110,"uly":8111,"diskuter":8112,"retten":8113,"inia":8114,"asteroid":8115,"isol":8116,"forret":8117,"ordfører":8118,"ningene":8119,"interv":8120,"ij":8121,"Western":8122,"materiale":8123,"kropps":8124,"jordbruk":8125,"unnit":8126,"zak":8127,"Alber":8128,"masse":8129,"nevnte":8130,"krev":8131,"Kongo":8132,"Beir":8133,"Beat":8134,"Prem":8135,"Virgin":8136,"hosten":8137,"bund":8138,"atre":8139,"partiets":8140,"bere":8141,"prost":8142,"angen":8143,"stafett":8144,"ungen":8145,"idea":8146,"zu":8147,"1858":8148,"ømmet":8149,"hockey":8150,"nøy":8151,"Orebro":8152,"Samtidig":8153,"Konstant":8154,"Bab":8155,"grade":8156,"integr":8157,"nø":8158,"skinn":8159,"hundra":8160,"Prag":8161,"bly":8162,"1859":8163,"Luft":8164,"samfunn":8165,"længere":8166,"Ostra":8167,"bestemte":8168,"framgang":8169,"Fær":8170,"nationale":8171,"Lim":8172,"argu":8173,"Fylkes":8174,"Pha":8175,"Arne":8176,"NHL":8177,"Wat":8178,"sed":8179,"personen":8180,"atem":8181,"minutter":8182,"ernes":8183,"komponist":8184,"ighed":8185,"icol":8186,"variant":8187,"verksamheten":8188,"sikre":8189,"Vor":8190,"tilknyt":8191,"zia":8192,"greve":8193,"Center":8194,"skott":8195,"teknik":8196,"Petter":8197,"icum":8198,"rego":8199,"Ton":8200,"Ei":8201,"forste":8202,"sørlige":8203,"prefekturen":8204,"uto":8205,"levande":8206,"SK":8207,"Bjørn":8208,"Inom":8209,"Williams":8210,"syr":8211,"Beirut":8212,"Bent":8213,"natten":8214,"battre":8215,"onde":8216,"samarbete":8217,"yu":8218,"rigs":8219,"sovjetiske":8220,"One":8221,"ansatte":8222,"klipp":8223,"begra":8224,"hra":8225,"tein":8226,"million":8227,"Mir":8228,"selve":8229,"stolen":8230,"velser":8231,"dera":8232,"ison":8233,"vass":8234,"soc":8235,"uelle":8236,"Inge":8237,"sset":8238,"Lew":8239,"reguler":8240,"Cur":8241,"permanent":8242,"øyer":8243,"Gren":8244,"Edvard":8245,"præsident":8246,"møtte":8247,"vunnit":8248,"kvinde":8249,"Oden":8250,"stalldes":8251,"94":8252,"ungs":8253,"otum":8254,"informa":8255,"fotograf":8256,"graden":8257,"cykel":8258,"slagen":8259,"Hir":8260,"vav":8261,"drott":8262,"igan":8263,"handlinger":8264,"Johnson":8265,"opført":8266,"frihet":8267,"delarna":8268,"fordelt":8269,"cit":8270,"skop":8271,"introducer":8272,"Ach":8273,"TA":8274,"ningens":8275,"Julius":8276,"marevaxtart":8277,"bygging":8278,"møte":8279,"økonomi":8280,"resultatet":8281,"orum":8282,"oftest":8283,"erefter":8284,"kalender":8285,"praks":8286,"Brdo":8287,"Mali":8288,"minnes":8289,"Brom":8290,"tala":8291,"kardin":8292,"benam":8293,"ljud":8294,"prast":8295,"ods":8296,"tap":8297,"ues":8298,"solgte":8299,"tennis":8300,"grense":8301,"aton":8302,"Kaliforn":8303,"Mand":8304,"bell":8305,"medvir":8306,"hvad":8307,"sekunder":8308,"høyeste":8309,"flest":8310,"hul":8311,"Kalmar":8312,"nio":8313,"mea":8314,"Tun":8315,"tidens":8316,"box":8317,"Pradesh":8318,"utover":8319,"feil":8320,"fattig":8321,"Tillsammans":8322,"fanta":8323,"Aa":8324,"nærings":8325,"rium":8326,"iku":8327,"gata":8328,"sort":8329,"fored":8330,"1840":8331,"Pulau":8332,"aktig":8333,"tanter":8334,"Jackson":8335,"koncer":8336,"Pom":8337,"øvrige":8338,"diver":8339,"Open":8340,"Hur":8341,"tæt":8342,"flyttades":8343,"Kalifornien":8344,"attra":8345,"henhold":8346,"zirk":8347,"kem":8348,"Sus":8349,"itu":8350,"optera":8351,"sterk":8352,"chn":8353,"Organis":8354,"cess":8355,"And":8356,"deira":8357,"Gali":8358,"82":8359,"Hop":8360,"Slekten":8361,"Ungarn":8362,"Egypt":8363,"sitet":8364,"ierra":8365,"atiske":8366,"mic":8367,"ringmaskart":8368,"stin":8369,"Huvud":8370,"total":8371,"Sofia":8372,"900":8373,"1857":8374,"skrevs":8375,"itioner":8376,"adens":8377,"BA":8378,"Oli":8379,"Dahl":8380,"Lago":8381,"McC":8382,"foll":8383,"Jor":8384,"sier":8385,"adskil":8386,"rie":8387,"rert":8388,"held":8389,"vattendraget":8390,"kommersi":8391,"myror":8392,"oppdaget":8393,"Myr":8394,"Ungern":8395,"begyndelsen":8396,"1830":8397,"Nagra":8398,"kilder":8399,"provins":8400,"malare":8401,"oleander":8402,"Melol":8403,"Pak":8404,"succes":8405,"lium":8406,"ylor":8407,"gast":8408,"egg":8409,"Myn":8410,"administra":8411,"Vene":8412,"Alt":8413,"forfattaren":8414,"hundre":8415,"mangfotingart":8416,"jent":8417,"ellertid":8418,"maten":8419,"programmer":8420,"91":8421,"Famil":8422,"tror":8423,"haer":8424,"mandat":8425,"obi":8426,"instrueret":8427,"medeltida":8428,"kaldet":8429,"ction":8430,"zig":8431,"utnamndes":8432,"erklær":8433,"handlingen":8434,"fardig":8435,"ninga":8436,"vak":8437,"Laten":8438,"him":8439,"juvelvingar":8440,"Water":8441,"stasjonen":8442,"ovre":8443,"Gjen":8444,"Yu":8445,"eti":8446,"oten":8447,"føder":8448,"ierne":8449,"Eti":8450,"finska":8451,"NE":8452,"1300":8453,"manns":8454,"dos":8455,"zuel":8456,"tales":8457,"Wilson":8458,"sætning":8459,"Leuc":8460,"Ball":8461,"hie":8462,"aro":8463,"bergsked":8464,"flaten":8465,"tyn":8466,"rets":8467,"vokste":8468,"stilte":8469,"pool":8470,"hemma":8471,"olax":8472,"samtliga":8473,"Mod":8474,"utgors":8475,"idan":8476,"soli":8477,"Rik":8478,"spelt":8479,"serte":8480,"aman":8481,"Aleks":8482,"ience":8483,"terades":8484,"Europ":8485,"stjarna":8486,"yne":8487,"rona":8488,"skyt":8489,"supp":8490,"leks":8491,"Strom":8492,"Award":8493,"oriet":8494,"lagre":8495,"seger":8496,"invigdes":8497,"Cruz":8498,"vetenskapliga":8499,"tilldelades":8500,"orus":8501,"stabil":8502,"kull":8503,"Stad":8504,"romant":8505,"svenskan":8506,"paret":8507,"position":8508,"Costa":8509,"kraftigt":8510,"forsvaret":8511,"tavlingen":8512,"kyrkje":8513,"ial":8514,"kkede":8515,"Tidigare":8516,"inc":8517,"ray":8518,"inrattades":8519,"navne":8520,"skogen":8521,"nuværende":8522,"kone":8523,"bring":8524,"orgel":8525,"Sop":8526,"urch":8527,"skoler":8528,"Wol":8529,"rep":8530,"Vietnam":8531,"1400":8532,"element":8533,"utsags":8534,"punkter":8535,"avvattnas":8536,"stemme":8537,"poly":8538,"landshold":8539,"skibe":8540,"oppført":8541,"hurtig":8542,"sjer":8543,"Mik":8544,"Corrego":8545,"Company":8546,"konger":8547,"84":8548,"buss":8549,"grans":8550,"skydd":8551,"minor":8552,"Andersen":8553,"Middel":8554,"Jacques":8555,"Arets":8556,"sklub":8557,"ogle":8558,"brasili":8559,"hurt":8560,"raff":8561,"tidlige":8562,"klubber":8563,"vaben":8564,"sidenten":8565,"Aarhus":8566,"uell":8567,"wal":8568,"hjælp":8569,"akul":8570,"Young":8571,"heile":8572,"greske":8573,"tilfæl":8574,"gjeven":8575,"kommande":8576,"amper":8577,"republik":8578,"arina":8579,"ellersta":8580,"likhet":8581,"breen":8582,"teor":8583,"Syrien":8584,"farty":8585,"Tai":8586,"benyttes":8587,"ønt":8588,"eien":8589,"fyll":8590,"Greg":8591,"forbed":8592,"Hum":8593,"Ross":8594,"ocha":8595,"elly":8596,"ografer":8597,"itter":8598,"rektor":8599,"Depart":8600,"\":":8601,"Brad":8602,"Sad":8603,"lokala":8604,"viktige":8605,"ctus":8606,"myndighet":8607,"kvens":8608,"Eriks":8609,"Rub":8610,"grenser":8611,"glans":8612,"utred":8613,"دره":8614,"elektrisk":8615,"doda":8616,"Ecu":8617,"Landkreis":8618,"Gyl":8619,"kritiker":8620,"prosent":8621,"ardo":8622,"mojligt":8623,"uppskatt":8624,"alternativ":8625,"kvalific":8626,"dede":8627,"landene":8628,"ags":8629,"profesjon":8630,"asan":8631,"Holly":8632,"ensiv":8633,"Etiop":8634,"Bengt":8635,"sangare":8636,"Aqu":8637,"Group":8638,"forutom":8639,"Beijing":8640,"Hockey":8641,"afhæng":8642,"vinna":8643,"dokument":8644,"berom":8645,"grekiska":8646,"isch":8647,"størrelse":8648,"fødte":8649,"enden":8650,"radik":8651,"Typ":8652,"tvan":8653,"vinne":8654,"nordvastlig":8655,"kanskje":8656,"Eftersom":8657,"Stand":8658,"samlingar":8659,"lane":8660,"planen":8661,"Vasa":8662,"demokrater":8663,"arbejdet":8664,"delingen":8665,"posisjon":8666,"spørsmal":8667,"private":8668,"alem":8669,"klima":8670,"brudd":8671,"osp":8672,"ogel":8673,"albu":8674,"garde":8675,"Josef":8676,"1856":8677,"maskiner":8678,"Skop":8679,"pig":8680,"Stift":8681,"lovfallande":8682,"derimot":8683,"detaljer":8684,"MA":8685,"satser":8686,"vurder":8687,"hertig":8688,"ads":8689,"baserad":8690,"aktivitet":8691,"bete":8692,"apen":8693,"kulturen":8694,"usa":8695,"passager":8696,"forstor":8697,"trener":8698,"Melolont":8699,"vundet":8700,"tegn":8701,"matchen":8702,"arbetare":8703,"dræ":8704,"Lem":8705,"lust":8706,"henholdsvis":8707,"turist":8708,"Korea":8709,"fy":8710,"tagen":8711,"Pav":8712,"magnet":8713,"endret":8714,"installer":8715,"helst":8716,"dobbelt":8717,"kot":8718,"omradene":8719,"Ash":8720,"feld":8721,"sjel":8722,"mitte":8723,"oz":8724,"mastar":8725,"Psy":8726,"Isla":8727,"telefon":8728,"Ig":8729,"alj":8730,"Konst":8731,"gjø":8732,"lier":8733,"figurer":8734,"egentlig":8735,"stensen":8736,"Social":8737,"Billboard":8738,"høyere":8739,"borde":8740,"Ska":8741,"Konstantin":8742,"1855":8743,"Verk":8744,"sakalte":8745,"synes":8746,"Første":8747,"udvikling":8748,"Nun":8749,"kins":8750,"alum":8751,"tillstand":8752,"mers":8753,"flade":8754,"fremst":8755,"alam":8756,"motorer":8757,"sessen":8758,"Walter":8759,"Vill":8760,"mex":8761,"jobbet":8762,"festival":8763,"Fore":8764,"olle":8765,"Salt":8766,"idia":8767,"Finlands":8768,"sprod":8769,"spri":8770,"vanskelig":8771,"imper":8772,"roda":8773,"Syste":8774,"banken":8775,"Spar":8776,"skamp":8777,"døds":8778,"Post":8779,"hovedstaden":8780,"1852":8781,"ansett":8782,"bokstav":8783,"identif":8784,"atret":8785,"ube":8786,"praksis":8787,"Lanka":8788,"starta":8789,"ellig":8790,"varm":8791,"portugis":8792,"forar":8793,"leis":8794,"Evan":8795,"oki":8796,"Rasmus":8797,"ærer":8798,"more":8799,"opprør":8800,"slike":8801,"terror":8802,"nets":8803,"darpa":8804,"Foreningen":8805,"veks":8806,"malm":8807,"fjader":8808,"seil":8809,"83":8810,"Pyr":8811,"sly":8812,"vagar":8813,"obe":8814,"røde":8815,"middelalderen":8816,"Estland":8817,"Ci":8818,"fyn":8819,"avvik":8820,"flott":8821,"Melolonthidae":8822,"Francois":8823,"tina":8824,"snit":8825,"Kent":8826,"worth":8827,"cap":8828,"Napoleon":8829,"Peru":8830,"tis":8831,"idium":8832,"koncentr":8833,"Sachsen":8834,"Hitler":8835,"aga":8836,"kæmp":8837,"hæ":8838,"fange":8839,"okal":8840,"iah":8841,"tropper":8842,"cop":8843,"sydlige":8844,"lengde":8845,"snes":8846,"tidiga":8847,"Borg":8848,"Societ":8849,"ritz":8850,"ranger":8851,"Nilsson":8852,"intervju":8853,"1100":8854,"ografisk":8855,"regissor":8856,"erob":8857,"agog":8858,"ledningen":8859,"mennene":8860,"Qa":8861,"ukra":8862,"byggd":8863,"iosa":8864,"feltet":8865,"spunktet":8866,"ifran":8867,"eira":8868,"scenen":8869,"Tenggara":8870,"stammar":8871,"89":8872,"offisielle":8873,"ratten":8874,"Ris":8875,"oy":8876,"Mong":8877,"forbi":8878,"utgjør":8879,"ouri":8880,"87":8881,"male":8882,"redaktor":8883,"kapell":8884,"udnæv":8885,"damer":8886,"handen":8887,"hode":8888,"generelt":8889,"europeiska":8890,"samhet":8891,"resa":8892,"trolig":8893,"anes":8894,"basis":8895,"Filippin":8896,"varianter":8897,"Tav":8898,"brut":8899,"Niel":8900,"bundet":8901,"81":8902,"rix":8903,"Street":8904,"atemala":8905,"Pert":8906,"Win":8907,"Johansson":8908,"Møl":8909,"egypt":8910,"Foljande":8911,"partik":8912,"grensen":8913,"Forsta":8914,"Lenn":8915,"drik":8916,"Anti":8917,"uppfatt":8918,"Guang":8919,"publikum":8920,"vogn":8921,"kompl":8922,"personlig":8923,"Guinea":8924,"skjedde":8925,"italienska":8926,"kvax":8927,"ologen":8928,"Hell":8929,"Distriktet":8930,"Idag":8931,"bridge":8932,"stadt":8933,"darlig":8934,"1849":8935,"kalk":8936,"Morro":8937,"korn":8938,"imot":8939,"ussel":8940,"daværende":8941,"Guatemala":8942,"cam":8943,"ademi":8944,"indian":8945,"Holland":8946,"Manchester":8947,"Florida":8948,"bonde":8949,"anledning":8950,"Zealand":8951,"othe":8952,"kne":8953,"vog":8954,"iella":8955,"dagg":8956,"organisationer":8957,"ørte":8958,"mmes":8959,"vidt":8960,"ws":8961,"politi":8962,"drevet":8963,"Neg":8964,"antha":8965,"atmos":8966,"revet":8967,"Augu":8968,"øb":8969,"Hay":8970,"moderna":8971,"Doug":8972,"omycet":8973,"forskare":8974,"græ":8975,"ansvaret":8976,"guvern":8977,"hant":8978,"Wen":8979,"karen":8980,"Skopje":8981,"vanleg":8982,"skala":8983,"Savolax":8984,"helse":8985,"konflikt":8986,"arch":8987,"States":8988,"bebyggelse":8989,"melig":8990,"Bayern":8991,"ares":8992,"erus":8993,"Eliza":8994,"arlig":8995,"faste":8996,"renn":8997,"angs":8998,"oppkalt":8999,"hone":9000,"ingene":9001,"drer":9002,"Nusa":9003,"fortæl":9004,"Fur":9005,"atiska":9006,"1851":9007,"Sønder":9008,"Theodor":9009,"bourne":9010,"Jordan":9011,"semifinalen":9012,"sters":9013,"hastig":9014,"right":9015,"væl":9016,"hk":9017,"gaven":9018,"sterke":9019,"bilen":9020,"finans":9021,"forsokte":9022,"funksjon":9023,"egenskaper":9024,"Athen":9025,"Bos":9026,"invester":9027,"Associ":9028,"riar":9029,"ialist":9030,"larna":9031,"pis":9032,"objekt":9033,"tyrk":9034,"exemplar":9035,"myrten":9036,"phia":9037,"arbejdede":9038,"Ecuador":9039,"Aker":9040,"starka":9041,"høyt":9042,"vannet":9043,"oppos":9044,"ophor":9045,"Fon":9046,"sæson":9047,"tjarnen":9048,"Lunds":9049,"Tva":9050,"Horn":9051,"hud":9052,"Play":9053,"uppgifter":9054,"givare":9055,"Venstre":9056,"Slot":9057,"fej":9058,"1854":9059,"lock":9060,"rings":9061,"ringer":9062,"Laur":9063,"dyn":9064,"Sport":9065,"Schle":9066,"arabisk":9067,"Neu":9068,"hvite":9069,"original":9070,"arien":9071,"bruket":9072,"domstol":9073,"bulgar":9074,"agus":9075,"kontinen":9076,"omtalt":9077,"sekven":9078,"Aller":9079,"jal":9080,"akk":9081,"Linne":9082,"tain":9083,"ople":9084,"arius":9085,"mol":9086,"omus":9087,"usalem":9088,"farge":9089,"bard":9090,"uppratt":9091,"ocent":9092,"nokre":9093,"ledes":9094,"dighet":9095,"finder":9096,"Cri":9097,"eier":9098,"Fiji":9099,"saka":9100,"lidt":9101,"Zu":9102,"yla":9103,"Roger":9104,"ckt":9105,"torel":9106,"modstand":9107,"dronning":9108,"magt":9109,"tilgjen":9110,"universitets":9111,"cept":9112,"forord":9113,"rattigheter":9114,"garna":9115,"sandes":9116,"ocera":9117,"elles":9118,"Karriere":9119,"tempel":9120,"funk":9121,"romaner":9122,"gong":9123,"Kvar":9124,"taket":9125,"tavlade":9126,"Juni":9127,"aktive":9128,"vokal":9129,"wesi":9130,"arbeide":9131,"flagg":9132,"Rou":9133,"riksdagen":9134,"sammenlig":9135,"brett":9136,"cand":9137,"civil":9138,"Begge":9139,"lip":9140,"avik":9141,"folkrak":9142,"Bank":9143,"accep":9144,"stationer":9145,"rekk":9146,"Tjeckien":9147,"Foret":9148,"parker":9149,"nedlagt":9150,"harmon":9151,"bæk":9152,"faller":9153,"budd":9154,"Larsen":9155,"uke":9156,"langr":9157,"punktet":9158,"ersattes":9159,"Herman":9160,"fronten":9161,"foljer":9162,"trupper":9163,"opprinnelige":9164,"Arbeider":9165,"pert":9166,"allmanna":9167,"emellertid":9168,"systemer":9169,"melod":9170,"flygplats":9171,"Robin":9172,"etablerte":9173,"Kristians":9174,"sasonger":9175,"kombiner":9176,"utkom":9177,"vinteren":9178,"ansag":9179,"kallat":9180,"mini":9181,"Tw":9182,"cast":9183,"bakter":9184,"Hellas":9185,"løper":9186,"polis":9187,"enheter":9188,"kata":9189,"produsent":9190,"Range":9191,"leir":9192,"fragan":9193,"Blue":9194,"agt":9195,"hagen":9196,"visse":9197,"dømt":9198,"Sock":9199,"gaste":9200,"tanke":9201,"intresse":9202,"House":9203,"IL":9204,"Ukraina":9205,"udover":9206,"eftertrad":9207,"lokalt":9208,"songar":9209,"polsk":9210,"lata":9211,"Fun":9212,"Belgien":9213,"kurs":9214,"udgav":9215,"huvudstad":9216,"Ski":9217,"1853":9218,"Adri":9219,"Dig":9220,"Vig":9221,"Donald":9222,"IT":9223,"Madaga":9224,"japanska":9225,"Olsen":9226,"pred":9227,"ked":9228,"eth":9229,"storm":9230,"Jerusalem":9231,"omgang":9232,"makedonien":9233,"nattslandeart":9234,"ultat":9235,"hydr":9236,"Bost":9237,"Back":9238,"ansatt":9239,"aktivt":9240,"Dhar":9241,"engager":9242,"dik":9243,"agare":9244,"skatte":9245,"bandets":9246,"Domingo":9247,"bergskedja":9248,"iidae":9249,"musikken":9250,"Flyg":9251,"multi":9252,"okade":9253,"Nordmakedonien":9254,"komponer":9255,"Lid":9256,"):":9257,"fælles":9258,"hua":9259,"Samma":9260,"Saf":9261,"skommun":9262,"hindre":9263,"Eugen":9264,"renover":9265,"Filip":9266,"omycetes":9267,"Lik":9268,"ule":9269,"yc":9270,"kapten":9271,"skalbaggar":9272,"Motor":9273,"Pir":9274,"yret":9275,"medalj":9276,"Taylor":9277,"pam":9278,"penge":9279,"vinkel":9280,"eig":9281,"ego":9282,"døydde":9283,"Brand":9284,"rut":9285,"biograf":9286,"skiljer":9287,"cea":9288,"heds":9289,"orks":9290,"komed":9291,"Mauri":9292,"Prot":9293,"Best":9294,"rug":9295,"reformer":9296,"Fire":9297,"PA":9298,"telse":9299,"alo":9300,"utsatt":9301,"Buda":9302,"dafri":9303,"Syl":9304,"vey":9305,"regisser":9306,"ingeniør":9307,"batal":9308,"Old":9309,"Lux":9310,"dning":9311,"Real":9312,"Bulu":9313,"erholl":9314,"medlemm":9315,"Kla":9316,"støttet":9317,"korta":9318,"erke":9319,"bestand":9320,"Boken":9321,"etti":9322,"lara":9323,"nej":9324,"arker":9325,"religiøse":9326,"opna":9327,"Skol":9328,"slov":9329,"baseret":9330,"daglig":9331,"Nederlanderna":9332,"Sulawesi":9333,"innflyt":9334,"delbart":9335,"Hert":9336,"vards":9337,"nominat":9338,"vanster":9339,"Wei":9340,"dahl":9341,"vera":9342,"døm":9343,"øverste":9344,"spesia":9345,"bets":9346,"ingarna":9347,"firma":9348,"atak":9349,"grand":9350,"fallen":9351,"sjtina":9352,"Kristiania":9353,"synligvis":9354,"skapade":9355,"snamn":9356,"kvalster":9357,"spindeldjursart":9358,"mut":9359,"Flo":9360,"Yt":9361,"lamna":9362,"Ria":9363,"omor":9364,"borgar":9365,"herred":9366,"Koudyet":9367,"Smaland":9368,"Danske":9369,"ao":9370,"sling":9371,"saks":9372,"viks":9373,"geren":9374,"stilen":9375,"senaste":9376,"damp":9377,"varte":9378,"onym":9379,"utionen":9380,"gass":9381,"sjoar":9382,"sic":9383,"veget":9384,"arbeids":9385,"kantus":9386,"Nou":9387,"attende":9388,"signer":9389,"Zar":9390,"bilden":9391,"underarten":9392,"primært":9393,"saldes":9394,"jtnant":9395,"Tysklands":9396,"sterdam":9397,"nare":9398,"nødvendig":9399,",\"":9400,"lah":9401,"utdanning":9402,"reste":9403,"centimeter":9404,"arder":9405,"jk":9406,"stadi":9407,"Jugoslav":9408,"how":9409,"rey":9410,"metod":9411,"Tidligere":9412,"Jern":9413,"akantus":9414,"manuskript":9415,"Like":9416,"konkurrerer":9417,"forestil":9418,"varden":9419,"oversikt":9420,"hoger":9421,"kilde":9422,"ortod":9423,"trakk":9424,"Vax":9425,"minuter":9426,"tagelse":9427,"tene":9428,"byggt":9429,"kvinder":9430,"ængde":9431,"sir":9432,"brede":9433,"somme":9434,"Nør":9435,"startede":9436,"Arch":9437,"Skandinav":9438,"ktør":9439,"vatn":9440,"anien":9441,"Chrys":9442,"spanska":9443,"Jonas":9444,"Knud":9445,"Sl":9446,"Gord":9447,"muslim":9448,"effektiv":9449,"Penn":9450,"Amsterdam":9451,"Khor":9452,"huse":9453,"styl":9454,"namns":9455,"Midt":9456,"Rig":9457,"affar":9458,"Sau":9459,"ار":9460,"oter":9461,"Fem":9462,"naturen":9463,"aktiviteter":9464,"Mem":9465,"Qar":9466,"Seg":9467,"Bull":9468,"kus":9469,"fullmakt":9470,"teknisk":9471,"tam":9472,"nens":9473,"sports":9474,"amento":9475,"Varl":9476,"Rose":9477,"samlede":9478,"aft":9479,"svenskt":9480,"'.":9481,"venner":9482,"Shah":9483,"dern":9484,"maned":9485,"ligesom":9486,"arrange":9487,"Nom":9488,"arena":9489,"projektet":9490,"sosial":9491,"Sierra":9492,"rades":9493,"Orten":9494,"malv":9495,"PC":9496,"ansags":9497,"Scotia":9498,"trykket":9499,"pale":9500,"stitusjon":9501,"hje":9502,"Bok":9503,"Totalt":9504,"vagnar":9505,"Zagreb":9506,"Madagaskar":9507,"uca":9508,"grensa":9509,"Mig":9510,"skolor":9511,"splat":9512,"show":9513,"ittel":9514,"statist":9515,"forhallandena":9516,"ctor":9517,"ornis":9518,"Svart":9519,"poet":9520,"Flera":9521,"Manito":9522,"Tyrk":9523,"emi":9524,"utdannet":9525,"anvendes":9526,"1814":9527,"Tokyo":9528,"tavling":9529,"iseringen":9530,"Ges":9531,"kryp":9532,"alven":9533,"FL":9534,"hette":9535,"ikan":9536,"avdeling":9537,"rekna":9538,"kommende":9539,"Cord":9540,"vitenskape":9541,"oba":9542,"BK":9543,"poner":9544,"tvil":9545,"nia":9546,"Sr":9547,"alkohol":9548,"ls":9549,"samfund":9550,"pengar":9551,"Orden":9552,"forhallande":9553,"merket":9554,"tronen":9555,"bba":9556,"Beach":9557,"anth":9558,"nederlandsk":9559,"Ever":9560,"Resultat":9561,"dol":9562,"Pam":9563,"øye":9564,"zin":9565,"Person":9566,"hvorav":9567,"otyp":9568,"omo":9569,"konta":9570,"Darah":9571,"Virginia":9572,"Vad":9573,"bilar":9574,"omgivningen":9575,"officiella":9576,"empel":9577,"Bam":9578,"innsjø":9579,"tidige":9580,"para":9581,"Heli":9582,"inledde":9583,"vanlige":9584,"kopte":9585,"Christop":9586,"End":9587,"utvecklades":9588,"Mis":9589,"itar":9590,"humor":9591,"Deut":9592,"emark":9593,"cla":9594,"Arkite":9595,"Kairo":9596,"bein":9597,"uella":9598,"mara":9599,"arbetat":9600,"avlade":9601,"Jun":9602,"flytt":9603,"vulkan":9604,"Islands":9605,"inosa":9606,"Jarn":9607,"nie":9608,"qi":9609,"beh":9610,"Fjord":9611,"Mans":9612,"bildar":9613,"forbindelser":9614,"Ungdom":9615,"forfattar":9616,"Gabriel":9617,"bergen":9618,"mørke":9619,"Svan":9620,"Damask":9621,"grundlag":9622,"maleri":9623,"Great":9624,"Sein":9625,"professionell":9626,"atene":9627,"Mall":9628,"skrip":9629,"virksomhet":9630,"Indian":9631,"visning":9632,"ners":9633,"mistet":9634,"overført":9635,"sjæl":9636,"erfar":9637,"illi":9638,"Hamburg":9639,"Cab":9640,"kkes":9641,"Manitoba":9642,"forsalj":9643,"Deretter":9644,"faet":9645,"sprid":9646,"periment":9647,"samisk":9648,"lagene":9649,"stag":9650,"flyttede":9651,"tittel":9652,"europæ":9653,"sektor":9654,"tjanstgjorde":9655,"Damaskus":9656,"ratts":9657,"patraff":9658,"bourg":9659,"masterskapet":9660,"raf":9661,"medicin":9662,"doms":9663,"Mah":9664,"udgave":9665,"teksten":9666,"Ori":9667,"Søn":9668,"uppgift":9669,"utseende":9670,"fugler":9671,"Carolina":9672,"Odense":9673,"DA":9674,"itor":9675,"politikk":9676,"løy":9677,"kyrkor":9678,"alfa":9679,"mottok":9680,"Raf":9681,"Yang":9682,"specia":9683,"Bap":9684,"Lept":9685,"Team":9686,"høsten":9687,"Søren":9688,"tillkom":9689,"arhundre":9690,"extra":9691,"hosp":9692,"Hong":9693,"reau":9694,"trebuk":9695,"Redan":9696,"grundlagt":9697,"Niels":9698,"antingen":9699,"pson":9700,"kommunist":9701,"Mats":9702,"Cyr":9703,"isere":9704,"stark":9705,"biler":9706,"hjør":9707,"trar":9708,"put":9709,"snack":9710,"betydande":9711,"fulla":9712,"Budapest":9713,"utøver":9714,"Warren":9715,"affe":9716,"nos":9717,"Tromsø":9718,"Studen":9719,"cial":9720,"Liver":9721,"Ribeira":9722,"slappte":9723,"Kyrk":9724,"merke":9725,"slan":9726,"fjall":9727,"foto":9728,"producent":9729,"tilknyttet":9730,"Gold":9731,"vekst":9732,"testam":9733,"skrit":9734,"termin":9735,"geri":9736,"eledes":9737,"Finnmark":9738,"austra":9739,"sea":9740,"kampan":9741,"Kirken":9742,"søra":9743,"untry":9744,"ikkel":9745,"Dublin":9746,"Eva":9747,"Ther":9748,"visades":9749,"dessuten":9750,"furt":9751,"enor":9752,"cephalus":9753,"Øy":9754,"Ør":9755,"Suva":9756,"slutligen":9757,"Lewis":9758,"Hammar":9759,"stak":9760,"marked":9761,"svarta":9762,"Net":9763,"Først":9764,"gyl":9765,"stof":9766,"vinger":9767,"hotell":9768,"Nue":9769,"oko":9770,"Roms":9771,"hab":9772,"inas":9773,"1847":9774,"kanna":9775,"indeholder":9776,"opt":9777,"mia":9778,"aker":9779,"valkrets":9780,"regioner":9781,"Sason":9782,"tung":9783,"icul":9784,"trag":9785,"karrieren":9786,"hein":9787,"Lord":9788,"Turk":9789,"fulle":9790,"Wik":9791,"konserter":9792,"zel":9793,"byggnads":9794,"essa":9795,"amnen":9796,"forholdsvis":9797,"Samme":9798,"andel":9799,"Montene":9800,"Omkring":9801,"rane":9802,"Puer":9803,"anni":9804,"Mill":9805,"produktionen":9806,"ologien":9807,"Color":9808,"efterfølgende":9809,"Wang":9810,"cidae":9811,"otis":9812,"stock":9813,"ferd":9814,"opprett":9815,"Wh":9816,"dun":9817,"fastlandet":9818,"preget":9819,"skogar":9820,"botan":9821,"syfte":9822,"Lau":9823,"halvøya":9824,"avse":9825,"kvarteret":9826,"midlertid":9827,"Departamento":9828,"stund":9829,"Kyrkan":9830,"finale":9831,"seder":9832,"vades":9833,"Sak":9834,"daribland":9835,"Alf":9836,"retts":9837,"lavere":9838,"Huset":9839,"motsvarar":9840,"høyre":9841,"Fab":9842,"Trin":9843,"lio":9844,"nard":9845,"Aal":9846,"ankom":9847,"sprang":9848,"onien":9849,"baner":9850,"eles":9851,"Jeg":9852,"versionen":9853,"cyl":9854,"foremal":9855,"ellus":9856,"amnet":9857,"stycken":9858,"Tip":9859,"vægt":9860,"udgiv":9861,"medlems":9862,"skada":9863,"spelas":9864,"modtog":9865,"haga":9866,"grod":9867,"veckor":9868,"Garden":9869,"yin":9870,"gaet":9871,"tilknytning":9872,"imus":9873,"domin":9874,"ligste":9875,"studioalbum":9876,"blads":9877,"onis":9878,"konver":9879,"ryggen":9880,"Spring":9881,"nominatformen":9882,"eksempl":9883,"kvinna":9884,"parasitflugor":9885,"austral":9886,"Dendr":9887,"1842":9888,"juk":9889,"Pad":9890,"fysik":9891,"Lilla":9892,"arige":9893,"feldt":9894,"sele":9895,"Antarctic":9896,"gruppens":9897,"Led":9898,"Preussen":9899,"lokaler":9900,"klubbens":9901,"smaharkrankar":9902,"møl":9903,"endelig":9904,"rere":9905,"Exempel":9906,"signal":9907,"rustning":9908,"Kenya":9909,"ogi":9910,"Association":9911,"yrer":9912,"filosofie":9913,"geograf":9914,"prøv":9915,"Alp":9916,"Ib":9917,"assistent":9918,"nier":9919,"kjøpte":9920,"oshi":9921,"stortings":9922,"Sucre":9923,"marknads":9924,"Prof":9925,"tade":9926,"fremdeles":9927,"Kli":9928,"nel":9929,"maskar":9930,"won":9931,"1846":9932,"billed":9933,"Davis":9934,"drygt":9935,"viv":9936,"Litau":9937,"umid":9938,"qa":9939,"human":9940,"hurtigt":9941,"Wall":9942,"janst":9943,"barnet":9944,"utviklingen":9945,"løn":9946,"Pass":9947,"hana":9948,"riksdag":9949,"regemente":9950,"row":9951,"Church":9952,"Stu":9953,"skreiv":9954,"Ida":9955,"bidrog":9956,"key":9957,"Joe":9958,"klad":9959,"blomflugor":9960,"refle":9961,"Derfor":9962,"Asien":9963,"lader":9964,"Bulg":9965,"indust":9966,"koreanska":9967,"arkitekten":9968,"bevegelsen":9969,"overva":9970,"mesterskap":9971,"Moore":9972,"vatnet":9973,"Out":9974,"torp":9975,"kontrover":9976,"Tub":9977,"portratt":9978,"Hollywood":9979,"Egent":9980,"myrart":9981,"inkluderer":9982,"artikler":9983,"konstit":9984,"atorer":9985,"Jef":9986,"Wu":9987,"Sma":9988,"kongelige":9989,"beskrivs":9990,"kryd":9991,"ferenser":9992,"Gavle":9993,"Umea":9994,"forfatteren":9995,"slyck":9996,"Rot":9997,"Ske":9998,"avisen":9999,"chel":10000,"anlæg":10001,"særleg":10002,"fengsel":10003,"opel":10004,"Fisk":10005,"Forutom":10006,"Astero":10007,"bragte":10008,"gariket":10009,"hvilken":10010,"astronomen":10011,"kelser":10012,"Samtidigt":10013,"kejs":10014,"rysk":10015,"fing":10016,"Forsk":10017,"kraftige":10018,"tekster":10019,"Time":10020,"syre":10021,"ligaste":10022,"Stone":10023,"kirker":10024,"versjonen":10025,"DNA":10026,"ryt":10027,"stjene":10028,"bostad":10029,"Philip":10030,"Montre":10031,"prem":10032,"aterupp":10033,"kejsar":10034,"skrona":10035,"utz":10036,"verne":10037,"stjarnor":10038,"ældste":10039,"flu":10040,"Sher":10041,"finlandsk":10042,"Louise":10043,"bien":10044,"batter":10045,"placering":10046,"aly":10047,"manien":10048,"sjette":10049,"øster":10050,"Baker":10051,"Liverpool":10052,"Lig":10053,"Rem":10054,"samfunnet":10055,"nedre":10056,"schef":10057,"bøger":10058,"akter":10059,"1838":10060,"berømte":10061,"dea":10062,"1845":10063,"Perth":10064,"Jord":10065,"borator":10066,"obius":10067,"ladimir":10068,"brød":10069,"konged":10070,"Georgia":10071,"evan":10072,"Guer":10073,"ative":10074,"hammer":10075,"Skov":10076,"Dermed":10077,"Bjer":10078,"omfattade":10079,"ios":10080,"Show":10081,"Nordland":10082,"Pub":10083,"gium":10084,"Live":10085,"tvingades":10086,"Rhin":10087,"dekket":10088,"yle":10089,"informasjon":10090,"passet":10091,"slogs":10092,"monu":10093,"Kors":10094,"Ov":10095,"stro":10096,"Haw":10097,"Muller":10098,"lun":10099,"Wadi":10100,"ært":10101,"velsen":10102,"fordon":10103,"Dominikanska":10104,"ilton":10105,"oche":10106,"løber":10107,"debatt":10108,"AC":10109,"Och":10110,"adels":10111,"ødelagt":10112,"',":10113,"Svensk":10114,"baten":10115,"borr":10116,"sidst":10117,"mata":10118,"bakgrunn":10119,"Premier":10120,"wich":10121,"Brian":10122,"Østerrike":10123,"jut":10124,"osman":10125,"stalla":10126,"onoma":10127,"Nordamerika":10128,"igennem":10129,"Kie":10130,"iene":10131,"hogt":10132,"sønnen":10133,"Lill":10134,"raket":10135,"fatte":10136,"fugle":10137,"ofon":10138,"server":10139,"yrkes":10140,"Kuba":10141,"1844":10142,"øyane":10143,"symbo":10144,"byggde":10145,"fylumet":10146,"Danne":10147,"Ribeirao":10148,"bilde":10149,"rens":10150,"industrien":10151,"teoret":10152,"nyere":10153,"forteller":10154,"SVT":10155,"Elizabeth":10156,"eor":10157,"Arg":10158,"denburg":10159,"finde":10160,"kvinnliga":10161,"offisielt":10162,"sekund":10163,"arida":10164,"oprindelige":10165,"løsning":10166,"Day":10167,"Tiz":10168,"konfer":10169,"favor":10170,"ledd":10171,"gram":10172,"reta":10173,"Bed":10174,"oge":10175,"IC":10176,"bebyggt":10177,"bajd":10178,"mangden":10179,"lagan":10180,"starter":10181,"Aph":10182,"ankla":10183,"Ble":10184,"dru":10185,"Piz":10186,"utrikes":10187,"Selskapet":10188,"avtal":10189,"pedagog":10190,"leva":10191,"Vladimir":10192,"patien":10193,"optræ":10194,"uppkallad":10195,"ukas":10196,"vandring":10197,"Nis":10198,"scor":10199,"wen":10200,"kvalsterart":10201,"tende":10202,"Beskriv":10203,"Bibel":10204,"beord":10205,"tranare":10206,"ljung":10207,"utvidet":10208,"gett":10209,"Gene":10210,"forestall":10211,"Din":10212,"kampene":10213,"Num":10214,"jødiske":10215,"Mr":10216,"Chen":10217,"preste":10218,"fortell":10219,"UK":10220,"gø":10221,"genet":10222,"ulen":10223,"iran":10224,"stalt":10225,"virksomhed":10226,"Montenegro":10227,"danne":10228,"Mam":10229,"ørt":10230,"lilla":10231,"garder":10232,"forlot":10233,"kritiser":10234,"cri":10235,"forny":10236,"trea":10237,"misslyck":10238,"Ela":10239,"bibel":10240,"missionen":10241,"vokser":10242,"officiellt":10243,"oria":10244,"Michel":10245,"Championship":10246,"Bø":10247,"verkat":10248,"massa":10249,"hort":10250,"begravet":10251,"ruppen":10252,"ønsker":10253,"feder":10254,"stændig":10255,"betegnelse":10256,"hoglandsklimat":10257,"Igar":10258,"landa":10259,"Hob":10260,"holdes":10261,"Aut":10262,"Nicola":10263,"Alan":10264,"revs":10265,"delene":10266,"sørøst":10267,"Dalarna":10268,"LP":10269,"Lav":10270,"lagga":10271,"beror":10272,"kanoner":10273,"Ler":10274,"Bour":10275,"Mang":10276,"friidrettsutøver":10277,"allierte":10278,"kningen":10279,"Begre":10280,"Shuiku":10281,"atra":10282,"dong":10283,"plata":10284,"egentligen":10285,"eo":10286,"edal":10287,"anders":10288,"antallet":10289,"ivan":10290,"sluttede":10291,"eau":10292,"bisped":10293,"snackart":10294,"ensam":10295,"arth":10296,"sloven":10297,"rand":10298,"Federationen":10299,"Tyr":10300,"hoven":10301,"helik":10302,"Stig":10303,"NO":10304,"oua":10305,"Hakon":10306,"drive":10307,"blo":10308,"golf":10309,"Nab":10310,"separat":10311,"Sm":10312,"arki":10313,"varierer":10314,"Rand":10315,"bildning":10316,"hyp":10317,"dren":10318,"formis":10319,"steater":10320,"idar":10321,"føde":10322,"organisasjonen":10323,"TO":10324,"sande":10325,"amin":10326,"Slesvig":10327,"ocker":10328,"middelalder":10329,"bosatte":10330,"fril":10331,"baltet":10332,"brom":10333,"Kinas":10334,"skin":10335,"1839":10336,"event":10337,"hvit":10338,"eler":10339,"namnda":10340,"Act":10341,"Songen":10342,"ough":10343,"fangelse":10344,"papir":10345,"Gull":10346,"mytologi":10347,"ovi":10348,"Pl":10349,"muligt":10350,"Vissa":10351,"ideer":10352,"Brother":10353,"sakerhet":10354,"flockblommiga":10355,"rykket":10356,"skyld":10357,"Bjorn":10358,"sagen":10359,"Kari":10360,"vania":10361,"faktisk":10362,"DVD":10363,"itis":10364,"boka":10365,"schw":10366,"DC":10367,"sjukhus":10368,"forholdet":10369,"gardar":10370,"bler":10371,"arkiv":10372,"gil":10373,"aldern":10374,"Handels":10375,"Night":10376,"embed":10377,"cio":10378,"vade":10379,"hasa":10380,"Ord":10381,"Steve":10382,"tah":10383,"fack":10384,"Industri":10385,"Desuden":10386,"Vall":10387,"karaktar":10388,"ular":10389,"yderligere":10390,"tilhørte":10391,"blik":10392,"uld":10393,"ophilus":10394,"lamp":10395,"Lev":10396,"mening":10397,"uz":10398,"inflytande":10399,"Town":10400,"kullar":10401,"ombord":10402,"spin":10403,"Good":10404,"vorte":10405,"plo":10406,"Sasongen":10407,"Igarape":10408,"dikter":10409,"motta":10410,"Rusland":10411,"Christopher":10412,"formede":10413,"uddannelse":10414,"Cec":10415,"qui":10416,"mote":10417,"Sub":10418,"avnet":10419,"alit":10420,"hundr":10421,"skyr":10422,"Ay":10423,"pto":10424,"styrkene":10425,"psal":10426,"Nel":10427,"revolution":10428,"kastet":10429,"lake":10430,"ftar":10431,"makedonska":10432,"Verdens":10433,"stylt":10434,"klasser":10435,"bjørn":10436,"rok":10437,"cou":10438,"fikt":10439,"involver":10440,"Melbourne":10441,"byrja":10442,"Nich":10443,"Ret":10444,"jarnvags":10445,"Road":10446,"BBC":10447,"Wars":10448,"Spa":10449,"naværende":10450,"viktiga":10451,"ells":10452,"Status":10453,"ekspedisjonen":10454,"gula":10455,"æres":10456,"olph":10457,"Vatten":10458,"ministeriet":10459,"spre":10460,"split":10461,"bei":10462,"tacker":10463,"messig":10464,"samlings":10465,"Wis":10466,"pum":10467,"funnits":10468,"Akers":10469,"middels":10470,"fet":10471,"ckerla":10472,"Melan":10473,"skapades":10474,"forblev":10475,"Football":10476,"Blo":10477,"alitet":10478,"Pun":10479,"vision":10480,"studiet":10481,"Mog":10482,"Valen":10483,"anmel":10484,"hausen":10485,"Grev":10486,"System":10487,"1837":10488,"Boh":10489,"hevdet":10490,"Malm":10491,"jiang":10492,"interesser":10493,"rekor":10494,"ansat":10495,"upphorde":10496,"PS":10497,"oversattning":10498,"gli":10499,"skjold":10500,"monster":10501,"tatbebyggt":10502,"Etiopien":10503,"lisk":10504,"meddelade":10505,"kackerla":10506,"AT":10507,"skje":10508,"ophagus":10509,"sif":10510,"Nieder":10511,"Vag":10512,"Seba":10513,"Dry":10514,"renner":10515,"Wag":10516,"Anten":10517,"smy":10518,"terer":10519,"prog":10520,"Pek":10521,"anlagt":10522,"hogskola":10523,"Windows":10524,"artikel":10525,"Mach":10526,"basket":10527,"dømes":10528,"iar":10529,"møter":10530,"Sic":10531,"dyre":10532,"Allerede":10533,"Jim":10534,"udkom":10535,"Hugo":10536,"autor":10537,"spektiv":10538,"Try":10539,"Kop":10540,"Cyc":10541,"oke":10542,"jn":10543,"stick":10544,"Howard":10545,"nederlag":10546,"kommando":10547,"sadana":10548,"forsøkte":10549,"magi":10550,"sorg":10551,"snø":10552,"krater":10553,"osh":10554,"Riviere":10555,"akultet":10556,"della":10557,"omyza":10558,"Jiang":10559,"rejse":10560,"avsluttet":10561,"svaxtart":10562,"parish":10563,"lavart":10564,"Glen":10565,"Arena":10566,"webb":10567,"fenben":10568,"Poli":10569,"Jamtland":10570,"skader":10571,"phus":10572,"tater":10573,"iget":10574,"anvants":10575,"indiske":10576,"pec":10577,"Pale":10578,"gun":10579,"Kasti":10580,"kated":10581,"jøder":10582,"utført":10583,"Centre":10584,"kontrol":10585,"ersatt":10586,"slam":10587,"rison":10588,"kjende":10589,"special":10590,"”,":10591,"Melodi":10592,"Jbel":10593,"Pur":10594,"Kraft":10595,"Rene":10596,"medier":10597,"manad":10598,"mæs":10599,"hamns":10600,"digit":10601,"dekker":10602,"grashopp":10603,"salg":10604,"stades":10605,"ckar":10606,"profil":10607,"Society":10608,"Bron":10609,"menar":10610,"øp":10611,"Fair":10612,"hensyn":10613,"næst":10614,"Bezirk":10615,"Guld":10616,"Dock":10617,"late":10618,"Cos":10619,"varierar":10620,"varfor":10621,"politiet":10622,"hastar":10623,"tekniska":10624,"Luxem":10625,"wang":10626,"forretnings":10627,"kjær":10628,"Fox":10629,"ledande":10630,"Thi":10631,"utslatt":10632,"vegen":10633,"sprogram":10634,"haus":10635,"Asteroiden":10636,"matisk":10637,"Micro":10638,"inre":10639,"wall":10640,"arabiske":10641,"Vat":10642,"innført":10643,"Stanley":10644,"Roth":10645,"demokratiske":10646,"formaga":10647,"Hamilton":10648,"tackt":10649,"kott":10650,"Main":10651,"hodet":10652,"erhver":10653,"salde":10654,"Douglas":10655,"ranun":10656,"uret":10657,"andreplass":10658,"kristna":10659,"stoffer":10660,"Zeeland":10661,"Karriar":10662,"ogae":10663,"drakt":10664,"oo":10665,"sedermera":10666,"Seri":10667,"itets":10668,"skips":10669,"albummet":10670,"Trad":10671,"chan":10672,"hinanden":10673,"Mike":10674,"planlagt":10675,"sarbar":10676,"Sigur":10677,"nordiske":10678,"ppeh":10679,"plikt":10680,"tilhør":10681,"schen":10682,"nordisk":10683,"nut":10684,"vingen":10685,"omkom":10686,"Bjør":10687,"regerings":10688,"lens":10689,"jurist":10690,"omi":10691,"underfamilien":10692,"oppe":10693,"splats":10694,"katastrof":10695,"ytre":10696,"Karls":10697,"titlen":10698,"innet":10699,"hs":10700,"hyn":10701,"grenset":10702,"flyet":10703,"fløy":10704,"reservo":10705,"simp":10706,"Wi":10707,"plet":10708,"skam":10709,"krys":10710,"Guds":10711,"tecken":10712,"oppdrag":10713,"lende":10714,"Kastilien":10715,"anum":10716,"absol":10717,"oprettet":10718,"kjøpt":10719,"Partiet":10720,"plassering":10721,"Privat":10722,"BS":10723,"xon":10724,"frie":10725,"relater":10726,"utgavs":10727,"Bug":10728,"ytterligere":10729,"ventet":10730,"ophylla":10731,"riksdags":10732,"Rac":10733,"stone":10734,"kyrkja":10735,"Larsson":10736,"Kongs":10737,"cky":10738,"aneh":10739,"distan":10740,"bottens":10741,"Chris":10742,"indfly":10743,"spira":10744,"Tappeh":10745,"ische":10746,"asjons":10747,"hau":10748,"fæn":10749,"hak":10750,"klassiske":10751,"ifolia":10752,"overgick":10753,"ally":10754,"marin":10755,"Egentliga":10756,"Rav":10757,"skjut":10758,"færdig":10759,"Up":10760,"jav":10761,"Hydr":10762,"yngste":10763,"single":10764,"ppi":10765,"Corne":10766,"osterrik":10767,"akta":10768,"oprindeligt":10769,"kanadens":10770,"EC":10771,"valdigt":10772,"artar":10773,"sterskapet":10774,"Frederick":10775,"Pres":10776,"levede":10777,"givning":10778,"grashoppor":10779,"publicerades":10780,"pladsen":10781,"block":10782,"ER":10783,"Bada":10784,"Charlotte":10785,"chal":10786,"senior":10787,"head":10788,"Leip":10789,"Chang":10790,"stab":10791,"Puerto":10792,"rorelse":10793,"lykkedes":10794,"Sum":10795,"tarn":10796,"marknaden":10797,"ordre":10798,"konkurranse":10799,"Fen":10800,"aw":10801,"mangel":10802,"Abraham":10803,"semin":10804,"Enter":10805,"Dagens":10806,"piano":10807,"Chlor":10808,"minska":10809,"mam":10810,"miljon":10811,"tillat":10812,"Boston":10813,"repar":10814,"laste":10815,"presidenten":10816,"okk":10817,"Poul":10818,"edere":10819,"nedan":10820,"aterfinns":10821,"mental":10822,"allvar":10823,"anstallda":10824,"Mika":10825,"Gang":10826,"markedet":10827,"Deres":10828,"trebukker":10829,"ikere":10830,"Mau":10831,"aktiva":10832,"deltagare":10833,"bataljon":10834,"dør":10835,"gjelder":10836,"guvernør":10837,"fenomen":10838,"Dick":10839,"Ey":10840,"stillede":10841,"representerade":10842,"opol":10843,"Armen":10844,"grunnen":10845,"fria":10846,"sidor":10847,"hentet":10848,"friidrott":10849,"rytter":10850,"halvdel":10851,"infe":10852,"Piper":10853,"Tors":10854,"meg":10855,"send":10856,"aksjon":10857,"Bulgarien":10858,"Dri":10859,"Hul":10860,"shire":10861,"konvent":10862,"skir":10863,"kjøp":10864,"sau":10865,"edia":10866,"Fron":10867,"Skolen":10868,"slakten":10869,"350":10870,"rymd":10871,"alpa":10872,"odia":10873,"lavet":10874,"ighets":10875,"andrades":10876,"uttrykk":10877,"Reykj":10878,"drottning":10879,"foregar":10880,"urval":10881,"fulde":10882,"gom":10883,"sesse":10884,"administrer":10885,"angrepet":10886,"gus":10887,"inal":10888,"plast":10889,"nemlig":10890,"polske":10891,"foraldrar":10892,"uppmarksamma":10893,"macul":10894,"1815":10895,"Nick":10896,"publicerade":10897,"Hondu":10898,"prag":10899,"resultater":10900,"fx":10901,"Ytter":10902,"Wes":10903,"Zap":10904,"ssatt":10905,"Bagdad":10906,"Fro":10907,"pere":10908,"entre":10909,"pta":10910,"værel":10911,"Viborg":10912,"forman":10913,"Ort":10914,"quist":10915,"Jr":10916,"Harris":10917,"Laget":10918,"Rat":10919,"lyse":10920,"militara":10921,"værdi":10922,"Nær":10923,"representerad":10924,"demokratisk":10925,"alia":10926,"Bør":10927,"sia":10928,"Pron":10929,"fysisk":10930,"ocke":10931,"1841":10932,"stjerner":10933,"Rolf":10934,"chis":10935,"skiftede":10936,"svaxter":10937,"utvecklade":10938,"erobret":10939,"æren":10940,"cle":10941,"arktis":10942,"israel":10943,"Ster":10944,"sønner":10945,"His":10946,"Guyana":10947,"trods":10948,"turen":10949,"ilo":10950,"upplagan":10951,"unionens":10952,"Xi":10953,"gne":10954,"hvem":10955,"bou":10956,"minut":10957,"Jersey":10958,"tilfælde":10959,"State":10960,"karet":10961,"lassen":10962,"elementer":10963,"Viktor":10964,"populært":10965,"bandy":10966,"ongen":10967,"etas":10968,"Hes":10969,"finske":10970,"Honduras":10971,"gjeld":10972,"representanter":10973,"stadsdelen":10974,"motiver":10975,"sankm":10976,"reform":10977,"saknar":10978,"beholdt":10979,"uksjon":10980,"mork":10981,"bygda":10982,"\"«":10983,"ML":10984,"flytte":10985,"antas":10986,"Agder":10987,"Gamla":10988,"riga":10989,"--":10990,"altid":10991,"Normand":10992,"Skog":10993,"mmen":10994,"uning":10995,"fili":10996,"1843":10997,"Oz":10998,"spur":10999,"nærmere":11000,"reist":11001,"infordes":11002,"Larvene":11003,"urser":11004,"Symp":11005,"Fot":11006,"lerne":11007,"antarktis":11008,"Grad":11009,"fard":11010,"internationale":11011,"skyldes":11012,"Gjennom":11013,"sogne":11014,"hvoraf":11015,"nominert":11016,"with":11017,"stemm":11018,"diverse":11019,"somt":11020,"kelse":11021,"Kru":11022,"gala":11023,"klara":11024,"traffade":11025,"eksamen":11026,"forvand":11027,"teolog":11028,"Ophi":11029,"Cel":11030,"havnen":11031,"bydel":11032,"kaptein":11033,"hony":11034,"Grupp":11035,"paven":11036,"1820":11037,"øje":11038,"kontoret":11039,"Pedro":11040,"Cacho":11041,"overens":11042,"fæ":11043,"Squ":11044,"dialekt":11045,"biblioteket":11046,"mong":11047,"Vasteras":11048,"Andrew":11049,"skivan":11050,"hegy":11051,"flot":11052,"Aalborg":11053,"forsker":11054,"Milit":11055,"segr":11056,"byte":11057,"konkurs":11058,"Nasjon":11059,"nederlandske":11060,"storlek":11061,"jatte":11062,"Sydafri":11063,"princi":11064,"Dog":11065,"kub":11066,"papper":11067,"styrkor":11068,"Aland":11069,"stel":11070,"Instit":11071,"meters":11072,"volley":11073,"Festival":11074,"blanding":11075,");":11076,"Telemark":11077,"gitarr":11078,"forval":11079,"scoret":11080,"forsøg":11081,"luften":11082,"utnytt":11083,"Cher":11084,"forlang":11085,"2021":11086,"knapp":11087,"kardinal":11088,"nassel":11089,"Reykjavik":11090,"gjev":11091,"Gut":11092,"Khar":11093,"skaffe":11094,"frag":11095,"indflydelse":11096,"eksemplarer":11097,"tillfal":11098,"Vej":11099,"beskytt":11100,"iende":11101,"fylkesvei":11102,"Nobel":11103,"vida":11104,"holdene":11105,"sankmarker":11106,"ktige":11107,"skape":11108,"anlegg":11109,"Zam":11110,"korps":11111,"oberst":11112,"samarbejde":11113,"house":11114,"bebo":11115,"personal":11116,"singeln":11117,"formid":11118,"ambassa":11119,"indenfor":11120,"intresser":11121,"Muham":11122,"fødd":11123,"Siah":11124,"fanger":11125,"Litauen":11126,"uker":11127,"Klimatforhallandena":11128,"Uru":11129,"Pros":11130,"kyrkog":11131,"gæ":11132,"lyn":11133,"rummet":11134,"Mora":11135,"Rost":11136,"politiskt":11137,"øerne":11138,"verkan":11139,"stenen":11140,"ordinarie":11141,"Set":11142,"Ug":11143,"revolutionen":11144,"byggingen":11145,"osialist":11146,"drab":11147,"buddh":11148,"Ivar":11149,"Low":11150,"spons":11151,"Stats":11152,"oppdaga":11153,"SP":11154,"kanska":11155,"fremste":11156,"satsen":11157,"misk":11158,"konomi":11159,"Fla":11160,"Osterbotten":11161,"dersom":11162,"Rica":11163,"fordra":11164,"Montreal":11165,"grov":11166,"neut":11167,"genomfordes":11168,"Dato":11169,"Dire":11170,"leda":11171,"Golden":11172,"Shang":11173,"nasta":11174,"Thailand":11175,"Anderson":11176,"Hotel":11177,"Awards":11178,"kongens":11179,"gransar":11180,"kommunerna":11181,"sange":11182,"nedbør":11183,"tvun":11184,"time":11185,"Akt":11186,"Alli":11187,"Romer":11188,"avslo":11189,"team":11190,"representerer":11191,"Vester":11192,"Valde":11193,"ww":11194,"upphov":11195,"Now":11196,"reis":11197,"Spor":11198,"Oued":11199,"Lot":11200,"amerikan":11201,"vanns":11202,"Ljung":11203,"huvudbaltet":11204,"Kjell":11205,"edom":11206,"oman":11207,"verker":11208,"ione":11209,"Committe":11210,"introdus":11211,"demonstr":11212,"flockblommig":11213,"Ful":11214,"mastaren":11215,"NK":11216,"aks":11217,"omon":11218,"sete":11219,"Sommar":11220,"Pia":11221,"definier":11222,"vata":11223,"Gab":11224,"Sval":11225,"sociala":11226,"Blandt":11227,"lagte":11228,"Care":11229,"skapte":11230,"brist":11231,"underlagt":11232,"Bret":11233,"Emp":11234,"Stephen":11235,"Tony":11236,"bbe":11237,"menta":11238,"klost":11239,"Tob":11240,"vesen":11241,"Khorasan":11242,"Rapids":11243,"skottet":11244,"egel":11245,"Log":11246,"innte":11247,"Centr":11248,"Tsjek":11249,"spek":11250,"amb":11251,"innelse":11252,"Beet":11253,"invas":11254,"daremot":11255,"forlaget":11256,"Jin":11257,"gaden":11258,"skand":11259,"dynastiet":11260,"ments":11261,"lagger":11262,"canad":11263,"havare":11264,"Nogle":11265,"chewan":11266,"svav":11267,"yk":11268,"skadespel":11269,"forskere":11270,"Innan":11271,"cist":11272,"vanner":11273,"Cru":11274,"Tig":11275,"irus":11276,"liaceae":11277,"brune":11278,"hellige":11279,"byggda":11280,"Natura":11281,"aff":11282,"jod":11283,"Ces":11284,"bræn":11285,"quin":11286,"upplo":11287,"heilt":11288,"versioner":11289,"Dji":11290,"Phyll":11291,"!\"":11292,"perspektiv":11293,"stry":11294,"jede":11295,"ætter":11296,"utvecklingen":11297,"komot":11298,"Scha":11299,"Hud":11300,"utstallning":11301,"ckan":11302,"bevart":11303,"Vrh":11304,"Committee":11305,"phala":11306,"Saskat":11307,"reng":11308,"fjella":11309,"vanligtvis":11310,"tvunget":11311,"foni":11312,"Rum":11313,"Bruce":11314,"manager":11315,"uktion":11316,"cum":11317,"verda":11318,"bent":11319,"Pant":11320,"flor":11321,"blommiga":11322,"liknar":11323,"nærheten":11324,"haw":11325,"ovic":11326,"belon":11327,"Skal":11328,"Sym":11329,"UE":11330,"ан":11331,"fortsatta":11332,"Parc":11333,"range":11334,"ialis":11335,"singelen":11336,"tradisjonelle":11337,"stet":11338,"katolsk":11339,"Saskatchewan":11340,"phy":11341,"Sunds":11342,"nævnes":11343,"ethe":11344,"Allen":11345,"pinyin":11346,"pska":11347,"hogst":11348,"Europeiska":11349,"Buttu":11350,"observer":11351,"bildas":11352,"Byr":11353,"Skip":11354,"teknologi":11355,"tunge":11356,"bruger":11357,"parad":11358,"unna":11359,"Gilbert":11360,"flam":11361,"begynner":11362,"ryd":11363,"Elfenben":11364,"spekter":11365,"Kongelige":11366,"lju":11367,"lefte":11368,"produksjonen":11369,"Beatles":11370,"Ner":11371,"nover":11372,"Territor":11373,"itch":11374,"Moham":11375,"litteraturen":11376,"Dha":11377,"GA":11378,"oks":11379,"personlige":11380,"Forest":11381,"kad":11382,"1835":11383,"kusten":11384,"eringen":11385,"sving":11386,"Queen":11387,"Say":11388,"foreg":11389,"reder":11390,"mikro":11391,"ech":11392,"nærmest":11393,"Morten":11394,"ST":11395,"stene":11396,"Disney":11397,"utform":11398,"satel":11399,"familier":11400,"1836":11401,"Leipzig":11402,"ummer":11403,"lansert":11404,"Luis":11405,"gifta":11406,"itten":11407,"protester":11408,"medeltiden":11409,"brog":11410,"konstant":11411,"jinga":11412,"opda":11413,"ugg":11414,"uttryck":11415,"ocen":11416,"fint":11417,"assi":11418,"byene":11419,"dods":11420,"Kungs":11421,"følgje":11422,"iki":11423,"trafikk":11424,"katoli":11425,"Major":11426,"liter":11427,"tilla":11428,"metoden":11429,"Petersburg":11430,"Univer":11431,"bomb":11432,"avratt":11433,"verkt":11434,"vigtigste":11435,"vaku":11436,"Troll":11437,"utdannelse":11438,"wart":11439,"Kali":11440,"gramm":11441,"Pahar":11442,"arn":11443,"ulu":11444,"bouti":11445,"Baby":11446,"Cachoeira":11447,"yon":11448,"mojlighet":11449,"baijan":11450,"Ostant":11451,"Foretaget":11452,"anord":11453,"usik":11454,"sting":11455,"tilbud":11456,"Ostantarktis":11457,"fotballspelar":11458,"spartiet":11459,"Lof":11460,"statens":11461,"verdensmester":11462,"jobb":11463,"fungerer":11464,"ellan":11465,"Beck":11466,"Roskilde":11467,"holdning":11468,"asy":11469,"trær":11470,"IFK":11471,"avi":11472,"internasjonal":11473,"Troms":11474,"vækst":11475,"bombe":11476,"skid":11477,"Abe":11478,"ai":11479,"slev":11480,"Prince":11481,"Minnes":11482,"nordiska":11483,"revis":11484,"formelt":11485,"fts":11486,"populara":11487,"koptes":11488,"exped":11489,"etterhvert":11490,"potatis":11491,"FK":11492,"trett":11493,"motsetning":11494,"speciellt":11495,"sledamot":11496,"Fabri":11497,"stykker":11498,"Hali":11499,"Wild":11500,"igang":11501,"oppnade":11502,"kallor":11503,"gradvis":11504,"process":11505,"medlemmarna":11506,"argent":11507,"kjer":11508,"komiteen":11509,"prøve":11510,"liens":11511,"optaget":11512,"betydligt":11513,"firmaet":11514,"skiva":11515,"konstruktion":11516,"inidae":11517,"Sz":11518,"Nem":11519,"industrin":11520,"utforde":11521,"attle":11522,"unntak":11523,"trukket":11524,"tæn":11525,"Institute":11526,"veis":11527,"kompan":11528,"edo":11529,"sæsonen":11530,"Mine":11531,"undantag":11532,"styrka":11533,"masterskapen":11534,"1834":11535,"arez":11536,"morgen":11537,"tegel":11538,"SE":11539,"Navy":11540,"Lun":11541,"Olsson":11542,"regissert":11543,"stret":11544,"Born":11545,"Dron":11546,"autonoma":11547,"dirigent":11548,"Eit":11549,"visst":11550,"øvre":11551,"talje":11552,"Krit":11553,"følg":11554,"Meg":11555,"knott":11556,"motsvarande":11557,"erende":11558,"Fall":11559,"oce":11560,"Djibouti":11561,"Tap":11562,"udviklet":11563,"zarbaijan":11564,"exister":11565,"mode":11566,"Belgia":11567,"Colorado":11568,"regementet":11569,"ansvarlig":11570,"Mellersta":11571,"punc":11572,"Colonia":11573,"materialet":11574,"stekn":11575,"avgor":11576,"verr":11577,"Broad":11578,"ingham":11579,"ithe":11580,"Sty":11581,"uppen":11582,"forsoker":11583,"Hammer":11584,"kompet":11585,"okku":11586,"kunstnere":11587,"udvi":11588,"Kungariket":11589,"stiller":11590,"sakaldte":11591,"Varmland":11592,"Valley":11593,"precis":11594,"stazarbaijan":11595,"chang":11596,"Soderman":11597,"Fotball":11598,"deleg":11599,"gymnast":11600,"overgang":11601,"Pakistan":11602,"Agua":11603,"Bapti":11604,"Estero":11605,"rella":11606,"anvandning":11607,"jamfor":11608,"træk":11609,"Hills":11610,"veter":11611,"drabb":11612,"Carlos":11613,"uropa":11614,"Haug":11615,"Barra":11616,"varig":11617,"pak":11618,"inleddes":11619,"Flam":11620,"utgave":11621,"strakt":11622,"bella":11623,"America":11624,"reich":11625,"fried":11626,"nabo":11627,"habit":11628,"oco":11629,"Leop":11630,"trodde":11631,"Cambridge":11632,"grac":11633,"Svend":11634,"kretsen":11635,"miral":11636,"Fame":11637,"Gur":11638,"Bud":11639,"Kum":11640,"flat":11641,"Lakes":11642,"Deras":11643,"brad":11644,"protestant":11645,"medaljor":11646,"ence":11647,"melodi":11648,"Line":11649,"mix":11650,"Stads":11651,"teatern":11652,"1829":11653,"batar":11654,"Cyper":11655,"tilstand":11656,"højde":11657,"Eksemp":11658,"kalte":11659,"fylket":11660,"kritisk":11661,"hval":11662,"berattar":11663,"prosjektet":11664,"narmare":11665,"Cot":11666,"Stri":11667,"اب":11668,"1833":11669,"inspirert":11670,"tyskland":11671,"Lincol":11672,"tjen":11673,"saf":11674,"skrivna":11675,"Rosa":11676,"Boy":11677,"bogen":11678,"gæl":11679,"jule":11680,"kyrkans":11681,"strandlinjen":11682,"Politischer":11683,"regul":11684,"anfall":11685,"videregaende":11686,"Rø":11687,"Phyt":11688,"Maz":11689,"administrativt":11690,"Giov":11691,"aksep":11692,"forband":11693,"riere":11694,"iveau":11695,"avslutade":11696,"skudd":11697,"fare":11698,"Colombo":11699,"kjempet":11700,"oer":11701,"fangst":11702,"schweiz":11703,"kapital":11704,"Fast":11705,"fullstendig":11706,"lossum":11707,"Psych":11708,"intet":11709,"anner":11710,"artiklar":11711,"brik":11712,"latskri":11713,"bedst":11714,"henger":11715,"hamnade":11716,"eton":11717,"trer":11718,"korall":11719,"Republika":11720,"Srpska":11721,"radgiver":11722,"skusten":11723,"proces":11724,"terar":11725,"koret":11726,"talar":11727,"presse":11728,"nabb":11729,"Alta":11730,"savel":11731,"relser":11732,"Paulo":11733,"Leg":11734,"handlingar":11735,"uki":11736,"Europas":11737,"svampdjursart":11738,"uafhæng":11739,"lagar":11740,"antyder":11741,"sammanhang":11742,"Idrett":11743,"SF":11744,"malningar":11745,"skriftet":11746,"syssel":11747,"kortare":11748,"Massachus":11749,"Pand":11750,"nytte":11751,"penger":11752,"Kamar":11753,"skøy":11754,"vem":11755,"debutalbum":11756,"bøn":11757,"funktioner":11758,"aben":11759,"musli":11760,"Stille":11761,"zawa":11762,"europeisk":11763,"handball":11764,"NU":11765,"Frans":11766,"behover":11767,"Massachusetts":11768,"boende":11769,"inndeling":11770,"play":11771,"tradande":11772,"konkl":11773,"mineral":11774,"1809":11775,"skontrakt":11776,"Disk":11777,"handbold":11778,"myst":11779,"Sebasti":11780,"bren":11781,"neser":11782,"Glas":11783,"samla":11784,"Tibet":11785,"Marcus":11786,"fullmaktige":11787,"Gordon":11788,"icia":11789,"inngar":11790,"klæ":11791,"from":11792,"turi":11793,"pals":11794,"iao":11795,"Addis":11796,"skule":11797,"haug":11798,"gule":11799,"Taiwan":11800,"Amazon":11801,"Laurent":11802,"etc":11803,"sakademien":11804,"bue":11805,"spilles":11806,"freden":11807,"fjernet":11808,"Xant":11809,"floder":11810,"Katarina":11811,"ysia":11812,"domet":11813,"teologi":11814,"grunnleg":11815,"avholdt":11816,"Graham":11817,"vartbit":11818,"teras":11819,"arium":11820,"Grønland":11821,"Christensen":11822,"karn":11823,"uda":11824,"ubile":11825,"pli":11826,"»).":11827,"institusjon":11828,"tilsyn":11829,"bukta":11830,"originale":11831,"Pennsyl":11832,"filmat":11833,"Riacho":11834,"prosjekt":11835,"Imidlertid":11836,"havne":11837,"longi":11838,"musiken":11839,"medlemmene":11840,"linge":11841,"Varje":11842,"Clark":11843,";/":11844,"anges":11845,"namnas":11846,"vartbitare":11847,"hio":11848,"Edu":11849,"ffa":11850,"Jama":11851,"falla":11852,"Lok":11853,"heldt":11854,"inslag":11855,"Astra":11856,"levert":11857,"stillet":11858,"ovit":11859,"jarnvag":11860,"højeste":11861,"reklam":11862,"hias":11863,"innsats":11864,"Vastergotland":11865,"uge":11866,"beskri":11867,"USAs":11868,"Leonard":11869,"scener":11870,"grønne":11871,"Bert":11872,"Sunn":11873,"ume":11874,"rah":11875,"sii":11876,"Museet":11877,"positiv":11878,"Junior":11879,"offentliga":11880,"ridder":11881,"rapport":11882,"Skel":11883,"keram":11884,"dyp":11885,"Linkoping":11886,"Tau":11887,"Hjal":11888,"Meyer":11889,"ridae":11890,"palli":11891,"inneholl":11892,"1832":11893,"leik":11894,"hæv":11895,"pist":11896,"bildad":11897,"offensiv":11898,"ness":11899,"Eriksson":11900,"Pont":11901,"hage":11902,"betraktas":11903,"Helsingborg":11904,"anstalld":11905,"anset":11906,"pir":11907,"abad":11908,"kule":11909,"tydelig":11910,"spets":11911,"næste":11912,"sannoli":11913,"eksempelvis":11914,"karna":11915,"skede":11916,"trade":11917,"aterigen":11918,"brøt":11919,"Hugh":11920,"lektor":11921,"Kurt":11922,"cat":11923,"Hof":11924,"modif":11925,"Fars":11926,"ipes":11927,"tings":11928,"rell":11929,"fs":11930,"Studi":11931,"Cet":11932,"paborj":11933,"otrich":11934,"forandringar":11935,"ng":11936,"mouth":11937,"Leo":11938,"mindst":11939,"Ric":11940,"ilen":11941,"emer":11942,"aktenskap":11943,"karriaren":11944,"Tizi":11945,"iers":11946,"uavhengig":11947,"klan":11948,"Bau":11949,"gut":11950,"orium":11951,"timmar":11952,"Jesu":11953,"BM":11954,"Breuning":11955,"ous":11956,"avhengig":11957,"opret":11958,"naturlige":11959,"prim":11960,"frø":11961,"hvilke":11962,"avancer":11963,"svømm":11964,"Nico":11965,"make":11966,"slaet":11967,"Dicran":11968,"host":11969,"ID":11970,"sprint":11971,"tea":11972,"rine":11973,"bist":11974,"foli":11975,"tilfeller":11976,"ск":11977,"internationellt":11978,"ekonomi":11979,"Burg":11980,"aville":11981,"avtale":11982,"fortsat":11983,"Guad":11984,"tegninger":11985,"margin":11986,"sejr":11987,"ligeledes":11988,"ping":11989,"magnit":11990,"oser":11991,"broen":11992,"igheder":11993,"gades":11994,"Pedersen":11995,"tekniske":11996,"Arts":11997,"elegan":11998,"fonster":11999,"VII":12000,"Zi":12001,"rotter":12002,"sped":12003,"Folkere":12004,"styrt":12005,"Platy":12006,"Ayn":12007,"denes":12008,"verks":12009,"dato":12010,"heste":12011,"ografen":12012,"biografi":12013,"virkelig":12014,"Pitt":12015,"Hver":12016,"Reserve":12017,"falle":12018,"anthes":12019,"sius":12020,"eu":12021,"premiere":12022,"Sou":12023,"narna":12024,"Baptiste":12025,"Tou":12026,"Bureau":12027,"Gad":12028,"republikken":12029,"aliska":12030,"Kristiansand":12031,"²,":12032,"veier":12033,"kaste":12034,"LA":12035,"Tag":12036,"fakultet":12037,"idrot":12038,"rovflugor":12039,"hvorefter":12040,"tredjeplass":12041,"edra":12042,"alog":12043,"finna":12044,"Alberta":12045,"Mario":12046,"Vie":12047,"utgrav":12048,"synner":12049,"administrativa":12050,"strav":12051,"stærkt":12052,"kod":12053,"amal":12054,"geomet":12055,"ambassad":12056,"mog":12057,"gratis":12058,"studera":12059,"hern":12060,"fangen":12061,"bands":12062,"Kiel":12063,"peppar":12064,"ssan":12065,"Pos":12066,"bostads":12067,"noksa":12068,"pressen":12069,"tone":12070,"Programmet":12071,"api":12072,"sades":12073,"omfattning":12074,"enhjartbladig":12075,"fanget":12076,"xen":12077,"Einar":12078,"220":12079,"virkede":12080,"sering":12081,"Adela":12082,"Bohus":12083,"Vær":12084,"halvon":12085,"cius":12086,"Brazz":12087,"Gas":12088,"Uttar":12089,"Johnny":12090,"generalmajor":12091,"Ener":12092,"pavirket":12093,"occus":12094,"dus":12095,"gæn":12096,"Chamber":12097,"Cl":12098,"Slut":12099,"fjerne":12100,"skans":12101,"olas":12102,"IP":12103,"Sala":12104,"slos":12105,"antis":12106,"prinsi":12107,"Micros":12108,"Kva":12109,"Infor":12110,"Christiania":12111,"aki":12112,"dannede":12113,"tyskerne":12114,"lob":12115,"ologer":12116,"danna":12117,"almindelig":12118,"Ves":12119,"overrask":12120,"leftea":12121,"ardi":12122,"Skara":12123,"gjenn":12124,"Aur":12125,"besto":12126,"stiftelsen":12127,"forstar":12128,"ely":12129,"observatoriet":12130,"Spen":12131,"hm":12132,"Camer":12133,"moral":12134,"træner":12135,"dørs":12136,"veldig":12137,"edyr":12138,"Tir":12139,"Oxford":12140,"Grund":12141,"vning":12142,"forvaltning":12143,"ophy":12144,"Esc":12145,"Ceram":12146,"obium":12147,"Qal":12148,"Roll":12149,"Bach":12150,"biskopen":12151,"Maja":12152,"ual":12153,"tim":12154,"predik":12155,"pjas":12156,"centrale":12157,"antrop":12158,"nea":12159,"Wo":12160,"Dru":12161,"praktisk":12162,"rads":12163,"rud":12164,"nell":12165,"fargen":12166,"utstallningar":12167,"sov":12168,"svara":12169,"ingom":12170,"1818":12171,"Reger":12172,"Drag":12173,"graf":12174,"Dou":12175,"anvendt":12176,"romerska":12177,"Dash":12178,"Formel":12179,"adskillige":12180,"Jur":12181,"tum":12182,"Ting":12183,"territoriet":12184,"deltagelse":12185,"sosiale":12186,"Mou":12187,"role":12188,"tonn":12189,"Chry":12190,"manuel":12191,"fartyget":12192,"gtede":12193,"texten":12194,"vandet":12195,"forfattere":12196,"opnaede":12197,"afholdt":12198,"samlar":12199,"1810":12200,"oppnades":12201,"vapnet":12202,"Glavica":12203,"3000":12204,"partner":12205,"Pennsylvania":12206,"Sydafrika":12207,"markeds":12208,"lette":12209,"Skole":12210,"Morne":12211,"Ernest":12212,"etableret":12213,"placerade":12214,"manen":12215,"spi":12216,"Nelson":12217,"slægt":12218,"belaget":12219,"burgh":12220,"marine":12221,"rence":12222,"aran":12223,"ligner":12224,"Gener":12225,"Abd":12226,"Ses":12227,"innspil":12228,"Luther":12229,"ulin":12230,"etus":12231,"varefter":12232,"Nedre":12233,"nasti":12234,"Free":12235,"skildra":12236,"bevarade":12237,"AG":12238,"sattningen":12239,"Phila":12240,"bredde":12241,"mossor":12242,"familjer":12243,"Filippinerna":12244,"igi":12245,"vinder":12246,"Brazzaville":12247,"operativ":12248,"utmark":12249,"arve":12250,"hendelser":12251,"skete":12252,"katolska":12253,"mina":12254,"forsak":12255,"Giovanni":12256,"lity":12257,"oty":12258,"scene":12259,"jin":12260,"Fyn":12261,"service":12262,"iola":12263,"See":12264,"billene":12265,"kons":12266,"bop":12267,"Model":12268,"Miguel":12269,"order":12270,"avskaff":12271,"robot":12272,"øyt":12273,"texter":12274,"ovac":12275,"lich":12276,"Head":12277,"AIK":12278,"bildet":12279,"monark":12280,"røy":12281,"Opera":12282,"trak":12283,"utgiven":12284,"buset":12285,"ledere":12286,"hid":12287,"viking":12288,"rim":12289,"brost":12290,"eventyr":12291,"say":12292,"bass":12293,"uddannet":12294,"IX":12295,"Kara":12296,"hjelpe":12297,"rosophila":12298,"yton":12299,"betale":12300,"Master":12301,"sporet":12302,"lyder":12303,"grep":12304,"grænse":12305,"nars":12306,"lufthavn":12307,"cto":12308,"færen":12309,"Silver":12310,"medverkat":12311,"strekk":12312,"forare":12313,"Kel":12314,"spora":12315,"partil":12316,"Kjel":12317,"dyg":12318,"Skargards":12319,"Vetenskap":12320,"deltak":12321,"Sey":12322,"søen":12323,"Miller":12324,"ekst":12325,"grat":12326,"ور":12327,"framgangar":12328,"borgen":12329,"viol":12330,"Bara":12331,"Dres":12332,"satter":12333,"lifik":12334,"tila":12335,"blues":12336,"hovudsak":12337,"Hoff":12338,"rommet":12339,"smaningom":12340,"syftar":12341,"ejen":12342,"mobil":12343,"pid":12344,"varna":12345,"Baden":12346,"publisert":12347,"glest":12348,"dle":12349,"witz":12350,"CC":12351,"Mort":12352,"originalt":12353,"innflytelse":12354,"Elekt":12355,"driften":12356,"nordover":12357,"vack":12358,"rana":12359,"Høj":12360,"stykket":12361,"pagne":12362,"Herred":12363,"dete":12364,"mennesk":12365,"Pereval":12366,"minner":12367,"trommes":12368,"boede":12369,"omvand":12370,"beskyt":12371,"Ulf":12372,"Elva":12373,"Cape":12374,"magasinet":12375,"organisert":12376,"ianus":12377,"jarne":12378,"innehall":12379,"Nordkorea":12380,"samlade":12381,"otillrackligt":12382,"siva":12383,"ophia":12384,"kka":12385,"Hoch":12386,"1828":12387,"Antennene":12388,"ranunkel":12389,"Anth":12390,"bio":12391,"ettere":12392,"Nordisk":12393,"samhall":12394,"Bolag":12395,"popularitet":12396,"ønskede":12397,"Sophie":12398,"Milano":12399,"utgivet":12400,"ody":12401,"Familie":12402,"ross":12403,"Gamle":12404,"utgangspunkt":12405,"flottan":12406,"Folkerepublikken":12407,"на":12408,"skur":12409,"bunden":12410,"rof":12411,"pek":12412,"fartøy":12413,"starte":12414,"pansar":12415,"cre":12416,"ologin":12417,"XX":12418,"onne":12419,"born":12420,"Atlanta":12421,"fremme":12422,"resor":12423,"ekspedisjon":12424,"Skil":12425,"smel":12426,"utvikla":12427,"Balt":12428,"arterna":12429,"dyb":12430,"Kristus":12431,"Orien":12432,"emoni":12433,"miner":12434,"fjellene":12435,"europæiske":12436,"hemme":12437,"forlod":12438,"Lucas":12439,"metode":12440,"beskyttelse":12441,"huvu":12442,"Cross":12443,"Fritz":12444,"amus":12445,"gjenopp":12446,"næring":12447,"bruddet":12448,"økt":12449,"isar":12450,"vagn":12451,"nemn":12452,"oversett":12453,"oppar":12454,"grunnla":12455,"kryss":12456,"forran":12457,"1824":12458,"sattningar":12459,"faltet":12460,"Herrarnas":12461,"Bundes":12462,"Akershus":12463,"Lange":12464,"mordet":12465,"itel":12466,"Mynnar":12467,"kemi":12468,"Falk":12469,"styltflugor":12470,"Patrick":12471,"pande":12472,"Elfenbenskusten":12473,"mine":12474,"internasjonalt":12475,"Auguste":12476,"Nok":12477,"repor":12478,"kjøn":12479,"Syds":12480,"Felix":12481,"Tyrkia":12482,"Anto":12483,"kontroversi":12484,"fortr":12485,"menade":12486,"gart":12487,"etablere":12488,"eftertraddes":12489,"foregaende":12490,"fond":12491,"nordaust":12492,"ruten":12493,"selvstendig":12494,"rollerna":12495,"landskamper":12496,"ateri":12497,"fungerar":12498,"Dod":12499,"Jonsson":12500,"was":12501,"Stru":12502,"ocer":12503,"fjadermyggor":12504,"usikker":12505,"studerad":12506,"Albu":12507,"kler":12508,"Øya":12509,"inrikt":12510,"baserade":12511,"bah":12512,"pic":12513,"avent":12514,"Ovan":12515,"oun":12516,"Pronotum":12517,"Stappklimat":12518,"Zan":12519,"talis":12520,"internationell":12521,"zuela":12522,"manna":12523,"Times":12524,"minstone":12525,"premier":12526,"Clin":12527,"landerna":12528,"nagonsin":12529,"olus":12530,"illon":12531,"vd":12532,"byar":12533,"inium":12534,"itus":12535,"quad":12536,"Havanna":12537,"berga":12538,"Blek":12539,"lion":12540,"skibet":12541,"regissør":12542,"Adelaide":12543,"ejer":12544,"Sundsvall":12545,"betong":12546,"grunnlag":12547,"Parad":12548,"Gotland":12549,"eina":12550,"Referenser":12551,"Loire":12552,"indr":12553,"prøver":12554,"foreningar":12555,"tuber":12556,"Ec":12557,"muren":12558,"bryter":12559,"sundet":12560,"argumenter":12561,"ukkende":12562,"sykehus":12563,"Hub":12564,"torget":12565,"vendt":12566,"Maurice":12567,"Benjam":12568,"latinske":12569,"mynt":12570,"øtter":12571,"skotske":12572,"Gy":12573,"Norman":12574,"Sot":12575,"Frankfurt":12576,"skred":12577,"ður":12578,"neden":12579,"studere":12580,"heri":12581,"trumm":12582,"skiller":12583,"halvt":12584,"1812":12585,"aea":12586,"goda":12587,"agar":12588,"mulighed":12589,"auktor":12590,"flan":12591,"Petersen":12592,"budet":12593,"urneringen":12594,"Gunt":12595,"utel":12596,"autonom":12597,"fæst":12598,"McCart":12599,"sporten":12600,"Rogaland":12601,"Game":12602,"Niger":12603,"skapar":12604,"soldat":12605,"Ceramby":12606,"Andr":12607,"videnskabe":12608,"Adel":12609,"Mira":12610,"Naz":12611,"skandinav":12612,"teckning":12613,"Ohio":12614,"grundlæg":12615,"Beethoven":12616,"folia":12617,"hek":12618,"Serge":12619,"okse":12620,"halften":12621,"sniva":12622,"miljar":12623,"avtalen":12624,"misstan":12625,"strekker":12626,"katal":12627,"somraden":12628,"tillfallen":12629,"panser":12630,"itze":12631,"Dekk":12632,"Byggnaden":12633,"Northern":12634,"varet":12635,"burn":12636,"Jung":12637,"komsten":12638,"illy":12639,"Hig":12640,"مه":12641,"Cote":12642,"sver":12643,"hindra":12644,"skoldloss":12645,"Euc":12646,"Odd":12647,"medvet":12648,"skapt":12649,"faldt":12650,"etes":12651,"Bakgrund":12652,"cola":12653,"edig":12654,"skær":12655,"osum":12656,"sammenlagt":12657,"1831":12658,"Party":12659,"jarl":12660,"folketell":12661,"Ouadi":12662,"Walt":12663,"tnant":12664,"sovjetisk":12665,"folja":12666,"siger":12667,"domdes":12668,"Dow":12669,"slalam":12670,"finaler":12671,"hea":12672,"Tøn":12673,"liska":12674,"uh":12675,"omgangen":12676,"gur":12677,"rant":12678,"plin":12679,"skad":12680,"Pul":12681,"saret":12682,"khan":12683,"Margr":12684,"vuxen":12685,"bebyggelsen":12686,"ogaster":12687,"pom":12688,"Holstein":12689,"riktig":12690,"odendron":12691,"LC":12692,"ocal":12693,"210":12694,"bedom":12695,"regent":12696,"Sap":12697,"search":12698,"Illin":12699,"Persson":12700,"azat":12701,"okkuper":12702,"innsjøen":12703,"kjel":12704,"Sidi":12705,"Tipula":12706,"1821":12707,"Sebastian":12708,"diplomat":12709,"Jud":12710,"Samt":12711,"højere":12712,"Alice":12713,"teorier":12714,"Chap":12715,"yat":12716,"holt":12717,"begreppet":12718,"biske":12719,"vileg":12720,"Media":12721,"sparken":12722,"lapp":12723,"symptom":12724,"Ian":12725,"hera":12726,"hald":12727,"Ile":12728,"overs":12729,"styres":12730,"hafazat":12731,"stjart":12732,"opptil":12733,"beton":12734,"smannen":12735,"hale":12736,"kontrollen":12737,"besluttet":12738,"docent":12739,"kommunikation":12740,"Margaret":12741,"zjan":12742,"culus":12743,"framleis":12744,"Norrkoping":12745,"Cit":12746,"maske":12747,"borte":12748,"Ath":12749,"Sjæl":12750,"forstaelse":12751,"ktiske":12752,"Dich":12753,"sølvmedalje":12754,"stog":12755,"ocarpus":12756,"regiment":12757,"narvarande":12758,"okkupa":12759,"Aga":12760,"Oppr":12761,"kombination":12762,"Eksterne":12763,"Pit":12764,"unc":12765,"iso":12766,"forvan":12767,"abnede":12768,"Alter":12769,"Opsjtina":12770,"Keit":12771,"bruge":12772,"Draa":12773,"tagelig":12774,"tryg":12775,"stammen":12776,"Chah":12777,"læge":12778,"begravd":12779,"skotsk":12780,"xia":12781,"alders":12782,"ksomhet":12783,"Nuuk":12784,"opht":12785,"unden":12786,"invader":12787,"bilitet":12788,"tjanste":12789,"radar":12790,"kts":12791,"jordens":12792,"karlek":12793,"05":12794,"skador":12795,"leden":12796,"icornis":12797,"sørover":12798,"brugte":12799,"klot":12800,"territorium":12801,"selskab":12802,"115":12803,"gott":12804,"blatt":12805,"sprakiga":12806,"Maxim":12807,"kunder":12808,"spris":12809,"tattingar":12810,"Halm":12811,"skisk":12812,"Taung":12813,"fabrikken":12814,"fadern":12815,"alisering":12816,"hunde":12817,"fasci":12818,"icip":12819,"disci":12820,"høre":12821,"bakgrund":12822,"Arvid":12823,"ademy":12824,"Force":12825,"allmant":12826,"meldte":12827,"Skargardshavet":12828,"engasj":12829,"bjør":12830,"UEFA":12831,"sokte":12832,"himm":12833,"real":12834,"voksede":12835,"oppmer":12836,"Fyr":12837,"tof":12838,"tverr":12839,"1816":12840,"1808":12841,"citet":12842,"mari":12843,"sleder":12844,"frek":12845,"klassiska":12846,"light":12847,"figuren":12848,"princip":12849,"forbatt":12850,"deg":12851,"Serie":12852,"tvang":12853,"udel":12854,"Onth":12855,"sentra":12856,"føringen":12857,"motte":12858,"Aer":12859,"Dong":12860,"lamningar":12861,"administrative":12862,"bestemm":12863,"systematik":12864,"idrotts":12865,"pastorat":12866,"Lisa":12867,"tilgjengelig":12868,"kane":12869,"1825":12870,"stum":12871,"produserte":12872,"fremmet":12873,"finger":12874,"premiarminister":12875,"ando":12876,"gjennomført":12877,"Minas":12878,"befri":12879,"kala":12880,"Tetra":12881,"extre":12882,"placeret":12883,"Rhod":12884,"tyng":12885,"kritikk":12886,"elektriske":12887,"bygden":12888,"skikk":12889,"Karelen":12890,"fans":12891,"fasa":12892,"Loren":12893,"hah":12894,"turk":12895,"tons":12896,"fton":12897,"uppet":12898,"synt":12899,"HC":12900,"hovedsak":12901,"Svens":12902,"Oh":12903,"Buck":12904,"Your":12905,"fotografer":12906,"Lys":12907,"opogon":12908,"baserat":12909,"hebra":12910,"jevn":12911,"identitet":12912,"oneura":12913,"aterna":12914,"Academy":12915,"guden":12916,"relation":12917,"Fredriks":12918,"cion":12919,"forslaget":12920,"mem":12921,"Bebyg":12922,"Romsdal":12923,"Høg":12924,"zona":12925,"Benjamin":12926,"liteter":12927,"tian":12928,"agne":12929,"foreningens":12930,"utstallningen":12931,"spørgs":12932,"marskal":12933,"polar":12934,"skytter":12935,"1819":12936,"redig":12937,"ptus":12938,"Beau":12939,"kalbum":12940,"flode":12941,"fekt":12942,"Mikael":12943,"Emer":12944,"Rick":12945,"arus":12946,"grus":12947,"mynnar":12948,"Elias":12949,"1826":12950,"240":12951,"sallan":12952,"Mitt":12953,"kollektiv":12954,"hong":12955,"Mohafazat":12956,"Antwer":12957,"skytte":12958,"ataceae":12959,"foreldre":12960,"ights":12961,"Halsing":12962,"nejli":12963,"Illinois":12964,"klaver":12965,"besegrade":12966,"litterære":12967,"utok":12968,"laggning":12969,"aka":12970,"Corpor":12971,"Polyp":12972,"kvadratmeter":12973,"totale":12974,"forklaring":12975,"kanaler":12976,"billeder":12977,"Taf":12978,"beslutade":12979,"lovakia":12980,"spa":12981,"verken":12982,"Helena":12983,"apote":12984,"strackning":12985,"Wor":12986,"HF":12987,"styrken":12988,"ense":12989,"staderna":12990,"mant":12991,"Aud":12992,"begav":12993,"zburg":12994,"vilkar":12995,"uppstod":12996,"virkning":12997,"sinstitut":12998,"Eid":12999,"synet":13000,"Sound":13001,"matematik":13002,"dale":13003,"intill":13004,"Schmidt":13005,"Qing":13006,"cock":13007,"stim":13008,"historier":13009,"yrus":13010,"iera":13011,"Møre":13012,"Normandie":13013,"Tat":13014,"point":13015,"besæt":13016,"Litter":13017,"larver":13018,"Philadel":13019,"Cens":13020,"kær":13021,"masterskap":13022,"lof":13023,"oav":13024,"invi":13025,"Kloster":13026,"borja":13027,"pote":13028,"Sigurd":13029,"opprinnelse":13030,"ants":13031,"parlaments":13032,"Kaf":13033,"jylland":13034,"stranden":13035,"indi":13036,"Rolling":13037,"profesjonell":13038,"Vidare":13039,"ango":13040,"Alpes":13041,"miljøet":13042,"helikopter":13043,"ostoma":13044,"mern":13045,"patraffats":13046,"gio":13047,"udnævnt":13048,"Oliver":13049,"Sloven":13050,"Atlanter":13051,"blommor":13052,"Cand":13053,"IM":13054,"rekkje":13055,"atervand":13056,"mønster":13057,"lug":13058,"Did":13059,"Gla":13060,"artilleri":13061,"Dream":13062,"Halle":13063,"honan":13064,"Rail":13065,"Onthophagus":13066,"Dekkvingene":13067,"instrumenter":13068,"Hipp":13069,"umiddelbart":13070,"genop":13071,"Braun":13072,"nært":13073,"ikeren":13074,"polska":13075,"utmar":13076,"kkelig":13077,"blem":13078,"sie":13079,"Sande":13080,"designet":13081,"tømmer":13082,"odrom":13083,"vinst":13084,"court":13085,"traditionella":13086,"kanner":13087,"kommunhuvudort":13088,"oleandervaxter":13089,"framforallt":13090,"Bodø":13091,"konflikten":13092,"østerrik":13093,"Leopold":13094,"cium":13095,"borgare":13096,"leiar":13097,"Gall":13098,"roster":13099,"angul":13100,"medførte":13101,"handboll":13102,"Vestfold":13103,"ademiet":13104,"besej":13105,"manden":13106,"emig":13107,"lekyl":13108,"mum":13109,"framat":13110,"Allsvenskan":13111,"Fac":13112,"fisker":13113,"avdelning":13114,"Lyng":13115,"Rek":13116,"ativa":13117,"demokratiska":13118,"mørk":13119,"medie":13120,"stifta":13121,"Edwards":13122,"automat":13123,"tillhorande":13124,"amne":13125,"Arhus":13126,"Doli":13127,"08":13128,"atminstone":13129,"ussou":13130,"skadet":13131,"Mongoli":13132,"Fischer":13133,"adgang":13134,"Brandenburg":13135,"plos":13136,"hers":13137,"Strauss":13138,"Koch":13139,"geme":13140,"كوه":13141,"skift":13142,"230":13143,"Anat":13144,"Dak":13145,"fed":13146,"organisasjoner":13147,"befordra":13148,"icolor":13149,"Pow":13150,"Hampson":13151,"Ast":13152,"chell":13153,"umar":13154,"menes":13155,"bevil":13156,"Ej":13157,"bakke":13158,"Karin":13159,"trafiker":13160,"flok":13161,"sax":13162,"yttre":13163,"fine":13164,"generation":13165,"kelsen":13166,"busk":13167,"sammenheng":13168,"osv":13169,"Curt":13170,"ining":13171,"uez":13172,"agnade":13173,"erbju":13174,"Kem":13175,"patri":13176,"Boris":13177,"Forst":13178,"opkaldt":13179,"rarna":13180,"Mona":13181,"utbildade":13182,"visat":13183,"representert":13184,"grænser":13185,"ortsvaxter":13186,"Galler":13187,"mjol":13188,"apost":13189,"kortere":13190,"ер":13191,"Drott":13192,"Gly":13193,"pip":13194,"bydelen":13195,"godset":13196,"obal":13197,"Sea":13198,"jy":13199,"framgangsrika":13200,"Podgor":13201,"kapp":13202,"mangler":13203,"AR":13204,"Lasi":13205,"alus":13206,"atel":13207,"garnis":13208,"Program":13209,"striden":13210,"soni":13211,"Valer":13212,"evne":13213,"Internationella":13214,"rill":13215,"stallen":13216,"Østrig":13217,"faktorer":13218,"Claude":13219,"Esp":13220,"ritningar":13221,"altar":13222,"Arm":13223,"bay":13224,"Schu":13225,"rier":13226,"urnering":13227,"kammaren":13228,"Byn":13229,"GP":13230,"narmast":13231,"Lei":13232,"lankar":13233,"sammanlagt":13234,"Gotaland":13235,"byggerne":13236,"Kef":13237,"Rød":13238,"jernban":13239,"avsnittet":13240,"Xen":13241,"førsel":13242,"domstolen":13243,"stalld":13244,"Pyong":13245,"staller":13246,"bidro":13247,"glanssteklar":13248,"Finska":13249,"beting":13250,"Mountains":13251,"forlust":13252,"oland":13253,"ante":13254,"Marshall":13255,"cata":13256,"fell":13257,"Cerat":13258,"Rena":13259,"forenings":13260,"Apoll":13261,"onto":13262,"usch":13263,"kiat":13264,"Service":13265,"anslutning":13266,"tillverkades":13267,"Anthony":13268,"Odon":13269,"Veien":13270,"pension":13271,"Lagoa":13272,"læring":13273,"formation":13274,"edder":13275,"produceret":13276,"Nørre":13277,"max":13278,"olja":13279,"ches":13280,"sender":13281,"1827":13282,"dannes":13283,"Kreis":13284,"hjerte":13285,"kjerne":13286,"begrepet":13287,"vanligaste":13288,"Egen":13289,"smakten":13290,"spesialiser":13291,"konsekven":13292,"stenar":13293,"upplostes":13294,"ørken":13295,"Levu":13296,"09":13297,"Maj":13298,"milliarder":13299,"toget":13300,"højt":13301,"Margareta":13302,"Fis":13303,"Agr":13304,"Cten":13305,"Adams":13306,"vektor":13307,"gie":13308,"nævnte":13309,"Shet":13310,"halt":13311,"vilje":13312,"lider":13313,"vatet":13314,"west":13315,"løv":13316,"infra":13317,"edalen":13318,"assister":13319,"Vaxjo":13320,"volution":13321,"Medan":13322,"1813":13323,"Prov":13324,"sogn":13325,"haver":13326,"chter":13327,"framstaende":13328,"mulighet":13329,"horax":13330,"vises":13331,"Hat":13332,"Bernard":13333,"landskamp":13334,"ulf":13335,"foretrad":13336,"Thu":13337,"kalde":13338,"Pris":13339,"virket":13340,"skjel":13341,"magnitud":13342,"spredt":13343,"jektiv":13344,"forsik":13345,"yeh":13346,"dsels":13347,"kyrkoher":13348,"begrepp":13349,"pund":13350,"ocy":13351,"ferie":13352,"Frances":13353,"Konig":13354,"Nak":13355,"økte":13356,"ев":13357,"tilhørende":13358,"kannet":13359,"BU":13360,"igalpa":13361,"bøkene":13362,"oxid":13363,"senator":13364,"science":13365,"ekstrem":13366,"ordnet":13367,"meteor":13368,"socknen":13369,"semifinal":13370,"LO":13371,"slø":13372,"arens":13373,"skivor":13374,"lax":13375,"energ":13376,"grunnet":13377,"Gom":13378,"byttet":13379,"pades":13380,"dokumentarfilm":13381,"Peking":13382,"Alexand":13383,"ference":13384,"kvinnelige":13385,"oste":13386,"inborde":13387,"Ide":13388,"issa":13389,"univers":13390,"formuler":13391,"laborator":13392,"Thunder":13393,"Podgorica":13394,"Indre":13395,"kreft":13396,"nodvand":13397,"Asker":13398,"marmor":13399,"strafik":13400,"Hord":13401,"bronze":13402,"revolusjonen":13403,"hyt":13404,"EF":13405,"poj":13406,"Arnold":13407,"rans":13408,"Møller":13409,"Antwerpen":13410,"sidens":13411,"hersk":13412,"folkrakningen":13413,"ritt":13414,"Emma":13415,"Liga":13416,"Nye":13417,"storp":13418,"stemning":13419,"Tekniska":13420,"demokraterna":13421,"okon":13422,"samarbeidet":13423,"adres":13424,"blandning":13425,"tning":13426,"rosa":13427,"ffel":13428,"reservoar":13429,"Fod":13430,"poesi":13431,"kespe":13432,"utlandet":13433,"zj":13434,"kninger":13435,"Studios":13436,"tilsku":13437,"landhockey":13438,"demokrati":13439,"Philadelphia":13440,"rata":13441,"tanker":13442,"tidskriften":13443,"arsj":13444,"rio":13445,"begiven":13446,"Roman":13447,"ucigalpa":13448,"ingens":13449,"kirkes":13450,"1801":13451,"slæg":13452,"Tegucigalpa":13453,"Hamar":13454,"spesial":13455,"arbejd":13456,"ekteskap":13457,"Morgan":13458,"pset":13459,"ruter":13460,"Lager":13461,"Mana":13462,"Moz":13463,"Sich":13464,"oprør":13465,"Frederiksberg":13466,"analyser":13467,"Akra":13468,"Sjø":13469,"fjen":13470,"dømmet":13471,"væsent":13472,"sygdom":13473,"stander":13474,"gardens":13475,"vive":13476,"omtales":13477,"begrenset":13478,"underjord":13479,"ware":13480,"sump":13481,"avveck":13482,"stamme":13483,"naturligt":13484,"klosteret":13485,"Rasmussen":13486,"skivbolaget":13487,"overste":13488,"oppretta":13489,"husets":13490,"cert":13491,"ætte":13492,"regionale":13493,"Skri":13494,"stasjoner":13495,"gruva":13496,"brant":13497,"1790":13498,"ology":13499,"perimenter":13500,"ophorus":13501,"UN":13502,"borgere":13503,"Bulb":13504,"avy":13505,"medvirket":13506,"Put":13507,"water":13508,"stande":13509,"bringe":13510,"møde":13511,"repræsenter":13512,"psalm":13513,"riget":13514,"foreslog":13515,"Brat":13516,"aviser":13517,"reiser":13518,"Cours":13519,"Loch":13520,"trekke":13521,"Nash":13522,"værket":13523,"black":13524,"Fas":13525,"virus":13526,"arbejds":13527,"Call":13528,"vedtatt":13529,"yeong":13530,"Gan":13531,"iten":13532,"udgør":13533,"Andal":13534,"Wy":13535,"fortalte":13536,"Billy":13537,"Sæ":13538,"jat":13539,"raka":13540,"Erich":13541,"Tul":13542,"Mey":13543,"søraust":13544,"kunga":13545,"Petit":13546,"klassific":13547,"1823":13548,"Pyongyang":13549,"virker":13550,"tagne":13551,"trus":13552,"tarnet":13553,"damm":13554,"sjukdomar":13555,"low":13556,"tapt":13557,"Alm":13558,"oberoende":13559,"gallmyggor":13560,"Juli":13561,"langrenn":13562,"Shakespe":13563,"alisert":13564,"Cant":13565,"folkm":13566,"standigt":13567,"125":13568,"konstnaren":13569,"onica":13570,"gensis":13571,"Nepal":13572,"betydninger":13573,"illus":13574,"Sex":13575,"straks":13576,"Lod":13577,"eftertradde":13578,"kulturelle":13579,"Spelet":13580,"Kallor":13581,"dur":13582,"sjatte":13583,"Namn":13584,"HD":13585,"Rau":13586,"studerede":13587,"Vastman":13588,"brigade":13589,"nevnes":13590,"egn":13591,"enti":13592,"administrasjons":13593,"Venezuela":13594,"lisert":13595,"ET":13596,"ladesh":13597,"Krim":13598,"lak":13599,"krafta":13600,"borough":13601,"stallande":13602,"ryss":13603,"knu":13604,"søkte":13605,"Cli":13606,"Hid":13607,"utvid":13608,"Skot":13609,"elsene":13610,"egentlige":13611,"neum":13612,"habitat":13613,"Eskil":13614,"Gle":13615,"skis":13616,"Census":13617,"ambet":13618,"musikkalbum":13619,"samfunns":13620,"songane":13621,"Atlant":13622,"barna":13623,"cerede":13624,"endringer":13625,"Krigs":13626,"barndom":13627,"deltatt":13628,"tilfø":13629,"kai":13630,"utbredning":13631,"officielle":13632,"Goran":13633,"honor":13634,"inda":13635,"finlandska":13636,"tegneser":13637,"Minor":13638,"tyrkiske":13639,"new":13640,"Roda":13641,"teik":13642,"Fel":13643,"Folketinget":13644,"enhver":13645,"fasta":13646,"Indiv":13647,"tillverkning":13648,"hvorfor":13649,"kategori":13650,"antagelig":13651,"kraften":13652,"porten":13653,"medisin":13654,"evangeli":13655,"alistisk":13656,"brasiliansk":13657,"Wel":13658,"Alv":13659,"barnen":13660,"ffen":13661,"NFL":13662,"Yorks":13663,"kunskap":13664,"konflikter":13665,"tagande":13666,"rap":13667,"Arsen":13668,"Stadion":13669,"paa":13670,"Flat":13671,"Cheng":13672,"arrestert":13673,"svans":13674,"eksempler":13675,"Ya":13676,"rakt":13677,"Sky":13678,"intelle":13679,"religiosa":13680,"1822":13681,"cien":13682,"imba":13683,"eksisterer":13684,"særligt":13685,"øvrig":13686,"Jup":13687,"Studio":13688,"svag":13689,"tvaa":13690,"omfattet":13691,"udviklede":13692,"valen":13693,"Theatre":13694,"pensjon":13695,"Warszawa":13696,"Ask":13697,"tilgang":13698,"DDR":13699,"samtida":13700,"jah":13701,"Stur":13702,"Abeba":13703,"ouz":13704,"Aleksand":13705,"klor":13706,"country":13707,"kommunreformen":13708,"moren":13709,"fiction":13710,"varo":13711,"bredden":13712,"utskottet":13713,"Zard":13714,"fynd":13715,"Resultatet":13716,"Nuevo":13717,"forud":13718,"graver":13719,"Cav":13720,"skabs":13721,"kommunale":13722,"historiskt":13723,"unnga":13724,"Moritz":13725,"eigen":13726,"bruck":13727,"prinsesse":13728,"Yamo":13729,"bortsett":13730,"betød":13731,"kjenner":13732,"Fed":13733,"slor":13734,"oler":13735,"malade":13736,"Schwar":13737,"sannsynligvis":13738,"Viking":13739,"Corporation":13740,"Satur":13741,"døden":13742,"arbei":13743,"Fern":13744,"]],":13745,"Varlds":13746,"varv":13747,"Urugu":13748,"Cob":13749,"litz":13750,"Butler":13751,"kriminal":13752,"Rhone":13753,"Dresden":13754,"kara":13755,"dot":13756,"manniskan":13757,"frat":13758,"losning":13759,"Lut":13760,"Phyl":13761,"teres":13762,"Operation":13763,"Moss":13764,"fødsel":13765,"forskningen":13766,"utvikle":13767,"kamera":13768,"Franska":13769,"inet":13770,"Holsten":13771,"gg":13772,"aften":13773,"kvist":13774,"European":13775,"latta":13776,"Mim":13777,"molekyl":13778,"spilleren":13779,"Drammen":13780,"vation":13781,"ways":13782,"sætte":13783,"kommentar":13784,"Angerman":13785,"husen":13786,"Tommy":13787,".).":13788,"Khal":13789,"omataceae":13790,"folkes":13791,"talas":13792,"strads":13793,"rikets":13794,"titler":13795,"fina":13796,"1807":13797,"450":13798,"Names":13799,"gaz":13800,"Tow":13801,"Minnesota":13802,"Yamoussou":13803,"uppmarksamhet":13804,"frekven":13805,"Yamoussoukro":13806,"=\"":13807,"sse":13808,"Hawa":13809,"Peters":13810,"ledelsen":13811,"Rundt":13812,"Mek":13813,"kia":13814,"otal":13815,"Christina":13816,"Werner":13817,"Row":13818,"jab":13819,"himmel":13820,"unnelen":13821,"couver":13822,"Panama":13823,"Iron":13824,"entin":13825,"juridisk":13826,"regionhuvudstaden":13827,"Cau":13828,"transpor":13829,"Kenned":13830,"bow":13831,"Fug":13832,"Sham":13833,"bene":13834,"lom":13835,"Khu":13836,"biska":13837,"Grant":13838,"utgava":13839,"fysiske":13840,"Pse":13841,"gogae":13842,"familje":13843,"Power":13844,"obia":13845,"sæl":13846,"cklen":13847,"spele":13848,"etisk":13849,"haven":13850,"hing":13851,"Gross":13852,"tvavingar":13853,"nejlikvax":13854,"Laos":13855,"hui":13856,"Turkiet":13857,"alisme":13858,"Bygningen":13859,"Angola":13860,"redusert":13861,"rift":13862,"aminer":13863,"højre":13864,"handa":13865,"grann":13866,"mio":13867,"spet":13868,"klus":13869,"Bangladesh":13870,"smitt":13871,"sikkerhet":13872,"voly":13873,"falz":13874,"mologi":13875,"begræn":13876,"gors":13877,"Mick":13878,"omfatte":13879,"trada":13880,"løste":13881,"Down":13882,"univer":13883,"Schiz":13884,"effekten":13885,"mojlig":13886,"besta":13887,"forsor":13888,"Dø":13889,"Sydamerika":13890,"Bebyggelsen":13891,"provis":13892,"blind":13893,"koppar":13894,"ensi":13895,"bladhorningar":13896,"osper":13897,"Strøm":13898,"staben":13899,"bater":13900,"ikern":13901,"terat":13902,"konse":13903,"Hooker":13904,"kanter":13905,"Research":13906,"indisk":13907,"frid":13908,"sykdom":13909,"malerier":13910,"Mest":13911,"Paret":13912,"ianske":13913,"Emili":13914,"sus":13915,"jorda":13916,"einaste":13917,"uper":13918,"»),":13919,"Glo":13920,"Tomas":13921,"Kav":13922,"butik":13923,"Um":13924,"fand":13925,"Wright":13926,"kontinuer":13927,"Mongoliet":13928,"flad":13929,"Base":13930,"glad":13931,"anlegget":13932,"Metrop":13933,"hitta":13934,"360":13935,"byggede":13936,"opstod":13937,"trommer":13938,"Cari":13939,"اد":13940,"SO":13941,"ional":13942,"heh":13943,"sadant":13944,"Mant":13945,"datert":13946,"fysi":13947,"innspel":13948,"Frankrikes":13949,"Stør":13950,"Gray":13951,"Sentral":13952,"Cano":13953,"Nad":13954,"sagde":13955,"Helge":13956,"breid":13957,"Sef":13958,"debuterede":13959,"Vr":13960,"skyg":13961,"statliga":13962,"længe":13963,"indiker":13964,"prosess":13965,"Michigan":13966,"zakstan":13967,"Cypern":13968,"Derudover":13969,"utveckla":13970,"Dylan":13971,"specialiser":13972,"Calli":13973,"Enkel":13974,"Doc":13975,"Sie":13976,"svær":13977,"Lulea":13978,"Landet":13979,"Tiden":13980,"kriter":13981,"betydelige":13982,"halvparten":13983,"Socknen":13984,"Desse":13985,"ralen":13986,"forstyr":13987,"viktigt":13988,"tin":13989,"Ere":13990,"irske":13991,"bruken":13992,"musikere":13993,"slaver":13994,"Shin":13995,"nektet":13996,"arsjubile":13997,"Ake":13998,"sammanslag":13999,"sunds":14000,"registrert":14001,"Reservatet":14002,"feng":14003,"forhandling":14004,"fantes":14005,"alpin":14006,"Profess":14007,"ppel":14008,"1817":14009,"forsøgte":14010,"forandring":14011,"brødre":14012,"vitenskapelige":14013,"Gunther":14014,"individuelle":14015,"Vide":14016,"Patri":14017,"hyr":14018,"Urban":14019,"konservative":14020,"olding":14021,"Karen":14022,"etik":14023,"tropp":14024,"fattar":14025,"stannade":14026,"oleandervaxtart":14027,"mmi":14028,"balla":14029,"givende":14030,"Dum":14031,"HK":14032,"Vent":14033,"festet":14034,"Asa":14035,"yrke":14036,"vatmarker":14037,"lost":14038,"ор":14039,"veje":14040,"Stationen":14041,"Bernhard":14042,"Røde":14043,"Ilha":14044,"forbered":14045,"1803":14046,"Ridge":14047,"forholdene":14048,"skadespelaren":14049,"utru":14050,"Rin":14051,"vinden":14052,"Stewart":14053,"brak":14054,"etning":14055,"erfaren":14056,"broren":14057,"Avis":14058,"iris":14059,"utga":14060,"Dac":14061,"onus":14062,"sentralt":14063,"Karlsson":14064,"bie":14065,"eid":14066,"bles":14067,"Heart":14068,"Kit":14069,"forsvann":14070,"Lawrence":14071,"Lady":14072,"overvin":14073,"zerbajd":14074,"Charlie":14075,"avhandling":14076,"osse":14077,"inneheld":14078,"avsked":14079,"Tidlig":14080,"situation":14081,"Varen":14082,"inta":14083,"varn":14084,"skrives":14085,"aktie":14086,"drede":14087,"intellekt":14088,"tific":14089,"diesel":14090,"Rain":14091,"Videre":14092,"homo":14093,"kyl":14094,"klassif":14095,"phis":14096,"foretog":14097,"skyldig":14098,"besokte":14099,"ortsvaxtart":14100,"Albanien":14101,"volleyball":14102,"Rhein":14103,"Whit":14104,"truleg":14105,"ningsomradet":14106,"stur":14107,"derved":14108,"umi":14109,"rab":14110,"melse":14111,"1806":14112,"stallningar":14113,"skarp":14114,"lagstift":14115,"hersker":14116,"owa":14117,"diskuss":14118,"gau":14119,"plater":14120,"owski":14121,"sukker":14122,"tillbring":14123,"Blekinge":14124,"forfat":14125,"dominerende":14126,"groddjursart":14127,"tril":14128,"Medal":14129,"kunnskap":14130,"Vancouver":14131,"olla":14132,"estan":14133,"Thy":14134,"Toronto":14135,"betrag":14136,"imet":14137,"lærte":14138,"framtradande":14139,"settes":14140,"tillhorigheten":14141,"sikten":14142,"Quito":14143,"Cuba":14144,"Ostergotland":14145,"hvide":14146,"wana":14147,"tax":14148,"kendes":14149,"PR":14150,"irs":14151,"halde":14152,"inspiration":14153,"zerbajdzjan":14154,"Thel":14155,"fangar":14156,"allmanhet":14157,"undi":14158,"There":14159,"1789":14160,"turis":14161,"Gardaneh":14162,"Lillehammer":14163,"Hordaland":14164,"handelen":14165,"Wester":14166,"overlevde":14167,"ariga":14168,"sparris":14169,"چش":14170,"ree":14171,"grænsen":14172,"aud":14173,"bede":14174,"Semi":14175,"Nasjonal":14176,"Coch":14177,"styrte":14178,"jernbanen":14179,"bønder":14180,"Prins":14181,"Hjalmar":14182,"dringar":14183,"benytter":14184,"meddel":14185,"Steen":14186,"Nyland":14187,"Orle":14188,"Clas":14189,"slappt":14190,"farten":14191,"helhet":14192,"returner":14193,"snarare":14194,"Bæ":14195,"Dip":14196,"rero":14197,"Coc":14198,"milj":14199,"samlinger":14200,"tankt":14201,"overgangen":14202,"sidene":14203,"ønne":14204,"gruppene":14205,"boliger":14206,"polisen":14207,"Transport":14208,"rejste":14209,"idens":14210,"fortsette":14211,"sallskap":14212,"Blues":14213,"rose":14214,"sexamen":14215,"egenskap":14216,"ern":14217,"tratt":14218,"korrespon":14219,"Test":14220,"bære":14221,"apne":14222,"tecknare":14223,"Gregor":14224,"Ral":14225,"Sok":14226,"hull":14227,"pafølgende":14228,"Brachy":14229,"æft":14230,"mert":14231,"Carlo":14232,"ultater":14233,"Tara":14234,"hest":14235,"minste":14236,"korset":14237,"produsen":14238,"sev":14239,"impor":14240,"Augustus":14241,"analyse":14242,"magister":14243,"utrustning":14244,"gry":14245,"sveits":14246,"terad":14247,"Elit":14248,"islav":14249,"hammar":14250,"høgaste":14251,"kari":14252,"oblig":14253,"privata":14254,"Bold":14255,"katalog":14256,"Murray":14257,"uger":14258,"leken":14259,"oppstod":14260,"cklenburg":14261,"Mei":14262,"Games":14263,"teri":14264,"pladser":14265,"Sv":14266,"installert":14267,"Jimmy":14268,"Asi":14269,"ckning":14270,"gemensamma":14271,"mom":14272,"artsrike":14273,"stell":14274,"tavlingar":14275,"huvudet":14276,"04":14277,"overfordes":14278,"Cep":14279,"Ety":14280,"Ich":14281,"kreds":14282,"Lincoln":14283,"Eduard":14284,"kravde":14285,"sovjetiska":14286,"hren":14287,"Gast":14288,"bjor":14289,"ydde":14290,"Konstantinopel":14291,"lysninger":14292,"Bren":14293,"amor":14294,"hima":14295,"computer":14296,"tidning":14297,"trupp":14298,"Bond":14299,"Bala":14300,"bostader":14301,"anny":14302,"krigstiden":14303,"aska":14304,"ич":14305,"rosvaxter":14306,"Gha":14307,"skru":14308,"Jonkopings":14309,"VIII":14310,"untu":14311,"Gerhard":14312,"miljarder":14313,"atu":14314,"itte":14315,"Marc":14316,"Fjell":14317,"beskytte":14318,"Øvre":14319,"rica":14320,"irsk":14321,"Karlskrona":14322,"visas":14323,"glaci":14324,"Robinson":14325,"چشمه":14326,"maling":14327,"blade":14328,"lung":14329,"hallit":14330,"Bid":14331,"arbeidde":14332,"Kvinn":14333,"Sas":14334,"statlig":14335,"itions":14336,"tifik":14337,"fortæller":14338,"hovudsakleg":14339,"Middelhavet":14340,"fett":14341,"Honor":14342,"Gera":14343,"hap":14344,"Tore":14345,"eksisterende":14346,"hunder":14347,"trol":14348,"svid":14349,"Cole":14350,"jade":14351,"veckan":14352,"bryst":14353,"Alaska":14354,"bele":14355,"startades":14356,"kled":14357,"arlige":14358,"strukturen":14359,"Musikk":14360,"myrtenvaxter":14361,"risiko":14362,"kopier":14363,"Kanal":14364,"come":14365,"torelvaxter":14366,"forbinder":14367,"almindelige":14368,"Klas":14369,"Jupiter":14370,"bug":14371,"stans":14372,"berger":14373,"georg":14374,"stigning":14375,"Dronning":14376,"omfang":14377,"gult":14378,"kompani":14379,"Sti":14380,"akut":14381,"Card":14382,"edy":14383,"oppgaver":14384,"helgen":14385,"foten":14386,"tegne":14387,"Thur":14388,"arg":14389,"frekvens":14390,"niveau":14391,"skabt":14392,"øne":14393,"AM":14394,"Sjo":14395,"Eugene":14396,"foljare":14397,"Via":14398,"ningsvis":14399,"Ling":14400,"bukt":14401,"elo":14402,"paren":14403,"appar":14404,"fost":14405,"skr":14406,"operation":14407,"halvgras":14408,"specifik":14409,"voll":14410,"Stam":14411,"grekisk":14412,"06":14413,"Cook":14414,"Mellem":14415,"Made":14416,"Pointe":14417,"pianist":14418,"utspelar":14419,"Xyl":14420,"melan":14421,"Herbert":14422,"Entertain":14423,"fløj":14424,"anmar":14425,"tors":14426,"fords":14427,"øverst":14428,"hovding":14429,"filmene":14430,"trapp":14431,"komponen":14432,"østen":14433,"naturliga":14434,"Inde":14435,"representerar":14436,"Oce":14437,"Fageln":14438,"tjock":14439,"hennar":14440,"Tog":14441,"otria":14442,"Donau":14443,"selskabet":14444,"hypp":14445,"asteroide":14446,"umu":14447,"drives":14448,"villkor":14449,"hle":14450,"utbrot":14451,"Cul":14452,"Leif":14453,"kolla":14454,"neur":14455,"Oxy":14456,"jian":14457,"Survey":14458,"forhindre":14459,"flen":14460,"ienne":14461,"Tes":14462,"main":14463,"1811":14464,"vardera":14465,"utenriks":14466,"tillverkade":14467,"utgaven":14468,"Darfor":14469,"forvaltnings":14470,"modsætning":14471,"grunnlaget":14472,"punk":14473,"Chia":14474,"hodes":14475,"Dead":14476,"oux":14477,"Hosp":14478,"Dasy":14479,"Tin":14480,"arligen":14481,"Ani":14482,"Ales":14483,"skning":14484,"Externa":14485,"nationalpark":14486,"pression":14487,"muslimer":14488,"Bush":14489,"cephala":14490,"Series":14491,"regne":14492,"troende":14493,"hoppspindlar":14494,"Birger":14495,"fabriken":14496,"Orleans":14497,"idion":14498,"berattelser":14499,"jning":14500,"pok":14501,"talent":14502,"hann":14503,"uru":14504,"Dagh":14505,"Microsoft":14506,"utu":14507,"Crypt":14508,"atti":14509,"tolkning":14510,"befolknings":14511,"vokalist":14512,"07":14513,"Ikke":14514,"namligen":14515,"brakte":14516,"ktions":14517,"bysant":14518,"lind":14519,"musikalske":14520,"Stadium":14521,"formod":14522,"Kok":14523,"ores":14524,"forven":14525,"syge":14526,"udtryk":14527,"utsmy":14528,"tabte":14529,"oti":14530,"underhall":14531,"storstad":14532,"Britt":14533,"cancer":14534,"delning":14535,"organer":14536,"studioalbumet":14537,"beseiret":14538,"anslut":14539,"tingslag":14540,"Sidan":14541,"tradisjonelt":14542,"trask":14543,"sop":14544,"variabel":14545,"Oskar":14546,"RT":14547,"skomite":14548,"belgiske":14549,"Sall":14550,"zal":14551,"utse":14552,"flottil":14553,"Uten":14554,"præget":14555,"ruin":14556,"Johansen":14557,"Jazz":14558,"straling":14559,"upe":14560,"Nikolaj":14561,"bereg":14562,"Svalbard":14563,"Golf":14564,"Tj":14565,"smak":14566,"utifran":14567,"Fylkesveg":14568,"tydligt":14569,"Nicholas":14570,"Nicolas":14571,"Arist":14572,"sanka":14573,"Demokrat":14574,"frivillig":14575,"evaku":14576,"gjord":14577,"Bourg":14578,"sykkel":14579,"drikke":14580,"Vari":14581,"Hanna":14582,"Doro":14583,"work":14584,"kongressen":14585,"opprøret":14586,"velle":14587,"sphaer":14588,"stere":14589,"akvar":14590,"Darwin":14591,"Chaet":14592,"millionar":14593,"harstammar":14594,"endelige":14595,"organismer":14596,"sikret":14597,"Astr":14598,"syra":14599,"efterhanden":14600,"insatser":14601,"spann":14602,"Get":14603,"problemet":14604,"beteckning":14605,"bladiga":14606,"Fan":14607,"delberg":14608,"Vand":14609,"admiral":14610,"Conne":14611,"Pue":14612,"gning":14613,"narings":14614,"Stol":14615,"zzo":14616,"ersatte":14617,"opptak":14618,"domme":14619,"Homer":14620,"imponer":14621,"hellig":14622,"internet":14623,"klubbar":14624,"Molde":14625,"Light":14626,"marke":14627,"indo":14628,"henrettet":14629,"spid":14630,"karbon":14631,"Svar":14632,"itas":14633,"kaldte":14634,"Wagner":14635,"kapellet":14636,"kombinert":14637,"mengder":14638,"Dir":14639,"tad":14640,"Haj":14641,"bevegelse":14642,"1805":14643,"sistens":14644,"tandspinnare":14645,"Hyl":14646,"uf":14647,"web":14648,"involvert":14649,"Karn":14650,"hederne":14651,"1793":14652,"ekonomisk":14653,"antatt":14654,"sate":14655,"koordin":14656,"Tallinn":14657,"illustrer":14658,"designer":14659,"monument":14660,"Kamen":14661,"Pea":14662,"utstilling":14663,"dah":14664,"iceps":14665,"Føl":14666,"Adrar":14667,"sot":14668,"vampar":14669,"deriblant":14670,"Katal":14671,"Anom":14672,"flertall":14673,"brid":14674,"yya":14675,"jarv":14676,"Bac":14677,"cera":14678,"Bonde":14679,"hild":14680,"leuc":14681,"grona":14682,"arskontrakt":14683,"gement":14684,"løjtnant":14685,"sjelden":14686,"producerade":14687,"113":14688,"Gota":14689,"tatort":14690,"itaine":14691,"innend":14692,"ffror":14693,"VG":14694,"iculata":14695,"Cow":14696,"Lepto":14697,"vinge":14698,"snyl":14699,"parlamentar":14700,"reaktion":14701,"Gala":14702,"icta":14703,"found":14704,"Tennes":14705,"akust":14706,"Republikken":14707,"fragorna":14708,"benytte":14709,"uppror":14710,"1802":14711,"lamnat":14712,"mult":14713,"ар":14714,"Barbara":14715,"Andrea":14716,"enskilda":14717,"kton":14718,"kopa":14719,"flack":14720,"Bryg":14721,"forretning":14722,"ninge":14723,"musk":14724,"kjempe":14725,"Ix":14726,"kommunalforbundet":14727,"roit":14728,"hier":14729,"belte":14730,"majoritet":14731,"Amazonas":14732,"(),":14733,"Allan":14734,"Ninten":14735,"førelse":14736,"iserade":14737,"Snor":14738,"mation":14739,"reda":14740,"positivt":14741,"Cetoni":14742,"sagor":14743,"ez":14744,"braken":14745,"grønn":14746,"sivile":14747,"Kand":14748,"mming":14749,"farts":14750,"institutet":14751,"Commun":14752,"Manuel":14753,"Tanz":14754,"First":14755,"Konda":14756,"alpus":14757,"skydds":14758,"Brig":14759,"nærmeste":14760,"aser":14761,"Damer":14762,"Nathan":14763,"valla":14764,"kolonier":14765,"naut":14766,"Sumat":14767,"urer":14768,"genomforde":14769,"Bare":14770,"nivaer":14771,"klockan":14772,"skaret":14773,"kommunens":14774,"Tasmanien":14775,"efternamn":14776,"Linux":14777,"Scap":14778,"hynchus":14779,"tades":14780,"konstat":14781,"Holmen":14782,"euro":14783,"diagn":14784,"okan":14785,"Valdemar":14786,"Occ":14787,"utmer":14788,"væg":14789,"Venedig":14790,"skatter":14791,"ammun":14792,"programledare":14793,"vintern":14794,"uensis":14795,"down":14796,"arier":14797,"distribu":14798,"væsen":14799,"varor":14800,"Linde":14801,"liggen":14802,"register":14803,"tecknade":14804,"Familien":14805,"Zen":14806,"trium":14807,"Riga":14808,"nettet":14809,"dighed":14810,"Glava":14811,"BI":14812,"Ow":14813,"brua":14814,"gravid":14815,"lighets":14816,"Henning":14817,"Middels":14818,"myrtenvaxtart":14819,"nedenfor":14820,"anlades":14821,"banker":14822,"hander":14823,"tilsynel":14824,"entlig":14825,"Marin":14826,"fabrikk":14827,"SD":14828,"ansvarig":14829,"vietnam":14830,"omrada":14831,"Cum":14832,"yar":14833,"forble":14834,"beregnet":14835,"teckningar":14836,"//":14837,"poster":14838,"view":14839,"bronsemedalje":14840,"Dannebrog":14841,"olet":14842,"blandet":14843,"fattet":14844,"hjalpa":14845,"Randers":14846,"runden":14847,"Iz":14848,"Sard":14849,"drum":14850,"Theod":14851,"jødisk":14852,"deltar":14853,"tornet":14854,"skontor":14855,"enke":14856,"oura":14857,"grave":14858,"kjør":14859,"ampton":14860,"Dagen":14861,"korrekt":14862,"enkle":14863,"smed":14864,"ол":14865,"vane":14866,"Bibliote":14867,"eleg":14868,"Arag":14869,"NG":14870,"skolans":14871,"Jamaica":14872,"Amerik":14873,"officielt":14874,"utlandska":14875,"1792":14876,"cula":14877,"varvid":14878,"fullførte":14879,"ique":14880,"Army":14881,"bragt":14882,"NATO":14883,"dast":14884,"Raymond":14885,"fungerte":14886,"segel":14887,"marinen":14888,"forstand":14889,"Canal":14890,"Kennedy":14891,"edonien":14892,"billede":14893,"kraver":14894,"Kosovo":14895,"Home":14896,"lemmet":14897,"genombrott":14898,"Kazakstan":14899,"Kamer":14900,"sarskild":14901,"totala":14902,"Svea":14903,"ako":14904,"SI":14905,"teleg":14906,"veit":14907,"Campbell":14908,"malvavaxter":14909,"fodda":14910,"transporter":14911,"alvorlig":14912,"tsjek":14913,"anor":14914,"Kins":14915,"uppdraget":14916,"kommunest":14917,"elleve":14918,"Chel":14919,"behovet":14920,"Vastantarktis":14921,"rast":14922,"mek":14923,"flick":14924,"lines":14925,"spark":14926,"herefter":14927,"dræbt":14928,"wo":14929,"privileg":14930,"Valencia":14931,"rykte":14932,"botn":14933,"Høyre":14934,"Entertainment":14935,"Asc":14936,"Oak":14937,"ularia":14938,"partis":14939,"individ":14940,"Hessen":14941,"Ok":14942,"Zurich":14943,"Phy":14944,"Turneringen":14945,"symboliser":14946,"Oct":14947,"rav":14948,"garia":14949,"1775":14950,"hyper":14951,"yrami":14952,"Rute":14953,"hattan":14954,"Klubb":14955,"Grunn":14956,"Gau":14957,"propag":14958,"lettere":14959,"arra":14960,"dringen":14961,"glass":14962,"producerades":14963,"Jugoslavien":14964,"anslot":14965,"invand":14966,"butikker":14967,"kvalifik":14968,"sorte":14969,"Linda":14970,"selia":14971,"svetenskap":14972,"Bowl":14973,"Amm":14974,"Kansas":14975,"reager":14976,"trollslandeart":14977,"svidknott":14978,"innendørs":14979,"Gramm":14980,"pren":14981,"Aquitaine":14982,"Orn":14983,"mossdjursart":14984,"Evans":14985,"amfi":14986,"Konge":14987,"endet":14988,"kult":14989,"bød":14990,"slas":14991,"bulgariska":14992,"Psychotria":14993,"ikar":14994,"krafter":14995,"brødrene":14996,"aventyr":14997,"viter":14998,"kjøret":14999,"fyrst":15000,"Tong":15001,"instruktør":15002,"beromda":15003,"hnum":15004,"langtunge":15005,"samfundet":15006,"orange":15007,"atidens":15008,"ifer":15009,"opptred":15010,"Bergs":15011,"sangaren":15012,"iseret":15013,"Bulbophyllum":15014,"elege":15015,"inkluderar":15016,"opphavleg":15017,"wit":15018,"opez":15019,"Rune":15020,"Television":15021,"absolut":15022,"prosessen":15023,"egentliga":15024,"otrop":15025,"langtungebin":15026,"Data":15027,"Swe":15028,"Acant":15029,"kapacitet":15030,"resulterade":15031,"Keith":15032,"rekt":15033,"jae":15034,"book":15035,"Dagbladet":15036,"Kala":15037,"forkortet":15038,"Kash":15039,"cki":15040,"1804":15041,"begravning":15042,"departement":15043,"Sip":15044,"Hodet":15045,"Leeds":15046,"øtt":15047,"levet":15048,"akte":15049,"Ofta":15050,"allige":15051,"Middelsstore":15052,"Cong":15053,"shi":15054,"Pampa":15055,"ikum":15056,"marknad":15057,"torelvaxtart":15058,"Olympiska":15059,"Prout":15060,"Svensson":15061,"celle":15062,"lyktes":15063,"socialist":15064,"fersk":15065,"intens":15066,"leia":15067,"harde":15068,"vecka":15069,"Diam":15070,"Brann":15071,"klokken":15072,"ocarpa":15073,"krat":15074,"ettix":15075,"oppstar":15076,"skipa":15077,"Haiti":15078,"Dipl":15079,"trader":15080,"Halsingland":15081,"Jorden":15082,"stina":15083,"mors":15084,"svømmer":15085,"tenu":15086,"renes":15087,"tanken":15088,"pilot":15089,"big":15090,"spesielle":15091,"umin":15092,"valja":15093,"Daghi":15094,"republikan":15095,"HMS":15096,"Jav":15097,"Mecklenburg":15098,"Ljus":15099,"riva":15100,"tajn":15101,"Macro":15102,"prøvde":15103,"talende":15104,"anstalldes":15105,"stjarnan":15106,"utøvere":15107,"Sna":15108,"brots":15109,"imo":15110,"hertu":15111,"Vincent":15112,"Hongkong":15113,"nal":15114,"ен":15115,"omia":15116,"digital":15117,"beskæft":15118,"nadd":15119,"effekter":15120,"jr":15121,"danse":15122,"Vind":15123,"besluttede":15124,"provinser":15125,"sjakk":15126,"Politisk":15127,"tilby":15128,"borjat":15129,"Guadal":15130,"saknas":15131,"øyne":15132,"Ellen":15133,"vinterspelen":15134,"Arendal":15135,"utov":15136,"opr":15137,"spissen":15138,"iness":15139,"utvalg":15140,"Edin":15141,"01":15142,"avdøde":15143,"bredere":15144,"esti":15145,"opet":15146,"daler":15147,"indelning":15148,"Who":15149,"XII":15150,"wil":15151,"opti":15152,"rettigheter":15153,"mojligheter":15154,"rasjon":15155,"araba":15156,"maraton":15157,"TC":15158,"avgjordes":15159,"samtlige":15160,"Resultater":15161,"Etymologi":15162,"avsl":15163,"ongs":15164,
[...]
