{"version":"1.0","truncation":null,"padding":null,"added_tokens":[{"id":0,"special":true,"content":"<unk>","single_word":false,"lstrip":false,"rstrip":false,"normalized":false}],"normalizer":{"type":"Sequence","normalizers":[{"type":"NFD"},{"type":"StripAccents"}]},"pre_tokenizer":{"type":"Whitespace"},"post_processor":null,"decoder":{"type":"Metaspace","replacement":"▁","str_rep":"▁","add_prefix_space":true},"model":{"type":"BPE","dropout":null,"unk_token":null,"continuing_subword_prefix":null,"end_of_word_suffix":null,"fuse_unk":false,"vocab":{"<unk>":0,"!":1,"\"":2,"#":3,"$":4,"%":5,"&":6,"'":7,"(":8,")":9,"*":10,"+":11,",":12,"-":13,".":14,"/":15,"0":16,"1":17,"2":18,"3":19,"4":20,"5":21,"6":22,"7":23,"8":24,"9":25,":":26,";":27,"=":28,"?":29,"@":30,"A":31,"B":32,"C":33,"D":34,"E":35,"F":36,"G":37,"H":38,"I":39,"J":40,"K":41,"L":42,"M":43,"N":44,"O":45,"P":46,"Q":47,"R":48,"S":49,"T":50,"U":51,"V":52,"W":53,"X":54,"Y":55,"Z":56,"[":57,"\\":58,"]":59,"^":60,"_":61,"`":62,"a":63,"b":64,"c":65,"d":66,"e":67,"f":68,"g":69,"h":70,"i":71,"j":72,"k":73,"l":74,"m":75,"n":76,"o":77,"p":78,"q":79,"r":80,"s":81,"t":82,"u":83,"v":84,"w":85,"x":86,"y":87,"z":88,"{":89,"|":90,"}":91,"~":92,"¡":93,"£":94,"§":95,"¨":96,"«":97,"­":98,"®":99,"°":100,"±":101,"²":102,"³":103,"´":104,"µ":105,"·":106,"¹":107,"º":108,"»":109,"¼":110,"½":111,"¾":112,"Æ":113,"Ð":114,"×":115,"Ø":116,"Þ":117,"ß":118,"æ":119,"ð":120,"÷":121,"ø":122,"þ":123,"Đ":124,"đ":125,"Ħ":126,"ħ":127,"ı":128,"Ł":129,"ł":130,"ŋ":131,"Œ":132,"œ":133,"Ə":134,"ƒ":135,"ɐ":136,"ɑ":137,"ɒ":138,"ɓ":139,"ɔ":140,"ɕ":141,"ə":142,"ɛ":143,"ɡ":144,"ɣ":145,"ɨ":146,"ɪ":147,"ɲ":148,"ɽ":149,"ɾ":150,"ʁ":151,"ʃ":152,"ʉ":153,"ʊ":154,"ʒ":155,"ʔ":156,"ʰ":157,"ʲ":158,"ʹ":159,"ʻ":160,"ʼ":161,"ʾ":162,"ʿ":163,"ˈ":164,"ˌ":165,"ː":166,"΄":167,"Α":168,"Β":169,"Γ":170,"Δ":171,"Ε":172,"Ζ":173,"Η":174,"Θ":175,"Ι":176,"Κ":177,"Λ":178,"Μ":179,"Ν":180,"Ξ":181,"Ο":182,"Π":183,"Ρ":184,"Σ":185,"Τ":186,"Υ":187,"Φ":188,"Χ":189,"Ψ":190,"Ω":191,"α":192,"β":193,"γ":194,"δ":195,"ε":196,"ζ":197,"η":198,"θ":199,"ι":200,"κ":201,"λ":202,"μ":203,"ν":204,"ξ":205,"ο":206,"π":207,"ρ":208,"ς":209,"σ":210,"τ":211,"υ":212,"φ":213,"χ":214,"ψ":215,"ω":216,"І":217,"Ј":218,"А":219,"Б":220,"В":221,"Г":222,"Д":223,"Е":224,"Ж":225,"З":226,"И":227,"К":228,"Л":229,"М":230,"Н":231,"О":232,"П":233,"Р":234,"С":235,"Т":236,"У":237,"Ф":238,"Х":239,"Ц":240,"Ч":241,"Ш":242,"Щ":243,"Э":244,"Ю":245,"Я":246,"а":247,"б":248,"в":249,"г":250,"д":251,"е":252,"ж":253,"з":254,"и":255,"к":256,"л":257,"м":258,"н":259,"о":260,"п":261,"р":262,"с":263,"т":264,"у":265,"ф":266,"х":267,"ц":268,"ч":269,"ш":270,"щ":271,"ъ":272,"ы":273,"ь":274,"э":275,"ю":276,"я":277,"ђ":278,"є":279,"і":280,"ј":281,"љ":282,"њ":283,"ћ":284,"қ":285,"ү":286,"ә":287,"ө":288,"Ա":289,"Հ":290,"Մ":291,"Ս":292,"ա":293,"բ":294,"գ":295,"դ":296,"ե":297,"զ":298,"թ":299,"ի":300,"լ":301,"կ":302,"ղ":303,"մ":304,"յ":305,"ն":306,"ո":307,"ս":308,"վ":309,"տ":310,"ր":311,"ւ":312,"א":313,"ב":314,"ג":315,"ד":316,"ה":317,"ו":318,"ז":319,"ח":320,"ט":321,"י":322,"כ":323,"ל":324,"ם":325,"מ":326,"ן":327,"נ":328,"ס":329,"ע":330,"ף":331,"פ":332,"צ":333,"ק":334,"ר":335,"ש":336,"ת":337,"ء":338,"ا":339,"ب":340,"ة":341,"ت":342,"ث":343,"ج":344,"ح":345,"خ":346,"د":347,"ذ":348,"ر":349,"ز":350,"س":351,"ش":352,"ص":353,"ض":354,"ط":355,"ظ":356,"ع":357,"غ":358,"ف":359,"ق":360,"ك":361,"ل":362,"م":363,"ن":364,"ه":365,"و":366,"ى":367,"ي":368,"پ":369,"چ":370,"ک":371,"گ":372,"ھ":373,"ہ":374,"ۇ":375,"ی":376,"ە":377,"ܐ":378,"ܒ":379,"ܕ":380,"ܘ":381,"ܝ":382,"ܠ":383,"ܡ":384,"ܢ":385,"ܪ":386,"ܬ":387,"अ":388,"क":389,"ख":390,"ग":391,"च":392,"ज":393,"ट":394,"ड":395,"ण":396,"त":397,"द":398,"ध":399,"न":400,"प":401,"ब":402,"भ":403,"म":404,"य":405,"र":406,"ल":407,"व":408,"श":409,"ष":410,"स":411,"ह":412,"॥":413,"ক":414,"জ":415,"ত":416,"দ":417,"ন":418,"প":419,"ব":420,"ম":421,"য":422,"র":423,"ল":424,"শ":425,"স":426,"হ":427,"ਅ":428,"ਆ":429,"ਇ":430,"ਈ":431,"ਉ":432,"ਐ":433,"ਕ":434,"ਖ":435,"ਗ":436,"ਚ":437,"ਜ":438,"ਣ":439,"ਤ":440,"ਥ":441,"ਦ":442,"ਧ":443,"ਨ":444,"ਪ":445,"ਬ":446,"ਭ":447,"ਮ":448,"ਰ":449,"ਲ":450,"ਵ":451,"ਸ":452,"ਹ":453,"લ":454,"க":455,"ச":456,"ட":457,"த":458,"ன":459,"ப":460,"ம":461,"ர":462,"ல":463,"வ":464,"ర":465,"ల":466,"ರ":467,"ಲ":468,"ก":469,"ค":470,"ง":471,"จ":472,"ช":473,"ด":474,"ต":475,"ท":476,"ธ":477,"น":478,"บ":479,"ป":480,"พ":481,"ม":482,"ย":483,"ร":484,"ล":485,"ว":486,"ส":487,"ห":488,"อ":489,"ะ":490,"า":491,"ำ":492,"เ":493,"แ":494,"ไ":495,"་":496,"།":497,"ཀ":498,"ཁ":499,"ག":500,"ང":501,"ཅ":502,"ཆ":503,"ཉ":504,"ཐ":505,"ད":506,"ན":507,"པ":508,"ཕ":509,"བ":510,"མ":511,"ཚ":512,"ཞ":513,"འ":514,"ཡ":515,"ར":516,"ལ":517,"ཤ":518,"ས":519,"ა":520,"ბ":521,"გ":522,"დ":523,"ე":524,"ვ":525,"თ":526,"ი":527,"კ":528,"ლ":529,"მ":530,"ნ":531,"ო":532,"რ":533,"ს":534,"ტ":535,"უ":536,"ხ":537,"ᄀ":538,"ᄂ":539,"ᄃ":540,"ᄅ":541,"ᄆ":542,"ᄇ":543,"ᄉ":544,"ᄋ":545,"ᄌ":546,"ᄎ":547,"ᄐ":548,"ᄑ":549,"ᄒ":550,"ᅡ":551,"ᅢ":552,"ᅥ":553,"ᅦ":554,"ᅧ":555,"ᅩ":556,"ᅪ":557,"ᅭ":558,"ᅮ":559,"ᅯ":560,"ᅲ":561,"ᅳ":562,"ᅴ":563,"ᅵ":564,"ᆨ":565,"ᆫ":566,"ᆯ":567,"ᆷ":568,"ᆸ":569,"ᆼ":570,"ក":571,"ត":572,"ទ":573,"ន":574,"ប":575,"ព":576,"ម":577,"រ":578,"ស":579,"​":580,"‌":581,"‎":582,"‏":583,"‐":584,"‑":585,"–":586,"—":587,"‘":588,"’":589,"“":590,"”":591,"„":592,"†":593,"•":594,"…":595,"‰":596,"′":597,"″":598,"‹":599,"›":600,"⁄":601,"₁":602,"€":603,"℃":604,"ℓ":605,"⅍":606,"⅓":607,"⅔":608,"↑":609,"→":610,"∂":611,"∇":612,"∈":613,"−":614,"√":615,"∞":616,"∧":617,"≈":618,"≤":619,"≥":620,"⋅":621,"─":622,"│":623,"├":624,"●":625,"♠":626,"♣":627,"♥":628,"♦":629,"♭":630,"♯":631,"⟨":632,"⟩":633,"、":634,"い":635,"う":636,"か":637,"き":638,"し":639,"た":640,"と":641,"の":642,"り":643,"ん":644,"ア":645,"イ":646,"ウ":647,"カ":648,"キ":649,"ク":650,"コ":651,"サ":652,"シ":653,"ス":654,"タ":655,"ッ":656,"テ":657,"ト":658,"ハ":659,"ヒ":660,"フ":661,"ホ":662,"マ":663,"ュ":664,"ラ":665,"リ":666,"ル":667,"ロ":668,"ン":669,"・":670,"ー":671,"一":672,"丁":673,"七":674,"万":675,"三":676,"上":677,"下":678,"不":679,"世":680,"东":681,"中":682,"丰":683,"临":684,"丹":685,"主":686,"义":687,"之":688,"乐":689,"九":690,"乡":691,"书":692,"事":693,"二":694,"云":695,"五":696,"井":697,"京":698,"人":699,"仁":700,"仙":701,"代":702,"会":703,"伯":704,"佛":705,"作":706,"保":707,"信":708,"元":709,"光":710,"克":711,"全":712,"八":713,"公":714,"六":715,"共":716,"关":717,"兴":718,"军":719,"刘":720,"利":721,"前":722,"劉":723,"力":724,"化":725,"北":726,"区":727,"十":728,"千":729,"华":730,"南":731,"博":732,"原":733,"县":734,"口":735,"古":736,"台":737,"史":738,"司":739,"合":740,"吉":741,"同":742,"名":743,"后":744,"君":745,"吳":746,"吴":747,"周":748,"和":749,"哈":750,"唐":751,"嘉":752,"四":753,"园":754,"国":755,"國":756,"園":757,"土":758,"地":759,"场":760,"址":761,"城":762,"堂":763,"塔":764,"墓":765,"士":766,"夏":767,"多":768,"大":769,"天":770,"太":771,"夫":772,"女":773,"子":774,"字":775,"孝":776,"学":777,"孫":778,"學":779,"宁":780,"安":781,"宋":782,"宗":783,"官":784,"定":785,"宝":786,"宮":787,"家":788,"富":789,"寺":790,"小":791,"尔":792,"居":793,"山":794,"岩":795,"岭":796,"岳":797,"峰":798,"島":799,"川":800,"州":801,"工":802,"巴":803,"市":804,"布":805,"帝":806,"平":807,"年":808,"广":809,"庄":810,"庆":811,"庙":812,"府":813,"康":814,"廣":815,"建":816,"式":817,"张":818,"張":819,"徐":820,"德":821,"心":822,"志":823,"忠":824,"成":825,"战":826,"戦":827,"戰":828,"所":829,"拉":830,"摩":831,"政":832,"故":833,"教":834,"文":835,"斯":836,"新":837,"方":838,"族":839,"旗":840,"日":841,"旧":842,"昌":843,"明":844,"星":845,"春":846,"昭":847,"時":848,"普":849,"景":850,"智":851,"曲":852,"書":853,"曹":854,"會":855,"月":856,"有":857,"朝":858,"木":859,"本":860,"朱":861,"李":862,"村":863,"杨":864,"東":865,"松":866,"林":867,"株":868,"格":869,"桥":870,"梁":871,"梅":872,"楼":873,"正":874,"武":875,"氏":876,"民":877,"水":878,"永":879,"汉":880,"江":881,"沙":882,"河":883,"治":884,"泉":885,"法":886,"波":887,"泰":888,"洞":889,"津":890,"洪":891,"浦":892,"海":893,"清":894,"港":895,"湖":896,"湾":897,"源":898,"溪":899,"漢":900,"物":901,"特":902,"玄":903,"玉":904,"王":905,"理":906,"生":907,"田":908,"电":909,"白":910,"百":911,"皇":912,"県":913,"真":914,"石":915,"社":916,"祖":917,"神":918,"福":919,"秀":920,"秋":921,"科":922,"秦":923,"空":924,"立":925,"章":926,"經":927,"红":928,"罗":929,"羅":930,"美":931,"群":932,"義":933,"老":934,"聖":935,"胡":936,"自":937,"航":938,"般":939,"良":940,"花":941,"苏":942,"若":943,"英":944,"茶":945,"華":946,"藏":947,"藤":948,"行":949,"街":950,"西":951,"記":952,"話":953,"語":954,"論":955,"话":956,"赵":957,"趙":958,"路":959,"軍":960,"通":961,"道":962,"遗":963,"郎":964,"部":965,"郭":966,"都":967,"里":968,"重":969,"野":970,"金":971,"铁":972,"镇":973,"長":974,"长":975,"門":976,"门":977,"阳":978,"阿":979,"陈":980,"院":981,"陳":982,"陵":983,"陽":984,"隆":985,"集":986,"青":987,"韓":988,"音":989,"香":990,"馬":991,"马":992,"高":993,"魏":994,"黃":995,"黄":996,"龍":997,"龙":998,"﻿":999,"，":1000,"er":1001,"en":1002,"et":1003,"an":1004,"ar":1005,"st":1006,"in":1007,"or":1008,"og":1009,"el":1010,"om":1011,"sk":1012,"il":1013,"le":1014,"re":1015,"av":1016,"al":1017,"on":1018,"de":1019,"at":1020,"ed":1021,"for":1022,"te":1023,"ra":1024,"un":1025,"li":1026,"ing":1027,"til":1028,"som":1029,"den":1030,"ik":1031,"pa":1032,"se":1033,"ter":1034,"var":1035,"am":1036,"der":1037,"det":1038,"is":1039,"ver":1040,"med":1041,"ol":1042,"ne":1043,"it":1044,"19":1045,"ut":1046,"and":1047,"ør":1048,"ig":1049,"as":1050,"ene":1051,"ble":1052,"ag":1053,"ke":1054,"pp":1055,"id":1056,"ste":1057,"ske":1058,"men":1059,"ler":1060,"sen":1061,"kt":1062,"ge":1063,"sp":1064,"fra":1065,"ur":1066,"han":1067,"be":1068,"20":1069,"jon":1070,"ad":1071,"ri":1072,"ro":1073,"us":1074,"si":1075,"ve":1076,"del":1077,"ot":1078,"har":1079,"inn":1080,"sa":1081,"ru":1082,"opp":1083,"ok":1084,"ang":1085,"lig":1086,"ul":1087,"ere":1088,"ap":1089,"gj":1090,"ist":1091,"me":1092,"by":1093,"sl":1094,"ning":1095,"ær":1096,"før":1097,"ikk":1098,"kom":1099,"ak":1100,"ann":1101,"mer":1102,"ved":1103,"ell":1104,"ant":1105,"sam":1106,"ett":1107,"ir":1108,"att":1109,"ser":1110,"je":1111,"all":1112,"ord":1113,"over":1114,"etter":1115,"ber":1116,"øy":1117,"isk":1118,"Han":1119,"dt":1120,"es":1121,"kon":1122,"art":1123,"ia":1124,"Det":1125,"kk":1126,"gen":1127,"land":1128,"he":1129,"iske":1130,"00":1131,"um":1132,"18":1133,"ent":1134,"under":1135,"enn":1136,"per":1137,"fø":1138,"unn":1139,"tid":1140,"gr":1141,"asjon":1142,"ster":1143,"lag":1144,"os":1145,"ein":1146,"200":1147,"kj":1148,"St":1149,"seg":1150,"adde":1151,"br":1152,"Den":1153,"of":1154,"kr":1155,"pl":1156,"ogsa":1157,"bli":1158,"tt":1159,"iv":1160,"itt":1161,"eller":1162,"ma":1163,"yr":1164,"ende":1165,"ch":1166,"ert":1167,"ort":1168,"ger":1169,"kl":1170,"sin":1171,"kan":1172,"hadde":1173,"da":1174,"ft":1175,"bru":1176,"ens":1177,"mot":1178,"man":1179,"yn":1180,"son":1181,"fe":1182,"tr":1183,"pro":1184,"skap":1185,"ly":1186,"met":1187,"ien":1188,"201":1189,"eng":1190,"het":1191,"eg":1192,"bl":1193,"ho":1194,"ny":1195,"byg":1196,"di":1197,"leg":1198,"ks":1199,"ikke":1200,"ei":1201,"au":1202,"tre":1203,"vart":1204,"spil":1205,"no":1206,"mar":1207,"ingen":1208,"alt":1209,"to":1210,"andre":1211,"ane":1212,"net":1213,"sel":1214,"rik":1215,"ker":1216,"hol":1217,"mun":1218,"dre":1219,"ie":1220,"vis":1221,"ic":1222,"min":1223,"ran":1224,"ion":1225,"pre":1226,"sj":1227,"ba":1228,").":1229,"ige":1230,"199":1231,"op":1232,"sø":1233,"od":1234,"are":1235,"Nor":1236,"nes":1237,"stor":1238,"ab":1239,"ellom":1240,"første":1241,"ven":1242,"An":1243,"gar":1244,"sy":1245,"elt":1246,"vik":1247,"De":1248,"dø":1249,"ale":1250,"la":1251,"ek":1252,"dag":1253,"sten":1254,"nor":1255,"im":1256,"lan":1257,"vi":1258,"mellom":1259,"tter":1260,"ss":1261,"ust":1262,"vil":1263,"ling":1264,"fin":1265,"lige":1266,"ha":1267,"rett":1268,"fj":1269,"else":1270,"reg":1271,"ty":1272,"mat":1273,"198":1274,"val":1275,"),":1276,"ud":1277,"ov":1278,"na":1279,"kun":1280,"ass":1281,"ten":1282,"kommun":1283,"født":1284,"lere":1285,"tok":1286,"hun":1287,"po":1288,"ket":1289,"grunn":1290,"ære":1291,"ele":1292,"ast":1293,"gang":1294,"197":1295,"ti":1296,"arbe":1297,"Ar":1298,"ner":1299,"pr":1300,"fre":1301,"mal":1302,"fikk":1303,"vor":1304,"mber":1305,"bet":1306,"lø":1307,"yl":1308,"elig":1309,"In":1310,"get":1311,"En":1312,"\",":1313,"ier":1314,"ken":1315,"fly":1316,"196":1317,"rad":1318,"17":1319,"dei":1320,"Al":1321,"øn":1322,"ob":1323,"org":1324,"hen":1325,"stat":1326,"eit":1327,"vin":1328,"siden":1329,"nord":1330,"jer":1331,"elle":1332,"iser":1333,"fol":1334,"hav":1335,"ært":1336,"mann":1337,"stil":1338,"ire":1339,"ret":1340,"hans":1341,"isjon":1342,"par":1343,"rev":1344,"Un":1345,"ug":1346,"sta":1347,"ans":1348,"hand":1349,"nav":1350,"far":1351,"mp":1352,"ennom":1353,"itet":1354,"akt":1355,"alen":1356,"\".":1357,"sammen":1358,"ub":1359,"amp":1360,"fer":1361,"ansk":1362,"rek":1363,"ned":1364,"sjon":1365,"io":1366,"du":1367,"lang":1368,"tur":1369,"mil":1370,"ry":1371,"15":1372,"sør":1373,"omra":1374,"ck":1375,"fil":1376,"her":1377,"alle":1378,"anske":1379,"rom":1380,"16":1381,"Pa":1382,"tet":1383,"dom":1384,"bar":1385,"set":1386,"beg":1387,"Norge":1388,"sted":1389,"sv":1390,"gjennom":1391,"ull":1392,"istor":1393,"run":1394,"uli":1395,"iet":1396,"gru":1397,"dette":1398,"ban":1399,"annet":1400,"194":1401,"tall":1402,"stør":1403,"mo":1404,"bre":1405,"slag":1406,"ski":1407,"skri":1408,"Jo":1409,"tal":1410,"ningen":1411,"est":1412,"vest":1413,"høy":1414,"ga":1415,"flere":1416,"For":1417,"195":1418,"ind":1419,"føl":1420,"kar":1421,"frem":1422,"ater":1423,"skj":1424,"denne":1425,"elsen":1426,"end":1427,"Etter":1428,"str":1429,"hvor":1430,"ka":1431,"dig":1432,"olog":1433,"bil":1434,"10":1435,"blir":1436,"mus":1437,"iver":1438,"lit":1439,"lik":1440,"ron":1441,"blant":1442,"lem":1443,"pet":1444,"form":1445,"amil":1446,"slut":1447,"sitt":1448,"vert":1449,"Ch":1450,"Mar":1451,"meter":1452,"ogra":1453,"fa":1454,"ds":1455,"tidlig":1456,"dem":1457,"stad":1458,"uten":1459,"styr":1460,"vel":1461,"va":1462,"bum":1463,"let":1464,"sent":1465,"mange":1466,"ben":1467,"jen":1468,"ham":1469,"sti":1470,"ine":1471,"amer":1472,"oll":1473,"fl":1474,"ball":1475,"kjent":1476,"ta":1477,"inter":1478,"part":1479,"tallet":1480,"ksjon":1481,"off":1482,"byen":1483,"The":1484,"ina":1485,"pe":1486,"dene":1487,"hus":1488,"senter":1489,"».":1490,"store":1491,"gjer":1492,"mid":1493,"ong":1494,"bak":1495,"km":1496,"van":1497,"kommune":1498,"ings":1499,"des":1500,"Ber":1501,"193":1502,"Hun":1503,"grupp":1504,"nasjon":1505,"norsk":1506,"stem":1507,"skul":1508,"verden":1509,"res":1510,"slo":1511,"plass":1512,"atter":1513,"hoved":1514,"atte":1515,"fram":1516,"und":1517,"fle":1518,"skapet":1519,"Sk":1520,"gi":1521,"ard":1522,"spiller":1523,"Le":1524,"død":1525,"inger":1526,"stu":1527,"fort":1528,"famil":1529,"star":1530,"ligger":1531,"my":1532,"ay":1533,"ue":1534,"atur":1535,"blitt":1536,"Som":1537,"12":1538,"arbei":1539,"kte":1540,"Dette":1541,"nær":1542,"14":1543,"kes":1544,"tte":1545,"krig":1546,"isse":1547,"US":1548,"ce":1549,"mel":1550,"øm":1551,"sine":1552,"Ne":1553,"hal":1554,"medlem":1555,"fot":1556,"ate":1557,"sjø":1558,"kor":1559,"landet":1560,"kra":1561,"sle":1562,"ister":1563,"øst":1564,"tek":1565,"album":1566,"være":1567,"legg":1568,"erte":1569,"mark":1570,"000":1571,"Re":1572,"bo":1573,"bu":1574,"Nord":1575,"13":1576,"orden":1577,"amerik":1578,"histor":1579,"OL":1580,"elen":1581,"gje":1582,"kir":1583,"tidligere":1584,"ole":1585,"ment":1586,"brit":1587,"Ro":1588,"selv":1589,"ttet":1590,"satt":1591,"gikk":1592,"gre":1593,"rig":1594,"kunne":1595,"kje":1596,"jø":1597,"lagt":1598,"sep":1599,"svar":1600,"senere":1601,"vært":1602,"repre":1603,"tro":1604,"rundt":1605,"polit":1606,"syn":1607,"Fran":1608,"mest":1609,"ninger":1610,"like":1611,"fri":1612,"tra":1613,"kur":1614,"spe":1615,"skrev":1616,"hel":1617,"aug":1618,"hø":1619,"tak":1620,"jan":1621,"laget":1622,"vant":1623,"begyn":1624,"utvik":1625,"uar":1626,"mens":1627,"bygg":1628,"ow":1629,"noen":1630,"utg":1631,"verk":1632,"skulle":1633,"ca":1634,"vok":1635,"arbeid":1636,"inner":1637,"skal":1638,"bade":1639,"gam":1640,"mu":1641,"fyl":1642,"Ut":1643,"USA":1644,"forb":1645,"vir":1646,"vet":1647,"dri":1648,"len":1649,"dere":1650,"dra":1651,"samme":1652,"person":1653,"fjell":1654,"sn":1655,"»,":1656,"sett":1657,"ton":1658,"ivers":1659,"lin":1660,"ofte":1661,"red":1662,"berg":1663,"192":1664,"sol":1665,"uni":1666,"noe":1667,"ande":1668,"valg":1669,"\")":1670,"ida":1671,"tig":1672,"fatt":1673,"dr":1674,"sak":1675,"bok":1676,"ført":1677,"tatt":1678,"rak":1679,"organ":1680,"sker":1681,"inga":1682,"Ma":1683,"kv":1684,"okt":1685,"Fra":1686,"ff":1687,"vann":1688,"hj":1689,"bare":1690,"plan":1691,"tar":1692,"januar":1693,"II":1694,"inne":1695,"ite":1696,"aret":1697,"pt":1698,"kraft":1699,"Oslo":1700,"ike":1701,"Ho":1702,"Sp":1703,"norske":1704,"lu":1705,"orde":1706,"skil":1707,"nye":1708,"les":1709,"bake":1710,"bruk":1711,"dal":1712,"ark":1713,"perio":1714,"sisk":1715,"navn":1716,"pu":1717,"ond":1718,"musikk":1719,"lands":1720,"ung":1721,"eter":1722,"kket":1723,"kker":1724,"kel":1725,"sje":1726,"pen":1727,"ja":1728,"stre":1729,"bas":1730,"tilbake":1731,"Mo":1732,"produ":1733,"anger":1734,"uro":1735,"innen":1736,"asjonen":1737,"mø":1738,"fire":1739,"ril":1740,"Da":1741,"øya":1742,"gren":1743,"nar":1744,"plas":1745,"sert":1746,"iker":1747,"hold":1748,"spel":1749,"folk":1750,"start":1751,"Sam":1752,"fran":1753,"delse":1754,"kul":1755,"juni":1756,"sc":1757,"funn":1758,"vat":1759,"rat":1760,"gjorde":1761,"siste":1762,"slik":1763,"ko":1764,"11":1765,"lege":1766,"30":1767,"deltok":1768,"mester":1769,"august":1770,"ktet":1771,"kten":1772,"stru":1773,"Stor":1774,"mai":1775,"mars":1776,"klub":1777,"nok":1778,"ian":1779,"største":1780,"the":1781,"Be":1782,"190":1783,"els":1784,"representer":1785,"Co":1786,"fem":1787,"ligg":1788,"vn":1789,"Man":1790,"ober":1791,"Ty":1792,"mon":1793,"stand":1794,"omradet":1795,"kamp":1796,"disse":1797,"Her":1798,"ska":1799,"veg":1800,"(\"":1801,"sland":1802,"menn":1803,"so":1804,"førte":1805,"su":1806,"nings":1807,"ill":1808,"stø":1809,"delt":1810,"bor":1811,"ide":1812,"eder":1813,"kjø":1814,"lok":1815,"oppr":1816,"By":1817,"hør":1818,"skole":1819,"Kar":1820,"sær":1821,"sty":1822,"seson":1823,"stra":1824,"Sør":1825,"lv":1826,"familien":1827,"try":1828,"nytt":1829,"søn":1830,"juli":1831,"arr":1832,"mor":1833,"Th":1834,"vit":1835,"fi":1836,"navnet":1837,"engel":1838,"fotball":1839,"tember":1840,"yd":1841,"eld":1842,"50":1843,"publi":1844,"september":1845,"ou":1846,"rø":1847,"olen":1848,"bur":1849,"hn":1850,"spesi":1851,"go":1852,"fatter":1853,"ive":1854,"tor":1855,"siske":1856,"ation":1857,"em":1858,"kunst":1859,"ikkje":1860,"ighet":1861,"tillegg":1862,"oktober":1863,"april":1864,"ftet":1865,"lo":1866,"Or":1867,"Ge":1868,"erne":1869,"aten":1870,"ville":1871,"arene":1872,"bruar":1873,"sky":1874,"stein":1875,"februar":1876,"ara":1877,"gjen":1878,"dese":1879,"nam":1880,"kalt":1881,"egen":1882,"desember":1883,"igjen":1884,"gav":1885,"jem":1886,"kke":1887,"sik":1888,"konkur":1889,"rekke":1890,"kter":1891,"enes":1892,"ogram":1893,"New":1894,"rus":1895,"viktig":1896,"brukt":1897,"ets":1898,"vember":1899,"gende":1900,"ente":1901,"ult":1902,"finnes":1903,"klas":1904,"først":1905,"oner":1906,"november":1907,"bi":1908,"bø":1909,"Euro":1910,"isen":1911,"dist":1912,"ener":1913,"189":1914,"hver":1915,"iden":1916,"elige":1917,"arbeidet":1918,"milli":1919,"25":1920,"ac":1921,"kong":1922,"liv":1923,"usjon":1924,"eneste":1925,"Med":1926,"utt":1927,"ring":1928,"gener":1929,"Se":1930,"El":1931,"Der":1932,"risti":1933,"Under":1934,"Gr":1935,"iversitet":1936,"lingen":1937,"havet":1938,"albumet":1939,"ionen":1940,"mindre":1941,"Sver":1942,"lav":1943,"menne":1944,"sprak":1945,"kil":1946,"dd":1947,"isert":1948,"Par":1949,"full":1950,"ekse":1951,"hele":1952,"samt":1953,"arar":1954,"kommer":1955,"tiden":1956,"Sommer":1957,"grav":1958,"Dan":1959,"rist":1960,"Rom":1961,"int":1962,"Hans":1963,"ps":1964,"spilte":1965,"lat":1966,"alder":1967,"kort":1968,"film":1969,"leng":1970,"døde":1971,"2008":1972,"heng":1973,"mpel":1974,"kultur":1975,"vanlig":1976,"vei":1977,"ys":1978,"idrett":1979,"kat":1980,"leder":1981,"sven":1982,"hjem":1983,"2010":1984,"Ved":1985,"dat":1986,"Bo":1987,"komp":1988,"dus":1989,"holdt":1990,"beste":1991,"ses":1992,"hos":1993,"trad":1994,"jord":1995,"gjør":1996,"rit":1997,"VM":1998,"Ba":1999,"ich":2000,"ky":2001,"bel":2002,"Me":2003,"Tysk":2004,"regjer":2005,"if":2006,"ars":2007,"La":2008,"Sch":2009,"aler":2010,"2011":2011,"Sa":2012,"alist":2013,"Wil":2014,"amerikanske":2015,"medal":2016,"halv":2017,"stan":2018,"gu":2019,"ulike":2020,"lever":2021,"2007":2022,"Denne":2023,"sma":2024,"større":2025,"øv":2026,"slaget":2027,"skrevet":2028,"ummer":2029,"side":2030,"ppen":2031,"Kon":2032,"etab":2033,"Eng":2034,"2006":2035,"øver":2036,"kring":2037,"sønn":2038,"aren":2039,"co":2040,"gra":2041,"kre":2042,"forskj":2043,"rer":2044,"Har":2045,"stort":2046,"ativ":2047,"begynte":2048,"ity":2049,"ott":2050,"He":2051,"bra":2052,"2012":2053,"Ste":2054,"tes":2055,"Car":2056,"stilling":2057,"24":2058,"John":2059,"188":2060,"dyr":2061,"sh":2062,"delen":2063,"ess":2064,"tyske":2065,"matte":2066,"ologi":2067,"fest":2068,"kro":2069,"kene":2070,"asjoner":2071,"oly":2072,"ondon":2073,"olle":2074,"kirke":2075,"skrig":2076,"terte":2077,"tred":2078,"London":2079,"lertid":2080,"natur":2081,"Europa":2082,"21":2083,"Hen":2084,"alla":2085,"perioden":2086,"heten":2087,"pun":2088,"iner":2089,"representerte":2090,"blei":2091,"pop":2092,"barn":2093,"ile":2094,"dan":2095,"satte":2096,"ffe":2097,"bandet":2098,"hov":2099,"ving":2100,"gt":2101,"band":2102,"old":2103,"gjort":2104,"slatt":2105,"Men":2106,"2005":2107,"elv":2108,"løpet":2109,"Vest":2110,"eksp":2111,"ania":2112,"Per":2113,"lert":2114,"lov":2115,"Tyskland":2116,"konom":2117,"jør":2118,"hy":2119,"23":2120,"gitt":2121,"ori":2122,"Andre":2123,"deres":2124,"teg":2125,"forsk":2126,"heter":2127,"Dei":2128,"nevn":2129,"hvert":2130,"ore":2131,"tert":2132,"Histor":2133,"lar":2134,"pri":2135,"2009":2136,"ins":2137,"Te":2138,"følge":2139,"krigen":2140,"bed":2141,"studi":2142,"topp":2143,"klar":2144,"sil":2145,"dy":2146,"elser":2147,"up":2148,"bane":2149,"rike":2150,"22":2151,"ital":2152,"minist":2153,"kam":2154,"heim":2155,"ise":2156,"pav":2157,"Bar":2158,"fun":2159,"gamle":2160,"jet":2161,"hjel":2162,"opprett":2163,"Frankr":2164,"apen":2165,"gull":2166,"fug":2167,"tysk":2168,"lær":2169,"organis":2170,"fleste":2171,"Kom":2172,"Sverige":2173,"100":2174,"milit":2175,"arrang":2176,"provin":2177,"oper":2178,"opprinn":2179,"ikken":2180,"jern":2181,"ev":2182,"bestar":2183,"bygget":2184,"Johan":2185,"eres":2186,"stit":2187,"internasjon":2188,"utgitt":2189,"Fil":2190,"mulig":2191,"fjer":2192,"kal":2193,"deler":2194,"stedet":2195,"annen":2196,"nummer":2197,"fast":2198,"ral":2199,"program":2200,"minister":2201,"Mon":2202,"Ver":2203,"ful":2204,"187":2205,"skog":2206,"So":2207,"god":2208,"ganger":2209,"Po":2210,"Bergen":2211,"tredje":2212,"Frankrike":2213,"anna":2214,"amerikansk":2215,"2004":2216,"ktør":2217,"syk":2218,"2000":2219,"lev":2220,"sesongen":2221,"Pro":2222,"forfatter":2223,"kny":2224,"Kr":2225,"mi":2226,"spor":2227,"middel":2228,"28":2229,"aust":2230,"versjon":2231,"seks":2232,"sing":2233,"stats":2234,"sang":2235,"forsø":2236,"gruppe":2237,"slekt":2238,"eksempel":2239,"ip":2240,"bert":2241,"skip":2242,"prof":2243,"eren":2244,"partiet":2245,"derne":2246,"60":2247,"Et":2248,"las":2249,"Hol":2250,"oen":2251,"svært":2252,"one":2253,"produksjon":2254,"Til":2255,"fjorden":2256,"frik":2257,"our":2258,"staten":2259,"pas":2260,"tj":2261,"økonom":2262,"ct":2263,"startet":2264,"rum":2265,"27":2266,"helt":2267,"Inn":2268,"eri":2269,"sport":2270,"40":2271,"At":2272,"klu":2273,"sto":2274,"Lu":2275,"rasjon":2276,"mye":2277,"bygd":2278,"Om":2279,"stod":2280,"Sc":2281,"ram":2282,"ope":2283,"fekk":2284,"Li":2285,"sentr":2286,"fall":2287,"isi":2288,"kant":2289,"ku":2290,"2016":2291,"mand":2292,"isjonen":2293,"ald":2294,"26":2295,"ika":2296,"kap":2297,"øre":2298,"ris":2299,"dte":2300,"finalen":2301,"presiden":2302,"tap":2303,"produs":2304,"gruppen":2305,"fyr":2306,"videre":2307,"derfor":2308,"havn":2309,"grad":2310,"Rus":2311,"ikt":2312,"kken":2313,"Fre":2314,"Land":2315,"borg":2316,"slutten":2317,"føre":2318,"forskjel":2319,"stam":2320,"dert":2321,"sm":2322,"kjente":2323,"omrade":2324,"mentet":2325,"langs":2326,"nett":2327,"fører":2328,"burg":2329,"verdens":2330,"2013":2331,"popul":2332,"Før":2333,"lam":2334,"sosi":2335,"engelsk":2336,"Con":2337,"Ad":2338,"ata":2339,"fore":2340,"fag":2341,"aktiv":2342,"2014":2343,"innbygg":2344,"litt":2345,"rel":2346,"England":2347,"sommer":2348,"TV":2349,"hører":2350,"handling":2351,"sig":2352,"Ha":2353,"()":2354,"ib":2355,"funnet":2356,"ikker":2357,"historie":2358,"høg":2359,"felt":2360,"Tr":2361,"Gu":2362,"spilt":2363,"syste":2364,"led":2365,"britiske":2366,"brukes":2367,"alli":2368,"dar":2369,"ustri":2370,"Com":2371,"1990":2372,"bry":2373,"annia":2374,"ges":2375,"imid":2376,"ktur":2377,"Storbrit":2378,"Bl":2379,"serien":2380,"enskap":2381,"distrik":2382,"imidlertid":2383,"løp":2384,"renn":2385,"th":2386,"fleire":2387,"luft":2388,"Norges":2389,"fter":2390,"ledet":2391,"29":2392,"tett":2393,"derte":2394,"oss":2395,"2015":2396,"foren":2397,"Amer":2398,"staden":2399,"innbyggere":2400,"kalla":2401,"oren":2402,"ana":2403,"veien":2404,"Col":2405,"Ed":2406,"virk":2407,"folket":2408,"forsvar":2409,"fisk":2410,"bla":2411,"tidleg":2412,"hu":2413,"bestem":2414,"olymp":2415,"bus":2416,"isme":2417,"sal":2418,"begge":2419,"hennes":2420,"lange":2421,"bin":2422,"riere":2423,"qu":2424,"deretter":2425,"mene":2426,"delig":2427,"Tor":2428,"inklu":2429,"oppdag":2430,"ovjet":2431,"Mid":2432,"mes":2433,"mag":2434,"sket":2435,"angre":2436,"klubben":2437,"Aust":2438,"cke":2439,"Bak":2440,"holder":2441,"lys":2442,"Opp":2443,"ønn":2444,"Bra":2445,"ød":2446,"forbin":2447,"1980":2448,"Ra":2449,"slutt":2450,"riks":2451,"dermed":2452,"elekt":2453,"ius":2454,"Ital":2455,"Sy":2456,"Storbritannia":2457,"friidrett":2458,"langt":2459,"ørs":2460,"186":2461,"Br":2462,"viser":2463,"beny":2464,"ju":2465,"talet":2466,"vid":2467,"elva":2468,"stasjon":2469,"orn":2470,"2003":2471,"lene":2472,"deling":2473,"kol":2474,"forskjellige":2475,"kret":2476,"urope":2477,"filmen":2478,"arter":2479,"2001":2480,"administ":2481,"særlig":2482,"mate":2483,"kine":2484,"tradisjon":2485,"igh":2486,"1970":2487,"gift":2488,"tidig":2489,"ium":2490,"ider":2491,"franske":2492,"mas":2493,"kse":2494,"kyr":2495,"fordi":2496,"bid":2497,"nelsen":2498,"lot":2499,"dens":2500,"sølv":2501,"anse":2502,"ting":2503,"godt":2504,"use":2505,"atet":2506,"Ny":2507,"felle":2508,"bron":2509,"che":2510,"Can":2511,"Av":2512,"ille":2513,"kval":2514,"ork":2515,"konkurran":2516,"Fol":2517,".-":2518,"iva":2519,"Fin":2520,"sist":2521,"pos":2522,"basert":2523,"president":2524,"port":2525,"verdenskrig":2526,"hatt":2527,"Ein":2528,"meste":2529,"fart":2530,"fransk":2531,"selskap":2532,"titt":2533,"tekn":2534,"gir":2535,"spr":2536,"sia":2537,"Su":2538,"fan":2539,"2002":2540,"ogn":2541,"mis":2542,"arrangert":2543,"aland":2544,"fylke":2545,"idae":2546,"flyttet":2547,"krit":2548,"Sen":2549,"gjerne":2550,"folke":2551,"bro":2552,"selskapet":2553,"iversitetet":2554,"vise":2555,"Kina":2556,"nasjonal":2557,"kontr":2558,"job":2559,"tale":2560,"sat":2561,"gard":2562,"sjøen":2563,"valgt":2564,"Ham":2565,"app":2566,"lite":2567,"hi":2568,"Nav":2569,"sid":2570,"ep":2571,"1960":2572,"2017":2573,"tere":2574,"sit":2575,"dannet":2576,"litter":2577,"2019":2578,"Tron":2579,"dann":2580,"gg":2581,"liten":2582,"enk":2583,"entet":2584,"Historie":2585,"sein":2586,"skue":2587,"but":2588,"fant":2589,"hovud":2590,"Russland":2591,"samling":2592,"utbre":2593,"dia":2594,"Ale":2595,"ni":2596,"regionen":2597,"plasser":2598,"Disse":2599,"Italia":2600,"veit":2601,"skolen":2602,"støtte":2603,"iserte":2604,"provinsen":2605,"ren":2606,"statt":2607,"avheng":2608,"verket":2609,"gel":2610,"pol":2611,"bisk":2612,"Mal":2613,"2018":2614,"makt":2615,"div":2616,"offent":2617,"banen":2618,"vær":2619,"spill":2620,"ers":2621,"skrive":2622,"tru":2623,"ktiv":2624,"saman":2625,"nad":2626,"ya":2627,"ada":2628,"git":2629,"huset":2630,"sag":2631,"radet":2632,"Lo":2633,"Is":2634,"bronse":2635,"pass":2636,"aller":2637,"ografi":2638,"industri":2639,"datter":2640,"eldre":2641,"ollen":2642,"isering":2643,"Bu":2644,"fjord":2645,"Nar":2646,"akter":2647,"Danmark":2648,"oli":2649,"Trond":2650,"arane":2651,"sette":2652,"ator":2653,"befolk":2654,"mm":2655,"moderne":2656,"styre":2657,"menter":2658,"bat":2659,"innbyg":2660,"dende":2661,"millioner":2662,"Dav":2663,"1999":2664,"igur":2665,"dde":2666,"kont":2667,"ula":2668,"hær":2669,"nevnt":2670,"185":2671,"utøver":2672,"Kommun":2673,"Noreg":2674,"brun":2675,"nadde":2676,"vekt":2677,"Christi":2678,"vist":2679,"hil":2680,"tot":2681,"Mag":2682,"aner":2683,"vinne":2684,"konge":2685,"kongen":2686,"Paris":2687,"ferdig":2688,"trykk":2689,"Pre":2690,"kvinner":2691,"offisi":2692,"Kong":2693,"31":2694,"Lar":2695,"hard":2696,"italien":2697,"ingar":2698,"Pr":2699,"skje":2700,"Bro":2701,"gte":2702,"jar":2703,"svensk":2704,"kast":2705,"test":2706,"Byen":2707,"kli":2708,"aen":2709,"kjem":2710,"result":2711,"konser":2712,"delag":2713,"mit":2714,"personer":2715,"bud":2716,"zz":2717,"Ser":2718,"Kristi":2719,"skrift":2720,"parte":2721,"ino":2722,"forhold":2723,"Coun":2724,"vek":2725,"imot":2726,"San":2727,"viste":2728,"sluttet":2729,"ometer":2730,"Mus":2731,"utvikling":2732,"skar":2733,"To":2734,"sens":2735,"muse":2736,"livet":2737,"ts":2738,"..":2739,"hundre":2740,"utviklet":2741,"lokal":2742,"romer":2743,"tidlegare":2744,"80":2745,"parti":2746,"vapen":2747,"1992":2748,"Peter":2749,"fon":2750,"utgav":2751,"Er":2752,"seende":2753,"ekte":2754,"erer":2755,"nesten":2756,"hjelp":2757,"sju":2758,"1996":2759,"motor":2760,"steder":2761,"Char":2762,"biller":2763,"Je":2764,"garden":2765,"Norsk":2766,"pra":2767,"vol":2768,"kalle":2769,"høye":2770,"plassen":2771,"1994":2772,"byr":2773,"lerede":2774,"ci":2775,"Sel":2776,"rask":2777,"Afrik":2778,"betyd":2779,"myn":2780,"Utbre":2781,"serie":2782,"kysten":2783,"rid":2784,"184":2785,"Island":2786,"areal":2787,"sida":2788,"enkel":2789,"omrader":2790,"gjøre":2791,"aut":2792,"sne":2793,"Karl":2794,"spun":2795,"opprettet":2796,"holm":2797,"hev":2798,"Ol":2799,"omfatt":2800,"gy":2801,"70":2802,"ppe":2803,"ansvar":2804,"Univers":2805,"gammel":2806,"henne":2807,"europe":2808,"omkring":2809,"internasjonale":2810,"gangen":2811,"AS":2812,"1998":2813,"døm":2814,"følger":2815,"rolle":2816,"vinter":2817,"mennesker":2818,"radi":2819,"lub":2820,"kilometer":2821,"age":2822,"hopp":2823,"Ta":2824,"rekte":2825,"mang":2826,"dagen":2827,"dalen":2828,"Jan":2829,"relig":2830,"keiser":2831,"undet":2832,"ons":2833,"Ve":2834,"Øst":2835,"proble":2836,"ames":2837,"utan":2838,"olf":2839,"medlemmer":2840,"arbeider":2841,"ped":2842,"pper":2843,"departe":2844,"Mil":2845,"York":2846,"samfunn":2847,"ppa":2848,"kri":2849,"kn":2850,"russisk":2851,"vern":2852,"beveg":2853,"ali":2854,"stav":2855,"ley":2856,"etablert":2857,"neder":2858,"tem":2859,"spesielt":2860,"represent":2861,"gjekk":2862,"do":2863,"Kir":2864,"fang":2865,"hin":2866,"1997":2867,"mesterskapet":2868,"fortsatt":2869,"ank":2870,"kompon":2871,"bruker":2872,"1991":2873,"Utbredelse":2874,"familie":2875,"ola":2876,"hovedsak":2877,"Inter":2878,"unge":2879,"bod":2880,"Mart":2881,"venn":2882,"beteg":2883,"ette":2884,"general":2885,"Go":2886,"ern":2887,"Tid":2888,"essor":2889,"Ja":2890,"via":2891,"tu":2892,"miljø":2893,"eig":2894,"namn":2895,"sla":2896,"ograf":2897,"Paul":2898,"EM":2899,"ungdom":2900,"disk":2901,"pris":2902,"svenske":2903,"bort":2904,"kommunen":2905,"trent":2906,"iste":2907,"1995":2908,"mør":2909,"klubb":2910,"innenfor":2911,"Mc":2912,"1988":2913,"valget":2914,"biskop":2915,"følgende":2916,"vene":2917,"Liv":2918,"1993":2919,"antall":2920,"skjed":2921,"rag":2922,"øk":2923,"knyttet":2924,"kamper":2925,"sentral":2926,"ford":2927,"effe":2928,"ama":2929,"jap":2930,"berre":2931,"35":2932,"serte":2933,"direkte":2934,"dels":2935,"ica":2936,"vore":2937,"retning":2938,"prosje":2939,"sch":2940,"system":2941,"utenfor":2942,"Willi":2943,"medalje":2944,"punkt":2945,"grens":2946,"turner":2947,"kjør":2948,"verd":2949,"lett":2950,"Stat":2951,"ytter":2952,"forbindelse":2953,"interes":2954,"skuespiller":2955,"okrat":2956,"seier":2957,"kart":2958,"innbyggj":2959,"bos":2960,"seinare":2961,"Val":2962,"delstaten":2963,"ock":2964,"Afrika":2965,"pan":2966,"likevel":2967,"ational":2968,"grupper":2969,"Gre":2970,"region":2971,"ame":2972,"1989":2973,"finner":2974,"politiske":2975,"vitenskap":2976,"fte":2977,"former":2978,"model":2979,"oku":2980,"ansen":2981,"1800":2982,"tids":2983,"arkite":2984,"holde":2985,"tol":2986,"ick":2987,"aldri":2988,"sym":2989,"strøm":2990,"barne":2991,"kalles":2992,"deles":2993,"poeng":2994,"funksjon":2995,"sli":2996,"ute":2997,"dire":2998,"vak":2999,"Hø":3000,"ager":3001,"apnet":3002,"musik":3003,"alderen":3004,"ete":3005,"Mer":3006,"wa":3007,"Mot":3008,"Fred":3009,"gitar":3010,"divisjon":3011,"1984":3012,"instru":3013,"søk":3014,"isten":3015,"County":3016,"Gar":3017,"kjenn":3018,"My":3019,"bøker":3020,"staende":3021,"90":3022,"øyene":3023,"Utseende":3024,"aste":3025,"ander":3026,"istiske":3027,"samtidig":3028,"same":3029,"regjering":3030,".»":3031,"nem":3032,"professor":3033,"opprinnelig":3034,"sentrum":3035,"drift":3036,"periode":3037,"Sle":3038,"sar":3039,"ligere":3040,"bety":3041,"Mor":3042,"vare":3043,"systemet":3044,"Sand":3045,"Hand":3046,"2020":3047,"mannen":3048,"von":3049,"Lin":3050,"dager":3051,"jørn":3052,"neste":3053,"Trondheim":3054,"pat":3055,"ias":3056,"Amerika":3057,"vansk":3058,"tilhører":3059,"fakt":3060,"Sal":3061,"hl":3062,"1900":3063,"karriere":3064,"kjøp":3065,"prisen":3066,"500":3067,"Mel":3068,"Og":3069,"gresk":3070,"onen":3071,"ash":3072,"fen":3073,"kirken":3074,"Arbe":3075,"Antar":3076,"1950":3077,"kvar":3078,"Am":3079,"kta":3080,"tida":3081,"fr":3082,"ongen":3083,"ckey":3084,"hv":3085,"foran":3086,"inget":3087,"somhet":3088,"angrep":3089,"(«":3090,"We":3091,"ico":3092,"poli":3093,"bol":3094,"kjend":3095,"setning":3096,"songen":3097,"Mange":3098,"Ka":3099,"vite":3100,"jur":3101,"Thom":3102,"borger":3103,"midt":3104,"Don":3105,"stendig":3106,"rael":3107,"Hel":3108,"Fri":3109,"skol":3110,"sjølv":3111,"Mich":3112,"felles":3113,"pal":3114,"andet":3115,"Ul":3116,"Austral":3117,"William":3118,"enten":3119,"Ti":3120,"spelte":3121,"allerede":3122,"drag":3123,"kraftverk":3124,"landsk":3125,"virke":3126,"University":3127,"omtrent":3128,"iks":3129,"skipet":3130,"hvil":3131,"fjellet":3132,"Berlin":3133,"malt":3134,"vari":3135,"agen":3136,"engelske":3137,"namnet":3138,"fjerde":3139,"ero":3140,"bom":3141,"forhol":3142,"kvart":3143,"ologiske":3144,"sendt":3145,"sek":3146,"bon":3147,"Kn":3148,"Fj":3149,"eldste":3150,"meir":3151,"brukte":3152,"olusjon":3153,"ordan":3154,"figur":3155,"sister":3156,"ktor":3157,"tene":3158,"ismen":3159,"kvalif":3160,"Hal":3161,"1987":3162,"1972":3163,"alet":3164,"slav":3165,"Stort":3166,"skriver":3167,"Universitetet":3168,"lei":3169,"sidan":3170,"1986":3171,"politisk":3172,"nev":3173,"omin":3174,"bror":3175,"Du":3176,"opphav":3177,"din":3178,"yrk":3179,"tv":3180,"Ir":3181,"1945":3182,"stjer":3183,"inkludert":3184,"øl":3185,"skjer":3186,"ærer":3187,"Bre":3188,"inske":3189,"eleg":3190,"Kj":3191,"asjons":3192,"studen":3193,"eget":3194,"endte":3195,"departementet":3196,"1985":3197,"kampen":3198,"Sol":3199,"tran":3200,"lerte":3201,"180":3202,"opprør":3203,"utbredt":3204,"alte":3205,"litteratur":3206,"spillet":3207,"ningene":3208,"riket":3209,"fabr":3210,"nest":3211,"urt":3212,"Bru":3213,"nordvest":3214,"grunnlagt":3215,"Di":3216,"song":3217,"Pri":3218,"aka":3219,"ice":3220,"elder":3221,"tittelen":3222,"Bel":3223,"flyt":3224,"kolon":3225,"dansk":3226,"kroppen":3227,"ærende":3228,"kontor":3229,"cu":3230,"lokale":3231,"iz":3232,"Jon":3233,"mask":3234,"400":3235,"uth":3236,"militær":3237,"mere":3238,"medan":3239,"1968":3240,"Fyl":3241,"vand":3242,"nøy":3243,"roman":3244,"strid":3245,"aksjon":3246,"vanligvis":3247,"meng":3248,"Jap":3249,"doku":3250,"katol":3251,"ala":3252,"risk":3253,"rale":3254,"Selv":3255,"arab":3256,"dik":3257,"landske":3258,"fortsatte":3259,"akk":3260,"løs":3261,"kinesisk":3262,"olympiske":3263,"egne":3264,"ding":3265,"begynnelsen":3266,"1940":3267,"gl":3268,"utnevnt":3269,"samarbeid":3270,"ganske":3271,"spille":3272,"insk":3273,"Gru":3274,"skom":3275,"Sovjet":3276,"angen":3277,"Trom":3278,"midten":3279,"osof":3280,"blom":3281,"sann":3282,"universitet":3283,"mess":3284,"1920":3285,"Album":3286,"stene":3287,"innbyggjarar":3288,"Bakgrunn":3289,"hockey":3290,"Pe":3291,"niva":3292,"skre":3293,"spro":3294,"fru":3295,"betyr":3296,"nytta":3297,"ativt":3298,"Stock":3299,"sende":3300,"republi":3301,"sikt":3302,"sku":3303,"gatt":3304,"ferd":3305,"Gra":3306,"Noen":3307,"Ag":3308,"tta":3309,"formann":3310,"ves":3311,"III":3312,"tjeneste":3313,"stal":3314,"oster":3315,"tri":3316,"Fl":3317,"defin":3318,"ologisk":3319,"liste":3320,"kle":3321,"Bi":3322,"møtte":3323,"sene":3324,"nende":3325,"leker":3326,"fir":3327,"anten":3328,"Neder":3329,"NR":3330,"por":3331,"saker":3332,"krigs":3333,"Spania":3334,"FC":3335,"kontra":3336,"Stu":3337,"45":3338,"politiker":3339,"krav":3340,"bør":3341,"gro":3342,"Vi":3343,"As":3344,"37":3345,"Tur":3346,"ksess":3347,"sterk":3348,"regis":3349,"enkelte":3350,"1964":3351,"za":3352,"vingene":3353,"kraftig":3354,"Robert":3355,"Roma":3356,"klarte":3357,"mak":3358,"sterkt":3359,"tilsvar":3360,"kry":3361,"vere":3362,"feng":3363,"\").":3364,"iti":3365,"sørvest":3366,"1976":3367,"sanger":3368,"dro":3369,"Bla":3370,"Alle":3371,"inen":3372,"tilf":3373,"tildelt":3374,"we":3375,"ish":3376,"natt":3377,"komme":3378,"Stav":3379,"studerte":3380,"bygge":3381,"ona":3382,"fas":3383,"tenn":3384,"1973":3385,"dagens":3386,"36":3387,"minst":3388,"unionen":3389,"1983":3390,"vevis":3391,"sesong":3392,"kvinn":3393,"ze":3394,"skyl":3395,"teater":3396,"riske":3397,"finne":3398,"klart":3399,"forening":3400,"bia":3401,"Port":3402,"meister":3403,"1979":3404,"unnet":3405,"1982":3406,"spir":3407,"snitt":3408,"russiske":3409,"regel":3410,"britisk":3411,"Over":3412,"tan":3413,"servat":3414,"Brasil":3415,"1975":3416,"istisk":3417,"svart":3418,"1974":3419,"stilt":3420,"asjer":3421,"enkelt":3422,"brø":3423,"karakter":3424,"spesial":3425,"peratur":3426,"marked":3427,"jing":3428,"ony":3429,"1981":3430,"ensjon":3431,"forskning":3432,"Min":3433,"blad":3434,"Ander":3435,"Tom":3436,"Christian":3437,"alter":3438,"produsert":3439,"moh":3440,"spra":3441,"\"-":3442,"utdan":3443,"Olav":3444,"bis":3445,"tren":3446,"Do":3447,"uavheng":3448,"dyn":3449,"mater":3450,"Sh":3451,"1969":3452,"Reg":3453,"»)":3454,"direktør":3455,"myndig":3456,"synlig":3457,"iteten":3458,"stri":3459,"kjemp":3460,"ood":3461,"ney":3462,"Wh":3463,"fylkes":3464,"levde":3465,"dikt":3466,"lenger":3467,"inneholder":3468,"Bay":3469,"oppgav":3470,"Bur":3471,"Hell":3472,"løy":3473,"1978":3474,"prest":3475,"India":3476,"Stockholm":3477,"utter":3478,"ath":3479,"bruke":3480,"Kø":3481,"\"),":3482,"vide":3483,"best":3484,"David":3485,"sentrale":3486,"suksess":3487,"ming":3488,"konstru":3489,"raft":3490,"dam":3491,"mist":3492,"af":3493,"No":3494,"danske":3495,"stoff":3496,"Japan":3497,"Canada":3498,"Høy":3499,"NRK":3500,"noko":3501,"Var":3502,"lenge":3503,"Ben":3504,"kombin":3505,"finst":3506,"Gro":3507,"spelar":3508,"way":3509,"desse":3510,"Mun":3511,"ømmer":3512,"33":3513,"iene":3514,"instit":3515,"1977":3516,"filosof":3517,"ago":3518,"kron":3519,"likt":3520,"debu":3521,"gruppa":3522,"erstatt":3523,"demokrat":3524,"orien":3525,"Bor":3526,"ph":3527,"1967":3528,"Ju":3529,"pin":3530,"Arten":3531,"benyttet":3532,"gate":3533,"regnes":3534,"jene":3535,"europeiske":3536,"trom":3537,"gud":3538,"delser":3539,"Part":3540,"okk":3541,"Siden":3542,"post":3543,"NM":3544,"runde":3545,"aly":3546,"Kun":3547,"Qu":3548,"benhavn":3549,"fred":3550,"kontroll":3551,"verdi":3552,"giftet":3553,"]]":3554,"Str":3555,"formen":3556,"resten":3557,"Ke":3558,"dater":3559,"valgte":3560,"bot":3561,"bakken":3562,"1971":3563,"fiske":3564,"hert":3565,"refer":3566,"dekk":3567,"sper":3568,"konkurransen":3569,"maler":3570,"viktigste":3571,"Mad":3572,"høyde":3573,"styret":3574,"Carl":3575,"syke":3576,"[[":3577,"39":3578,"døy":3579,"Senere":3580,"sson":3581,"Air":3582,"Tre":3583,"1930":3584,"hovedsakelig":3585,"uelle":3586,"Levevis":3587,"festiv":3588,"indiv":3589,"iss":3590,"dommer":3591,"spre":3592,"rich":3593,"Eli":3594,"sutøver":3595,"København":3596,"ora":3597,"Øster":3598,"ato":3599,"merk":3600,"hjemme":3601,"Vik":3602,"mur":3603,"flag":3604,"malet":3605,"City":3606,"dommen":3607,"sider":3608,"vig":3609,"prin":3610,"atene":3611,"kommand":3612,"Trøn":3613,"parlam":3614,"talte":3615,"Blant":3616,"omfatter":3617,"Fo":3618,"fulgte":3619,"tross":3620,"Finn":3621,"fron":3622,"Kor":3623,"heller":3624,"regi":3625,"kas":3626,"fy":3627,"Dag":3628,"meget":3629,"hum":3630,"organisasjon":3631,"legger":3632,"38":3633,"ach":3634,"svarte":3635,"Geor":3636,"sekret":3637,"vo":3638,"eks":3639,"hverandre":3640,"1948":3641,"Ga":3642,"Gud":3643,"nasjonale":3644,"ords":3645,"1965":3646,"own":3647,"gjeng":3648,"stral":3649,"con":3650,"Au":3651,"ourn":3652,"Thomas":3653,"krist":3654,"allen":3655,"tekst":3656,"Australia":3657,"32":3658,"sberg":3659,"voksne":3660,"rift":3661,"ppet":3662,"Hoved":3663,"gent":3664,"øse":3665,"komite":3666,"vikt":3667,"hva":3668,"Georg":3669,"artene":3670,"Angel":3671,"egg":3672,"toppen":3673,"avis":3674,"Cor":3675,"klassen":3676,"senteret":3677,"nia":3678,"Wor":3679,"Ger":3680,"handels":3681,"dsvis":3682,"asje":3683,"ode":3684,"Norske":3685,"saken":3686,"rekord":3687,"vinn":3688,"1956":3689,"ellet":3690,"34":3691,"mente":3692,"gode":3693,"Henrik":3694,"ign":3695,"skaps":3696,"lengre":3697,"alene":3698,"Fer":3699,"reise":3700,"Fa":3701,"1966":3702,"Gi":3703,"reiste":3704,"fugl":3705,"slekten":3706,"revolusjon":3707,"grense":3708,"Tra":3709,"tyn":3710,"bygde":3711,"handler":3712,"Vil":3713,"Navnet":3714,"stiftet":3715,"Mellom":3716,"kropp":3717,"debuterte":3718,"Trøndelag":3719,"ova":3720,"eksister":3721,"parten":3722,"Alex":3723,"Beg":3724,"bøl":3725,"ninga":3726,"cm":3727,"aget":3728,"finn":3729,"Gj":3730,"lista":3731,"medis":3732,"fal":3733,"Vol":3734,"Rec":3735,"West":3736,"pres":3737,"slags":3738,"Albumet":3739,"Cl":3740,"tom":3741,"ettersom":3742,"elses":3743,"lt":3744,"utfor":3745,"stillingen":3746,"Ric":3747,"farge":3748,"lærer":3749,"fotballspiller":3750,"rene":3751,"Na":3752,"ordet":3753,"politi":3754,"styrker":3755,"flate":3756,"Ven":3757,"orig":3758,"Sveit":3759,"gjeve":3760,"raskt":3761,"romerske":3762,"landets":3763,"fett":3764,"standen":3765,"Filmen":3766,"foret":3767,"struktur":3768,"fold":3769,"Rad":3770,"regjeringen":3771,"psyk":3772,"seil":3773,"75":3774,"skriv":3775,"olje":3776,"dess":3777,"stab":3778,"Lou":3779,"talt":3780,"Kat":3781,"Brit":3782,"leik":3783,"sivil":3784,"overtok":3785,"elven":3786,"sjekk":3787,"eksped":3788,"føring":3789,"offentlig":3790,"Hall":3791,"Ze":3792,"nordlige":3793,"pisk":3794,"skaper":3795,"redus":3796,"Ni":3797,"Sveits":3798,"itz":3799,"nene":3800,"retts":3801,"plassert":3802,"Bil":3803,"hvordan":3804,"nomin":3805,"angel":3806,"tein":3807,"status":3808,"bedre":3809,"Nam":3810,"inntil":3811,"fyrste":3812,"daktør":3813,"utstyr":3814,"forv":3815,"besky":3816,"Vinter":3817,"Martin":3818,"Sovjetunionen":3819,"delsen":3820,"Stavanger":3821,"faren":3822,"flu":3823,"forsøk":3824,"plate":3825,"befolkningen":3826,"distriktet":3827,"ringer":3828,"ras":3829,"bolig":3830,"minne":3831,"1963":3832,"tapte":3833,"hang":3834,"legget":3835,"ano":3836,"inform":3837,"kunn":3838,"Fr":3839,"sovjet":3840,"møte":3841,"Van":3842,"Rog":3843,"journ":3844,"sjef":3845,"enda":3846,"ight":3847,"drept":3848,"Gl":3849,"mykje":3850,"Song":3851,"offiser":3852,"Ter":3853,"øs":3854,"rim":3855,"vinner":3856,"rollen":3857,"kyrkje":3858,"ordenen":3859,"militære":3860,"helm":3861,"isere":3862,"matisk":3863,"Kro":3864,"Hau":3865,"administrasjon":3866,"oret":3867,"rød":3868,"historiske":3869,"omat":3870,"arten":3871,"irk":3872,"Fredrik":3873,"misjon":3874,"nevnte":3875,"delingen":3876,"byer":3877,"Christ":3878,"Ko":3879,"Kommunen":3880,"garn":3881,"sosial":3882,"stant":3883,"Nederland":3884,"Phil":3885,"ega":3886,"chen":3887,"feil":3888,"studio":3889,"Ex":3890,"ønsket":3891,"Jer":3892,"betydelig":3893,"sørlige":3894,"1962":3895,"trekk":3896,"bevis":3897,"varte":3898,"Finland":3899,"rør":3900,"Asia":3901,"bodde":3902,"esjon":3903,"hit":3904,"Aker":3905,"vende":3906,"cy":3907,"tør":3908,"skr":3909,"ilt":3910,"bygning":3911,"Si":3912,"gul":3913,"linje":3914,"James":3915,"300":3916,"Ly":3917,"fler":3918,"maet":3919,"bygging":3920,"antar":3921,"Nil":3922,"temperatur":3923,"kja":3924,"rapp":3925,"ikere":3926,"ric":3927,"giv":3928,"okku":3929,"als":3930,"ited":3931,"unt":3932,"forbund":3933,"høyeste":3934,"Byg":3935,"lage":3936,"Stortinget":3937,"ering":3938,"hets":3939,"Ab":3940,"sikker":3941,"samlet":3942,"stopp":3943,"itter":3944,"Berg":3945,"ini":3946,"handel":3947,"brev":3948,"Lang":3949,"iel":3950,"origin":3951,"George":3952,"inae":3953,"ingene":3954,"olympisk":3955,"trafikk":3956,"statsminister":3957,"kost":3958,"sub":3959,"katolske":3960,"hei":3961,"lant":3962,"nordøst":3963,"Mex":3964,"museum":3965,"Tele":3966,"tilhør":3967,"ogen":3968,"oppdaget":3969,"ple":3970,"Erik":3971,"indre":3972,"Fylkes":3973,"ensi":3974,"jo":3975,"leis":3976,"ria":3977,"resultat":3978,"unnen":3979,"Jac":3980,"Ru":3981,"stander":3982,"1952":3983,"enter":3984,"regist":3985,"hau":3986,"iør":3987,"sekretær":3988,"menneske":3989,"redaktør":3990,"vanleg":3991,"falt":3992,"betydning":3993,"utgiv":3994,"sangen":3995,"ales":3996,"boken":3997,"anlegg":3998,"prosent":3999,"øyer":4000,"vanskelig":4001,"eien":4002,"vokste":4003,"kunstner":4004,"Lille":4005,"Lan":4006,"rert":4007,"størr":4008,"otball":4009,"forel":4010,"grensen":4011,"spørs":4012,"flaten":4013,"Id":4014,"endret":4015,"Roy":4016,"bakgrunn":4017,"publik":4018,"eden":4019,"rock":4020,"verds":4021,"spelt":4022,"ome":4023,"ellen":4024,"strek":4025,"posisjon":4026,"65":4027,"Slekten":4028,"kvinne":4029,"filmer":4030,"songar":4031,"ld":4032,"dige":4033,"materi":4034,"Ski":4035,"oppført":4036,"Los":4037,"religi":4038,"nød":4039,"1958":4040,"asen":4041,"bord":4042,"deira":4043,"1961":4044,"ømme":4045,"can":4046,"Hu":4047,"rette":4048,"gn":4049,"delige":4050,"greske":4051,"heile":4052,"lagd":4053,"ward":4054,"stilte":4055,"relativt":4056,"helse":4057,"hæren":4058,"profesjon":4059,"Sammen":4060,"gjeven":4061,"grenser":4062,"ari":4063,"sir":4064,"lyd":4065,"eier":4066,"varier":4067,"aster":4068,"vunnet":4069,"viktige":4070,"radio":4071,"Bon":4072,"italiensk":4073,"strand":4074,"kanskje":4075,"skot":4076,"fær":4077,"kere":4078,"forbundet":4079,"alltid":4080,"brudd":4081,"Vic":4082,"iret":4083,"Maria":4084,"Sant":4085,"derimot":4086,"begre":4087,"klasse":4088,"nø":4089,"samle":4090,"Sjø":4091,"dynast":4092,"omradene":4093,"ros":4094,"Polen":4095,"Krist":4096,"Cap":4097,"duksjon":4098,"funger":4099,"1946":4100,"stadig":4101,"ita":4102,"Bei":4103,"179":4104,"type":4105,"Bir":4106,"48":4107,"konf":4108,"omen":4109,"Aug":4110,"ade":4111,"Grand":4112,"skon":4113,"NA":4114,"arer":4115,"bred":4116,"kontin":4117,"ith":4118,"orth":4119,"sakalte":4120,"Met":4121,"breen":4122,"bass":4123,".\"":4124,"Mas":4125,"Ogsa":4126,"talen":4127,"legge":4128,"iale":4129,"slike":4130,"trener":4131,"lære":4132,"fat":4133,"sja":4134,"kontakt":4135,"55":4136,"debut":4137,"event":4138,"oller":4139,"kloster":4140,"regnet":4141,"odi":4142,"ktene":4143,"klok":4144,"tegnet":4145,"avdeling":4146,"styrke":4147,"væ":4148,"søkte":4149,"prakt":4150,"ktig":4151,"1936":4152,"mennene":4153,"formula":4154,"Gam":4155,"stasjonen":4156,"offisielle":4157,"kop":4158,"stafett":4159,"ative":4160,"utgjør":4161,"delvis":4162,"formula_":4163,"Øy":4164,"venstre":4165,"igheter":4166,"erstattet":4167,"ryg":4168,"atom":4169,"terr":4170,"sørøst":4171,"Oper":4172,"dob":4173,"Pla":4174,"andid":4175,"varen":4176,"otum":4177,"anter":4178,"peri":4179,"merke":4180,"1500":4181,"lengde":4182,"ctic":4183,"Ky":4184,"erobr":4185,"skjedde":4186,"ella":4187,"Famil":4188,"programmet":4189,"hetene":4190,"Ry":4191,"rester":4192,"istan":4193,"skilt":4194,"bygningen":4195,"Israel":4196,"deltak":4197,"orten":4198,"inte":4199,"varme":4200,"Sim":4201,"journalist":4202,"høyere":4203,"rerer":4204,"sannsynlig":4205,"sterke":4206,"okus":4207,"setter":4208,"Skott":4209,"Del":4210,"maneder":4211,"Ca":4212,"United":4213,"jor":4214,"Cali":4215,"que":4216,"1957":4217,"motstand":4218,"oppkalt":4219,"1947":4220,"historisk":4221,"sessen":4222,"Rio":4223,"hvite":4224,"1939":4225,"somra":4226,"ronning":4227,"sem":4228,"staur":4229,"japansk":4230,"Bill":4231,"1944":4232,"totalt":4233,"uler":4234,"Egy":4235,"Run":4236,"ordfører":4237,"47":4238,"iger":4239,"vent":4240,"arbeids":4241,"uel":4242,"oc":4243,"1959":4244,"nen":4245,"Mu":4246,"spillere":4247,"ansett":4248,"privat":4249,"pot":4250,"korte":4251,"ington":4252,"blio":4253,"belt":4254,"Mexico":4255,"nokre":4256,"udd":4257,"All":4258,"kka":4259,"representant":4260,"hvis":4261,"distrikt":4262,"formet":4263,"Ifølge":4264,"ttes":4265,"etten":4266,"ffer":4267,"merket":4268,"konsert":4269,"hertug":4270,"Records":4271,"arbeide":4272,"populær":4273,"fel":4274,"eth":4275,"brann":4276,"leve":4277,"ønt":4278,"kristne":4279,"grensa":4280,"rekna":4281,"produsent":4282,"ani":4283,"ugh":4284,"kyst":4285,"sand":4286,"Johannes":4287,"opprinnelige":4288,"snak":4289,"italienske":4290,"etablerte":4291,"ild":4292,"jeg":4293,"Bern":4294,"ører":4295,"Egypt":4296,"kommet":4297,"Franc":4298,"bere":4299,"fengsel":4300,"ipp":4301,"spunkt":4302,"leir":4303,"arts":4304,"herre":4305,"Fly":4306,"solgt":4307,"Muse":4308,"Irland":4309,"ards":4310,"landsby":4311,"Pal":4312,"inspir":4313,"Sent":4314,"ji":4315,"semi":4316,"utdanning":4317,"stillinger":4318,"artist":4319,"rettet":4320,"itler":4321,"medaljer":4322,"bart":4323,"Bok":4324,"loven":4325,"nas":4326,"kroner":4327,"Califor":4328,"stol":4329,"stall":4330,"døydde":4331,"hem":4332,"laga":4333,"drev":4334,"aga":4335,"ye":4336,"vesen":4337,"personlig":4338,"derer":4339,"drene":4340,"rang":4341,"reis":4342,"Kore":4343,"bladet":4344,"verne":4345,"National":4346,"range":4347,"ansatt":4348,"IV":4349,"klær":4350,"Des":4351,"trolig":4352,"Far":4353,"fu":4354,"stid":4355,"vind":4356,"henhold":4357,"økonomiske":4358,"1949":4359,"nab":4360,"rul":4361,"søster":4362,"ordin":4363,"sign":4364,"Sha":4365,"aktivitet":4366,"ledes":4367,"hens":4368,"Lud":4369,"You":4370,"kinesiske":4371,"spanske":4372,"1941":4373,"Bade":4374,"røy":4375,"vendig":4376,"sier":4377,"spraket":4378,"anser":4379,"mede":4380,"MS":4381,"mt":4382,"strekk":4383,"akadem":4384,"vers":4385,"Hus":4386,"California":4387,"tif":4388,"lagene":4389,"rekk":4390,"attende":4391,"tog":4392,"sess":4393,"nr":4394,"ions":4395,"trakk":4396,"bevegelsen":4397,"Hav":4398,"Mosk":4399,"siv":4400,"gan":4401,"1700":4402,"Freder":4403,"vass":4404,"Kol":4405,"mund":4406,"Skottland":4407,"Ek":4408,"soldater":4409,"nede":4410,"Hellas":4411,"MW":4412,"dannelse":4413,"Jes":4414,"fjern":4415,"kjen":4416,"økonomisk":4417,"utvi":4418,"sommeren":4419,"Mat":4420,"ael":4421,"maten":4422,"asin":4423,"latin":4424,"Ele":4425,"esel":4426,"bour":4427,"ømmet":4428,"66":4429,"ledende":4430,"individ":4431,"utdannet":4432,"ague":4433,"publikken":4434,"vur":4435,"how":4436,"800":4437,".,":4438,"utgang":4439,"million":4440,"fokus":4441,"dokt":4442,"World":4443,"hode":4444,"Jack":4445,"akon":4446,"Spe":4447,"eland":4448,"yng":4449,"pil":4450,"49":4451,"mos":4452,"hvorav":4453,"lad":4454,"ston":4455,"innsjø":4456,"hr":4457,"starten":4458,"Tri":4459,"1954":4460,"singel":4461,"blod":4462,"1955":4463,"symbol":4464,"stift":4465,"Sur":4466,"snø":4467,"vard":4468,"kjønn":4469,"ison":4470,"skrigen":4471,"femte":4472,"Bjørn":4473,"rykket":4474,"landslaget":4475,"park":4476,"Flere":4477,"150":4478,"mod":4479,"Selskapet":4480,"oft":4481,"Deretter":4482,"oide":4483,"mennesk":4484,"latt":4485,"sjel":4486,"skøy":4487,"stille":4488,"behandling":4489,"midlertid":4490,"Instit":4491,"sif":4492,"erke":4493,"1942":4494,"aker":4495,"mottok":4496,"innan":4497,"spen":4498,"øp":4499,"Pat":4500,"Beijing":4501,"trebu":4502,"politikk":4503,"feltet":4504,"marker":4505,"deleg":4506,"1938":4507,"SS":4508,"følg":4509,"jobbet":4510,"stammer":4511,"Mol":4512,"altsa":4513,"betra":4514,"liggende":4515,"Angeles":4516,"unde":4517,"oppdrag":4518,"uelt":4519,"nerte":4520,"innflyt":4521,"høyre":4522,"gis":4523,"vestlige":4524,"1928":4525,"konkurrerer":4526,"kandid":4527,"transport":4528,"Klub":4529,"tittel":4530,"Super":4531,"dessuten":4532,"sdal":4533,"64":4534,"vekst":4535,"85":4536,"preget":4537,"bank":4538,"orke":4539,"Red":4540,"1912":4541,"obser":4542,"søra":4543,"manns":4544,"Os":4545,"dis":4546,"myr":4547,"lignende":4548,"effekt":4549,"cel":4550,"Arbeider":4551,"Tro":4552,"kkel":4553,"Michael":4554,"intro":4555,"col":4556,"høsten":4557,"øye":4558,"vatn":4559,"vision":4560,"Vin":4561,"Hot":4562,"energi":4563,"iseringen":4564,"Fal":4565,"egent":4566,"Sil":4567,"nærings":4568,"ktis":4569,"com":4570,"fugler":4571,"Ram":4572,"On":4573,"bestemt":4574,"domin":4575,"ultur":4576,"slov":4577,"restaur":4578,"problemer":4579,"stjerne":4580,"Ungarn":4581,"kristen":4582,"Anton":4583,"ix":4584,"halvøya":4585,"1918":4586,"fos":4587,"moder":4588,"sats":4589,"arke":4590,"League":4591,"mesterskap":4592,"nere":4593,"allierte":4594,"fulgt":4595,"offer":4596,"Sing":4597,"elsene":4598,"bestemte":4599,"uttrykk":4600,"aktig":4601,"dekket":4602,"alvor":4603,"biblio":4604,"anda":4605,"uk":4606,"munn":4607,"studier":4608,"CD":4609,"Juli":4610,"samfunnet":4611,"skreiv":4612,"smal":4613,"cher":4614,"kjøpte":4615,"plante":4616,"ht":4617,"bul":4618,"pir":4619,"bruks":4620,"publikum":4621,"Ole":4622,"tusen":4623,"yer":4624,"CA":4625,"fulle":4626,"utviklingen":4627,"bærer":4628,"administrat":4629,"hor":4630,"rige":4631,"dor":4632,"iat":4633,"Richard":4634,"Frem":4635,"spunktet":4636,"sendte":4637,"historien":4638,"arhundre":4639,"held":4640,"August":4641,"ena":4642,"Fe":4643,"særleg":4644,"gon":4645,"Charles":4646,"NT":4647,"fløy":4648,"versjonen":4649,"giver":4650,"løst":4651,"Tek":4652,"arkitekt":4653,"horn":4654,"messig":4655,"inse":4656,"1953":4657,"Res":4658,"spart":4659,"virksomhet":4660,"1924":4661,"Nap":4662,"spo":4663,"1943":4664,"ikkel":4665,"44":4666,"tilkny":4667,"krev":4668,"anen":4669,"vegen":4670,"informasjon":4671,"sset":4672,"skade":4673,"Hy":4674,"base":4675,"san":4676,"universitetet":4677,"ure":4678,"Cer":4679,".)":4680,"Lei":4681,"gass":4682,"taler":4683,"Frank":4684,"bland":4685,"sav":4686,"Østerrike":4687,"ikeren":4688,"stig":4689,"tilsvarende":4690,"Victor":4691,"tning":4692,"flagg":4693,"alp":4694,"Bow":4695,"Kristians":4696,"Sogn":4697,"jakt":4698,"forteller":4699,"viet":4700,"omfattende":4701,"offisielt":4702,"Mac":4703,"hoff":4704,"hur":4705,"Antarctic":4706,"syv":4707,"vald":4708,"Gjennom":4709,"1919":4710,"bilde":4711,"1000":4712,"punktet":4713,"finan":4714,"Folke":4715,"Tran":4716,"Stein":4717,"ress":4718,"mik":4719,"øren":4720,"hund":4721,"pave":4722,"utvidet":4723,"Omradet":4724,"uta":4725,"bein":4726,"male":4727,"1600":4728,"ungdoms":4729,"varer":4730,"darlig":4731,"situ":4732,"fortell":4733,"forlot":4734,"hodet":4735,"jazz":4736,"strat":4737,"aver":4738,"løper":4739,"retten":4740,"epis":4741,"øyane":4742,"fremdeles":4743,"Tu":4744,"friidrettsutøver":4745,"Pan":4746,"orer":4747,"Moskva":4748,"plat":4749,"Kunst":4750,"beskrevet":4751,"Pet":4752,"jef":4753,"Sven":4754,"organisasjonen":4755,"landsbyen":4756,"ansatte":4757,"vorte":4758,"mekan":4759,"Magn":4760,"jorden":4761,"uer":4762,"Harald":4763,"populære":4764,"1933":4765,"onia":4766,"ærlig":4767,"yngre":4768,"standard":4769,"jente":4770,"1951":4771,"preste":4772,"dokument":4773,"Dy":4774,"danna":4775,"kjende":4776,"wood":4777,"Knut":4778,"Songen":4779,"oversikt":4780,"log":4781,"46":4782,"elektron":4783,"FA":4784,"tyder":4785,"virket":4786,"turneringen":4787,"sterrik":4788,"vannet":4789,"pene":4790,"turne":4791,"posit":4792,"skiftet":4793,"ønne":4794,"høyt":4795,"møter":4796,"spørsmal":4797,"interesse":4798,"hvit":4799,"betegnelsen":4800,"him":4801,"deri":4802,"uttry":4803,"Stil":4804,"Mur":4805,"musikken":4806,"oder":4807,"King":4808,"passasjer":4809,"arme":4810,"planter":4811,"178":4812,"oden":4813,"styrkene":4814,"ifølge":4815,"ies":4816,"bal":4817,"skapen":4818,"spansk":4819,"lie":4820,"fordelt":4821,"byrja":4822,"endørs":4823,"Dist":4824,"ender":4825,"delta":4826,"stortings":4827,"ool":4828,"Il":4829,"gas":4830,"naværende":4831,"pavir":4832,"1932":4833,"amt":4834,"bestod":4835,"nemn":4836,"Louis":4837,"fry":4838,"wn":4839,"engt":4840,"ikar":4841,"ost":4842,"ose":4843,"vs":4844,"tunn":4845,"prø":4846,"uther":4847,"hevdet":4848,"samisk":4849,"prim":4850,"vold":4851,"vakt":4852,"otter":4853,"stemmer":4854,"Like":4855,"dømes":4856,"Intern":4857,"ledelse":4858,"Zealand":4859,"Gran":4860,"Stad":4861,"vanlige":4862,"Ku":4863,"spis":4864,"forsøkte":4865,"byens":4866,"drevet":4867,"42":4868,"gong":4869,"avsluttet":4870,"Lars":4871,"mistet":4872,"hot":4873,"offentlige":4874,"middels":4875,"Kin":4876,"dekker":4877,"1937":4878,"BC":4879,"utført":4880,"IS":4881,"vas":4882,"Ali":4883,"vatnet":4884,"fien":4885,"78":4886,"tering":4887,"hovedstaden":4888,"ary":4889,"kjer":4890,"aud":4891,"forfatt":4892,"Korea":4893,"skips":4894,"befolkning":4895,"utslatt":4896,"late":4897,"hou":4898,"field":4899,"tele":4900,"obje":4901,"innført":4902,"Belg":4903,"Pu":4904,"andreplass":4905,"Mens":4906,"boka":4907,"avtale":4908,"lim":4909,"ors":4910,"pian":4911,"uen":4912,"Tromsø":4913,"jert":4914,"jernbane":4915,"grenset":4916,"jevn":4917,"cupen":4918,"Lag":4919,"matikk":4920,"undervis":4921,"data":4922,"rieren":4923,"hjul":4924,"idge":4925,"plassering":4926,"Osc":4927,"advok":4928,"ffet":4929,"regn":4930,"bidrag":4931,"Fort":4932,"henger":4933,"arv":4934,"naden":4935,"ura":4936,"ytterligere":4937,"praks":4938,"tolv":4939,"Riks":4940,"kjøpt":4941,"rar":4942,"forsker":4943,"underfamilien":4944,"Lam":4945,"gin":4946,"ingeniør":4947,"sul":4948,"68":4949,"omtalt":4950,"alam":4951,"1934":4952,"samlingen":4953,"hjer":4954,"dets":4955,"unntak":4956,"mpl":4957,"rop":4958,"kardin":4959,"Royal":4960,"ae":4961,"trebukker":4962,"angrepet":4963,"ical":4964,"Finnmark":4965,"ettet":4966,"gjelder":4967,"NS":4968,"real":4969,"kyrkja":4970,"hab":4971,"Antarktis":4972,"støttet":4973,"uker":4974,"millimeter":4975,"bjørn":4976,"sjonen":4977,"sagt":4978,"Rø":4979,"ikasjon":4980,"sund":4981,"67":4982,"Sig":4983,"Jose":4984,"konkurranse":4985,"Jacob":4986,"mith":4987,"berøm":4988,"iserer":4989,"Sar":4990,"Midt":4991,"materiale":4992,"masse":4993,"rykk":4994,"spela":4995,"ishockey":4996,"Gener":4997,"soldat":4998,"altern":4999,"cia":5000,"600":5001,"Bod":5002,"maskin":5003,"1910":5004,"Nordland":5005,"pasitet":5006,"Fram":5007,"hast":5008,"gjeld":5009,"renner":5010,"58":5011,"Eurovision":5012,"Eg":5013,"hjelpe":5014,"analy":5015,"aden":5016,"tradte":5017,"Larvene":5018,"snart":5019,"ledd":5020,"Rock":5021,"ah":5022,"tyrk":5023,"nominert":5024,"ands":5025,"stadion":5026,"kull":5027,"reist":5028,"Dom":5029,"170":5030,"Mark":5031,"lande":5032,"fabrikk":5033,"avvik":5034,"retur":5035,"eiro":5036,"video":5037,"idar":5038,"egaende":5039,"sor":5040,"reser":5041,"forsta":5042,"ekstra":5043,"sum":5044,"veks":5045,"ory":5046,"Nic":5047,"Jean":5048,"teksten":5049,"1935":5050,"kaptein":5051,"1917":5052,"samen":5053,"deb":5054,"fritt":5055,"vate":5056,"vinteren":5057,"ktes":5058,"1908":5059,"99":5060,"board":5061,"listen":5062,"².":5063,"invol":5064,"Cat":5065,"veis":5066,"deren":5067,"kg":5068,"guvern":5069,"famili":5070,"gene":5071,"Tot":5072,"lest":5073,"uly":5074,"modell":5075,"bisped":5076,"dipl":5077,"bygda":5078,"mener":5079,"1914":5080,"kontrakt":5081,"Pol":5082,"cir":5083,"kning":5084,"bygninger":5085,"forsv":5086,"fødd":5087,"Black":5088,"føder":5089,"fordel":5090,"Bal":5091,"Em":5092,"bind":5093,"lager":5094,"inge":5095,"Studi":5096,"territ":5097,"fylkesvei":5098,"typer":5099,"fødte":5100,"oppdaga":5101,"-,":5102,"slet":5103,"byggingen":5104,"fjella":5105,"Ei":5106,"sed":5107,"Sid":5108,"list":5109,"fremste":5110,"Bus":5111,"sken":5112,"vinge":5113,"ellers":5114,"dynastiet":5115,"lede":5116,"medaljen":5117,"gjev":5118,"Kal":5119,"shus":5120,"Hill":5121,"bun":5122,"representerer":5123,"Jak":5124,"rerte":5125,"later":5126,"introdus":5127,"ulkan":5128,"ux":5129,"atten":5130,"spenn":5131,"Saint":5132,"handball":5133,"spar":5134,"fors":5135,"orkester":5136,"Ap":5137,"eksempl":5138,"skapte":5139,"Ott":5140,"1929":5141,"spi":5142,"Marie":5143,"Hennes":5144,"Arne":5145,"internasjonal":5146,"frig":5147,"bad":5148,"Anne":5149,"danner":5150,"krets":5151,"musikal":5152,"Max":5153,"kin":5154,"International":5155,"kanten":5156,"klare":5157,"Wal":5158,"metall":5159,"Athen":5160,"heilt":5161,"ytre":5162,"Park":5163,"hovedstad":5164,"Kan":5165,"myt":5166,"dersom":5167,"pi":5168,"bevart":5169,"arabisk":5170,"osisjon":5171,"scu":5172,"eta":5173,"konged":5174,"diske":5175,"undersø":5176,"Magnus":5177,"nærheten":5178,"nødvendig":5179,"anke":5180,"hust":5181,"stede":5182,"tradisjonelle":5183,"produksjonen":5184,"verda":5185,"Gust":5186,"sburg":5187,"utdannelse":5188,"ids":5189,"retnings":5190,"singelen":5191,"57":5192,"igheten":5193,"delar":5194,"bygger":5195,"Store":5196,"Oscar":5197,"Ri":5198,"formal":5199,"alog":5200,"bilder":5201,"1922":5202,"begynner":5203,"Cast":5204,"aktive":5205,"finansi":5206,"bokstav":5207,"Nik":5208,"embet":5209,"overført":5210,"wer":5211,"gjenopp":5212,"neg":5213,"Gul":5214,"tegn":5215,"andin":5216,"ivet":5217,"tjene":5218,"Cam":5219,"diale":5220,"byene":5221,"ittel":5222,"samband":5223,"69":5224,"solo":5225,"alistiske":5226,"motsetning":5227,"kraftige":5228,"følgje":5229,"jinga":5230,"Tyrk":5231,"Yo":5232,"foss":5233,"sere":5234,"grev":5235,"1921":5236,"Mi":5237,"draget":5238,"Agder":5239,"Janeiro":5240,"jel":5241,"bereg":5242,"forma":5243,"festivalen":5244,"etterhvert":5245,"alitet":5246,"minn":5247,"behand":5248,"Wa":5249,"krys":5250,"stun":5251,"don":5252,"CO":5253,"Samtidig":5254,"dømt":5255,"\"«":5256,"typisk":5257,"Kle":5258,"War":5259,"ogner":5260,"41":5261,"sikre":5262,"mob":5263,"museet":5264,"fotballspelar":5265,"Fotball":5266,"lyst":5267,"Tour":5268,"59":5269,"fød":5270,"elles":5271,"43":5272,"foreg":5273,"regissert":5274,"Ned":5275,"DS":5276,"1931":5277,"dent":5278,"College":5279,"driv":5280,"komponist":5281,"sey":5282,"Belgia":5283,"Fle":5284,"Smith":5285,"Dar":5286,"ota":5287,"Kultur":5288,"verker":5289,"zi":5290,"ugo":5291,"starta":5292,"sped":5293,"parlament":5294,"freds":5295,"Ark":5296,"Første":5297,"utgave":5298,"62":5299,"kateg":5300,"Nasjon":5301,"viss":5302,"økonomi":5303,"Dato":5304,"Ara":5305,"prosess":5306,"plant":5307,"legen":5308,"tilgjeng":5309,"los":5310,"ink":5311,"manske":5312,"Gil":5313,"praksis":5314,"Thor":5315,"Cent":5316,"Wilhelm":5317,"østlige":5318,"stykke":5319,"inv":5320,"inspirert":5321,"erstat":5322,"1927":5323,"177":5324,"IL":5325,"kommuner":5326,"Dis":5327,"Stra":5328,"tennene":5329,"aksep":5330,"minutter":5331,"lansert":5332,"Tsjekk":5333,"prosjektet":5334,"kjempet":5335,"Tar":5336,"fullstendig":5337,"blomster":5338,"levende":5339,"euro":5340,"inndeling":5341,"brede":5342,"landene":5343,"atør":5344,"skudd":5345,"Telemark":5346,"Contest":5347,"zo":5348,"Cro":5349,"cirka":5350,"ms":5351,"Josep":5352,"generelt":5353,"serer":5354,"delene":5355,"allet":5356,"1925":5357,"penger":5358,"selve":5359,"skoler":5360,"møn":5361,"institusjon":5362,"edel":5363,"andinav":5364,"serier":5365,"Francis":5366,"sun":5367,"føres":5368,"prøv":5369,"trær":5370,"tel":5371,"scen":5372,"kelser":5373,"mir":5374,"inngar":5375,"steg":5376,"63":5377,"kalte":5378,"Lø":5379,"mørke":5380,"oven":5381,"fødsel":5382,"kilder":5383,"Begge":5384,"stallert":5385,"etts":5386,"tilknytning":5387,"avholdt":5388,"prefe":5389,"Ron":5390,"sovjetiske":5391,"Fir":5392,"middelalderen":5393,"Kil":5394,"Mak":5395,"sete":5396,"finsk":5397,"Eit":5398,"Sun":5399,"verr":5400,"strateg":5401,"Vir":5402,"hyl":5403,"elege":5404,"frukt":5405,"delte":5406,"heldt":5407,"kopp":5408,"piske":5409,"avhengig":5410,"vendte":5411,"levert":5412,"back":5413,"medlemmene":5414,"Henry":5415,"enhet":5416,"klassisk":5417,"romersk":5418,"Bas":5419,"fullt":5420,"innsats":5421,"kommen":5422,"vera":5423,"vider":5424,"chester":5425,"Idrett":5426,"roll":5427,"ligaen":5428,"Orden":5429,"bit":5430,"cker":5431,"normalt":5432,"forvalt":5433,"japanske":5434,"Gri":5435,"skrifter":5436,"EU":5437,"størrelse":5438,"planet":5439,"uavhengig":5440,"kore":5441,"magasin":5442,"super":5443,"Que":5444,"brøt":5445,"bøn":5446,"landskapet":5447,"fylket":5448,"»).":5449,"sve":5450,"junior":5451,"skule":5452,"FN":5453,"bredt":5454,"avtalen":5455,"tilfeller":5456,"dobbelt":5457,"mpler":5458,"Fest":5459,"spekt":5460,"rommet":5461,"ivt":5462,"fremst":5463,"oftest":5464,"Hed":5465,"mane":5466,"gal":5467,"akia":5468,"scoret":5469,"fys":5470,"Ind":5471,"Joseph":5472,"ave":5473,"tredjeplass":5474,"parken":5475,"student":5476,"inten":5477,"Pron":5478,"rest":5479,"ikler":5480,"Pra":5481,"finale":5482,"avslut":5483,"hustru":5484,"uell":5485,"dronning":5486,"avgjør":5487,"king":5488,"noksa":5489,"Grøn":5490,"1923":5491,"kone":5492,"ungar":5493,"ologien":5494,"Nes":5495,"Øv":5496,"stemme":5497,"tonn":5498,"røde":5499,"Kristiania":5500,"sjette":5501,"Wien":5502,"besøk":5503,"tider":5504,"forfatteren":5505,"solgte":5506,"forholdsvis":5507,"øverste":5508,"straff":5509,"religiøse":5510,"veldig":5511,"1916":5512,"istene":5513,"blok":5514,"ange":5515,"Ant":5516,"midler":5517,"varierer":5518,"1926":5519,"Cu":5520,"besto":5521,"uke":5522,"Portug":5523,"Ur":5524,"veier":5525,"konservat":5526,"demon":5527,"tema":5528,"prinsi":5529,"Aleks":5530,"ader":5531,"sog":5532,"elin":5533,"Result":5534,"cc":5535,"vokal":5536,"fjellene":5537,"parall":5538,"kvel":5539,"sosiale":5540,"Hov":5541,"ddet":5542,"pasi":5543,"IF":5544,"Syd":5545,"Jar":5546,"52":5547,"uss":5548,"skape":5549,"fartøy":5550,"ften":5551,"timer":5552,"Pas":5553,"sko":5554,"tegne":5555,"innspil":5556,"inkluderer":5557,"Son":5558,"artar":5559,"rygg":5560,"Dra":5561,"160":5562,"Anna":5563,"benyttes":5564,"idet":5565,"opptak":5566,"opptre":5567,"konstruksjon":5568,"jam":5569,"Organ":5570,"kampene":5571,"hendelser":5572,"publisert":5573,"tilgjengelig":5574,"detal":5575,"Band":5576,"Fjord":5577,"fur":5578,"Middel":5579,"unna":5580,"sønnen":5581,"billene":5582,"1905":5583,"Love":5584,"Lat":5585,"dags":5586,"Mount":5587,"linjen":5588,"normal":5589,"Bandet":5590,"Wash":5591,"win":5592,"økt":5593,"skriven":5594,"omet":5595,"flytta":5596,"spred":5597,"etn":5598,"1911":5599,"grunnlag":5600,"School":5601,"Andreas":5602,"egentlig":5603,"hald":5604,"typen":5605,"hovudsak":5606,"hardt":5607,"cht":5608,"blast":5609,"ollar":5610,"hurtig":5611,"døds":5612,"enden":5613,"presenter":5614,"88":5615,"makten":5616,"Gal":5617,"innflytelse":5618,"buset":5619,"atret":5620,"arkitektur":5621,"fange":5622,"Music":5623,"utvikla":5624,"Syste":5625,"ont":5626,"fjernsyn":5627,"gjel":5628,"organisert":5629,"sok":5630,"Antennene":5631,"Aret":5632,"illust":5633,"iket":5634,"orium":5635,"Sunn":5636,"religion":5637,"private":5638,"ktige":5639,"elev":5640,"\";":5641,"Jør":5642,"Harry":5643,"foreningen":5644,"mitte":5645,"bær":5646,"olin":5647,"nederlandske":5648,"ij":5649,"arlig":5650,"yin":5651,"velser":5652,"hap":5653,"Peder":5654,"1913":5655,"sykl":5656,"oversett":5657,"grunnla":5658,"Søn":5659,"gjennomsnitt":5660,"syl":5661,"Pronotum":5662,"Bjør":5663,"karrieren":5664,"internasjonalt":5665,"salg":5666,"Tyrkia":5667,"arrester":5668,"østerrik":5669,"gaende":5670,"selvstendig":5671,"israel":5672,"drive":5673,"interv":5674,"union":5675,"amby":5676,"Sj":5677,"Bri":5678,"damp":5679,"trer":5680,"daglig":5681,"kontrol":5682,"initi":5683,"kkes":5684,"seri":5685,"trakt":5686,"61":5687,"Polit":5688,"austral":5689,"hind":5690,"Hansen":5691,"musiker":5692,"Bob":5693,"Hor":5694,"Nær":5695,"bir":5696,"smann":5697,"slalam":5698,"Dekk":5699,"enheter":5700,"Romsdal":5701,"komiteen":5702,"bedrift":5703,"vulkan":5704,"Hels":5705,"olley":5706,"Art":5707,"kastet":5708,"spring":5709,"turist":5710,"Øya":5711,"spolit":5712,"iro":5713,"langrenn":5714,"anne":5715,"Dram":5716,"meg":5717,"arrange":5718,"vogn":5719,"matiske":5720,"avisen":5721,"strekker":5722,"rute":5723,"bukta":5724,"Plan":5725,"astron":5726,"sykehus":5727,"got":5728,"videregaende":5729,"Washington":5730,"minner":5731,"ES":5732,"Hei":5733,"sveit":5734,"synes":5735,"forut":5736,"egy":5737,"regissør":5738,"somme":5739,"ekspedisjon":5740,"lek":5741,"utover":5742,"folketell":5743,"resp":5744,"Beat":5745,"ødelag":5746,"Ceramby":5747,"nordaust":5748,"Bul":5749,"studenter":5750,"Hard":5751,"reform":5752,"sekun":5753,"rere":5754,"uan":5755,"Scott":5756,"stiden":5757,"forklar":5758,"skjel":5759,"byra":5760,"identif":5761,"1904":5762,"Cerambyc":5763,"innsjøen":5764,"Leon":5765,"rikt":5766,"handlinger":5767,"kvarter":5768,"May":5769,"enfor":5770,"Rosen":5771,"grader":5772,"pensjon":5773,"Kas":5774,"opptil":5775,"prosjekt":5776,"skapt":5777,"Dermed":5778,"kanalen":5779,"hentet":5780,"framleis":5781,"hindre":5782,"kommersi":5783,"Sted":5784,"skildr":5785,"gens":5786,"format":5787,"ppene":5788,"rocke":5789,"holdsvis":5790,"rappor":5791,"56":5792,"somheten":5793,"Af":5794,"alistisk":5795,"brune":5796,"dele":5797,"cent":5798,"sørover":5799,"bese":5800,"plata":5801,"1906":5802,"okkupa":5803,"islam":5804,"kammer":5805,"salt":5806,"likhet":5807,"tverr":5808,"North":5809,"protest":5810,"Sangen":5811,"Committe":5812,"advokat":5813,"South":5814,"næring":5815,"arder":5816,"treng":5817,"nordover":5818,"sammenlig":5819,"Arn":5820,"Forsvar":5821,"Namnet":5822,"sommar":5823,"anti":5824,"Bet":5825,"flat":5826,"ensen":5827,"forsy":5828,"maned":5829,"økte":5830,"konger":5831,"sons":5832,"VI":5833,"atak":5834,"cus":5835,"inene":5836,"Ludvig":5837,"produserte":5838,"Tidligere":5839,"Kam":5840,"verdig":5841,"Prix":5842,"Committee":5843,"organisasjoner":5844,"Rob":5845,"gjennomført":5846,"løse":5847,"Flor":5848,"parlamentet":5849,"rinn":5850,"az":5851,"Gunn":5852,"oppmerk":5853,"sykdom":5854,"bildet":5855,"ym":5856,"Elva":5857,"overfor":5858,"Karriere":5859,"fav":5860,"bach":5861,"Ce":5862,"kritikk":5863,"bb":5864,"51":5865,"hammer":5866,"sur":5867,"yo":5868,"ior":5869,"takt":5870,"Jens":5871,"USAs":5872,"Ev":5873,"desig":5874,"Venstre":5875,"54":5876,"miner":5877,"sitter":5878,"elli":5879,"annon":5880,"elektrisk":5881,"Administ":5882,"sammenheng":5883,"ati":5884,"instrument":5885,"filosofi":5886,"lavere":5887,"Stre":5888,"agelig":5889,"Sein":5890,"Troms":5891,"erobret":5892,"Ring":5893,"jødiske":5894,"vidare":5895,"rot":5896,"driver":5897,"skerne":5898,"Mont":5899,"opprinnelse":5900,"Bis":5901,"120":5902,"77":5903,"kjerne":5904,"yret":5905,"henholdsvis":5906,"forslag":5907,"rekkje":5908,"RA":5909,"profesjonell":5910,"Handling":5911,"nedlagt":5912,"dekor":5913,"skogen":5914,"vag":5915,"tydelig":5916,"doktorg":5917,"tidlige":5918,"fotograf":5919,"adel":5920,"bydel":5921,"oget":5922,"inc":5923,"1907":5924,"front":5925,"Dekkvingene":5926,"semifinalen":5927,"hai":5928,"tung":5929,"klassif":5930,"Folkere":5931,"kvad":5932,"UN":5933,"illa":5934,"somrade":5935,"stader":5936,"God":5937,"saks":5938,"arabiske":5939,"forsvars":5940,"Gol":5941,"unta":5942,"endring":5943,"Eid":5944,"its":5945,"elever":5946,"erfar":5947,"begrenset":5948,"pinyin":5949,"terer":5950,"1915":5951,"Sentral":5952,"liber":5953,"ekteskap":5954,"Museum":5955,"Ola":5956,"alis":5957,"itenskap":5958,"tn":5959,"klima":5960,"stet":5961,"Hann":5962,"forsvaret":5963,"punkter":5964,"teori":5965,"ellene":5966,"kreft":5967,"prøve":5968,"osi":5969,"representert":5970,"Film":5971,"Kristiansand":5972,"løn":5973,"Rol":5974,"æren":5975,"sjoner":5976,"Pl":5977,"Mary":5978,"pte":5979,"skikk":5980,"vinger":5981,"Sø":5982,"Argent":5983,"Bø":5984,"Albert":5985,"skij":5986,"begrepet":5987,"vokser":5988,"ekspedisjonen":5989,"problem":5990,"Ør":5991,"bidro":5992,"imp":5993,"Tan":5994,"vey":5995,"indiske":5996,"passet":5997,"kamer":5998,"stikk":5999,"forkort":6000,"Chic":6001,"700":6002,"bered":6003,"eksperi":6004,"holdet":6005,"begrav":6006,"uch":6007,"populært":6008,"Hitler":6009,"Cal":6010,"enez":6011,"dog":6012,"cks":6013,"...":6014,"slett":6015,"anled":6016,"nelse":6017,"Tex":6018,"Sw":6019,"besø":6020,"Gruppen":6021,"Hum":6022,"forbed":6023,"Statens":6024,"Veien":6025,"endringer":6026,"hom":6027,"tekster":6028,"skiller":6029,"søy":6030,"sjen":6031,"virkelig":6032,"well":6033,"bøkene":6034,"enna":6035,"hjør":6036,"zen":6037,"lanter":6038,"hekk":6039,"kane":6040,"flyet":6041,"Jim":6042,"grunnet":6043,"1909":6044,"FL":6045,"Konstant":6046,"Ban":6047,"Ukra":6048,"Folkerepublikken":6049,"53":6050,"1890":6051,"oni":6052,"Olsen":6053,"kvinnelige":6054,"Høg":6055,"gards":6056,"prins":6057,"republikken":6058,"samarbeidet":6059,"eiendom":6060,"ekstre":6061,"ødelagt":6062,"angri":6063,"ningar":6064,"behov":6065,"Lund":6066,"Rag":6067,"sikkerhet":6068,"tvil":6069,"erklær":6070,"apo":6071,"Helsing":6072,"anlegget":6073,"priser":6074,"forsamling":6075,"naturlig":6076,"Radio":6077,"nedbør":6078,"forholdet":6079,"Portugal":6080,"skor":6081,"prefektur":6082,"jeneste":6083,"Jakob":6084,"reiser":6085,"1200":6086,"nærmere":6087,"biler":6088,"kors":6089,"søraust":6090,"Rogaland":6091,"kne":6092,"baten":6093,"\"(":6094,"trekke":6095,"spirasjon":6096,"press":6097,"vedtatt":6098,"vad":6099,"cer":6100,"ов":6101,"tidige":6102,"linger":6103,"Cup":6104,"oppretta":6105,"leiar":6106,"Klubben":6107,"Skj":6108,"jev":6109,"Munchen":6110,"aer":6111,"fo":6112,"portug":6113,"tilhørte":6114,"ennar":6115,"foreldre":6116,"kadem":6117,"faste":6118,"medisin":6119,"dominer":6120,"yt":6121,"konsul":6122,"Folket":6123,"gata":6124,"Lie":6125,"spele":6126,"kapell":6127,"dollar":6128,"design":6129,"revolusjonen":6130,"ues":6131,"provins":6132,"nevnes":6133,"prote":6134,"Green":6135,"pes":6136,"98":6137,"Skolen":6138,"farger":6139,"klass":6140,"olleyball":6141,"republikk":6142,"ansvaret":6143,"Teater":6144,"elly":6145,"OS":6146,"elu":6147,"deltatt":6148,"indi":6149,"overgang":6150,"abel":6151,"manus":6152,"ili":6153,"Anders":6154,"teik":6155,"underlagt":6156,"Program":6157,"Est":6158,"Dal":6159,"grep":6160,"Otto":6161,"arrestert":6162,"major":6163,"kok":6164,"ringen":6165,"separ":6166,"Lands":6167,"och":6168,"Sve":6169,"utstilling":6170,"skatt":6171,"haug":6172,"foto":6173,"ønsker":6174,"terreng":6175,"Nils":6176,"forretnings":6177,"scupen":6178,"Lind":6179,"politiet":6180,"Musikk":6181,"Off":6182,"Tru":6183,"tilknyttet":6184,"administrasjons":6185,"Ob":6186,"She":6187,"belte":6188,"sannsynligvis":6189,"aværende":6190,"Person":6191,"unnga":6192,"lille":6193,"isol":6194,"Brun":6195,"ival":6196,"Mos":6197,"kanon":6198,"hellige":6199,"Alexander":6200,"orier":6201,"oblast":6202,"isa":6203,"selen":6204,"tapt":6205,"utvikle":6206,"Ass":6207,"utny":6208,"sion":6209,"basis":6210,"verte":6211,"ressur":6212,"mmelig":6213,"ankom":6214,"utgjorde":6215,"Akershus":6216,"Colum":6217,"akul":6218,"værende":6219,"Ung":6220,"uttet":6221,"95":6222,"svøm":6223,"demokratiske":6224,"øvre":6225,"skrip":6226,"Adam":6227,"sive":6228,"afrik":6229,"aring":6230,"føringen":6231,"kjenner":6232,"FI":6233,"mikro":6234,"tnant":6235,"innlem":6236,"vokalist":6237,"amask":6238,"Ang":6239,"Compan":6240,"redusert":6241,"Venez":6242,"gaste":6243,"krimin":6244,"diam":6245,"McC":6246,"kvalitet":6247,"Harr":6248,"Lit":6249,"magnet":6250,"papir":6251,"ligste":6252,"styrt":6253,"Møre":6254,"bys":6255,"mørk":6256,"avn":6257,"avsl":6258,"Fire":6259,"distri":6260,"ansvarlig":6261,"kandidat":6262,"dyp":6263,"Samme":6264,"mord":6265,"oth":6266,"dres":6267,"ident":6268,"erob":6269,"lis":6270,"fanter":6271,"einaste":6272,"iang":6273,"aks":6274,"settes":6275,"una":6276,"musikkalbum":6277,"romanen":6278,"omtale":6279,"fik":6280,"brig":6281,"Lee":6282,"serne":6283,"forekommer":6284,"72":6285,"ghan":6286,"innspel":6287,"Ann":6288,"okkuper":6289,"metal":6290,"skjold":6291,"Edvard":6292,"ule":6293,"Kamp":6294,"Johann":6295,"hon":6296,"ptur":6297,"sentralt":6298,"programmer":6299,"datert":6300,"oritet":6301,"tempel":6302,"Nasjonal":6303,"Tak":6304,"Ras":6305,"urn":6306,"nektet":6307,"Fried":6308,"Tok":6309,"markedet":6310,"registrert":6311,"erkebiskop":6312,"Les":6313,"enta":6314,"bater":6315,"klat":6316,"gran":6317,"taket":6318,"»),":6319,"mier":6320,"kilde":6321,"apne":6322,"reaksjon":6323,"Vestfold":6324,"present":6325,"Dr":6326,"norr":6327,"Kra":6328,"1903":6329,"Desse":6330,"guvernør":6331,"Bol":6332,"Billboard":6333,"faktisk":6334,"miljøet":6335,"Lyn":6336,"Kraft":6337,"utsatt":6338,"halvparten":6339,"karet":6340,"utvalg":6341,"kanal":6342,"1902":6343,"Kap":6344,"øvrig":6345,"ssjef":6346,"skisk":6347,"inneheld":6348,"Club":6349,"amper":6350,"sidene":6351,"gyl":6352,"trans":6353,"hørte":6354,"line":6355,"truleg":6356,"kunnskap":6357,"avstand":6358,"Dre":6359,"NO":6360,"nyere":6361,"visjon":6362,"NK":6363,"dans":6364,"Jesus":6365,"Bodø":6366,"atmos":6367,"It":6368,"Sl":6369,"plater":6370,"iar":6371,"pag":6372,"himmel":6373,"gym":6374,"drama":6375,"uren":6376,"cup":6377,"korn":6378,"gress":6379,"ografisk":6380,"ican":6381,"gruppene":6382,"jorda":6383,"adisk":6384,"borte":6385,"systemer":6386,"fantes":6387,"tilsyn":6388,"tromme":6389,"ower":6390,"Senter":6391,"etapp":6392,"fortsette":6393,"Fu":6394,"British":6395,"Kyr":6396,"Len":6397,"syd":6398,"Christiania":6399,"omi":6400,"frivil":6401,"Names":6402,"itu":6403,"Gab":6404,"representanter":6405,"høgaste":6406,"1901":6407,"itte":6408,"oppstod":6409,"Dor":6410,"kombinert":6411,"86":6412,"Mis":6413,"æra":6414,"installert":6415,"slin":6416,"minste":6417,"Odd":6418,"artsrike":6419,"gerne":6420,"klin":6421,"skrives":6422,"nederlandsk":6423,"skytter":6424,"Først":6425,"kule":6426,"alem":6427,"enner":6428,"halde":6429,"songane":6430,"reguler":6431,"skriftet":6432,"Sport":6433,"utgaven":6434,"ografiske":6435,"planlagt":6436,"arbeidde":6437,"High":6438,"send":6439,"Grunn":6440,"hovudsakleg":6441,"ua":6442,"97":6443,"lass":6444,"oversatt":6445,"Dem":6446,"Argentina":6447,"jøder":6448,"smy":6449,"rov":6450,"arets":6451,"veget":6452,"kvens":6453,"argu":6454,"egypt":6455,"somradet":6456,"spissen":6457,"europa":6458,"arm":6459,"oppgaver":6460,"bøy":6461,"ubile":6462,"landslag":6463,"kjærlig":6464,"Ukraina":6465,"itten":6466,"selskaper":6467,"broren":6468,"kelige":6469,"lufthavn":6470,"derkopp":6471,"stilen":6472,"Camp":6473,"hage":6474,"Matt":6475,"laste":6476,"revet":6477,"stitusjon":6478,"Hord":6479,"sjeld":6480,"Fær":6481,"forand":6482,"kirker":6483,"Long":6484,"EP":6485,"Mand":6486,"Tøn":6487,"Viet":6488,"hennar":6489,"jordbruk":6490,"grunnlaget":6491,"diplomat":6492,"vekk":6493,"visse":6494,"frie":6495,"formelt":6496,"Ses":6497,"saledes":6498,"elag":6499,"Fro":6500,"ls":6501,"agog":6502,"Napole":6503,"effektiv":6504,"flytte":6505,"NU":6506,"aton":6507,"opplys":6508,"ista":6509,"utenriks":6510,"sammenlagt":6511,"Hvis":6512,"styrte":6513,"Georgia":6514,"undersøk":6515,"bosatt":6516,"element":6517,"1880":6518,"hail":6519,"bevegelse":6520,"iter":6521,"pool":6522,"mad":6523,"Ingen":6524,"ussen":6525,"beseiret":6526,"tradisjonelt":6527,"lende":6528,"vitenskapelige":6529,"ordre":6530,"beholdt":6531,"Wind":6532,"nu":6533,"Norden":6534,"Rein":6535,"konse":6536,"Krig":6537,"oph":6538,"Fylkesveg":6539,"ksjoner":6540,"volleyball":6541,"kjempe":6542,"ira":6543,"grønn":6544,"bruket":6545,"belg":6546,"Star":6547,"æres":6548,"1898":6549,"vingen":6550,"mig":6551,"boset":6552,"opprøret":6553,"alf":6554,"øvrige":6555,"millionar":6556,"resul":6557,"Bell":6558,"Cas":6559,"retter":6560,"mengder":6561,"cover":6562,"stater":6563,"Konstantin":6564,"Hein":6565,"eie":6566,"læring":6567,"byttet":6568,"Sau":6569,"Hil":6570,"SA":6571,"uri":6572,"blin":6573,"Company":6574,"involvert":6575,"formede":6576,"UK":6577,"antatt":6578,"lave":6579,"Barcel":6580,"not":6581,"Chicago":6582,"roller":6583,"sterne":6584,"endal":6585,"oslov":6586,"perioder":6587,"anerne":6588,"radgiver":6589,"formid":6590,"sjelden":6591,"ksik":6592,"komple":6593,"befinner":6594,"deriblant":6595,"øper":6596,"hebra":6597,"Got":6598,"reservat":6599,"omrada":6600,"totale":6601,"Familie":6602,"Gustav":6603,"die":6604,"Wales":6605,"etabler":6606,"myndigheter":6607,"Ford":6608,"dir":6609,"skraft":6610,"sivile":6611,"armen":6612,"pafølgende":6613,"forsknings":6614,"Mes":6615,"Bat":6616,"Just":6617,")\"":6618,"iddel":6619,"landhockey":6620,"beth":6621,"finske":6622,"livs":6623,"skadet":6624,"cur":6625,"grunnlegger":6626,"bestaende":6627,"ctor":6628,"urop":6629,"verv":6630,"slott":6631,"leiken":6632,"hall":6633,"daværende":6634,"Inge":6635,"lane":6636,"Santa":6637,"Navy":6638,"mog":6639,"ikkert":6640,"forskere":6641,"forhand":6642,"kongelige":6643,"tab":6644,"Ordet":6645,"Organis":6646,"unds":6647,"tiller":6648,"tvun":6649,"marine":6650,"ics":6651,"Middels":6652,"bronsemedalje":6653,"tvang":6654,"antagelig":6655,"Champ":6656,"forble":6657,"flest":6658,"Serien":6659,"Nok":6660,"zhou":6661,"asteroide":6662,"slu":6663,"stern":6664,"blanding":6665,"aw":6666,"bidra":6667,"fullførte":6668,"gge":6669,"skader":6670,"polske":6671,"ugoslav":6672,"tunnel":6673,"omfattet":6674,"fungerte":6675,"kardinal":6676,"Spr":6677,"grunnleg":6678,"brakte":6679,"komed":6680,"Salt":6681,"dru":6682,"veksl":6683,"jernen":6684,"messige":6685,"vensjon":6686,"initiativ":6687,"eid":6688,"kjøret":6689,"Edward":6690,"vice":6691,"flertall":6692,"Hakon":6693,"Uten":6694,"sjakk":6695,"Lake":6696,"variant":6697,"ingane":6698,"utvikler":6699,"Hamar":6700,"sex":6701,"brua":6702,"presse":6703,"General":6704,"Frederik":6705,"flekker":6706,"Ros":6707,"industrien":6708,"Es":6709,"ava":6710,"portugis":6711,"250":6712,"ther":6713,"klassiske":6714,"96":6715,"oppstar":6716,"festet":6717,"Sidan":6718,"xi":6719,"innvand":6720,"oriet":6721,"kjøpe":6722,"stykket":6723,"budd":6724,"opphavleg":6725,"Petter":6726,"rettigheter":6727,"tarn":6728,"Hodet":6729,"møtet":6730,"Rei":6731,"øres":6732,"innendørs":6733,"cand":6734,"konflikt":6735,"see":6736,"bury":6737,"Middelsstore":6738,"dals":6739,"Universitet":6740,"zer":6741,"lyktes":6742,"abet":6743,"utøvere":6744,"starter":6745,"mulighet":6746,"riktig":6747,"Juni":6748,"tømmer":6749,"avdel":6750,"alko":6751,"risten":6752,"spesielle":6753,"Hordaland":6754,"chsen":6755,"konfer":6756,"hed":6757,"Stan":6758,"Atlant":6759,"kommunist":6760,"yre":6761,"laus":6762,"prøvde":6763,"AP":6764,"avdøde":6765,"sølvmedalje":6766,"Barcelona":6767,"Young":6768,"Drammen":6769,"Aur":6770,"zon":6771,"Cle":6772,"ns":6773,"Luft":6774,"92":6775,"skipa":6776,"fattig":6777,"Spil":6778,"helst":6779,"White":6780,"innte":6781,"prosessen":6782,"eventyr":6783,"komman":6784,"odok":6785,"øyne":6786,"undervisning":6787,"vesent":6788,"atnet":6789,"Ib":6790,"starte":6791,"styres":6792,"Plat":6793,"ressen":6794,"eitt":6795,"kommunest":6796,"Dam":6797,"Fi":6798,"war":6799,"særs":6800,"nak":6801,"definert":6802,"nordiske":6803,"Bud":6804,"voll":6805,"assist":6806,"Are":6807,"statene":6808,"ki":6809,"1896":6810,"studie":6811,"venner":6812,"Vel":6813,"vokst":6814,"sprogram":6815,"trukket":6816,"polsk":6817,"færen":6818,"87":6819,"oppgave":6820,"bruken":6821,"bren":6822,"bibliote":6823,"Simon":6824,"radik":6825,"900":6826,"dagar":6827,"skinn":6828,"flyg":6829,"nov":6830,"arch":6831,"dyre":6832,"bourg":6833,"ots":6834,"ksjonen":6835,"River":6836,"Biografi":6837,"jak":6838,"Bos":6839,"slutning":6840,"tten":6841,"wan":6842,"signerte":6843,"Tidlig":6844,"Nat":6845,"bortsett":6846,"Texas":6847,"Arbeiderpartiet":6848,"mottatt":6849,"mønster":6850,"vem":6851,"Jerus":6852,"manu":6853,"Carol":6854,"bard":6855,"stjerner":6856,"edderkopp":6857,"Imidlertid":6858,"ito":6859,"naz":6860,"tsjekk":6861,"dør":6862,"Manchester":6863,"ulert":6864,"gradvis":6865,"ukjent":6866,"jurid":6867,"fylt":6868,"kvadrat":6869,"edyr":6870,"Gull":6871,"begynt":6872,"lens":6873,"bekre":6874,"Fjell":6875,"82":6876,"middelalder":6877,"egnet":6878,"lyse":6879,"rede":6880,"aktige":6881,"budt":6882,"American":6883,"gitarist":6884,"1899":6885,"kated":6886,"Jern":6887,"rud":6888,"liga":6889,"artikler":6890,"melse":6891,"forar":6892,"Hon":6893,"Kenn":6894,"opptatt":6895,"nadd":6896,"ettere":6897,"viter":6898,"Vilhelm":6899,"Pier":6900,"Anlegget":6901,"Pen":6902,"live":6903,"utga":6904,"Cre":6905,"Vas":6906,"omer":6907,"unne":6908,"vika":6909,"sporet":6910,"Sjølv":6911,"cil":6912,"Videre":6913,"enor":6914,"moren":6915,"lon":6916,"Kirken":6917,"eide":6918,"ryt":6919,"sche":6920,"sporter":6921,"bae":6922,"høyrer":6923,"Victoria":6924,"adiske":6925,"Arth":6926,"pron":6927,"bruddet":6928,"lassen":6929,"skulptur":6930,"Rod":6931,"ex":6932,"How":6933,"insekter":6934,"Wer":6935,"gaard":6936,"fann":6937,"antarkt":6938,"Kjelder":6939,"shire":6940,"familier":6941,"integr":6942,"buss":6943,"idd":6944,"Kinas":6945,"sekund":6946,"«\"":6947,"marks":6948,"Iran":6949,"Kim":6950,"skir":6951,"verdskrigen":6952,"eda":6953,"kommunale":6954,"Mounta":6955,"has":6956,"Che":6957,"Cerambycidae":6958,"bryt":6959,"Vietnam":6960,"ces":6961,"Pak":6962,"kulturen":6963,"1870":6964,"Valle":6965,"hull":6966,"nande":6967,"vt":6968,"skad":6969,"lend":6970,"Alt":6971,"umiddel":6972,"Od":6973,"flykt":6974,"ortodok":6975,"skyld":6976,"Pop":6977,"Strøm":6978,"Syria":6979,"utanfor":6980,"bene":6981,"sprint":6982,"jarl":6983,"latinske":6984,"Emil":6985,"fremmet":6986,"løsning":6987,"europeisk":6988,"Dess":6989,"Jeg":6990,"utgangspunkt":6991,"høgd":6992,"76":6993,"lers":6994,"kurs":6995,"pavirket":6996,"ukra":6997,"beskriver":6998,"gule":6999,"yen":7000,"banken":7001,"arbeidere":7002,"iana":7003,"gonger":7004,"Vo":7005,"scenen":7006,"Gram":7007,"fronten":7008,"ial":7009,"akh":7010,"ønske":7011,"Friedrich":7012,"cial":7013,"mengde":7014,"Litt":7015,"rent":7016,"komment":7017,"brukar":7018,"Atlanter":7019,"Fylkesvei":7020,"Sigur":7021,"Øvre":7022,"kjel":7023,"fanger":7024,"fro":7025,"hog":7026,"antas":7027,"alternativ":7028,"endra":7029,"høve":7030,"vidt":7031,"høgskole":7032,"tion":7033,"Fjordane":7034,"intervju":7035,"Liver":7036,"lokalt":7037,"knytt":7038,"automat":7039,"originale":7040,"avstem":7041,"skotske":7042,"bonde":7043,"osmanske":7044,"fjernet":7045,"Høyre":7046,"sult":7047,"støt":7048,"Ray":7049,"Wood":7050,"hvilket":7051,"øys":7052,"myndighetene":7053,"Bæ":7054,"nært":7055,"chi":7056,"opphold":7057,"svømmer":7058,"Elisa":7059,"71":7060,"ats":7061,"Point":7062,"konserter":7063,"patri":7064,"Rundt":7065,"Jerusalem":7066,"ianter":7067,"Oly":7068,"skilde":7069,"halvdel":7070,"gjøres":7071,"symp":7072,"Bulgar":7073,"TA":7074,"Bach":7075,"utstyrt":7076,"bille":7077,"89":7078,"kantonen":7079,"inve":7080,"une":7081,"krevde":7082,"premi":7083,"studere":7084,"misjonen":7085,"skomite":7086,"Poli":7087,"dekkvingene":7088,"gram":7089,"Irak":7090,"berømte":7091,"1897":7092,"tekter":7093,"Blu":7094,"Had":7095,"car":7096,"erklærte":7097,"Mann":7098,"iko":7099,"romant":7100,"tilfelle":7101,"kontinent":7102,"VG":7103,"hunder":7104,"mottak":7105,"posten":7106,"Bein":7107,"Larsen":7108,"skrivelse":7109,"hastighet":7110,"Day":7111,"Las":7112,"itch":7113,"skarab":7114,"monu":7115,"resultatet":7116,"Indi":7117,"grunnen":7118,"Sma":7119,"App":7120,"setningen":7121,"Molde":7122,"130":7123,"ela":7124,"Bry":7125,"smak":7126,"Natur":7127,"mektig":7128,"platt":7129,"tag":7130,"diag":7131,"festival":7132,"etterfulgt":7133,"Arthur":7134,"sperio":7135,"Vis":7136,"Tim":7137,"kongens":7138,"akultet":7139,"kva":7140,"meldte":7141,"ryggen":7142,"idens":7143,"barnet":7144,"Maur":7145,"klosteret":7146,"Nob":7147,"Soc":7148,"Ober":7149,"teknisk":7150,"fysikk":7151,"elve":7152,"planer":7153,"74":7154,"spek":7155,"trykket":7156,"Stille":7157,"kapasitet":7158,"platesel":7159,"Dersom":7160,"Gren":7161,"Jørgen":7162,"79":7163,"lengste":7164,"hevder":7165,"Isa":7166,"forlag":7167,"Europe":7168,"oppe":7169,"kolle":7170,"brutt":7171,"Lillehammer":7172,"Fur":7173,"order":7174,"skamp":7175,"tilgang":7176,"Befolk":7177,"Survey":7178,"elementer":7179,"Ekse":7180,"Kl":7181,"Kval":7182,"ift":7183,"jul":7184,"oppnadde":7185,"master":7186,"iga":7187,"løpe":7188,"Ox":7189,"bran":7190,"eksamen":7191,"Ki":7192,"Beatles":7193,"samfunns":7194,"opptreden":7195,"væp":7196,"antallet":7197,"rollene":7198,"Kort":7199,"edal":7200,"eleir":7201,"hag":7202,"dvs":7203,"omgang":7204,"Ken":7205,"Andersen":7206,"oppmerksomhet":7207,"cha":7208,"1895":7209,"modellen":7210,"kommunene":7211,"skjær":7212,"Tol":7213,"potensi":7214,"ante":7215,"legging":7216,"tradisjonell":7217,"botn":7218,"hug":7219,"Liverpool":7220,"plikt":7221,"omot":7222,"naut":7223,"Rik":7224,"harmon":7225,"melodi":7226,"ows":7227,"tekniske":7228,"sau":7229,"teknologi":7230,"finans":7231,"bakke":7232,"Jones":7233,"unnelen":7234,"opt":7235,"ations":7236,"spilleren":7237,"besøkte":7238,"skarabider":7239,"istikk":7240,"frø":7241,"muslim":7242,"Nan":7243,"Slaget":7244,"sønner":7245,"dorf":7246,"Prin":7247,"tvunget":7248,"110":7249,"nik":7250,"Olymp":7251,"media":7252,"styrken":7253,"brasil":7254,"1860":7255,"sjanger":7256,"astro":7257,"viktigaste":7258,"hamn":7259,"betegnelse":7260,"sonen":7261,"ledere":7262,"ottet":7263,"fastlandet":7264,"):":7265,"mental":7266,"ynor":7267,"mert":7268,"bryter":7269,"Aleksander":7270,"bombe":7271,"gor":7272,"ience":7273,"83":7274,"uttalte":7275,"Distrik":7276,"ligner":7277,"klubber":7278,"merker":7279,"Ari":7280,"sver":7281,"konsep":7282,"disku":7283,"1300":7284,"rekl":7285,"ioner":7286,"tynne":7287,"inneholdt":7288,"holdes":7289,"ittet":7290,"day":7291,"hann":7292,"holmen":7293,"billed":7294,"faktor":7295,"bytte":7296,"lings":7297,"sykkel":7298,"hire":7299,"nærmest":7300,"linjer":7301,"dirig":7302,"skilte":7303,"Holly":7304,"sideelv":7305,"bebygg":7306,"ugen":7307,"Has":7308,"flyktet":7309,"dring":7310,"Sande":7311,"rammet":7312,"besluttet":7313,"jøen":7314,"produkt":7315,"Verdens":7316,"ordnet":7317,"stren":7318,"Gor":7319,"tanke":7320,"orte":7321,"beskytt":7322,"hensyn":7323,"terror":7324,"kommunikasjon":7325,"Mul":7326,"jobber":7327,"asjert":7328,"frihet":7329,"Arendal":7330,"Sval":7331,"skøyter":7332,"Sul":7333,"nader":7334,"øke":7335,"fersk":7336,"Sav":7337,"ila":7338,"1100":7339,"soli":7340,"usen":7341,"trinn":7342,"festning":7343,"Topp":7344,"oppna":7345,"asjonar":7346,"isbre":7347,"Tønsberg":7348,"ordfør":7349,"repet":7350,"coun":7351,"84":7352,"endelig":7353,"poet":7354,"paret":7355,"last":7356,"maleri":7357,"kkede":7358,"elektriske":7359,"apning":7360,"Osl":7361,"spilles":7362,"Avis":7363,"Fredrikstad":7364,"East":7365,"mul":7366,"arden":7367,"utvid":7368,"ovo":7369,"andel":7370,"Valer":7371,"Brown":7372,"Napoleon":7373,"ii":7374,"avan":7375,"ition":7376,"ters":7377,"slar":7378,"organer":7379,"dømme":7380,"ruten":7381,"sikret":7382,"sakalt":7383,"Derfor":7384,"markerte":7385,"artister":7386,"gjent":7387,"ums":7388,"1814":7389,"Die":7390,"kortere":7391,"gammal":7392,"presidenten":7393,"ørken":7394,"æl":7395,"kerne":7396,"kreps":7397,"teknikk":7398,"olia":7399,"Geografi":7400,"Helsingfors":7401,"leia":7402,"spør":7403,"artikkel":7404,"lenker":7405,"skyting":7406,"hud":7407,"meisterskapen":7408,"sloven":7409,"baner":7410,"asjonene":7411,"gri":7412,"vara":7413,"mangler":7414,"skille":7415,"Opprinn":7416,"ologen":7417,"ridder":7418,"favor":7419,"varig":7420,"Romania":7421,"glass":7422,"Kur":7423,"bassad":7424,"katolsk":7425,"beskrev":7426,"svak":7427,"Daniel":7428,"aktivt":7429,"landskap":7430,"anere":7431,"piano":7432,"Dun":7433,"IA":7434,"Luc":7435,"Borg":7436,"stro":7437,"infanter":7438,"Greg":7439,"tettsted":7440,"fungerer":7441,"personen":7442,"73":7443,"Bank":7444,"Tal":7445,"blet":7446,"Sag":7447,"elver":7448,"1889":7449,"ado":7450,"lengst":7451,"Street":7452,"omo":7453,"ship":7454,"Skipet":7455,"BA":7456,"urch":7457,"lund":7458,"skutt":7459,"avnet":7460,"apt":7461,"tyrkiske":7462,"lekene":7463,"prøver":7464,"vendt":7465,"utte":7466,"time":7467,"Ball":7468,"Indre":7469,"velge":7470,"Lau":7471,"palass":7472,"doktorgrad":7473,"ruter":7474,"denes":7475,"tronen":7476,"komst":7477,"zy":7478,"teke":7479,"Sak":7480,"produkter":7481,"forfattere":7482,"Kirke":7483,"strom":7484,"mond":7485,"sdag":7486,"baserte":7487,"elleve":7488,"motiv":7489,"personlige":7490,"flukt":7491,"brasili":7492,"oms":7493,"rader":7494,"scene":7495,"hval":7496,"iges":7497,"nasjoner":7498,"Filipp":7499,"tiltak":7500,"Sin":7501,"tann":7502,"skommun":7503,"VII":7504,"refle":7505,"hop":7506,"individuelle":7507,"81":7508,"Bygg":7509,"Ungdom":7510,"maktene":7511,"stiller":7512,"løytnant":7513,"Ye":7514,"ction":7515,"bunn":7516,"jøl":7517,"ase":7518,"øyen":7519,"firmaet":7520,"Bulgaria":7521,"opptrer":7522,"Bang":7523,"muligens":7524,"Tam":7525,"atar":7526,"anlagt":7527,"Østfold":7528,"Rud":7529,"Kli":7530,"lette":7531,"kav":7532,"bibliotek":7533,"forskjell":7534,"sekunder":7535,"telefon":7536,"Div":7537,"uavhengighet":7538,"premiere":7539,"94":7540,"Live":7541,"1892":7542,"Water":7543,"etterfølger":7544,"karbon":7545,"ødel":7546,"verdenscupen":7547,"Hver":7548,"deg":7549,"Virgin":7550,"namngjeven":7551,"fare":7552,"kens":7553,"1893":7554,"Big":7555,"Williams":7556,"energ":7557,"markeds":7558,"fysisk":7559,"BBC":7560,"lagkonkurransen":7561,"kretser":7562,"Sta":7563,"introdusert":7564,"Beina":7565,"dømmet":7566,"fabrikken":7567,"tev":7568,"institutt":7569,"fuglar":7570,"ump":7571,"tropp":7572,"buddh":7573,"Lil":7574,"anmel":7575,"handlingen":7576,"sports":7577,"minutt":7578,"maksi":7579,"intern":7580,"høre":7581,"Provin":7582,"kartlagd":7583,"rifter":7584,"eigen":7585,"Societ":7586,"Ren":7587,"naturlige":7588,"1894":7589,"tegninger":7590,"nedre":7591,"annan":7592,"økende":7593,"Jackson":7594,"trommeslag":7595,"etablere":7596,"barna":7597,"regionale":7598,"Gunnar":7599,"ruppen":7600,"ios":7601,"butikk":7602,"nabo":7603,"Gir":7604,"spur":7605,"marsj":7606,"skipene":7607,"keiseren":7608,"Hos":7609,"Hamburg":7610,"kommende":7611,"Roger":7612,"abor":7613,"misk":7614,"gjande":7615,"Scara":7616,"sentrasjon":7617,"enkle":7618,"Open":7619,"oul":7620,"hemmelig":7621,"Islands":7622,"kommando":7623,"FK":7624,"litterære":7625,"Corn":7626,"Allerede":7627,"Systematisk":7628,"skulen":7629,"Ris":7630,"rundet":7631,"akse":7632,"anner":7633,"olis":7634,"yngste":7635,"mytologi":7636,"straffe":7637,"fyrst":7638,"inva":7639,"Alfred":7640,"kropps":7641,"konvensjon":7642,"bydelen":7643,"Old":7644,"invi":7645,"Patri":7646,"eksemplarer":7647,"Bull":7648,"Hur":7649,"total":7650,"bevisst":7651,"irske":7652,"administrative":7653,"Scarabae":7654,"planen":7655,"jal":7656,"skaffe":7657,"oldt":7658,"tidene":7659,"Pi":7660,"Francisco":7661,"bridge":7662,"utgivelser":7663,"wig":7664,"Ivar":7665,"teborg":7666,"stabil":7667,"diameter":7668,"DR":7669,"eti":7670,"gaten":7671,"Sara":7672,"versjoner":7673,"idretts":7674,"tettstedet":7675,"galler":7676,"irsk":7677,"danne":7678,"Win":7679,"Lad":7680,"pon":7681,"Kristian":7682,"TO":7683,"lover":7684,"ello":7685,"Asker":7686,"perman":7687,"1891":7688,"ining":7689,"politikken":7690,"Bærum":7691,"mangel":7692,"Not":7693,"temperaturen":7694,"folketellingen":7695,"1400":7696,"senten":7697,"heil":7698,"klasser":7699,"Award":7700,"grepet":7701,"Syn":7702,"Town":7703,"Im":7704,"jobb":7705,"oppløst":7706,"døpt":7707,"ferdsel":7708,"testam":7709,"trommer":7710,"pekt":7711,"mentert":7712,"Romer":7713,";/":7714,"regler":7715,"Byr":7716,"bue":7717,"Joe":7718,"Heid":7719,"monark":7720,"prosjekter":7721,"opera":7722,"sistnevnte":7723,"bryst":7724,"Sem":7725,"ssel":7726,"ifra":7727,"speil":7728,"belig":7729,"oten":7730,"AB":7731,"Artene":7732,"milliarder":7733,"Elisabeth":7734,"lia":7735,"blo":7736,"opna":7737,"resultater":7738,"One":7739,"kkene":7740,"seieren":7741,"varianter":7742,"betale":7743,"Ettersom":7744,"fatte":7745,"ance":7746,"cadem":7747,"McCart":7748,"biner":7749,"larver":7750,"itar":7751,"vannkraftverk":7752,"tyskerne":7753,"skop":7754,"holdning":7755,"rival":7756,"moen":7757,"iken":7758,"poly":7759,"fangst":7760,"krefter":7761,"sinne":7762,"nasjonalpark":7763,"ledelsen":7764,"spartiet":7765,"Foren":7766,"stasjoner":7767,"pse":7768,"assistent":7769,"jent":7770,"1850":7771,"trus":7772,"vitenskapelig":7773,"Pale":7774,"Mik":7775,"rektor":7776,"larvene":7777,"ambassad":7778,"publiserte":7779,"Lenn":7780,"tron":7781,"Hammer":7782,"oppsto":7783,"lau":7784,"legges":7785,"sterdam":7786,"grat":7787,"orgel":7788,"Cha":7789,"forbi":7790,"forleng":7791,"kompet":7792,"graden":7793,"Tsjekkoslov":7794,"manager":7795,"Liste":7796,"rekt":7797,"innhold":7798,"gers":7799,"Nu":7800,"oma":7801,"utenlandske":7802,"Vegen":7803,"Deres":7804,"Step":7805,"Adolf":7806,"idde":7807,"avgjort":7808,"produserer":7809,"bevar":7810,"nasjonalt":7811,"Dylan":7812,"dit":7813,"stin":7814,"oka":7815,"Amsterdam":7816,"forfattar":7817,"Lor":7818,"farget":7819,"prog":7820,"hunn":7821,"anbe":7822,"Auster":7823,"tilnær":7824,"sident":7825,"modern":7826,"pedagog":7827,"fanget":7828,"1885":7829,"tit":7830,"produsere":7831,"Ac":7832,"Jugoslav":7833,"splan":7834,"alvorlig":7835,"Lis":7836,"avdelingen":7837,"utgrav":7838,"alkohol":7839,"Coll":7840,"røne":7841,"selva":7842,"godkjent":7843,"bilen":7844,"Lok":7845,"fullført":7846,"France":7847,"Queen":7848,"prefekturet":7849,"virker":7850,"egenskaper":7851,"Jord":7852,"skaffet":7853,"NFL":7854,"partier":7855,"striper":7856,"zab":7857,"høv":7858,"Oh":7859,"PA":7860,"Clau":7861,"komposisjon":7862,"SV":7863,"natten":7864,"sender":7865,"rie":7866,"filmene":7867,"brett":7868,"bispedømme":7869,"140":7870,"Afghan":7871,"Por":7872,"elat":7873,"Law":7874,"fjerne":7875,"overtatt":7876,"dukket":7877,"kvinnen":7878,"Union":7879,"Eksterne":7880,"93":7881,"Regjer":7882,"kapp":7883,"tilstand":7884,"hevet":7885,"Wolf":7886,"wich":7887,"Sachsen":7888,"utgangspunktet":7889,"oga":7890,"flytt":7891,"morgen":7892,"py":7893,"skyldes":7894,"geland":7895,"inspirasjon":7896,"Hay":7897,"grønne":7898,"opter":7899,"utelu":7900,"3000":7901,"Group":7902,"etisk":7903,"konsentrasjon":7904,"fremme":7905,"Dahl":7906,"paver":7907,"erkl":7908,"drepte":7909,"likten":7910,"ament":7911,"Svalbard":7912,"Ker":7913,"løv":7914,"rust":7915,"engene":7916,"1888":7917,"Dø":7918,"dialekt":7919,"Ales":7920,"blikk":7921,"Time":7922,"Lov":7923,"skift":7924,"forskjellig":7925,"hersker":7926,"Steve":7927,"Bad":7928,"Turner":7929,"Olavs":7930,"situasjonen":7931,"MA":7932,"Nort":7933,"villa":7934,"utlandet":7935,"kjern":7936,"nordlege":7937,"fusjon":7938,"sørlege":7939,"okkupasjon":7940,"Cra":7941,"overflaten":7942,"Wilson":7943,"House":7944,"fenomen":7945,"Blo":7946,"eksisterte":7947,"Ross":7948,"lese":7949,"ylor":7950,"nedenfor":7951,"--":7952,"anty":7953,"skyte":7954,"omkom":7955,"programleder":7956,"Bayern":7957,"Football":7958,"utry":7959,"strekningen":7960,"avgjørende":7961,"representere":7962,"Ten":7963,"rund":7964,"hydr":7965,"dekke":7966,"Mic":7967,"forsik":7968,"Gamle":7969,"Partiet":7970,"Middelhavet":7971,"Sund":7972,"faller":7973,"ube":7974,"pronotum":7975,"pad":7976,"row":7977,"pok":7978,"tun":7979,"Pres":7980,"koloni":7981,"Kron":7982,"Ern":7983,"fattet":7984,"sammensla":7985,"Bart":7986,"storm":7987,"Johnson":7988,"møre":7989,"sler":7990,"zig":7991,"begynne":7992,"kalde":7993,"hvilken":7994,"blues":7995,"pig":7996,"iseres":7997,"now":7998,"stev":7999,"modeller":8000,"metode":8001,"spesif":8002,"lagde":8003,"handelen":8004,"tone":8005,"bust":8006,"bjør":8007,"sjøl":8008,"levd":8009,"konsentr":8010,"Ing":8011,"verdensmesterskapet":8012,"fakultet":8013,"Doug":8014,"Familien":8015,"rekorden":8016,"Anti":8017,"Preussen":8018,"»-":8019,"inngikk":8020,"admir":8021,"eies":8022,"ensis":8023,"kjennet":8024,"odor":8025,"tradisjonen":8026,"sering":8027,"profil":8028,"datamask":8029,"Nikola":8030,"kalen":8031,"vilkar":8032,"fisker":8033,"jule":8034,"spedisjonen":8035,"beina":8036,"maskiner":8037,"Pic":8038,"oci":8039,"forlate":8040,"opplæring":8041,"kos":8042,"straling":8043,"attra":8044,"dighet":8045,"forbered":8046,"kjøre":8047,"hest":8048,"Einar":8049,"ombord":8050,"1884":8051,"fril":8052,"hvem":8053,"spredt":8054,"Dur":8055,"søke":8056,"Junior":8057,"tilbyr":8058,"dimen":8059,"Bert":8060,"pend":8061,"henrettet":8062,"Vig":8063,"fiolin":8064,"somt":8065,"Blom":8066,"fored":8067,"verka":8068,"utø":8069,"Tun":8070,"høyden":8071,"91":8072,"eksisterer":8073,"foreslatt":8074,"fortsetter":8075,"Holm":8076,"inndelt":8077,"Ala":8078,"kall":8079,"virksomheten":8080,"gutt":8081,"sving":8082,"Sot":8083,"And":8084,"berget":8085,"stamme":8086,"bri":8087,"ois":8088,"eli":8089,"Bare":8090,"Columbia":8091,"Lom":8092,"country":8093,"tidspunkt":8094,"his":8095,"guverne":8096,"samla":8097,"Bran":8098,"opprette":8099,"Great":8100,"alfabet":8101,"Moss":8102,"pur":8103,"høyr":8104,"magasinet":8105,"kirkes":8106,"aviser":8107,"observ":8108,"nemnd":8109,"bent":8110,"kab":8111,"nautiske":8112,"flyfoto":8113,"truet":8114,"foregar":8115,"Distriktet":8116,"fed":8117,"Lev":8118,"Melodi":8119,"gjere":8120,"strakt":8121,"kjører":8122,"figurer":8123,"stolen":8124,"nynor":8125,"spital":8126,"forstyr":8127,"liknande":8128,"fla":8129,"forster":8130,"Enkel":8131,"størst":8132,"bredere":8133,"1883":8134,"apent":8135,"flyplass":8136,"strøk":8137,"antik":8138,"anerkjent":8139,"Walter":8140,"kulturelle":8141,"Laur":8142,"bunnen":8143,"aser":8144,"metoder":8145,"artiller":8146,"aven":8147,"1848":8148,"anga":8149,"Lew":8150,"betal":8151,"gli":8152,"Road":8153,"drikke":8154,"Wei":8155,"urner":8156,"skild":8157,"innførte":8158,"forholdene":8159,"Rot":8160,"offensi":8161,"Sydney":8162,"Academ":8163,"slottet":8164,"øt":8165,"Goteborg":8166,"norrøne":8167,"sommerfugler":8168,"mitt":8169,"vestover":8170,"kryss":8171,"virkning":8172,"fysiske":8173,"Estland":8174,"Sveriges":8175,"klokken":8176,"analyse":8177,"down":8178,"ydro":8179,"Pakistan":8180,"itat":8181,"iteter":8182,"framført":8183,"Akadem":8184,"Va":8185,"frit":8186,"føde":8187,"betraktet":8188,"Jugoslavia":8189,"Veg":8190,"utgivelsen":8191,"koll":8192,"malte":8193,"Sigurd":8194,"troll":8195,"tjenestegjorde":8196,"returnerte":8197,"aljon":8198,"tilpas":8199,"kongedømmet":8200,"Sof":8201,"tilhørende":8202,"Tsjekkoslovakia":8203,"raf":8204,"rut":8205,"Shang":8206,"svitenskap":8207,"Tokyo":8208,"kjennelse":8209,"Bag":8210,"Skog":8211,"Nepal":8212,"gjennomførte":8213,"Lux":8214,"hvitt":8215,"penge":8216,"tilsvarer":8217,"sjer":8218,"kretsen":8219,"vanlegvis":8220,"hebraisk":8221,"span":8222,"chus":8223,"krever":8224,"sportsutøver":8225,"Josef":8226,"vedlike":8227,"1886":8228,"grunnlagd":8229,"Laget":8230,"just":8231,"spesiell":8232,"Grønland":8233,"Gabri":8234,"amo":8235,"Cape":8236,"vindu":8237,"Gen":8238,"kven":8239,"setninger":8240,"Oster":8241,"sesse":8242,"show":8243,"konver":8244,"perifer":8245,"møl":8246,"trening":8247,"eksempelvis":8248,"non":8249,"leil":8250,"Viken":8251,"jødisk":8252,"Faren":8253,"fortalte":8254,"gods":8255,"budsj":8256,"batter":8257,"partiets":8258,"innlemmet":8259,"viterus":8260,"Filip":8261,"vedtok":8262,"bulgar":8263,"Alesund":8264,"flyr":8265,"Republikken":8266,"Likevel":8267,"Donald":8268,"Stal":8269,"kalk":8270,"verdensmester":8271,"Sus":8272,"ansje":8273,"familieg":8274,"beve":8275,"matematikk":8276,"raske":8277,"kome":8278,"Stats":8279,"1882":8280,"1881":8281,"Wo":8282,"gifte":8283,"trenger":8284,"bergs":8285,"døden":8286,"Champion":8287,"Taylor":8288,"kolleg":8289,"bære":8290,"østover":8291,"Post":8292,"rings":8293,"hof":8294,"senior":8295,"splass":8296,"kaste":8297,"historiker":8298,"bedrifter":8299,"fossen":8300,"Associ":8301,"Enkelte":8302,"Skandinav":8303,"Christop":8304,"Ton":8305,"hat":8306,"lus":8307,"%.":8308,"verse":8309,"Garden":8310,"naturreservat":8311,"Mike":8312,"nytte":8313,"radisjon":8314,"debatt":8315,"visst":8316,"iserings":8317,"aldt":8318,"ape":8319,"nemlig":8320,"blokker":8321,"sjuk":8322,"Seinare":8323,"tas":8324,"neset":8325,"observat":8326,"ulik":8327,"Horn":8328,"fine":8329,"budet":8330,"stykker":8331,"militært":8332,"motorer":8333,"Him":8334,"sesonger":8335,"melige":8336,"musk":8337,"reness":8338,"brødrene":8339,"republikan":8340,"seremon":8341,"engasjert":8342,"synet":8343,"imper":8344,"gongen":8345,"ular":8346,"polar":8347,"omfattar":8348,"nat":8349,"støy":8350,"domen":8351,"Bergens":8352,"maling":8353,"krysset":8354,"konservative":8355,"ratt":8356,"Will":8357,"busjon":8358,"ami":8359,"Kateg":8360,"Sir":8361,"teken":8362,"fjerdeplass":8363,"yting":8364,"arig":8365,"Kjell":8366,"studioalbumet":8367,"kelen":8368,"tillat":8369,"klet":8370,"skildra":8371,"oidea":8372,"konstruert":8373,"gymnas":8374,"Afghanistan":8375,"budde":8376,"gravlagt":8377,"ques":8378,"Sud":8379,"Ak":8380,"Oli":8381,"aki":8382,"øyet":8383,"slekter":8384,"sort":8385,"sklub":8386,"Little":8387,"kob":8388,"Kos":8389,"foruten":8390,"Stone":8391,"utspring":8392,"merte":8393,"mala":8394,"arkiv":8395,"medvirket":8396,"Maked":8397,"IT":8398,"kjenne":8399,"hjerte":8400,"era":8401,"enga":8402,"sprang":8403,"israelske":8404,"stendige":8405,"oberst":8406,"igen":8407,"ates":8408,"lister":8409,"human":8410,"ao":8411,"utform":8412,"regjeringa":8413,"\":":8414,"Best":8415,"melt":8416,"Skien":8417,"riksvei":8418,"Skar":8419,"unntatt":8420,"preg":8421,"jernbanen":8422,"protestant":8423,"ortodokse":8424,"Tit":8425,"Alp":8426,"leie":8427,"Aar":8428,"lokalisert":8429,"tidspunktet":8430,"Stør":8431,"Liber":8432,"sketball":8433,"avisa":8434,"kampan":8435,"leddet":8436,"interesser":8437,"tennis":8438,"hotell":8439,"etiske":8440,"rup":8441,"Mars":8442,"Johansen":8443,"kontoret":8444,"seter":8445,"VD":8446,"ørdag":8447,"ulf":8448,"retninger":8449,"auton":8450,"fund":8451,"jud":8452,"voks":8453,"lærte":8454,"fallet":8455,"forarsa":8456,"Bib":8457,"bibel":8458,"muligheter":8459,"skihopp":8460,"Fjellet":8461,"malerier":8462,"tjenester":8463,"kontro":8464,"на":8465,"Fjorden":8466,"kjærlighet":8467,"Life":8468,"BS":8469,"celler":8470,"ofon":8471,"tarnet":8472,"key":8473,"spiss":8474,"Kre":8475,"wards":8476,"aux":8477,"stans":8478,"varia":8479,"Tidleg":8480,"nettverk":8481,"Cuba":8482,"iere":8483,"bratt":8484,"ardin":8485,"kunstnere":8486,"skab":8487,"etta":8488,"ighetene":8489,"sammenhen":8490,"1878":8491,"Sæ":8492,"ørt":8493,"auen":8494,"prøys":8495,"strekkjer":8496,"stundes":8497,"CC":8498,"umen":8499,"Boken":8500,"slapp":8501,"nie":8502,"keis":8503,"bek":8504,"zabeth":8505,"Blue":8506,"tilheng":8507,"ittene":8508,"beord":8509,"ikkelen":8510,"forsamlingen":8511,"fortel":8512,"feste":8513,"Franco":8514,"forbindelser":8515,"Florida":8516,"umin":8517,"studiet":8518,"Top":8519,"stoppe":8520,"oter":8521,"search":8522,"Colom":8523,"alsk":8524,"Kent":8525,"kombinasjon":8526,"Elizabeth":8527,"Nordre":8528,"Tysklands":8529,"markert":8530,"sproduksjon":8531,"grensene":8532,"assosi":8533,"antikken":8534,"nivaet":8535,"lyn":8536,"ones":8537,"stemmene":8538,"presentant":8539,"Society":8540,"flok":8541,"haugen":8542,"styremedlem":8543,"Hollywood":8544,"grunnleggende":8545,"dver":8546,"Deut":8547,"øynene":8548,"Vlad":8549,"popular":8550,"bryg":8551,"Rolf":8552,"stund":8553,"burde":8554,"iki":8555,"Monte":8556,"ittelen":8557,"statsrad":8558,"skatte":8559,"Brand":8560,"middelsstor":8561,"Holmen":8562,"ordning":8563,"rerende":8564,"respekt":8565,"mete":8566,"nokon":8567,"utbredelse":8568,"forretning":8569,"Aut":8570,"Premier":8571,"hensikt":8572,"steinen":8573,"Produksjon":8574,"feltt":8575,"Venezia":8576,"pul":8577,"mobil":8578,"gjest":8579,"ake":8580,"Svein":8581,"havnet":8582,"Church":8583,"Shi":8584,"1875":8585,"oppfat":8586,"hellig":8587,"1871":8588,"Kommune":8589,"egn":8590,"gjaldt":8591,"Alban":8592,"Play":8593,"kino":8594,"opptradte":8595,"eksil":8596,"overflate":8597,"Flo":8598,"matt":8599,"velly":8600,"sørget":8601,"uc":8602,"ness":8603,"stedene":8604,"Ama":8605,"betydelige":8606,"Antwer":8607,"lederen":8608,"dominerende":8609,"Penn":8610,"turn":8611,"volum":8612,"Dronning":8613,"hell":8614,"kna":8615,"rulle":8616,"forny":8617,"blandet":8618,"interessert":8619,"elberg":8620,"omtales":8621,"heste":8622,"teorien":8623,"derende":8624,"hagen":8625,"olas":8626,"katastro":8627,"sisten":8628,"Alexand":8629,"dokumentar":8630,"gat":8631,"linga":8632,"produsenten":8633,"Gjø":8634,"IK":8635,"PS":8636,"skritt":8637,"Tekn":8638,"beregnet":8639,"Hag":8640,"Spor":8641,"Nation":8642,"østen":8643,"Nye":8644,"tidsskriftet":8645,"musikere":8646,"pset":8647,"bredde":8648,"Eric":8649,"eds":8650,"matikken":8651,"funksjoner":8652,"eliv":8653,"Ernst":8654,"marinen":8655,"stjene":8656,"undergrunn":8657,"blokk":8658,"tropper":8659,"oke":8660,"utgaver":8661,"Begrepet":8662,"1887":8663,"Nov":8664,"vens":8665,"gs":8666,"basen":8667,"Hong":8668,"Liban":8669,"ai":8670,"rekr":8671,"Grim":8672,"Bowl":8673,"Hedmark":8674,"svømming":8675,"valet":8676,"svoll":8677,"benytter":8678,"mesteparten":8679,"gesund":8680,"Brad":8681,"lagte":8682,"skala":8683,"religiøs":8684,"akademiet":8685,"hailand":8686,"invester":8687,"æs":8688,"isteden":8689,"Sesongen":8690,"Kategori":8691,"munningen":8692,"Massa":8693,"firma":8694,"beskyttelse":8695,"Hart":8696,"korps":8697,"passasjerer":8698,"oversettelse":8699,"Brian":8700,"flam":8701,"hovedkvarter":8702,"Fru":8703,"vernet":8704,"yrke":8705,"Sosi":8706,"turnering":8707,"vesentlig":8708,"Medlem":8709,"spraklige":8710,"innanfor":8711,"terne":8712,"arsak":8713,"nærmeste":8714,"røtter":8715,"musikalske":8716,"Brann":8717,"Night":8718,"regjerings":8719,"Slik":8720,"tror":8721,"vises":8722,"Sky":8723,"Franz":8724,"Administrat":8725,"Guang":8726,"Christopher":8727,"datteren":8728,"funne":8729,"diktet":8730,"avle":8731,"Sandnes":8732,"Hem":8733,"verdien":8734,"Vat":8735,"wald":8736,"1877":8737,"pist":8738,"drepe":8739,"listene":8740,"tiar":8741,"helgen":8742,"naturen":8743,"utstillingen":8744,"sommaren":8745,"uvanlig":8746,"opplevde":8747,"dern":8748,"urg":8749,"bysant":8750,"praktisk":8751,"saka":8752,"ines":8753,"forhandling":8754,"kvalifiserte":8755,"profesjonelle":8756,"sukker":8757,"iber":8758,"Peru":8759,"flagget":8760,"Stillehavet":8761,"ensel":8762,"odden":8763,"NTNU":8764,"Ener":8765,"Slike":8766,"kritiker":8767,"Tw":8768,"1879":8769,"evne":8770,"skotsk":8771,"bekreftet":8772,"bes":8773,"Stand":8774,"Mari":8775,"østerrikske":8776,"beskytte":8777,"frat":8778,"ceae":8779,"rase":8780,"begrep":8781,"innvalgt":8782,"Cy":8783,"bakter":8784,"organiserte":8785,"hovudstaden":8786,"resulterte":8787,"landhockeyspiller":8788,"Dire":8789,"chan":8790,"designet":8791,"SK":8792,"teres":8793,"havne":8794,"grunnlov":8795,"Guine":8796,"Antwerpen":8797,"utendørs":8798,"borgar":8799,"lønn":8800,"Knud":8801,"Rich":8802,"ardo":8803,"Fos":8804,"ads":8805,"right":8806,"strekning":8807,"forsvant":8808,"fell":8809,"Davis":8810,"humor":8811,"veksten":8812,"Larvik":8813,"innslag":8814,"Jensen":8815,"eige":8816,"maur":8817,"selde":8818,"buk":8819,"koordin":8820,"innledende":8821,"Bjer":8822,"vill":8823,"kritisk":8824,"Trondhjem":8825,"Nielsen":8826,"atre":8827,"tekne":8828,"regimet":8829,"umiddelbart":8830,"Serbia":8831,"trett":8832,"drives":8833,"Graham":8834,"Rør":8835,"saret":8836,"teoret":8837,"tropiske":8838,"veggen":8839,"fjær":8840,"samlinger":8841,"hvilke":8842,"vesenet":8843,"oksy":8844,"svinger":8845,"Stedet":8846,"Bun":8847,"PC":8848,"cken":8849,"with":8850,"worth":8851,"Nedre":8852,"dotter":8853,"Klo":8854,"guden":8855,"Europ":8856,"eleder":8857,"etterpa":8858,"styrer":8859,"signal":8860,"verks":8861,"utbygging":8862,"Margar":8863,"Lim":8864,"tilsku":8865,"instrumenter":8866,"ders":8867,"utseende":8868,"asi":8869,"Fame":8870,"deltag":8871,"turneen":8872,"vilje":8873,"Cham":8874,"boliger":8875,"Tel":8876,"midlertidig":8877,"øverst":8878,"graver":8879,"stoppet":8880,"'.":8881,"Aften":8882,"fargen":8883,"Madrid":8884,"byane":8885,"hovedrollen":8886,"ffen":8887,"kaller":8888,"Hert":8889,"skjønn":8890,"streng":8891,"krysser":8892,"Net":8893,"konkurrerte":8894,"NKP":8895,"smale":8896,"Institutt":8897,"Research":8898,"alls":8899,"inkluderte":8900,"endre":8901,"alisme":8902,"Ivan":8903,"Team":8904,"verdige":8905,"skjønt":8906,"Sat":8907,"glas":8908,"overlevde":8909,"bodd":8910,"atia":8911,"gjenstander":8912,"operativ":8913,"cast":8914,"dannar":8915,"bredden":8916,"avdelinger":8917,"His":8918,"tilbud":8919,"jesu":8920,"overfl":8921,"utten":8922,"Kroppen":8923,"Operasjon":8924,"kvalifiseringen":8925,"hallen":8926,"oy":8927,"betydningen":8928,"Bygningen":8929,"McCartney":8930,"sinn":8931,"motoren":8932,"oro":8933,"ray":8934,"Poly":8935,"Viking":8936,"tørr":8937,"igj":8938,"dahl":8939,"ambassadør":8940,"dato":8941,"ralen":8942,"eine":8943,"Andrew":8944,"Makedonia":8945,"Dessuten":8946,"jd":8947,"Sverre":8948,"lettere":8949,"verdier":8950,"musli":8951,"jener":8952,"cal":8953,"ttene":8954,"Alf":8955,"Arets":8956,"helik":8957,"nyttar":8958,"broen":8959,"atorer":8960,"alpin":8961,"gde":8962,"viking":8963,"laten":8964,"State":8965,"Strand":8966,"sogne":8967,"Atlanterhavet":8968,"Bruk":8969,"kavaler":8970,"Ah":8971,"Petersburg":8972,"vitskap":8973,"elvene":8974,"Kapp":8975,"rol":8976,"ppel":8977,"britene":8978,"Sic":8979,"ventet":8980,"beskjed":8981,"utførte":8982,"Chris":8983,"overrask":8984,"sangene":8985,"myndighet":8986,"gjeste":8987,"adres":8988,"motstander":8989,"undersøkelser":8990,"jernban":8991,"Vag":8992,"sies":8993,"fylte":8994,"biblioteket":8995,"gruve":8996,"Medal":8997,"arrangeres":8998,"Ash":8999,"farts":9000,"utfordr":9001,"Dol":9002,"Jordan":9003,"hara":9004,"divisjonen":9005,"meld":9006,"stengt":9007,"skur":9008,"Balt":9009,"foten":9010,"Bør":9011,"aku":9012,"embed":9013,"eksempler":9014,"Nokre":9015,"slikt":9016,"pus":9017,"romaner":9018,"Rolling":9019,"rødt":9020,"kjernen":9021,"jup":9022,"sji":9023,"ск":9024,"ence":9025,"ally":9026,"diagno":9027,"reder":9028,"ires":9029,"Linux":9030,"Gun":9031,"driften":9032,"Az":9033,"Virginia":9034,"Wis":9035,"aman":9036,"Henri":9037,"stoffer":9038,"Libanon":9039,"AC":9040,"betong":9041,"invasjonen":9042,"Gjer":9043,"ER":9044,"stran":9045,"tilstrekk":9046,"idag":9047,"open":9048,"sekven":9049,"IX":9050,"damer":9051,"arlige":9052,"arkeologiske":9053,"Show":9054,"1865":9055,"Lewis":9056,"sjubile":9057,"Rand":9058,"rytter":9059,"Engel":9060,"Sab":9061,"egyptiske":9062,"Organisasjonen":9063,"unden":9064,"Ep":9065,"feir":9066,"LP":9067,"edy":9068,"cle":9069,"strø":9070,"Føl":9071,"regne":9072,"original":9073,"asiat":9074,"besle":9075,"Sn":9076,"Resultater":9077,"1876":9078,"syklist":9079,"nynorsk":9080,"mengden":9081,"igjennom":9082,"tredende":9083,"frid":9084,"attedyr":9085,"Stasjonen":9086,"supp":9087,"muligheten":9088,"plu":9089,"lita":9090,"primær":9091,"eininga":9092,"innbyggerne":9093,"skud":9094,"benytte":9095,"hild":9096,"Sm":9097,"likter":9098,"Christen":9099,"skerud":9100,"jobben":9101,"nære":9102,"obal":9103,"figuren":9104,"from":9105,"iktet":9106,"sundet":9107,"opplag":9108,"yste":9109,"formes":9110,"kanoner":9111,"evangel":9112,"nedover":9113,"Ikke":9114,"opel":9115,"nøyaktig":9116,"offisiell":9117,"ongol":9118,"svik":9119,"deltakere":9120,"repar":9121,"familiegruppen":9122,"sikte":9123,"foreslo":9124,"inntekt":9125,"Morten":9126,"Nag":9127,"Mester":9128,"1864":9129,"adi":9130,"fasc":9131,"frigjør":9132,"redig":9133,"Bibelen":9134,"Klas":9135,"kvalifisering":9136,"detaljer":9137,"tyrkisk":9138,"undersøkelse":9139,"omfru":9140,"Kongen":9141,"komedie":9142,"skapasitet":9143,"dannes":9144,"Pom":9145,"lisk":9146,"aya":9147,"fallende":9148,"ulen":9149,"innebærer":9150,"opprettelsen":9151,"borgerkrigen":9152,"mannlige":9153,"objekt":9154,"belteasteroide":9155,"char":9156,"kontrover":9157,"pli":9158,"Bot":9159,"Gene":9160,"norges":9161,"Py":9162,"unst":9163,"plast":9164,"Alta":9165,"Formel":9166,"furt":9167,"Out":9168,"1840":9169,"sone":9170,"Baby":9171,"Høsten":9172,"kvarandre":9173,"gjengel":9174,"brut":9175,"Pierre":9176,"Upp":9177,"atra":9178,"redaksjon":9179,"Tir":9180,"nettopp":9181,"Buskerud":9182,"Arts":9183,"vanligste":9184,"Hovud":9185,"Haug":9186,"nylig":9187,"melod":9188,"Oppland":9189,"komponert":9190,"PD":9191,"amen":9192,"sosialistiske":9193,"vegg":9194,"Kh":9195,"Landet":9196,"anni":9197,"vinkel":9198,"givende":9199,"spredte":9200,"Gyl":9201,"vede":9202,"spillerne":9203,"EF":9204,"Rek":9205,"ological":9206,"vapenet":9207,"muslimske":9208,"Advis":9209,"sitte":9210,"utelukk":9211,"aksje":9212,"Falk":9213,"Sarps":9214,"Delt":9215,"grevskapet":9216,"bønder":9217,"etasje":9218,"menterte":9219,"bryte":9220,"Lav":9221,"handlet":9222,"team":9223,"reklame":9224,"Gott":9225,"1861":9226,"norrønt":9227,"Center":9228,"kurran":9229,"Tang":9230,"out":9231,"tunge":9232,"kona":9233,"kunsten":9234,"nadene":9235,"Teksten":9236,"tunnelen":9237,"fuglene":9238,"hvile":9239,"aktiviteter":9240,"konstant":9241,"australske":9242,"oge":9243,"mansk":9244,"nøytr":9245,"appar":9246,"amfi":9247,"uavhengige":9248,"Roll":9249,"admiral":9250,"harde":9251,"kilden":9252,"BM":9253,"pros":9254,"samtlige":9255,"oppen":9256,"etniske":9257,"disi":9258,"personar":9259,"hoffet":9260,"ødeleg":9261,"framfor":9262,"dokumenter":9263,"Fug":9264,"Lot":9265,"slutta":9266,"Golden":9267,"Pap":9268,"fung":9269,"reformer":9270,"ulov":9271,"angripe":9272,"trengte":9273,"tilhengere":9274,"bryl":9275,"afrikanske":9276,"Luxem":9277,"Shar":9278,"dron":9279,"rumen":9280,"brannen":9281,"kapit":9282,"materialet":9283,"boli":9284,"elet":9285,"oppover":9286,"Noregs":9287,"kjønns":9288,"beordret":9289,"',":9290,"Rød":9291,"platen":9292,"blan":9293,"Chile":9294,"somrader":9295,"rein":9296,"døgn":9297,"1873":9298,"Antonio":9299,"Advisory":9300,"tin":9301,"avlange":9302,"usikker":9303,"garder":9304,"vingespenn":9305,"Nett":9306,"landa":9307,"1868":9308,"saga":9309,"inna":9310,"Association":9311,"Brother":9312,"herrer":9313,"tilsynelat":9314,"olo":9315,"Arkite":9316,"Tony":9317,"førsel":9318,"presten":9319,"anledning":9320,"oksygen":9321,"forbudt":9322,"1866":9323,"forbud":9324,"eksisterende":9325,"Jur":9326,"Lof":9327,"Jam":9328,"ktar":9329,"Utvik":9330,"varm":9331,"slekta":9332,"Kongsberg":9333,"heime":9334,"høst":9335,"atisk":9336,"Herman":9337,"argent":9338,"vestsida":9339,"dobbel":9340,"Ran":9341,"palest":9342,"latskriver":9343,"Frit":9344,"kjørte":9345,"festningen":9346,"Seba":9347,"kommunane":9348,"forsøker":9349,"stur":9350,"skjol":9351,"sveitsiske":9352,"bilete":9353,"rangert":9354,"ittiske":9355,"chn":9356,"ideen":9357,"inert":9358,"Mountains":9359,"trodde":9360,"Sarpsborg":9361,"kjede":9362,"nederlag":9363,"Asi":9364,"kongelig":9365,"Ferdin":9366,"kjøtt":9367,"utenriksminister":9368,"ukrainsk":9369,"ferskvann":9370,"sluppet":9371,"Abra":9372,"paven":9373,"vervet":9374,"opper":9375,"bandets":9376,"møttes":9377,"departement":9378,"Kau":9379,"celle":9380,"plyn":9381,"Service":9382,"Tai":9383,"apningen":9384,"uttrykket":9385,"forkortet":9386,"rapport":9387,"artistar":9388,"vurder":9389,"DVD":9390,"utvalget":9391,"agg":9392,"skifte":9393,"munner":9394,"kspedisjonen":9395,"Grav":9396,"esi":9397,"jurist":9398,"vande":9399,"kompetanse":9400,"Ax":9401,"basketball":9402,"Motor":9403,"skra":9404,"eksperiment":9405,"Fel":9406,"wick":9407,"geomet":9408,"kompli":9409,"redde":9410,"rug":9411,"regner":9412,"cen":9413,"offiserer":9414,"Sao":9415,"revisjon":9416,"ische":9417,"allmenn":9418,"itsj":9419,"eremon":9420,"Ord":9421,"hundret":9422,"misly":9423,"tettstaden":9424,"spa":9425,"Produ":9426,"blader":9427,"Bowie":9428,"veker":9429,"verksem":9430,"diskusjon":9431,"bourne":9432,"Tett":9433,"Tore":9434,"Publi":9435,"stry":9436,"Spa":9437,"titler":9438,"jøde":9439,"vie":9440,"dekt":9441,"say":9442,"wart":9443,"ighets":9444,"stadt":9445,"vogner":9446,"hannen":9447,"Main":9448,"tilgjengel":9449,"1874":9450,"navnene":9451,"erstatta":9452,"portrett":9453,"grensar":9454,"ynt":9455,"avviklet":9456,"yards":9457,"skjell":9458,"vania":9459,"Institute":9460,"meteor":9461,"borgere":9462,"syre":9463,"eksk":9464,"Peak":9465,"positiv":9466,"Heinrich":9467,"tala":9468,"modi":9469,"beløn":9470,"Malt":9471,"Dagens":9472,"utstillinger":9473,"Ofte":9474,"politikar":9475,"marka":9476,"holds":9477,"Good":9478,"okkuperte":9479,"1830":9480,"ungarske":9481,"orf":9482,"kantet":9483,"Ey":9484,"ferge":9485,"1872":9486,"ikon":9487,"Guinea":9488,"Cla":9489,"1863":9490,"5000":9491,"mouth":9492,"fase":9493,"suk":9494,"Wars":9495,"ertall":9496,"odar":9497,"delsene":9498,"new":9499,"geist":9500,"visning":9501,"Rose":9502,"ktoratet":9503,"Real":9504,"uma":9505,"atmosfæren":9506,"ough":9507,"landbruks":9508,"fars":9509,"Sty":9510,"makta":9511,"Helge":9512,"1867":9513,"Sankt":9514,"byar":9515,"lans":9516,"likte":9517,"prinsesse":9518,"tilbak":9519,"skjerm":9520,"æk":9521,"termin":9522,"domstol":9523,"brukere":9524,"sovjetisk":9525,"Way":9526,"more":9527,"øker":9528,"mpe":9529,"Historikk":9530,"Huset":9531,"gangs":9532,"lærar":9533,"kins":9534,"pel":9535,"formene":9536,"bassa":9537,"lufta":9538,"kompleks":9539,"fattige":9540,"Luther":9541,"Stift":9542,"Gold":9543,"havs":9544,"ng":9545,"ilia":9546,"verkt":9547,"indo":9548,"produksjons":9549,"Ori":9550,"cou":9551,"køy":9552,"Douglas":9553,"Wat":9554,"bygningene":9555,"geren":9556,"Nilsen":9557,"Industri":9558,"Pedersen":9559,"Sørøst":9560,"pavirk":9561,"Oxford":9562,"Klubb":9563,"statens":9564,"posisjonen":9565,"Eir":9566,"Wol":9567,"utføre":9568,"bundet":9569,"tilstede":9570,"medførte":9571,"slipp":9572,"Nobel":9573,"guvernement":9574,"ος":9575,"forlaget":9576,"ferje":9577,"sakalla":9578,"Filippinene":9579,"universitets":9580,"fekt":9581,"Erling":9582,"semin":9583,"Forsk":9584,"Stefan":9585,"redusere":9586,"jus":9587,"Chry":9588,"arsjubile":9589,"skapene":9590,"merkelser":9591,"Litauen":9592,"Miss":9593,"Slov":9594,"forente":9595,"flyv":9596,"Uru":9597,"forekom":9598,"Central":9599,"demningen":9600,"funksjonen":9601,"medisinsk":9602,"mani":9603,"turen":9604,"verkene":9605,"Place":9606,"Sib":9607,"teologi":9608,"Fyr":9609,"sterett":9610,"itets":9611,"soldatene":9612,"pale":9613,"Robin":9614,"brot":9615,"kommunistiske":9616,"Johnny":9617,"røm":9618,"statlige":9619,"lasser":9620,"byrjinga":9621,"australsk":9622,"NH":9623,"Slekt":9624,"Ferdinand":9625,"tern":9626,"uset":9627,"steng":9628,"valde":9629,"eventuelt":9630,"institusjoner":9631,"Glas":9632,"permanent":9633,"Bom":9634,"IC":9635,"ason":9636,"essen":9637,"minim":9638,"erfaring":9639,"System":9640,"primært":9641,"astronom":9642,"Alan":9643,"Hak":9644,"igan":9645,"brødre":9646,"sending":9647,"bølge":9648,"Set":9649,"ikes":9650,"tidvis":9651,"iction":9652,"tekstil":9653,"jun":9654,"halvt":9655,"Fem":9656,"Atlanta":9657,"sjølve":9658,"Fron":9659,"traktaten":9660,"Pav":9661,"Elekt":9662,"Pon":9663,"passerer":9664,"selig":9665,"sesser":9666,"gjenværende":9667,"distanse":9668,"Hotel":9669,"Hardanger":9670,"Att":9671,"bygges":9672,"noensinne":9673,"itteratur":9674,"korleis":9675,"Sor":9676,"odd":9677,"personell":9678,"fli":9679,"metoden":9680,"Sten":9681,"Nas":9682,"kelt":9683,"spise":9684,"interess":9685,"Troll":9686,"gere":9687,"tenkt":9688,"skomiteen":9689,"Ask":9690,"Vann":9691,"kov":9692,"Lord":9693,"1862":9694,"Rhin":9695,"uft":9696,"talende":9697,"internett":9698,"danse":9699,"tillatelse":9700,"enke":9701,"ordene":9702,"enhver":9703,"breid":9704,"fugle":9705,"Led":9706,"beleir":9707,"tang":9708,"løste":9709,"shi":9710,"Cru":9711,"Fv":9712,"Innen":9713,"erklært":9714,"Pala":9715,"underviste":9716,"stoffet":9717,"konkurranser":9718,"1859":9719,"Milit":9720,"Barn":9721,"episode":9722,"ikan":9723,"kande":9724,"guddom":9725,"skiskyting":9726,"Squ":9727,"etappe":9728,"motiver":9729,"Paus":9730,"kommandør":9731,"Haugesund":9732,"tillit":9733,"angiv":9734,"server":9735,"Spesi":9736,"automatisk":9737,"Bruce":9738,"EC":9739,"Lab":9740,"klubbene":9741,"fortellinger":9742,"Austerrike":9743,"touch":9744,"sleder":9745,"ledning":9746,"allianse":9747,"issen":9748,"innviet":9749,"Forfatter":9750,"dikter":9751,"avledet":9752,"alske":9753,"Mir":9754,"hester":9755,"sprosje":9756,"forvand":9757,"»\"":9758,"spiser":9759,"kapital":9760,"hale":9761,"meinte":9762,"slaver":9763,"Bj":9764,"adels":9765,"bevarte":9766,"presset":9767,"FF":9768,"tede":9769,"oto":9770,"Opprinnelig":9771,");":9772,"Idrettslag":9773,"talent":9774,"Vestre":9775,"sommerfugl":9776,"symfon":9777,"holt":9778,"Programmet":9779,"overbe":9780,"leverte":9781,"vadron":9782,"tvers":9783,"skode":9784,"landbruk":9785,"farten":9786,"omstrid":9787,"jenter":9788,"søndag":9789,"Amund":9790,"umu":9791,"strømmen":9792,"kontinentet":9793,"Skandinavia":9794,"dannelsen":9795,"sammenlignet":9796,"Master":9797,"fjellkj":9798,"Shan":9799,"innledet":9800,"stridsv":9801,"Tsjekkia":9802,"Adri":9803,"seng":9804,"kontrollen":9805,"ologer":9806,"strakte":9807,"motstands":9808,"LO":9809,"Your":9810,"frykt":9811,"Møl":9812,"uansett":9813,"maraton":9814,"kaster":9815,"kvelden":9816,"samiske":9817,"ego":9818,"Danmarks":9819,"havnen":9820,"frivillig":9821,"Pil":9822,"parker":9823,"forstaelse":9824,"estad":9825,"Arabia":9826,"Bed":9827,"utgjer":9828,"chs":9829,"Brat":9830,"vev":9831,"molek":9832,"regiment":9833,"Cur":9834,"Sandefjord":9835,"endeplass":9836,"angelsak":9837,"Voss":9838,"Spart":9839,"Syl":9840,"aff":9841,"elite":9842,"Khan":9843,"Fisk":9844,"rekker":9845,"molekyl":9846,"Bog":9847,"seth":9848,"studert":9849,"gave":9850,"kode":9851,"gammelt":9852,"Jiang":9853,"kompan":9854,"folketel":9855,"gratis":9856,",\"":9857,"ordningen":9858,"Fun":9859,"montert":9860,"fordret":9861,"spørsmalet":9862,"Røde":9863,"frag":9864,"flytende":9865,"seilte":9866,"kryp":9867,"etterkom":9868,"velger":9869,"panser":9870,"Party":9871,"spolitikk":9872,"brasiliansk":9873,"dad":9874,"hjalp":9875,"forsking":9876,"spark":9877,"døme":9878,"situasjon":9879,"kollektiv":9880,"opposisjon":9881,"straks":9882,"skan":9883,"Cambridge":9884,"bakover":9885,"tørre":9886,"amikk":9887,"bruka":9888,"GA":9889,"user":9890,"XX":9891,"ogne":9892,"denburg":9893,"Nordisk":9894,"klaver":9895,"Beste":9896,"ision":9897,"esti":9898,"ivar":9899,"provis":9900,"gifter":9901,"ан":9902,"kjære":9903,"dramat":9904,"tidens":9905,"hypp":9906,"yrer":9907,"Handels":9908,"ressurser":9909,"Leip":9910,"eksport":9911,"Who":9912,"spenning":9913,"belgiske":9914,"Heidelberg":9915,"anses":9916,"overvak":9917,"sniva":9918,"generasjon":9919,"Julius":9920,"takket":9921,"klo":9922,"camp":9923,"kub":9924,".).":9925,"omgitt":9926,"Færøyene":9927,"oksid":9928,"satel":9929,"ain":9930,"alders":9931,"pap":9932,"bataljon":9933,"Kroatia":9934,"brand":9935,"skuespill":9936,"pund":9937,"sev":9938,"hjemmet":9939,"bladbiller":9940,"sirkel":9941,"Kjø":9942,"behandlet":9943,"utgivelse":9944,"overgangen":9945,"mine":9946,"null":9947,"arhun":9948,"gja":9949,"meksik":9950,"kvartfinalen":9951,"Festival":9952,"Kjente":9953,"skaret":9954,"Brig":9955,"univer":9956,"minoritet":9957,"Times":9958,"amb":9959,"utgava":9960,"slanke":9961,"digit":9962,"Svart":9963,"Range":9964,"Thailand":9965,"yrkes":9966,"tettstad":9967,"kjennes":9968,"Fleire":9969,"Vid":9970,"bell":9971,"Guds":9972,"observert":9973,"trafikken":9974,"veksling":9975,"lyset":9976,"engasje":9977,"konkurs":9978,"flekk":9979,"Geir":9980,"forvaltning":9981,"symptom":9982,"Leng":9983,"2021":9984,"asj":9985,"pattedyr":9986,"landmal":9987,"handverk":9988,"parallell":9989,"onkel":9990,"bensin":9991,"strup":9992,"Jazz":9993,"FNs":9994,"AR":9995,"demonstra":9996,"arsaker":9997,"antene":9998,"betre":9999,"ramme":10000,"armeen":10001,"Charlot":10002,"indisk":10003,"gle":10004,"kompl":10005,"Brus":10006,"hvel":10007,"prester":10008,"invasjon":10009,"feld":10010,"prosti":10011,"melding":10012,"distribusjon":10013,"Wes":10014,"kallen":10015,"nordisk":10016,"Arch":10017,"traff":10018,"ettertid":10019,"Region":10020,"dominert":10021,"Harris":10022,"disipl":10023,"parlamentar":10024,"koreanske":10025,"utelukkende":10026,"Kv":10027,"aria":10028,"kvalifisert":10029,"Rasmus":10030,"Windows":10031,"farens":10032,"Kypros":10033,"nordsida":10034,"kton":10035,"flyplassen":10036,"Seoul":10037,"kartlagt":10038,"Tsj":10039,"retningen":10040,"Ever":10041,"eten":10042,"vurdert":10043,"fiendt":10044,"Valley":10045,"øvelser":10046,"enny":10047,"Alger":10048,"Free":10049,"kjøring":10050,"kvit":10051,"møtt":10052,"Jersey":10053,"gjennomføre":10054,"bob":10055,"biografi":10056,"Totalt":10057,"hja":10058,"amin":10059,"Force":10060,"individer":10061,"spris":10062,"reland":10063,"skarp":10064,"Gy":10065,"arve":10066,"Jud":10067,"liggande":10068,"Snor":10069,"ambassa":10070,"auka":10071,"definisjon":10072,"leiren":10073,"produksjonskapasitet":10074,"UNES":10075,"Konstantinopel":10076,"dimensjon":10077,"krone":10078,"imir":10079,"tenner":10080,"Fon":10081,"Hj":10082,"Sher":10083,"veter":10084,"spesialiserer":10085,"stundom":10086,"Blues":10087,"Lennon":10088,"geografiske":10089,"minnes":10090,"steiner":10091,"sjan":10092,"strukturen":10093,"bringe":10094,"vassdraget":10095,"velt":10096,"ross":10097,"vinneren":10098,"stok":10099,"head":10100,"nordmenn":10101,"ulykke":10102,"Wen":10103,"hra":10104,"tilpasset":10105,"Broad":10106,"America":10107,"regul":10108,"gjennombrudd":10109,"operasjon":10110,"Nærings":10111,"Tall":10112,"hamna":10113,"partner":10114,"Donau":10115,"ال":10116,"Guy":10117,"sykling":10118,"samtidige":10119,"bukt":10120,"edom":10121,"amatør":10122,"Kongens":10123,"reisende":10124,"Nel":10125,"kjemper":10126,"350":10127,"partiene":10128,"originalt":10129,"vedtak":10130,"mellomalderen":10131,"eksist":10132,"katoli":10133,"Dagbladet":10134,"sylind":10135,"bajd":10136,"brei":10137,"lete":10138,"foreldrene":10139,"Luxembourg":10140,"ual":10141,"straum":10142,"Boston":10143,"episoder":10144,"Gjøvik":10145,"AT":10146,"Bou":10147,"albuma":10148,"koreansk":10149,"UE":10150,"multi":10151,"RS":10152,"Rana":10153,"snes":10154,"ellemann":10155,"Wang":10156,"tju":10157,"arn":10158,"kurat":10159,"solen":10160,"ML":10161,"svirk":10162,"1857":10163,"mill":10164,"konflikten":10165,"østerriksk":10166,"Vor":10167,"kontinuer":10168,"inus":10169,"opol":10170,"tive":10171,"Montre":10172,"kunstnar":10173,"sykdommer":10174,"stammen":10175,"borgermester":10176,"Cho":10177,"GS":10178,"storslalam":10179,"ønsk":10180,"diverse":10181,"mont":10182,"øpet":10183,"usa":10184,"Verk":10185,"sportsutøvere":10186,"Jag":10187,"utenom":10188,"spesialiserte":10189,"grunner":10190,"jødene":10191,"tidsskrift":10192,"stemte":10193,"kritisert":10194,"landeveis":10195,"touchdown":10196,"115":10197,"ror":10198,"bevegelser":10199,"But":10200,"uck":10201,"mannskapet":10202,"tidligste":10203,"alymp":10204,"sic":10205,"historikeren":10206,"1869":10207,"løsningen":10208,"Finale":10209,"fremført":10210,"sleir":10211,"Jonas":10212,"volleyballspiller":10213,"Ibsen":10214,"skandinav":10215,"forfølg":10216,"canadisk":10217,"drakt":10218,"undergrunns":10219,"sees":10220,"manen":10221,"nevner":10222,"Leipzig":10223,"medisinske":10224,"trekker":10225,"linja":10226,"Line":10227,"NATO":10228,"vic":10229,"absol":10230,"bosatte":10231,"Down":10232,"Lig":10233,"darleg":10234,"Palest":10235,"mongol":10236,"²,":10237,"iano":10238,"derfra":10239,"arth":10240,"mologi":10241,"ants":10242,"effekten":10243,"hunnen":10244,"Helen":10245,"Rav":10246,"sogn":10247,"stjeneste":10248,"Svarte":10249,"grøn":10250,"iets":10251,"generalsekretær":10252,"arealet":10253,"Side":10254,"golf":10255,"arige":10256,"Dream":10257,"kobber":10258,"Feder":10259,"Exped":10260,"nabol":10261,"juridisk":10262,"Chan":10263,"atiske":10264,"seint":10265,"krigstiden":10266,"Folk":10267,"Shanghai":10268,"arrangement":10269,"bryllu":10270,"Well":10271,"forrige":10272,"ido":10273,"heit":10274,"Stab":10275,"jobbe":10276,"Fag":10277,"Hele":10278,"iinae":10279,"Leo":10280,"hytte":10281,"kopi":10282,"distrikter":10283,"forsvare":10284,"stripe":10285,"Museet":10286,"historia":10287,"bokser":10288,"sluttspillet":10289,"attle":10290,"vanlege":10291,"Colombia":10292,"Sebasti":10293,"endelige":10294,"Skil":10295,"Fox":10296,"ping":10297,"05":10298,"drap":10299,"innebar":10300,"otiske":10301,"etableringen":10302,"Utt":10303,"raket":10304,"konomi":10305,"vitne":10306,"Massachus":10307,"tredj":10308,"musikalsk":10309,"Maud":10310,"alia":10311,"jr":10312,"zu":10313,"motstan":10314,"syner":10315,"Vestlandet":10316,"Carolina":10317,"DDR":10318,"Sist":10319,"talbum":10320,"Roman":10321,"DC":10322,"Kirk":10323,"1837":10324,"presentert":10325,"tyr":10326,"Minnes":10327,"rav":10328,"play":10329,"bler":10330,"konstitusjon":10331,"arrangerte":10332,"rafikk":10333,"nedgang":10334,"prinsippet":10335,"pistol":10336,"inde":10337,"oransje":10338,"Konig":10339,"matemat":10340,"tilstrekkelig":10341,"role":10342,"steds":10343,"Boy":10344,"Soph":10345,"landskamper":10346,"Muham":10347,"Sum":10348,"spelet":10349,"Beach":10350,"Massachusetts":10351,"aksel":10352,"trygg":10353,"reformen":10354,"entene":10355,"Villa":10356,"koal":10357,"spyd":10358,"ulu":10359,"akkurat":10360,"burgh":10361,"seire":10362,"utøv":10363,"innspilt":10364,"svatnet":10365,"høgt":10366,"materialer":10367,"sjeldne":10368,"Qing":10369,"issi":10370,"Anth":10371,"dyktig":10372,"Narvik":10373,"foregikk":10374,"ferie":10375,"erobra":10376,"1815":10377,"Lincol":10378,"stiftelsen":10379,"otte":10380,"tropisk":10381,"arkt":10382,"kommersielle":10383,"bød":10384,"mineral":10385,"Høgskolen":10386,"Sv":10387,"ude":10388,"murer":10389,"selge":10390,"uttalt":10391,"forlatt":10392,"ador":10393,"dale":10394,"femteplass":10395,"kh":10396,"forsøkt":10397,"Eksempler":10398,"Ske":10399,"Brook":10400,"difor":10401,"bestemmer":10402,"Halv":10403,"væske":10404,"Apoll":10405,"idene":10406,"stog":10407,"Prof":10408,"snakket":10409,"prøyssiske":10410,"Games":10411,"trag":10412,"skvadron":10413,"ressiv":10414,"dratt":10415,"oppgjør":10416,"born":10417,"jarn":10418,"rykte":10419,"Sommeren":10420,"utbruddet":10421,"Rail":10422,"Hagen":10423,"nark":10424,"pson":10425,"ET":10426,"Anat":10427,"poesi":10428,"vestlege":10429,"ikerer":10430,"egentlige":10431,"Rosenborg":10432,"mannskap":10433,"Sec":10434,"Mr":10435,"pasienter":10436,"IM":10437,"aksen":10438,"kjemiske":10439,"Varen":10440,"lah":10441,"aktuelle":10442,"spektiv":10443,"fylkeskommun":10444,"Kraftverket":10445,"melser":10446,"Book":10447,"ikkens":10448,"Stadion":10449,"Indone":10450,"Scarabaeoidea":10451,"1854":10452,"ely":10453,"Malmo":10454,"nærleiken":10455,"Trin":10456,"deltar":10457,"Blan":10458,"Grun":10459,"skrivar":10460,"Juan":10461,"konklu":10462,"manglende":10463,"antarktise":10464,"kategori":10465,"Administrasjon":10466,"Konge":10467,"pabegynt":10468,"operasjoner":10469,"tilfel":10470,"lørdag":10471,"mennesket":10472,"bebyggelse":10473,"tilsynelatende":10474,"Befolkningen":10475,"æle":10476,"Jup":10477,"støtter":10478,"blanke":10479,"regulert":10480,"folketeljinga":10481,"historikere":10482,"lokaler":10483,"icus":10484,"debutalbumet":10485,"mers":10486,"flykte":10487,"Fransk":10488,"eigne":10489,"reflekter":10490,"gutter":10491,"svapen":10492,"horison":10493,"skriften":10494,"dret":10495,"osv":10496,"utviklings":10497,"anim":10498,"utv":10499,"utkom":10500,"inntekter":10501,"gjenstand":10502,"ASA":10503,"Shet":10504,"Midtøsten":10505,"rog":10506,"Gabriel":10507,"bekken":10508,"erstatning":10509,"annonserte":10510,"utpekt":10511,"asjen":10512,"heimen":10513,"mening":10514,"Armen":10515,"passer":10516,"plasserte":10517,"skjoldet":10518,"idea":10519,"datab":10520,"konserten":10521,"beliggende":10522,"innspelinga":10523,"lade":10524,"stads":10525,"luften":10526,"Dublin":10527,"Ety":10528,"brenn":10529,"anerkjente":10530,"skarriere":10531,"Transport":10532,"klarer":10533,"territorium":10534,"hindret":10535,"kjøretøy":10536,"kontroversi":10537,"rekorder":10538,"seinere":10539,"menneskerett":10540,"klubbens":10541,"Sicilia":10542,"fornøy":10543,"sterkere":10544,"Gas":10545,"nit":10546,"yang":10547,"regelmessig":10548,"Bac":10549,"Napoli":10550,"akust":10551,"austsida":10552,"Kvinner":10553,"orks":10554,"runden":10555,"Gord":10556,"09":10557,"sittende":10558,"innbyggjarane":10559,"slave":10560,"rane":10561,"separat":10562,"Station":10563,"protester":10564,"jol":10565,"sie":10566,"bakk":10567,"guay":10568,"ethe":10569,"koret":10570,"nevø":10571,"zar":10572,"selskapets":10573,"verktøy":10574,"Bes":10575,"Ringer":10576,"verksted":10577,"fraktet":10578,"opple":10579,"generelle":10580,"spraklig":10581,"Lange":10582,"ungarsk":10583,"iten":10584,"butikker":10585,"refererer":10586,"respon":10587,"forbryt":10588,"villig":10589,"føret":10590,"søker":10591,"sjons":10592,"palasset":10593,"økonomien":10594,"vante":10595,"Corpor":10596,"ideer":10597,"vakre":10598,"Studios":10599,"bransjen":10600,"helhet":10601,"kningen":10602,"unatak":10603,"sakr":10604,"tjue":10605,"anklaget":10606,"dype":10607,"namngjeve":10608,"Handball":10609,"vinnere":10610,"franskmennene":10611,"Championship":10612,"cell":10613,"gruppespillet":10614,"nøye":10615,"Cli":10616,"Wu":10617,"Halden":10618,"Sotsji":10619,"DNA":10620,"Foss":10621,"VIII":10622,"stell":10623,"mans":10624,"Høye":10625,"Power":10626,"framover":10627,"positive":10628,"oe":10629,"selskapene":10630,"ways":10631,"søsken":10632,"Mah":10633,"Stadium":10634,"cos":10635,"sseremon":10636,"Giov":10637,"stortingsrepresentant":10638,"betalt":10639,"Samuel":10640,"Stockholms":10641,"Lamiinae":10642,"pioner":10643,"avhandling":10644,"tilhenger":10645,"veren":10646,"legaste":10647,"fint":10648,"Schw":10649,"oppnadd":10650,"administrasjonen":10651,"Uruguay":10652,"Costa":10653,"Milano":10654,"kolonien":10655,"orientering":10656,"Bron":10657,"Hugh":10658,"Leg":10659,"imago":10660,"vennskap":10661,"States":10662,"Cir":10663,"Vær":10664,"sikkert":10665,"referanse":10666,"dreiv":10667,"lokomot":10668,"hovedkontor":10669,"bergen":10670,"sikkerhets":10671,"Mong":10672,"Valg":10673,"fengslet":10674,"navne":10675,"hersk":10676,"svømme":10677,"lanserte":10678,"shall":10679,"ovenfor":10680,"Eti":10681,"Tiden":10682,"fog":10683,"cester":10684,"Prisen":10685,"stisk":10686,"liter":10687,"kirkens":10688,"myrdet":10689,"visepresident":10690,"sjangeren":10691,"alpint":10692,"brød":10693,"Sym":10694,"Jesu":10695,"kristendommen":10696,"erobre":10697,"landskaps":10698,"formasjon":10699,"drer":10700,"Fylket":10701,"kveld":10702,"Ekte":10703,"cor":10704,"normann":10705,"Verket":10706,"Prosje":10707,"kyn":10708,"kla":10709,"stedt":10710,"historier":10711,"Terje":10712,"klokke":10713,"Sloven":10714,"Alli":10715,"ibia":10716,"Sibir":10717,"UC":10718,"ierne":10719,"hals":10720,"kommanderende":10721,"konkurrert":10722,"Billy":10723,"ografer":10724,"løpebiller":10725,"verken":10726,"overvin":10727,"snakker":10728,"mut":10729,"sæ":10730,"hein":10731,"hindu":10732,"Politisk":10733,"bist":10734,"stipend":10735,"Amerik":10736,"størrelsen":10737,"Ska":10738,"begravet":10739,"Academy":10740,"Lincoln":10741,"sørsida":10742,"vestkysten":10743,"Metro":10744,"stone":10745,"smenn":10746,"Øystein":10747,"katedral":10748,"ordførar":10749,"Rett":10750,"edikt":10751,"Cross":10752,"regioner":10753,"Sebastian":10754,"sfjorden":10755,"ич":10756,"Model":10757,"1851":10758,"sagn":10759,"tjente":10760,"høge":10761,"høgre":10762,"Hab":10763,"miske":10764,"medie":10765,"asy":10766,"prega":10767,"statistikk":10768,"1856":10769,"zawa":10770,"Torino":10771,"været":10772,"Jupiter":10773,"LA":10774,"jag":10775,"plut":10776,"Slovakia":10777,"introduserte":10778,"UEFA":10779,"geografisk":10780,"hender":10781,"sopp":10782,"1855":10783,"gjeldende":10784,"sylin":10785,"Selve":10786,"foretatt":10787,"iens":10788,"pum":10789,"oppløy":10790,"isjons":10791,"reddet":10792,"portugisiske":10793,"favoritt":10794,"baker":10795,"hend":10796,"dur":10797,"sverd":10798,"avgift":10799,"nebb":10800,"Heg":10801,"beting":10802,"1858":10803,"marken":10804,"Grande":10805,"visa":10806,"raud":10807,"stekn":10808,"ktive":10809,"ulus":10810,"betydnings":10811,"tain":10812,"berømt":10813,"08":10814,"Tab":10815,"løft":10816,"forbedret":10817,"skin":10818,"1849":10819,"kommisjonen":10820,"frivillige":10821,"plateselskapet":10822,"portugisisk":10823,"Nidar":10824,"beskrivelse":10825,"drog":10826,"doktor":10827,"øyt":10828,"meters":10829,"mass":10830,"okkupert":10831,"forarsaket":10832,"Dick":10833,"konkl":10834,"kontrollerte":10835,"phil":10836,"yrene":10837,"prom":10838,"Ragn":10839,"Fas":10840,"rive":10841,"kredi":10842,"rand":10843,"tykk":10844,"stipen":10845,"breidda":10846,"Satur":10847,"strene":10848,"seid":10849,"Københavns":10850,"muren":10851,"Aktiv":10852,"anes":10853,"apar":10854,"kledd":10855,"motsatt":10856,"agt":10857,"freden":10858,"demokratisk":10859,"ев":10860,"romerne":10861,"møtes":10862,"djup":10863,"metro":10864,"Idretts":10865,"Singelen":10866,"Sub":10867,"flan":10868,"spinn":10869,"rennet":10870,"fredet":10871,"salme":10872,"reag":10873,"følte":10874,"dustri":10875,"skjeb":10876,"tanker":10877,"munnar":10878,"Praha":10879,"Brothers":10880,"Siste":10881,"studioalbum":10882,"greve":10883,"Ohio":10884,"alminn":10885,"menta":10886,"Jemen":10887,"had":10888,"avskjed":10889,"Kongo":10890,"Potter":10891,"elsker":10892,"Fair":10893,"Disk":10894,"folketal":10895,"færre":10896,"jager":10897,"skis":10898,"avy":10899,"sonom":10900,"Grammy":10901,"oppa":10902,"lyr":10903,"mart":10904,"vestre":10905,"oppdager":10906,"skjedd":10907,"antarktisekspedisjonen":10908,"Eu":10909,"vinden":10910,"Beck":10911,"Melbourne":10912,"Kristus":10913,"himmelen":10914,"Gau":10915,"beck":10916,"fortalt":10917,"rundede":10918,"botan":10919,"tempelet":10920,"Haw":10921,"Frankfurt":10922,"hk":10923,"cho":10924,"Sea":10925,"Provinsen":10926,"bec":10927,"spreng":10928,"luther":10929,"api":10930,"tide":10931,"sala":10932,"ovic":10933,"administrerende":10934,"blatt":10935,"Heart":10936,"Pad":10937,"utro":10938,"vegne":10939,"fris":10940,"elius":10941,"Marcus":10942,"forskningen":10943,"nemnde":10944,"minnet":10945,"øyar":10946,"fortelling":10947,"hjerne":10948,"Disney":10949,"Abraham":10950,"kriger":10951,"kreis":10952,"Rub":10953,"Vester":10954,"zj":10955,"forstand":10956,"Stord":10957,"sov":10958,"Aqu":10959,"Resultatet":10960,"Shake":10961,"Up":10962,"enno":10963,"ique":10964,"svig":10965,"banks":10966,"Niels":10967,"beslektet":10968,"Indonesia":10969,"BI":10970,"chang":10971,"forestillinger":10972,"amester":10973,"børs":10974,"øft":10975,"selvmord":10976,"Johanne":10977,"kolli":10978,"pseud":10979,"Galli":10980,"was":10981,"fasett":10982,"modif":10983,"flom":10984,"Spellemann":10985,"dypt":10986,"okkupasjonen":10987,"sviger":10988,"provinsene":10989,"stitu":10990,"Ytre":10991,"rakk":10992,"darlige":10993,"sletta":10994,"Ner":10995,"ypen":10996,"samstundes":10997,"psykologi":10998,"Maxim":10999,"tros":11000,"autonome":11001,"elast":11002,"iven":11003,"partil":11004,"Innsjøen":11005,"skuespilleren":11006,"etterfulgte":11007,"ffa":11008,"utmerk":11009,"vendige":11010,"Media":11011,"Zur":11012,"reservo":11013,"Kie":11014,"høgare":11015,"skolene":11016,"Malay":11017,"utløp":11018,"kult":11019,"Egil":11020,"flatt":11021,"smelt":11022,"biske":11023,"færøy":11024,"brent":11025,"feldt":11026,"urs":11027,"artium":11028,"Geological":11029,"programvare":11030,"Kret":11031,"foredrag":11032,"Awards":11033,"utnevnte":11034,"drar":11035,"Kors":11036,"staande":11037,"livia":11038,"Diam":11039,"utformet":11040,"ology":11041,"topps":11042,"Boka":11043,"ishockeyspiller":11044,"barndom":11045,"inngatt":11046,"syssel":11047,"eler":11048,"SI":11049,"finaler":11050,"vitja":11051,"dirigent":11052,"Stjør":11053,"greide":11054,"kulturminner":11055,"Boe":11056,"dverg":11057,"ody":11058,"særskilt":11059,"knapt":11060,"erstatte":11061,"ørene":11062,"syriske":11063,"Kongelige":11064,"artikkelen":11065,"intelle":11066,"igang":11067,"Abd":11068,"Corporation":11069,"Etiop":11070,"amn":11071,"hovet":11072,"Boys":11073,"ografien":11074,"avsatt":11075,"tradisjoner":11076,"ekteskapet":11077,"raden":11078,"tabellen":11079,"brygger":11080,"sylvania":11081,"Hof":11082,"ampton":11083,"statsborger":11084,"fond":11085,"sparken":11086,"infra":11087,"tallrike":11088,"bassist":11089,"stim":11090,"Halvor":11091,"foretak":11092,"elighet":11093,"Kampen":11094,"idrettslag":11095,"reformasjonen":11096,"Stephen":11097,"omgjort":11098,"rande":11099,"komponisten":11100,"manuskrip":11101,"arl":11102,"autor":11103,"misten":11104,"Harrison":11105,"top":11106,"Enter":11107,"Ath":11108,"avla":11109,"herad":11110,"slutte":11111,"Kri":11112,"oppgitt":11113,"sveitsisk":11114,"svake":11115,"ights":11116,"missil":11117,"1842":11118,"Clark":11119,"innholdet":11120,"house":11121,"marin":11122,"storleik":11123,"inntrykk":11124,"name":11125,"leser":11126,"statlig":11127,"1845":11128,"kriminal":11129,"medier":11130,"Back":11131,"kjemisk":11132,"dessutan":11133,"Bjar":11134,"ruta":11135,"kjemi":11136,"distansen":11137,"busett":11138,"ektemann":11139,"jiang":11140,"alympiske":11141,"Fis":11142,"satsen":11143,"zzo":11144,"beskyttet":11145,"Etymologi":11146,"Dig":11147,"bruck":11148,"hjelper":11149,"seksjon":11150,"liberale":11151,"mogleg":11152,"Vaster":11153,"gart":11154,"bøndene":11155,"oer":11156,"pote":11157,"portretter":11158,"symboli":11159,"overta":11160,"Hi":11161,"wal":11162,"Menn":11163,"kler":11164,"ligge":11165,"Damp":11166,"onde":11167,"tilbrakte":11168,"agu":11169,"alliansen":11170,"Ludwig":11171,"Capp":11172,"Skane":11173,"eksplo":11174,"dagene":11175,"innspilling":11176,"Montreal":11177,"antyder":11178,"uavgjort":11179,"stret":11180,"engasjer":11181,"havner":11182,"Nash":11183,"tilsammen":11184,"bei":11185,"blomstr":11186,"Hvert":11187,"arena":11188,"1852":11189,"gau":11190,"Sound":11191,"Kyrkja":11192,"speriode":11193,"Kommunesenteret":11194,"ging":11195,"forfremmet":11196,"veil":11197,"Anderson":11198,"uminium":11199,"walis":11200,"linjene":11201,"fylle":11202,"elektro":11203,"Dres":11204,"Dave":11205,"objekter":11206,"overande":11207,"indikerer":11208,"Hills":11209,"Chap":11210,"Kristiansund":11211,"Let":11212,"lyden":11213,"Kloster":11214,"Wy":11215,"bs":11216,"itim":11217,"arkitekten":11218,"identifisert":11219,"beskrives":11220,"Color":11221,"husene":11222,"klubbane":11223,"Drag":11224,"Rid":11225,"Za":11226,"bidratt":11227,"dynasti":11228,"agent":11229,"engasjement":11230,"Pur":11231,"leid":11232,"1820":11233,"biskopen":11234,"brem":11235,"Howard":11236,"Glo":11237,"smel":11238,".),":11239,"toll":11240,"avstanden":11241,"hua":11242,"identitet":11243,"Australian":11244,"forsvarte":11245,"iment":11246,"kvite":11247,"Margr":11248,"Opera":11249,"klassifisert":11250,"enorme":11251,"enige":11252,"manader":11253,"Barbar":11254,"Lyng":11255,"Army":11256,"anfor":11257,"tole":11258,"fleir":11259,"mulige":11260,"fuglen":11261,"Michel":11262,"Aas":11263,"fs":11264,"kers":11265,"Jun":11266,"quar":11267,"tau":11268,"splassen":11269,"vannpol":11270,"atus":11271,"agnet":11272,"mac":11273,"kringkast":11274,"intellekt":11275,"Myr":11276,"voksende":11277,"kommandoen":11278,"signert":11279,"restaurert":11280,"Zap":11281,"risiko":11282,"brigade":11283,"DE":11284,"utvide":11285,"metalli":11286,"onym":11287,"føderale":11288,"misjons":11289,"Spillet":11290,"weg":11291,"haw":11292,"tilfreds":11293,"heiter":11294,"wh":11295,"omgiv":11296,"alo":11297,"verre":11298,"President":11299,"Hat":11300,"ais":11301,"skran":11302,"kym":11303,"hovudstad":11304,"polen":11305,"okko":11306,"emig":11307,"nads":11308,"striden":11309,"arsaken":11310,"yeong":11311,"bekk":11312,"bevare":11313,"karib":11314,"steins":11315,"hs":11316,"ansa":11317,"skall":11318,"transpor":11319,"pengene":11320,"stida":11321,"Albania":11322,"Nordsjøen":11323,"Try":11324,"urens":11325,"BU":11326,"Fern":11327,"abil":11328,"mestere":11329,"Benjam":11330,"Ph":11331,"besetning":11332,"problemet":11333,"Giovanni":11334,"Nova":11335,"eksemplar":11336,"Alaska":11337,"Hud":11338,"TS":11339,"uka":11340,"hjemmebane":11341,"katedralen":11342,"sjok":11343,"losjon":11344,"tibet":11345,"Chi":11346,"Sommar":11347,"Storting":11348,"besøkende":11349,"Gon":11350,"Op":11351,"herunder":11352,"ballen":11353,"hjert":11354,"grønt":11355,"kraften":11356,"04":11357,"gne":11358,"utmerket":11359,"monument":11360,"redning":11361,"massakr":11362,"Rak":11363,"etet":11364,"litteraturen":11365,"veksel":11366,"omdøpt":11367,"godset":11368,"Aleksand":11369,"ingham":11370,"alvorlige":11371,"asiatiske":11372,"falle":11373,"kommunal":11374,"Jacobsen":11375,"Søndre":11376,"Pennsylvania":11377,"Haakon":11378,"kardinaler":11379,"Niger":11380,"Stol":11381,"vertik":11382,"massen":11383,"svakt":11384,"grener":11385,"Pel":11386,"Elvis":11387,"sjuke":11388,"pause":11389,"skysten":11390,"jury":11391,"parlaments":11392,"krepsdyr":11393,"Grieg":11394,"Kjer":11395,"rine":11396,"forhandlinger":11397,"slippe":11398,"nøkkel":11399,"heat":11400,"vegetasjon":11401,"visste":11402,"skyt":11403,"Division":11404,"dukker":11405,"Soder":11406,"bidrar":11407,"assister":11408,"hertugen":11409,"Politi":11410,"oftast":11411,"etterkommere":11412,"Hamil":11413,"sting":11414,"Utdan":11415,"inskrip":11416,"utenrik":11417,"Lillestrøm":11418,"hovedrollene":11419,"gjester":11420,"Moz":11421,"fasen":11422,"fungere":11423,"vender":11424,"tinget":11425,"Vancou":11426,"tillatt":11427,"partis":11428,"ordens":11429,"frekvens":11430,"atmosf":11431,"Mod":11432,"enting":11433,"nærliggende":11434,"kasus":11435,"Vladimir":11436,"opphørte":11437,"demokrati":11438,"Philip":11439,"fetter":11440,"østsiden":11441,"fortellingen":11442,"sad":11443,"menighet":11444,"støv":11445,"vinterleker":11446,"tilfellet":11447,"bosetning":11448,"stilles":11449,"faglig":11450,"Bonde":11451,"ор":11452,"Gerhard":11453,"Fab":11454,"elektris":11455,"referere":11456,"tilskuere":11457,"neo":11458,"Normand":11459,"setting":11460,"Mach":11461,"Valerenga":11462,"øde":11463,"forhindre":11464,"ylland":11465,"ekspert":11466,"Eidsvoll":11467,"eper":11468,"Vancouver":11469,"utarbeidet":11470,"beskrive":11471,"grunnlegg":11472,"kapittel":11473,"eiendommen":11474,"apest":11475,"Firen":11476,"mende":11477,"oppfor":11478,"Hom":11479,"RE":11480,"fremmed":11481,"Barne":11482,"Kyst":11483,"samler":11484,"turbiner":11485,"Keiser":11486,"opplysninger":11487,"Francois":11488,"kara":11489,"fremfor":11490,"utek":11491,"vestsiden":11492,"Observat":11493,"Foreningen":11494,"Kvalif":11495,"gater":11496,"bey":11497,"setnad":11498,"Stewart":11499,"Hjel":11500,"Krit":11501,"Litteratur":11502,"rettferdig":11503,"uela":11504,"European":11505,"Oslof":11506,"motsatte":11507,"dyrket":11508,"oping":11509,"høyskole":11510,"Techn":11511,"familiens":11512,"sokn":11513,"Ege":11514,"bant":11515,"Verden":11516,"Arbeidet":11517,"Brussel":11518,"Ful":11519,"Wall":11520,"ritt":11521,"settelse":11522,"distan":11523,"generell":11524,"distribu":11525,"kommunestyre":11526,"Sang":11527,"sell":11528,"alfabetet":11529,"stjernen":11530,"antrop":11531,"Menne":11532,"Castle":11533,"Jimmy":11534,"landslags":11535,"medlemskap":11536,"høgda":11537,"hausten":11538,"bystatus":11539,"voksen":11540,"hovu":11541,"utviklinga":11542,"opphavlege":11543,"gæ":11544,"temper":11545,"iing":11546,"ømet":11547,"register":11548,"lagets":11549,"sjetteplass":11550,"Order":11551,"Landslaget":11552,"friluft":11553,"Wi":11554,"teatret":11555,"1839":11556,"Walt":11557,"psy":11558,"abu":11559,"There":11560,"variere":11561,"nestleder":11562,"mektige":11563,"hente":11564,"patron":11565,"kommisjon":11566,"Europas":11567,"kontrakten":11568,"tredjedel":11569,"06":11570,"07":11571,"Hend":11572,"grus":11573,"Boh":11574,"Mill":11575,"wen":11576,"utbygd":11577,"kommunestyret":11578,"ype":11579,"innom":11580,"Journ":11581,"Eva":11582,"bles":11583,"sakte":11584,"atoren":11585,"nei":11586,"assi":11587,"skjelv":11588,"desh":11589,"Studio":11590,"Snorre":11591,"ammun":11592,"Tipp":11593,"Benjamin":11594,"Chang":11595,"samsvar":11596,"peker":11597,"ferdige":11598,"Gammar":11599,"Aftenposten":11600,"umulig":11601,"Vass":11602,"Arena":11603,"prestegjeld":11604,"bing":11605,"allag":11606,"Aser":11607,"scener":11608,"budsjett":11609,"Tyr":11610,"omhandler":11611,"satellitt":11612,"hier":11613,"zan":11614,"oppdater":11615,"Høne":11616,"Christensen":11617,"Hjem":11618,"rac":11619,"skript":11620,"innspillingen":11621,"presjon":11622,"demonstr":11623,"Dagen":11624,"hendelsen":11625,"femten":11626,"evaku":11627,"1853":11628,"sendinger":11629,"ennet":11630,"Østlandet":11631,"innsjøer":11632,"Vestland":11633,"1838":11634,"still":11635,"nettet":11636,"Miller":11637,"blind":11638,"kommunik":11639,"hovedtrener":11640,"stillinga":11641,"vidde":11642,"malm":11643,"lovet":11644,"kopier":11645,"rende":11646,"elektronisk":11647,"feksjon":11648,"science":11649,"Isl":11650,"oppvar":11651,"vente":11652,"Major":11653,"varierende":11654,"Shakespe":11655,"Nidaros":11656,"uteksam":11657,"Dog":11658,"fus":11659,"bygnings":11660,"vier":11661,"betalte":11662,"Moderne":11663,"burn":11664,"gradert":11665,"Flag":11666,"utsmy":11667,"Utover":11668,"Presley":11669,"IN":11670,"bestand":11671,"allas":11672,"juridiske":11673,"inspe":11674,"rose":11675,"itime":11676,"Fed":11677,"Yu":11678,"noverande":11679,"rin":11680,"wall":11681,"økning":11682,"kommersiell":11683,"pleier":11684,"Kru":11685,"frekven":11686,"hjørnet":11687,"GWh":11688,"lun":11689,"styreleder":11690,"Alpane":11691,"!\"":11692,"IP":11693,"Kab":11694,"verb":11695,"kontrollert":11696,"differ":11697,"Studen":11698,"bly":11699,"sele":11700,"helikopter":11701,"ер":11702,"kalenderen":11703,"sammenhengende":11704,"Krim":11705,"verande":11706,"oppfattet":11707,"borough":11708,"tempo":11709,"iller":11710,"inngangen":11711,"trene":11712,"Brø":11713,"Svenska":11714,"ræ":11715,"125":11716,"bispedømmet":11717,"Abu":11718,"Jor":11719,"skam":11720,"itasjon":11721,"Bour":11722,"Cecil":11723,"kongeriket":11724,"pavirkning":11725,"instrumental":11726,"Hoff":11727,"kling":11728,"kraftverket":11729,"Historisk":11730,"pak":11731,"auer":11732,"konsekvens":11733,"synd":11734,"forskjeller":11735,"autoritet":11736,"Spring":11737,"diskutert":11738,"Firenze":11739,"Log":11740,"vnen":11741,"folkemusikk":11742,"pels":11743,"ifisert":11744,"givning":11745,"Act":11746,"rey":11747,"bladene":11748,"dømte":11749,"kronologisk":11750,"hydrogen":11751,"relativ":11752,"jevnbrede":11753,"ilen":11754,"Miljø":11755,"Game":11756,"etterlot":11757,"foreninger":11758,"Charlie":11759,"variert":11760,"ulykken":11761,"ede":11762,"persiske":11763,"Burg":11764,"Pors":11765,"anset":11766,"Beskrivelse":11767,"sprakene":11768,"inas":11769,"utz":11770,"Norway":11771,"Marokko":11772,"straumen":11773,"Nelson":11774,"fremover":11775,"byprefekturet":11776,"formelle":11777,"Kari":11778,"vitsj":11779,"virkeligheten":11780,"gum":11781,"propag":11782,"single":11783,"eiendommer":11784,"forgjen":11785,"forøvrig":11786,"sertif":11787,"Langs":11788,"ungdomsskole":11789,"Kart":11790,"Mans":11791,"spon":11792,"fartøyer":11793,"fellesskap":11794,"bekym":11795,"Leir":11796,"Oversiden":11797,"Louise":11798,"Norr":11799,"Tommy":11800,"Frogner":11801,"Light":11802,"filmat":11803,"slekene":11804,"negative":11805,"Uppsala":11806,"fiction":11807,"kjøkken":11808,"katal":11809,"Gruppe":11810,"materiell":11811,"Sho":11812,"stiske":11813,"derav":11814,"Arsen":11815,"dyb":11816,"individuelt":11817,"periferi":11818,"arina":11819,"cies":11820,"invaderte":11821,"assosiert":11822,"Eirik":11823,"intet":11824,"synlige":11825,"mix":11826,"Pass":11827,"navig":11828,"planene":11829,"Olaf":11830,"tilfeldig":11831,"Clo":11832,"Mang":11833,"gult":11834,"gifta":11835,"Sunnmøre":11836,"Warszawa":11837,"ote":11838,"varige":11839,"gardene":11840,"døtre":11841,"popularitet":11842,"\"\"":11843,"besitt":11844,"handballspiller":11845,"beslut":11846,"gitaristen":11847,"kontorer":11848,"digital":11849,"versjonar":11850,"keisar":11851,"Strat":11852,"Tors":11853,"menneskelige":11854,"ekstrem":11855,"Ped":11856,"Unge":11857,"ific":11858,"seksamen":11859,"landmalingar":11860,"levet":11861,"bling":11862,"Saudi":11863,"ødelegg":11864,"Margaret":11865,"tsj":11866,"arki":11867,"Orche":11868,"furu":11869,"utvida":11870,"kuler":11871,"Tem":11872,"HMS":11873,"arist":11874,"oker":11875,"øvelsen":11876,"invitert":11877,"Etiopia":11878,"anskrit":11879,"Para":11880,"moske":11881,"medlems":11882,"samanheng":11883,"ogi":11884,"Hamilton":11885,"varare":11886,"faget":11887,"Adel":11888,"Morris":11889,"parallelt":11890,"finger":11891,"reisen":11892,"bratte":11893,"Landsbyen":11894,"rier":11895,"ensid":11896,"Latvia":11897,"paverka":11898,"Særlig":11899,"Vok":11900,"1821":11901,"kravet":11902,"tungt":11903,"bulgarsk":11904,"Pink":11905,"ikum":11906,"sløper":11907,"krigens":11908,"virksom":11909,"friidretts":11910,"Kans":11911,"Orle":11912,"vassdrag":11913,"hekke":11914,"forventet":11915,"tegneserie":11916,"arhundret":11917,"austlege":11918,"posisjoner":11919,"finansiert":11920,"Bosnia":11921,"Rudolf":11922,"113":11923,"itiv":11924,"karakteristiske":11925,"mista":11926,"bag":11927,"sektor":11928,"antenner":11929,"skjøt":11930,"vanns":11931,"trykt":11932,"klipp":11933,"Frances":11934,"Patrick":11935,"delstat":11936,"skirken":11937,"angerer":11938,"instituttet":11939,"menneskelig":11940,"Normandie":11941,"Zim":11942,"seen":11943,"grunne":11944,"vanskelige":11945,"avvist":11946,"illustrasjon":11947,"fossil":11948,"læ":11949,"sekvenser":11950,"ikarar":11951,"arkivet":11952,"arrangør":11953,"stasjonert":11954,"avanserte":11955,"tilby":11956,"kanter":11957,"syvende":11958,"iserende":11959,"Frederiks":11960,"Plant":11961,"Us":11962,"isch":11963,"beite":11964,"lages":11965,"Lik":11966,"øtter":11967,"etikk":11968,"spraka":11969,"skontor":11970,"Aud":11971,"korset":11972,"synte":11973,"tildeles":11974,"Leop":11975,"Monro":11976,"beholde":11977,"germanske":11978,"Vit":11979,"Wright":11980,"rednings":11981,"Ret":11982,"Røy":11983,"avstemning":11984,"entes":11985,"phia":11986,"loj":11987,"gullmedalje":11988,"hoppet":11989,"snakke":11990,"Ler":11991,"handlar":11992,"vesten":11993,"sykehuset":11994,"karibiske":11995,"Wur":11996,"Østre":11997,"greiner":11998,"Orleans":11999,"sank":12000,"bebo":12001,"halvøy":12002,"utbrudd":12003,"1836":12004,"demning":12005,"diplom":12006,"dos":12007,"avik":12008,"Samferdsel":12009,"Senterpartiet":12010,"utøvar":12011,"ystemet":12012,"ID":12013,"hørt":12014,"sporten":12015,"ury":12016,"paras":12017,"sammenhenger":12018,"See":12019,"betydninger":12020,"centi":12021,"Ringerike":12022,"bund":12023,"alister":12024,"alistene":12025,"Distri":12026,"tret":12027,"sykdommen":12028,"fluer":12029,"engasjerte":12030,"nan":12031,"anker":12032,"atert":12033,"partik":12034,"ivind":12035,"Lær":12036,"mandat":12037,"trenings":12038,"forslaget":12039,"Malet":12040,"busetnad":12041,"seremoni":12042,"Jama":12043,"witz":12044,"alar":12045,"Rune":12046,"leger":12047,"fylker":12048,"navngitt":12049,"forlenget":12050,"gale":12051,"soren":12052,"anta":12053,"artane":12054,"Stur":12055,"bachel":12056,"Flam":12057,"fjellom":12058,"kledt":12059,"sivilis":12060,"vellykket":12061,"Mika":12062,"hannene":12063,"Gregor":12064,"ppar":12065,"Bort":12066,"nis":12067,"uklart":12068,"hesten":12069,"ikerne":12070,"fjernsyns":12071,"Skan":12072,"urer":12073,"antenn":12074,"rads":12075,"vektor":12076,"dokumentert":12077,"eu":12078,"elevene":12079,"anbef":12080,"Dum":12081,"prosa":12082,"Budapest":12083,"lom":12084,"oppfølger":12085,"kking":12086,"dren":12087,"punktert":12088,"Armenia":12089,"turnerte":12090,"kullkraftverk":12091,"teikna":12092,"jesuitt":12093,"teorier":12094,"forandret":12095,"bedriften":12096,"forsyning":12097,"Ide":12098,"antikke":12099,"busser":12100,"vanskeleg":12101,"narkot":12102,"insekt":12103,"Emp":12104,"ution":12105,"grave":12106,"gow":12107,"kjøpmann":12108,"viterussland":12109,"ен":12110,"planeten":12111,"energien":12112,"Tj":12113,"diesel":12114,"fotballklubb":12115,"pilot":12116,"onne":12117,"behovet":12118,"eiere":12119,"Adams":12120,"tilbaket":12121,"dekkjer":12122,"Hongkong":12123,"Slovenia":12124,"oversetter":12125,"kilo":12126,"elektrom":12127,"folker":12128,"Mario":12129,"henta":12130,"ppi":12131,"nordsiden":12132,"bie":12133,"daglige":12134,"sekt":12135,"malar":12136,"oi":12137,"busker":12138,"kjørt":12139,"Tidlegare":12140,"etere":12141,"ernes":12142,"annekter":12143,"AM":12144,"Iver":12145,"rockebandet":12146,"kongene":12147,"jordbruks":12148,"tsjekkisk":12149,"Minnesota":12150,"Cæ":12151,"risen":12152,"tort":12153,"tiende":12154,"fargede":12155,"antarktiske":12156,"uken":12157,"virkelige":12158,"ordinære":12159,"Nicola":12160,"Følgende":12161,"ace":12162,"iler":12163,"athen":12164,"farlig":12165,"Gylden":12166,"Gard":12167,"linois":12168,"biologisk":12169,"Michigan":12170,"kontrast":12171,"Forsvarets":12172,"Amundsen":12173,"avet":12174,"rosa":12175,"rikets":12176,"gaver":12177,"Sever":12178,"strenge":12179,"etasjer":12180,"elaget":12181,"forestilling":12182,"1847":12183,"samlede":12184,"Kasakh":12185,"oppfinn":12186,"brunlige":12187,"inspirerte":12188,"CAN":12189,"suksessen":12190,"sløy":12191,"Rey":12192,"eiga":12193,"ørte":12194,"Jacques":12195,"spin":12196,"osisjonen":12197,"cao":12198,"Must":12199,"hospital":12200,"besøker":12201,"Dresden":12202,"biter":12203,"akademi":12204,"omstridt":12205,"begrens":12206,"rovdyr":12207,"Math":12208,"Rau":12209,"edon":12210,"forsøks":12211,"Stanley":12212,"Lady":12213,"hausen":12214,"Illinois":12215,"450":12216,"aksepterte":12217,"arrangementer":12218,"hett":12219,"planlegging":12220,"kamera":12221,"Sophie":12222,"RC":12223,"yle":12224,"fjelltopp":12225,"siger":12226,"Jane":12227,"glem":12228,"mberg":12229,"Wild":12230,"TC":12231,"Valen":12232,"sas":12233,"røk":12234,"turneringer":12235,"Mye":12236,"FO":12237,"Fall":12238,"Kvinn":12239,"sørafrik":12240,"phy":12241,"kommunar":12242,"meisterskap":12243,"kkar":12244,"Edin":12245,"Kongsvinger":12246,"kunngjorde":12247,"føy":12248,"kjær":12249,"knytte":12250,"konsertar":12251,"Musik":12252,"varaordfører":12253,"dju":12254,"omslaget":12255,"ree":12256,"komponerte":12257,"Axel":12258,"Cher":12259,"velsene":12260,"Annet":12261,"anledninger":12262,"Spellemannprisen":12263,"lavt":12264,"forbindelsen":12265,"vandring":12266,"kollap":12267,"melodien":12268,"Home":12269,"anal":12270,"sendes":12271,"vokse":12272,"akseptert":12273,"Bast":12274,"originaltittel":12275,"vararepresentant":12276,"Ay":12277,"put":12278,"fremtredende":12279,"mynt":12280,"varianten":12281,"universiteter":12282,"grovt":12283,"selger":12284,"tykke":12285,"Spare":12286,"frey":12287,"utdød":12288,"lederne":12289,"innspillinger":12290,"Arke":12291,"savel":12292,"hul":12293,"bers":12294,"mini":12295,"teleg":12296,"forurens":12297,"slas":12298,"egner":12299,"forklaring":12300,"Tob":12301,"cas":12302,"allikevel":12303,"Fore":12304,"kongressen":12305,"mørkt":12306,"Bli":12307,"Pun":12308,"spurt":12309,"kunstig":12310,"Elver":12311,"kommandant":12312,"uter":12313,"margin":12314,"troppen":12315,"kostet":12316,"Tradisjon":12317,"sørge":12318,"avfall":12319,"reduserte":12320,"artilleri":12321,"oman":12322,"kvinnene":12323,"forhandlingene":12324,"ansikt":12325,"vete":12326,"fet":12327,"forent":12328,"nordsamisk":12329,"ffel":12330,"dominerte":12331,"reserve":12332,"saksofon":12333,"Clas":12334,"Lunde":12335,"Britisk":12336,"konsulent":12337,"Zurich":12338,"fangenskap":12339,"Meg":12340,"hvorfor":12341,"homof":12342,"AF":12343,"konson":12344,"synge":12345,"1844":12346,"omsorg":12347,"Jin":12348,"Nich":12349,"onn":12350,"rakt":12351,"adop":12352,"referert":12353,"Jarl":12354,"istedenfor":12355,"artet":12356,"Inger":12357,"fylkene":12358,"Newton":12359,"fabrik":12360,"%,":12361,"Pir":12362,"Rab":12363,"aluminium":12364,"gullmedaljer":12365,"hemmelige":12366,"kategorien":12367,"inkl":12368,"iao":12369,"yndig":12370,"oo":12371,"arken":12372,"1841":12373,"sørøstlige":12374,"seie":12375,"1846":12376,"aco":12377,"ministeren":12378,"Orchestra":12379,"Harstad":12380,"mørkere":12381,"Skole":12382,"sola":12383,"porten":12384,"utsikt":12385,"mordet":12386,"naturgass":12387,"AG":12388,"avtaler":12389,"latinsk":12390,"landskamp":12391,"aksjonen":12392,"endres":12393,"illi":12394,"forval":12395,"administrativt":12396,"sseremonien":12397,"Flat":12398,"Vill":12399,"videoen":12400,"menneskene":12401,"markerer":12402,"Dak":12403,"SC":12404,"roten":12405,"Gruppa":12406,"uteksaminert":12407,"Ble":12408,"hip":12409,"sammenslaing":12410,"makter":12411,"Neil":12412,"motstandere":12413,"round":12414,"Balkan":12415,"Wel":12416,"beskri":12417,"gjeving":12418,"Pius":12419,"skru":12420,"oblig":12421,"etnisk":12422,"Collins":12423,"Tos":12424,"hre":12425,"Stru":12426,"ressive":12427,"tekstene":12428,"Holland":12429,"Jos":12430,"oppstatt":12431,"forsket":12432,"missær":12433,"betegnet":12434,"Ves":12435,"skand":12436,"øvelse":12437,"porter":12438,"judoka":12439,"Cow":12440,"Frans":12441,"Rhinen":12442,"Helse":12443,"rix":12444,"penden":12445,"produseres":12446,"stasjonene":12447,"utnytter":12448,"Theatre":12449,"gjevne":12450,"krøn":12451,"feiret":12452,"viken":12453,"Dani":12454,"ekstremt":12455,"bysantinske":12456,"01":12457,"liknende":12458,"Hawa":12459,"klimaet":12460,"betegner":12461,"avviste":12462,"alb":12463,"framstilt":12464,"Frid":12465,"Hin":12466,"fvt":12467,"mum":12468,"massiv":12469,"Pitt":12470,"Vang":12471,"kupp":12472,"batene":12473,"regulering":12474,"arving":12475,"roer":12476,"anny":12477,"emner":12478,"legendar":12479,"rogram":12480,"Historien":12481,"Innlandet":12482,"konsertalbum":12483,"tsen":12484,"gry":12485,"luf":12486,"Frankrikes":12487,"Mø":12488,"forklare":12489,"allereie":12490,"tynn":12491,"norrøn":12492,"Palestina":12493,"Sie":12494,"ingenting":12495,"undersiden":12496,"Carlos":12497,"sogneprest":12498,"gus":12499,"labor":12500,"oppvokst":12501,"bring":12502,"That":12503,"ui":12504,"segl":12505,"rundene":12506,"Ellers":12507,"Sparta":12508,"riv":12509,"tretten":12510,"maleren":12511,"svin":12512,"keiserlige":12513,"Madaga":12514,"positivt":12515,"habili":12516,"dou":12517,"ey":12518,"lunge":12519,"koden":12520,"Micros":12521,"føra":12522,"typiske":12523,"Theodor":12524,"følgde":12525,"senket":12526,"meiner":12527,"perspektiv":12528,"raskere":12529,"CO2":12530,"strategisk":12531,"Bug":12532,"plag":12533,"]],":12534,"bølger":12535,"fiender":12536,"negativ":12537,"Ian":12538,"sanskrit":12539,"latskrivar":12540,"ønnen":12541,"Mest":12542,"dekning":12543,"persisk":12544,"eksplosjon":12545,"Morgen":12546,"umann":12547,"biologiske":12548,"rade":12549,"prop":12550,"snar":12551,"Bundes":12552,"Vall":12553,"gler":12554,"mme":12555,"motta":12556,"End":12557,"indik":12558,"Marx":12559,"Moon":12560,"anerkjennelse":12561,"isolert":12562,"tilbød":12563,"betjent":12564,"ansjon":12565,"jande":12566,"pianist":12567,"Hønefoss":12568,"kus":12569,"Philadel":12570,"Koln":12571,"Polar":12572,"116":12573,"øydelag":12574,"risik":12575,"retor":12576,"Etterhvert":12577,"Krog":12578,"omfatta":12579,"Malaysia":12580,"Wag":12581,"avgrensa":12582,"Alice":12583,"pert":12584,"støtta":12585,"1843":12586,"serierunde":12587,"glans":12588,"splitt":12589,"gransk":12590,"storby":12591,"høgde":12592,"rørsla":12593,"administrasjonssenteret":12594,"Anthony":12595,"dete":12596,"Serie":12597,"pileg":12598,"')":12599,"Pot":12600,"skred":12601,"grid":12602,"dreier":12603,"flyene":12604,"adresse":12605,"Cole":12606,"betaling":12607,"Glasgow":12608,"adelen":12609,"produsenter":12610,"hydro":12611,"marskal":12612,"rapporterte":12613,"Clar":12614,"endel":12615,"reakt":12616,"1818":12617,"middelhav":12618,"Sli":12619,"mom":12620,"bryting":12621,"trium":12622,"konflikter":12623,"ous":12624,"ventil":12625,"Cook":12626,"presenterte":12627,"Get":12628,"Inc":12629,"melig":12630,"forfat":12631,"lines":12632,"festnings":12633,"omtalte":12634,"uld":12635,"absor":12636,"Karen":12637,"mastergrad":12638,"kompa":12639,"turisme":12640,"Holstein":12641,"belgisk":12642,"amesterskapet":12643,"vang":12644,"levere":12645,"eksistert":12646,"protok":12647,"skribent":12648,"gullbas":12649,"lid":12650,"Marc":12651,"cep":12652,"studiene":12653,"centimeter":12654,"alisering":12655,"serbisk":12656,"artisten":12657,"Byrd":12658,"hyppig":12659,"baron":12660,"Steen":12661,"kvinnelig":12662,"Gib":12663,"arvet":12664,"Regjeringen":12665,"112":12666,"Edu":12667,"enighet":12668,"soner":12669,"Elite":12670,"PR":12671,"Pris":12672,"arbeidd":12673,"Solberg":12674,"Turn":12675,"Expedition":12676,"ар":12677,"brant":12678,"stemt":12679,"fristil":12680,"brukast":12681,"designer":12682,"justis":12683,"overflata":12684,"halvdelen":12685,"silke":12686,"austerrik":12687,"Chil":12688,"svekket":12689,"beveger":12690,"Ytter":12691,"Stok":12692,"ktede":12693,"Nev":12694,"samlinga":12695,"plattform":12696,"Vog":12697,"ws":12698,"mellomtiden":12699,"Allen":12700,"Leif":12701,"Ett":12702,"rekningen":12703,"øyeblikk":12704,"lært":12705,"messe":12706,"Mercur":12707,"utforming":12708,"fordeling":12709,"etterretning":12710,"typar":12711,"Bridge":12712,"angivelig":12713,"td":12714,"ents":12715,"reglene":12716,"hunden":12717,"fredag":12718,"atel":12719,"ningane":12720,"Internett":12721,"Nick":12722,"Ui":12723,"avei":12724,"edia":12725,"heatet":12726,"iers":12727,"effektivt":12728,"tilgjengelige":12729,"Chrysom":12730,"Hop":12731,"Hvor":12732,"politikere":12733,"forbinder":12734,"konsernet":12735,"Sad":12736,"Discover":12737,"fartøyet":12738,"ødela":12739,"Taiwan":12740,"dedik":12741,"dio":12742,"impor":12743,"ferds":12744,"turbin":12745,"bestemme":12746,"stopper":12747,"skøytel":12748,"Hir":12749,"valt":12750,"inngang":12751,"unnel":12752,"vestlig":12753,"Prince":12754,"usikkert":12755,"indust":12756,"konferanse":12757,"brenne":12758,"radikale":12759,"Ting":12760,"stak":12761,"Røros":12762,"Aus":12763,"Galler":12764,"Aks":12765,"følgjande":12766,"resolusjon":12767,"Sudan":12768,"Kansas":12769,"BW":12770,"kai":12771,"forsøket":12772,"uts":12773,"touren":12774,"orax":12775,"foretok":12776,"Folkeparti":12777,"Spiller":12778,"Kurt":12779,"bale":12780,"kjempa":12781,"hord":12782,"temp":12783,"emir":12784,"dynam":12785,"foreløp":12786,"pressen":12787,"misjonær":12788,"næringsliv":12789,"Kenya":12790,"Pin":12791,"utnemnd":12792,"planla":12793,"fysi":12794,"Tennes":12795,"Helt":12796,"demar":12797,"bemerket":12798,"bab":12799,"Brensel":12800,"knute":12801,"Bolivia":12802,"Tids":12803,"teateret":12804,"karakteristisk":12805,"stipendi":12806,"omus":12807,"Head":12808,"bandy":12809,"oppgaven":12810,"innflytelses":12811,"»\".":12812,"forløper":12813,"asp":12814,"fortjen":12815,"stortingsmann":12816,"fienden":12817,"hers":12818,"organismer":12819,"nordvestlige":12820,"Kring":12821,"Rene":12822,"stere":12823,"avsnitt":12824,"oppløsning":12825,"beret":12826,"dyret":12827,"Omkring":12828,"Aserbajd":12829,"Philadelphia":12830,"zel":12831,"velde":12832,"fundament":12833,"gras":12834,"Student":12835,"Dale":12836,"hir":12837,"spinner":12838,"Jerry":12839,"kreert":12840,"ulv":12841,"IO":12842,"eith":12843,"lærere":12844,"operaen":12845,"Venezuela":12846,"Chrysomel":12847,"statue":12848,"innehav":12849,"Bam":12850,"ktighet":12851,"flø":12852,"avlang":12853,"fyrsted":12854,"rence":12855,"Fritz":12856,"Gje":12857,"Piet":12858,"XII":12859,"Viktor":12860,"hastigheten":12861,"osjon":12862,"beltet":12863,"Lys":12864,"forveks":12865,"nerve":12866,"middelsstore":12867,"teret":12868,"grun":12869,"drøm":12870,"tette":12871,"Ragnar":12872,"MF":12873,"territoriet":12874,"Madagaskar":12875,"stjern":12876,"leksik":12877,"kontrollere":12878,"Gret":12879,"korpset":12880,"kildene":12881,"Country":12882,"Bush":12883,"Inns":12884,"Low":12885,"Moren":12886,"Kasakhstan":12887,"Helle":12888,"Iron":12889,"tilsett":12890,"Start":12891,"episoden":12892,"infanteri":12893,"Mør":12894,"Mort":12895,"nedag":12896,"Grimstad":12897,"fjør":12898,"Edinburgh":12899,"Løv":12900,"stende":12901,"avgjer":12902,"verna":12903,"bevil":12904,"canadiske":12905,"Vei":12906,"kjeller":12907,"festa":12908,"forretningsmann":12909,"halsen":12910,"retta":12911,"Arm":12912,"stadiet":12913,"flyktninger":12914,"opphavet":12915,"roit":12916,"Dyn":12917,"Flan":12918,"Tryg":12919,"ikaren":12920,"oppsta":12921,"nødvendigvis":12922,"ол":12923,"overføring":12924,"ennis":12925,"Moore":12926,"statsministeren":12927,"Sok":12928,"ksen":12929,"nordre":12930,"litau":12931,"Centre":12932,"sløs":12933,"Arist":12934,"korrekt":12935,"Seks":12936,"kreves":12937,"moderat":12938,"Trondhjems":12939,"kontinuerlig":12940,"rell":12941,"entre":12942,"bai":12943,"Orkn":12944,"ctric":12945,"uttal":12946,"sammensatt":12947,"sprodu":12948,"Klima":12949,"veland":12950,"hypote":12951,"stifta":12952,"kammeret":12953,"rens":12954,"befant":12955,"oppholdt":12956,"iverks":12957,"Flyet":12958,"sperioden":12959,"Kung":12960,"vileg":12961,"bygginga":12962,"stafetten":12963,"Hunnen":12964,"adis":12965,"stemmerett":12966,"selvstendighet":12967,"administrasjonssenter":12968,"trommeslager":12969,"Charlotte":12970,"æn":12971,"ione":12972,"offentleg":12973,"Heim":12974,"114":12975,"ww":12976,"ograd":12977,"rettighetene":12978,"kald":12979,"sjukdom":12980,"Amal":12981,"produktet":12982,"Svend":12983,"ommun":12984,"SD":12985,"Sei":12986,"Administrasjons":12987,"RMS":12988,"overlevende":12989,"para":12990,"Storm":12991,"Helgeland":12992,"svirksomhet":12993,"Of":12994,"residen":12995,"rick":12996,"slutter":12997,"slekts":12998,"Human":12999,"Mind":13000,"immun":13001,"Landkreis":13002,"hertugdømmet":13003,"restaurant":13004,"Even":13005,"gol":13006,"light":13007,"Stones":13008,"brakt":13009,"kunstneren":13010,"forstyrr":13011,"rittet":13012,"edalen":13013,"opererer":13014,"oa":13015,"tus":13016,"Sche":13017,"Alexandria":13018,"Cappelen":13019,"cket":13020,"cio":13021,"ime":13022,"dell":13023,"plak":13024,"keland":13025,"bbet":13026,"1833":13027,"Tibet":13028,"Steinkjer":13029,"protestantiske":13030,"samarbeide":13031,"iskop":13032,"ovel":13033,"rets":13034,"kompani":13035,"Bent":13036,"ystem":13037,"forlet":13038,"averande":13039,"hak":13040,"erende":13041,"Serge":13042,"miljøer":13043,"Kennedy":13044,"periferieininga":13045,"omfang":13046,"sambandet":13047,"ople":13048,"Moe":13049,"feller":13050,"evig":13051,"sklubben":13052,"Vatikan":13053,"plet":13054,"bragte":13055,"evolusjon":13056,"kvalifiserings":13057,"nevne":13058,"kred":13059,"ondo":13060,"Eksempel":13061,"overraskende":13062,"Gordon":13063,"sis":13064,"spion":13065,"hittil":13066,"Eriksen":13067,"Deutsch":13068,"Pia":13069,"SE":13070,"utløpet":13071,"Found":13072,"ammunisjon":13073,"Eag":13074,"Orig":13075,"ekn":13076,"opprettholde":13077,"Social":13078,"bbe":13079,"jot":13080,"jin":13081,"vakte":13082,"Spesielt":13083,"avdekket":13084,"dramatisk":13085,"Hermann":13086,"nordøstlige":13087,"BK":13088,"forum":13089,"høyest":13090,"velges":13091,"forsin":13092,"Apple":13093,"Alber":13094,"kristendom":13095,"Mongolia":13096,"Demografi":13097,"islandske":13098,"samtid":13099,"opptredener":13100,"ørkenen":13101,"Ltd":13102,"skat":13103,"skolens":13104,"Misso":13105,"tortur":13106,"castle":13107,"Kiev":13108,"Gur":13109,"Vitenskap":13110,"bestanden":13111,"istar":13112,"Same":13113,"estimert":13114,"work":13115,"inar":13116,"paa":13117,"sirkul":13118,"betraktes":13119,"ønskte":13120,"Discovery":13121,"come":13122,"sprinten":13123,"mynter":13124,"Tennessee":13125,"Hit":13126,"Ninten":13127,"forsterk":13128,"kanaler":13129,"skiold":13130,"maskinen":13131,"ukjente":13132,"fullmektig":13133,"Inndeling":13134,"Vanlig":13135,"Cæsar":13136,"utdanna":13137,"utenlands":13138,"Palmer":13139,"Singap":13140,"Rh":13141,"any":13142,"styring":13143,"felttoget":13144,"blas":13145,"standene":13146,"sosialt":13147,"betrakt":13148,"Tippelig":13149,"Geneve":13150,"haven":13151,"flor":13152,"stjenesten":13153,"rering":13154,"granitt":13155,"patriark":13156,"morgenen":13157,"Ji":13158,"glo":13159,"oppmun":13160,"undertegnet":13161,"marx":13162,"skuespillere":13163,"symmet":13164,"verdensrekord":13165,"bomber":13166,"konseptet":13167,"num":13168,"ares":13169,"sium":13170,"redet":13171,"jordskjelv":13172,"Lyd":13173,"Deep":13174,"ners":13175,"høyrde":13176,"jomfru":13177,"oppfatning":13178,"Innsbruck":13179,"verste":13180,"snur":13181,"hyper":13182,"hias":13183,"Hannen":13184,"krum":13185,"betenn":13186,"Dansk":13187,"innsatt":13188,"innløpet":13189,"ferdigstilt":13190,"BN":13191,"avgang":13192,"seld":13193,"Buck":13194,"ftig":13195,"Ec":13196,"integrert":13197,"sling":13198,"leverand":13199,"Arnold":13200,"arktiske":13201,"Cav":13202,"Hugo":13203,"blank":13204,"resultatene":13205,"europamesterskapet":13206,"Anatolia":13207,"Aer":13208,"Ida":13209,"sære":13210,"tidlege":13211,"strengt":13212,"velstaende":13213,"KrF":13214,"Whit":13215,"Lofoten":13216,"islav":13217,"danser":13218,"digitale":13219,"arrest":13220,"spillene":13221,"melk":13222,"landsbyer":13223,"pasient":13224,"Fy":13225,"ungen":13226,"pafallende":13227,"prosesser":13228,"Johans":13229,"Coast":13230,"annerledes":13231,"heder":13232,"low":13233,"spare":13234,"malvakt":13235,"Hero":13236,"Asbjørn":13237,"Cry":13238,"Carr":13239,"Dyr":13240,"Sunde":13241,"Zam":13242,"dekorert":13243,"RT":13244,"stum":13245,"treet":13246,"bog":13247,"rap":13248,"forskjellen":13249,"tegner":13250,"alth":13251,"Alpene":13252,"bakkroppen":13253,"hinder":13254,"kid":13255,"hendelsene":13256,"organisering":13257,"Noe":13258,"bakgrunnen":13259,"plateselskap":13260,"NG":13261,"forvir":13262,"islandsk":13263,"1832":13264,"Inndelingen":13265,"industrielle":13266,"Chrysomelidae":13267,"bye":13268,"Pow":13269,"zona":13270,"1812":13271,"tydelige":13272,"boa":13273,"torped":13274,"hevda":13275,"Britannia":13276,"resterende":13277,"toget":13278,"strategi":13279,"Mob":13280,"Mitch":13281,"otisk":13282,"gjær":13283,"løfte":13284,"Larven":13285,"Rat":13286,"stige":13287,"skov":13288,"drapet":13289,"tegl":13290,"prinsen":13291,"Fordi":13292,"you":13293,"relatert":13294,"faktum":13295,"Levanger":13296,"komplisert":13297,"utslipp":13298,"ando":13299,"Fager":13300,"Revol":13301,"lengd":13302,"alternative":13303,"ACAN":13304,"Hz":13305,"Hog":13306,"Detroit":13307,"selvstendige":13308,"inst":13309,"omfatte":13310,"praktiske":13311,"etappen":13312,"Microsoft":13313,"inett":13314,"plasseringer":13315,"Buff":13316,"militæret":13317,".–":13318,"apner":13319,"turister":13320,"graven":13321,"Heat":13322,"registrerte":13323,"plataet":13324,"forsterket":13325,"erto":13326,"nyhets":13327,"skjul":13328,"ekspansjon":13329,"Hydro":13330,"komplekse":13331,"Arsenal":13332,"Hval":13333,"Rig":13334,"sse":13335,"ии":13336,"østre":13337,"Moham":13338,"orientert":13339,"psykiat":13340,"konstruksjonen":13341,"angul":13342,"garde":13343,"Marian":13344,"Campbell":13345,"Stiftelsen":13346,"metallisk":13347,"Yorks":13348,"ст":13349,"itas":13350,"Neu":13351,"Sardin":13352,"Verne":13353,"hager":13354,"oppfordret":13355,"berger":13356,"platene":13357,"enklere":13358,"Stortings":13359,"Space":13360,"Frei":13361,"utnytte":13362,"konsentrasjonsleir":13363,"løslatt":13364,"litterær":13365,"opphevet":13366,"farvann":13367,"nedslags":13368,"Baden":13369,"offentliggjort":13370,"Skjer":13371,"kum":13372,"vilt":13373,"Foruten":13374,"ments":13375,"krystall":13376,"utryd":13377,"uste":13378,"senator":13379,"innover":13380,"have":13381,"skjult":13382,"plassar":13383,"Pyeong":13384,"teneste":13385,"etting":13386,"prost":13387,"Conc":13388,"Ulle":13389,"Mississi":13390,"manad":13391,"organist":13392,"vietname":13393,"rele":13394,"Skul":13395,"rakett":13396,"lukket":13397,"skrekk":13398,"Kevin":13399,"unionens":13400,"ental":13401,"revolusjonære":13402,"dennes":13403,"Age":13404,"interiør":13405,"tapet":13406,"deltakelse":13407,"Ming":13408,"Mam":13409,"ulerte":13410,"sakadem":13411,"First":13412,"oler":13413,"styrkane":13414,"midtre":13415,"forskeren":13416,"assen":13417,"skilles":13418,"statssekretær":13419,"brunt":13420,"barnebarn":13421,"filosofiske":13422,"Airlines":13423,"tjener":13424,"delane":13425,"Konkurran":13426,"Hob":13427,"stanse":13428,"Stalin":13429,"Vinner":13430,"fans":13431,"scup":13432,"Musikken":13433,"kontroller":13434,"Algerie":13435,"Stig":13436,"planten":13437,"Forbun":13438,"kirkene":13439,"imperiet":13440,"hjorte":13441,"tanken":13442,"høvding":13443,"Tittelen":13444,"tøy":13445,"ikat":13446,"jevnt":13447,"Fac":13448,"Xian":13449,"urbane":13450,"provinser":13451,"fabrikker":13452,"skyldig":13453,"Pant":13454,"mote":13455,"Science":13456,"tverrband":13457,"Malta":13458,"Pac":13459,"book":13460,"vinning":13461,"skrivne":13462,"ppens":13463,"trekte":13464,"spelaren":13465,"Kant":13466,"Herc":13467,"kasse":13468,"angriper":13469,"konferansen":13470,"Din":13471,"Relig":13472,"Yng":13473,"innføre":13474,"artik":13475,"slagene":13476,"cept":13477,"dyrene":13478,"riften":13479,"tvilling":13480,"atferd":13481,"1810":13482,"nyare":13483,"primit":13484,"generalmajor":13485,"absolutt":13486,"hm":13487,"tz":13488,"varmt":13489,"Valdres":13490,"yu":13491,"sop":13492,"Kristoffer":13493,"Boeing":13494,"falen":13495,"regjeringstid":13496,"annonsert":13497,"hevn":13498,"ugene":13499,"hjemlandet":13500,"gitte":13501,"Buen":13502,"global":13503,"afro":13504,"ødelegge":13505,"Forbunds":13506,"Jen":13507,"Ple":13508,"frisk":13509,"kjøl":13510,"braut":13511,"oppvarming":13512,"fia":13513,"ikten":13514,"urus":13515,"antikkens":13516,"Johnsen":13517,"kvadratkilometer":13518,"Beng":13519,"Ug":13520,"Demo":13521,"figurene":13522,"innga":13523,"krater":13524,"belast":13525,"evner":13526,"styresmaktene":13527,"Vad":13528,"smerte":13529,"mose":13530,"vestad":13531,"Bernard":13532,"rapportert":13533,"Egg":13534,"Horten":13535,"styrmann":13536,"scor":13537,"Rain":13538,"faktorer":13539,"Siv":13540,"sius":13541,"take":13542,"kjever":13543,"republikanske":13544,"Mig":13545,"hjernen":13546,"nom":13547,"kritiske":13548,"leikane":13549,"Operatør":13550,"daverande":13551,"attent":13552,"haus":13553,"Montene":13554,"nordligste":13555,"lengdehopp":13556,"Romerriket":13557,"Refer":13558,"Floyd":13559,"Bab":13560,"ellev":13561,"More":13562,"uto":13563,"treffer":13564,"nop":13565,"standarden":13566,"pavist":13567,"Kristen":13568,"Ost":13569,"Virk":13570,"ombygd":13571,"ittar":13572,"ayer":13573,"liberal":13574,"smelte":13575,"Gall":13576,"bygdene":13577,"105":13578,"Harvard":13579,"Philli":13580,"vering":13581,"ivalen":13582,"Knudsen":13583,"Pho":13584,"monopol":13585,"hytta":13586,"sørvestlige":13587,"herredømme":13588,"administrativ":13589,"enheten":13590,"poder":13591,"Herbert":13592,"Munch":13593,"Latin":13594,"install":13595,"klor":13596,"systematisk":13597,"ggen":13598,"heavy":13599,"likna":13600,"syns":13601,"Electric":13602,"Sistnevnte":13603,"anven":13604,"flytter":13605,"annias":13606,"arsjubileum":13607,"Pyeongchang":13608,"Rho":13609,"Yang":13610,"orter":13611,"varsel":13612,"formell":13613,"kriter":13614,"frav":13615,"1808":13616,"Gustaf":13617,"Girl":13618,"Prosjektet":13619,"Stjørdal":13620,"Hawaii":13621,"slinjer":13622,"uga":13623,"langvarig":13624,"Forel":13625,"sikten":13626,"Ungdoms":13627,"ulovlig":13628,"Porsgrunn":13629,"fele":13630,"jab":13631,"osa":13632,"uston":13633,"styrkar":13634,"Paulo":13635,"seiler":13636,"ellig":13637,"avrundet":13638,"konkret":13639,"befolknings":13640,"Kare":13641,"tillot":13642,"Hospital":13643,"lærde":13644,"Muller":13645,"Svartehavet":13646,"Winter":13647,"vitner":13648,"Jeff":13649,"løsninger":13650,"sprosessen":13651,"utvidelse":13652,"lova":13653,"vannpolo":13654,"Hens":13655,"forbunds":13656,"Russell":13657,"Arbeidar":13658,"1807":13659,"tyngde":13660,"avstemningen":13661,"Lawrence":13662,"Mercury":13663,"Fry":13664,"Kul":13665,"Tower":13666,"løve":13667,"begrense":13668,"ianus":13669,"avisene":13670,"Walker":13671,"xon":13672,"funksjons":13673,"bebyggelsen":13674,"Stortingets":13675,"02":13676,"Golf":13677,"1824":13678,"Bobby":13679,"Bret":13680,"skriving":13681,"mingham":13682,"Hig":13683,"Seg":13684,"dekar":13685,"Dec":13686,"boe":13687,"dyrking":13688,"Scot":13689,"slovak":13690,"alpinist":13691,"Aserbajdsjan":13692,"Vide":13693,"foster":13694,"gamal":13695,"Finalen":13696,"soldatar":13697,"Montenegro":13698,"Hva":13699,"oko":13700,"byggj":13701,"box":13702,"torv":13703,"gjennomsnittlig":13704,"egyptisk":13705,"rekrut":13706,"regent":13707,"itor":13708,"brid":13709,"busk":13710,"Diamond":13711,"lingvist":13712,"meldt":13713,"Canad":13714,"løvtrær":13715,"skandinaviske":13716,"Sardinia":13717,"vunne":13718,"stj":13719,"elland":13720,"følelse":13721,"personene":13722,"informasjons":13723,"kampar":13724,"fengselet":13725,"forveksles":13726,"zburg":13727,"forræ":13728,"lednings":13729,"Valent":13730,"%)":13731,"Halle":13732,"Jay":13733,"premier":13734,"fisket":13735,"forsyninger":13736,"separate":13737,"117":13738,"Dion":13739,"tim":13740,"service":13741,"Styr":13742,"veiene":13743,"Forsvaret":13744,"blankt":13745,"plankton":13746,"seksuelle":13747,"Foll":13748,"1816":13749,"tendens":13750,"fiol":13751,"slektene":13752,"lak":13753,"søkt":13754,"=\"":13755,"løfter":13756,"uez":13757,"trompet":13758,"benevn":13759,"\"»":13760,"stas":13761,"Isle":13762,"Westfalen":13763,"opplysning":13764,"Stam":13765,"arbeiderne":13766,"marmor":13767,"Norweg":13768,"synleg":13769,"itære":13770,"lykkes":13771,"Thompson":13772,"jordens":13773,"protein":13774,"ødsel":13775,"Abbey":13776,"!»":13777,"ksi":13778,"motstanden":13779,"mesteren":13780,"spesialist":13781,"alliert":13782,"Parken":13783,"onsson":13784,"borgerkrig":13785,"1809":13786,"langrennsløper":13787,"Abo":13788,"EN":13789,"jubile":13790,"oria":13791,"itus":13792,"bystyre":13793,"slatte":13794,"Saman":13795,"intens":13796,"Birmingham":13797,"Anker":13798,"kirkelige":13799,"Newcastle":13800,"Storbritannias":13801,"kandidater":13802,"arkeologi":13803,"stigning":13804,"Nintendo":13805,"markant":13806,"punk":13807,"beskrivelser":13808,"opplev":13809,"verknad":13810,"Missouri":13811,"lisens":13812,"underholdning":13813,"Ptole":13814,"medik":13815,"kede":13816,"othe":13817,"handle":13818,"banker":13819,"Midd":13820,"regjeringens":13821,"dong":13822,"fing":13823,"stalt":13824,"mora":13825,"kritiserte":13826,"beskytter":13827,"qi":13828,"henrett":13829,"følelser":13830,"jevnlig":13831,"laveste":13832,"Singapore":13833,"svenskene":13834,"What":13835,"ierra":13836,"reknar":13837,"sørsiden":13838,"barokk":13839,"gongar":13840,"kreditert":13841,"U23":13842,"smed":13843,"tam":13844,"Installert":13845,"kampanje":13846,"Intel":13847,"partikler":13848,"songaren":13849,"Rac":13850,"odene":13851,"Instru":13852,"Broadway":13853,"yan":13854,"leire":13855,"Grant":13856,"katalog":13857,"universet":13858,"iseringa":13859,"lude":13860,"spredning":13861,"Antiok":13862,"Mississippi":13863,"lapp":13864,"melde":13865,"innenriks":13866,"fiber":13867,"temaet":13868,"lisen":13869,"kapellet":13870,"Symp":13871,"mobilt":13872,"Swe":13873,"Glom":13874,"elektromagnet":13875,"aft":13876,"sinstitusjon":13877,"territori":13878,"bokstaven":13879,"ereg":13880,"kulturer":13881,"musikar":13882,"klede":13883,"ocaust":13884,"(),":13885,"rater":13886,"koblet":13887,"kronet":13888,"spanjol":13889,"750":13890,"Four":13891,"hong":13892,"iness":13893,"onto":13894,"tilnavnet":13895,"gardbrukar":13896,"regional":13897,"kommunistpartiet":13898,"vurdering":13899,"verft":13900,"menigheten":13901,"befal":13902,"1835":13903,"kjelder":13904,"ici":13905,"ytterst":13906,"Leonard":13907,"jav":13908,"levande":13909,"fyller":13910,"sjeldan":13911,"romart":13912,"fryktet":13913,"Fen":13914,"reduksjon":13915,"Augustus":13916,"drivstoff":13917,"manuskript":13918,"tevlinga":13919,"imellom":13920,"passerte":13921,"ин":13922,"oty":13923,"Cooper":13924,"Thur":13925,"Quis":13926,"testamente":13927,"Falkland":13928,"edet":13929,"splasser":13930,"jeger":13931,"1827":13932,"boende":13933,"bokmal":13934,"folkene":13935,"Meyer":13936,"Jamaica":13937,"Mit":13938,"Tig":13939,"faglige":13940,"Halling":13941,"Ronald":13942,"Tanz":13943,"hersket":13944,"synger":13945,"barnehage":13946,"manuel":13947,"Sri":13948,"kollen":13949,"Leopold":13950,"Rut":13951,"sunn":13952,"omon":13953,"asia":13954,"protot":13955,"pasninger":13956,"Evans":13957,"Krigs":13958,"Gli":13959,"Gang":13960,"teller":13961,"eton":13962,"ogene":13963,"1828":13964,")\".":13965,"illeg":13966,"isjoner":13967,"medlemmar":13968,"tyngre":13969,"uthern":13970,"Mountain":13971,"Abel":13972,"inklus":13973,"Kvit":13974,"Vind":13975,"gatene":13976,"brud":13977,"ffi":13978,"værelse":13979,"kunstnerisk":13980,"islamske":13981,"forbrytelser":13982,"Nab":13983,"datidens":13984,"1801":13985,"Colorado":13986,"Clin":13987,"ittisk":13988,"fjorten":13989,"Spits":13990,"nivaer":13991,"Domin":13992,"HF":13993,"Pie":13994,"impon":13995,"boy":13996,"Spen":13997,"Norgesmesterskapet":13998,"Arbeids":13999,"strategiske":14000,"Afri":14001,"Data":14002,"Now":14003,"frakt":14004,"ause":14005,"iteen":14006,"Hauge":14007,"Forsvars":14008,"ια":14009,"slette":14010,"heve":14011,"væpnede":14012,"Amazon":14013,"nasjonen":14014,"Diego":14015,"hanner":14016,"1829":14017,"mour":14018,"hovedrolle":14019,"maker":14020,"undersøke":14021,"Ranger":14022,"4000":14023,"Tunnelen":14024,"anslatt":14025,"rehabili":14026,"krins":14027,"ansene":14028,"that":14029,"Kristin":14030,"03":14031,"1831":14032,"bringer":14033,"valuta":14034,"Liby":14035,"mangfold":14036,"prestis":14037,"embetet":14038,"sorenskriver":14039,"Bryg":14040,"kvant":14041,"ytt":14042,"icks":14043,"regelen":14044,"Key":14045,"Oliver":14046,"Dus":14047,"hunde":14048,"svær":14049,"fremtidige":14050,"insula":14051,"smalt":14052,"skara":14053,"utlend":14054,"henge":14055,"bildene":14056,"fødselsar":14057,"runder":14058,"Western":14059,"mekaniske":14060,"tvangs":14061,"uensis":14062,"sonomi":14063,"abbed":14064,"distrikts":14065,"renessanse":14066,"mottar":14067,"Alv":14068,"følgjer":14069,"bomull":14070,"tallets":14071,"styreformann":14072,"arrangementet":14073,"include":14074,"amfipoder":14075,"plutselig":14076,"Vast":14077,"omtaler":14078,"muslimer":14079,"arhundrer":14080,"Rica":14081,"News":14082,"Pere":14083,"forstad":14084,"ismens":14085,"Navn":14086,"vell":14087,"avbrutt":14088,"falsk":14089,"fordeler":14090,"urter":14091,"1813":14092,"sommerfuglene":14093,"Standard":14094,"raels":14095,"føringa":14096,"sjefen":14097,"Lyon":14098,"brevet":14099,"subje":14100,"sokne":14101,"skraftverk":14102,"orps":14103,"fortelle":14104,"Bryn":14105,"Canter":14106,"Venus":14107,"bidraget":14108,"elektrisitet":14109,"opot":14110,"Hockey":14111,"manglet":14112,"tolket":14113,"erobringen":14114,"kommunens":14115,"kafe":14116,"Tau":14117,"hengt":14118,"nødvendige":14119,"fuktig":14120,"trussel":14121,"Hanna":14122,"Resten":14123,"gjenvalgt":14124,"orienterte":14125,"verdsmeister":14126,"semble":14127,"Catal":14128,"guvernøren":14129,"Waters":14130,"teologiske":14131,"utkjempet":14132,"søks":14133,"ovre":14134,"stranda":14135,"Vincent":14136,"aristokrat":14137,"ovitsj":14138,"forenklet":14139,"bustad":14140,"Natt":14141,"Nansen":14142,"anden":14143,"igi":14144,"intellig":14145,"instruktør":14146,"Elverum":14147,"Lod":14148,"jung":14149,"lekam":14150,"ligningen":14151,"turer":14152,"Baker":14153,"Eugene":14154,"mæle":14155,"utbyggingen":14156,"Møller":14157,"dug":14158,"distriktene":14159,"Zappa":14160,"jas":14161,"tilstanden":14162,"Franklin":14163,"rekkefølge":14164,"sprin":14165,"Fabr":14166,"spurte":14167,"infrastruktur":14168,"Kvar":14169,"issa":14170,"opprykk":14171,"parentes":14172,"gudene":14173,"sos":14174,"edag":14175,"ekspor":14176,"Finlands":14177,"Wergeland":14178,"mn":14179,"eles":14180,"raka":14181,"bandene":14182,"katt":14183,"anatom":14184,"ilo":14185,"Here":14186,"immig":14187,"musikkvideo":14188,"quarter":14189,"marskalk":14190,"Rel":14191,"SO":14192,"mud":14193,"alisert":14194,"ragende":14195,"steori":14196,"Forlag":14197,"krigføring":14198,"sangeren":14199,"dreper":14200,"Trass":14201,"staben":14202,"pokalen":14203,"femti":14204,"stammet":14205,"smalere":14206,"klatre":14207,"angelsaksiske":14208,"vap":14209,"Span":14210,"opererte":14211,"deltaker":14212,"økos":14213,"Fla":14214,"keberg":14215,"angs":14216,"hovedbelteasteroide":14217,"byraet":14218,"Brandenburg":14219,"Nigeria":14220,"reres":14221,"frakte":14222,"vedt":14223,"import":14224,"finalene":14225,"verdenen":14226,"Zu":14227,"europ":14228,"rium":14229,"Marine":14230,"strafikk":14231,"usjonen":14232,"Elven":14233,"akademiske":14234,"differensi":14235,"Wik":14236,"ringa":14237,"stikker":14238,"etterfølg":14239,"fins":14240,"Marit":14241,"flater":14242,"Barbara":14243,"inspektør":14244,"dae":14245,"kulturell":14246,"Barry":14247,"gil":14248,"ønner":14249,"fremførte":14250,"trass":14251,"juster":14252,"temaer":14253,"Paret":14254,"etc":14255,"lighet":14256,"kirk":14257,"Lorent":14258,"geometri":14259,"Bond":14260,"summer":14261,"milliard":14262,"brystet":14263,"krise":14264,"hapet":14265,"Cerambycinae":14266,"Spitsbergen":14267,"MG":14268,"Spar":14269,"Vapen":14270,"rifle":14271,"Ingrid":14272,"Mao":14273,"mors":14274,"regjerende":14275,"Arizona":14276,"amanuensis":14277,"1825":14278,"Chelse":14279,"valgene":14280,"arren":14281,"produksjoner":14282,"galleriet":14283,"alv":14284,"athan":14285,"action":14286,"nordøstregionen":14287,"Dallas":14288,"Gaten":14289,"keramikk":14290,"grov":14291,"220":14292,"jorde":14293,"verts":14294,"korrup":14295,"underjord":14296,"Bakgrunnen":14297,"novelle":14298,"bele":14299,"huser":14300,"forestillingen":14301,"Mozart":14302,"Listen":14303,"drifts":14304,"Hviterussland":14305,"pastor":14306,"oppdraget":14307,"etty":14308,"sjøs":14309,"bronsemedaljer":14310,"terrenget":14311,"avlen":14312,"harete":14313,"Dead":14314,"oldtidens":14315,"forstatt":14316,"radene":14317,"heitte":14318,"blikket":14319,"indirekte":14320,"univers":14321,"utgjeve":14322,"spons":14323,"Derimot":14324,"Brist":14325,"ush":14326,"transk":14327,"israelsk":14328,"Shetlands":14329,"Tippeligaen":14330,"Fast":14331,"geril":14332,"arrangerer":14333,"biologi":14334,"Israels":14335,"polis":14336,"rettssak":14337,"tilsette":14338,"grø":14339,"konkluderte":14340,"Mall":14341,"atorium":14342,"bassen":14343,"maios":14344,"pasiteten":14345,"kyrkj":14346,"sesongene":14347,"Utdanning":14348,"peng":14349,"musling":14350,"omfattande":14351,"niende":14352,"Handlingen":14353,"kunstneriske":14354,"utra":14355,"grunnloven":14356,"generasjoner":14357,"Privat":14358,"Hannover":14359,"banksjef":14360,"Yes":14361,"glede":14362,"Parti":14363,"achim":14364,"dame":14365,"unike":14366,"dialog":14367,"cock":14368,"sammenslaingen":14369,"Foundation":14370,"amnet":14371,"geografi":14372,"geologiske":14373,"metam":14374,"privileg":14375,"Cant":14376,"Lak":14377,"uge":14378,"roing":14379,"etternavn":14380,"Byens":14381,"period":14382,"kjenneteg":14383,"AK":14384,"tilflukt":14385,"apet":14386,"fargene":14387,"Vinje":14388,"Tanzania":14389,"Krak":14390,"Last":14391,"ulere":14392,"slank":14393,"Englands":14394,"mekanisk":14395,"Sports":14396,"Peninsula":14397,"overra":14398,"aterte":14399,"forkant":14400,"ware":14401,"andene":14402,"troppene":14403,"borgen":14404,"atorisk":14405,"Ecu":14406,"keeper":14407,"nyttig":14408,"klokka":14409,"ekstreme":14410,"onisk":14411,"Stutt":14412,"fisken":14413,"musikarar":14414,"rær":14415,"sfjord":14416,"ferden":14417,"bonus":14418,"argentinsk":14419,"yi":14420,"stes":14421,"beskriv":14422,"minal":14423,"Republi":14424,"presidentvalget":14425,"prise":14426,"betydde":14427,"variasjon":14428,"fløyte":14429,"kommunikasjons":14430,"bore":14431,"huden":14432,"rumensk":14433,"Romanen":14434,"aktiviteten":14435,"Mold":14436,"fortet":14437,"ulikt":14438,"kunstløp":14439,"slektninger":14440,"Nak":14441,"orum":14442,"agan":14443,"tril":14444,"bedt":14445,"Hessen":14446,"cru":14447,"sw":14448,"improvis":14449,"kalif":14450,"virkende":14451,"Press":14452,"pavirke":14453,"Antall":14454,"levetid":14455,"gd":14456,"vesle":14457,"lagare":14458,"klipper":14459,"nederlaget":14460,"ytelse":14461,"Scarabaeidae":14462,"lysere":14463,"substant":14464,"sorte":14465,"hurtigløp":14466,"ministeriet":14467,"renessansen":14468,"MC":14469,"utføres":14470,"Derby":14471,"biskoper":14472,"respektive":14473,"Did":14474,"vitt":14475,"dea":14476,"drevne":14477,"dronningen":14478,"mie":14479,"rea":14480,"Joachim":14481,"skøyteløper":14482,"pest":14483,"endt":14484,"adgang":14485,"matematisk":14486,"arit":14487,"stua":14488,"daler":14489,"gardbruker":14490,"behandlingen":14491,"MT":14492,"Ridge":14493,"craft":14494,"Henning":14495,"ffekt":14496,"Design":14497,"doktorgraden":14498,"roleum":14499,"innløp":14500,"strender":14501,"jenesten":14502,"diplomatiske":14503,"Frode":14504,"Avisen":14505,"Beit":14506,"Neste":14507,"Base":14508,"Rap":14509,"Medan":14510,"klippe":14511,"Regionen":14512,"vurderte":14513,"Svensk":14514,"eksistens":14515,"foreløpig":14516,"liker":14517,"bede":14518,"bralt":14519,"ekvat":14520,"emne":14521,"ibal":14522,"Gruppens":14523,"Bernhard":14524,"Canterbury":14525,"IR":14526,"Plate":14527,"senatet":14528,"eigenskap":14529,"Tunis":14530,"Nunatak":14531,"organisere":14532,"forvaltnings":14533,"geolog":14534,"hendelse":14535,"stue":14536,"fried":14537,"beleiringen":14538,"fødde":14539,"dramatiske":14540,"boksing":14541,"Slesvig":14542,"Diet":14543,"ommet":14544,"Alb":14545,"familiene":14546,"Førde":14547,"ellevte":14548,"ume":14549,"omset":14550,"antz":14551,"sindustri":14552,"Antallet":14553,"definerer":14554,"Herceg":14555,"skatter":14556,"minut":14557,"Chie":14558,"ritu":14559,"zealand":14560,"Norwegian":14561,"rem":14562,"Sey":14563,"kortvarig":14564,"pasning":14565,"stammene":14566,"Personene":14567,"avslørt":14568,"urneringen":14569,"Dark":14570,"gutten":14571,"stinget":14572,"Beau":14573,"seksuell":14574,"Russlands":14575,"skildrer":14576,"Athlet":14577,"Mikael":14578,"anvende":14579,"revi":14580,"herreland":14581,"væpnet":14582,"kyrkjer":14583,"Istan":14584,"Llo":14585,"stemmen":14586,"Felix":14587,"Bjarne":14588,"Ges":14589,"Sju":14590,"liske":14591,"kronen":14592,"Manuel":14593,"singler":14594,"strukturer":14595,"personligheter":14596,"forfattet":14597,"Xi":14598,"oval":14599,"innvil":14600,"skifer":14601,"følgen":14602,"Dance":14603,"hui":14604,"E6":14605,"Via":14606,"dum":14607,"innov":14608,"1819":14609,"sønnene":14610,"Konged":14611,"Sovjetunionens":14612,"vedlikehold":14613,"Chelsea":14614,"pluss":14615,"kross":14616,"Gary":14617,"baseball":14618,"illustrat":14619,"Matthe":14620,"Aga":14621,"Ci":14622,"etil":14623,"utgangen":14624,"1834":14625,"kniv":14626,"ytterste":14627,"barneskole":14628,"midtbane":14629,"karakterisert":14630,"Volda":14631,"øverstkommanderende":14632,"lektor":14633,"beslutning":14634,"This":14635,"Ellen":14636,"manedene":14637,"ellow":14638,"veldet":14639,"eiendoms":14640,"lyde":14641,"sjak":14642,"hovudbelteasteroide":14643,"Monroe":14644,"AD":14645,"heid":14646,"Skal":14647,"snakk":14648,"Kry":14649,"armer":14650,"reen":14651,"etti":14652,"kasta":14653,"Moritz":14654,"firkantet":14655,"nødt":14656,"Krigen":14657,"Princ":14658,"warte":14659,"skirke":14660,"slok":14661,"dsson":14662,"1826":14663,"munt":14664,"tenke":14665,"organisk":14666,"glatt":14667,"diff":14668,"360":14669,"oppvekst":14670,"uttale":14671,"Santi":14672,"Røn":14673,"kreve":14674,"toler":14675,"koping":14676,"fotografert":14677,"hellen":14678,"uz":14679,"apolis":14680,"odne":14681,"makedon":14682,"Semi":14683,"HD":14684,"kass":14685,"ox":14686,"sproble":14687,"Byggverket":14688,"cat":14689,"hektar":14690,"ovan":14691,"følgj":14692,"forfatterskap":14693,"kritikere":14694,"offentlege":14695,"Deler":14696,"Riksantik":14697,"Kanalen":14698,"gjentatte":14699,"Sierra":14700,"butt":14701,"debutalbum":14702,"undervisnings":14703,"Isab":14704,"skjebne":14705,"avbil":14706,"1822":14707,"ovina":14708,"bygningar":14709,"pavirker":14710,"Cum":14711,"Sz":14712,"Zhang":14713,"dap":14714,"FIFA":14715,"Kamer":14716,"Rena":14717,"oriske":14718,"treff":14719,"ledetrad":14720,"folketelling":14721,"finansminister":14722,"pollen":14723,"till":14724,"terning":14725,"sleng":14726,"fornøyd":14727,"saktiv":14728,"Southern":14729,"Toronto":14730,"Khal":14731,"cz":14732,"utdelt":14733,"angir":14734,"Istanbul":14735,"GB":14736,"idad":14737,"Stuart":14738,"Gibralt":14739,"kjenning":14740,"pla":14741,"Emma":14742,"skikkelse":14743,"Deutsche":14744,"traged":14745,"Snø":14746,"bio":14747,"emp":14748,"farao":14749,"Kosovo":14750,"Globe":14751,"Gent":14752,"jos":14753,"lyste":14754,"framførte":14755,"krigene":14756,"tolk":14757,"1806":14758,"Katarina":14759,"listet":14760,"orp":14761,"ady":14762,"Reser":14763,"Steel":14764,"bevaring":14765,"hunnene":14766,"teolog":14767,"ssyn":14768,"sykler":14769,"kongedømme":14770,"Klok":14771,"aktør":14772,"scorer":14773,"Hold":14774,"Inde":14775,"regjerte":14776,"priori":14777,"bortimot":14778,"punktene":14779,"magnetiske":14780,"Arkitekt":14781,"Ptolemaios":14782,"Fiske":14783,"kut":14784,"besta":14785,"arbeidene":14786,"effekter":14787,"RAF":14788,"optim":14789,"Sofia":14790,"fiende":14791,"skyer":14792,"inda":14793,"Fremskritt":14794,"Ordenen":14795,"lob":14796,"fords":14797,"litur":14798,"steretts":14799,"kanadiske":14800,"selges":14801,"Christine":14802,"Nobelprisen":14803,"skyr":14804,"utstilt":14805,"mentere":14806,"Samling":14807,"kroppens":14808,"feilaktig":14809,"Demokrat":14810,"hjertet":14811,"Slot":14812,"enburg":14813,"inntok":14814,"Theod":14815,"forsøke":14816,"Linda":14817,"Arbeid":14818,"skontrakt":14819,"ал":14820,"overlevd":14821,"traktor":14822,"Memor":14823,"hotellet":14824,"lyder":14825,"riller":14826,"Conne":14827,"Nieder":14828,"Landes":14829,"gælisk":14830,"Erich":14831,"haret":14832,"lignet":14833,"luks":14834,"Edgar":14835,"propor":14836,"Luis":14837,"onymet":14838,"AN":14839,"Aven":14840,"Pod":14841,"klokker":14842,"sultan":14843,"Eivind":14844,"Ot":14845,"fjellkjede":14846,"quist":14847,"kategorier":14848,"gymna":14849,"edderkopper":14850,"virksomheter":14851,"Kay":14852,"cin":14853,"agne":14854,"fekter":14855,"bow":14856,"angrepene":14857,"Sporliste":14858,"Dat":14859,"Dir":14860,"ður":14861,"Sogndal":14862,"komplett":14863,"Bristol":14864,"cto":14865,"fremragende":14866,"selvstyre":14867,"kulturminne":14868,"uttrykte":14869,"jernbanestasjon":14870,"stiger":14871,"Theater":14872,"særdeles":14873,"patrul":14874,"German":14875,"summen":14876,"beliggen":14877,"gun":14878,"reelle":14879,
[...]
