{"version":"1.0","truncation":null,"padding":null,"added_tokens":[{"id":0,"special":true,"content":"<unk>","single_word":false,"lstrip":false,"rstrip":false,"normalized":false}],"normalizer":{"type":"Sequence","normalizers":[{"type":"NFD"},{"type":"StripAccents"}]},"pre_tokenizer":{"type":"Whitespace"},"post_processor":null,"decoder":{"type":"Metaspace","replacement":"▁","str_rep":"▁","add_prefix_space":true},"model":{"type":"BPE","dropout":null,"unk_token":null,"continuing_subword_prefix":null,"end_of_word_suffix":null,"fuse_unk":false,"vocab":{"<unk>":0,"\u0000":1,"\u0003":2,"\u0006":3,"\u0007":4,"\b":5,"\u0013":6,"\u001f":7,"!":8,"\"":9,"#":10,"$":11,"%":12,"&":13,"'":14,"(":15,")":16,"*":17,"+":18,",":19,"-":20,".":21,"/":22,"0":23,"1":24,"2":25,"3":26,"4":27,"5":28,"6":29,"7":30,"8":31,"9":32,":":33,";":34,"<":35,"=":36,">":37,"?":38,"@":39,"A":40,"B":41,"C":42,"D":43,"E":44,"F":45,"G":46,"H":47,"I":48,"J":49,"K":50,"L":51,"M":52,"N":53,"O":54,"P":55,"Q":56,"R":57,"S":58,"T":59,"U":60,"V":61,"W":62,"X":63,"Y":64,"Z":65,"[":66,"\\":67,"]":68,"^":69,"_":70,"`":71,"a":72,"b":73,"c":74,"d":75,"e":76,"f":77,"g":78,"h":79,"i":80,"j":81,"k":82,"l":83,"m":84,"n":85,"o":86,"p":87,"q":88,"r":89,"s":90,"t":91,"u":92,"v":93,"w":94,"x":95,"y":96,"z":97,"{":98,"|":99,"}":100,"~":101,"":102,"":103,"":104,"":105,"":106,"":107,"":108,"":109,"":110,"":111,"¡":112,"¢":113,"£":114,"¤":115,"¥":116,"¦":117,"§":118,"¨":119,"©":120,"«":121,"¬":122,"­":123,"®":124,"¯":125,"°":126,"±":127,"²":128,"³":129,"´":130,"µ":131,"¶":132,"·":133,"¸":134,"¹":135,"º":136,"»":137,"¼":138,"½":139,"¾":140,"¿":141,"Æ":142,"Ð":143,"×":144,"Ø":145,"Þ":146,"ß":147,"æ":148,"ð":149,"÷":150,"ø":151,"þ":152,"Đ":153,"đ":154,"ı":155,"Ł":156,"ł":157,"Œ":158,"œ":159,"ƒ":160,"ə":161,"ɛ":162,"ʹ":163,"ˆ":164,"ˇ":165,"ˈ":166,"˚":167,"˜":168,"ͼ":169,"Α":170,"Δ":171,"Ε":172,"Ι":173,"Κ":174,"Μ":175,"Ο":176,"Π":177,"Σ":178,"Φ":179,"Ω":180,"α":181,"β":182,"γ":183,"δ":184,"ε":185,"η":186,"θ":187,"ι":188,"κ":189,"λ":190,"μ":191,"ν":192,"ξ":193,"ο":194,"π":195,"ρ":196,"ς":197,"σ":198,"τ":199,"υ":200,"φ":201,"χ":202,"ω":203,"Ђ":204,"Ѕ":205,"І":206,"Љ":207,"А":208,"Б":209,"В":210,"Г":211,"Д":212,"Е":213,"Ж":214,"З":215,"И":216,"К":217,"Л":218,"М":219,"Н":220,"О":221,"П":222,"Р":223,"С":224,"Т":225,"У":226,"Ф":227,"Х":228,"Ц":229,"Ч":230,"Ш":231,"Щ":232,"Э":233,"Я":234,"а":235,"б":236,"в":237,"г":238,"д":239,"е":240,"ж":241,"з":242,"и":243,"к":244,"л":245,"м":246,"н":247,"о":248,"п":249,"р":250,"с":251,"т":252,"у":253,"ф":254,"х":255,"ц":256,"ч":257,"ш":258,"щ":259,"ъ":260,"ы":261,"ь":262,"э":263,"ю":264,"я":265,"ѕ":266,"і":267,"Ґ":268,"ґ":269,"һ":270,"ա":271,"א":272,"ב":273,"ד":274,"ה":275,"ו":276,"ח":277,"י":278,"כ":279,"ל":280,"ם":281,"מ":282,"נ":283,"ס":284,"ע":285,"פ":286,"ק":287,"ר":288,"ש":289,"ת":290,"،":291,"ء":292,"ا":293,"ب":294,"ة":295,"ت":296,"ث":297,"ج":298,"ح":299,"خ":300,"د":301,"ذ":302,"ر":303,"ز":304,"س":305,"ش":306,"ص":307,"ض":308,"ط":309,"ع":310,"غ":311,"ـ":312,"ف":313,"ق":314,"ك":315,"ل":316,"م":317,"ن":318,"ه":319,"و":320,"ى":321,"ي":322,"پ":323,"چ":324,"ک":325,"گ":326,"ی":327,"क":328,"त":329,"द":330,"न":331,"प":332,"म":333,"य":334,"र":335,"ल":336,"व":337,"स":338,"ह":339,"ক":340,"ন":341,"ব":342,"র":343,"க":344,"த":345,"ก":346,"ข":347,"ค":348,"ง":349,"จ":350,"ช":351,"ด":352,"ต":353,"ท":354,"น":355,"บ":356,"ป":357,"พ":358,"ม":359,"ย":360,"ร":361,"ล":362,"ว":363,"ส":364,"ห":365,"อ":366,"ะ":367,"า":368,"เ":369,"แ":370,"ไ":371,"ა":372,"ე":373,"ი":374,"ᄀ":375,"ᄂ":376,"ᄃ":377,"ᄅ":378,"ᄆ":379,"ᄇ":380,"ᄉ":381,"ᄋ":382,"ᄌ":383,"ᄎ":384,"ᄐ":385,"ᄑ":386,"ᄒ":387,"ᅡ":388,"ᅢ":389,"ᅥ":390,"ᅦ":391,"ᅧ":392,"ᅩ":393,"ᅪ":394,"ᅬ":395,"ᅭ":396,"ᅮ":397,"ᅳ":398,"ᅵ":399,"ᆨ":400,"ᆫ":401,"ᆯ":402,"ᆷ":403,"ᆸ":404,"ᆼ":405,"ᐈ":406,"​":407,"‌":408,"‍":409,"‎":410,"‐":411,"‑":412,"‒":413,"–":414,"—":415,"‘":416,"’":417,"‚":418,"“":419,"”":420,"„":421,"†":422,"•":423,"…":424,"‪":425,"‬":426,"′":427,"″":428,"‹":429,"›":430,"₂":431,"₨":432,"€":433,"℃":434,"№":435,"™":436,"←":437,"↑":438,"→":439,"↓":440,"⇒":441,"−":442,"√":443,"≤":444,"≥":445,"─":446,"■":447,"□":448,"▪":449,"▫":450,"▲":451,"▶":452,"►":453,"▻":454,"▼":455,"○":456,"●":457,"☀":458,"★":459,"☆":460,"☺":461,"♀":462,"♡":463,"♥":464,"♦":465,"✅":466,"✌":467,"✓":468,"✔":469,"✚":470,"✨":471,"✭":472,"❄":473,"❑":474,"❗":475,"❤":476,"➔":477,"⠀":478,"⭐":479,"Ⰰ":480,"、":481,"。":482,"「":483,"」":484,"【":485,"】":486,"あ":487,"い":488,"う":489,"え":490,"お":491,"か":492,"き":493,"く":494,"け":495,"こ":496,"さ":497,"し":498,"す":499,"せ":500,"そ":501,"た":502,"ち":503,"っ":504,"つ":505,"て":506,"と":507,"な":508,"に":509,"の":510,"は":511,"ま":512,"み":513,"め":514,"も":515,"や":516,"よ":517,"ら":518,"り":519,"る":520,"れ":521,"わ":522,"を":523,"ん":524,"ア":525,"ィ":526,"イ":527,"ウ":528,"ェ":529,"エ":530,"オ":531,"カ":532,"キ":533,"ク":534,"ケ":535,"コ":536,"サ":537,"シ":538,"ス":539,"セ":540,"タ":541,"チ":542,"ッ":543,"ツ":544,"テ":545,"ト":546,"ナ":547,"ニ":548,"ネ":549,"ハ":550,"ヒ":551,"フ":552,"ヘ":553,"ホ":554,"マ":555,"ミ":556,"ム":557,"メ":558,"モ":559,"ャ":560,"ュ":561,"ョ":562,"ラ":563,"リ":564,"ル":565,"レ":566,"ロ":567,"ワ":568,"ン":569,"・":570,"ー":571,"䄀":572,"䈀":573,"䔀":574,"䜀":575,"䠀":576,"䤀":577,"䬀":578,"䰀":579,"䴀":580,"一":581,"万":582,"三":583,"上":584,"下":585,"不":586,"与":587,"世":588,"业":589,"东":590,"个":591,"中":592,"为":593,"主":594,"么":595,"之":596,"乐":597,"九":598,"也":599,"买":600,"了":601,"争":602,"事":603,"二":604,"于":605,"五":606,"交":607,"产":608,"京":609,"人":610,"什":611,"今":612,"他":613,"仙":614,"代":615,"以":616,"们":617,"件":618,"伀":619,"会":620,"位":621,"体":622,"何":623,"作":624,"你":625,"使":626,"保":627,"信":628,"元":629,"光":630,"免":631,"入":632,"全":633,"八":634,"公":635,"六":636,"内":637,"円":638,"册":639,"准":640,"出":641,"刀":642,"分":643,"划":644,"利":645,"到":646,"制":647,"前":648,"力":649,"加":650,"务":651,"动":652,"势":653,"動":654,"匀":655,"化":656,"北":657,"区":658,"十":659,"单":660,"南":661,"博":662,"原":663,"县":664,"及":665,"双":666,"发":667,"取":668,"口":669,"可":670,"台":671,"号":672,"司":673,"吀":674,"合":675,"同":676,"名":677,"后":678,"吗":679,"和":680,"品":681,"哪":682,"唀":683,"商":684,"器":685,"四":686,"回":687,"国":688,"图":689,"在":690,"地":691,"场":692,"址":693,"坛":694,"城":695,"場":696,"外":697,"多":698,"大":699,"天":700,"奖":701,"女":702,"好":703,"如":704,"姐":705,"娱":706,"婆":707,"子":708,"字":709,"学":710,"安":711,"官":712,"定":713,"宝":714,"实":715,"客":716,"家":717,"富":718,"对":719,"小":720,"少":721,"就":722,"尾":723,"展":724,"山":725,"川":726,"州":727,"工":728,"巧":729,"市":730,"平":731,"年":732,"广":733,"庆":734,"库":735,"店":736,"度":737,"建":738,"开":739,"式":740,"当":741,"录":742,"彩":743,"影":744,"律":745,"得":746,"微":747,"心":748,"必":749,"忙":750,"快":751,"怎":752,"思":753,"性":754,"情":755,"意":756,"感":757,"戏":758,"成":759,"我":760,"户":761,"所":762,"手":763,"打":764,"技":765,"投":766,"报":767,"挂":768,"指":769,"推":770,"提":771,"播":772,"教":773,"数":774,"文":775,"料":776,"斯":777,"新":778,"方":779,"无":780,"日":781,"时":782,"明":783,"星":784,"是":785,"時":786,"更":787,"最":788,"月":789,"有":790,"服":791,"期":792,"未":793,"本":794,"机":795,"杀":796,"来":797,"東":798,"枚":799,"果":800,"校":801,"样":802,"格":803,"業":804,"正":805,"比":806,"民":807,"氓":808,"水":809,"江":810,"河":811,"法":812,"波":813,"注":814,"活":815,"流":816,"测":817,"海":818,"港":819,"游":820,"澳":821,"点":822,"爱":823,"片":824,"版":825,"牌":826,"牛":827,"物":828,"特":829,"狗":830,"玄":831,"王":832,"玩":833,"现":834,"球":835,"理":836,"生":837,"用":838,"田":839,"电":840,"画":841,"白":842,"百":843,"的":844,"目":845,"盲":846,"直":847,"相":848,"看":849,"県":850,"真":851,"着":852,"知":853,"码":854,"社":855,"神":856,"票":857,"福":858,"科":859,"程":860,"空":861,"立":862,"站":863,"第":864,"等":865,"算":866,"管":867,"精":868,"系":869,"红":870,"线":871,"组":872,"经":873,"结":874,"网":875,"美":876,"群":877,"老":878,"者":879,"肖":880,"能":881,"自":882,"色":883,"花":884,"行":885,"表":886,"西":887,"要":888,"规":889,"视":890,"解":891,"计":892,"记":893,"论":894,"设":895,"诗":896,"财":897,"费":898,"资":899,"赌":900,"赛":901,"赢":902,"走":903,"跑":904,"路":905,"车":906,"软":907,"载":908,"过":909,"这":910,"进":911,"送":912,"选":913,"通":914,"道":915,"部":916,"都":917,"酶":918,"里":919,"重":920,"金":921,"钱":922,"长":923,"間":924,"门":925,"际":926,"限":927,"院":928,"集":929,"霸":930,"面":931,"音":932,"预":933,"频":934,"食":935,"香":936,"马":937,"高":938,"黄":939,"龙":940,"":941,"":942,"":943,"":944,"":945,"":946,"":947,"ﬁ":948,"ﬂ":949,"﻿":950,"！":951,"（":952,"）":953,"，":954,"：":955,"ｩ":956,"ﾞ":957,"�":958,"🌟":959,"🌸":960,"🎉":961,"🏻":962,"🏼":963,"👌":964,"👍":965,"👏":966,"💕":967,"💖":968,"💗":969,"💙":970,"💚":971,"💛":972,"💜":973,"💪":974,"😀":975,"😁":976,"😂":977,"😃":978,"😄":979,"😅":980,"😆":981,"😉":982,"😊":983,"😋":984,"😍":985,"😎":986,"😘":987,"😛":988,"😜":989,"😦":990,"😱":991,"😳":992,"🙁":993,"🙂":994,"🙄":995,"🙈":996,"🙌":997,"🙏":998,"🤔":999,"🤗":1000,"er":1001,"en":1002,"ar":1003,"an":1004,"et":1005,"or":1006,"in":1007,"at":1008,"st":1009,"de":1010,"ll":1011,"om":1012,"ig":1013,"sk":1014,"ag":1015,"for":1016,"ti":1017,"ed":1018,"al":1019,"ing":1020,"on":1021,"att":1022,"oc":1023,"sa":1024,"vi":1025,"pa":1026,"el":1027,"og":1028,"och":1029,"ra":1030,"re":1031,"det":1032,"te":1033,"som":1034,"der":1035,"av":1036,"den":1037,"un":1038,"var":1039,"med":1040,"li":1041,"ter":1042,"na":1043,"all":1044,"lig":1045,"ver":1046,"har":1047,"and":1048,"se":1049,"ut":1050,"ning":1051,"ri":1052,"le":1053,"pp":1054,"as":1055,"kan":1056,"si":1057,"be":1058,"ro":1059,"ck":1060,"kt":1061,"ang":1062,"till":1063,"ol":1064,"ne":1065,"men":1066,"til":1067,"ad":1068,"ell":1069,"ta":1070,"sp":1071,"il":1072,"du":1073,"ska":1074,"it":1075,"am":1076,"man":1077,"jag":1078,"eg":1079,"ur":1080,"kk":1081,"af":1082,"ot":1083,"mer":1084,"ser":1085,"kom":1086,"ade":1087,"es":1088,"ett":1089,"sen":1090,"em":1091,"sam":1092,"ati":1093,"ma":1094,"ok":1095,"inte":1096,"ru":1097,"ran":1098,"sl":1099,"ud":1100,"Det":1101,"del":1102,"ør":1103,"op":1104,"da":1105,"are":1106,"kl":1107,"ss":1108,"dag":1109,"eller":1110,"ka":1111,"dig":1112,"min":1113,"ste":1114,"over":1115,"va":1116,"ve":1117,"sta":1118,"nar":1119,"od":1120,"het":1121,"ef":1122,"gi":1123,"ort":1124,"bar":1125,"kke":1126,"fa":1127,"inn":1128,"..":1129,"han":1130,"ul":1131,"far":1132,"bli":1133,"ger":1134,"sig":1135,"upp":1136,"bet":1137,"gen":1138,"ær":1139,"fra":1140,"kon":1141,"val":1142,"per":1143,"la":1144,"ven":1145,"tt":1146,"is":1147,"ny":1148,"ker":1149,"me":1150,"ill":1151,"ande":1152,"hel":1153,"ch":1154,"us":1155,"isk":1156,"under":1157,"mar":1158,"bl":1159,"ation":1160,"ge":1161,"kti":1162,"ju":1163,"ster":1164,"ho":1165,"gar":1166,"ikke":1167,"yck":1168,"lag":1169,"vis":1170,"je":1171,"ligt":1172,"nu":1173,"tr":1174,"ber":1175,"20":1176,"pro":1177,"pl":1178,"fi":1179,"vil":1180,"ha":1181,"stor":1182,"und":1183,"ens":1184,"fran":1185,"bor":1186,"kr":1187,"fl":1188,"ble":1189,"yg":1190,"gr":1191,"id":1192,"van":1193,"ock":1194,"lle":1195,"tid":1196,"efter":1197,"ende":1198,"di":1199,"mo":1200,"igt":1201,"Vi":1202,"ga":1203,"ske":1204,"ba":1205,"nag":1206,"bil":1207,"sy":1208,"ere":1209,"ft":1210,"dar":1211,"gang":1212,"ann":1213,"opp":1214,"dr":1215,"sin":1216,"vet":1217,"satt":1218,"sag":1219,"ent":1220,"pr":1221,"kun":1222,"ken":1223,"hol":1224,"ke":1225,"ingen":1226,"son":1227,"sj":1228,"ord":1229,"tal":1230,"vara":1231,"alla":1232,"kommer":1233,"hand":1234,"mal":1235,"ko":1236,"tra":1237,"For":1238,"jeg":1239,"fin":1240,"gor":1241,"kar":1242,"mig":1243,"gj":1244,"00":1245,"ner":1246,"red":1247,"yr":1248,"else":1249,"Jag":1250,"ater":1251,"tag":1252,"ene":1253,"hj":1254,"ige":1255,"po":1256,"star":1257,"par":1258,"um":1259,"din":1260,"bru":1261,"ex":1262,"ni":1263,"des":1264,"væ":1265,"jer":1266,"svar":1267,"no":1268,"ja":1269,"ved":1270,"mang":1271,"vor":1272,"lang":1273,"ind":1274,"lan":1275,"fe":1276,"hed":1277,"ten":1278,"of":1279,"ningen":1280,"vid":1281,"æn":1282,"res":1283,"tar":1284,"bb":1285,"skal":1286,"tet":1287,"jo":1288,"En":1289,"mot":1290,"bo":1291,"ket":1292,"Den":1293,"str":1294,"sm":1295,"form":1296,"In":1297,"stall":1298,"os":1299,"skri":1300,"vad":1301,"Men":1302,"sel":1303,"201":1304,"sku":1305,"St":1306,"kv":1307,"bra":1308,"hall":1309,"finn":1310,"bara":1311,"gl":1312,"vær":1313,"tan":1314,"fram":1315,"hav":1316,"slut":1317,"ycket":1318,"sten":1319,"vill":1320,"dan":1321,"lite":1322,"net":1323,"tro":1324,"liga":1325,"ling":1326,"An":1327,"ce":1328,"andra":1329,"arbet":1330,"nat":1331,"dom":1332,"ty":1333,"før":1334,"ci":1335,"oner":1336,"arna":1337,"vand":1338,"god":1339,"by":1340,"im":1341,"ats":1342,"De":1343,"kel":1344,"hon":1345,"person":1346,"verk":1347,"skulle":1348,"br":1349,"led":1350,"hem":1351,"finns":1352,"mycket":1353,"sø":1354,"itt":1355,"sex":1356,"dt":1357,"hur":1358,"pri":1359,"...":1360,"alt":1361,"ly":1362,"dem":1363,"nog":1364,"blir":1365,"era":1366,"ting":1367,"dre":1368,"ligen":1369,"land":1370,"mun":1371,"pen":1372,"vag":1373,"lar":1374,"fr":1375,"fol":1376,"ogsa":1377,"fø":1378,"dat":1379,"spel":1380,"met":1381,"lige":1382,"fil":1383,"ek":1384,"ocksa":1385,"arbe":1386,"fort":1387,"blev":1388,"sok":1389,"klar":1390,"kra":1391,"byg":1392,"mat":1393,"sti":1394,"oli":1395,"iga":1396,"mu":1397,"fter":1398,"yn":1399,"ov":1400,"fatt":1401,"aven":1402,"fri":1403,"ant":1404,"dej":1405,"19":1406,"helt":1407,"bi":1408,"være":1409,"mark":1410,"tre":1411,"allt":1412,"org":1413,"hade":1414,"kter":1415,"ir":1416,"ningar":1417,"he":1418,"ratt":1419,"oss":1420,"skap":1421,"hen":1422,"ier":1423,"hvor":1424,"edan":1425,"kor":1426,"alv":1427,"mas":1428,"samt":1429,"vin":1430,"lin":1431,"ds":1432,"hus":1433,"æl":1434,"ram":1435,"Har":1436,"ret":1437,"fun":1438,"to":1439,"her":1440,"nings":1441,"ans":1442,"digt":1443,"pre":1444,"øn":1445,"stad":1446,"utan":1447,"pe":1448,"ult":1449,"Sa":1450,"fy":1451,"mell":1452,"ug":1453,"igen":1454,"onen":1455,"fall":1456,"Du":1457,"ull":1458,"heter":1459,"jen":1460,"spe":1461,"rad":1462,"cer":1463,"saker":1464,"kker":1465,"por":1466,"vel":1467,"barn":1468,"jan":1469,"tter":1470,"slag":1471,"ings":1472,"atis":1473,"Pa":1474,"sker":1475,"fre":1476,"gora":1477,"nes":1478,"nagon":1479,"ale":1480,"produ":1481,"ik":1482,").":1483,"læ":1484,"veck":1485,"genom":1486,"eget":1487,"ie":1488,"bade":1489,"stem":1490,"skol":1491,"pas":1492,"10":1493,"lø":1494,"styr":1495,"Jeg":1496,"stan":1497,"inne":1498,"bland":1499,"lla":1500,"rum":1501,"Ar":1502,"arbej":1503,"forsta":1504,"kommun":1505,"hi":1506,"alle":1507,"bed":1508,"nagot":1509,"gel":1510,"tu":1511,"inter":1512,"manga":1513,"inger":1514,"ets":1515,"ele":1516,"ak":1517,"hog":1518,"selv":1519,"ons":1520,"mor":1521,"ler":1522,"plan":1523,"etter":1524,"hø":1525,"rikt":1526,"vir":1527,"ien":1528,"detta":1529,"dejting":1530,"bu":1531,"Nar":1532,"stand":1533,"ts":1534,"nor":1535,"lu":1536,"so":1537,"yd":1538,"su":1539,"Om":1540,"batt":1541,"ller":1542,"ung":1543,"hu":1544,"liv":1545,"forsk":1546,"sal":1547,"bel":1548,"lo":1549,"akt":1550,"ban":1551,"still":1552,"app":1553,"Sk":1554,"mi":1555,"Han":1556,"akti":1557,"sedan":1558,"fick":1559,"anvand":1560,"hos":1561,"ham":1562,"frag":1563,"ned":1564,"hit":1565,"ski":1566,"mil":1567,"aren":1568,"ren":1569,"mel":1570,"pel":1571,"ff":1572,"Der":1573,"tor":1574,"heten":1575,"tva":1576,"olika":1577,"get":1578,"sted":1579,"stra":1580,"Var":1581,"foret":1582,"cen":1583,"hor":1584,"itet":1585,"las":1586,"nas":1587,"erne":1588,"vikt":1589,"sjalv":1590,"ring":1591,"dagen":1592,"mann":1593,"lever":1594,"ca":1595,"bok":1596,"200":1597,"lik":1598,"hela":1599,"føl":1600,"tiden":1601,"ata":1602,"andre":1603,"hal":1604,"maste":1605,"kop":1606,"hver":1607,"syn":1608,"utom":1609,"set":1610,"rupp":1611,"frem":1612,"18":1613,"ia":1614,"grund":1615,"kort":1616,"sna":1617,"seg":1618,"hjal":1619,"we":1620,"lem":1621,"skar":1622,"tek":1623,"gratis":1624,"Sver":1625,"elsen":1626,"Med":1627,"ben":1628,"jar":1629,"tran":1630,"ala":1631,"end":1632,"tte":1633,"nem":1634,"ott":1635,"vt":1636,"omra":1637,"fly":1638,"gra":1639,"ks":1640,"delse":1641,"iske":1642,"hun":1643,"sma":1644,"sven":1645,"nagra":1646,"tion":1647,"bro":1648,"bild":1649,"fer":1650,"mange":1651,"sage":1652,"hold":1653,"vilket":1654,"skt":1655,"go":1656,"fast":1657,"beho":1658,"holm":1659,"age":1660,"takt":1661,"ym":1662,"mest":1663,"mere":1664,"beh":1665,"nya":1666,"varit":1667,"Och":1668,"dri":1669,"ninger":1670,"meget":1671,"kj":1672,"sion":1673,"moj":1674,"uden":1675,"sid":1676,"beg":1677,"denna":1678,"hop":1679,"sæ":1680,"poli":1681,"15":1682,"cka":1683,"borg":1684,"ns":1685,"nam":1686,"øre":1687,"aller":1688,"Mar":1689,"enkel":1690,"foretag":1691,"Nu":1692,"vs":1693,"sol":1694,"kring":1695,"aldr":1696,"full":1697,"jon":1698,"inom":1699,"tyck":1700,"samma":1701,"kna":1702,"grupp":1703,"lat":1704,"ic":1705,"samman":1706,"kommen":1707,"gam":1708,"sor":1709,"idag":1710,"kanske":1711,"bud":1712,"egen":1713,"dette":1714,"vide":1715,"ella":1716,"mellan":1717,"ment":1718,"dens":1719,"behand":1720,"Un":1721,"kam":1722,"denne":1723,"tidig":1724,"vatt":1725,"skil":1726,"Nor":1727,"kte":1728,"innan":1729,"gt":1730,"kunne":1731,"yl":1732,"jekt":1733,"fan":1734,"30":1735,"erna":1736,"enn":1737,"12":1738,"natur":1739,"stru":1740,"kur":1741,"kost":1742,"bill":1743,"ali":1744,"nen":1745,"kli":1746,"ej":1747,"anda":1748,"sammen":1749,"ød":1750,"ab":1751,"ars":1752,"ps":1753,"annat":1754,"run":1755,"hans":1756,"ide":1757,"vart":1758,"my":1759,"job":1760,"Da":1761,"sko":1762,"lad":1763,"spr":1764,"lam":1765,"klu":1766,"fore":1767,"vit":1768,"sju":1769,"ogram":1770,"stam":1771,"ering":1772,"Sverige":1773,"do":1774,"folk":1775,"sager":1776,"ockholm":1777,"olog":1778,"gav":1779,"Jo":1780,"nad":1781,"mod":1782,"ligger":1783,"utveck":1784,"proble":1785,"Man":1786,"godt":1787,"Dan":1788,"dire":1789,"fot":1790,"regi":1791,"sn":1792,"san":1793,"spar":1794,"fam":1795,"inform":1796,"fle":1797,"ationer":1798,"sar":1799,"ktion":1800,"io":1801,"kø":1802,"pt":1803,"dere":1804,"bygg":1805,"gjort":1806,"alltid":1807,"ast":1808,"sat":1809,"ial":1810,"ades":1811,"ingar":1812,"kri":1813,"tog":1814,"siden":1815,"co":1816,"hy":1817,"bin":1818,"Som":1819,"elt":1820,"lagg":1821,"sson":1822,"lighet":1823,"kval":1824,"medlem":1825,"pan":1826,"ses":1827,"line":1828,"film":1829,"sitt":1830,"Al":1831,"iska":1832,"Sex":1833,"hvis":1834,"bare":1835,"mid":1836,"betal":1837,"gjor":1838,"sina":1839,"latt":1840,"tur":1841,"rak":1842,"ina":1843,"klas":1844,"anden":1845,"alen":1846,"ader":1847,"komp":1848,"dessa":1849,"behover":1850,"leg":1851,"bør":1852,"Efter":1853,"),":1854,"lighed":1855,"mindre":1856,"blog":1857,"50":1858,"atte":1859,"mitt":1860,"fal":1861,"kunna":1862,"uni":1863,"speci":1864,"ville":1865,"kro":1866,"nytt":1867,"sett":1868,"varl":1869,"!!":1870,"stod":1871,"les":1872,"ys":1873,"stora":1874,"let":1875,"Ma":1876,"Kom":1877,"lok":1878,"Re":1879,"kvinn":1880,"gick":1881,"agen":1882,"sak":1883,"fik":1884,"spill":1885,"tror":1886,"ede":1887,"Ja":1888,"jor":1889,"elser":1890,"basta":1891,"tta":1892,"pu":1893,"kvar":1894,"sikt":1895,"hjem":1896,"ager":1897,"kontakt":1898,"ror":1899,"andet":1900,"politi":1901,"bad":1902,"jud":1903,"bilder":1904,"plats":1905,"sv":1906,"dra":1907,"gør":1908,"histor":1909,"bort":1910,"pass":1911,"int":1912,"gre":1913,"17":1914,"bol":1915,"dating":1916,"elle":1917,"Her":1918,"organ":1919,"deres":1920,"flere":1921,"ator":1922,"bliver":1923,"sch":1924,"Sam":1925,"Be":1926,"ry":1927,"16":1928,"000":1929,"tes":1930,"fakti":1931,"kvall":1932,"have":1933,"aldrig":1934,"cort":1935,"Og":1936,"Li":1937,"nye":1938,"berg":1939,"havde":1940,"konom":1941,"14":1942,"sli":1943,"sjon":1944,"aft":1945,"reg":1946,"just":1947,"unkt":1948,"enda":1949,"ont":1950,"rar":1951,"tim":1952,"gan":1953,"isse":1954,"rik":1955,"tern":1956,"sadan":1957,"uro":1958,"valdigt":1959,"klart":1960,"visa":1961,"komma":1962,"riktigt":1963,"lev":1964,"proc":1965,"gjorde":1966,"træ":1967,"tje":1968,"tel":1969,"mannisk":1970,"mø":1971,"ener":1972,"Gr":1973,"ktor":1974,"eder":1975,"rel":1976,"lav":1977,"mit":1978,"inde":1979,"11":1980,"sik":1981,"jobb":1982,"tera":1983,"ansvar":1984,"Att":1985,"lek":1986,"varje":1987,"vare":1988,"fekt":1989,"hele":1990,"drag":1991,"gifter":1992,"stri":1993,"soc":1994,"rev":1995,"sla":1996,"pla":1997,"fo":1998,"flera":1999,"kunde":2000,"galler":2001,"rett":2002,"eri":2003,"stør":2004,"hv":2005,"ultat":2006,"ine":2007,"vores":2008,"tast":2009,"stort":2010,"bas":2011,"sida":2012,"ki":2013,"ordan":2014,"Kon":2015,"battre":2016,"dess":2017,"enkelt":2018,"ationen":2019,"program":2020,"læg":2021,"tycker":2022,"Se":2023,"iskt":2024,"cy":2025,"noget":2026,"stat":2027,"iner":2028,"vax":2029,"første":2030,"massage":2031,"haller":2032,"mini":2033,"ppa":2034,"Mo":2035,"foren":2036,"behov":2037,"deras":2038,"ellt":2039,"ksom":2040,"hitta":2041,"vitet":2042,"rigt":2043,"rag":2044,"verkligen":2045,"eftersom":2046,"erb":2047,"personer":2048,"ER":2049,"kall":2050,"kraft":2051,"dit":2052,"pi":2053,"bri":2054,"ute":2055,"mon":2056,"Pro":2057,"ow":2058,"grun":2059,"orna":2060,"mina":2061,"vikl":2062,"brug":2063,"øj":2064,"stre":2065,"online":2066,"nett":2067,":)":2068,"ditt":2069,"plat":2070,"beslut":2071,"næ":2072,"13":2073,"tem":2074,"skall":2075,"empel":2076,"kat":2077,"haft":2078,"ob":2079,"llar":2080,"SA":2081,"ighet":2082,"com":2083,"natt":2084,"store":2085,"vej":2086,"Under":2087,"gener":2088,"Por":2089,"vat":2090,"annan":2091,"fortsatt":2092,"kken":2093,"fler":2094,"forsok":2095,"dy":2096,"stallet":2097,"dags":2098,"via":2099,"fel":2100,"fru":2101,"høj":2102,"Detta":2103,"Stockholm":2104,"Kan":2105,"system":2106,"presen":2107,"information":2108,"dock":2109,"porr":2110,"runt":2111,"gran":2112,"fred":2113,"tidigt":2114,"gift":2115,"Des":2116,"disk":2117,"ckan":2118,"ard":2119,"aste":2120,"svart":2121,"ræ":2122,"øm":2123,"aret":2124,"borj":2125,"sammans":2126,"kul":2127,"bla":2128,"vært":2129,"oku":2130,"cker":2131,"mand":2132,"skriv":2133,"garna":2134,"mis":2135,"side":2136,"baka":2137,"snar":2138,"tjan":2139,"uten":2140,"verksam":2141,"manniskor":2142,"ativ":2143,"hvad":2144,"sport":2145,"hund":2146,"the":2147,"stil":2148,"svenska":2149,"talet":2150,"skab":2151,"namn":2152,"forst":2153,"tv":2154,"25":2155,"dagar":2156,"Ta":2157,"problem":2158,"hjalp":2159,"bety":2160,"kropp":2161,"adde":2162,"Sven":2163,"arti":2164,"ære":2165,"Go":2166,"atur":2167,"off":2168,"glad":2169,"exempel":2170,"All":2171,"beratt":2172,"huv":2173,"jam":2174,"arbete":2175,"smal":2176,"lidt":2177,"Till":2178,"anger":2179,"au":2180,"redan":2181,"konst":2182,"ultur":2183,"Ny":2184,"dal":2185,"snabb":2186,"bid":2187,"est":2188,"Ro":2189,"direkt":2190,"ron":2191,"langt":2192,"bak":2193,"noen":2194,"sidan":2195,"saj":2196,"lika":2197,"fem":2198,"asin":2199,"folj":2200,"jul":2201,"Hvis":2202,"bart":2203,"dam":2204,"resultat":2205,"stol":2206,"slo":2207,"ara":2208,"band":2209,"cis":2210,"ori":2211,"tidigare":2212,"Per":2213,"nær":2214,"uter":2215,"vatten":2216,"uld":2217,"gende":2218,"hvordan":2219,"IN":2220,"livet":2221,"ust":2222,"dina":2223,"lange":2224,"bruk":2225,"ton":2226,"buti":2227,"behandling":2228,"Ett":2229,"sek":2230,"posi":2231,"lingen":2232,"funger":2233,"nade":2234,"projekt":2235,"valg":2236,"tillbaka":2237,"mater":2238,"tillsammans":2239,"honom":2240,"bran":2241,"kal":2242,"100":2243,"enligt":2244,"været":2245,"tack":2246,"gangen":2247,"up":2248,"tell":2249,"arbejde":2250,"gu":2251,"Mal":2252,"stud":2253,"lys":2254,"liten":2255,"pet":2256,"produkter":2257,"sikker":2258,"Dette":2259,"samme":2260,"gennem":2261,"anga":2262,"typ":2263,"Bo":2264,"skriver":2265,"kontro":2266,"pris":2267,"landet":2268,"henne":2269,"rom":2270,"mt":2271,"hemma":2272,"Dar":2273,"infor":2274,"elig":2275,"ili":2276,"besok":2277,"EN":2278,"besk":2279,"utbild":2280,"giver":2281,"mode":2282,"kvin":2283,"kket":2284,"famil":2285,"dende":2286,"video":2287,"stu":2288,"hadde":2289,"noe":2290,"Le":2291,"vice":2292,"skolan":2293,"hjæl":2294,"ogen":2295,"kning":2296,"erfar":2297,"orgon":2298,"kvinnor":2299,"rakti":2300,"lov":2301,"saga":2302,"tryck":2303,"bag":2304,"asjon":2305,"pper":2306,"bry":2307,"erede":2308,"kanner":2309,"ellige":2310,"Ut":2311,"mens":2312,"tage":2313,"tering":2314,"halla":2315,"vard":2316,"menne":2317,"øy":2318,"llen":2319,"nok":2320,"trad":2321,"40":2322,"skyd":2323,"derna":2324,"ick":2325,"bon":2326,"Ch":2327,"faktiskt":2328,"disse":2329,"inget":2330,"Er":2331,"lyck":2332,"Min":2333,"sommar":2334,"nogle":2335,"fag":2336,"eter":2337,"sing":2338,"sjuk":2339,"AR":2340,"skon":2341,"art":2342,"mær":2343,"inden":2344,"ofta":2345,"try":2346,"aler":2347,"nation":2348,"taget":2349,"præ":2350,"lagt":2351,"log":2352,"fli":2353,"milj":2354,"blive":2355,"telef":2356,"kvalitet":2357,"len":2358,"spør":2359,"Stor":2360,"vilken":2361,"ac":2362,"rapp":2363,"ange":2364,"ari":2365,"emot":2366,"anvanda":2367,"ww":2368,"huset":2369,"minst":2370,"kande":2371,"Hon":2372,"sty":2373,"match":2374,"skad":2375,"bred":2376,"ou":2377,"kred":2378,"forhold":2379,"roligt":2380,"anal":2381,"webb":2382,"kap":2383,"rund":2384,"vik":2385,"vist":2386,"Sen":2387,"port":2388,"Val":2389,"tning":2390,"verkar":2391,"effe":2392,"heller":2393,"AN":2394,"delar":2395,"num":2396,"omradet":2397,"Danmark":2398,"anti":2399,"hopp":2400,"teborg":2401,"energi":2402,"alder":2403,"pengar":2404,"ges":2405,"krav":2406,"kron":2407,"mellem":2408,"halv":2409,"skatt":2410,"Ber":2411,"mm":2412,"tri":2413,"virksom":2414,"escort":2415,"vem":2416,"egent":2417,"rig":2418,"kas":2419,"ligere":2420,"indi":2421,"gjør":2422,"læn":2423,"sang":2424,"ogra":2425,"iden":2426,"regl":2427,"sigt":2428,"lor":2429,"even":2430,"los":2431,"desig":2432,"giv":2433,"stit":2434,"derfor":2435,"medel":2436,"24":2437,"Vad":2438,"gjenn":2439,"heder":2440,"Na":2441,"gjennom":2442,"jur":2443,"ansi":2444,"ygg":2445,"sfor":2446,"uti":2447,"centr":2448,"Hur":2449,"Kar":2450,"lade":2451,"assage":2452,"sattning":2453,"begyn":2454,"stø":2455,"vant":2456,"viser":2457,"ital":2458,"fon":2459,"ganska":2460,"bestam":2461,"eng":2462,"enhet":2463,"huvud":2464,"sem":2465,"helst":2466,"ledning":2467,"hin":2468,"versi":2469,"ktiv":2470,"kanns":2471,"bal":2472,"parti":2473,"Ha":2474,"dog":2475,"ganger":2476,"gerne":2477,"snart":2478,"sagt":2479,"mam":2480,"dann":2481,"borjar":2482,"langre":2483,"vok":2484,"gøre":2485,"komme":2486,"fantast":2487,"gri":2488,"60":2489,"sent":2490,"orter":2491,"visar":2492,"storre":2493,"vander":2494,"sade":2495,"gere":2496,"omkring":2497,"tjejer":2498,"tha":2499,"gode":2500,"kultur":2501,"vol":2502,"pop":2503,"situ":2504,"dte":2505,"fisk":2506,"back":2507,"sidor":2508,"lær":2509,"nan":2510,"fint":2511,"tav":2512,"satta":2513,"skade":2514,"bedre":2515,"organis":2516,"ytter":2517,"mulighed":2518,"blivit":2519,"tex":2520,"OR":2521,"ktioner":2522,"The":2523,"mask":2524,"dater":2525,"ften":2526,"aktivitet":2527,"kre":2528,"....":2529,"Hel":2530,"eta":2531,"yndig":2532,"prø":2533,"dk":2534,"bun":2535,"fors":2536,"æg":2537,"ører":2538,"2017":2539,"procent":2540,"iger":2541,"bolag":2542,"publi":2543,"hennes":2544,"qu":2545,"slapp":2546,"Ba":2547,"forslag":2548,"holder":2549,"aga":2550,"iser":2551,"deg":2552,"delen":2553,"Fran":2554,"hoved":2555,"gatt":2556,"spir":2557,"tj":2558,"kant":2559,"styrelsen":2560,"Ho":2561,"søg":2562,"Av":2563,"nastan":2564,"amp":2565,"ST":2566,"tak":2567,"Or":2568,"inga":2569,"darfor":2570,"handling":2571,"fte":2572,"ini":2573,"fordi":2574,"Idag":2575,"dels":2576,"199":2577,"menter":2578,"altern":2579,"uppgifter":2580,"viktig":2581,"farande":2582,"Fa":2583,"one":2584,"intres":2585,"ass":2586,"naden":2587,"registr":2588,"kopa":2589,"forskellige":2590,"inner":2591,"hæn":2592,"Upp":2593,"orer":2594,"precis":2595,"kta":2596,"tillgang":2597,"skyl":2598,"ænd":2599,"\".":2600,"fragor":2601,"xx":2602,"ena":2603,"satte":2604,"innebar":2605,"22":2606,"Euro":2607,"2018":2608,"Ni":2609,"sjal":2610,"Til":2611,"arbeid":2612,"mag":2613,"senaste":2614,"svensk":2615,"elever":2616,"service":2617,"koll":2618,"Par":2619,"hotell":2620,"omfatt":2621,"tale":2622,"lun":2623,"annu":2624,"nav":2625,"like":2626,"Bil":2627,"klader":2628,"ktur":2629,"ligare":2630,"positi":2631,"borjade":2632,"holde":2633,"gott":2634,"fyl":2635,"stallning":2636,"Bar":2637,"tot":2638,"ap":2639,"lasa":2640,"tade":2641,"forut":2642,"extra":2643,"rej":2644,"malt":2645,"vanligt":2646,"Ty":2647,"lands":2648,"ønsker":2649,"kok":2650,"dine":2651,"leder":2652,"kten":2653,"So":2654,"staende":2655,"kopp":2656,"farg":2657,"Es":2658,"fod":2659,"hot":2660,"juder":2661,"oti":2662,"egi":2663,"mobil":2664,"litt":2665,"erade":2666,"Gratis":2667,"ins":2668,"enter":2669,"agg":2670,"sper":2671,"”.":2672,"bur":2673,"Va":2674,"start":2675,"sær":2676,"tekni":2677,"vagen":2678,"tager":2679,"blogg":2680,"offent":2681,"høy":2682,"jd":2683,"stalla":2684,"ekonom":2685,"jus":2686,"arr":2687,"nummer":2688,"visning":2689,"verksamhet":2690,"filmer":2691,"istallet":2692,"ux":2693,"vidare":2694,"alltsa":2695,"kjø":2696,"jord":2697,"ist":2698,"lille":2699,"kredit":2700,"bit":2701,"Norge":2702,"kunder":2703,"ank":2704,"rat":2705,"laget":2706,"dejtingsaj":2707,"fortfarande":2708,"skor":2709,"topp":2710,"skapa":2711,"moder":2712,"skill":2713,"varlden":2714,"tyd":2715,"væl":2716,"finansi":2717,"server":2718,"ple":2719,"meg":2720,"skj":2721,"musik":2722,"utveckling":2723,"dyr":2724,"smar":2725,"hjemme":2726,"ku":2727,"hittar":2728,"fu":2729,"massa":2730,"børn":2731,"pot":2732,"21":2733,"utfor":2734,"altid":2735,"fordel":2736,"grad":2737,"risk":2738,"privat":2739,"Vil":2740,"prakti":2741,"samtidigt":2742,"tilb":2743,"Las":2744,"ffa":2745,"tom":2746,"perfekt":2747,"aldre":2748,"ihop":2749,"ost":2750,"fikk":2751,"ofte":2752,"rist":2753,"skriva":2754,"senare":2755,"niva":2756,"sitter":2757,"staur":2758,"arbets":2759,"skra":2760,"spro":2761,"EU":2762,"super":2763,"post":2764,"rade":2765,"sarskil":2766,"sista":2767,"salj":2768,"ads":2769,"Vid":2770,"atta":2771,"finde":2772,"veckan":2773,"mojlig":2774,"tills":2775,"meter":2776,"æll":2777,"material":2778,"Ex":2779,"udvikl":2780,"skole":2781,"doku":2782,"Alla":2783,"psy":2784,"samhall":2785,"engel":2786,"timmar":2787,"made":2788,"vissa":2789,"eret":2790,"iet":2791,"ifran":2792,"ations":2793,"data":2794,"23":2795,"følge":2796,"spunkt":2797,"øde":2798,"agra":2799,"80":2800,"annon":2801,"vilka":2802,"erbjud":2803,"vigt":2804,"nande":2805,"sep":2806,"anvander":2807,"70":2808,"Kommun":2809,"popul":2810,"sine":2811,"telefon":2812,"dor":2813,"uta":2814,"okus":2815,"unn":2816,"nasta":2817,"2016":2818,"asino":2819,"handel":2820,"skort":2821,"nr":2822,"fav":2823,"gamla":2824,"tred":2825,"erar":2826,"AL":2827,"soci":2828,"blom":2829,"tips":2830,"inspir":2831,"2015":2832,"kes":2833,"Ne":2834,"igheter":2835,"varme":2836,"unge":2837,"rundt":2838,"sdag":2839,"ht":2840,"gjøre":2841,"anns":2842,"sc":2843,"mojligt":2844,"nads":2845,"dene":2846,"gir":2847,"samling":2848,"gard":2849,"endast":2850,"ate":2851,"mera":2852,"mye":2853,"fyll":2854,"flyg":2855,"lagga":2856,"perio":2857,"igar":2858,"soker":2859,"verden":2860,"hende":2861,"famili":2862,"storsta":2863,"strom":2864,"ress":2865,"videre":2866,"nt":2867,"punkt":2868,"cm":2869,"kelig":2870,"Pri":2871,"erat":2872,"framfor":2873,"steg":2874,"handlar":2875,"ert":2876,"fina":2877,"pati":2878,"asj":2879,"løs":2880,"Mi":2881,"th":2882,"blevet":2883,"serna":2884,"luft":2885,"kommit":2886,"nader":2887,"antal":2888,"tagit":2889,"heden":2890,"vecka":2891,"part":2892,"aliser":2893,"bat":2894,"betyder":2895,"spela":2896,"lon":2897,"fær":2898,"AB":2899,"snabbt":2900,"ibland":2901,"flesta":2902,"mennesker":2903,"forbin":2904,"unga":2905,"ocker":2906,"borja":2907,"TV":2908,"borde":2909,"ungdom":2910,"Vill":2911,"book":2912,"Car":2913,"alog":2914,"skick":2915,"omrade":2916,"teck":2917,"cir":2918,"glas":2919,"ful":2920,"bestem":2921,"erad":2922,"eksem":2923,"cep":2924,"aka":2925,"skan":2926,"knu":2927,"tæn":2928,"minuter":2929,"sand":2930,"tere":2931,"smu":2932,"sjalva":2933,"forklar":2934,"Sp":2935,"test":2936,"morgon":2937,"Bor":2938,"øv":2939,"porno":2940,"okt":2941,"hoppas":2942,"web":2943,"fla":2944,"kret":2945,"viktigt":2946,"hurt":2947,"kanna":2948,"bord":2949,"oper":2950,"mamma":2951,"last":2952,"nyg":2953,"nara":2954,"ders":2955,"tanker":2956,"litet":2957,"ise":2958,"don":2959,"fes":2960,"lug":2961,"Vis":2962,"Porr":2963,"trev":2964,"vur":2965,"Co":2966,"ess":2967,"kræ":2968,"USA":2969,"valja":2970,"sket":2971,"ativt":2972,"egna":2973,"dessutom":2974,"Ved":2975,"konkur":2976,"restaur":2977,"Eller":2978,"Johan":2979,"varfor":2980,"vester":2981,"Gud":2982,"verket":2983,"2014":2984,"terna":2985,"SE":2986,"Far":2987,"AT":2988,"klubb":2989,"Su":2990,"brukar":2991,"Di":2992,"ras":2993,"varm":2994,"natet":2995,"mande":2996,"fyra":2997,"nø":2998,"fokus":2999,"kol":3000,"install":3001,"Si":3002,"chef":3003,"traff":3004,"dering":3005,"miljo":3006,"tilbage":3007,"ay":3008,"sto":3009,"stille":3010,"nød":3011,"Hun":3012,"Kø":3013,"ober":3014,"Et":3015,"At":3016,"uddann":3017,"dagens":3018,"SK":3019,"produkt":3020,"regel":3021,"ore":3022,"spri":3023,"tids":3024,"cept":3025,"vende":3026,"ført":3027,"Ud":3028,"andring":3029,"fraga":3030,"Goteborg":3031,"Gen":3032,"sist":3033,"tress":3034,"deles":3035,"lagen":3036,"sad":3037,"slan":3038,"oms":3039,"ytt":3040,"hets":3041,"out":3042,"egentligen":3043,"Fin":3044,"Mer":3045,"our":3046,"stedet":3047,"atter":3048,"tidligere":3049,"sats":3050,"Fri":3051,"radet":3052,"versitet":3053,"regler":3054,"Ser":3055,"kontroll":3056,"omen":3057,"iges":3058,"tekn":3059,"ET":3060,"sætte":3061,"knapp":3062,"kroppen":3063,"enten":3064,"ure":3065,"splan":3066,"djur":3067,"kompet":3068,"gillar":3069,"Escort":3070,"gro":3071,"dage":3072,"sall":3073,"alls":3074,"hang":3075,"marked":3076,"køb":3077,"anser":3078,"26":3079,"sene":3080,"mad":3081,"indu":3082,"Aven":3083,"stockholm":3084,"Inte":3085,"hvert":3086,"Tro":3087,"gym":3088,"kombin":3089,"kla":3090,"detal":3091,"myndig":3092,"kere":3093,"bast":3094,"kaf":3095,"kill":3096,"sens":3097,"arbetar":3098,"større":3099,"aa":3100,"him":3101,"utbildning":3102,"Fol":3103,"hast":3104,"bilen":3105,"28":3106,"27":3107,"havn":3108,"bø":3109,"forstar":3110,"grunn":3111,"Sy":3112,"Nord":3113,"bedste":3114,"hva":3115,"\",":3116,"Te":3117,"sprak":3118,"slik":3119,"mulig":3120,"danske":3121,"orden":3122,"give":3123,"skydd":3124,"date":3125,"mail":3126,"ljus":3127,"tren":3128,"skrift":3129,"Mat":3130,"betyd":3131,"Sel":3132,"skaper":3133,"asi":3134,"mester":3135,"No":3136,"Fred":3137,"fest":3138,"fang":3139,"erbjuder":3140,"mojlighet":3141,"trots":3142,"Po":3143,"Denna":3144,"fysi":3145,"allman":3146,"vanlig":3147,"ct":3148,"yll":3149,"prov":3150,"Tha":3151,"vanner":3152,"inklu":3153,"tanka":3154,"Denne":3155,"strat":3156,"hard":3157,"con":3158,"maj":3159,"motor":3160,"reger":3161,"finner":3162,"dige":3163,"La":3164,"kronor":3165,"kry":3166,"eventu":3167,"tok":3168,"29":3169,"borjan":3170,"ologi":3171,"vanliga":3172,"ssy":3173,"skola":3174,"haha":3175,"sidste":3176,"siger":3177,"tredje":3178,"flytt":3179,"sas":3180,"bada":3181,"dejta":3182,"gol":3183,"effekti":3184,"lilla":3185,"virkelig":3186,"xa":3187,"ktionen":3188,"valt":3189,"fanns":3190,"Over":3191,"avslut":3192,"Ska":3193,"dansk":3194,"pres":3195,"itta":3196,"legg":3197,"gas":3198,"invester":3199,"snyg":3200,"sav":3201,"manader":3202,"tillfall":3203,"brott":3204,"eroti":3205,"placer":3206,"dera":3207,"lede":3208,"aget":3209,"gelig":3210,"hom":3211,"design":3212,"natdejting":3213,"cent":3214,"føre":3215,"klassi":3216,"oppet":3217,"skapet":3218,"intress":3219,"mentet":3220,"jobbet":3221,"moti":3222,"timer":3223,"eras":3224,"arbejder":3225,"2013":3226,"velser":3227,"prin":3228,"titta":3229,"igenom":3230,"forskning":3231,"bruger":3232,"ameri":3233,"løb":3234,"IT":3235,"juni":3236,"miss":3237,"stadig":3238,"spann":3239,"pat":3240,"medan":3241,"matt":3242,"boken":3243,"matte":3244,"tin":3245,"ordning":3246,"orit":3247,"forsa":3248,"sund":3249,"forel":3250,"rost":3251,"bered":3252,"ygt":3253,"kil":3254,"stads":3255,"levelse":3256,"mellom":3257,"sit":3258,"span":3259,"passar":3260,"regn":3261,"free":3262,"tede":3263,"vux":3264,"ian":3265,"varandra":3266,"demok":3267,"eneste":3268,"blod":3269,"90":3270,"defin":3271,"hjalpa":3272,"først":3273,"Sedan":3274,"priser":3275,"Hen":3276,"tas":3277,"prat":3278,"presenter":3279,"Ju":3280,"deltag":3281,"fullt":3282,"koping":3283,"middag":3284,"bestar":3285,"resten":3286,"edel":3287,"profes":3288,"affar":3289,"kare":3290,"rack":3291,"steder":3292,"che":3293,"livs":3294,"funktion":3295,"Svenska":3296,"sh":3297,"kem":3298,"Ste":3299,"gæl":3300,"ots":3301,"alskar":3302,"ftet":3303,"utter":3304,"forbindelse":3305,"rott":3306,"interes":3307,"ema":3308,"ega":3309,"rym":3310,"”,":3311,"45":3312,"meddel":3313,"kriti":3314,"za":3315,"hjel":3316,"fantastisk":3317,"inlagg":3318,"ding":3319,"platser":3320,"rummet":3321,"bruge":3322,"hander":3323,"nit":3324,"rigtig":3325,"aktu":3326,"nord":3327,"Jon":3328,"søger":3329,"kvinder":3330,"stid":3331,"gruppen":3332,"dition":3333,"ies":3334,"We":3335,"Dag":3336,"dator":3337,"Sveriges":3338,"givet":3339,"vann":3340,"ev":3341,"spørg":3342,"igang":3343,"revet":3344,"mannen":3345,"viktiga":3346,"garden":3347,"nars":3348,"utanfor":3349,"indivi":3350,"komst":3351,"sert":3352,"stiska":3353,"sym":3354,"kand":3355,"atisk":3356,"studen":3357,"fragan":3358,"struktur":3359,"porn":3360,"aug":3361,"eli":3362,"kir":3363,"Pr":3364,"etabl":3365,"profil":3366,":-":3367,"sakert":3368,"lokal":3369,"analy":3370,"fredag":3371,"Sj":3372,"arbetet":3373,"sioner":3374,"fora":3375,"igjen":3376,"Lu":3377,"synes":3378,"maske":3379,"gange":3380,"resa":3381,"gat":3382,"He":3383,"stik":3384,"stund":3385,"varde":3386,"personal":3387,"Ti":3388,"trott":3389,"lara":3390,"Fre":3391,"stilling":3392,"Ver":3393,"alternativ":3394,"snit":3395,"Tra":3396,"kyr":3397,"bocker":3398,"veckor":3399,"bus":3400,"otter":3401,"lager":3402,"boll":3403,"rent":3404,"tatt":3405,"grupper":3406,"thai":3407,"pag":3408,"klare":3409,"fas":3410,"spelare":3411,"spelar":3412,"økonom":3413,"spil":3414,"gren":3415,"kade":3416,"eksempel":3417,"forfatt":3418,"hjælp":3419,"Del":3420,"rapport":3421,"skud":3422,"drom":3423,"cykel":3424,"xi":3425,"veta":3426,"kommentar":3427,"vinter":3428,"forening":3429,"Mu":3430,"tol":3431,"sende":3432,"medic":3433,"dec":3434,"gemen":3435,"vack":3436,"cebook":3437,"2012":3438,"Ad":3439,"elekt":3440,"staden":3441,"km":3442,"nogen":3443,"mine":3444,"akte":3445,"passer":3446,"absol":3447,"Allt":3448,"finder":3449,"ogon":3450,"billig":3451,"ovan":3452,"kontor":3453,"typer":3454,"bundet":3455,"fir":3456,"tember":3457,"dele":3458,"illa":3459,"ON":3460,"oende":3461,"redo":3462,"egor":3463,"35":3464,"El":3465,"snitt":3466,"sland":3467,"traning":3468,"Ri":3469,"sarskilt":3470,"autom":3471,"illi":3472,"hvilket":3473,"aledes":3474,"fritt":3475,"oka":3476,"internation":3477,"skaber":3478,"kast":3479,"tæ":3480,"Dess":3481,"sim":3482,"Mil":3483,"gamle":3484,"vitt":3485,"Lin":3486,"nede":3487,"derar":3488,"krig":3489,"stran":3490,"dæ":3491,"EL":3492,"varr":3493,"pril":3494,"delig":3495,"Tor":3496,"klam":3497,"can":3498,"sjo":3499,"allerede":3500,"favorit":3501,"tilf":3502,"tit":3503,"edag":3504,"sommer":3505,"skont":3506,"fart":3507,"egg":3508,"www":3509,"janu":3510,"ING":3511,"rekommen":3512,"række":3513,"forsoka":3514,"skrev":3515,"kjen":3516,"helgen":3517,"sov":3518,"skog":3519,"IS":3520,"varen":3521,"leva":3522,"sason":3523,"spa":3524,"barnet":3525,"bolig":3526,"demokr":3527,"avtal":3528,"bot":3529,"undersok":3530,"hl":3531,"teg":3532,"rut":3533,"sur":3534,"ity":3535,"Fot":3536,"effekt":3537,"ember":3538,"mote":3539,"svært":3540,"forra":3541,"anven":3542,"slags":3543,"annet":3544,"jol":3545,"følgende":3546,"minister":3547,"vall":3548,"sann":3549,"stav":3550,"ves":3551,"ffe":3552,"fjer":3553,"leve":3554,"samtal":3555,"utvikl":3556,"Sw":3557,"hør":3558,"artikel":3559,"nødven":3560,"stag":3561,"sil":3562,"kommunen":3563,"delser":3564,"makt":3565,"forsvar":3566,"betala":3567,"respe":3568,"casino":3569,"fører":3570,"stal":3571,"undersø":3572,"sider":3573,"enor":3574,"forhall":3575,"Bru":3576,"Massage":3577,"AS":3578,"gron":3579,"dju":3580,"beskriv":3581,"sje":3582,"tider":3583,"skom":3584,"roll":3585,"Europa":3586,"Fil":3587,"psyk":3588,"manad":3589,"ældre":3590,"platsen":3591,"rus":3592,"bund":3593,"sakerhet":3594,"IK":3595,"kendt":3596,"ppar":3597,"gave":3598,"heds":3599,"Alle":3600,"bog":3601,"rede":3602,"ED":3603,"former":3604,"oliti":3605,"gul":3606,"kons":3607,"instit":3608,"mind":3609,"dringer":3610,"wit":3611,"fungerar":3612,"lyss":3613,"benhavn":3614,"sier":3615,"spørgsmal":3616,"bygger":3617,"igur":3618,"internet":3619,"jø":3620,"muligt":3621,"scen":3622,"sere":3623,"kvinna":3624,"drar":3625,"september":3626,"rid":3627,"maskin":3628,";)":3629,"anvands":3630,"Hol":3631,"bank":3632,"fleste":3633,"urn":3634,"vinn":3635,"fald":3636,"kommunik":3637,"Ko":3638,"faktisk":3639,"ryg":3640,"spen":3641,"dod":3642,"31":3643,"mænd":3644,"pal":3645,"foraldr":3646,"eld":3647,"tilbud":3648,"tall":3649,"lyst":3650,"Tje":3651,"aktiviteter":3652,"filmen":3653,"drift":3654,"absolut":3655,"eden":3656,"bes":3657,"tio":3658,"Fl":3659,"arbei":3660,"bidrag":3661,"tifi":3662,"tanke":3663,"oder":3664,"ælles":3665,"liksom":3666,"arbejd":3667,"græn":3668,"radi":3669,"oktober":3670,"spannande":3671,"Af":3672,"musi":3673,"2011":3674,"nj":3675,"//":3676,"Hu":3677,"proces":3678,"uppdrag":3679,"rust":3680,"arbeta":3681,"klo":3682,"2010":3683,"ssel":3684,"bær":3685,"sky":3686,"Bra":3687,"On":3688,"ytterligare":3689,"kolla":3690,"anbe":3691,"eks":3692,"To":3693,"fuld":3694,"blandt":3695,"familj":3696,"garder":3697,"altsa":3698,"æss":3699,"delsen":3700,"barnen":3701,"lysninger":3702,"ers":3703,"avsett":3704,"funder":3705,"beror":3706,"kurs":3707,"efar":3708,"IL":3709,"forbatt":3710,"inge":3711,"novem":3712,"instru":3713,"lage":3714,"smil":3715,"pol":3716,"brev":3717,"november":3718,"riga":3719,"Sol":3720,"fta":3721,"Ingen":3722,"later":3723,"euro":3724,"industri":3725,"arets":3726,"bruker":3727,"ong":3728,"Hej":3729,"ckar":3730,"Str":3731,"lave":3732,"ekstra":3733,"angen":3734,"medicin":3735,"arki":3736,"faet":3737,"miljø":3738,"bakom":3739,"aker":3740,"partner":3741,"bedom":3742,"tjej":3743,"risti":3744,"april":3745,"kunskap":3746,"dro":3747,"goda":3748,"folja":3749,"kund":3750,"forven":3751,"Inter":3752,"innehaller":3753,"recept":3754,"veten":3755,"jobba":3756,"universitet":3757,"kvallen":3758,"kaffe":3759,"ktions":3760,"holl":3761,"vn":3762,"medlemmar":3763,"unkter":3764,"kæ":3765,"holdt":3766,"hæ":3767,"lande":3768,"vande":3769,"satter":3770,"teret":3771,"endnu":3772,"social":3773,"største":3774,"ogle":3775,"hogre":3776,"tankte":3777,"plads":3778,"osv":3779,"hud":3780,"spiller":3781,"handler":3782,"saledes":3783,"titt":3784,"Person":3785,"Res":3786,"ces":3787,"mes":3788,"fotogra":3789,"mojligheter":3790,"tjanster":3791,"slar":3792,"hjalper":3793,"peratur":3794,"any":3795,"ockan":3796,"tis":3797,"vind":3798,"ue":3799,"Genom":3800,"Pre":3801,"sikre":3802,"kara":3803,"Dat":3804,"ky":3805,"stig":3806,"link":3807,"Mon":3808,"skel":3809,"alitet":3810,"chan":3811,"valjer":3812,"ppe":3813,"Knu":3814,"saken":3815,"Dessutom":3816,"væk":3817,"otte":3818,"traffa":3819,"kansk":3820,"besø":3821,"mener":3822,"Uni":3823,"skul":3824,"hjar":3825,"Star":3826,"rolig":3827,"ministr":3828,"Karl":3829,"parker":3830,"tilby":3831,"bilden":3832,"lej":3833,"nov":3834,"By":3835,"konto":3836,"Lo":3837,"viss":3838,"Sch":3839,"sige":3840,"atet":3841,"støtte":3842,"ash":3843,"Manga":3844,"Kun":3845,"bjud":3846,"vita":3847,"jatte":3848,"Ol":3849,"Hans":3850,"ningarna":3851,"alist":3852,"Jan":3853,"grader":3854,"rele":3855,"gik":3856,"Tan":3857,"ish":3858,"anstall":3859,"lander":3860,"Reg":3861,"samtidig":3862,"gymna":3863,"vacker":3864,"pul":3865,"supp":3866,"anmal":3867,"vaxt":3868,"chat":3869,"sekven":3870,"emang":3871,"ativa":3872,"varande":3873,"cial":3874,"dde":3875,"idler":3876,"penge":3877,"ube":3878,"vilja":3879,"varer":3880,"rer":3881,"ander":3882,"vise":3883,".”":3884,"malet":3885,"vinna":3886,"75":3887,"mus":3888,"forsalj":3889,"agt":3890,"ika":3891,"lats":3892,"Malmo":3893,"neg":3894,"skam":3895,"fores":3896,"dejtingsajt":3897,"kommande":3898,"norske":3899,"elses":3900,"Dessa":3901,"Hall":3902,"Ham":3903,"hn":3904,"vo":3905,"Gam":3906,"??":3907,"dø":3908,"fortsatta":3909,"host":3910,"kamp":3911,"stans":3912,"OM":3913,"glom":3914,"verka":3915,"vas":3916,"ID":3917,"alet":3918,"opti":3919,"derne":3920,"bod":3921,"lut":3922,"sive":3923,"iti":3924,"mju":3925,"bloggen":3926,"htt":3927,"forsoker":3928,"kkel":3929,"enkelte":3930,"Ge":3931,"tavling":3932,"varden":3933,"500":3934,"Fast":3935,"gaver":3936,"Ra":3937,"foretaget":3938,"Gar":3939,"hum":3940,"SM":3941,"Vide":3942,"rige":3943,"nemlig":3944,"tradition":3945,"foljande":3946,"holdet":3947,"redu":3948,"arbejdet":3949,"oo":3950,"prøve":3951,"øren":3952,"ative":3953,"RA":3954,"sis":3955,"innen":3956,"Dej":3957,"ksjon":3958,"egne":3959,"stopp":3960,"Lar":3961,"øl":3962,"verkt":3963,"forbi":3964,"serien":3965,"skolen":3966,"atten":3967,"imassage":3968,"kunst":3969,"serie":3970,"Op":3971,"ocka":3972,"ette":3973,"potek":3974,"gene":3975,"Com":3976,"hort":3977,"programmet":3978,"hag":3979,"bygge":3980,"Derfor":3981,"ork":3982,"sera":3983,"mars":3984,"gaende":3985,"kontra":3986,"aten":3987,"brand":3988,"detaljer":3989,"marker":3990,"klag":3991,"terar":3992,"naturligt":3993,"cken":3994,"uppdater":3995,"slutet":3996,"God":3997,"blio":3998,"offer":3999,"lamna":4000,"begran":4001,"forandring":4002,"ppet":4003,"198":4004,"medlemmer":4005,"skabet":4006,"ivag":4007,"Bi":4008,"ckor":4009,"tillverk":4010,"hora":4011,"seende":4012,"marknaden":4013,"ball":4014,"jav":4015,"36":4016,"nedan":4017,"blant":4018,"IG":4019,"ach":4020,"bygga":4021,"present":4022,"Van":4023,"tyckte":4024,"Land":4025,"udvikling":4026,"kig":4027,"varld":4028,"Just":4029,"faktor":4030,"butik":4031,"New":4032,"længere":4033,"stati":4034,"juli":4035,"sant":4036,"Peter":4037,"kni":4038,"visst":4039,"smart":4040,"dning":4041,"jobbar":4042,"findes":4043,"ligheten":4044,"værdi":4045,"søn":4046,"tvatt":4047,"nod":4048,"Tack":4049,"stral":4050,"systemet":4051,"speciellt":4052,"senere":4053,"sne":4054,"anledning":4055,"spesi":4056,"villkor":4057,"byen":4058,"vantar":4059,"peri":4060,"viden":4061,"Hal":4062,"ris":4063,"rod":4064,"ungefar":4065,"lata":4066,"foku":4067,"ister":4068,"intresser":4069,"otroligt":4070,"://":4071,"forande":4072,"Ben":4073,"skrive":4074,"flytta":4075,"forvar":4076,"zz":4077,"2009":4078,"blitt":4079,"arbejds":4080,"Jes":4081,"ES":4082,"sionen":4083,"II":4084,"Mag":4085,"utman":4086,"Kontakt":4087,"team":4088,"behovs":4089,"diga":4090,"navn":4091,"oker":4092,"bler":4093,"miljoner":4094,"foreningen":4095,"Kanske":4096,"fyr":4097,"december":4098,"varldens":4099,"fælles":4100,"Nej":4101,"viagra":4102,"semester":4103,"vari":4104,"imorgon":4105,"sasom":4106,"innehall":4107,"fant":4108,"IF":4109,"vanta":4110,"wid":4111,"pappa":4112,"damer":4113,"verkan":4114,"normalt":4115,"Tran":4116,"beroende":4117,"Hvor":4118,"sjekt":4119,"direkte":4120,"OL":4121,"ktive":4122,"massor":4123,"antag":4124,"transport":4125,"utred":4126,"dret":4127,"risi":4128,"fortæ":4129,"klub":4130,"fen":4131,"press":4132,"digit":4133,"tilfæl":4134,"oro":4135,"hyg":4136,"sexu":4137,"erer":4138,"liknande":4139,"nyt":4140,"slaget":4141,"naturlig":4142,"rakt":4143,"Rad":4144,"stk":4145,"Bet":4146,"febru":4147,"markt":4148,"sikkert":4149,"værk":4150,"vilke":4151,"rette":4152,"jatt":4153,"fire":4154,"Lang":4155,"Kat":4156,"stro":4157,"--":4158,"Selv":4159,"princi":4160,"gli":4161,"papper":4162,"anvandas":4163,"historia":4164,"sjukdom":4165,"Erik":4166,"oppna":4167,"enheter":4168,"takter":4169,"eringen":4170,"stang":4171,"ighed":4172,"likt":4173,"gangspunkt":4174,"oven":4175,"bilar":4176,"vackra":4177,"alldeles":4178,"staller":4179,"ite":4180,"lop":4181,"tand":4182,"retning":4183,"ama":4184,"teknik":4185,"stin":4186,"nere":4187,"kjent":4188,"blot":4189,"piger":4190,"modeller":4191,"samband":4192,"nej":4193,"dokument":4194,"fat":4195,"sver":4196,"Oslo":4197,"norsk":4198,"yder":4199,"pack":4200,"sør":4201,"dejtingsidor":4202,"langa":4203,"serv":4204,"ffar":4205,"hjer":4206,"bre":4207,"bom":4208,"natten":4209,"platt":4210,"tisk":4211,"ordin":4212,"menn":4213,"pade":4214,".\"":4215,"skot":4216,"varmt":4217,"sætter":4218,"riktig":4219,"how":4220,"siv":4221,"foljer":4222,"appar":4223,"grøn":4224,"talt":4225,"33":4226,"hæng":4227,"una":4228,"øs":4229,"omraden":4230,"dla":4231,"kora":4232,"studie":4233,"kør":4234,"sitta":4235,"cirka":4236,"kompis":4237,"sjoner":4238,"ifi":4239,"Bill":4240,"annars":4241,"melse":4242,"frukt":4243,"dring":4244,"soka":4245,"visade":4246,"Mor":4247,"riks":4248,"tru":4249,"marken":4250,"fj":4251,"Svensk":4252,"salg":4253,"sala":4254,"lunch":4255,"Bla":4256,"æs":4257,"befolk":4258,"givning":4259,"siste":4260,"æng":4261,"gjen":4262,"Nag":4263,"ogna":4264,"boende":4265,"tankt":4266,"ald":4267,"Hem":4268,"ordent":4269,"ringa":4270,"størr":4271,"problemer":4272,"kravs":4273,"region":4274,"lay":4275,"hurtigt":4276,"foran":4277,"rør":4278,"farger":4279,"inten":4280,"bonus":4281,"sno":4282,"billeder":4283,"trafik":4284,"laser":4285,"gravid":4286,"løbet":4287,"Arbet":4288,"Porn":4289,"Ga":4290,"morgen":4291,"Kli":4292,"dejtingsajter":4293,"poang":4294,"kvalit":4295,"jl":4296,"kg":4297,"afil":4298,"konstru":4299,"intressant":4300,"eren":4301,"vælge":4302,"nojd":4303,"bedri":4304,"oftast":4305,"hjul":4306,"sæt":4307,"uren":4308,"Din":4309,"medier":4310,"menar":4311,"sken":4312,"namligen":4313,"ey":4314,"goteborg":4315,"Fi":4316,"arefter":4317,"nettet":4318,"klara":4319,"Pu":4320,"sum":4321,"sions":4322,"berattar":4323,"handa":4324,"PR":4325,"arer":4326,"tant":4327,"anter":4328,"tør":4329,"oplysninger":4330,"skit":4331,"splat":4332,"mandag":4333,"klass":4334,"ked":4335,"Am":4336,"lagger":4337,"milli":4338,"Br":4339,"Soc":4340,"mare":4341,"klockan":4342,"aner":4343,"veldig":4344,"Mot":4345,"spor":4346,"finne":4347,"ytte":4348,"Regi":4349,"Hand":4350,"ude":4351,"ssystem":4352,"Andre":4353,"normal":4354,"virksomhed":4355,"erfarenhet":4356,"AD":4357,"vader":4358,"kommet":4359,"produktion":4360,"flo":4361,"uddannelse":4362,"2008":4363,"frisk":4364,"æk":4365,"omrader":4366,"bransch":4367,"yngre":4368,"Spe":4369,"uppe":4370,"spelet":4371,"halsa":4372,"AG":4373,"overra":4374,"løn":4375,"drog":4376,"stival":4377,"ip":4378,"interv":4379,"blad":4380,"gammal":4381,"tat":4382,"situation":4383,"standard":4384,"følgelig":4385,"anta":4386,"fakt":4387,"gruppe":4388,"udvalg":4389,"perioden":4390,"kansla":4391,"Hj":4392,"ensam":4393,"helg":4394,"sattningar":4395,"debatt":4396,"borjat":4397,"US":4398,"rapporter":4399,"begge":4400,"ion":4401,"organisation":4402,"tillegg":4403,"icke":4404,"prata":4405,"administr":4406,"kende":4407,"funktioner":4408,"urs":4409,"finnas":4410,"sw":4411,"temperatur":4412,"use":4413,"Ka":4414,"biblio":4415,"intresse":4416,"Ek":4417,"els":4418,"købe":4419,"skott":4420,"entre":4421,"Con":4422,"pap":4423,"Facebook":4424,"ada":4425,"cit":4426,"Eftersom":4427,"OS":4428,"vald":4429,"muse":4430,"rande":4431,"smak":4432,"konsekven":4433,"gikk":4434,"København":4435,"Enligt":4436,".)":4437,"Kor":4438,"bili":4439,"cam":4440,"rese":4441,"lopp":4442,"Darfor":4443,"kn":4444,"veau":4445,"kompl":4446,"totalt":4447,"passa":4448,"poner":4449,"kvinde":4450,"ille":4451,"paket":4452,"svara":4453,"Lat":4454,"!!!":4455,"centrum":4456,"ganske":4457,"punkter":4458,"lex":4459,"beste":4460,"studier":4461,"zny":4462,"væg":4463,"stæn":4464,"lju":4465,"fro":4466,"bror":4467,"Fra":4468,"ls":4469,"korre":4470,"satser":4471,"stær":4472,"tillrack":4473,"journ":4474,"lock":4475,"sova":4476,"spra":4477,"samfun":4478,"ight":4479,"behova":4480,"dukt":4481,"Lund":4482,"ljud":4483,"accep":4484,"sommaren":4485,"hant":4486,"hat":4487,"center":4488,"Dom":4489,"kostnader":4490,"anych":4491,"uppgift":4492,"owanych":4493,"zalog":4494,"oczny":4495,"widoczny":4496,"zalogowanych":4497,"text":4498,"arm":4499,"spæn":4500,"ana":4501,"historie":4502,"tryk":4503,"ppen":4504,"svag":4505,"visas":4506,"promen":4507,"familie":4508,"sed":4509,"gall":4510,"lader":4511,"ristian":4512,"annonser":4513,"kopte":4514,"jorden":4515,"forskj":4516,"Gre":4517,"salt":4518,"Tel":4519,"offentlig":4520,"chok":4521,"ologisk":4522,"øje":4523,"sort":4524,"55":4525,"foraldrar":4526,"hemsida":4527,"hjælpe":4528,"hamn":4529,"als":4530,"mene":4531,"hendes":4532,"personlig":4533,"you":4534,"øres":4535,"resultatet":4536,"bordet":4537,"darmed":4538,"tjene":4539,"delta":4540,"profession":4541,"plus":4542,"relig":4543,"projektet":4544,"tjanst":4545,"Hot":4546,"bake":4547,"kkes":4548,"Finn":4549,"kommuner":4550,"losa":4551,"utt":4552,"Hog":4553,"slet":4554,"eskort":4555,"exempelvis":4556,"masse":4557,"sadana":4558,"Gu":4559,"34":4560,"freds":4561,"dermed":4562,"langs":4563,"sister":4564,"Kop":4565,"vek":4566,"sluta":4567,"modell":4568,"syg":4569,"poten":4570,"kapital":4571,"rika":4572,"allvar":4573,"klad":4574,"iel":4575,"kolle":4576,"havet":4577,"vigtigt":4578,"Bli":4579,"stats":4580,"Bu":4581,"Natur":4582,"hone":4583,"glæ":4584,"dvs":4585,"pig":4586,"Gi":4587,"kyl":4588,"anbefal":4589,"gangs":4590,"virker":4591,"bruke":4592,"litter":4593,"personliga":4594,"tioner":4595,"hvilke":4596,"stress":4597,"handen":4598,"prote":4599,"diskus":4600,"marknads":4601,"præsen":4602,"Hos":4603,"serne":4604,"Anna":4605,"ledningen":4606,"enbart":4607,"okar":4608,"reklam":4609,"arnas":4610,"veg":4611,".,":4612,"live":4613,"Bland":4614,"emal":4615,"varier":4616,"jarn":4617,"sut":4618,"sterna":4619,"99":4620,"grunden":4621,"begre":4622,"familjen":4623,"Tjejer":4624,"planer":4625,"maneder":4626,"bekv":4627,"UN":4628,"site":4629,"strand":4630,"næste":4631,"laga":4632,"budget":4633,"Bes":4634,"lære":4635,"gymnasi":4636,"Tre":4637,"Gor":4638,"solen":4639,"FOR":4640,"valget":4641,"dubb":4642,"ola":4643,"sadant":4644,"Hvad":4645,"EM":4646,"fortsatter":4647,"strøm":4648,"Hus":4649,"aften":4650,"blik":4651,"stj":4652,"cook":4653,"brun":4654,"Tysk":4655,"taler":4656,"Sc":4657,"figur":4658,"Gra":4659,"mea":4660,"poj":4661,"trygg":4662,"old":4663,"daligt":4664,"Jen":4665,"Ve":4666,"fyller":4667,"annen":4668,"trodde":4669,"sangen":4670,"minutter":4671,"forsø":4672,"skabe":4673,"betalning":4674,"tyvarr":4675,"enting":4676,"tema":4677,"kalla":4678,"formul":4679,"larare":4680,"tankar":4681,"smi":4682,"dela":4683,"alko":4684,"time":4685,"pligt":4686,"vision":4687,"pum":4688,"strateg":4689,"32":4690,"not":4691,"Tid":4692,"ovriga":4693,"oppen":4694,"bete":4695,"Kvinn":4696,"skapar":4697,"tyg":4698,"guld":4699,"maten":4700,"info":4701,"Anders":4702,"Tom":4703,"oavsett":4704,"Ander":4705,"stift":4706,"38":4707,"Ero":4708,"ium":4709,"gatan":4710,"etc":4711,"hittade":4712,"igennem":4713,"Sund":4714,"maned":4715,"igh":4716,"Ind":4717,"behag":4718,"framtiden":4719,"Hop":4720,"fix":4721,"hart":4722,"vagar":4723,"læse":4724,"Sta":4725,"kroner":4726,"lista":4727,"gal":4728,"skrifter":4729,"næsten":4730,"tilbake":4731,"Tr":4732,"behor":4733,"framst":4734,"kommende":4735,"gud":4736,"08":4737,"mos":4738,"brost":4739,"enskil":4740,"vore":4741,"uttryck":4742,"venner":4743,"verksamheten":4744,"spi":4745,"skat":4746,"ideer":4747,"standigt":4748,"top":4749,"Hor":4750,"sprogram":4751,"juster":4752,"fallet":4753,"forstas":4754,"uppskatt":4755,"hvorfor":4756,"mening":4757,"feren":4758,"individu":4759,"cera":4760,"starka":4761,"Thai":4762,"anvandning":4763,"forbundet":4764,"halso":4765,"ep":4766,"oj":4767,"formaga":4768,"skning":4769,"angi":4770,"65":4771,"leksaker":4772,"føres":4773,"etten":4774,"plug":4775,"Opp":4776,"vig":4777,"selvfølgelig":4778,"Sal":4779,"informasjon":4780,"Før":4781,"uppmark":4782,"verktyg":4783,"sering":4784,"Etter":4785,"sign":4786,"patienter":4787,"Plan":4788,"lavet":4789,"virksomheder":4790,"ledare":4791,"grav":4792,"deling":4793,"offi":4794,"klubben":4795,"niveau":4796,"Free":4797,"2007":4798,"ingenting":4799,"best":4800,"mindst":4801,"dejtingsida":4802,"karlek":4803,"handla":4804,"isa":4805,"sjonen":4806,"anse":4807,"smet":4808,"integr":4809,"Igar":4810,"frukost":4811,"engelska":4812,"pæ":4813,"slutning":4814,"nodvand":4815,"kategor":4816,"eln":4817,"skillnad":4818,"ox":4819,"erhver":4820,"bolaget":4821,"tvi":4822,"Norr":4823,"valgt":4824,"kata":4825,"sej":4826,"fit":4827,"undervisning":4828,"ulti":4829,"gammel":4830,"skøn":4831,"vetenskap":4832,"diag":4833,"hals":4834,"varu":4835,"spille":4836,"hoj":4837,"rader":4838,"aring":4839,"Arbe":4840,"timme":4841,"CH":4842,"klipp":4843,"iddel":4844,"gjel":4845,"utveckla":4846,"følger":4847,"olen":4848,"197":4849,"dets":4850,"App":4851,"styck":4852,"eres":4853,"39":4854,"anlagg":4855,"sverige":4856,"Jam":4857,"sug":4858,"leverant":4859,"lett":4860,"ingene":4861,"48":4862,"terade":4863,"01":4864,"Em":4865,"kler":4866,"vanster":4867,"fria":4868,"tum":4869,"samarbete":4870,"iz":4871,"bba":4872,"John":4873,"aut":4874,"stret":4875,"sokt":4876,"samarbejde":4877,"fet":4878,"09":4879,"37":4880,"gors":4881,"stader":4882,"kraver":4883,"respektive":4884,"ulike":4885,"initi":4886,"nasjon":4887,"allra":4888,"bygget":4889,"kandes":4890,"Ikke":4891,"rabatt":4892,"møde":4893,"mili":4894,"forlor":4895,"vak":4896,"testa":4897,"TE":4898,"Foto":4899,"lokale":4900,"betaling":4901,"2000":4902,"fika":4903,"tusen":4904,"fotboll":4905,"reda":4906,"mate":4907,"beratta":4908,"dagarna":4909,"levelser":4910,"aterna":4911,"øb":4912,"shop":4913,"Ly":4914,"Oster":4915,"prosjekt":4916,"klan":4917,"alene":4918,"station":4919,"utrust":4920,"ond":4921,"anlæg":4922,"hoga":4923,"Dating":4924,"besvar":4925,"box":4926,"pad":4927,"ratten":4928,"char":4929,"gaet":4930,"urser":4931,"Skan":4932,"sprung":4933,"asjoner":4934,"ratta":4935,"straff":4936,"plas":4937,"herunder":4938,"300":4939,"skrivit":4940,"nom":4941,"fiske":4942,"sled":4943,"kamera":4944,"skær":4945,"roliga":4946,"almin":4947,"botten":4948,"ungen":4949,"studer":4950,"OK":4951,"utifran":4952,"oga":4953,"festival":4954,"prova":4955,"vejen":4956,"hind":4957,"øst":4958,"antligen":4959,"kanda":4960,"virke":4961,"sociala":4962,"Varfor":4963,"ink":4964,"vie":4965,"IP":4966,"ze":4967,"producer":4968,"saval":4969,"jendom":4970,"utrym":4971,"tals":4972,"stallningar":4973,"ye":4974,"helse":4975,"ønske":4976,"Sø":4977,"løsning":4978,"Lars":4979,"xxx":4980,"Red":4981,"adres":4982,"mjol":4983,"niska":4984,"mg":4985,"dalig":4986,"imod":4987,"uge":4988,"hogt":4989,"fjar":4990,"falt":4991,"motsvar":4992,"Dam":4993,"ylland":4994,"ferie":4995,"cha":4996,"Sko":4997,"tæt":4998,"bruges":4999,"Sjalv":5000,"dighet":5001,"lom":5002,"lunda":5003,"njuta":5004,"sektor":5005,"ellers":5006,"blo":5007,"egentlig":5008,"SV":5009,"lagre":5010,"himla":5011,"kallas":5012,"verdens":5013,"perspe":5014,"vl":5015,"banan":5016,"trak":5017,"hjart":5018,"kommune":5019,"ringer":5020,"San":5021,"syd":5022,"ution":5023,"seri":5024,"oren":5025,"delning":5026,"vest":5027,"atiska":5028,"drøm":5029,"rø":5030,"sprog":5031,"erbjuda":5032,"Mange":5033,"skin":5034,"Bro":5035,"fored":5036,"Hi":5037,"hitt":5038,"tala":5039,"Fort":5040,"intervju":5041,"udfor":5042,"toppen":5043,"forum":5044,"terer":5045,"rit":5046,"Super":5047,"priset":5048,"hatt":5049,"skrevet":5050,"særlig":5051,"sof":5052,"formen":5053,"borta":5054,"atgarder":5055,"omsorg":5056,"igheten":5057,"usti":5058,"politik":5059,"http":5060,"skicka":5061,"forstaelse":5062,"vattnet":5063,"Krist":5064,"tank":5065,"fund":5066,"risiko":5067,":-)":5068,"ningsvis":5069,"elsker":5070,"samlet":5071,"forsakring":5072,"bj":5073,"marknad":5074,"cel":5075,"slog":5076,"januari":5077,"ettet":5078,"sub":5079,"bjer":5080,"møte":5081,"Pen":5082,"orten":5083,"Svar":5084,"stede":5085,"kunn":5086,"innov":5087,"kæm":5088,"foring":5089,"stillinger":5090,"skelig":5091,"Ul":5092,"Th":5093,"berak":5094,"AM":5095,"Bok":5096,"rim":5097,"ona":5098,"bidra":5099,"cookies":5100,"formid":5101,"dejt":5102,"vikle":5103,"smæss":5104,"konkurren":5105,"datum":5106,"lust":5107,"alkohol":5108,"44":5109,"spon":5110,"aktiv":5111,"byta":5112,"stark":5113,"trana":5114,"RE":5115,"lyd":5116,"…]":5117,"forval":5118,"tilfælde":5119,"Vaster":5120,"bum":5121,"exakt":5122,"slam":5123,"samhet":5124,"plass":5125,"lattare":5126,"kontakta":5127,"afe":5128,"hoger":5129,"agare":5130,"cialis":5131,"rejse":5132,"Me":5133,"stræ":5134,"Syd":5135,"betyg":5136,"nagonsin":5137,"Lind":5138,"garanti":5139,"fastighet":5140,"banken":5141,"sikring":5142,"losning":5143,"lot":5144,"Is":5145,"05":5146,"pension":5147,"vens":5148,"okan":5149,"siga":5150,"jas":5151,"spise":5152,"jamfor":5153,"foto":5154,"ovrigt":5155,"priori":5156,"ave":5157,"samhallet":5158,"kvinner":5159,"IC":5160,"Tyskland":5161,"delige":5162,"kommunikation":5163,"uer":5164,"07":5165,"underhall":5166,"ulle":5167,"værende":5168,"plast":5169,"fiken":5170,"forvan":5171,"radd":5172,"[…]":5173,"tacka":5174,"vika":5175,"publicer":5176,"Dejting":5177,"kne":5178,"glob":5179,"sakra":5180,"Bade":5181,"ikvall":5182,"Mycket":5183,"asjonen":5184,"oll":5185,"aktiver":5186,"edagog":5187,"Ele":5188,"rettet":5189,"relativt":5190,"især":5191,"renover":5192,"ford":5193,"Anvand":5194,"diskuter":5195,"bbar":5196,"penis":5197,"-,":5198,"sikr":5199,"kansl":5200,"utnytt":5201,"2006":5202,"planen":5203,"trevlig":5204,"pige":5205,"elektron":5206,"namnet":5207,"gælder":5208,"bostad":5209,"buss":5210,"trevligt":5211,"lyckas":5212,"hallen":5213,"fanta":5214,"avgift":5215,"dans":5216,"storlek":5217,"lana":5218,"teras":5219,"ld":5220,"netop":5221,"kostnad":5222,"dotter":5223,"miljon":5224,"Barn":5225,"cks":5226,"arbeidet":5227,"organisationer":5228,"skoter":5229,"stop":5230,"with":5231,"længe":5232,"SS":5233,"søker":5234,"frivill":5235,"wn":5236,"mærksom":5237,"udet":5238,"barne":5239,"lakare":5240,"regeringen":5241,"Ca":5242,"Tank":5243,"iaf":5244,"Rom":5245,"hens":5246,"forhand":5247,"Stockholms":5248,"fulla":5249,"rens":5250,"sexiga":5251,"smag":5252,"bevis":5253,"politiker":5254,"overens":5255,"vene":5256,"partiet":5257,"nyheter":5258,"borger":5259,"andras":5260,"Spel":5261,"Alt":5262,"Hoppas":5263,"verse":5264,"velsen":5265,"06":5266,"personen":5267,"brud":5268,"Uppsala":5269,"dør":5270,"kart":5271,"Skri":5272,"fød":5273,"firma":5274,"huden":5275,"Dansk":5276,"Ung":5277,"ultater":5278,"dis":5279,"bek":5280,"ica":5281,"arbetare":5282,"inspiration":5283,"tung":5284,"hvilken":5285,"skru":5286,"inal":5287,"oer":5288,"materi":5289,"chen":5290,"sasongen":5291,"naturen":5292,"extre":5293,"brit":5294,"mangd":5295,"Disse":5296,"Maria":5297,"jet":5298,"special":5299,"blas":5300,"vigtig":5301,"brugt":5302,"ordet":5303,"bladet":5304,"Sand":5305,"givare":5306,"Varje":5307,"rek":5308,"kunnat":5309,"forvalt":5310,"Je":5311,"opmærksom":5312,"Gener":5313,"uppfatt":5314,"publik":5315,"pren":5316,"Anal":5317,"visningen":5318,"suc":5319,"sette":5320,"tøj":5321,"Social":5322,"jakt":5323,"kene":5324,"ax":5325,"tillrackligt":5326,"vuxna":5327,"IV":5328,"rets":5329,"karakter":5330,"46":5331,"ktivitet":5332,"hjemmeside":5333,"historien":5334,"stalle":5335,"kille":5336,"otsligt":5337,"alvor":5338,"ores":5339,"gørelse":5340,"muligheder":5341,"dusch":5342,"PS":5343,"refle":5344,"onskar":5345,"plad":5346,"hvem":5347,"Kvinnor":5348,"goras":5349,"organiser":5350,"Tot":5351,"ild":5352,"Kommune":5353,"potenti":5354,"konstater":5355,"Lag":5356,"amerikan":5357,"karna":5358,"adgang":5359,"høre":5360,"jenter":5361,"sagde":5362,"sætning":5363,"Kir":5364,"kapit":5365,"vurder":5366,"ode":5367,"iteten":5368,"webbplats":5369,"fortro":5370,"morg":5371,"lod":5372,"ansikt":5373,"Nat":5374,"mærke":5375,"udover":5376,"ometer":5377,"karri":5378,"norr":5379,"its":5380,"atiskt":5381,"katt":5382,"valet":5383,"mast":5384,"bestall":5385,"iks":5386,"driver":5387,"hinanden":5388,"seksu":5389,"knappt":5390,"shopp":5391,"ordningen":5392,"bestemt":5393,"slakt":5394,"spændende":5395,"kott":5396,"Bara":5397,"ior":5398,"knulla":5399,"vinst":5400,"ekonomiska":5401,"Tri":5402,"samtliga":5403,"mør":5404,"196":5405,"Tek":5406,"trodu":5407,"ordforande":5408,"tionen":5409,"eran":5410,"antalet":5411,"Kra":5412,"Cam":5413,"lokala":5414,"formal":5415,"raden":5416,"huvudet":5417,"kus":5418,"Vin":5419,"status":5420,"Les":5421,"Ski":5422,"Lon":5423,"thaimassage":5424,"melser":5425,"tillhor":5426,"Lite":5427,"visste":5428,"anner":5429,"Stora":5430,"tanter":5431,"Jesus":5432,"skatte":5433,"Trots":5434,"byggnad":5435,"tryg":5436,"ihag":5437,"hjelp":5438,"ligga":5439,"fonster":5440,"tida":5441,"bevar":5442,"saklart":5443,"fett":5444,"hotellet":5445,"max":5446,"tyn":5447,"syns":5448,"media":5449,"fantastiskt":5450,"sproc":5451,"bul":5452,"leda":5453,"sjalvklart":5454,"varor":5455,"sked":5456,"Resultat":5457,"mesta":5458,"spelade":5459,"oden":5460,"wa":5461,"ansokan":5462,"torsdag":5463,"syk":5464,"Skulle":5465,"stim":5466,"metoder":5467,"lugn":5468,"augusti":5469,"klimat":5470,"ordentligt":5471,"cre":5472,"sags":5473,"lordag":5474,"fry":5475,"flykt":5476,"Nil":5477,".[":5478,"ign":5479,"Mitt":5480,"pga":5481,"arrang":5482,"sjukt":5483,"Bjor":5484,"49":5485,"inred":5486,"karakt":5487,"midler":5488,"vider":5489,"uk":5490,"sover":5491,"way":5492,"knade":5493,"egori":5494,"finnes":5495,"Fal":5496,"endet":5497,"senast":5498,"Produ":5499,"Sim":5500,"holds":5501,"tidspunkt":5502,"My":5503,"uen":5504,"gy":5505,"aktivt":5506,"grat":5507,"Sil":5508,"lim":5509,"høje":5510,"kontroller":5511,"gade":5512,"skaff":5513,"Helt":5514,"anses":5515,"forman":5516,"skogen":5517,"orlunda":5518,"øver":5519,"linjer":5520,"slos":5521,"Lad":5522,"konsu":5523,"prom":5524,"løse":5525,"arene":5526,"mottag":5527,"viste":5528,"dighed":5529,"king":5530,"promenad":5531,"Ac":5532,"videos":5533,"minska":5534,"deligt":5535,"spillet":5536,"Vara":5537,"forutom":5538,"kanskje":5539,"slagen":5540,"orig":5541,"utmarkt":5542,"deler":5543,"fortæller":5544,"Google":5545,"but":5546,"vars":5547,"OT":5548,"klæ":5549,"digvis":5550,"mej":5551,"hamta":5552,"løpet":5553,"værelse":5554,"spoliti":5555,"haret":5556,"problemet":5557,"slang":5558,"Soder":5559,"vakt":5560,"Helsing":5561,"konkret":5562,"lare":5563,"stet":5564,"bekym":5565,"Internet":5566,"dager":5567,"vardering":5568,"monster":5569,"Berg":5570,"ancer":5571,"Hv":5572,"bis":5573,"terne":5574,"bilitet":5575,"orien":5576,"car":5577,"slin":5578,"talar":5579,"Kultur":5580,"02":5581,"As":5582,"Net":5583,"lign":5584,"kær":5585,"saknar":5586,"fantastiska":5587,"strategi":5588,"forud":5589,"idrott":5590,"fardig":5591,"period":5592,"flot":5593,"kommentarer":5594,"miner":5595,"Tur":5596,"rygg":5597,"Online":5598,"starkt":5599,"besøg":5600,"fyldt":5601,"troll":5602,"fordon":5603,"Inform":5604,"framat":5605,"melig":5606,"hosten":5607,"definiti":5608,"styrke":5609,"ansatte":5610,"Martin":5611,"gæ":5612,"gte":5613,"butiker":5614,"meste":5615,"føring":5616,"erfaring":5617,"Eli":5618,"utvikling":5619,"upplevelse":5620,"socker":5621,"undrar":5622,"Hade":5623,"ya":5624,"begar":5625,"kjøp":5626,"styret":5627,"pil":5628,"fx":5629,"spek":5630,"nagonting":5631,"onsk":5632,"starta":5633,"bostads":5634,"klin":5635,"ekonomi":5636,"kram":5637,"starten":5638,"tiska":5639,"flyt":5640,"domstol":5641,"47":5642,"42":5643,"kans":5644,"krist":5645,"elige":5646,"bisk":5647,"AC":5648,"Mid":5649,"anset":5650,"gig":5651,"ringen":5652,"markedet":5653,"lærer":5654,"fine":5655,"sæl":5656,"genomfor":5657,"forand":5658,"arkite":5659,"fylla":5660,"sendt":5661,"ellan":5662,"Indi":5663,"tillstand":5664,"Hvordan":5665,"Thom":5666,"VM":5667,"litteratur":5668,"leken":5669,"bt":5670,"folket":5671,"tanken":5672,"hogsta":5673,"hojd":5674,"Fram":5675,"forældre":5676,"Ital":5677,"Vet":5678,"mentar":5679,"attrakti":5680,"teket":5681,"talte":5682,"staten":5683,"Met":5684,"atorer":5685,"kompeten":5686,"dum":5687,"tube":5688,"sygdom":5689,"konfli":5690,"Læs":5691,"matchen":5692,"tallet":5693,"Gran":5694,"Intern":5695,"positivt":5696,"Ibland":5697,"vanda":5698,"vidt":5699,"prak":5700,"stranden":5701,"ack":5702,"sorti":5703,"boka":5704,"ikro":5705,"bekvam":5706,"Ah":5707,"lækker":5708,"nyck":5709,"benytte":5710,"Sad":5711,"skjer":5712,"ledes":5713,"ism":5714,"isol":5715,"kostar":5716,"billed":5717,"synlig":5718,"ikk":5719,"2005":5720,"identifi":5721,"styrelse":5722,"betydligt":5723,"guide":5724,"kender":5725,"rull":5726,"indtil":5727,"tilbyder":5728,"gjelder":5729,"anstallda":5730,"unt":5731,"byr":5732,"infl":5733,"Span":5734,"sot":5735,"lagenhet":5736,"javla":5737,"legge":5738,"AV":5739,"betale":5740,"spo":5741,"andel":5742,"fukt":5743,"AND":5744,"januar":5745,"Fe":5746,"forhallande":5747,"Got":5748,"imponer":5749,"serar":5750,"diagno":5751,"sprang":5752,"arranger":5753,"narmare":5754,"positiv":5755,"Son":5756,"bandet":5757,"utform":5758,"føler":5759,"afall":5760,"Vel":5761,"ider":5762,"beskriver":5763,"skada":5764,"hell":5765,"pin":5766,"given":5767,"HD":5768,"Bon":5769,"Sid":5770,"drabb":5771,"værre":5772,"darefter":5773,"køre":5774,"kontin":5775,"Styr":5776,"malmo":5777,"dack":5778,"yrkes":5779,"betydelse":5780,"Ener":5781,"linje":5782,"Char":5783,"Mas":5784,"datorn":5785,"total":5786,"hurtig":5787,"snygga":5788,"effektivt":5789,"larna":5790,"kkede":5791,"bereg":5792,"hensyn":5793,"bestille":5794,"04":5795,"Umea":5796,"ood":5797,"recen":5798,"brist":5799,"olf":5800,"kvalitets":5801,"Kj":5802,"Amat":5803,"vanskelig":5804,"vne":5805,"lund":5806,"daremot":5807,"Vart":5808,"motiv":5809,"født":5810,"ura":5811,"regering":5812,"Foren":5813,"viktigaste":5814,"jun":5815,"middagen":5816,"hyr":5817,"Eskort":5818,"ii":5819,"vægt":5820,"titet":5821,"størrelse":5822,"forsv":5823,"tydligt":5824,"voksne":5825,"jekter":5826,"februari":5827,"relation":5828,"teller":5829,"SP":5830,"okad":5831,"sif":5832,"kran":5833,"kapa":5834,"sler":5835,"ckning":5836,"Side":5837,"burg":5838,"klassen":5839,"ender":5840,"premi":5841,"aterial":5842,"bergs":5843,"arig":5844,"eligt":5845,"lyssna":5846,"Porno":5847,"driv":5848,"skov":5849,"lysning":5850,"mord":5851,"sondag":5852,"motiver":5853,"finansiering":5854,"1000":5855,"djup":5856,"bane":5857,"Tva":5858,"perspektiv":5859,"Dock":5860,"magen":5861,"pedagog":5862,"antall":5863,"iP":5864,"400":5865,"blick":5866,"retur":5867,"bygning":5868,"sikkerhed":5869,"ejendom":5870,"allafall":5871,"pratar":5872,"jf":5873,"fed":5874,"bidrar":5875,"version":5876,"wor":5877,"sning":5878,"tagen":5879,"olja":5880,"egaende":5881,"smor":5882,"loss":5883,"ctor":5884,"turen":5885,"uger":5886,"skratt":5887,"enhver":5888,"restaurang":5889,"plotsligt":5890,"nis":5891,"lart":5892,"resultater":5893,"periode":5894,"Frag":5895,"Carl":5896,"Mad":5897,"stammer":5898,"skolor":5899,"fixa":5900,"effektiv":5901,"kryd":5902,"forsaljning":5903,"gitt":5904,"studenter":5905,"kampen":5906,"=)":5907,"Ob":5908,"regul":5909,"enden":5910,"atch":5911,"korrekt":5912,"tral":5913,"finansiella":5914,"indeholder":5915,"utvecklingen":5916,"kopt":5917,"vuxen":5918,"allige":5919,"bedst":5920,"knull":5921,"usen":5922,"drer":5923,"skapen":5924,"intresserad":5925,"angel":5926,"læring":5927,"bilj":5928,"resan":5929,"oplevelse":5930,"spørsmal":5931,"harlig":5932,"fysisk":5933,"tabe":5934,"sms":5935,"rattigheter":5936,"OG":5937,"stiller":5938,"Ru":5939,"150":5940,"Finland":5941,"Lan":5942,"satts":5943,"bert":5944,"hører":5945,"ynd":5946,"orges":5947,"Pas":5948,"korde":5949,"repar":5950,"95":5951,"exper":5952,"iller":5953,"prog":5954,"datter":5955,"valde":5956,"koncer":5957,"utbud":5958,"iland":5959,"ino":5960,"kkelig":5961,"kompetens":5962,"overfor":5963,"ric":5964,"dokumenter":5965,"spara":5966,"interesser":5967,"visor":5968,"kjøpe":5969,"Vores":5970,"type":5971,"rigtige":5972,"vardag":5973,"cu":5974,"klasse":5975,"symbol":5976,"modellen":5977,"betydning":5978,"vinner":5979,"Vol":5980,"kny":5981,"formod":5982,"splats":5983,"starter":5984,"lejlighed":5985,"195":5986,"Samtidigt":5987,"saft":5988,"cell":5989,"pra":5990,"Beg":5991,"førte":5992,"resor":5993,"gallande":5994,"somradet":5995,"millioner":5996,"lamnar":5997,"yt":5998,"gladje":5999,"sagen":6000,"kuk":6001,"æreste":6002,"ycker":6003,"døde":6004,"nemt":6005,"fing":6006,"vindu":6007,"show":6008,"sle":6009,"behandlingen":6010,"stjar":6011,"kurser":6012,"stjer":6013,"arbejdere":6014,"SL":6015,"hastar":6016,"kalen":6017,"snygg":6018,"FF":6019,"arhus":6020,"forber":6021,"laste":6022,"bjerg":6023,"chans":6024,"central":6025,"venn":6026,"manniska":6027,"lans":6028,"morgonen":6029,"kendte":6030,"passade":6031,"Politi":6032,"forutsattningar":6033,"tekst":6034,"upptack":6035,"ani":6036,"mitten":6037,"humor":6038,"Bri":6039,"frihet":6040,"bile":6041,"traffar":6042,"jule":6043,"elev":6044,"rosa":6045,"snittet":6046,"03":6047,"pool":6048,"koper":6049,"sjukvar":6050,"separ":6051,"amnen":6052,"myndigheter":6053,"brod":6054,"offentlige":6055,"ums":6056,"Danmarks":6057,"Ore":6058,"dyg":6059,"Andra":6060,"vei":6061,"indlæg":6062,"stolt":6063,"Kommer":6064,"mansk":6065,"grill":6066,"Ann":6067,"valgte":6068,"Sport":6069,"undan":6070,"mana":6071,"landets":6072,"Bir":6073,"onsdag":6074,"inklusive":6075,"statt":6076,"kampan":6077,"student":6078,"album":6079,"akta":6080,"eksister":6081,"dialog":6082,"budet":6083,"sivt":6084,"bjuder":6085,"fejl":6086,"losningar":6087,"vold":6088,"børne":6089,"mom":6090,"trenger":6091,"forsamling":6092,"Finns":6093,"maskiner":6094,"forbund":6095,"inlag":6096,"choklad":6097,"sitet":6098,"misstan":6099,"Video":6100,"lege":6101,"billiga":6102,"celler":6103,"vent":6104,"masser":6105,"forbered":6106,"jamfort":6107,"Sna":6108,"faktorer":6109,"Mic":6110,"bold":6111,"betalt":6112,"ventil":6113,"forsikt":6114,"antingen":6115,"kkende":6116,"klicka":6117,"ursprung":6118,"risker":6119,"tittar":6120,"inrikt":6121,"gland":6122,"Stat":6123,"listan":6124,"annorlunda":6125,"Kal":6126,"samfund":6127,"Kri":6128,"Gust":6129,"Log":6130,"midt":6131,"gett":6132,"lub":6133,"essen":6134,"eksp":6135,"skraft":6136,"kræver":6137,"stimul":6138,"tig":6139,"Dig":6140,"introdu":6141,"brukes":6142,"valkom":6143,"aben":6144,"ranta":6145,"beskrivning":6146,"OP":6147,"kommunens":6148,"strax":6149,"got":6150,"sammanhang":6151,"norge":6152,"situationer":6153,"SD":6154,"pande":6155,"ALL":6156,"lyckades":6157,"moderne":6158,"que":6159,"park":6160,"gards":6161,"rød":6162,"aktie":6163,"underbara":6164,"minstone":6165,"Vag":6166,"skaps":6167,"billede":6168,"sasong":6169,"Forsta":6170,"kod":6171,"bytte":6172,"ryggen":6173,"opgaver":6174,"siva":6175,"Pe":6176,"anmel":6177,"jande":6178,"?!":6179,"ægte":6180,"Pl":6181,"lakem":6182,"sættes":6183,"Do":6184,"mjuk":6185,"stjan":6186,"inen":6187,"hunden":6188,"bull":6189,"somrade":6190,"ørn":6191,"Stud":6192,"day":6193,"Folk":6194,"somt":6195,"put":6196,"Film":6197,"billigt":6198,"splad":6199,"prosent":6200,"spur":6201,"ance":6202,"svang":6203,"Forst":6204,"asy":6205,"stiden":6206,"beskytt":6207,"odra":6208,"bakgrund":6209,"argu":6210,"undersokning":6211,"historier":6212,"blommor":6213,"Hav":6214,"fundet":6215,"neste":6216,"AP":6217,"ologiska":6218,"Ur":6219,"hjælper":6220,"Skol":6221,"kunden":6222,"underklader":6223,"position":6224,"funnit":6225,"slot":6226,"organisa":6227,"afhæng":6228,"NING":6229,"personuppgifter":6230,"koncentr":6231,"pamin":6232,"Foret":6233,"motet":6234,"selig":6235,"serier":6236,"Fam":6237,"ction":6238,"harligt":6239,"hittat":6240,"bilderna":6241,"nyttet":6242,"politiska":6243,"soft":6244,"juk":6245,"smukke":6246,"oster":6247,"samlingen":6248,"arter":6249,"Henrik":6250,"paverkar":6251,"ational":6252,"Ven":6253,"rammer":6254,"kjør":6255,"arige":6256,"vapen":6257,"marna":6258,"itter":6259,"naturligtvis":6260,"inkluder":6261,"vinder":6262,"relater":6263,"dren":6264,"omgang":6265,"vurdering":6266,"ejer":6267,"utrustning":6268,"praksis":6269,"Gro":6270,"kle":6271,"tilfreds":6272,"ustr":6273,"besked":6274,"mikro":6275,"skador":6276,"43":6277,"Nak":6278,"\u0000\u0000":6279,"vila":6280,"dekor":6281,"papir":6282,"Of":6283,"Vær":6284,"Lok":6285,"das":6286,"manu":6287,"iter":6288,"2004":6289,"ela":6290,"gru":6291,"gande":6292,"pik":6293,"Mø":6294,"marke":6295,"forvant":6296,"sosi":6297,"splatsen":6298,"erande":6299,"rem":6300,"standar":6301,"kombination":6302,"gent":6303,"resept":6304,"servi":6305,"ire":6306,"41":6307,"urer":6308,"Bygg":6309,"begræn":6310,"smer":6311,"Marie":6312,"elles":6313,"utvecklas":6314,"kjær":6315,"Knulla":6316,"Nagra":6317,"ønn":6318,"smas":6319,"kandid":6320,"foreg":6321,"imidler":6322,"Alex":6323,"politisk":6324,"effekter":6325,"andt":6326,"Kron":6327,"dato":6328,"stabil":6329,"hotel":6330,"termin":6331,"amator":6332,"gaard":6333,"parkering":6334,"London":6335,"strup":6336,"Sexiga":6337,"Bel":6338,"færdig":6339,"apotek":6340,"minne":6341,"erotisk":6342,"Amer":6343,"belopp":6344,"85":6345,"sident":6346,"gorande":6347,"ungdomar":6348,"tunn":6349,"imidlertid":6350,"prøver":6351,"vnt":6352,"lugnt":6353,"soffan":6354,"køkken":6355,"ratts":6356,"gay":6357,"sman":6358,"olyck":6359,"alsk":6360,"selvom":6361,"plock":6362,"mota":6363,"medvet":6364,"eu":6365,"chi":6366,"kanten":6367,"lamp":6368,"forbattra":6369,"erings":6370,"aktion":6371,"Kam":6372,"aland":6373,"jda":6374,"klarar":6375,"tving":6376,"faller":6377,"setter":6378,"æt":6379,"sjun":6380,"salja":6381,"læge":6382,"general":6383,"endelig":6384,"angre":6385,"lost":6386,"skid":6387,"killar":6388,"forsakr":6389,"Kort":6390,"jern":6391,"stallen":6392,"øg":6393,"alisering":6394,"Kr":6395,"matcher":6396,"konstigt":6397,"hantera":6398,"lass":6399,"kend":6400,"master":6401,"ografi":6402,"Qu":6403,"drygt":6404,"!)":6405,"radio":6406,"ledelse":6407,"private":6408,"gin":6409,"ferens":6410,"slipper":6411,"skifte":6412,"avsnitt":6413,"orkar":6414,"sidder":6415,"Dal":6416,"Thomas":6417,"utsikt":6418,"øse":6419,"højt":6420,"sterne":6421,"ley":6422,"atik":6423,"hallbar":6424,"tecken":6425,"branschen":6426,"ah":6427,"reser":6428,"slutade":6429,"OB":6430,"vog":6431,"daglig":6432,"kontrakt":6433,"pasta":6434,"vd":6435,"EG":6436,"kult":6437,"intet":6438,"Ed":6439,"ansen":6440,"cia":6441,"leje":6442,"ambi":6443,"Ring":6444,"Fredrik":6445,"bryg":6446,"bussen":6447,"syfte":6448,"grym":6449,"nærmere":6450,"oni":6451,"vede":6452,"vers":6453,"bevæ":6454,"befinner":6455,"Bank":6456,"ms":6457,"princip":6458,"funktions":6459,"ligesom":6460,"vnte":6461,"PC":6462,"sede":6463,"ness":6464,"underbart":6465,"hagen":6466,"fungerer":6467,"egenskaper":6468,"baby":6469,"bbl":6470,"event":6471,"mede":6472,"hogst":6473,"bestamt":6474,"populara":6475,"git":6476,"view":6477,"vælger":6478,"kerne":6479,"racker":6480,"iallafall":6481,"pek":6482,"spillere":6483,"klær":6484,"detalj":6485,"onne":6486,"ildo":6487,"sprodu":6488,"ledande":6489,"flytte":6490,"Basta":6491,"verdi":6492,"ssatt":6493,"utdan":6494,"sallan":6495,"lane":6496,"skuld":6497,"iv":6498,"rang":6499,"saljer":6500,"Black":6501,"jeres":6502,"Guds":6503,"ters":6504,"pengarna":6505,"ersattning":6506,"indenfor":6507,"glem":6508,"syster":6509,"hyll":6510,"rin":6511,"sannoli":6512,"delt":6513,"kortet":6514,"glada":6515,"visat":6516,"Valkommen":6517,"byte":6518,"ksi":6519,"porrfilm":6520,"Norges":6521,"popular":6522,"arens":6523,"stycken":6524,"dent":6525,"darlig":6526,"**":6527,"forhopp":6528,"Orebro":6529,"omedel":6530,"halls":6531,"David":6532,"mangler":6533,"definitivt":6534,"Vir":6535,"familien":6536,"styre":6537,"ming":6538,"flotte":6539,"utover":6540,"engelsk":6541,"resul":6542,"stanna":6543,"fortsatte":6544,"offici":6545,"kallade":6546,"situationen":6547,"hundar":6548,"lyser":6549,"ora":6550,"inder":6551,"gem":6552,"idet":6553,"aldri":6554,"heim":6555,"Tyvarr":6556,"ladda":6557,"søge":6558,"skler":6559,"synet":6560,"KT":6561,"krop":6562,"ago":6563,"Gun":6564,"holdes":6565,"fack":6566,"lades":6567,"real":6568,"teor":6569,"CO":6570,"lanet":6571,"Led":6572,"kningen":6573,"funkar":6574,"kog":6575,"knyttet":6576,"ingred":6577,"karen":6578,"lægge":6579,"faktum":6580,"vardags":6581,"svarta":6582,"okat":6583,"eger":6584,"springa":6585,"teater":6586,"atminstone":6587,"mojliga":6588,"akk":6589,"male":6590,"sæson":6591,"lokaler":6592,"patient":6593,"roman":6594,"processen":6595,"gum":6596,"deren":6597,"taket":6598,"cere":6599,"Mel":6600,"Region":6601,"satsen":6602,"belast":6603,"vaxer":6604,"bbe":6605,"ows":6606,"anvendes":6607,"vilkar":6608,"kanslor":6609,"dern":6610,"viken":6611,"adel":6612,"arrange":6613,"Mere":6614,"træning":6615,"trykk":6616,"gast":6617,"):":6618,"Ag":6619,"vert":6620,"kninger":6621,"svaret":6622,"hovedet":6623,"serer":6624,"skift":6625,"Inn":6626,"mojligheten":6627,"Fun":6628,"natverk":6629,"Ov":6630,"forvaltning":6631,"egn":6632,"Visst":6633,"farver":6634,"stof":6635,"sattningen":6636,"Nya":6637,"Projekt":6638,"innlegg":6639,"enkla":6640,"stallningen":6641,"Kur":6642,"batteri":6643,"avgifter":6644,"vaga":6645,"kunskaper":6646,"UT":6647,"Pat":6648,"okej":6649,"medarbejdere":6650,"outube":6651,"naken":6652,"stykke":6653,"Dri":6654,"syge":6655,"Hy":6656,"joner":6657,"engag":6658,"styrelsens":6659,"arbeids":6660,"avent":6661,"liste":6662,"cancer":6663,"latta":6664,"pli":6665,"evt":6666,"Vilken":6667,"cykl":6668,"sattet":6669,"IM":6670,"hantering":6671,"speg":6672,"hemmet":6673,"formodligen":6674,"vata":6675,"alligevel":6676,"numera":6677,"Nam":6678,"varken":6679,"betalar":6680,"Christ":6681,"represen":6682,"læng":6683,"jobbigt":6684,"mysigt":6685,"tabl":6686,"eleg":6687,"camp":6688,"rene":6689,"olie":6690,"fakta":6691,"sammenlig":6692,"inkomst":6693,"statistik":6694,"rael":6695,"golv":6696,"medarbetare":6697,"Nagon":6698,"Aldre":6699,"ptom":6700,"grann":6701,"udgangspunkt":6702,"rolle":6703,"langi":6704,"kilometer":6705,"baggrund":6706,"metod":6707,"sekunder":6708,"citet":6709,"tegn":6710,"jene":6711,"biler":6712,"fungera":6713,"italien":6714,"hinder":6715,"stick":6716,"kraftig":6717,"diska":6718,"tik":6719,"Forutom":6720,"seneste":6721,"xor":6722,"facebook":6723,"cc":6724,"bio":6725,"sporter":6726,"Hit":6727,"kaka":6728,"Jer":6729,"paverka":6730,"Byg":6731,"skilt":6732,"ph":6733,"indre":6734,"pon":6735,"tju":6736,"Christian":6737,"veje":6738,"underbar":6739,"sætt":6740,"homo":6741,"byra":6742,"unik":6743,"Valj":6744,"Au":6745,"panel":6746,"Max":6747,"SF":6748,"Tag":6749,"Vissa":6750,"interesse":6751,"svarende":6752,"fræ":6753,"vandring":6754,"samhalle":6755,"vida":6756,"if":6757,"japan":6758,"besoka":6759,"stitut":6760,"forelas":6761,"væsent":6762,"Juli":6763,"kyrkan":6764,"fotografer":6765,"kallar":6766,"medlems":6767,"burde":6768,"orn":6769,"desto":6770,"mans":6771,"Pal":6772,"SEK":6773,"internationella":6774,"bryster":6775,"unna":6776,"tyst":6777,"motstand":6778,"Fick":6779,"bben":6780,"fattar":6781,"Ter":6782,"vandet":6783,"tydligen":6784,"Asi":6785,"varet":6786,"PA":6787,"fog":6788,"sisk":6789,"respekt":6790,"England":6791,"krimin":6792,"Kina":6793,"diverse":6794,"lignende":6795,"prisen":6796,"ition":6797,"Can":6798,"Play":6799,"koppling":6800,"forandringar":6801,"mn":6802,"godis":6803,"hann":6804,"Mand":6805,"tænke":6806,"praktisk":6807,"sugen":6808,"bunden":6809,"stillingen":6810,"singlar":6811,"retten":6812,"lider":6813,"letter":6814,"tysk":6815,"rapporten":6816,"august":6817,"spons":6818,"vackert":6819,"ros":6820,"dress":6821,"europe":6822,"soli":6823,"polisen":6824,"Energi":6825,"relevant":6826,"lægger":6827,"gæn":6828,"dorren":6829,"styrka":6830,"relationer":6831,"Pi":6832,"mala":6833,"kompli":6834,"særligt":6835,"forsokte":6836,"NA":6837,"højere":6838,"smarta":6839,"tilskud":6840,"You":6841,"løsninger":6842,"wee":6843,"Hitta":6844,"foder":6845,"demokrati":6846,"Bol":6847,"dru":6848,"forslaget":6849,"veien":6850,"wi":6851,"tvivl":6852,"Tror":6853,"upple":6854,"your":6855,"casin":6856,"Universitet":6857,"alister":6858,"personlige":6859,"fug":6860,"fodd":6861,"appen":6862,"skull":6863,"befolkningen":6864,"js":6865,"neder":6866,"kontakter":6867,"romanti":6868,"fandt":6869,"dia":6870,"tages":6871,"modern":6872,"fragade":6873,"Gav":6874,"givetvis":6875,"spart":6876,"flash":6877,"forny":6878,"tiske":6879,"Mam":6880,"minns":6881,"yer":6882,"traffade":6883,"forskjellige":6884,"samarbeid":6885,"رر":6886,"utioner":6887,"invol":6888,"underlag":6889,"market":6890,"medarbejder":6891,"akade":6892,"hunnit":6893,"Fan":6894,"forløb":6895,"ral":6896,"nus":6897,"paverk":6898,"hoppa":6899,"lapp":6900,"vises":6901,"Hotel":6902,"ei":6903,"ceret":6904,"skas":6905,"UR":6906,"pleje":6907,"kvalifi":6908,"fron":6909,"simpel":6910,"moten":6911,"laggande":6912,"format":6913,"multi":6914,"66":6915,"stres":6916,"OD":6917,"mekan":6918,"lly":6919,"soder":6920,"Paul":6921,"brukt":6922,"bedomning":6923,"ungdoms":6924,"ifølge":6925,"snabba":6926,"Ban":6927,"aktuella":6928,"bana":6929,"nart":6930,"sjov":6931,"Italien":6932,"forr":6933,"Daniel":6934,"rot":6935,"City":6936,"chansen":6937,"sling":6938,"lea":6939,"amerikanska":6940,"narheten":6941,"roda":6942,"bøger":6943,"glæde":6944,"naturligvis":6945,"analys":6946,"oblig":6947,"konstnar":6948,"tvungen":6949,"avstand":6950,"teknologi":6951,"sæd":6952,"nuvarande":6953,"kanslan":6954,"ysning":6955,"Sten":6956,"bott":6957,"rekke":6958,"varder":6959,"behovde":6960,"behovet":6961,"generisk":6962,"Sara":6963,"bærer":6964,"skrig":6965,"død":6966,"avdel":6967,"iker":6968,"sting":6969,"kæmpe":6970,"lakemedel":6971,"aventyr":6972,"Vest":6973,"sortiment":6974,"hardt":6975,"virkning":6976,"kors":6977,"legger":6978,"strikt":6979,"irri":6980,"enskom":6981,"stændig":6982,"88":6983,"%.":6984,"ving":6985,"sorg":6986,"vitra":6987,"hinner":6988,"rock":6989,"ids":6990,"undvika":6991,"rekommenderar":6992,"lack":6993,"Air":6994,"anges":6995,"dubbel":6996,"ørdag":6997,"handlingar":6998,"harliga":6999,"engang":7000,"registrering":7001,"XX":7002,"bestalla":7003,"risken":7004,"».":7005,"luften":7006,"snarare":7007,"kategorier":7008,"semin":7009,"anvandare":7010,"enklare":7011,"cher":7012,"ellem":7013,"Ry":7014,"2003":7015,"varmen":7016,"Arets":7017,"Dagens":7018,"tillgangliga":7019,"ologiske":7020,"selve":7021,"lyckats":7022,"resurser":7023,"leverand":7024,"​​":7025,"ligtvis":7026,"rester":7027,"siske":7028,"utgangspunkt":7029,"Sti":7030,"varan":7031,"mogna":7032,"farve":7033,"ekte":7034,"laggning":7035,"regionen":7036,"rest":7037,"skydds":7038,"stalld":7039,"tillfalle":7040,"revol":7041,"bring":7042,"objekt":7043,"aftale":7044,"Slut":7045,"ømme":7046,"ledig":7047,"levande":7048,"konsul":7049,"gelige":7050,"CD":7051,"Haha":7052,"startade":7053,"beting":7054,"forbud":7055,"passet":7056,"tabel":7057,"compu":7058,"backen":7059,"Fy":7060,"horn":7061,"ml":7062,"trade":7063,"Pris":7064,"ferdig":7065,"beskri":7066,"Inne":7067,"Samtidig":7068,"AA":7069,"Kn":7070,"kategori":7071,"bloggar":7072,"fabri":7073,"samlede":7074,"strid":7075,"Skal":7076,"slutt":7077,"Spar":7078,"recep":7079,"VD":7080,"stillet":7081,"fortroende":7082,"kommunal":7083,"tip":7084,"koket":7085,"foljd":7086,"typisk":7087,"fæ":7088,"bruks":7089,"gaster":7090,"yta":7091,"skyldig":7092,"møder":7093,"varo":7094,"lant":7095,"faste":7096,"Port":7097,"Wor":7098,"gens":7099,"bodde":7100,"programmer":7101,"aktier":7102,"register":7103,"banen":7104,"opna":7105,"venstre":7106,"familjer":7107,"ckande":7108,"singel":7109,"omoj":7110,"ump":7111,"ramme":7112,"MS":7113,"Amator":7114,"barns":7115,"fard":7116,"llop":7117,"utrolig":7118,"oter":7119,"parte":7120,"Hom":7121,"starte":7122,"hamnar":7123,"gjerne":7124,"fulde":7125,"trang":7126,"Casino":7127,"Dem":7128,"Sar":7129,"kristen":7130,"ffer":7131,"Bal":7132,"bibliotek":7133,"berattade":7134,"Sag":7135,"Nakna":7136,"cafe":7137,"titel":7138,"York":7139,"vadret":7140,"organisationen":7141,"avhen":7142,"demon":7143,"fødsel":7144,"bby":7145,"utgor":7146,"afgør":7147,"Ras":7148,"banker":7149,"Kro":7150,"infe":7151,"feil":7152,"gn":7153,"riktiga":7154,"digital":7155,"behø":7156,"skaffa":7157,"sallskap":7158,"dol":7159,"rister":7160,"spesielt":7161,"brollop":7162,"tydlig":7163,"ava":7164,"56":7165,"stagram":7166,"atit":7167,"repræsen":7168,"skader":7169,"Fu":7170,"atan":7171,"hr":7172,"vast":7173,"mjolk":7174,"kong":7175,"anvande":7176,"make":7177,"erbjudanden":7178,"pratade":7179,"derefter":7180,"laver":7181,"wer":7182,"okade":7183,"fullmakt":7184,"rorelse":7185,"socialt":7186,"representer":7187,"knappen":7188,"naderna":7189,"terat":7190,"bilde":7191,"stry":7192,"materiale":7193,"hov":7194,"varlds":7195,"lyder":7196,"tagelse":7197,"Sma":7198,"gelser":7199,"doms":7200,"nytta":7201,"gelsen":7202,"this":7203,"tjenester":7204,"moter":7205,"DR":7206,"sociale":7207,"hansyn":7208,"smatt":7209,"stisk":7210,"adress":7211,"forhallanden":7212,"aning":7213,"sjons":7214,"betalnings":7215,"synd":7216,"milf":7217,"Paris":7218,"Kung":7219,"golf":7220,"typen":7221,"Stort":7222,"bakter":7223,"korta":7224,"æft":7225,"kvan":7226,"Wi":7227,"langd":7228,"distri":7229,"mæng":7230,"hande":7231,"flickor":7232,"skyldes":7233,"gede":7234,"perfekta":7235,"menneske":7236,"fritid":7237,"fitta":7238,"Vej":7239,"MA":7240,"udstyr":7241,"tidlig":7242,"BR":7243,"Service":7244,"overrask":7245,"plikt":7246,"lur":7247,"hundra":7248,"Vem":7249,"Bed":7250,"Søn":7251,"LE":7252,"rigtigt":7253,"ark":7254,"mobilen":7255,"Japan":7256,"skrivning":7257,"varma":7258,"Skane":7259,"slutar":7260,"Nagot":7261,"bræn":7262,"ogonen":7263,"vaster":7264,"konsekvenser":7265,"muskler":7266,"inse":7267,"svall":7268,"chatt":7269,"artiklar":7270,"ansvaret":7271,"glass":7272,"sender":7273,"begynder":7274,"System":7275,"byn":7276,"Kap":7277,"600":7278,"himmel":7279,"orgas":7280,"syke":7281,"unika":7282,"Ren":7283,"amne":7284,"Jonas":7285,"lamnat":7286,"tad":7287,"delvis":7288,"ttet":7289,"narings":7290,"Fru":7291,"lamnade":7292,"æv":7293,"politiske":7294,"Hoved":7295,"økonomiske":7296,"ockey":7297,"sidst":7298,"FN":7299,"Chi":7300,"oslo":7301,"skjut":7302,"Don":7303,"Stk":7304,"vask":7305,"finger":7306,"butiken":7307,"grona":7308,"samre":7309,"varre":7310,"succes":7311,"indhold":7312,"plo":7313,"Bus":7314,"250":7315,"Thaimassage":7316,"Wind":7317,"Tu":7318,"langsikt":7319,"Cy":7320,"Grund":7321,"isen":7322,"radgivning":7323,"Visa":7324,"ingredien":7325,"telefoner":7326,"teres":7327,"nack":7328,"religi":7329,"modu":7330,"domen":7331,"konta":7332,"rarna":7333,"sop":7334,"øk":7335,"projekter":7336,"Andersson":7337,"Lagg":7338,"skur":7339,"trakigt":7340,"landska":7341,"disp":7342,"Bilder":7343,"helhet":7344,"daliga":7345,"Innan":7346,"dricka":7347,"køber":7348,"Telef":7349,"generelt":7350,"folke":7351,"69":7352,"holdning":7353,"forbed":7354,"økonomi":7355,"golvet":7356,"hej":7357,"jobbat":7358,"kærlighed":7359,"tyder":7360,"ice":7361,"blomster":7362,"Utan":7363,"Annars":7364,"velkommen":7365,"opleve":7366,"erfarenheter":7367,"gøres":7368,"omfattande":7369,"Danske":7370,"besokare":7371,"Im":7372,"ligheter":7373,"bind":7374,"ula":7375,"huse":7376,"Kl":7377,"torr":7378,"Sofi":7379,"lide":7380,"framtid":7381,"værkt":7382,"hil":7383,"stoffer":7384,"rutiner":7385,"seks":7386,"postad":7387,"Micha":7388,"kirke":7389,"forsknings":7390,"onym":7391,"gjengel":7392,"bs":7393,"sjæl":7394,"lyx":7395,"serade":7396,"LO":7397,"Norsk":7398,"ismen":7399,"Dr":7400,"finna":7401,"nerv":7402,"Frankri":7403,"undersøg":7404,"model":7405,"Vilket":7406,"Col":7407,"ments":7408,"ege":7409,"Knull":7410,"Verk":7411,"uttal":7412,"Klicka":7413,"stikk":7414,"tillganglig":7415,"dollar":7416,"februar":7417,"kjem":7418,"gad":7419,"vinde":7420,"Hotell":7421,"klima":7422,"øvrige":7423,"parken":7424,"fuldt":7425,"belig":7426,"framforallt":7427,"buk":7428,"neden":7429,"Sig":7430,"alternati":7431,"yderligere":7432,"identitet":7433,"individer":7434,"tekniska":7435,"hjarta":7436,"meddelande":7437,"ople":7438,"bogen":7439,"Nav":7440,"shopping":7441,"uppratt":7442,"Sor":7443,"filos":7444,"erte":7445,"sili":7446,"utlan":7447,"64":7448,"legi":7449,"Blu":7450,"snabbare":7451,"teknisk":7452,"gemensamma":7453,"Mina":7454,"alders":7455,"placering":7456,"skost":7457,"studerende":7458,"Tim":7459,"sperio":7460,"oversikt":7461,"skje":7462,"Fr":7463,"forekommer":7464,"britann":7465,"telefonen":7466,"Ogsa":7467,"support":7468,"kallt":7469,"befint":7470,"DE":7471,"Kol":7472,"bekendt":7473,"ælland":7474,"tranings":7475,"køn":7476,"alborg":7477,"eleverna":7478,"huvudsak":7479,"Store":7480,"løp":7481,"moderna":7482,"miljar":7483,"skiftet":7484,"ændringer":7485,"sajt":7486,"rakna":7487,"ee":7488,"intressanta":7489,"skum":7490,"lettere":7491,"59":7492,"extremt":7493,"illustr":7494,"kører":7495,"Ram":7496,"opprett":7497,"svarar":7498,"avseende":7499,"57":7500,"videor":7501,"automatisk":7502,"look":7503,"Hela":7504,"sundhed":7505,"67":7506,"alskade":7507,"vaknade":7508,"Histor":7509,"UL":7510,"somme":7511,"bestyrelsen":7512,"utsatt":7513,"symptom":7514,"sekret":7515,"mente":7516,"varna":7517,"motsvarande":7518,"brik":7519,"Ant":7520,"grundlaggande":7521,"stiger":7522,"forar":7523,"tions":7524,"rike":7525,"populære":7526,"Blir":7527,"AF":7528,"mangder":7529,"matem":7530,"nyligen":7531,"forsøg":7532,"skriften":7533,"hallet":7534,"perfe":7535,"utav":7536,"skop":7537,"vild":7538,"modtager":7539,"tillhanda":7540,"møn":7541,"tittade":7542,"andina":7543,"skoler":7544,"personligt":7545,"Angel":7546,"kompletter":7547,"gaven":7548,"Øn":7549,"sadar":7550,"sukker":7551,"dejlig":7552,"kvaliteten":7553,"lende":7554,"seger":7555,"Fly":7556,"list":7557,"bidr":7558,"turner":7559,"lenge":7560,"webbplatser":7561,"betyr":7562,"Ab":7563,"spekt":7564,"tic":7565,"lank":7566,"ændre":7567,"letar":7568,"nødvendig":7569,"vante":7570,"engager":7571,"jonen":7572,"passe":7573,"mormor":7574,"aktiva":7575,"fond":7576,"sonder":7577,"enskilda":7578,"Fer":7579,"startet":7580,"uppleva":7581,"invi":7582,"Ton":7583,"vækst":7584,"ladd":7585,"jack":7586,"levde":7587,"svarer":7588,"Ord":7589,"ppade":7590,"major":7591,"kursen":7592,"yng":7593,"smø":7594,"terror":7595,"utrymme":7596,"ono":7597,"arie":7598,"levitra":7599,"uppen":7600,"orsak":7601,"hjerte":7602,"avfall":7603,"framgang":7604,"Program":7605,"slu":7606,"barna":7607,"opgave":7608,"arbetat":7609,"forran":7610,"kine":7611,"andes":7612,"varian":7613,"garanter":7614,"utbildningen":7615,"udgifter":7616,"bebo":7617,"Nogle":7618,"tilgjengel":7619,"TR":7620,"allmanna":7621,"inlagget":7622,"zon":7623,"skede":7624,"skyld":7625,"egnet":7626,"venter":7627,"Lou":7628,"loven":7629,"hjartat":7630,"narvarande":7631,"pagar":7632,",-":7633,"insatser":7634,"arv":7635,"brett":7636,"Lam":7637,"formed":7638,"Siden":7639,"illar":7640,"dagog":7641,"ssar":7642,"syste":7643,"teen":7644,"terad":7645,"Freder":7646,"legget":7647,"centrala":7648,"bestamde":7649,"sperson":7650,"familje":7651,"slen":7652,"happ":7653,"navnet":7654,"kritik":7655,"Samman":7656,"Information":7657,"videoer":7658,"Svart":7659,"ano":7660,"nene":7661,"kontakte":7662,"snyggt":7663,"markeds":7664,"Totalt":7665,"2001":7666,"mur":7667,"Sadan":7668,"varv":7669,"Nov":7670,"58":7671,"Center":7672,"deltagare":7673,"kollade":7674,"webbplatsen":7675,"syr":7676,"bokstav":7677,"haber":7678,"oerhort":7679,"kulture":7680,"gjord":7681,"kjente":7682,"nodvandigt":7683,"begyndte":7684,"grejer":7685,"pler":7686,"ging":7687,"senter":7688,"amerikanske":7689,"økonomisk":7690,"entlig":7691,"Vax":7692,"2002":7693,"Hva":7694,"analyser":7695,"Jul":7696,"120":7697,"advok":7698,"manden":7699,"tvær":7700,"spring":7701,"involver":7702,"maler":7703,"desuden":7704,"mp":7705,"vekt":7706,"framgangs":7707,"kontoret":7708,"karl":7709,"felles":7710,"ilt":7711,"trans":7712,"særlige":7713,"hjelpe":7714,"Ali":7715,"felt":7716,"siffr":7717,"sexuella":7718,"ansett":7719,"villa":7720,"rollen":7721,"lekar":7722,"gis":7723,"forutsattning":7724,"Sing":7725,"Andreas":7726,"minim":7727,"lagom":7728,"overenskom":7729,"liggande":7730,"urat":7731,"øye":7732,"bekraft":7733,"tjeneste":7734,"muskel":7735,"52":7736,"Dy":7737,"Poli":7738,"behøver":7739,"slappa":7740,"butikker":7741,"manaden":7742,"farligt":7743,"ansvarig":7744,"minut":7745,"mier":7746,"avslo":7747,"fej":7748,"konomi":7749,"mart":7750,"Post":7751,"tilgæn":7752,"Storbritann":7753,"Bod":7754,"Frankrike":7755,"isar":7756,"leta":7757,"internasjon":7758,"fragar":7759,"tjanste":7760,"Aarhus":7761,"kabel":7762,"Stad":7763,"klassisk":7764,"\":":7765,"metall":7766,"professor":7767,"draget":7768,"henhold":7769,"smin":7770,"qvist":7771,"gyn":7772,"drene":7773,"stein":7774,"exklu":7775,"nesten":7776,"terier":7777,"gram":7778,"funnits":7779,"grundlag":7780,"lankar":7781,"tillfallen":7782,"kanal":7783,"tjansten":7784,"liter":7785,"vagg":7786,"dildo":7787,"levering":7788,"initiativ":7789,"flashback":7790,"forfattare":7791,"konven":7792,"uanset":7793,"frakt":7794,"CK":7795,"yssland":7796,"terape":7797,"Tex":7798,"Medlem":7799,"black":7800,"osa":7801,"oppnar":7802,"tors":7803,"trapp":7804,"værd":7805,"ovre":7806,"udtryk":7807,"Bud":7808,"Nasta":7809,"bostader":7810,"pens":7811,"radda":7812,"68":7813,"vintern":7814,"namnden":7815,"zza":7816,"kiat":7817,"von":7818,"ringde":7819,"Imorgon":7820,"Fli":7821,"inkop":7822,"elserne":7823,"fodels":7824,"akut":7825,"danmark":7826,"HA":7827,"myndighet":7828,"hug":7829,"tidens":7830,"glade":7831,"tidningen":7832,"kostnads":7833,"dimen":7834,"texten":7835,"onom":7836,"Ater":7837,"intresserade":7838,"liggende":7839,"single":7840,"Anne":7841,"startar":7842,"sakerhets":7843,"livsmedel":7844,"girl":7845,"that":7846,"partier":7847,"svin":7848,"frasch":7849,"ledar":7850,"rekord":7851,"ein":7852,"varsta":7853,"Daremot":7854,"udvikle":7855,"brød":7856,"færd":7857,"Gay":7858,"anmark":7859,"erhvervs":7860,"anmalan":7861,"flu":7862,"Ku":7863,"framtida":7864,"parla":7865,"eventuella":7866,"tradgard":7867,"77":7868,".....":7869,"skickar":7870,"nivaer":7871,"Dire":7872,"kraftigt":7873,"undantag":7874,"dersom":7875,"Bre":7876,"veget":7877,"Swed":7878,"opr":7879,"jente":7880,"filer":7881,"nagonstans":7882,"varav":7883,"ansvarlig":7884,"lit":7885,"privata":7886,"Fo":7887,"nare":7888,"atiske":7889,"uppmarksam":7890,"haven":7891,"drikke":7892,"positiva":7893,"enormt":7894,"ney":7895,"valkommen":7896,"nyhets":7897,"valda":7898,"løbende":7899,"forhandling":7900,"forandra":7901,"anvendelse":7902,"dop":7903,"utredning":7904,"kollektiv":7905,"serio":7906,"leverans":7907,"omfang":7908,"Afri":7909,"Grupp":7910,";-":7911,"anvant":7912,"følelse":7913,"standen":7914,"ware":7915,"tillvaxt":7916,"bjor":7917,"Speci":7918,"Sør":7919,"Data":7920,"allergi":7921,"mol":7922,"mogen":7923,"dobb":7924,"own":7925,"pir":7926,"war":7927,"nyde":7928,"maskinen":7929,"ratter":7930,"børnene":7931,"skulder":7932,"ila":7933,"GR":7934,"Michael":7935,"scenen":7936,"somn":7937,"gull":7938,"ture":7939,"foreningens":7940,"utstyr":7941,"polis":7942,"hittills":7943,"Inga":7944,"lasare":7945,"stalls":7946,"kompisar":7947,"Proble":7948,"hanga":7949,"umer":7950,"ktivet":7951,"arbeten":7952,"ktar":7953,"forhind":7954,"tokoll":7955,"betrakt":7956,"Ki":7957,"lamnas":7958,"Cat":7959,"desværre":7960,"anten":7961,"sia":7962,"valj":7963,"EF":7964,"ønsket":7965,"jylland":7966,"tænker":7967,"dram":7968,"bildning":7969,"faglige":7970,"undersøgelse":7971,"Tar":7972,"fiber":7973,"minskar":7974,"hanger":7975,"rov":7976,"mulighet":7977,"oten":7978,"anska":7979,"landa":7980,"sklu":7981,"skrav":7982,"kull":7983,"certifi":7984,"tycka":7985,"bevil":7986,"forsikring":7987,"rora":7988,"foredrag":7989,"forskell":7990,"apo":7991,"py":7992,"erfaringer":7993,"DK":7994,"sprojekt":7995,"hyres":7996,"nojda":7997,"sess":7998,"Rapp":7999,"spins":8000,"avancer":8001,"frek":8002,"800":8003,"Jack":8004,"jning":8005,"Pol":8006,"Ken":8007,"Hell":8008,"mall":8009,"tilfø":8010,"verksamheter":8011,"protein":8012,"karaktar":8013,"from":8014,"nødvendigt":8015,"nio":8016,"posten":8017,"skickas":8018,"vejledning":8019,"klassiska":8020,"retter":8021,"eftermiddag":8022,"gill":8023,"ugan":8024,"Park":8025,"snor":8026,"play":8027,"vite":8028,"omfatter":8029,"has":8030,"LED":8031,"tillam":8032,"politiet":8033,"bredt":8034,"tilgang":8035,"runda":8036,"nyckel":8037,"sikrer":8038,"siska":8039,"motion":8040,"Noen":8041,"Sun":8042,"planet":8043,"bjod":8044,"langst":8045,"Arti":8046,"kakor":8047,"skarm":8048,"fos":8049,"SB":8050,"genomfora":8051,"ics":8052,"uto":8053,"simpelt":8054,"plocka":8055,"handlade":8056,"Skriv":8057,"Dis":8058,"Johansson":8059,"!!!!":8060,"gæld":8061,"halften":8062,"smiljø":8063,"hehe":8064,"knappa":8065,"Web":8066,"Magnus":8067,"inled":8068,"strang":8069,"hastighet":8070,"isjon":8071,"seson":8072,"økt":8073,"tapet":8074,"konstant":8075,"mission":8076,"hvid":8077,"finan":8078,"finalen":8079,"Stra":8080,"Matt":8081,"overallt":8082,"sajter":8083,"beskæft":8084,"ckade":8085,"snu":8086,"fordelar":8087,"Jens":8088,"spelat":8089,"fotograf":8090,"98":8091,"invan":8092,"IR":8093,"akten":8094,"overtyg":8095,"asen":8096,"gs":8097,"hushall":8098,"nuværende":8099,"talen":8100,"https":8101,"langivare":8102,"presentation":8103,"Cre":8104,"Bad":8105,"TER":8106,"rena":8107,"framover":8108,"overfl":8109,"kvi":8110,"partementet":8111,"somraden":8112,"silver":8113,"lese":8114,"DF":8115,"leks":8116,"Ger":8117,"valu":8118,"fortælle":8119,"vandr":8120,"utionen":8121,"ped":8122,"Run":8123,"fasta":8124,"sprodukter":8125,"Skar":8126,"mund":8127,"brut":8128,"Organ":8129,"stallt":8130,"fjarde":8131,"core":8132,"utdanning":8133,"byder":8134,"peppar":8135,"sota":8136,"iness":8137,"musikk":8138,"iten":8139,"middel":8140,"handle":8141,"personalen":8142,"issa":8143,"vaxa":8144,"atmos":8145,"Saker":8146,"bredvid":8147,"potatis":8148,"garn":8149,"dustri":8150,"Start":8151,"down":8152,"entet":8153,"penger":8154,"Helsingborg":8155,"lingar":8156,"mani":8157,"arch":8158,"hyra":8159,"inci":8160,"nationella":8161,"frække":8162,"stot":8163,"stens":8164,"trods":8165,"oppe":8166,"digitala":8167,"leverantorer":8168,"Big":8169,"tab":8170,"tillfallet":8171,"naturliga":8172,"vente":8173,"hænger":8174,"ftar":8175,"Jar":8176,"tea":8177,"hinna":8178,"befolkning":8179,"open":8180,"baseret":8181,"efterfølgende":8182,"forstor":8183,"klapp":8184,"Bag":8185,"horde":8186,"ION":8187,"alu":8188,"Cla":8189,"cens":8190,"stjarnor":8191,"Emma":8192,"block":8193,"54":8194,"vete":8195,"Eva":8196,"Mc":8197,"duktig":8198,"Oden":8199,"now":8200,"Cen":8201,"praktik":8202,"dommer":8203,"andam":8204,"badrum":8205,"sendes":8206,"Live":8207,"strin":8208,"indsats":8209,"restauranger":8210,"huske":8211,"behalla":8212,"militar":8213,"Pla":8214,"sjukhus":8215,"baten":8216,"UD":8217,"raknas":8218,"boliger":8219,"kontant":8220,"stolen":8221,"saa":8222,"bringe":8223,"ynt":8224,"dei":8225,"nakna":8226,"denafil":8227,"computer":8228,"betalas":8229,"søndag":8230,"Lever":8231,"øjer":8232,"78":8233,"foreslar":8234,"Blev":8235,"bell":8236,"utomhus":8237,"sekund":8238,"belysning":8239,"witter":8240,"sove":8241,"happy":8242,"51":8243,"Kristian":8244,"anslutning":8245,"Stefan":8246,"Windows":8247,"Pet":8248,"forn":8249,"olje":8250,"Fore":8251,"Maste":8252,"kontinuer":8253,"tempo":8254,"henven":8255,"sic":8256,"halsen":8257,"forklara":8258,"grepp":8259,"tus":8260,"vanza":8261,"paa":8262,"cro":8263,"Erotisk":8264,"kollega":8265,"Soker":8266,"eksisterende":8267,"Flere":8268,"Hver":8269,"ytan":8270,"inredning":8271,"….":8272,"bitar":8273,"højde":8274,"legen":8275,"øvrigt":8276,"latar":8277,"sites":8278,"iki":8279,"rekry":8280,"islam":8281,"driva":8282,"forskare":8283,"ummer":8284,"selskab":8285,"standet":8286,"investering":8287,"Antal":8288,"entrepren":8289,"tillbehor":8290,"oth":8291,"fortsat":8292,"ssons":8293,"tert":8294,"Design":8295,"kot":8296,"toal":8297,"fattig":8298,"kelse":8299,"love":8300,"ært":8301,"skinn":8302,"grej":8303,"bestamma":8304,"dominer":8305,"lokalt":8306,"vanligtvis":8307,"lings":8308,"Precis":8309,"lørdag":8310,"uly":8311,"Varm":8312,"Thor":8313,"vurdere":8314,"ands":8315,"abne":8316,"gom":8317,"rørende":8318,"frit":8319,",,":8320,"forelig":8321,"mix":8322,"uppna":8323,"refer":8324,"marknadsforing":8325,"esel":8326,"fritids":8327,"fjor":8328,"informer":8329,"Vilka":8330,"more":8331,"forbrug":8332,"bestammer":8333,"Ran":8334,"kendelse":8335,"listen":8336,"undga":8337,"handelser":8338,"utfora":8339,"gjøres":8340,"distrikt":8341,"fornu":8342,"juter":8343,"materialet":8344,"sun":8345,"fuck":8346,"heta":8347,"Rikt":8348,"balans":8349,"Sok":8350,"ennende":8351,"Peder":8352,"53":8353,"umiddel":8354,"Europe":8355,"demokraterna":8356,"Micro":8357,"elset":8358,"beløb":8359,"Hansen":8360,"Gavle":8361,"benen":8362,"KL":8363,"savgift":8364,"holdelse":8365,"unnit":8366,"byxor":8367,"samverkan":8368,"Dagen":8369,"coach":8370,"nødt":8371,"betrag":8372,"Sv":8373,"bryt":8374,"plant":8375,"kameran":8376,"2019":8377,"urval":8378,"Vast":8379,"girls":8380,"Posted":8381,"leverantor":8382,"stren":8383,"hente":8384,"sakal":8385,"vagn":8386,"skydda":8387,"foregaende":8388,"youtube":8389,"?)":8390,"rida":8391,"trafi":8392,"handlingen":8393,"Darefter":8394,"paverkan":8395,"ole":8396,"utera":8397,"Tit":8398,"frastruktur":8399,"forhoppningsvis":8400,"Aug":8401,"alltfor":8402,"betes":8403,"flyttade":8404,"undervisningen":8405,"Mann":8406,"hverdag":8407,"andinavi":8408,"Cor":8409,"Derudover":8410,"utbildningar":8411,"kontrol":8412,"forbruk":8413,"upplever":8414,"fira":8415,"intakter":8416,"mobler":8417,"sarskilda":8418,"flertal":8419,"belon":8420,"pct":8421,"nytte":8422,"minsta":8423,"Malet":8424,"omkost":8425,"Tube":8426,"areal":8427,"arlig":8428,"ringar":8429,"rump":8430,"mai":8431,"bespar":8432,"konferen":8433,"vning":8434,"habili":8435,"__":8436,"Island":8437,"Israel":8438,"hørt":8439,"pask":8440,"fantastiske":8441,"borgere":8442,"gardar":8443,"feb":8444,"gien":8445,"inre":8446,"vies":8447,"juri":8448,"rup":8449,"oxa":8450,"moms":8451,"papp":8452,"prag":8453,"jæ":8454,"eksper":8455,"forpack":8456,"marts":8457,"foregar":8458,"gældende":8459,"exa":8460,"trygghet":8461,"eldre":8462,"produktionen":8463,"lita":8464,"funderar":8465,"københavn":8466,"delas":8467,"yp":8468,"mio":8469,"behandlas":8470,"naring":8471,"Arki":8472,"servera":8473,"koster":8474,"gemensamt":8475,"FC":8476,"dygt":8477,"eledes":8478,"Perfekt":8479,"agna":8480,"Gir":8481,"Alltsa":8482,"parter":8483,"imellem":8484,"sval":8485,"reise":8486,"eftermiddagen":8487,"Figur":8488,"Bur":8489,"Spanien":8490,"pædagog":8491,"perioder":8492,"falla":8493,"hypotek":8494,"tve":8495,"smat":8496,"fale":8497,"voksen":8498,"frig":8499,"Riks":8500,"TA":8501,"Apple":8502,"Oavsett":8503,"tret":8504,"ærer":8505,"Sweden":8506,"direktør":8507,"angaende":8508,"knad":8509,"psykisk":8510,"Damer":8511,"forpligt":8512,"kjærlighet":8513,"virksomheden":8514,"Samt":8515,"syntes":8516,"kyck":8517,"allmant":8518,"agera":8519,"new":8520,"museum":8521,"dikt":8522,"kapitel":8523,"ower":8524,"wood":8525,"tomt":8526,"livsstil":8527,"forvaltningen":8528,"bjuda":8529,"imple":8530,"Jensen":8531,"Bak":8532,"opfyl":8533,"anlaggning":8534,"Brun":8535,"Mogna":8536,"ktu":8537,"sele":8538,"fodelsedag":8539,"iPhone":8540,"Bas":8541,"flexi":8542,"verkligheten":8543,"batter":8544,"col":8545,"kelser":8546,"Team":8547,"asjons":8548,"usjon":8549,"Inom":8550,"signal":8551,"Len":8552,"prosjektet":8553,"fjern":8554,"Bj":8555,"Tycker":8556,"smut":8557,"front":8558,"LA":8559,"angar":8560,"dyb":8561,"skue":8562,"fedt":8563,"massasje":8564,"verkade":8565,"maxi":8566,"foretagen":8567,"samle":8568,"automatiskt":8569,"Dog":8570,"ryck":8571,"jes":8572,"72":8573,"ressour":8574,"original":8575,"cerad":8576,"mysig":8577,"foll":8578,"pakke":8579,"aktorer":8580,"kets":8581,"kvad":8582,"kropps":8583,"flytande":8584,"abonne":8585,"lavere":8586,"roller":8587,"nævnte":8588,"avgorande":8589,"erende":8590,"EA":8591,"imor":8592,"fargen":8593,"byggt":8594,"forsvinner":8595,"element":8596,"aktig":8597,"ordna":8598,"forklaring":8599,"saknas":8600,"langtar":8601,"IB":8602,"tavlingen":8603,"genomsnitt":8604,"oplever":8605,"søgning":8606,"Forsa":8607,"træn":8608,"pasi":8609,"Ref":8610,"cat":8611,"foræl":8612,"løber":8613,"forsor":8614,"1800":8615,"oplevelser":8616,"Resultatet":8617,"festivalen":8618,"samla":8619,"skvall":8620,"Mac":8621,"light":8622,"geligt":8623,"debatten":8624,"NT":8625,"kæreste":8626,"Publi":8627,"høyere":8628,"stoff":8629,"lagar":8630,"hypotekslan":8631,"sexleksaker":8632,"produkten":8633,"Ryssland":8634,"digare":8635,"terings":8636,"lagenheten":8637,"skolans":8638,"favori":8639,"skug":8640,"traffat":8641,"engagemang":8642,"garan":8643,"føde":8644,"vidst":8645,"slike":8646,"Nyheter":8647,"satsa":8648,"visu":8649,"lip":8650,"Ke":8651,"SU":8652,"tiltak":8653,"teori":8654,"kallad":8655,"stider":8656,"national":8657,"gjorda":8658,"ose":8659,"dyre":8660,"uppfolj":8661,"Mamma":8662,"njut":8663,"ansiktet":8664,"Real":8665,"Kata":8666,"edi":8667,"smæssige":8668,"sokande":8669,"dras":8670,"noga":8671,"stilles":8672,"plet":8673,"Lid":8674,"skerne":8675,"højre":8676,"OV":8677,"holdsvis":8678,"sikkerhet":8679,"annons":8680,"fasc":8681,"narmaste":8682,"Skon":8683,"yo":8684,"aldern":8685,"byer":8686,"Plus":8687,"smiljo":8688,"likevel":8689,"avlon":8690,"kræft":8691,"Off":8692,"lyse":8693,"flest":8694,"snall":8695,"barnets":8696,"inkl":8697,"Jaco":8698,"armen":8699,"beskyttelse":8700,"Lov":8701,"emellan":8702,"essant":8703,"vitamin":8704,"Ifølge":8705,"triv":8706,"teringen":8707,"forvand":8708,"vibr":8709,"træk":8710,"diskussion":8711,"specifi":8712,"herr":8713,"vinster":8714,"Ror":8715,"skala":8716,"isme":8717,"index":8718,"transporter":8719,"Ret":8720,"givelser":8721,"meld":8722,"fyllt":8723,"enlighet":8724,"assist":8725,"læser":8726,"bett":8727,"kompetanse":8728,"tvang":8729,"dyrt":8730,"verkliga":8731,"tisdag":8732,"wh":8733,"tolv":8734,"nærings":8735,"kka":8736,"vejr":8737,"allting":8738,"lykke":8739,"spare":8740,"faktur":8741,"spital":8742,"givande":8743,"Ratt":8744,"udel":8745,"erin":8746,"miljarder":8747,"Djur":8748,"kunnskap":8749,"sloven":8750,"anbefaler":8751,"sjekter":8752,"forebygg":8753,"BB":8754,"fundera":8755,"ørne":8756,"diskutera":8757,"Gri":8758,"62":8759,"vardet":8760,"ktivt":8761,"framsta":8762,"final":8763,"utseende":8764,"springer":8765,"anslut":8766,"netværk":8767,"terapi":8768,"handels":8769,"beslutet":8770,"standig":8771,"nie":8772,"Kval":8773,"plud":8774,"hydr":8775,"cor":8776,"tranar":8777,"jade":8778,"tillamp":8779,"kru":8780,"morse":8781,"forskel":8782,"PP":8783,"tilsyn":8784,"kob":8785,"levere":8786,"body":8787,"Lor":8788,"flick":8789,"pes":8790,"fornuft":8791,"filter":8792,"nødvendige":8793,"visnings":8794,"adresse":8795,"biblioteket":8796,"onskemal":8797,"forret":8798,"arligt":8799,"reserv":8800,"Blog":8801,"gennemsnit":8802,"vantat":8803,"konser":8804,"mental":8805,"katastro":8806,"ryd":8807,"nøg":8808,"komsten":8809,"Sammen":8810,"basert":8811,"reager":8812,"ji":8813,"suger":8814,"spennende":8815,"Fro":8816,"spred":8817,"deltar":8818,"SC":8819,"Maske":8820,"ældende":8821,"deri":8822,"works":8823,"Sjo":8824,"avser":8825,"kryss":8826,"onde":8827,"cering":8828,"kvinne":8829,"smyndig":8830,"utenfor":8831,"mata":8832,"enkl":8833,"mv":8834,"Beslut":8835,"lei":8836,"Mun":8837,"feber":8838,"stemme":8839,"erotiska":8840,"primær":8841,"63":8842,"fann":8843,"turist":8844,"ifall":8845,"løst":8846,"Spa":8847,"specielt":8848,"ligheder":8849,"analyse":8850,"melsen":8851,"tyska":8852,"direktor":8853,"Xxx":8854,"Mika":8855,"foreningar":8856,"kin":8857,"stallde":8858,"Kontakta":8859,"71":8860,"ners":8861,"ringe":8862,"tjock":8863,"iget":8864,"Kim":8865,"Flera":8866,"tacker":8867,"mende":8868,"laten":8869,"traffas":8870,"antallet":8871,"anbefale":8872,"hverandre":8873,"Tillsammans":8874,"loppet":8875,"kosten":8876,"offentliga":8877,"regnskab":8878,"diam":8879,"Glo":8880,"regnet":8881,"dommen":8882,"biljetter":8883,"pizza":8884,"Bran":8885,"ophold":8886,"ags":8887,"lyft":8888,"upptacka":8889,"sproble":8890,"Kost":8891,"opdater":8892,"nyss":8893,"parten":8894,"smyck":8895,"funktionen":8896,"skram":8897,"specifik":8898,"værker":8899,"eventuellt":8900,"søke":8901,"trevliga":8902,"sommeren":8903,"Full":8904,"noll":8905,"Mark":8906,"vivanza":8907,"raka":8908,"asikter":8909,"kanaler":8910,"lagenheter":8911,"pod":8912,"Skog":8913,"aver":8914,"framgar":8915,"forsokt":8916,"evne":8917,"bron":8918,"berom":8919,"erhverv":8920,"omfattar":8921,"GB":8922,"Thailand":8923,"halva":8924,"nærmest":8925,"nast":8926,"fjell":8927,"bære":8928,"amnet":8929,"mats":8930,"insats":8931,"ansvarar":8932,"bestaende":8933,"festen":8934,"kyrka":8935,"kannas":8936,"uri":8937,"gning":8938,"skiljer":8939,"kone":8940,"tive":8941,"Bry":8942,"tapp":8943,"Ron":8944,"skona":8945,"sexy":8946,"NE":8947,"elen":8948,"hunde":8949,"terede":8950,"kers":8951,"tillagg":8952,"Extra":8953,"Fem":8954,"funnet":8955,"svarare":8956,"sly":8957,"gransen":8958,"Ax":8959,"føle":8960,"ugen":8961,"process":8962,"skorter":8963,"Bergen":8964,"punkten":8965,"lyssnar":8966,"seng":8967,"konkurran":8968,"»,":8969,"utslapp":8970,"fili":8971,"herre":8972,"hyggelig":8973,"ffet":8974,"zo":8975,"syssel":8976,"orsa":8977,"forlang":8978,"hd":8979,"mærker":8980,",\"":8981,"afton":8982,"stater":8983,"Søren":8984,"cas":8985,"gummi":8986,"tilsvarende":8987,"gardin":8988,"lask":8989,"interessant":8990,"formag":8991,"snur":8992,"overvag":8993,"fantasi":8994,"baserad":8995,"check":8996,"trække":8997,"spraket":8998,"harda":8999,"stationen":9000,"skivor":9001,"mulige":9002,"splanen":9003,"onerna":9004,"Wil":9005,"tiv":9006,"sinne":9007,"indik":9008,"gjordes":9009,"regj":9010,"vinkel":9011,"tjen":9012,"Kanns":9013,"big":9014,"ane":9015,"arbejdsplad":9016,"forts":9017,"Bild":9018,"schef":9019,"lagstift":9020,"tyske":9021,"logi":9022,"forsakrings":9023,"damm":9024,"erotik":9025,"sodra":9026,"alli":9027,"Snart":9028,"ingsdag":9029,"pengene":9030,"snakke":9031,"79":9032,"nyfiken":9033,"World":9034,"kontrollera":9035,"etisk":9036,"delingen":9037,"brugere":9038,"sentr":9039,"1990":9040,"fremgar":9041,"steget":9042,"MEN":9043,"fransk":9044,"medie":9045,"TIL":9046,"plar":9047,"samhalls":9048,"stationer":9049,"forteller":9050,"psykolog":9051,"One":9052,"poster":9053,"Tak":9054,"byggd":9055,"Rasmus":9056,"alafil":9057,"sjukdomar":9058,"rejalt":9059,"valkomna":9060,"bestallning":9061,"relevante":9062,"president":9063,"vaxter":9064,"bero":9065,"spre":9066,"telefonnummer":9067,"overva":9068,"pning":9069,"mader":9070,"cus":9071,"lækre":9072,"sidorna":9073,"Nett":9074,"instrument":9075,"point":9076,"institutioner":9077,"sjuka":9078,"gelse":9079,"Telefon":9080,"Kjø":9081,"HL":9082,"leka":9083,"møter":9084,"arbeider":9085,"levende":9086,"Videos":9087,"skræ":9088,"rejser":9089,"blan":9090,"Pan":9091,"Nilsson":9092,"Gamla":9093,"totala":9094,"gymnasiet":9095,"Hvorfor":9096,"Kul":9097,"konver":9098,"amat":9099,"komfort":9100,"TT":9101,"høye":9102,"aktuelle":9103,"ighets":9104,"amerikansk":9105,"Eg":9106,"flicka":9107,"aktor":9108,"namnda":9109,"bollen":9110,"fatta":9111,"vaggen":9112,"opfatt":9113,"Rum":9114,"klini":9115,"kristna":9116,"klasser":9117,"iens":9118,"order":9119,"upplevelser":9120,"cool":9121,"stærkt":9122,"omedelbart":9123,"værks":9124,"beret":9125,"traningen":9126,"vinden":9127,"vans":9128,"forvir":9129,"yrke":9130,"cle":9131,";-)":9132,"forlag":9133,"bens":9134,"blandning":9135,"odi":9136,"mork":9137,"hull":9138,"karriar":9139,"texter":9140,"ersatt":9141,"ierna":9142,"oxid":9143,"byggnader":9144,"faktura":9145,"senest":9146,"minimum":9147,"sallad":9148,"kelsen":9149,"kad":9150,"smy":9151,"erbjudande":9152,"ligge":9153,"ugh":9154,"redovisning":9155,"biska":9156,"købt":9157,"emo":9158,"intill":9159,"deltog":9160,"forskott":9161,"apen":9162,"uttar":9163,"sannolikt":9164,"fremme":9165,"udviklet":9166,"1999":9167,"kasse":9168,"tantra":9169,"forbedre":9170,"anvende":9171,"vedrørende":9172,"kapacitet":9173,"almindelige":9174,"Veg":9175,"Bjorn":9176,"riska":9177,"klage":9178,"serligen":9179,"dyker":9180,"vacc":9181,"aktive":9182,"grønne":9183,"omstand":9184,"vedlige":9185,"kortare":9186,"uppmarksamhet":9187,"Klas":9188,"pus":9189,"forsen":9190,"departementet":9191,"Famil":9192,"Jør":9193,"ssystemet":9194,"Dersom":9195,"vanligaste":9196,"Spr":9197,"sovrum":9198,"lax":9199,"Husk":9200,"Arbej":9201,"tifik":9202,"revis":9203,"hemale":9204,"Lige":9205,"infrastruktur":9206,"stykker":9207,"skapat":9208,"givningen":9209,"produksjon":9210,"utvikle":9211,"lanser":9212,"Karin":9213,"baserat":9214,"runde":9215,"Odense":9216,"utmaningar":9217,"vigtigste":9218,"brann":9219,"urin":9220,"eleven":9221,"tagna":9222,"hip":9223,"formand":9224,"skjul":9225,"operation":9226,"plejer":9227,"falder":9228,"skottet":9229,"NY":9230,"tillat":9231,"omojligt":9232,"will":9233,"forbe":9234,"ekstre":9235,"61":9236,"institut":9237,"eksempelvis":9238,"dame":9239,"gler":9240,"Grøn":9241,"støv":9242,"beteende":9243,"forskjell":9244,"BA":9245,"fodbold":9246,"jung":9247,"anna":9248,"Victor":9249,"inslag":9250,"Stre":9251,"RK":9252,"entu":9253,"gifta":9254,"Gustav":9255,"melding":9256,"venlig":9257,"akkurat":9258,"baserade":9259,"innenfor":9260,"planering":9261,"Top":9262,"afslut":9263,"hemsidan":9264,"tain":9265,"dræ":9266,"liker":9267,"trycket":9268,"skiva":9269,"sjukvard":9270,"medal":9271,"bryta":9272,"seret":9273,"sarskild":9274,"Muse":9275,"skogs":9276,"dejligt":9277,"visningar":9278,"sidde":9279,"89":9280,"Stand":9281,"Inget":9282,"deltage":9283,"ingredienser":9284,"dorr":9285,"inser":9286,"fullmaktige":9287,"foremal":9288,"Master":9289,"grov":9290,"camping":9291,"ence":9292,"igheder":9293,"pigg":9294,"ressen":9295,"uppstar":9296,"elden":9297,"utomlands":9298,"Art":9299,"Næ":9300,"beveg":9301,"leverer":9302,"datab":9303,"presentera":9304,"porrfilmer":9305,"ryska":9306,"uke":9307,"værelser":9308,"fremtiden":9309,"ocken":9310,"Storbritannien":9311,"cerat":9312,"rubri":9313,"stemmer":9314,"Exempel":9315,"ledere":9316,"gangar":9317,"hul":9318,"perman":9319,"religion":9320,"fare":9321,"funk":9322,"utro":9323,"ekonomisk":9324,"Desuden":9325,"lie":9326,"cerede":9327,"sjø":9328,"Aalborg":9329,"udvalget":9330,"FR":9331,"ønskede":9332,"ekonomiskt":9333,"temperaturen":9334,"stugan":9335,"itets":9336,"noveller":9337,"DN":9338,"Find":9339,"betalningar":9340,"smartp":9341,"ofi":9342,"materialer":9343,"parad":9344,"flyttar":9345,"grens":9346,"Ole":9347,"harmon":9348,"Tron":9349,"unda":9350,"stalt":9351,"arenden":9352,"Mari":9353,"blogga":9354,"finans":9355,"beton":9356,"karn":9357,"Lille":9358,"visse":9359,"dot":9360,"antar":9361,"systemer":9362,"informationen":9363,"stel":9364,"trening":9365,"vardera":9366,"saf":9367,"Hard":9368,"angest":9369,"stue":9370,"Istallet":9371,"Vasteras":9372,"jobber":9373,"dryck":9374,"skriven":9375,"rende":9376,"øjne":9377,"affarer":9378,"aff":9379,"forholdet":9380,"munnen":9381,"Nielsen":9382,"Out":9383,"budsj":9384,"byggnaden":9385,"Strand":9386,"stream":9387,"meny":9388,"spin":9389,"ero":9390,"eier":9391,"Goteborgs":9392,"diskri":9393,"vade":9394,"Robert":9395,"udviklingen":9396,"sahar":9397,"fjerne":9398,"fylld":9399,"endte":9400,"city":9401,"ledam":9402,"ødel":9403,"udelu":9404,"endda":9405,"work":9406,"anne":9407,"kopings":9408,"Mol":9409,"forb":9410,"processer":9411,"tillverkar":9412,"vaska":9413,"kanter":9414,"swinger":9415,"bæk":9416,"tydliga":9417,"norra":9418,"doktor":9419,"EC":9420,"lægges":9421,"utvecklings":9422,"svam":9423,"Tal":9424,"Vastra":9425,"tron":9426,"jamfora":9427,"perfekte":9428,"frist":9429,"Mode":9430,"vark":9431,"gemensam":9432,"3D":9433,"fysiske":9434,"svard":9435,"klanning":9436,"tele":9437,"stannar":9438,"svenskar":9439,"okning":9440,"avloningsdag":9441,"utstra":9442,"kassa":9443,"avtalet":9444,"kilo":9445,"Først":9446,"stemning":9447,"dd":9448,"græ":9449,"andringar":9450,"Tem":9451,"arg":9452,"klokker":9453,"pagældende":9454,"staet":9455,"iør":9456,"Enda":9457,"doft":9458,"blikket":9459,"poeng":9460,"faglig":9461,"hedder":9462,"øget":9463,"allen":9464,"Konst":9465,"utvalg":9466,"obligator":9467,"lægning":9468,"konkrete":9469,"kik":9470,"Instagram":9471,"nogra":9472,"velge":9473,"begynte":9474,"narna":9475,"West":9476,"støtter":9477,"forsy":9478,"hab":9479,"utmaning":9480,"lone":9481,"tavla":9482,"stadens":9483,"Kram":9484,"tilstand":9485,"SVT":9486,"stycket":9487,"Webb":9488,"koden":9489,"Jacob":9490,"Petter":9491,"anderledes":9492,"missionen":9493,"rings":9494,"mkt":9495,"jattebra":9496,"beth":9497,"chefen":9498,"ovanligt":9499,"vidste":9500,"ortering":9501,"historisk":9502,"fredags":9503,"ventet":9504,"origin":9505,"allmanhet":9506,"faren":9507,"reflekter":9508,"Huv":9509,"massan":9510,"tycks":9511,"franska":9512,"halvt":9513,"TS":9514,"dalen":9515,"86":9516,"OCH":9517,"Motor":9518,"Lyck":9519,"utgifter":9520,"andamal":9521,"skabt":9522,"spelas":9523,"udfordringer":9524,"tydelig":9525,"billigare":9526,"trag":9527,"Vidare":9528,"Sl":9529,"innehallet":9530,"berattelse":9531,"savel":9532,"erbjuds":9533,"lyfta":9534,"vards":9535,"stuga":9536,"selskap":9537,"rask":9538,"bekant":9539,"bygninger":9540,"PL":9541,"Chat":9542,"kalas":9543,"mstad":9544,"Fag":9545,"yoga":9546,"kunstner":9547,"narmast":9548,"klager":9549,"ovningar":9550,"utbildnings":9551,"tir":9552,"Hjal":9553,"zy":9554,"kjenner":9555,"tungt":9556,"sakta":9557,"butikk":9558,"seksuelle":9559,"iler":9560,"turer":9561,"Privat":9562,"historiska":9563,"dobbelt":9564,"unikt":9565,"planerar":9566,"vern":9567,"nabo":9568,"kveld":9569,"gjorts":9570,"smuk":9571,"cake":9572,"kore":9573,"ætt":9574,"kens":9575,"knappast":9576,"plom":9577,"givaren":9578,"stack":9579,"visen":9580,"foljde":9581,"ditioner":9582,"avslapp":9583,"fars":9584,"hellre":9585,"oppdater":9586,"cal":9587,"agement":9588,"sve":9589,"kalender":9590,"Blom":9591,"stene":9592,"ally":9593,"prøvet":9594,"konsult":9595,"effekten":9596,"VI":9597,"vav":9598,"fattning":9599,"hvornar":9600,"lycka":9601,"losen":9602,"emær":9603,"loj":9604,"isin":9605,"RF":9606,"Hjem":9607,"add":9608,"CC":9609,"dokumentation":9610,"elly":9611,"dørs":9612,"vardagen":9613,"96":9614,"lill":9615,"udsigt":9616,"daglige":9617,"VAR":9618,"fur":9619,"Leg":9620,"tradgarden":9621,"gymnasie":9622,"tidige":9623,"sports":9624,"anpas":9625,"bøl":9626,"Spør":9627,"700":9628,"femte":9629,"skillnaden":9630,"etablering":9631,"trivs":9632,"storm":9633,"varianter":9634,"SMS":9635,"74":9636,"Rus":9637,"Frem":9638,"anpass":9639,"eksa":9640,"UM":9641,"intell":9642,"revi":9643,"ration":9644,"kollar":9645,"Kalmar":9646,"andelen":9647,"linjen":9648,"intressen":9649,"manskliga":9650,"benhav":9651,"rinn":9652,"Vatten":9653,"skæ":9654,"Mod":9655,"aterigen":9656,"presse":9657,"piller":9658,"alternativt":9659,"obje":9660,"doda":9661,"kostnaden":9662,"Redan":9663,"aktuell":9664,"minnen":9665,"eti":9666,"outfit":9667,"gritet":9668,"ingo":9669,"splatser":9670,"gripande":9671,"Simon":9672,"besøk":9673,"sildenafil":9674,"house":9675,"nivan":9676,"styring":9677,"slosa":9678,"Saf":9679,"feltet":9680,"landsk":9681,"trar":9682,"Sus":9683,"mæss":9684,"win":9685,"Milf":9686,"omfattende":9687,"destin":9688,"kvinnan":9689,"fastigheter":9690,"eventuelt":9691,"tjana":9692,"fisse":9693,"poker":9694,"maltid":9695,"traden":9696,"rekommendera":9697,"slippa":9698,"skiner":9699,"planera":9700,"76":9701,"Back":9702,"Typ":9703,"atti":9704,"Berlin":9705,"strategier":9706,"Syn":9707,"museet":9708,"resse":9709,"skommun":9710,"stensen":9711,"spej":9712,"pladsen":9713,"tillag":9714,"Hed":9715,"efterat":9716,"røde":9717,"løbe":9718,"Cham":9719,"borgar":9720,"Jørgen":9721,"Læ":9722,"Vikt":9723,"hvide":9724,"mage":9725,"konflikt":9726,"riktning":9727,"uc":9728,"sind":9729,"maden":9730,"artikeln":9731,"beslutning":9732,"brugte":9733,"gæster":9734,"Forsk":9735,"svarade":9736,"tekniker":9737,"fabrik":9738,"nick":9739,"betaler":9740,"Vand":9741,"Arhus":9742,"selskabet":9743,"ograf":9744,"depres":9745,"gront":9746,"lopande":9747,"Even":9748,":(":9749,"platta":9750,"skilde":9751,"gives":9752,"Skov":9753,"kvadrat":9754,"kelige":9755,"medveten":9756,"liber":9757,"slas":9758,"bestammelser":9759,"skurs":9760,"plugga":9761,"Try":9762,"%)":9763,"glæder":9764,"kjære":9765,"Nic":9766,"skape":9767,"human":9768,"avhengig":9769,"getøj":9770,"Trafik":9771,"arkiv":9772,"speciella":9773,"atom":9774,"stern":9775,"Ir":9776,"teckning":9777,"ativitet":9778,"handelse":9779,"koncept":9780,"elementer":9781,"byggda":9782,"drømme":9783,"lasning":9784,"stande":9785,"DA":9786,"tilstræ":9787,"Akti":9788,"idrett":9789,"jobbade":9790,"bakat":9791,"anlegg":9792,"mie":9793,"Linkoping":9794,"?\"":9795,"faci":9796,"Syftet":9797,"apr":9798,"sættelse":9799,"!\"":9800,"glomma":9801,".-":9802,"speciell":9803,"sinstitut":9804,"planter":9805,"grans":9806,"sambo":9807,"ston":9808,"besikt":9809,"passager":9810,"hamtade":9811,"døren":9812,"surf":9813,"gyl":9814,"blank":9815,"die":9816,"Radio":9817,"psykiat":9818,"Fisk":9819,"fagel":9820,"ingerne":9821,"lada":9822,"weekend":9823,"Hennes":9824,"hamnade":9825,"lid":9826,"progno":9827,"exem":9828,"73":9829,"begynner":9830,"lenger":9831,"arhund":9832,"Mats":9833,"specifika":9834,"profiler":9835,"vejs":9836,"rorelsen":9837,"1998":9838,"slok":9839,"enorm":9840,"følelser":9841,"ytor":9842,"fysiska":9843,"blin":9844,"Satt":9845,"fara":9846,"oritet":9847,"beskrivelse":9848,"Avs":9849,"Enkel":9850,"advokat":9851,"Rosen":9852,"komplett":9853,"Linda":9854,"bilag":9855,",”":9856,"ferd":9857,"umgas":9858,"kreditkort":9859,"Mit":9860,"applik":9861,"base":9862,"forretning":9863,"----":9864,"asyl":9865,"andas":9866,"rats":9867,"fortalte":9868,"landske":9869,"faltet":9870,"uu":9871,"billedet":9872,"demonstr":9873,"ague":9874,"farlig":9875,"tilgjengelig":9876,"manniskan":9877,"verklighet":9878,"medi":9879,"grunder":9880,"evenemang":9881,"Wal":9882,"ansok":9883,"hjemmet":9884,"premiar":9885,"korn":9886,"traditionella":9887,"stoppa":9888,"manglende":9889,"segl":9890,"''":9891,"tidning":9892,"Fon":9893,"Tjan":9894,"Microsoft":9895,"himlen":9896,"koppla":9897,"urgi":9898,"orget":9899,"Camp":9900,"virksomhet":9901,"FA":9902,"Eng":9903,"forfatter":9904,"uppfattning":9905,"kit":9906,"enheten":9907,"Høj":9908,"laddning":9909,"deltager":9910,"ng":9911,"eventuell":9912,"bh":9913,"Øst":9914,"smule":9915,"tagning":9916,"legat":9917,"afgørende":9918,"utgar":9919,"afsnit":9920,"styra":9921,"umiddelbart":9922,"uth":9923,"haver":9924,"trakt":9925,"plu":9926,"patienten":9927,"Los":9928,"Dra":9929,"mmer":9930,"slit":9931,"very":9932,"anstallning":9933,"load":9934,"Industri":9935,"rehabili":9936,"videok":9937,"email":9938,"Føl":9939,"fragas":9940,"argument":9941,"oprinde":9942,"gronsaker":9943,"glomt":9944,"vendt":9945,"affars":9946,"recensioner":9947,"pressen":9948,"Olof":9949,"gje":9950,"tekniske":9951,"Lig":9952,"assi":9953,"drommar":9954,"darifran":9955,"sørge":9956,"spiser":9957,"bryr":9958,"hverken":9959,"come":9960,"graviditet":9961,"Holm":9962,"behør":9963,"Let":9964,"lipp":9965,"jagt":9966,"Gjen":9967,"konstruktion":9968,"virus":9969,"Studen":9970,"kung":9971,"farten":9972,"1900":9973,"maling":9974,"Køb":9975,"negativt":9976,"oft":9977,"kannande":9978,"berattelser":9979,"cerade":9980,"straks":9981,"delarna":9982,"diskret":9983,"talje":9984,"effektivitet":9985,"fonder":9986,"troligen":9987,"fasciner":9988,"besoker":9989,"Brand":9990,"escorts":9991,"solgt":9992,"Rik":9993,"atgard":9994,"medlemskap":9995,"paga":9996,"skjed":9997,"tadalafil":9998,"dede":9999,"galla":10000,"\u0000\u0000\u0000\u0000":10001,"ømt":10002,"æld":10003,"92":10004,"berget":10005,"svær":10006,"zi":10007,"VA":10008,"holmen":10009,"grønt":10010,"pladser":10011,"lanken":10012,"separat":10013,"sprut":10014,"anord":10015,"prosjekter":10016,"ligeledes":10017,"Green":10018,"hap":10019,"Austral":10020,"nik":10021,"Transport":10022,"INTE":10023,"frustr":10024,"minium":10025,"stallda":10026,"togs":10027,"registrera":10028,"naturlige":10029,"igare":10030,"stannade":10031,"BL":10032,"artikler":10033,"velat":10034,"NU":10035,"utstallning":10036,"pludselig":10037,"julen":10038,"kandidat":10039,"Jonkoping":10040,"Aft":10041,"installation":10042,"rona":10043,"stekni":10044,"sprocessen":10045,"Forra":10046,"Lot":10047,"elef":10048,"regne":10049,"forstod":10050,"Arbets":10051,"paus":10052,"Miljø":10053,"rien":10054,"planerat":10055,"kyckling":10056,"siffror":10057,"Fler":10058,"bage":10059,"foton":10060,"læst":10061,"file":10062,"startede":10063,"varda":10064,"zen":10065,"Elin":10066,"Utover":10067,"formar":10068,"ase":10069,"primært":10070,"alistisk":10071,"antagligen":10072,"hyl":10073,"fyllda":10074,"Lill":10075,"etik":10076,"svenskt":10077,"rakning":10078,"overord":10079,"publiken":10080,"tavlingar":10081,"Kas":10082,"præcis":10083,"komster":10084,"arden":10085,"trist":10086,"mog":10087,"lere":10088,"kterna":10089,"knullar":10090,"BE":10091,"Bat":10092,"skatter":10093,"dagligen":10094,"immun":10095,"Sov":10096,"datorer":10097,"inspe":10098,"udgør":10099,"ariga":10100,"Boken":10101,"eriet":10102,"Mang":10103,"auf":10104,"Mig":10105,"tranare":10106,"aspek":10107,"pulver":10108,"starkare":10109,"jamforelse":10110,"Mobil":10111,"avgjør":10112,"personale":10113,"synner":10114,"Has":10115,"fyn":10116,"Kanner":10117,"invanare":10118,"spis":10119,"skoj":10120,"rulle":10121,"fortjan":10122,"førelse":10123,"83":10124,"dækker":10125,"kreter":10126,"skema":10127,"illiam":10128,"bords":10129,"97":10130,"aringar":10131,"eventuelle":10132,"digitale":10133,"krets":10134,"postadress":10135,"jent":10136,"bevidst":10137,"kriterier":10138,"fruktansvar":10139,"landerna":10140,"afdeling":10141,"oberoende":10142,"days":10143,"moment":10144,"Eric":10145,"kud":10146,"kritisk":10147,"færre":10148,"hite":10149,"bling":10150,"Norden":10151,"ugnen":10152,"fartyg":10153,"umu":10154,"marks":10155,"Varl":10156,"reglerna":10157,"krafter":10158,"fonden":10159,"Emil":10160,"slyck":10161,"Sjalvklart":10162,"riktlinjer":10163,"Liv":10164,"mærket":10165,"skabel":10166,"slinjer":10167,"uppgifterna":10168,"Twitter":10169,"butikken":10170,"klatt":10171,"udi":10172,"kommersi":10173,"setning":10174,"War":10175,"utvecklar":10176,"Naken":10177,"ændret":10178,"Sve":10179,"semi":10180,"bøker":10181,"egendom":10182,"fleksi":10183,"frugt":10184,"dic":10185,"pann":10186,"restaurant":10187,"nelse":10188,"OBS":10189,"ledde":10190,"forsamlingen":10191,"nyhet":10192,"irt":10193,"installning":10194,"insag":10195,"sammenhæng":10196,"intern":10197,"ATT":10198,"fragorna":10199,"non":10200,"effektiva":10201,"heldigvis":10202,"inflam":10203,"samtale":10204,"afri":10205,"vedkommende":10206,"Trad":10207,"91":10208,"ison":10209,"gg":10210,"tillater":10211,"lis":10212,"Rock":10213,"ovning":10214,"��":10215,"høyt":10216,"begransad":10217,"benyttes":10218,"mentera":10219,"dygnet":10220,"tenke":10221,"Andersen":10222,"etiska":10223,"lycklig":10224,"basis":10225,"slivet":10226,"Grun":10227,"anvandar":10228,"delade":10229,"versionen":10230,"inomhus":10231,"Registr":10232,"dejlige":10233,"Lena":10234,"kej":10235,"nisk":10236,"Ytter":10237,"Forfatt":10238,"stada":10239,"UC":10240,"bestemte":10241,"tilpas":10242,"publikum":10243,"regelbundet":10244,"hantverk":10245,"].":10246,"avses":10247,"vardenafil":10248,"parall":10249,"lf":10250,"fonstret":10251,"radgiver":10252,"Spi":10253,"funksjon":10254,"koordin":10255,"andan":10256,"negativ":10257,"slapper":10258,"nys":10259,"individ":10260,"frokost":10261,"Jose":10262,"kollegor":10263,"storlekar":10264,"melige":10265,"had":10266,"undersoka":10267,"bistand":10268,"Samma":10269,"sajten":10270,"82":10271,"simpelthen":10272,"m2":10273,"arkitektur":10274,"ketter":10275,"kanon":10276,"?”":10277,"bygd":10278,"utlaning":10279,"ryt":10280,"Mens":10281,"brukere":10282,"praktiskt":10283,"vett":10284,"Huvud":10285,"darna":10286,"Allman":10287,"raknar":10288,"konsert":10289,"Forsvar":10290,"mangel":10291,"avar":10292,"Fj":10293,"tunga":10294,"hh":10295,"Mikael":10296,"Ikvall":10297,"bian":10298,"boy":10299,"Sitter":10300,"ikal":10301,"gengæld":10302,"nettsteder":10303,"alderen":10304,"respek":10305,"værktøj":10306,"Press":10307,"benhavns":10308,"tusentals":10309,"Adam":10310,"Kopa":10311,"onenter":10312,"spunkter":10313,"granser":10314,"cra":10315,".:":10316,"drott":10317,"flyttet":10318,"trader":10319,"lia":10320,"Kons":10321,"ony":10322,"fans":10323,"Kvinna":10324,"Foreningen":10325,"Ce":10326,"National":10327,"behandlar":10328,"kirken":10329,"Hud":10330,"utstrackning":10331,"befintliga":10332,"Word":10333,"ledsen":10334,"bely":10335,"svenske":10336,"balanser":10337,"low":10338,"sidig":10339,"træder":10340,"sløs":10341,"kniv":10342,"ikon":10343,"roligare":10344,"Elekt":10345,"havare":10346,"navig":10347,"hack":10348,"hasten":10349,"legges":10350,"Moder":10351,"Larsson":10352,"nedenfor":10353,"rengor":10354,"Tidigare":10355,"oppgaver":10356,"brom":10357,"Bred":10358,"larande":10359,"muslim":10360,"sanger":10361,"forordning":10362,"annonsen":10363,"well":10364,"Selvom":10365,"stærke":10366,"behandlet":10367,"Trond":10368,"aringen":10369,"League":10370,"skval":10371,"korte":10372,"vanlige":10373,"ilde":10374,"sakerstalla":10375,"villig":10376,"trafiken":10377,"brevet":10378,"Mellan":10379,"opplysninger":10380,"84":10381,"hallas":10382,"efterhanden":10383,"forlust":10384,"samlar":10385,"neut":10386,"raskt":10387,"Hanna":10388,"fokusera":10389,"Ned":10390,"tæg":10391,"smaterial":10392,"filen":10393,"uker":10394,"udbud":10395,"variant":10396,"stock":10397,"ordentlig":10398,"øge":10399,"Harry":10400,"meningen":10401,"sugning":10402,"Brug":10403,"1500":10404,"workshop":10405,"storp":10406,"abo":10407,"flug":10408,"soldater":10409,"seres":10410,"wo":10411,"centralt":10412,"larm":10413,"Oper":10414,"Musik":10415,"Lans":10416,"tilrett":10417,"duk":10418,"lagde":10419,"grymt":10420,"akademi":10421,"ited":10422,"søde":10423,"beskriva":10424,"Lisa":10425,"laggs":10426,"almindelig":10427,"osaker":10428,"rektor":10429,"Instit":10430,"bebis":10431,"blu":10432,"revisor":10433,"baren":10434,"musli":10435,"sjovt":10436,"Restaur":10437,"gebyr":10438,"ledende":10439,"sjukskoter":10440,"MP":10441,"Goran":10442,"diabetes":10443,"emidler":10444,"utnyttja":10445,"anen":10446,"domstolen":10447,"Skole":10448,"nitt":10449,"citron":10450,"tam":10451,"svi":10452,"anledningen":10453,"kopi":10454,"fræk":10455,"floden":10456,"foretags":10457,"yog":10458,"ktiva":10459,"gjenopprett":10460,"Osc":10461,"merke":10462,"genop":10463,"ktiviteter":10464,"innebara":10465,"debut":10466,"Disk":10467,"senior":10468,"Jakob":10469,"HT":10470,"uppat":10471,"provning":10472,"positive":10473,"metoden":10474,"cur":10475,"Ford":10476,"kampa":10477,"dun":10478,"domar":10479,"aktioner":10480,"bege":10481,"kontrollen":10482,"NO":10483,"volym":10484,"Kall":10485,"modtaget":10486,"foreligger":10487,"bildet":10488,"foljt":10489,"mæl":10490,"forkyl":10491,"tillfor":10492,"uppenbar":10493,"fæl":10494,"somnade":10495,"Fili":10496,"ete":10497,"spender":10498,"virket":10499,"1980":10500,"string":10501,"cover":10502,"Ovriga":10503,"sælger":10504,"sys":10505,"skarmen":10506,"cht":10507,"ORT":10508,"brænd":10509,"Ani":10510,"djupt":10511,"viktigste":10512,"forresten":10513,"lediga":10514,"delningen":10515,"hage":10516,"klarer":10517,"para":10518,"William":10519,"sød":10520,"spelarna":10521,"Lø":10522,"Swedish":10523,"fulgt":10524,"Forslag":10525,"yal":10526,"dods":10527,"oler":10528,"proff":10529,"hverdagen":10530,"spot":10531,"MC":10532,"somna":10533,"Batt":10534,"jef":10535,"nogens":10536,"verkets":10537,"landsting":10538,"magt":10539,"svamp":10540,"pæiske":10541,"sexuell":10542,"Isa":10543,"jons":10544,"bryter":10545,"suttit":10546,"mys":10547,"gulv":10548,"Johannes":10549,"kæl":10550,"spørge":10551,"stilt":10552,"milit":10553,"motsvarar":10554,"morka":10555,"pornogra":10556,"87":10557,"94":10558,"tang":10559,"forstatt":10560,"omgivelser":10561,"Proc":10562,"misslyck":10563,"Fir":10564,"enkle":10565,"Foretag":10566,"virkninger":10567,"olade":10568,"Pop":10569,"træner":10570,"blon":10571,"Lik":10572,"fenomen":10573,"93":10574,"bilda":10575,"ansikte":10576,"etta":10577,"forenings":10578,"tendens":10579,"vikten":10580,"kjøre":10581,"Club":10582,"sakt":10583,"rip":10584,"designet":10585,"integritet":10586,"bakterier":10587,"slatt":10588,"leverera":10589,"evalu":10590,"klassiker":10591,"likad":10592,"farmor":10593,"eventyr":10594,"tegne":10595,"Offi":10596,"drive":10597,"1970":10598,"Che":10599,"fornem":10600,"genast":10601,"vartom":10602,"designer":10603,"sse":10604,"familier":10605,"exister":10606,"belø":10607,"Bengt":10608,"menten":10609,"varierar":10610,"tunnel":10611,"duktiga":10612,"mød":10613,"valuta":10614,"110":10615,"tagits":10616,"skett":10617,"Hag":10618,"cirkul":10619,"ingom":10620,"stedt":10621,"logga":10622,"strum":10623,"mill":10624,"natter":10625,"beskrevet":10626,"samfunn":10627,"Tips":10628,"prostit":10629,"forker":10630,"Københavns":10631,"lakar":10632,"pæn":10633,"elektronisk":10634,"inriktning":10635,"værdier":10636,"handeln":10637,"flott":10638,"eksempler":10639,"smidigt":10640,"lind":10641,"spoli":10642,"Rog":10643,"ix":10644,"øke":10645,"Problemet":10646,"spænd":10647,"Anton":10648,"ordinarie":10649,"forklarar":10650,"Livet":10651,"Tog":10652,"syftar":10653,"rap":10654,"betingelser":10655,"klokke":10656,"stanga":10657,"ius":10658,"smit":10659,"konferens":10660,"kys":10661,");":10662,"End":10663,"definition":10664,"generation":10665,"minus":10666,"kamer":10667,"hospital":10668,"uttag":10669,"unden":10670,"plassen":10671,"miljoer":10672,"begrepp":10673,"fiska":10674,"Mest":10675,"overensstem":10676,"Tryck":10677,"diskussioner":10678,"tilbyr":10679,"talade":10680,"havs":10681,"lovar":10682,"arbetade":10683,"KE":10684,"specialiser":10685,"Alskar":10686,"Jim":10687,"dannelse":10688,"beva":10689,"Bang":10690,"oppnade":10691,"favoriter":10692,"svett":10693,"nævnt":10694,"Mis":10695,"Power":10696,"modtage":10697,"diskrimin":10698,"party":10699,"konsumenter":10700,"byens":10701,"anbefales":10702,"Holl":10703,"Ell":10704,"Karlsson":10705,"Væl":10706,"trend":10707,"varsel":10708,"borgare":10709,"stallande":10710,"musiken":10711,"berett":10712,"kode":10713,"overskud":10714,"Altern":10715,"broder":10716,"sonen":10717,"cyklar":10718,"sensor":10719,"vogn":10720,"borator":10721,"igelse":10722,"dringen":10723,"stilla":10724,"livets":10725,"Rel":10726,"framme":10727,"motte":10728,"uddannelsen":10729,"affaren":10730,"Kommunen":10731,"mangden":10732,"brotts":10733,"mastare":10734,"blød":10735,"kladd":10736,"examen":10737,"leveres":10738,"indgar":10739,"beloppet":10740,"miljøet":10741,"snack":10742,"intryck":10743,"oftest":10744,"Material":10745,"tai":10746,"bryll":10747,"foreskrifter":10748,"renovering":10749,"omstandigheter":10750,"anpassa":10751,"inbjud":10752,"dygn":10753,"nogensinde":10754,"stere":10755,"Engel":10756,"skr":10757,"Frank":10758,"uppre":10759,"foretagare":10760,"tilhør":10761,"Sommar":10762,"itu":10763,"uppman":10764,"spanning":10765,"foral":10766,"kørsel":10767,"Afrika":10768,"negativa":10769,"fremover":10770,"jeans":10771,"erstat":10772,"Rod":10773,"Ass":10774,"ova":10775,"vantade":10776,"Stati":10777,"skriftlig":10778,"forsaljare":10779,"bredd":10780,"sorts":10781,"anmala":10782,"Gustaf":10783,"Ap":10784,"støj":10785,"cont":10786,"900":10787,"Gol":10788,"eien":10789,"personlighet":10790,"eleverne":10791,"praktiska":10792,"skorte":10793,"find":10794,"Wa":10795,"ors":10796,"farre":10797,"edygt":10798,"riske":10799,"Galler":10800,"forventes":10801,"gifte":10802,"terras":10803,"hænge":10804,"Kyr":10805,"........":10806,"forandras":10807,"teknolog":10808,"pic":10809,"rutin":10810,"trycka":10811,"benytter":10812,"vana":10813,"præci":10814,"journalist":10815,"behandler":10816,"Folke":10817,"aspekter":10818,"deklar":10819,"sie":10820,"Klu":10821,"stærk":10822,"sagare":10823,"bockerna":10824,"vistelse":10825,"narko":10826,"praktiken":10827,"power":10828,"elva":10829,"tekt":10830,"servering":10831,"sundheds":10832,"arbetslos":10833,"1997":10834,"ary":10835,"skep":10836,"merksom":10837,"cup":10838,"syre":10839,"utviklet":10840,"Vit":10841,"mennesk":10842,"dagis":10843,"hjemmesiden":10844,"tonaring":10845,"vits":10846,"Ditt":10847,"lagte":10848,"Oli":10849,"ragende":10850,"behandla":10851,"Titta":10852,"ool":10853,"spark":10854,"Bare":10855,"hundrat":10856,"rekommend":10857,"tingene":10858,"medfor":10859,"verre":10860,"skridt":10861,"skilst":10862,"belastning":10863,"inkluderar":10864,"weiz":10865,"SR":10866,"Jord":10867,"troja":10868,"DER":10869,"lakt":10870,"bestemmelser":10871,"adelse":10872,"fotter":10873,"univer":10874,"Sky":10875,"BM":10876,"stamma":10877,"frivillige":10878,"gator":10879,"internationale":10880,"innovation":10881,"bruket":10882,"jacka":10883,"sammenhen":10884,"SO":10885,"minuters":10886,"Statens":10887,"bbel":10888,"HAR":10889,"ado":10890,"tø":10891,"HR":10892,"enige":10893,"arbetsgivare":10894,"Johanna":10895,"aaaa":10896,"apne":10897,"smæssigt":10898,"fs":10899,"magasin":10900,"begav":10901,"serte":10902,"Gunnar":10903,"180":10904,"ljuset":10905,"selskapet":10906,"riskerar":10907,"begiven":10908,"Boras":10909,"uppmun":10910,"fardiga":10911,"Andro":10912,"verktøy":10913,"helsing":10914,"International":10915,"III":10916,"lovet":10917,"opplæring":10918,"hallare":10919,"opdag":10920,"avkast":10921,"lesbisk":10922,"stjerne":10923,"udenfor":10924,"ida":10925,"sakerna":10926,"cs":10927,"latin":10928,"praktiske":10929,"udvi":10930,"fortsætter":10931,"velse":10932,"sklas":10933,"Smart":10934,"asje":10935,"Dermed":10936,"plade":10937,"tten":10938,"Bolig":10939,"fodda":10940,"board":10941,"pape":10942,"Grat":10943,"Lilla":10944,"Bada":10945,"arkitekt":10946,"muligheter":10947,"rorelser":10948,"bøn":10949,"begrav":10950,"tilbyde":10951,"Ric":10952,"anonym":10953,"foreldre":10954,"smaningom":10955,"fota":10956,"blandade":10957,"menyn":10958,"kalt":10959,"brow":10960,"forare":10961,"drabbas":10962,"Morten":10963,"fester":10964,"fortæll":10965,"elegant":10966,"foretagets":10967,"lement":10968,"kerna":10969,"Porrfilm":10970,"hyre":10971,"Lulea":10972,"standiga":10973,"sperioden":10974,"slutningen":10975,"webben":10976,"import":10977,"ellertid":10978,"kontakten":10979,"kigge":10980,"landskap":10981,"oppmerksom":10982,"hette":10983,"fantas":10984,"krediter":10985,"malm":10986,"dos":10987,"omfattet":10988,"kvarter":10989,"udtry":10990,"levererar":10991,"overvej":10992,"ægt":10993,"rækker":10994,"Nils":10995,"kravet":10996,"Deras":10997,"grænse":10998,"hjalpte":10999,"penning":11000,"respon":11001,"sprogrammet":11002,"forsøger":11003,"klubbens":11004,"transa":11005,"protokoll":11006,"haper":11007,"ystem":11008,"karleken":11009,"ffen":11010,"informations":11011,"vagnen":11012,"distribu":11013,"sætninger":11014,"emner":11015,"vardighet":11016,"lv":11017,"merket":11018,"mers":11019,"konsument":11020,"Tav":11021,"spelen":11022,"kød":11023,"Wall":11024,"trosor":11025,"vastra":11026,"annoncer":11027,"galt":11028,"kontaktannonser":11029,"serad":11030,"filosofi":11031,"lordagen":11032,"næv":11033,"Jesper":11034,"innlegget":11035,"Nedan":11036,"iss":11037,"Swinger":11038,"pensions":11039,"ego":11040,"nærmeste":11041,"grunde":11042,"adskill":11043,"Tankte":11044,"slap":11045,"Filmer":11046,"syra":11047,"tykke":11048,"Billig":11049,"utsatta":11050,"førsel":11051,"uppsala":11052,"Lagen":11053,"tester":11054,"dl":11055,"lært":11056,"forskolan":11057,"legetøj":11058,"some":11059,"redig":11060,"reaktion":11061,"vna":11062,"mjuka":11063,"lordags":11064,"kongen":11065,"gubbar":11066,"Gym":11067,"arium":11068,"igaste":11069,"bomull":11070,"skilstuna":11071,"Fyn":11072,"svare":11073,"coll":11074,"aluminium":11075,"indr":11076,"Brost":11077,"sosiale":11078,"frie":11079,"værelset":11080,"samlat":11081,"fotball":11082,"Cup":11083,"Ost":11084,"trækker":11085,"sessen":11086,"ikkje":11087,"drø":11088,"-/":11089,"gørelsen":11090,"Glom":11091,"Kontroll":11092,"movies":11093,"blet":11094,"vildt":11095,"hoja":11096,"Hou":11097,"skarp":11098,"fold":11099,"!.":11100,"bevæg":11101,"trin":11102,"slots":11103,"Sak":11104,"tillæg":11105,"innhold":11106,"Jobb":11107,"ifik":11108,"stamning":11109,"næst":11110,"xt":11111,"ous":11112,"varig":11113,"tvingas":11114,"omas":11115,"badet":11116,"facilitet":11117,"europeiska":11118,"komfor":11119,"paverkas":11120,"observ":11121,"inna":11122,"packa":11123,"bryst":11124,"leveret":11125,"spelaren":11126,"Love":11127,"vaggar":11128,"agar":11129,"Cas":11130,"historiske":11131,"optimer":11132,"kategorin":11133,"Medan":11134,"reserver":11135,"hungr":11136,"æd":11137,"Trump":11138,"hoteller":11139,"husen":11140,"melde":11141,"metode":11142,"gillade":11143,"svarigheter":11144,"otal":11145,"Hotellet":11146,"eland":11147,"spolitik":11148,"MED":11149,"Mogen":11150,"tænkt":11151,"ledningar":11152,"lukket":11153,"hoppade":11154,"Analy":11155,"signaler":11156,"Mannisk":11157,"reson":11158,"lamplig":11159,"pase":11160,"loser":11161,"psyko":11162,"pump":11163,"funda":11164,"vags":11165,"konsum":11166,"pry":11167,"Carol":11168,"budskap":11169,"plagg":11170,"jamn":11171,"Malin":11172,"redit":11173,"vun":11174,"læggende":11175,"brister":11176,"Sem":11177,"hustru":11178,"meng":11179,"ombord":11180,"vile":11181,"godkendt":11182,"Ida":11183,"direktiv":11184,"anhor":11185,"djupa":11186,"prenor":11187,"Norrkoping":11188,"adressen":11189,"cing":11190,"foddes":11191,"samfundet":11192,"fotografi":11193,"bankk":11194,"dad":11195,"kraven":11196,"sons":11197,"kvart":11198,"malen":11199,"stoppe":11200,"drivs":11201,"bergen":11202,"webblas":11203,"jt":11204,"naren":11205,"vaxande":11206,"Wik":11207,"81":11208,"bekvamt":11209,"Mr":11210,"IA":11211,"priserna":11212,"lakaren":11213,"komponenter":11214,"Ak":11215,"baks":11216,"bestod":11217,"kursus":11218,"dagliga":11219,"betra":11220,"handerna":11221,"konflikter":11222,"smerte":11223,"bygningen":11224,"bede":11225,"indfly":11226,"forma":11227,"rikes":11228,"Ofta":11229,"manniskors":11230,"permanent":11231,"high":11232,"overensstemmelse":11233,"gjennomført":11234,"Nær":11235,"matta":11236,"SN":11237,"dynam":11238,"hormon":11239,"gras":11240,"umea":11241,"midten":11242,"ups":11243,"regioner":11244,"vanil":11245,"sorte":11246,"uppfyller":11247,"foredrar":11248,"tillsyn":11249,"Lek":11250,"samlade":11251,"barhet":11252,"vekst":11253,"tz":11254,"betong":11255,"formation":11256,"forvent":11257,"varenda":11258,"arbeide":11259,"kryp":11260,"karta":11261,"arrangemang":11262,"Android":11263,"presenteras":11264,"næring":11265,"HP":11266,"Home":11267,"kkene":11268,"journali":11269,"kreativitet":11270,"Cir":11271,"værdig":11272,"lampor":11273,"ledd":11274,"ffekt":11275,"holms":11276,"njuter":11277,"institution":11278,"Træ":11279,"inspel":11280,"jut":11281,"hallning":11282,"Grand":11283,"hs":11284,"Anni":11285,"dyra":11286,"hentet":11287,"rand":11288,"elimin":11289,"USB":11290,"Vaxjo":11291,"enhed":11292,"Medel":11293,"tydeligt":11294,"byggnads":11295,"vaningen":11296,"stera":11297,"forrige":11298,"betydelig":11299,"skrivna":11300,"CE":11301,"head":11302,"spekul":11303,"Anmal":11304,"medborgare":11305,"oppdrag":11306,"snon":11307,"faldet":11308,"formagan":11309,"undersøgelser":11310,"larar":11311,"stige":11312,"vakna":11313,"fallen":11314,"Snyg":11315,"explo":11316,"skapade":11317,"...]":11318,"ward":11319,"vedr":11320,"hid":11321,"betales":11322,"erotiske":11323,"sørger":11324,"intim":11325,"vunnit":11326,"spendera":11327,"GE":11328,"Pay":11329,"inc":11330,"farliga":11331,"temot":11332,"syv":11333,",.":11334,"skelige":11335,"Lokal":11336,"Hund":11337,"Fredag":11338,"kompetencer":11339,"anlaggningar":11340,"Stav":11341,"sprida":11342,"optimal":11343,"Første":11344,"Nytt":11345,"tabletter":11346,"kræfter":11347,"betalningsanmark":11348,"Ky":11349,"rop":11350,"DET":11351,"mørke":11352,"veterin":11353,"internationell":11354,"biljett":11355,"utmar":11356,"resen":11357,"ftes":11358,"Besok":11359,"blatt":11360,"positioner":11361,"klokken":11362,"tværs":11363,"Juni":11364,"رررر":11365,"makten":11366,"rok":11367,"eringar":11368,"Sønder":11369,"KR":11370,"stander":11371,"ifragas":11372,"bokning":11373,"ils":11374,"Phi":11375,"industrin":11376,"ruppen":11377,"Tanken":11378,"forklarer":11379,"tillfreds":11380,"orts":11381,"smetoder":11382,"ingenjor":11383,"Mini":11384,"produktions":11385,"kommunale":11386,"bang":11387,"regeringens":11388,"Erhver":11389,"kondom":11390,"jobbe":11391,"hallit":11392,"plag":11393,"indga":11394,"rengør":11395,"forstyr":11396,"viktige":11397,"kilde":11398,"avdelning":11399,"kland":11400,"forsvann":11401,"dokumentar":11402,"ologiskt":11403,"Volvo":11404,"vinne":11405,"skønne":11406,"ramen":11407,"begrænset":11408,"nyttig":11409,"metal":11410,"eksklu":11411,"stabilitet":11412,"fasen":11413,"bekan":11414,"HF":11415,"Doku":11416,"arrangementer":11417,"toner":11418,"Part":11419,"Nas":11420,"creme":11421,"grus":11422,"Stall":11423,"varderingar":11424,"arliga":11425,"søvn":11426,"Bio":11427,"tug":11428,"skrack":11429,"ged":11430,"osi":11431,"lyn":11432,"edia":11433,"tans":11434,"bir":11435,"rekommenderas":11436,"eliv":11437,"astad":11438,"expan":11439,"organisasjon":11440,"Vard":11441,"besøge":11442,"ingarna":11443,"testat":11444,"vigtige":11445,"Vux":11446,"tander":11447,"slett":11448,"endringer":11449,"foten":11450,"testet":11451,"høyre":11452,"vilt":11453,"Test":11454,"skaffe":11455,"katalog":11456,"bolagets":11457,"sparar":11458,"Sodra":11459,"saks":11460,"katter":11461,"nøgen":11462,"rotter":11463,"fynd":11464,"inneholder":11465,"distan":11466,"fællesskab":11467,"spray":11468,"Persson":11469,"mation":11470,"Regeringen":11471,"tvung":11472,"kommunala":11473,"beskytte":11474,"zer":11475,"veder":11476,"scener":11477,"see":11478,"sakr":11479,"Styrelsen":11480,"vilde":11481,"Chri":11482,"samfunnet":11483,"Sm":11484,"gava":11485,"orolig":11486,"pojkvan":11487,"kiet":11488,"tekniken":11489,"oman":11490,"roster":11491,"sendte":11492,"Media":11493,"Ten":11494,"ping":11495,"sparti":11496,"misstag":11497,"Kolla":11498,"Box":11499,"tirsdag":11500,"massigt":11501,"tuff":11502,"hult":11503,"robot":11504,"Kvinder":11505,"ceptet":11506,"utru":11507,"sikten":11508,"Eriksson":11509,"muligheden":11510,"Tantra":11511,"Alexander":11512,"kvalite":11513,"snalla":11514,"vilje":11515,"sakna":11516,"Fitta":11517,"forvag":11518,"aly":11519,"Europas":11520,"Medic":11521,"stallas":11522,"halt":11523,"utgang":11524,"bedrift":11525,"BN":11526,"skorna":11527,"KOM":11528,"beraknas":11529,"udgave":11530,"fornø":11531,"krigs":11532,"kede":11533,"krigen":11534,"stolar":11535,"Egent":11536,"Kunst":11537,"yde":11538,"flaska":11539,"ttere":11540,"ændring":11541,"!”":11542,"ogonblick":11543,"eriod":11544,"usa":11545,"administration":11546,"Ons":11547,"overbe":11548,"forvantningar":11549,"innehalla":11550,"midsommar":11551,"Nør":11552,"hett":11553,"tradisjon":11554,"stunder":11555,"lednings":11556,"kvm":11557,"visserligen":11558,"splaner":11559,"investeringar":11560,"kampanj":11561,"pagaende":11562,"gymmet":11563,"Ide":11564,"casinon":11565,"cirkel":11566,"report":11567,"hjarnan":11568,"slanga":11569,"Flyg":11570,"stodja":11571,"Projektet":11572,"Elever":11573,"sistens":11574,"Lun":11575,"forsakra":11576,"byran":11577,"sul":11578,"And":11579,"esen":11580,"statisti":11581,"omkostninger":11582,"menings":11583,"uppdraget":11584,"knings":11585,"ningens":11586,"vandt":11587,"danne":11588,"saret":11589,"Sum":11590,"unds":11591,"avsugning":11592,"sekreter":11593,"arena":11594,"trum":11595,"oron":11596,"sjen":11597,"enig":11598,"deltagarna":11599,"CV":11600,"air":11601,"serios":11602,"klassiske":11603,"jed":11604,"Fragan":11605,"plattform":11606,"timmars":11607,"sjælland":11608,"pojkar":11609,"selskaber":11610,"kasta":11611,"kos":11612,"samlas":11613,"resultaten":11614,"koder":11615,"funktionsned":11616,"mødes":11617,"abri":11618,"forskningen":11619,"frivillig":11620,"Sundsvall":11621,"good":11622,"thailand":11623,"KS":11624,"less":11625,"mobiltelefon":11626,"skre":11627,"myndigheten":11628,"klen":11629,"stram":11630,"It":11631,"placeret":11632,"Polen":11633,"lektioner":11634,"snakker":11635,"ath":11636,"Arne":11637,"kika":11638,"Ulf":11639,"DM":11640,"følte":11641,"diff":11642,"hyggeligt":11643,"bestyr":11644,"montering":11645,"ostra":11646,"avsed":11647,"maksi":11648,"Luft":11649,"valp":11650,"Frederiks":11651,"Helse":11652,"jamstalld":11653,"radighed":11654,"indkøb":11655,"lejer":11656,"lt":11657,"væsentlig":11658,"ambul":11659,"HER":11660,"pause":11661,"skara":11662,"Kuk":11663,"holdene":11664,"fangelse":11665,"jde":11666,"blanda":11667,"taxi":11668,"cipl":11669,"hover":11670,"Jenny":11671,"øjen":11672,"alternativet":11673,"hatar":11674,"nyar":11675,"ffin":11676,"ideal":11677,"kvartal":11678,"blind":11679,"glasogon":11680,"skonhet":11681,"dorrar":11682,"emellertid":11683,"istisk":11684,"vera":11685,"styrker":11686,"ply":11687,"uafhæng":11688,"stigning":11689,"Dor":11690,"snamn":11691,"offentligt":11692,"koks":11693,"fungerande":11694,"skærm":11695,"indholdet":11696,"undersokningar":11697,"ikapp":11698,"sjef":11699,"Maj":11700,"ambas":11701,"Down":11702,"odds":11703,"anstrang":11704,"vetenskapliga":11705,"ørende":11706,"føles":11707,"Inde":11708,"hors":11709,"amet":11710,"Book":11711,"hær":11712,"ungar":11713,"room":11714,"træt":11715,"lene":11716,"Ing":11717,"kastet":11718,"Inden":11719,"overnatt":11720,"Lands":11721,"knap":11722,"foreninger":11723,"fremragende":11724,"tilbehør":11725,"finaste":11726,"kalder":11727,"overblik":11728,"sung":11729,"Bostad":11730,"hjertet":11731,"bug":11732,"sparet":11733,"grunnlag":11734,"varmning":11735,"moden":11736,"omvand":11737,"Jor":11738,"skrona":11739,"knæ":11740,"onto":11741,"Nordic":11742,"datingside":11743,"cast":11744,"billige":11745,"pere":11746,"behandlingar":11747,"tillgod":11748,"smerter":11749,"loc":11750,"Trom":11751,"ordre":11752,"kontanter":11753,"Sofia":11754,"ami":11755,"sticka":11756,"losningen":11757,"meddelanden":11758,"DS":11759,"vaccin":11760,"betydande":11761,"presenterar":11762,"settes":11763,"tross":11764,"lækkert":11765,"jakla":11766,"rast":11767,"Ze":11768,"invand":11769,"skontor":11770,"Hele":11771,"imorse":11772,"Gjennom":11773,"kvinnliga":11774,"herefter":11775,"lette":11776,"skickade":11777,"ican":11778,"graden":11779,"representanter":11780,"DC":11781,"ferien":11782,"studien":11783,"Not":11784,"forklare":11785,"rimelig":11786,"ycke":11787,"feed":11788,"BT":11789,"leverandør":11790,"bemær":11791,"stigende":11792,"søk":11793,"Hakan":11794,"tillverkare":11795,"bytt":11796,"fungere":11797,"repet":11798,"kraften":11799,"utredningen":11800,"Lau":11801,"byter":11802,"insattning":11803,"galet":11804,"rosta":11805,"husk":11806,"hamna":11807,"sagtens":11808,"sansvar":11809,"flyttat":11810,"Huset":11811,"øve":11812,"studera":11813,"Will":11814,"Read":11815,"kompen":11816,"skatten":11817,"webcam":11818,"DI":11819,"sande":11820,"trav":11821,"overhovedet":11822,"studi":11823,"overlag":11824,"kallor":11825,"klister":11826,"underlatta":11827,"oty":11828,"experi":11829,"veckorna":11830,"hænder":11831,"df":11832,"Ker":11833,"forplikt":11834,"domin":11835,"ghan":11836,"samarbet":11837,"primar":11838,"flode":11839,"fastigheten":11840,"velger":11841,"Skatte":11842,"Forskning":11843,"1996":11844,"uru":11845,"greb":11846,"mojligen":11847,"tyng":11848,"bakgrunn":11849,"rea":11850,"befri":11851,"henblik":11852,"forsiktig":11853,"James":11854,"Matti":11855,"muligheten":11856,"Namn":11857,"artister":11858,"Norske":11859,"1995":11860,"Golf":11861,"forvaltnings":11862,"idi":11863,"rep":11864,"summer":11865,"satsning":11866,"GA":11867,"ydelser":11868,"Filmen":11869,"felakt":11870,"politiskt":11871,"kaldes":11872,"Group":11873,"slad":11874,"rater":11875,"Linne":11876,"ladan":11877,"Akade":11878,"1994":11879,"Utveck":11880,"begyndt":11881,"enhamn":11882,"pyn":11883,"Oscar":11884,"slaet":11885,"højeste":11886,"muslimer":11887,"kampar":11888,"tap":11889,"opstar":11890,"ily":11891,"mass":11892,"intensiv":11893,"jamt":11894,"PDF":11895,"seren":11896,"referen":11897,"opret":11898,"bullar":11899,"hockey":11900,"øvelser":11901,"hovs":11902,"skilda":11903,"væsen":11904,"specifikt":11905,"moral":11906,"2020":11907,"moln":11908,"agte":11909,"action":11910,"Gul":11911,"politiken":11912,"Nort":11913,"internationellt":11914,"smes":11915,"hlm":11916,"skillnader":11917,"avlopp":11918,"Mannen":11919,"tjejerna":11920,"vurderer":11921,"symboler":11922,"Bibel":11923,"fylde":11924,"stenar":11925,"generellt":11926,"klubber":11927,"130":11928,"skapas":11929,"sokte":11930,"ministeriet":11931,"wal":11932,"Miljo":11933,"stjarn":11934,"isering":11935,"kriget":11936,"deretter":11937,"DU":11938,"small":11939,"julklapp":11940,"turister":11941,"Fantast":11942,"stek":11943,"Happ":11944,"backa":11945,"opfor":11946,"janst":11947,"Def":11948,"beskrivs":11949,"deci":11950,"uel":11951,"korv":11952,"tilrettel":11953,"levereras":11954,"onger":11955,"King":11956,"krever":11957,"Anda":11958,"kaldt":11959,"lærere":11960,"heldig":11961,"Høy":11962,"gammalt":11963,"øret":11964,"rog":11965,"ligheden":11966,"betjen":11967,"køle":11968,"atag":11969,"fredagen":11970,"uppdatera":11971,"Nye":11972,"ømmer":11973,"Sida":11974,"husets":11975,"henholdsvis":11976,"foraldrarna":11977,"magnet":11978,"1960":11979,"medans":11980,"sving":11981,"kningar":11982,"markant":11983,"angs":11984,"cke":11985,"udelukkende":11986,"olj":11987,"skyg":11988,"versity":11989,"user":11990,"olin":11991,"handtere":11992,"Geor":11993,"MAN":11994,"langsamt":11995,"bredband":11996,"forfattaren":11997,"Lof":11998,"fardigt":11999,"brø":12000,"trent":12001,"afstand":12002,"opptatt":12003,"Best":12004,"hobby":12005,"forsiktigt":12006,"ansat":12007,"formular":12008,"indret":12009,"uppehall":12010,"tabell":12011,"sokning":12012,"handlinger":12013,"jobben":12014,"stjanst":12015,"chefer":12016,"gradde":12017,"strack":12018,"Hvem":12019,"tidningar":12020,"likhet":12021,"alska":12022,"Kna":12023,"fotterna":12024,"citat":12025,"symptomer":12026,"talat":12027,"Lak":12028,"produktet":12029,"ceras":12030,"sjukhuset":12031,"Guld":12032,"reglerne":12033,"tekster":12034,"forvantas":12035,"dinge":12036,"valla":12037,"formiddagen":12038,"beman":12039,"indflydelse":12040,"ssan":12041,"Anti":12042,"stipen":12043,"Produkt":12044,"centralen":12045,"fyllde":12046,"Business":12047,"borgs":12048,"rakar":12049,"Gron":12050,"forstand":12051,"arbetsplats":12052,"ætte":12053,"begynde":12054,"Jylland":12055,"kulturen":12056,"aliska":12057,"ftt":12058,"Folj":12059,"virkeligheden":12060,"troller":12061,"aktører":12062,"aldrar":12063,"Ungdom":12064,"entrum":12065,"avtale":12066,"tacksam":12067,"jazz":12068,"forskola":12069,"pratat":12070,"Dahl":12071,":.":12072,"leker":12073,"140":12074,"Cle":12075,"fordelt":12076,"inar":12077,"pussy":12078,"Lud":12079,"medicinsk":12080,"lagret":12081,"kanska":12082,"eftea":12083,"trol":12084,"forhindra":12085,"sovit":12086,"missa":12087,"grundlæggende":12088,"ellen":12089,"Profes":12090,"understre":12091,"Robin":12092,"nyeste":12093,"[...]":12094,"seriosa":12095,"odd":12096,"serat":12097,"rart":12098,"Hold":12099,"Børn":12100,"pavirke":12101,"tvatta":12102,"kris":12103,"specialist":12104,"journalister":12105,"stuen":12106,"konklu":12107,"overgang":12108,"forsvaret":12109,"spartner":12110,"Tech":12111,"universitetet":12112,"husker":12113,"Riktigt":12114,"asinon":12115,"synpunkter":12116,"slat":12117,"filtr":12118,"kjæreste":12119,"hands":12120,"ipedia":12121,"bransle":12122,"Cro":12123,"skolens":12124,"gna":12125,"websted":12126,"signer":12127,"une":12128,"alar":12129,"bioti":12130,"somrader":12131,"aktør":12132,"styrning":12133,"avsluta":12134,"ards":12135,"Kristus":12136,"Gennem":12137,"agne":12138,"Elisa":12139,"fac":12140,"yttre":12141,"opmærksomhed":12142,"sporten":12143,"minskning":12144,"ENS":12145,"Drag":12146,"Artikel":12147,"appel":12148,"udført":12149,"vanligen":12150,"Watch":12151,"ween":12152,"hyd":12153,"Kommentar":12154,"undersøkelse":12155,"avse":12156,"cli":12157,"ico":12158,"utviklingen":12159,"hev":12160,"batar":12161,"ktet":12162,"hjemmel":12163,"sformed":12164,"xy":12165,"boks":12166,"word":12167,"fjord":12168,"hogskola":12169,"Barcel":12170,"Dels":12171,"batterier":12172,"hihi":12173,"klock":12174,"upplevelsen":12175,"bolagen":12176,"læs":12177,"edning":12178,"stadning":12179,"Bos":12180,"LIG":12181,"skand":12182,"ulette":12183,"koncern":12184,"dagligt":12185,"planlagt":12186,"bere":12187,"Strom":12188,"saaa":12189,"overgripande":12190,"trafikk":12191,"ongen":12192,"læder":12193,"tillverkning":12194,"videon":12195,"fuldstændig":12196,"ular":12197,"besokte":12198,"Kristi":12199,"Fakti":12200,"kammer":12201,"Niels":12202,"ith":12203,"uch":12204,"rud":12205,"kristne":12206,"tidligt":12207,"kvadratmeter":12208,"riksdagen":12209,"suga":12210,"Jamfor":12211,"omfattas":12212,"Endast":12213,"nemmere":12214,"orier":12215,"fjall":12216,"distans":12217,"Moj":12218,"here":12219,"dricker":12220,"kampe":12221,"sog":12222,"teamet":12223,"avvi":12224,"Trondheim":12225,"virtu":12226,"vinduer":12227,"normer":12228,"bjorn":12229,"anpassade":12230,"Clas":12231,"forlu":12232,"tillskott":12233,"anstalld":12234,"amatør":12235,"Ønsker":12236,"eskorter":12237,"kaos":12238,"manaderna":12239,"øen":12240,"bygden":12241,"arealer":12242,"missat":12243,"vaknar":12244,"omgaende":12245,"altan":12246,"levet":12247,"ansoka":12248,"flag":12249,"drenge":12250,"House":12251,"savtal":12252,"atoren":12253,"toil":12254,"foresla":12255,"vurderes":12256,"uppskattar":12257,"faldt":12258,"besviken":12259,"sannolik":12260,"Nation":12261,"Nick":12262,"lover":12263,"Sha":12264,"Vas":12265,"medisin":12266,"August":12267,"nedgang":12268,"utlandska":12269,"studiet":12270,"Australien":12271,"%,":12272,"figurer":12273,"Norra":12274,"Sep":12275,"instruktioner":12276,"nødvendigvis":12277,"sokan":12278,"lykkes":12279,"sexig":12280,"lacker":12281,"prenumer":12282,"koka":12283,"Præ":12284,"Valdigt":12285,"ondt":12286,"ateri":12287,"egner":12288,"paret":12289,"kje":12290,"benet":12291,"MT":12292,"kage":12293,"lappar":12294,"Larsen":12295,"leng":12296,"hogskolan":12297,"kald":12298,"klarade":12299,"tax":12300,"høst":12301,"sondagen":12302,"fader":12303,"internasjonale":12304,"stillstand":12305,"allmanheten":12306,"Villa":12307,"kosta":12308,"Sjælland":12309,"forretnings":12310,"was":12311,"erklær":12312,"bringer":12313,"staka":12314,"forsikr":12315,"klikke":12316,"avsnittet":12317,"arder":12318,"nylig":12319,"esser":12320,"ovanfor":12321,"helger":12322,"aldsta":12323,"glede":12324,"Mote":12325,"Vælg":12326,"fremt":12327,"rullar":12328,"agaren":12329,"display":12330,"pavirker":12331,"odling":12332,"Neder":12333,"stole":12334,"Sur":12335,"franske":12336,"hygge":12337,"flad":12338,"BK":12339,"speed":12340,"Meget":12341,"summa":12342,"spurgte":12343,"Nr":12344,"morkt":12345,"ual":12346,"godkanner":12347,"Borg":12348,"Hammar":12349,"pix":12350,"jog":12351,"plante":12352,"ledige":12353,"ktig":12354,"forventer":12355,"atal":12356,"Indien":12357,"konkurs":12358,"erats":12359,"modne":12360,"avgora":12361,"erkanna":12362,"ministeren":12363,"sorden":12364,"diet":12365,"kørte":12366,"sofa":12367,"lønn":12368,"laggas":12369,"efterfragan":12370,"Ansvar":12371,".»":12372,"drev":12373,"stjarna":12374,"iken":12375,"forvaring":12376,"provat":12377,"variera":12378,"forbereda":12379,"jonkoping":12380,"intellig":12381,"etiske":12382,"ike":12383,"skrid":12384,"vejret":12385,"synligvis":12386,"titlar":12387,"Ljus":12388,"ugning":12389,"værket":12390,"berør":12391,"Slot":12392,"sektorn":12393,"meldt":12394,"proced":12395,"Infor":12396,"byggelse":12397,"succe":12398,"ligner":12399,"Bemær":12400,"tilkny":12401,"vager":12402,"frihed":12403,"mister":12404,"Antligen":12405,"Cop":12406,"jenester":12407,"vaken":12408,"UK":12409,"forlorade":12410,"gods":12411,"besta":12412,"samler":12413,"løfte":12414,"ombud":12415,"ævnet":12416,"fanga":12417,"obehag":12418,"øjet":12419,"Sexleksaker":12420,"døds":12421,"sikret":12422,"prestand":12423,"vokser":12424,"recension":12425,"radets":12426,"hogskole":12427,"navne":12428,"hjelper":12429,"ktorer":12430,"elit":12431,"?.":12432,"smukt":12433,"gennemført":12434,"High":12435,"Up":12436,"margin":12437,"bevægelse":12438,"omet":12439,"begrun":12440,"observer":12441,"skrivelse":12442,"smaken":12443,"Olsson":12444,"populart":12445,"banklan":12446,"paminner":12447,"bygging":12448,"gata":12449,"skyn":12450,"konkurrence":12451,"sølv":12452,"barnens":12453,"Detal":12454,"huvudtaget":12455,"vinnare":12456,"^^":12457,"klappar":12458,"hundarna":12459,"acceptera":12460,"sleder":12461,"krang":12462,"reseptfritt":12463,"Ara":12464,"karleks":12465,"mødet":12466,"legging":12467,"lockar":12468,"missbruk":12469,"160":12470,"bildar":12471,"databas":12472,"SEX":12473,"kalde":12474,"samord":12475,"lampa":12476,"Date":12477,"rutan":12478,"Ars":12479,"trivsel":12480,"tillampas":12481,"inspirerande":12482,"vagt":12483,"bonusar":12484,"miste":12485,"ressourcer":12486,"ington":12487,"eksamen":12488,"klaga":12489,"Samtliga":12490,"veil":12491,"slutligen":12492,"samtaler":12493,"ytterst":12494,"studio":12495,"Forum":12496,"tvartom":12497,"konkurrens":12498,"Nog":12499,"krog":12500,"matematik":12501,"Mandag":12502,"ias":12503,"gilt":12504,"Annon":12505,"farsk":12506,"uansett":12507,"Karlstad":12508,"pall":12509,"regning":12510,"fordele":12511,"slav":12512,"karriere":12513,"kolon":12514,"dækket":12515,"tennis":12516,"sack":12517,"viten":12518,"ernes":12519,"vedtak":12520,"mindste":12521,"expert":12522,"auto":12523,"lektion":12524,"listor":12525,"sember":12526,"behandles":12527,"bakken":12528,"sjældent":12529,"Uanset":12530,"rante":12531,"ask":12532,"præsent":12533,"temat":12534,"noje":12535,"utvecklat":12536,"kling":12537,"smaker":12538,"safremt":12539,"aggres":12540,"VE":12541,"grænser":12542,"sledare":12543,"Lær":12544,"klat":12545,"danska":12546,"annoncen":12547,"tillganglighet":12548,"tabellen":12549,"landst":12550,"upplysning":12551,"sexfilm":12552,"Pedersen":12553,"minskat":12554,"veckans":12555,"centret":12556,"forventninger":12557,"generelle":12558,"kvitt":12559,"friske":12560,"Tren":12561,"tech":12562,"kopier":12563,"fæng":12564,"enorma":12565,"Coll":12566,"glatt":12567,"stands":12568,"satsar":12569,"brudd":12570,"redskap":12571,"statliga":12572,"tillgangar":12573,"rehabilitering":12574,"faciliteter":12575,"Und":12576,"kontinuerligt":12577,"førende":12578,"Sju":12579,"sprøj":12580,"oplysning":12581,"fastighets":12582,"vandra":12583,"upptackte":12584,"alvorlig":12585,"vinning":12586,"brid":12587,"øker":12588,"Tiden":12589,"bragt":12590,"blanding":12591,"links":12592,"hjalpmedel":12593,"United":12594,"intervjuer":12595,"Tjej":12596,"forhin":12597,"symt":12598,"panik":12599,"varumarken":12600,"ansætt":12601,"Tele":12602,"strar":12603,"tings":12604,"uppfoljning":12605,"chauf":12606,"relaterade":12607,"korning":12608,"gers":12609,"vy":12610,"flam":12611,"dok":12612,"Cu":12613,"lampligt":12614,"seffe":12615,"opbevar":12616,"terande":12617,"sus":12618,"ømte":12619,"grep":12620,"auktor":12621,"takti":12622,"hallbarhet":12623,"JA":12624,"digitalt":12625,"dsm":12626,"Øster":12627,"stiske":12628,"uddannelser":12629,"kollat":12630,"sanningen":12631,"licen":12632,"kroppens":12633,"forlora":12634,"troligt":12635,"1993":12636,"drig":12637,"størrelser":12638,"aterstall":12639,"killen":12640,"risikoen":12641,"fugl":12642,"jattef":12643,"forloss":12644,"mannens":12645,"raddar":12646,"kostnaderna":12647,"kandidater":12648,"HO":12649,"flor":12650,"klubbar":12651,"favoritter":12652,"ML":12653,"norska":12654,"tun":12655,"passende":12656,"Gillar":12657,"champ":12658,"køret":12659,"finska":12660,"Plat":12661,"Sym":12662,"HE":12663,"isch":12664,"blow":12665,"Buti":12666,"cerar":12667,"omsattning":12668,"inflytande":12669,"sykdom":12670,"lavt":12671,"GT":12672,"adfærd":12673,"undra":12674,"Fyll":12675,"medlemmarna":12676,"ningerne":12677,"mastar":12678,"standarder":12679,"prøv":12680,"branchen":12681,"udby":12682,"ISK":12683,"kommand":12684,"bibel":12685,"sproblem":12686,"leden":12687,"forskar":12688,"appli":12689,"forsvars":12690,"dahl":12691,"konserv":12692,"allvarligt":12693,"slott":12694,"obe":12695,"Axel":12696,"opprinn":12697,"harde":12698,"Behover":12699,"lott":12700,"hvorefter":12701,"orientering":12702,"fornøyd":12703,"definier":12704,"Asa":12705,"abner":12706,"mængde":12707,"Vegas":12708,"givelse":12709,"nats":12710,"darlige":12711,"takk":12712,"tjanar":12713,"Marcus":12714,"villkoren":12715,"musiker":12716,"affald":12717,"ther":12718,"vaxte":12719,"rt":12720,"website":12721,"Cit":12722,"Vall":12723,"trukket":12724,"Latt":12725,"palit":12726,"Fel":12727,"Foretaget":12728,"handtering":12729,"aro":12730,"ægge":12731,"Glad":12732,"nyhetsbrev":12733,"350":12734,"havnen":12735,"begreppet":12736,"ovenfor":12737,"invig":12738,"Sh":12739,"redovisas":12740,"Kok":12741,"planerade":12742,"blodet":12743,"belt":12744,"undersokningen":12745,"bundna":12746,"restauranter":12747,"BO":12748,"hvorvidt":12749,"regnes":12750,"gla":12751,"effektiviser":12752,"komna":12753,"spørger":12754,"beskatt":12755,"kann":12756,"torka":12757,"privatpersoner":12758,"leverandører":12759,"efra":12760,"Gotland":12761,"tram":12762,"handtag":12763,"klickar":12764,"toalett":12765,"Virksom":12766,"world":12767,"Line":12768,"avdelningen":12769,"skjema":12770,"afsl":12771,"passion":12772,"fruktansvart":12773,"myn":12774,"manus":12775,"skriget":12776,"HV":12777,"read":12778,"skrivs":12779,"klog":12780,"fullstandigt":12781,"bia":12782,"brede":12783,"banor":12784,"besluttet":12785,"kompa":12786,"klippa":12787,"lastbil":12788,"arbejdes":12789,"syskon":12790,"strumpor":12791,"badoo":12792,"sana":12793,"fortsætte":12794,"nominer":12795,"viktigare":12796,"kommunerna":12797,"friluft":12798,"tarna":12799,"producera":12800,"tjejen":12801,"rente":12802,"PM":12803,"cket":12804,"Dina":12805,"fjarr":12806,"fysiskt":12807,"tuttar":12808,"ærlig":12809,"vasent":12810,"poly":12811,"Alltid":12812,"fjerde":12813,"konstatera":12814,"aktuellt":12815,"vikar":12816,"bukser":12817,"producenter":12818,"Deres":12819,"tilstede":12820,"guiden":12821,"mots":12822,"skran":12823,"byggdes":12824,"kampanjer":12825,"spris":12826,"implementer":12827,"sorter":12828,"iværks":12829,"andres":12830,"katten":12831,"rakningar":12832,"Soci":12833,"godkand":12834,"noter":12835,"Risk":12836,"storst":12837,"desember":12838,"Knut":12839,"smuligheder":12840,"speriod":12841,"skudd":12842,"sykkel":12843,"integration":12844,"losenord":12845,"pers":12846,"DVD":12847,"pys":12848,"meddela":12849,"Bog":12850,"trom":12851,"skjøn":12852,"helsingborg":12853,"teksten":12854,"slutat":12855,"interview":12856,"spet":12857,"lagstiftning":12858,"Mex":12859,"bblan":12860,"cum":12861,"drack":12862,"demokrater":12863,"arlige":12864,"bestyrelse":12865,"icera":12866,"depression":12867,"Louise":12868,"galen":12869,"skete":12870,"sters":12871,"Tour":12872,"begransat":12873,"billigaste":12874,"spets":12875,"bæredygt":12876,"orebro":12877,"There":12878,"'.":12879,"kilder":12880,"Beach":12881,"forni":12882,"medfører":12883,"Blanda":12884,"utvecklats":12885,"Aut":12886,"blr":12887,"naz":12888,"særdeles":12889,"hare":12890,"græs":12891,"darligt":12892,"Halmstad":12893,"nettopp":12894,"saljs":12895,"nodvandiga":12896,"lykkedes":12897,"Litt":12898,"Oppna":12899,"diplom":12900,"experter":12901,"behagelig":12902,"anvan":12903,"bensin":12904,"rapportering":12905,"ulin":12906,"forskere":12907,"retningslinjer":12908,"kassen":12909,"lister":12910,"komprom":12911,"framja":12912,"Utbild":12913,"tarta":12914,"dannet":12915,"deltagande":12916,"Bot":12917,"forebyggande":12918,"Central":12919,"Uden":12920,"Sista":12921,"dagars":12922,"Bør":12923,"atar":12924,"informera":12925,"kreativ":12926,"femin":12927,"yga":12928,"Famili":12929,"emar":12930,"skjor":12931,"University":12932,"mojligheterna":12933,"karton":12934,"gulvet":12935,"stur":12936,"Trev":12937,"hjør":12938,"ART":12939,"Senaste":12940,"rn":12941,"Stu":12942,"Ola":12943,"fikke":12944,"Barcelona":12945,"stiskt":12946,"unk":12947,"styrket":12948,"scor":12949,"talas":12950,"Erotik":12951,"1700":12952,"Skapa":12953,"sweden":12954,"1992":12955,"Cha":12956,"interesseret":12957,"stjerner":12958,"lung":12959,"hamtning":12960,"overveje":12961,"lyfter":12962,"traditionell":12963,"skapande":12964,"???":12965,"Øv":12966,"onska":12967,"cience":12968,"rejal":12969,"terapeut":12970,"tunge":12971,"avan":12972,"eskorte":12973,"høyde":12974,"tagande":12975,"slutten":12976,"cted":12977,"bedrifter":12978,"billetter":12979,"content":12980,"Roskilde":12981,"enskild":12982,"noggran":12983,"salen":12984,"emne":12985,"eloven":12986,"vender":12987,"afgørelse":12988,"udvikler":12989,"zu":12990,"arbetstag":12991,"1950":12992,"restaurangen":12993,"globala":12994,"hørte":12995,"mønster":12996,"Pati":12997,"larde":12998,"emon":12999,"Bolaget":13000,"Fire":13001,"aftaler":13002,"namna":13003,"potential":13004,"masker":13005,"sme":13006,"pilot":13007,"Happy":13008,"tika":13009,"danskere":13010,"derimod":13011,"Mattias":13012,"sterke":13013,"laborator":13014,"gilla":13015,"Via":13016,"global":13017,"Ljung":13018,"ely":13019,"fisken":13020,"Tru":13021,"anklag":13022,"opro":13023,"Baby":13024,"sorgen":13025,"kirurgi":13026,"pkt":13027,"Cap":13028,"intresset":13029,"smycken":13030,"Svensson":13031,"Avsugning":13032,"Iran":13033,"videregaende":13034,"sinn":13035,"eit":13036,"Wh":13037,"Blue":13038,"titeln":13039,"rettigheder":13040,"ledigt":13041,"forsam":13042,"bekvama":13043,"\"-":13044,"hm":13045,"trykke":13046,"tabelt":13047,"foreslas":13048,"yttet":13049,"life":13050,"rei":13051,"efterhand":13052,"deltagere":13053,"granskning":13054,"legitim":13055,"ray":13056,"upphandling":13057,"Sjuk":13058,"investerings":13059,"chanser":13060,"juden":13061,"slappte":13062,"udarbejdet":13063,"huru":13064,"ationerna":13065,"poolen":13066,"Cook":13067,"Dagbladet":13068,"utvalda":13069,"narhet":13070,"hei":13071,"Lav":13072,"Like":13073,"Hil":13074,"motorer":13075,"pdf":13076,"skjuta":13077,"gemenskap":13078,"primer":13079,"istan":13080,"skrivet":13081,"ersatta":13082,"paketet":13083,"pappers":13084,"borgen":13085,"civil":13086,"his":13087,"romantisk":13088,"stanger":13089,"Direkt":13090,"Sav":13091,"sadanne":13092,"policy":13093,"stjene":13094,"hones":13095,"FO":13096,"Innehall":13097,"sset":13098,"lest":13099,"gallde":13100,"sælge":13101,"trop":13102,"atorn":13103,"abent":13104,"garanterat":13105,"budsjett":13106,"unnga":13107,"Begge":13108,"Vare":13109,"givar":13110,"tide":13111,"robu":13112,"artikkel":13113,"DEN":13114,"allvarliga":13115,"lavede":13116,"nelsen":13117,"fotografering":13118,"fokuserar":13119,"utlandet":13120,"bg":13121,"vaxten":13122,"avlag":13123,"kallat":13124,"</":13125,"befal":13126,"uthyr":13127,"bac":13128,"mul":13129,"Match":13130,"Unga":13131,"gjer":13132,"russiske":13133,"jerne":13134,"versioner":13135,"Bast":13136,"Sommer":13137,"lyset":13138,"offen":13139,"ogat":13140,"Ci":13141,"halvar":13142,"manniskorna":13143,"Ostersund":13144,"nøgne":13145,"Servi":13146,"Annu":13147,"skyddar":13148,"Forsakring":13149,"spanska":13150,"behandle":13151,"forvarva":13152,"korrig":13153,"utbudet":13154,"konvention":13155,"Arena":13156,"jamna":13157,"heltid":13158,"garage":13159,"Vinter":13160,"landbrug":13161,"Glas":13162,"utvalget":13163,"enstaka":13164,"fortalt":13165,"kundens":13166,"ritu":13167,"usch":13168,"frø":13169,"livslang":13170,"kkeligt":13171,"ingens":13172,"dengang":13173,"anvandningen":13174,"Svend":13175,"isolering":13176,"Blon":13177,"tillgangligt":13178,"slipp":13179,"entreprenor":13180,"cykla":13181,"ankomst":13182,"heste":13183,"Skicka":13184,"dæk":13185,"Gick":13186,"identifiera":13187,"rider":13188,"spelautom":13189,"parfy":13190,"klinik":13191,"skred":13192,"Haller":13193,"splas":13194,"alg":13195,"officiella":13196,"sikter":13197,"ansk":13198,"hotos":13199,"Skont":13200,"maltider":13201,"aterforsaljare":13202,"Traffa":13203,"smo":13204,"handlare":13205,"stian":13206,"sticker":13207,"øjnene":13208,"ansigt":13209,"FS":13210,"discipl":13211,"ugn":13212,"trycker":13213,"Vak":13214,"varia":13215,"fotbolls":13216,"effektive":13217,"frost":13218,"PT":13219,"yren":13220,"arende":13221,"Sty":13222,"hing":13223,"fulgte":13224,"vitlok":13225,"Cont":13226,"tænkte":13227,"Ange":13228,"rubriken":13229,"centi":13230,"agarna":13231,"tænder":13232,"matlag":13233,"ledelsen":13234,"eksperi":13235,"kusten":13236,"kly":13237,"ssjuk":13238,"Vo":13239,"grattis":13240,"plasser":13241,"mild":13242,"telle":13243,"fylder":13244,"anteck":13245,"nordiska":13246,"gula":13247,"kendskab":13248,"skilja":13249,"nevnt":13250,"circa":13251,"kunderna":13252,"drama":13253,"netta":13254,"Mia":13255,"diskriminering":13256,"Eksem":13257,"armar":13258,"varumarke":13259,"skostnader":13260,"Him":13261,"dumt":13262,"slippe":13263,"Grattis":13264,"vaxel":13265,"barber":13266,"orange":13267,"oplevet":13268,"chokolade":13269,"lagring":13270,"rantor":13271,"plattor":13272,"Barnen":13273,"mentering":13274,"narvaro":13275,"Rid":13276,"mandat":13277,"arrangement":13278,"arier":13279,"IST":13280,"ines":13281,"Gymna":13282,"GL":13283,"kyst":13284,"Total":13285,"kaste":13286,"harom":13287,"HEL":13288,"komplex":13289,"drevet":13290,"Kungs":13291,"Digital":13292,"CO2":13293,"netto":13294,"forordningen":13295,"smslan":13296,"delat":13297,"skyddet":13298,"parørende":13299,"minder":13300,"hemskt":13301,"skyldighet":13302,"Lager":13303,"Hjar":13304,"Ill":13305,"sygdomme":13306,"indiker":13307,"morfar":13308,"minimal":13309,"blæ":13310,"forløbet":13311,"vinteren":13312,"licens":13313,"onskade":13314,"Jonsson":13315,"bik":13316,"nyder":13317,"vagarna":13318,"FL":13319,"Kirke":13320,"oke":13321,"sjunga":13322,"Viagra":13323,"Teen":13324,"Hei":13325,"etablere":13326,"innebærer":13327,"forkert":13328,"seier":13329,"ods":13330,"Life":13331,"5000":13332,"Stig":13333,"balance":13334,"avdrag":13335,"stom":13336,"cos":13337,"Justin":13338,"bange":13339,"lerne":13340,"tomat":13341,"viner":13342,"pancake":13343,"gur":13344,"Knullar":13345,"dik":13346,"inatt":13347,"Egen":13348,"Dre":13349,"beregnet":13350,"oppføl":13351,"nos":13352,"erades":13353,"fungerade":13354,"verne":13355,"aktenskap":13356,"Milj":13357,"kolhydr":13358,"demokrat":13359,"Herr":13360,"ellet":13361,"sigtet":13362,"matning":13363,"bollar":13364,"sberg":13365,"Vita":13366,"medvetna":13367,"aterstar":13368,"begaran":13369,"Gotaland":13370,"tilgængelig":13371,"leie":13372,"nul":13373,"Are":13374,"exponer":13375,"Fraga":13376,"Herren":13377,"svenskan":13378,"anfall":13379,"saljare":13380,"bevare":13381,"ventilation":13382,"attra":13383,"asikt":13384,"Fit":13385,"kvallar":13386,"lyste":13387,"Generisk":13388,"125":13389,"emat":13390,"junkt":13391,"tranat":13392,"smør":13393,"kære":13394,"desper":13395,"udstyret":13396,"normala":13397,"kasino":13398,"skes":13399,"kreft":13400,"wiki":13401,"Snabb":13402,"oma":13403,"Ønske":13404,"sattnings":13405,"chock":13406,"enheder":13407,"bemot":13408,"Lim":13409,"underhallning":13410,"ekort":13411,"puls":13412,"Cra":13413,"narm":13414,"SJ":13415,"okande":13416,"angst":13417,"tagare":13418,"Anledningen":13419,"lytte":13420,"statens":13421,"tradgards":13422,"vaskan":13423,"Still":13424,"portion":13425,"ganget":13426,"krut":13427,"fremtid":13428,"galopp":13429,"Midt":13430,"Schweiz":13431,"klick":13432,"dubbla":13433,"parlamentet":13434,"jubile":13435,"afdel":13436,"søster":13437,"melder":13438,"Boka":13439,"brudar":13440,"ledarskap":13441,"kladerna":13442,"fugle":13443,"Nastan":13444,"Finan":13445,"Handels":13446,"skivan":13447,"tillid":13448,"openhagen":13449,"reaktioner":13450,"smidler":13451,"diameter":13452,"tett":13453,"professionell":13454,"stilte":13455,"vallen":13456,"vagnar":13457,"MAR":13458,"Leif":13459,"paborj":13460,"sekreterare":13461,"døgn":13462,"anvants":13463,"løg":13464,"pc":13465,"uppfor":13466,"pur":13467,"Lika":13468,"krava":13469,"foraldra":13470,"Julia":13471,"rasjon":13472,"udlandet":13473,"yright":13474,"Gang":13475,"kemikal":13476,"fixade":13477,"forlat":13478,"nedre":13479,"mega":13480,"opplevelse":13481,"arbetsmiljo":13482,"ativet":13483,"Institut":13484,"Vester":13485,"ksjonen":13486,"filmerna":13487,"oppnas":13488,"sesongen":13489,"3000":13490,"sattas":13491,"istiske":13492,"generalforsamling":13493,"frage":13494,"!?":13495,"hyf":13496,"sningar":13497,"femini":13498,"Camilla":13499,"mem":13500,"informationer":13501,"terte":13502,"shemale":13503,"samtlige":13504,"publiceras":13505,"hangde":13506,"reste":13507,"tenker":13508,"motivation":13509,"bryn":13510,"markedsføring":13511,"firar":13512,"Kvar":13513,"godkant":13514,"tiltag":13515,"minnas":13516,"minnes":13517,"underlatt":13518,"jorde":13519,"ekonomin":13520,"fødselsdag":13521,"verken":13522,"Musi":13523,"sorters":13524,"Kors":13525,"Nike":13526,"numret":13527,"apoteket":13528,"360":13529,"ume":13530,"sparken":13531,"conta":13532,"reen":13533,"strun":13534,"handlat":13535,"smidig":13536,"miga":13537,"kopplad":13538,"placera":13539,"produkterna":13540,"sposi":13541,"narmar":13542,"motesplatsen":13543,"frid":13544,"muligvis":13545,"bakgrunden":13546,"beslutade":13547,"Bay":13548,"Kjell":13549,"forsker":13550,"trygt":13551,"kommuni":13552,"flod":13553,"uli":13554,"inkludert":13555,"givende":13556,"raddning":13557,"personligen":13558,"gardiner":13559,"endelige":13560,"sjunger":13561,"ISO":13562,"plugg":13563,"solid":13564,"Observera":13565,"overklag":13566,"nyanser":13567,"ulov":13568,"bestemme":13569,"maf":13570,"hypp":13571,"influen":13572,"gitarr":13573,"olycka":13574,"rediger":13575,"epis":13576,"kanalen":13577,"locka":13578,"dagene":13579,"hæl":13580,"Kong":13581,"kali":13582,"kassan":13583,"anpassad":13584,"Ej":13585,"anske":13586,"brukte":13587,"hamtar":13588,"foretage":13589,"utfordringer":13590,"klassifi":13591,"cykeln":13592,"fornøj":13593,"hammar":13594,"skickat":13595,"fixat":13596,"organisasjoner":13597,"lukt":13598,"VG":13599,"installningar":13600,"held":13601,"Fakt":13602,"deltagelse":13603,"onodigt":13604,"hoppar":13605,"dreng":13606,"majoritet":13607,"tilbag":13608,"Sop":13609,"omfattning":13610,"beliggende":13611,"stas":13612,"inas":13613,"drakt":13614,"representant":13615,"Oskar":13616,"aktionen":13617,"keg":13618,"Folket":13619,"aton":13620,"medborgar":13621,"hest":13622,"Ellers":13623,"tvekan":13624,"disken":13625,"baner":13626,"Hør":13627,"hensigt":13628,"vanilj":13629,"komne":13630,"Show":13631,"partiets":13632,"Afton":13633,"oand":13634,"sakaldte":13635,"internettet":13636,"This":13637,"maneden":13638,"Tall":13639,"Teater":13640,"flickvan":13641,"ØR":13642,"gasterna":13643,"Tomas":13644,"betæn":13645,"møbler":13646,"bly":13647,"ansøgning":13648,"kiska":13649,"genomfors":13650,"kopet":13651,"vendig":13652,"stillings":13653,"anvandarna":13654,"Journ":13655,"stravar":13656,"uppfylla":13657,"utrymmen":13658,"Hum":13659,"vul":13660,"smel":13661,"stiga":13662,"Body":13663,"forsøge":13664,"foretages":13665,"tappa":13666,"Betal":13667,"hyggelige":13668,"pastar":13669,"rammen":13670,"tilpasset":13671,"introduktion":13672,"panna":13673,"gentemot":13674,"dennes":13675,"namns":13676,"vardig":13677,"utforska":13678,"begag":13679,"oen":13680,"tidiga":13681,"tros":13682,"chili":13683,"klet":13684,"Troll":13685,"foralder":13686,"stilen":13687,"Eventu":13688,"tolkning":13689,"anmeldelser":13690,"Swe":13691,"Stats":13692,"dimensioner":13693,"riket":13694,"gluten":13695,"storleken":13696,"rommet":13697,"avkastning":13698,"driften":13699,"juice":13700,"ikop":13701,"riktar":13702,"impor":13703,"kkert":13704,"alogen":13705,"talets":13706,"nationale":13707,"stillede":13708,"FT":13709,"kust":13710,"skedde":13711,"beslutar":13712,"ст":13713,"optimalt":13714,"jattem":13715,"trykket":13716,"seras":13717,"debat":13718,"ending":13719,"Last":13720,"diesel":13721,"suver":13722,"mobile":13723,"Kund":13724,"rades":13725,"Mine":13726,"forsin":13727,"sentrum":13728,"berattelsen":13729,"Open":13730,"endvidere":13731,"arendet":13732,"smink":13733,"kemi":13734,"nadens":13735,"1991":13736,"Ukra":13737,"cet":13738,"tilfeller":13739,"farge":13740,"arbejdsgiver":13741,"home":13742,"berattig":13743,"giften":13744,"overhuvudtaget":13745,"presenterade":13746,"decen":13747,"boli":13748,"glans":13749,"Dit":13750,"feldt":13751,"sjukvarden":13752,"inlog":13753,"ovn":13754,"erstatning":13755,"vejer":13756,"givna":13757,"prylar":13758,"Victoria":13759,"prestanda":13760,"Od":13761,"vantan":13762,"stendig":13763,"kjenne":13764,"Kraft":13765,"minnet":13766,"friska":13767,"begyndelsen":13768,"redning":13769,"fronten":13770,"UV":13771,"Standard":13772,"benam":13773,"hodet":13774,"oppettider":13775,"optaget":13776,"brak":13777,"sjove":13778,"forutsattningarna":13779,"CR":13780,"bekymmer":13781,"bour":13782,"balkong":13783,"Ock":13784,"øger":13785,"iphone":13786,"undersøge":13787,"oftare":13788,"jp":13789,"vikling":13790,"Klin":13791,"nervos":13792,"infektion":13793,"dyka":13794,"Ari":13795,"leende":13796,"bestilling":13797,"vedlike":13798,"iva":13799,"seln":13800,"fanget":13801,"Sexy":13802,"stasjon":13803,"breda":13804,"øvelse":13805,"lampliga":13806,"mobb":13807,"basen":13808,"beliggen":13809,",«":13810,"betting":13811,"placeras":13812,"orkade":13813,"mødte":13814,"sjer":13815,"sikkerheds":13816,"samarbejd":13817,"anskaff":13818,"tjugo":13819,"egang":13820,"liknar":13821,"byggere":13822,"kreative":13823,"pud":13824,"call":13825,"godkendelse":13826,"anvandes":13827,"langden":13828,"Velkommen":13829,"overvakning":13830,"høsten":13831,"NRK":13832,"table":13833,"forsakringen":13834,"skabs":13835,"exklusiva":13836,"vedligeholdelse":13837,"upplag":13838,"kup":13839,"Bl":13840,"nude":13841,"trotta":13842,"Stavanger":13843,"frekven":13844,"kombinera":13845,"Torsdag":13846,"Frederik":13847,"nettstedet":13848,"konkurr":13849,"ansøg":13850,"verklig":13851,"verkstad":13852,"professionella":13853,"pojke":13854,"Mes":13855,"Portug":13856,"argumenter":13857,"ates":13858,"tillit":13859,"skadade":13860,"Oj":13861,"Smal":13862,"Olsen":13863,"hurtigere":13864,"Kapit":13865,"nevnte":13866,"revision":13867,"Lis":13868,"saktiviteter":13869,"Internation":13870,"tarm":13871,"kommunicera":13872,"fugt":13873,"slump":13874,"generationer":13875,"kulturer":13876,"oween":13877,"jole":13878,"delses":13879,"spid":13880,"værktøjer":13881,"øjeblikket":13882,"synnerhet":13883,"ights":13884,"knep":13885,"kigger":13886,"blade":13887,"FM":13888,"slagit":13889,"AIK":13890,"blø":13891,"Sæ":13892,"forbru":13893,"beakt":13894,"forventet":13895,"yttrande":13896,"opgaven":13897,"falde":13898,"bekanta":13899,"æren":13900,"forvanad":13901,"Regn":13902,"folks":13903,"djuren":13904,"junior":13905,"Fortsatt":13906,"gotland":13907,"Spørg":13908,"anvendt":13909,"grid":13910,"Logga":13911,"personalet":13912,"Bestalla":13913,"sche":13914,"size":13915,"May":13916,"uppdatering":13917,"hanterar":13918,"motta":13919,"myr":13920,"biten":13921,"idrotts":13922,"situasjonen":13923,"iPad":13924,"Egy":13925,"game":13926,"tappar":13927,"kjæresten":13928,"ated":13929,"cca":13930,"ssor":13931,"antas":13932,"stabilt":13933,"decenni":13934,"vidunder":13935,"ript":13936,"udlej":13937,"opposi":13938,"ages":13939,"varmare":13940,"VS":13941,"skvalitet":13942,"Klockan":13943,"hamnen":13944,"mut":13945,"møtte":13946,"delakt":13947,"Bemærk":13948,"ICA":13949,"rads":13950,"jak":13951,"lagsta":13952,"giganti":13953,"Fyl":13954,"konsulent":13955,"lova":13956,"Gott":13957,"avtalen":13958,"oprette":13959,"utvardering":13960,"samarbetet":13961,"serveras":13962,"Skj":13963,"Samsung":13964,"resurs":13965,"sanna":13966,"korna":13967,"hallbart":13968,"aterkommer":13969,"skriftligt":13970,"Tommy":13971,"Skill":13972,"stopper":13973,"EX":13974,"vannet":13975,"bedt":13976,"hylla":13977,"kopplade":13978,"stodet":13979,"dragit":13980,"ursprungliga":13981,"Tum":13982,"skylt":13983,"sjekke":13984,"brem":13985,"afhængig":13986,"udføre":13987,"vegne":13988,"forkni":13989,"finansinstitut":13990,"orka":13991,"prop":13992,"Pil":13993,"hastarna":13994,"løsningen":13995,"Egentligen":13996,"romer":13997,"pis":13998,"lengre":13999,"smitt":14000,"Step":14001,"lador":14002,"raknat":14003,"tankarna":14004,"agere":14005,"dybt":14006,"keborg":14007,"MER":14008,"korkort":14009,"lægen":14010,"Hill":14011,"BI":14012,"mejl":14013,"vitaminer":14014,"bilaga":14015,"slappt":14016,"smæssig":14017,"Prakti":14018,"regulering":14019,".«":14020,"købte":14021,"Godt":14022,"sakerheten":14023,"Champi":14024,"parat":14025,"øya":14026,"provet":14027,"hygien":14028,"strukturer":14029,"omal":14030,"allas":14031,"skota":14032,"begri":14033,"politikere":14034,"Slik":14035,"Randers":14036,"Multi":14037,"Fælles":14038,"aterbetalning":14039,"fft":14040,"utfors":14041,"Bruk":14042,"tavlings":14043,"affe":14044,"Born":14045,"fysik":14046,"ærende":14047,"IKEA":14048,"situasjon":14049,"Lasse":14050,"mum":14051,"slutter":14052,"vic":14053,"flygplatsen":14054,"slov":14055,"vinsten":14056,"webshop":14057,"Bjørn":14058,"udføres":14059,"apnet":14060,"rengøring":14061,"industrien":14062,"investera":14063,"ledaren":14064,"orke":14065,"sica":14066,"variation":14067,"RO":14068,"Ofte":14069,"Helena":14070,"klarat":14071,"skratta":14072,"barer":14073,"egenskaber":14074,"intelle":14075,"gut":14076,"ursakt":14077,"Special":14078,"motorn":14079,"bure":14080,"kjøkken":14081,"sengen":14082,"brittiska":14083,"begrens":14084,"ksjoner":14085,"pill":14086,"meligt":14087,"sformer":14088,"glommer":14089,"Vejle":14090,"usjoner":14091,"asjer":14092,"mynt":14093,"besluta":14094,"arsag":14095,"Opfyldt":14096,"munt":14097,"professionelle":14098,"kjøper":14099,"fylke":14100,"EP":14101,"øverste":14102,"Cafe":14103,"jat":14104,"oppdag":14105,"porten":14106,"sondags":14107,"drejer":14108,"’.":14109,"analysera":14110,"skamt":14111,"opfattelse":14112,"syftet":14113,"forberedel":14114,"pekar":14115,"jævn":14116,"servicen":14117,"derved":14118,"lotte":14119,"tomma":14120,"yderst":14121,"politikk":14122,"elleftea":14123,"varmer":14124,"kvinnorna":14125,"attraktiv":14126,"fattas":14127,"direktivet":14128,"tægter":14129,"Museum":14130,"Speciellt":14131,"idræ":14132,"individuelle":14133,"radsla":14134,"tales":14135,"skontroll":14136,"konfir":14137,"Holly":14138,"fremtidige":14139,"bedoma":14140,"stjanster":14141,"venlige":14142,"trinn":14143,"amerika":14144,"individuella":14145,"adcirca":14146,"Poul":14147,"pakker":14148,"Eskilstuna":14149,"alisera":14150,"ensamstaende":14151,"dækning":14152,"eto":14153,"preci":14154,"afrika":14155,"beslag":14156,"1600":14157,"exemplar":14158,"smaka":14159,"kyll":14160,"Entre":14161,"alvorlige":14162,"pant":14163,"foster":14164,"name":14165,"barndom":14166,"konkurranse":14167,"mistet":14168,"AK":14169,"mæn":14170,"Livs":14171,"størrelsen":14172,"lyssnade":14173,"sætningen":14174,"grati":14175,"portioner":14176,"skons":14177,"upplys":14178,"aftenen":14179,"verkande":14180,"Mette":14181,"bebyggelse":14182,"beslutat":14183,"Sas":14184,"uppgiften":14185,"oppar":14186,"demokratiska":14187,"uppenbart":14188,"statsminister":14189,"bygges":14190,"koppar":14191,"bibliote":14192,"installera":14193,"havdar":14194,"minde":14195,"nets":14196,"sosial":14197,"Ei":14198,"møtet":14199,"vasteras":14200,"suppler":14201,"kkef":14202,"ENT":14203,"viks":14204,"Personer":14205,"faglar":14206,"Sla":14207,"Viktor":14208,"kørt":14209,"beslutninger":14210,"flyga":14211,"blikk":14212,"Coun":14213,"langsomt":14214,"ønns":14215,"IKT":14216,"sante":14217,"oparti":14218,"stracker":14219,"danner":14220,"Programmet":14221,"bager":14222,"Ville":14223,"Antalet":14224,"GD":14225,"sium":14226,"drage":14227,"inven":14228,"motes":14229,"fange":14230,"principer":14231,"lugna":14232,"hemliga":14233,"club":14234,"overskri":14235,"hjerne":14236,"genu":14237,"manads":14238,"dell":14239,"behandlings":14240,"relevanta":14241,"uddannet":14242,"tankande":14243,"ræn":14244,"revolution":14245,"hjalpt":14246,"forbindelser":14247,"Formalet":14248,"Kvinde":14249,"dansa":14250,"avslutning":14251,"Stift":14252,"Kopenhamn":14253,"heterna":14254,"NOR":14255,"term":14256,"orsaken":14257,"agnar":14258,"godkannande":14259,"skoll":14260,"angri":14261,"registrert":14262,"startat":14263,"Supp":14264,"skulpt":14265,"stata":14266,"simul":14267,"slor":14268,"nodvandig":14269,"problemen":14270,"forrad":14271,"stracka":14272,"pick":14273,"gry":14274,"drin":14275,"synligt":14276,"sanka":14277,"indsigt":14278,"avslutade":14279,"selvstæn":14280,"arbejdsmiljø":14281,"vikles":14282,"auti":14283,"keligt":14284,"jour":14285,"utvi":14286,"naede":14287,"rekommender":14288,"HET":14289,"opskrifter":14290,"begynne":14291,"Menne":14292,"troligtvis":14293,"Frida":14294,"etiskt":14295,"Amanda":14296,"rass":14297,"Miss":14298,"centimeter":14299,"omdom":14300,"helbred":14301,"brygger":14302,"certifik":14303,"rakade":14304,"beredd":14305,"skrives":14306,"Vagbeskrivning":14307,"akul":14308,"emiddel":14309,"ministra":14310,"baksidan":14311,"omtrent":14312,"bokat":14313,"seriost":14314,"operativ":14315,"apparat":14316,"aliteten":14317,"kontrast":14318,"ledet":14319,"okon":14320,"sax":14321,"spridning":14322,"malar":14323,"forsakringar":14324,"Pia":14325,"godkjent":14326,"lovgivning":14327,"vandrare":14328,"milliarder":14329,"vardagsrum":14330,"bidrage":14331,"Ameri":14332,"traditioner":14333,"armband":14334,"unionen":14335,"Dec":14336,"utbildade":14337,"Gj":14338,"blott":14339,"haf":14340,"teste":14341,"ignor":14342,"nettapotek":14343,"stov":14344,"nete":14345,"sey":14346,"avn":14347,"melserna":14348,"negative":14349,"mjukt":14350,"arn":14351,"uret":14352,"White":14353,"Blo":14354,"kampag":14355,"læger":14356,"ætter":14357,"vardagsrummet":14358,"Strat":14359,"tjener":14360,"angreb":14361,"Tidligere":14362,"isten":14363,"interna":14364,"varon":14365,"leger":14366,"øvrig":14367,"tvek":14368,"kommunikasjon":14369,"aspe":14370,"knaden":14371,"fixar":14372,"doc":14373,"medicinska":14374,"gutter":14375,"ggr":14376,"engelske":14377,"key":14378,"peg":14379,"VR":14380,"stillende":14381,"dioxid":14382,"verkningar":14383,"boligen":14384,"Spill":14385,"search":14386,"Omradet":14387,"ekologiska":14388,"Aker":14389,"ansvars":14390,"arbetsmarknaden":14391,"missade":14392,"besokt":14393,"aksjon":14394,"kommentera":14395,"Ros":14396,"ssyn":14397,"ljusa":14398,"’,":14399,"strad":14400,"coc":14401,"kompon":14402,"coun":14403,"slem":14404,"sprit":14405,"oppleve":14406,"kartan":14407,"hjarn":14408,"sigten":14409,"infora":14410,"regner":14411,"tillhorande":14412,"orsaka":14413,"kjønn":14414,"vaben":14415,"travl":14416,"udgivet":14417,"sattes":14418,"Marian":14419,"religio":14420,"ern":14421,"ialis":14422,"BY":14423,"samarbejdet":14424,"Tv":14425,"Dalarna":14426,"aterkommande":14427,"Bull":14428,"sels":14429,"arligen":14430,"nærheden":14431,"smid":14432,"europæiske":14433,"klocka":14434,"Oh":14435,"Que":14436,"skane":14437,"utsatts":14438,"mia":14439,"neutr":14440,"inat":14441,"kravene":14442,"brot":14443,"Bestall":14444,"feedback":14445,"reiser":14446,"studenten":14447,"utrymmet":14448,"Girl":14449,"fisket":14450,"Kommunik":14451,"Klik":14452,"DEL":14453,"ideen":14454,"torp":14455,"tillverkade":14456,"varierande":14457,"avsikt":14458,"grense":14459,"Office":14460,"sell":14461,"karet":14462,"Innov":14463,"Dejta":14464,"følelsen":14465,"Win":14466,"opini":14467,"oben":14468,"Malm":14469,"Rosa":14470,"bestemmer":14471,"dirig":14472,"placerade":14473,"øjeblik":14474,"symtom":14475,"Ceci":14476,"Kronika":14477,"More":14478,"imponerande":14479,"tryggt":14480,"kjøpt":14481,"formiddag":14482,"samarbetar":14483,"bæ":14484,"Gull":14485,"mentalt":14486,"komplek":14487,"guid":14488,"platserna":14489,"medføre":14490,"opplever":14491,"Parker":14492,"cess":14493,"enklere":14494,"undervejs":14495,"producent":14496,"keram":14497,"friheten":14498,"halsan":14499,"Organis":14500,"px":14501,"tilhørende":14502,"kick":14503,"menade":14504,"vaske":14505,"Rej":14506,"Day":14507,"tilgængelige":14508,"Autom":14509,"doden":14510,"beredskap":14511,"Kanskje":14512,"bias":14513,"zar":14514,"fulle":14515,"quiz":14516,"heraf":14517,"partners":14518,"Heldigvis":14519,"konstaterar":14520,"lararna":14521,"sir":14522,"nyborj":14523,"kroppar":14524,"Europeiska":14525,"upphovs":14526,"scene":14527,"Street":14528,"endes":14529,"myndighed":14530,"NAT":14531,"forholdene":14532,"avslutas":14533,"uttrykk":14534,"dron":14535,"storningar":14536,"premium":14537,"afhænger":14538,"icap":14539,"cho":14540,"Prosjekt":14541,"Forel":14542,"missar":14543,"division":14544,"vestlige":14545,"oped":14546,"neuro":14547,"morgenmad":14548,"inkomster":14549,"ental":14550,"imøde":14551,"skytt":14552,"komite":14553,"adels":14554,"centrale":14555,"drifts":14556,"tull":14557,"Skandinavi":14558,"nal":14559,"rute":14560,"Finans":14561,"passande":14562,"fortsette":14563,"Biblio":14564,"varende":14565,"provade":14566,"etablert":14567,"Stads":14568,"gie":14569,"nifi":14570,"aliforni":14571,"kolleger":14572,"Valg":14573,"antibioti":14574,"',":14575,"rummen":14576,"Esbjerg":14577,"flytter":14578,"artist":14579,"rorande":14580,"skim":14581,"Mars":14582,"redusere":14583,"noggrann":14584,"trakig":14585,"tradgardar":14586,"undervisnings":14587,"shirt":14588,"mødt":14589,"utvecklare":14590,"Stal":14591,"flykting":14592,"vaskor":14593,"vendte":14594,"tilladelse":14595,"Passar":14596,"Kre":14597,"Rekommen":14598,"hornet":14599,"drømmer":14600,"foretrad":14601,"iets":14602,"afsted":14603,"Band":14604,"NM":14605,"kedja":14606,"gjennomføre":14607,"alistiska":14608,"bandy":14609,"gratt":14610,"dygtige":14611,"elektronik":14612,"intyg":14613,"samrad":14614,"ekstremt":14615,"edom":14616,"Inkop":14617,"fryg":14618,"verifi":14619,"avel":14620,"garen":14621,"kompati":14622,"Mart":14623,"skinen":14624,"holt":14625,"rabatter":14626,"plockade":14627,"Ahl":14628,"dagslaget":14629,"sanning":14630,"forsøk":14631,"interessante":14632,"angivet":14633,"registreret":14634,"forvejen":14635,"samtalet":14636,"spillerne":14637,"fatal":14638,"BU":14639,"leggende":14640,"Tun":14641,"Kalla":14642,"Sarskilt":14643,"Ytterligare":14644,"utna":14645,"fase":14646,"sho":14647,"Poker":14648,"Jean":14649,"onskan":14650,"tiderna":14651,"Hd":14652,"vanor":14653,"internett":14654,"flagg":14655,"Brom":14656,"apparater":14657,"utdelning":14658,"skun":14659,"kusin":14660,"oral":14661,"Bort":14662,"upplevt":14663,"kanel":14664,"pend":14665,"stycke":14666,"huvudvark":14667,"lash":14668,"deln":14669,"musikal":14670,"billigere":14671,"Holland":14672,"helikop":14673,"Topp":14674,"skifter":14675,"opdateret":14676,"undrade":14677,"returner":14678,"utse":14679,"bastu":14680,"Allian":14681,"tittat":14682,"medit":14683,"frekvens":14684,"købes":14685,"talare":14686,"Finansi":14687,"menu":14688,"slottet":14689,"Richard":14690,"Klo":14691,"bedriva":14692,"kammar":14693,"agde":14694,"Endelig":14695,"Alice":14696,"Hast":14697,"frivilligt":14698,"grin":14699,"stangd":14700,"hyper":14701,"tvar":14702,"browser":14703,"anledningar":14704,"holls":14705,"imot":14706,"anas":14707,"unikke":14708,"tunna":14709,"semestern":14710,"arbetsuppgifter":14711,"arme":14712,"bondage":14713,"jackpot":14714,"puss":14715,"sinstit":14716,"trygga":14717,"julafton":14718,"maken":14719,"Arkiv":14720,"pale":14721,"smartphone":14722,"oppgave":14723,"hungrig":14724,"tørre":14725,"Sofie":14726,"profesjon":14727,"Your":14728,"oppa":14729,"sien":14730,"bureau":14731,"klok":14732,"klund":14733,"enkat":14734,"mak":14735,"spontan":14736,"avancerade":14737,"grannar":14738,"vatska":14739,"torra":14740,"testade":14741,"Resten":14742,"Faktisk":14743,"rytt":14744,"holdninger":14745,"Arbejds":14746,"Hov":14747,"arab":14748,"Student":14749,"tappat":14750,"ason":14751,"SAM":14752,"GPS":14753,"OF":14754,"slapps":14755,"salu":14756,"Dela":14757,"kjøtt":14758,"Onsdag":14759,"dals":14760,"retro":14761,"forelasning":14762,"morkret":14763,"nøy":14764,"fjol":14765,"attack":14766,"internt":14767,"sklass":14768,"April":14769,"marknader":14770,"ument":14771,"referens":14772,"nadde":14773,"amin":14774,"cykler":14775,"Arbetet":14776,"flertalet":14777,"fjernet":14778,"villing":14779,"touch":14780,"ramt":14781,"Stør":14782,"million":14783,"Charlotte":14784,"oversigt":14785,"lotter":14786,"skikkelig":14787,"LAN":14788,"Videre":14789,"smakar":14790,"kold":14791,"tillverkad":14792,"vacka":14793,"fortiden":14794,"burk":14795,"Herefter":14796,"batteriet":14797,"Rød":14798,"efteraret":14799,"kvartalet":14800,"splikt":14801,"evner":14802,"pom":14803,"forhandler":14804,"skvallen":14805,"flask":14806,"Administr":14807,"serende":14808,"udendørs":14809,"søges":14810,"narkotika":14811,"beskæftigelse":14812,"DNA":14813,"urt":14814,"cou":14815,"tilknytning":14816,"Fokus":14817,"snø":14818,"spørgsmalet":14819,"skym":14820,"chester":14821,"EK":14822,"udvalgte":14823,"samtykke":14824,"General":14825,"kryds":14826,"underteck":14827,"timers":14828,"frammande":14829,"Afghan":14830,"Utbildning":14831,"svan":14832,"sprid":14833,"endre":14834,"almindeligt":14835,"innsats":14836,"Brøn":14837,"ares":14838,"forvente":14839,"(\"":14840,"nomin":14841,"upptacker":14842,"foraret":14843,"Vuxen":14844,"ockar":14845,"trolig":14846,"page":14847,"boede":14848,"regerings":14849,"kreativa":14850,"dages":14851,"skrap":14852,"Leder":14853,"jy":14854,"begra":14855,"nyttigt":14856,"salde":14857,"Sundheds":14858,"kommunikations":14859,"flodet":14860,"upptackt":14861,"anlaggningen":14862,"hundratals":14863,"anvender":14864,"abonnemang":14865,"Funder":14866,"stir":14867,"elevene":14868,"dygtig":14869,"ekologisk":14870,"utstallningen":14871,"Datum":14872,"Brasili":14873,"stroms":14874,"marg":14875,"rare":14876,"præget":14877,"bonde":14878,"tjansteman":14879,"Normalt":14880,"Andelen":14881,"grundades":14882,"detsamma":14883,"udsat":14884,"schema":14885,"mysiga":14886,"Royal":14887,"dyrare":14888,"fortelle":14889,"zin":14890,"regionala":14891,"sevard":14892,"terri":14893,"stenen":14894,"skyr":14895,"sterkt":14896,"samlinger":14897,"fad":14898,"udsen":14899,"katol":14900,"fristaende":14901,"selvsagt":14902,"Spo":14903,"race":14904,"axel":14905,"fortjanar":14906,"sjong":14907,"kanslig":14908,"forlorar":14909,"Sovjet":14910,"kameror":14911,"stralande":14912,"stadiet":14913,"bony":14914,"modig":14915,"registrerade":14916,"nyheds":14917,"dukker":14918,"ante":14919,"ating":14920,"modul":14921,"bedoms":14922,"konton":14923,"markligt":14924,"italienska":14925,"foruren":14926,"forlorat":14927,"Mos":14928,"Christina":14929,"Gal":14930,"Ox":14931,"kortere":14932,"reta":14933,"aftalen":14934,"kokos":14935,"rick":14936,"belaget":14937,"parna":14938,"Cialis":14939,"sjalvklar":14940,"flyger":14941,"Job":14942,"sau":14943,"Time":14944,"tillracklig":14945,"\",\"":14946,"Tol":14947,"right":14948,"pene":14949,"registret":14950,"Donald":14951,"affel":14952,"skrivande":14953,"overordnede":14954,"delad":14955,"adresser":14956,"italiensk":14957,"kalorier":14958,"Irak":14959,"racka":14960,"ways":14961,"premier":14962,"stanser":14963,"Ekstra":14964,
[...]
