{"version":"1.0","truncation":null,"padding":null,"added_tokens":[{"id":0,"special":true,"content":"<unk>","single_word":false,"lstrip":false,"rstrip":false,"normalized":false}],"normalizer":{"type":"Sequence","normalizers":[{"type":"NFD"},{"type":"StripAccents"}]},"pre_tokenizer":{"type":"Whitespace"},"post_processor":null,"decoder":{"type":"Metaspace","replacement":"▁","str_rep":"▁","add_prefix_space":true},"model":{"type":"BPE","dropout":null,"unk_token":null,"continuing_subword_prefix":null,"end_of_word_suffix":null,"fuse_unk":false,"vocab":{"<unk>":0,"\u0000":1,"\u0003":2,"\u0007":3,"\b":4,"\u001f":5,"!":6,"\"":7,"#":8,"$":9,"%":10,"&":11,"'":12,"(":13,")":14,"*":15,"+":16,",":17,"-":18,".":19,"/":20,"0":21,"1":22,"2":23,"3":24,"4":25,"5":26,"6":27,"7":28,"8":29,"9":30,":":31,";":32,"<":33,"=":34,">":35,"?":36,"@":37,"A":38,"B":39,"C":40,"D":41,"E":42,"F":43,"G":44,"H":45,"I":46,"J":47,"K":48,"L":49,"M":50,"N":51,"O":52,"P":53,"Q":54,"R":55,"S":56,"T":57,"U":58,"V":59,"W":60,"X":61,"Y":62,"Z":63,"[":64,"\\":65,"]":66,"^":67,"_":68,"`":69,"a":70,"b":71,"c":72,"d":73,"e":74,"f":75,"g":76,"h":77,"i":78,"j":79,"k":80,"l":81,"m":82,"n":83,"o":84,"p":85,"q":86,"r":87,"s":88,"t":89,"u":90,"v":91,"w":92,"x":93,"y":94,"z":95,"{":96,"|":97,"}":98,"~":99,"":100,"":101,"":102,"":103,"":104,"":105,"":106,"":107,"":108,"":109,"¡":110,"¢":111,"£":112,"¤":113,"¥":114,"¦":115,"§":116,"¨":117,"©":118,"«":119,"¬":120,"­":121,"®":122,"¯":123,"°":124,"±":125,"²":126,"³":127,"´":128,"µ":129,"¶":130,"·":131,"¹":132,"º":133,"»":134,"¼":135,"½":136,"¾":137,"¿":138,"Æ":139,"Ð":140,"×":141,"Ø":142,"Þ":143,"ß":144,"æ":145,"ð":146,"÷":147,"ø":148,"þ":149,"Đ":150,"đ":151,"ı":152,"Ł":153,"ł":154,"Œ":155,"œ":156,"ƒ":157,"ə":158,"ɛ":159,"ʹ":160,"ˆ":161,"ˈ":162,"˚":163,"ˮ":164,"ͼ":165,"Α":166,"Δ":167,"Ε":168,"Ι":169,"Ο":170,"Π":171,"Σ":172,"Φ":173,"Ω":174,"α":175,"β":176,"γ":177,"δ":178,"ε":179,"η":180,"θ":181,"ι":182,"κ":183,"λ":184,"μ":185,"ν":186,"ξ":187,"ο":188,"π":189,"ρ":190,"ς":191,"σ":192,"τ":193,"υ":194,"φ":195,"χ":196,"ω":197,"ϕ":198,"Ђ":199,"Ѕ":200,"І":201,"Љ":202,"А":203,"Б":204,"В":205,"Г":206,"Д":207,"Е":208,"Ж":209,"З":210,"И":211,"К":212,"Л":213,"М":214,"Н":215,"О":216,"П":217,"Р":218,"С":219,"Т":220,"У":221,"Ф":222,"Х":223,"Ц":224,"Ч":225,"Ш":226,"Щ":227,"Ы":228,"Э":229,"Я":230,"а":231,"б":232,"в":233,"г":234,"д":235,"е":236,"ж":237,"з":238,"и":239,"к":240,"л":241,"м":242,"н":243,"о":244,"п":245,"р":246,"с":247,"т":248,"у":249,"ф":250,"х":251,"ц":252,"ч":253,"ш":254,"щ":255,"ъ":256,"ы":257,"ь":258,"э":259,"ю":260,"я":261,"ѕ":262,"і":263,"ј":264,"Ґ":265,"ґ":266,"һ":267,"ա":268,"א":269,"ב":270,"ד":271,"ה":272,"ו":273,"ח":274,"י":275,"כ":276,"ל":277,"ם":278,"מ":279,"נ":280,"ס":281,"ע":282,"פ":283,"ק":284,"ר":285,"ש":286,"ת":287,"،":288,"ء":289,"ا":290,"ب":291,"ة":292,"ت":293,"ث":294,"ج":295,"ح":296,"خ":297,"د":298,"ذ":299,"ر":300,"ز":301,"س":302,"ش":303,"ص":304,"ض":305,"ط":306,"ع":307,"غ":308,"ـ":309,"ف":310,"ق":311,"ك":312,"ل":313,"م":314,"ن":315,"ه":316,"و":317,"ى":318,"ي":319,"پ":320,"چ":321,"ک":322,"گ":323,"ی":324,"क":325,"त":326,"द":327,"न":328,"प":329,"म":330,"य":331,"र":332,"ल":333,"व":334,"स":335,"ह":336,"ক":337,"ন":338,"ব":339,"য":340,"র":341,"க":342,"த":343,"ன":344,"ப":345,"ம":346,"ர":347,"ก":348,"ข":349,"ค":350,"ง":351,"จ":352,"ช":353,"ด":354,"ต":355,"ท":356,"น":357,"บ":358,"ป":359,"พ":360,"ม":361,"ย":362,"ร":363,"ล":364,"ว":365,"ส":366,"ห":367,"อ":368,"ะ":369,"า":370,"เ":371,"แ":372,"โ":373,"ไ":374,"ა":375,"ე":376,"ი":377,"ᄀ":378,"ᄂ":379,"ᄃ":380,"ᄅ":381,"ᄆ":382,"ᄇ":383,"ᄉ":384,"ᄋ":385,"ᄌ":386,"ᄎ":387,"ᄐ":388,"ᄑ":389,"ᄒ":390,"ᅡ":391,"ᅢ":392,"ᅥ":393,"ᅦ":394,"ᅧ":395,"ᅩ":396,"ᅪ":397,"ᅭ":398,"ᅮ":399,"ᅳ":400,"ᅵ":401,"ᆨ":402,"ᆫ":403,"ᆯ":404,"ᆷ":405,"ᆸ":406,"ᆼ":407,"ᐈ":408,"​":409,"‌":410,"‍":411,"‎":412,"‐":413,"‑":414,"‒":415,"–":416,"—":417,"‘":418,"’":419,"‚":420,"“":421,"”":422,"„":423,"†":424,"‡":425,"•":426,"…":427,"‪":428,"‬":429,"′":430,"″":431,"‹":432,"›":433,"₨":434,"€":435,"℃":436,"№":437,"™":438,"←":439,"↑":440,"→":441,"↓":442,"⇒":443,"−":444,"√":445,"≤":446,"≥":447,"─":448,"■":449,"□":450,"▪":451,"▲":452,"▶":453,"►":454,"▻":455,"▼":456,"○":457,"●":458,"☀":459,"★":460,"☆":461,"☺":462,"♀":463,"♡":464,"♣":465,"♥":466,"♦":467,"✅":468,"✌":469,"✓":470,"✔":471,"✚":472,"✨":473,"✭":474,"✰":475,"❄":476,"❑":477,"❤":478,"➔":479,"⠀":480,"⭐":481,"Ⰰ":482,"、":483,"。":484,"「":485,"」":486,"【":487,"】":488,"あ":489,"い":490,"う":491,"え":492,"お":493,"か":494,"き":495,"く":496,"け":497,"こ":498,"さ":499,"し":500,"す":501,"せ":502,"そ":503,"た":504,"ち":505,"っ":506,"つ":507,"て":508,"と":509,"な":510,"に":511,"の":512,"は":513,"ま":514,"み":515,"め":516,"も":517,"や":518,"よ":519,"ら":520,"り":521,"る":522,"れ":523,"わ":524,"を":525,"ん":526,"ア":527,"ィ":528,"イ":529,"ウ":530,"ェ":531,"エ":532,"オ":533,"カ":534,"キ":535,"ク":536,"ケ":537,"コ":538,"サ":539,"シ":540,"ス":541,"セ":542,"タ":543,"チ":544,"ッ":545,"ツ":546,"テ":547,"ト":548,"ナ":549,"ニ":550,"ネ":551,"ハ":552,"ヒ":553,"フ":554,"ヘ":555,"ホ":556,"マ":557,"ミ":558,"ム":559,"メ":560,"モ":561,"ャ":562,"ュ":563,"ョ":564,"ラ":565,"リ":566,"ル":567,"レ":568,"ロ":569,"ワ":570,"ン":571,"・":572,"ー":573,"䄀":574,"䈀":575,"䌀":576,"䐀":577,"䔀":578,"䜀":579,"䠀":580,"䤀":581,"䬀":582,"䰀":583,"䴀":584,"一":585,"万":586,"三":587,"上":588,"下":589,"不":590,"与":591,"世":592,"业":593,"东":594,"个":595,"中":596,"为":597,"主":598,"么":599,"之":600,"乐":601,"九":602,"也":603,"买":604,"了":605,"争":606,"事":607,"二":608,"于":609,"五":610,"交":611,"产":612,"京":613,"人":614,"什":615,"今":616,"他":617,"仙":618,"代":619,"以":620,"们":621,"件":622,"伀":623,"会":624,"位":625,"体":626,"何":627,"作":628,"你":629,"使":630,"供":631,"保":632,"信":633,"元":634,"光":635,"免":636,"入":637,"全":638,"八":639,"公":640,"六":641,"内":642,"円":643,"册":644,"准":645,"出":646,"刀":647,"分":648,"划":649,"利":650,"到":651,"制":652,"前":653,"力":654,"加":655,"务":656,"动":657,"势":658,"動":659,"匀":660,"化":661,"北":662,"区":663,"十":664,"单":665,"南":666,"博":667,"原":668,"县":669,"及":670,"双":671,"发":672,"取":673,"口":674,"可":675,"台":676,"号":677,"司":678,"吀":679,"合":680,"同":681,"名":682,"后":683,"吗":684,"和":685,"品":686,"哪":687,"唀":688,"商":689,"嘀":690,"器":691,"四":692,"回":693,"国":694,"图":695,"在":696,"地":697,"场":698,"址":699,"坛":700,"城":701,"場":702,"外":703,"多":704,"大":705,"天":706,"奖":707,"女":708,"好":709,"如":710,"姐":711,"娱":712,"婆":713,"子":714,"字":715,"学":716,"安":717,"官":718,"定":719,"宝":720,"实":721,"客":722,"家":723,"富":724,"对":725,"小":726,"少":727,"就":728,"尾":729,"展":730,"山":731,"川":732,"州":733,"工":734,"巧":735,"市":736,"平":737,"年":738,"广":739,"庆":740,"库":741,"店":742,"度":743,"建":744,"开":745,"式":746,"当":747,"录":748,"彩":749,"影":750,"律":751,"得":752,"微":753,"心":754,"必":755,"快":756,"怎":757,"思":758,"性":759,"情":760,"意":761,"感":762,"戏":763,"成":764,"我":765,"户":766,"所":767,"手":768,"打":769,"技":770,"投":771,"报":772,"挂":773,"推":774,"提":775,"播":776,"教":777,"数":778,"文":779,"料":780,"斯":781,"新":782,"方":783,"无":784,"日":785,"时":786,"明":787,"星":788,"是":789,"時":790,"更":791,"最":792,"月":793,"有":794,"服":795,"期":796,"本":797,"机":798,"杀":799,"来":800,"東":801,"枚":802,"果":803,"校":804,"样":805,"格":806,"業":807,"正":808,"比":809,"民":810,"氓":811,"水":812,"江":813,"河":814,"法":815,"波":816,"注":817,"活":818,"流":819,"测":820,"海":821,"港":822,"游":823,"澳":824,"点":825,"爱":826,"片":827,"版":828,"牌":829,"牛":830,"物":831,"特":832,"狗":833,"玄":834,"王":835,"玩":836,"现":837,"球":838,"理":839,"生":840,"用":841,"田":842,"电":843,"画":844,"登":845,"白":846,"百":847,"的":848,"目":849,"盲":850,"直":851,"相":852,"看":853,"県":854,"真":855,"着":856,"知":857,"码":858,"社":859,"神":860,"票":861,"福":862,"科":863,"程":864,"空":865,"站":866,"第":867,"等":868,"算":869,"管":870,"精":871,"系":872,"红":873,"线":874,"组":875,"经":876,"结":877,"网":878,"美":879,"群":880,"老":881,"者":882,"肖":883,"能":884,"自":885,"色":886,"花":887,"行":888,"表":889,"西":890,"要":891,"规":892,"视":893,"解":894,"计":895,"记":896,"论":897,"诗":898,"财":899,"费":900,"资":901,"赌":902,"赛":903,"赢":904,"走":905,"足":906,"跑":907,"路":908,"车":909,"软":910,"载":911,"过":912,"这":913,"进":914,"送":915,"选":916,"通":917,"道":918,"部":919,"都":920,"里":921,"重":922,"金":923,"钱":924,"长":925,"間":926,"门":927,"际":928,"限":929,"院":930,"集":931,"霸":932,"面":933,"音":934,"预":935,"食":936,"香":937,"马":938,"高":939,"黄":940,"龙":941,"":942,"ﬁ":943,"ﬂ":944,"﻿":945,"！":946,"（":947,"）":948,"，":949,"：":950,"ｩ":951,"ｲ":952,"ﾞ":953,"�":954,"𝐞":955,"🌟":956,"🌸":957,"🎉":958,"🏻":959,"🏼":960,"👊":961,"👌":962,"👍":963,"👏":964,"💕":965,"💖":966,"💗":967,"💙":968,"💚":969,"💛":970,"💜":971,"💪":972,"🔥":973,"😀":974,"😁":975,"😂":976,"😃":977,"😄":978,"😅":979,"😆":980,"😉":981,"😊":982,"😋":983,"😍":984,"😎":985,"😘":986,"😛":987,"😜":988,"😦":989,"😬":990,"😱":991,"😳":992,"🙁":993,"🙂":994,"🙄":995,"🙈":996,"🙌":997,"🙏":998,"🤔":999,"🤗":1000,"ar":1001,"an":1002,"er":1003,"en":1004,"or":1005,"in":1006,"at":1007,"et":1008,"ll":1009,"st":1010,"om":1011,"ag":1012,"de":1013,"oc":1014,"att":1015,"och":1016,"ig":1017,"sk":1018,"for":1019,"on":1020,"ti":1021,"sa":1022,"ing":1023,"al":1024,"ed":1025,"pa":1026,"ra":1027,"na":1028,"var":1029,"vi":1030,"det":1031,"som":1032,"te":1033,"av":1034,"all":1035,"re":1036,"med":1037,"li":1038,"ck":1039,"un":1040,"and":1041,"ut":1042,"till":1043,"el":1044,"den":1045,"har":1046,"ta":1047,"ter":1048,"pp":1049,"ning":1050,"la":1051,"lig":1052,"jag":1053,"ro":1054,"ri":1055,"ver":1056,"ska":1057,"man":1058,"ss":1059,"der":1060,"it":1061,"kan":1062,"kt":1063,"ka":1064,"il":1065,"ma":1066,"ot":1067,"inte":1068,"va":1069,"ran":1070,"ol":1071,"da":1072,"sta":1073,"ett":1074,"ell":1075,"du":1076,"kom":1077,"sp":1078,"ang":1079,"men":1080,"ur":1081,"be":1082,"le":1083,"mer":1084,"ade":1085,"are":1086,"se":1087,"upp":1088,"ati":1089,"ho":1090,"as":1091,"sam":1092,"inn":1093,"si":1094,"ju":1095,"ande":1096,"het":1097,"bar":1098,"nar":1099,"ga":1100,"em":1101,"dag":1102,"ok":1103,"ser":1104,"ha":1105,"Det":1106,"yck":1107,"og":1108,"far":1109,"lag":1110,"..":1111,"fa":1112,"sen":1113,"min":1114,"ock":1115,"dig":1116,"eller":1117,"fran":1118,"lar":1119,"ort":1120,"bet":1121,"val":1122,"fter":1123,"gen":1124,"ch":1125,"mar":1126,"gi":1127,"gar":1128,"per":1129,"nag":1130,"ba":1131,"bli":1132,"ru":1133,"dar":1134,"ko":1135,"sig":1136,"kon":1137,"nu":1138,"bor":1139,"di":1140,"ation":1141,"ligt":1142,"gor":1143,"alla":1144,"sl":1145,"mo":1146,"han":1147,"ny":1148,"tt":1149,"vara":1150,"under":1151,"fi":1152,"es":1153,"hel":1154,"ram":1155,"del":1156,"kti":1157,"Vi":1158,"ni":1159,"pro":1160,"over":1161,"satt":1162,"Jag":1163,"ker":1164,"van":1165,"od":1166,"stor":1167,"bil":1168,"ja":1169,"gr":1170,"pl":1171,"ull":1172,"ger":1173,"ste":1174,"ad":1175,"bl":1176,"ster":1177,"ber":1178,"itt":1179,"kar":1180,"jal":1181,"ve":1182,"00":1183,"kommer":1184,"ven":1185,"je":1186,"ex":1187,"ul":1188,"efter":1189,"ann":1190,"ens":1191,"red":1192,"sin":1193,"mig":1194,"is":1195,"ft":1196,"und":1197,"yg":1198,"tra":1199,"us":1200,"am":1201,"igt":1202,"fl":1203,"son":1204,"stall":1205,"vill":1206,"hand":1207,"dr":1208,"bb":1209,"bara":1210,"vis":1211,"me":1212,"hall":1213,"vet":1214,"tid":1215,"ycket":1216,"ken":1217,"vid":1218,"finn":1219,"ater":1220,"bra":1221,"liga":1222,"tal":1223,"gang":1224,"ill":1225,"For":1226,"mot":1227,"andra":1228,"arbet":1229,"po":1230,"lite":1231,"lang":1232,"fram":1233,"star":1234,"vand":1235,"kr":1236,"mycket":1237,"ans":1238,"finns":1239,"ingen":1240,"par":1241,"sy":1242,"20":1243,"jo":1244,"verk":1245,"lo":1246,"tr":1247,"ner":1248,"hon":1249,"ningar":1250,"sag":1251,"hem":1252,"ningen":1253,"lan":1254,"ligen":1255,"ff":1256,"um":1257,"tan":1258,"era":1259,"mal":1260,"ats":1261,"ocksa":1262,"tar":1263,"din":1264,"spel":1265,"jt":1266,"iga":1267,"des":1268,"so":1269,"bo":1270,"slut":1271,"kun":1272,"aven":1273,"allt":1274,"fin":1275,"vag":1276,"hur":1277,"tre":1278,"En":1279,"ratt":1280,"vil":1281,"sti":1282,"hade":1283,"ulle":1284,"ble":1285,"In":1286,"nat":1287,"Men":1288,"veck":1289,"vad":1290,"tag":1291,"edan":1292,"tro":1293,"ling":1294,"mat":1295,"svar":1296,"arna":1297,"skri":1298,"lika":1299,"mor":1300,"ten":1301,"skulle":1302,"land":1303,"ty":1304,"erna":1305,"mi":1306,"An":1307,"blir":1308,"ds":1309,"kla":1310,"kv":1311,"utan":1312,"De":1313,"...":1314,"Den":1315,"bi":1316,"skt":1317,"ket":1318,"str":1319,"ne":1320,"dom":1321,"pr":1322,"ge":1323,"kor":1324,"kna":1325,"fall":1326,"lu":1327,"fr":1328,"fil":1329,"ci":1330,"beho":1331,"person":1332,"anvand":1333,"sjal":1334,"led":1335,"klar":1336,"ce":1337,"jer":1338,"gora":1339,"nagon":1340,"201":1341,"St":1342,"fol":1343,"mil":1344,"saker":1345,"genom":1346,"dejt":1347,"sok":1348,"pre":1349,"oss":1350,"sex":1351,"form":1352,"digt":1353,"ord":1354,"fatt":1355,"kra":1356,"dan":1357,"Har":1358,"orr":1359,"jan":1360,"lla":1361,"jar":1362,"ske":1363,"fort":1364,"ud":1365,"nagot":1366,"pen":1367,"no":1368,"manga":1369,"barn":1370,"forsta":1371,"dejting":1372,"detta":1373,"inne":1374,"ent":1375,"ppa":1376,"met":1377,"samt":1378,"lin":1379,"pri":1380,"sten":1381,"hal":1382,"dat":1383,"dem":1384,"gj":1385,"yr":1386,"fick":1387,"sedan":1388,"fe":1389,"ende":1390,"fri":1391,"ktion":1392,"nings":1393,"os":1394,"stan":1395,"mun":1396,"skap":1397,"he":1398,"frag":1399,"of":1400,"tva":1401,"opp":1402,"helt":1403,"tion":1404,"Sa":1405,"olika":1406,"bland":1407,"kel":1408,"batt":1409,"atis":1410,"heter":1411,"by":1412,"verig":1413,"vin":1414,"las":1415,"sjalv":1416,"rikt":1417,"hol":1418,"byg":1419,"hi":1420,"kter":1421,"blev":1422,"vit":1423,"ott":1424,"19":1425,"dre":1426,"hela":1427,"maste":1428,"spe":1429,"br":1430,"igen":1431,"rum":1432,"ke":1433,"fy":1434,"hog":1435,"hjal":1436,"Om":1437,"ant":1438,"skar":1439,"mn":1440,"itta":1441,"nagra":1442,"Var":1443,"ala":1444,"gan":1445,"Pa":1446,"hus":1447,"lat":1448,"Ar":1449,"ingar":1450,"ets":1451,"vs":1452,"res":1453,"hor":1454,"rad":1455,"age":1456,"aren":1457,"Sverig":1458,"ellan":1459,"varit":1460,"nya":1461,"Och":1462,"moj":1463,"utom":1464,"ult":1465,"denna":1466,"cka":1467,"etag":1468,"sven":1469,"skor":1470,"tran":1471,"fun":1472,"tern":1473,"samma":1474,"lad":1475,").":1476,"Du":1477,"heten":1478,"tyck":1479,"inom":1480,"ts":1481,"holm":1482,"skol":1483,"mass":1484,"Nar":1485,"samman":1486,"cer":1487,"hu":1488,"bild":1489,"sna":1490,"ssa":1491,"kop":1492,"ella":1493,"mellan":1494,"bu":1495,"yd":1496,"idag":1497,"vatt":1498,"slag":1499,"su":1500,"ssi":1501,"foretag":1502,"sal":1503,"innan":1504,"vikt":1505,"sla":1506,"dagen":1507,"kta":1508,"bro":1509,"bju":1510,"tor":1511,"ings":1512,"10":1513,"ly":1514,"mp":1515,"hen":1516,"ski":1517,"ki":1518,"anda":1519,"ata":1520,"nas":1521,"annat":1522,"ia":1523,"lagg":1524,"Nu":1525,"kanske":1526,"run":1527,"kommun":1528,"egen":1529,"sson":1530,"sju":1531,"produ":1532,"yn":1533,"do":1534,"stand":1535,"stu":1536,"bok":1537,"mitt":1538,"eg":1539,"pel":1540,"utveck":1541,"ockholm":1542,"full":1543,"plan":1544,"vilket":1545,"latt":1546,"bru":1547,"gratis":1548,"ym":1549,"itet":1550,"sma":1551,"ban":1552,"aldr":1553,"we":1554,"dra":1555,"vart":1556,"ca":1557,"Sverige":1558,"aller":1559,"hos":1560,"ir":1561,"bade":1562,"sina":1563,"tiden":1564,"op":1565,"orn":1566,"cen":1567,"yt":1568,"dessa":1569,"behover":1570,"kunna":1571,"manni":1572,"varl":1573,"stad":1574,"kort":1575,"stora":1576,"gick":1577,"id":1578,"skil":1579,"kl":1580,"sager":1581,"stam":1582,"stra":1583,"ov":1584,"gra":1585,"200":1586,"bygg":1587,"ote":1588,"basta":1589,"vt":1590,"ror":1591,"plats":1592,"akt":1593,"ring":1594,"alltid":1595,"ks":1596,"dor":1597,"iska":1598,"sar":1599,"fore":1600,"else":1601,"gran":1602,"fast":1603,"kvall":1604,"Han":1605,"milj":1606,"to":1607,"pass":1608,"nog":1609,"ns":1610,"kvar":1611,"ug":1612,"ung":1613,"Med":1614,"sion":1615,"borg":1616,"fon":1617,"alt":1618,"namn":1619,"tress":1620,"ele":1621,"valdigt":1622,"Ma":1623,"komma":1624,"riktigt":1625,"just":1626,"bel":1627,"erade":1628,"sko":1629,"liv":1630,"lighet":1631,"ffe":1632,"reg":1633,"lam":1634,"nad":1635,"nen":1636,"kte":1637,"visa":1638,"18":1639,"ment":1640,"mu":1641,"tu":1642,"Mar":1643,"god":1644,"varje":1645,"Att":1646,"drag":1647,"sitt":1648,"Re":1649,"sor":1650,"rel":1651,"ali":1652,"lik":1653,"pu":1654,"formation":1655,"flera":1656,"!!":1657,"ic":1658,"pe":1659,"enda":1660,"gon":1661,"Un":1662,"grund":1663,"sol":1664,"Sk":1665,"battre":1666,"kade":1667,"fot":1668,"hitta":1669,"tje":1670,"fan":1671,"tycker":1672,"stod":1673,"ren":1674,"sida":1675,"vax":1676,"job":1677,"ps":1678,"skon":1679,"mmar":1680,"innor":1681,"akti":1682,"galler":1683,"ast":1684,"haller":1685,"bort":1686,"deras":1687,"intress":1688,"ier":1689,"Man":1690,"ellt":1691,"15":1692,"dess":1693,"gjor":1694,"bilder":1695,"verkligen":1696,"kommen":1697,"gram":1698,"ofta":1699,"spar":1700,"kost":1701,"rekt":1702,"poli":1703,"sch":1704,"ik":1705,"mina":1706,"blog":1707,"eftersom":1708,"Sex":1709,"lever":1710,"jobb":1711,"kli":1712,"nor":1713,"grupp":1714,"skall":1715,"Efter":1716,"tidig":1717,"berg":1718,"hy":1719,"ina":1720,"Jo":1721,"empel":1722,"tog":1723,"ller":1724,"kro":1725,"sit":1726,"annan":1727,"Da":1728,"erbju":1729,"gre":1730,"ej":1731,"ial":1732,"manniskor":1733,"co":1734,"llar":1735,"Detta":1736,"30":1737,"ham":1738,"stallet":1739,"dagar":1740,"porr":1741,"dock":1742,"satta":1743,"runt":1744,"stem":1745,"tjan":1746,"fo":1747,"morgon":1748,"Stockholm":1749,"baka":1750,"kunde":1751,"gam":1752,"sammans":1753,"lek":1754,"garna":1755,"tack":1756,"tera":1757,"sm":1758,"sett":1759,"konta":1760,"syn":1761,"film":1762,"borj":1763,"mest":1764,"gjort":1765,"enkel":1766,"ering":1767,"lju":1768,"tror":1769,"ationer":1770,"hjalp":1771,"verksam":1772,"plat":1773,"alen":1774,"mark":1775,"klart":1776,"aldrig":1777,"kring":1778,"erar":1779,"dri":1780,"ligger":1781,"sikt":1782,"svenska":1783,"ate":1784,"svart":1785,"12":1786,"ie":1787,"bol":1788,"information":1789,"Ja":1790,"gifter":1791,"omra":1792,"tidigt":1793,"konst":1794,"exempel":1795,"beratt":1796,"huv":1797,"dens":1798,"speci":1799,"redan":1800,"arbete":1801,"kall":1802,"talet":1803,"kni":1804,"snabb":1805,"ditt":1806,"line":1807,"massage":1808,"aste":1809,"lyck":1810,"mang":1811,"Som":1812,"ars":1813,"Li":1814,"halla":1815,"vatten":1816,"dags":1817,"ute":1818,"nytt":1819,"app":1820,"tidigare":1821,"ktiskt":1822,"isk":1823,"fler":1824,"hemma":1825,"jekt":1826,"gjorde":1827,"go":1828,"bri":1829,"betal":1830,"dina":1831,"vide":1832,":)":1833,"komp":1834,"kri":1835,"soker":1836,"tillbaka":1837,"sc":1838,"proble":1839,"ighet":1840,"enligt":1841,"sidan":1842,"tillsammans":1843,"honom":1844,"kur":1845,"Till":1846,"Ett":1847,"kvinnor":1848,"mon":1849,"sak":1850,"sn":1851,"yl":1852,"erad":1853,"folk":1854,"rar":1855,"50":1856,"atte":1857,"san":1858,"rak":1859,"anden":1860,"uni":1861,"Sven":1862,"mma":1863,"natt":1864,"agen":1865,"Al":1866,"delar":1867,"natur":1868,"proc":1869,"regi":1870,"net":1871,"klu":1872,"direkt":1873,"Gr":1874,"Be":1875,"orna":1876,"fle":1877,"folj":1878,"handling":1879,"lit":1880,"lev":1881,"cker":1882,"ton":1883,"ien":1884,"skolan":1885,"nes":1886,"tryck":1887,"markna":1888,"sty":1889,"webb":1890,"kanner":1891,"saga":1892,"tit":1893,"ys":1894,"nade":1895,"skyd":1896,"pan":1897,"soka":1898,"ades":1899,"mm":1900,"faktiskt":1901,"ultat":1902,"fru":1903,"hans":1904,"haft":1905,"lle":1906,"sjuk":1907,"sommar":1908,"ator":1909,"kul":1910,"andel":1911,"vard":1912,"sadan":1913,"presen":1914,"fel":1915,"ppas":1916,"All":1917,"cis":1918,"tade":1919,"hop":1920,"infor":1921,"anvanda":1922,"eter":1923,"),":1924,"jor":1925,"tur":1926,"liten":1927,"kande":1928,"000":1929,"snar":1930,"bla":1931,"11":1932,"mindre":1933,"kten":1934,"dal":1935,"cy":1936,"lor":1937,"hitt":1938,"anga":1939,"program":1940,"Ta":1941,"tik":1942,"verkar":1943,"sidor":1944,"jam":1945,"utbild":1946,"Hon":1947,"enkelt":1948,"rik":1949,"uter":1950,"pengar":1951,"beslut":1952,"Kan":1953,"lange":1954,"medle":1955,"Under":1956,"pi":1957,"ned":1958,"band":1959,"personer":1960,"kval":1961,"lok":1962,"ssen":1963,"oteborg":1964,"fors":1965,"16":1966,"olog":1967,"Kom":1968,"mid":1969,"17":1970,"henne":1971,"jul":1972,"konom":1973,"vare":1974,"ationen":1975,"enhet":1976,"ffar":1977,"Kon":1978,"medel":1979,"bon":1980,"problem":1981,"match":1982,"ost":1983,"ganska":1984,"ssion":1985,"ena":1986,"bart":1987,"Pro":1988,"cep":1989,"derna":1990,"lade":1991,"the":1992,"bestam":1993,"Sam":1994,"Vad":1995,"ick":1996,"inget":1997,"sat":1998,"Dar":1999,"rev":2000,"pris":2001,"kanns":2002,"uro":2003,"arbets":2004,"14":2005,"pla":2006,"borjar":2007,"via":2008,"los":2009,"ansvar":2010,"ku":2011,"langre":2012,"roligt":2013,"ativ":2014,"effe":2015,"visar":2016,"Mo":2017,"kropp":2018,"stort":2019,"storre":2020,"tv":2021,"Ba":2022,"fly":2023,"mera":2024,"Hur":2025,"gu":2026,"jur":2027,"typ":2028,"huvud":2029,"sattning":2030,"Va":2031,"ron":2032,"disk":2033,"blivit":2034,"Mal":2035,"gift":2036,"get":2037,"fanta":2038,"her":2039,"foren":2040,"ow":2041,"behov":2042,"tas":2043,"ari":2044,"stru":2045,"risk":2046,"online":2047,"che":2048,"minst":2049,"SA":2050,"bas":2051,"kopa":2052,"histor":2053,"ffa":2054,"gangen":2055,"ide":2056,"bolag":2057,"organ":2058,"nan":2059,"mit":2060,"mt":2061,"eng":2062,"fragor":2063,"ygg":2064,"nastan":2065,"lingen":2066,"darfor":2067,"orer":2068,"resultat":2069,"Bo":2070,"tex":2071,"farande":2072,"uppgifter":2073,"Ut":2074,"bak":2075,"tav":2076,"ler":2077,"Val":2078,"Upp":2079,"besok":2080,"precis":2081,"terna":2082,"Sen":2083,"bin":2084,"kron":2085,"hav":2086,"bed":2087,"Idag":2088,"system":2089,"Se":2090,"skapa":2091,"lon":2092,"hai":2093,"senaste":2094,"skriv":2095,"innebar":2096,"tjejer":2097,"kraft":2098,"stol":2099,"sang":2100,"Na":2101,"erat":2102,"funktion":2103,"forst":2104,"lasa":2105,"intern":2106,"my":2107,"Per":2108,"bud":2109,"ligare":2110,"hopp":2111,"tillgang":2112,"skatt":2113,"borjade":2114,"gott":2115,"aga":2116,"ara":2117,"funger":2118,"13":2119,"vat":2120,"Ha":2121,"miljo":2122,"verksamhet":2123,"trad":2124,"stat":2125,"farg":2126,"annu":2127,"skriva":2128,"mana":2129,"fem":2130,"Ro":2131,"extra":2132,"ry":2133,"ons":2134,"handlar":2135,"im":2136,"forsk":2137,"soc":2138,"ekonom":2139,"jut":2140,"stalla":2141,"ben":2142,"kontakt":2143,"ret":2144,"les":2145,"inga":2146,"glad":2147,"ree":2148,"musi":2149,"istallet":2150,"projekt":2151,"asin":2152,"vagen":2153,"Kar":2154,"alltsa":2155,"back":2156,"skan":2157,"AR":2158,"dare":2159,"vidare":2160,"vanligt":2161,"com":2162,"ener":2163,"dro":2164,"bran":2165,"dejtingsa":2166,"varlden":2167,"livet":2168,"fortfarande":2169,"kred":2170,"Hel":2171,"Min":2172,"kopp":2173,"Ny":2174,"utveckling":2175,"familj":2176,"hittar":2177,"hennes":2178,"stallning":2179,"rang":2180,"mode":2181,"25":2182,"agg":2183,"aret":2184,"tligen":2185,"lara":2186,"klader":2187,"tekni":2188,"fer":2189,"Stor":2190,"senare":2191,"ihop":2192,"pun":2193,"tele":2194,"ux":2195,"Nor":2196,"vilken":2197,"ifran":2198,"ocker":2199,"sista":2200,"sarskil":2201,"Le":2202,"troll":2203,"fred":2204,"tills":2205,"hun":2206,"satter":2207,"aldre":2208,"tell":2209,"IN":2210,"ville":2211,"gatt":2212,"samhall":2213,"vissa":2214,"inner":2215,"helst":2216,"oka":2217,"filmer":2218,"timmar":2219,"Ju":2220,"stri":2221,"vilka":2222,"bad":2223,"esc":2224,"Alla":2225,"hin":2226,"sing":2227,"100":2228,"blogg":2229,"hang":2230,"tyd":2231,"parti":2232,"ak":2233,"arti":2234,"skriver":2235,"log":2236,"elser":2237,"nasta":2238,"ganger":2239,"atur":2240,"produkter":2241,"fantasti":2242,"samtidigt":2243,"fra":2244,"anvander":2245,"styr":2246,"ansi":2247,"yo":2248,"fli":2249,"eras":2250,"sv":2251,"storsta":2252,"svensk":2253,"ww":2254,"io":2255,"forut":2256,"mini":2257,"fina":2258,"gamla":2259,"pra":2260,"atta":2261,"aterial":2262,"ER":2263,"gav":2264,"kat":2265,"oku":2266,"handel":2267,"jd":2268,"mojligt":2269,"salj":2270,"slapp":2271,"anns":2272,"skin":2273,"lagga":2274,"endast":2275,"studi":2276,"tat":2277,"snart":2278,"nande":2279,"tiska":2280,"Ho":2281,"bal":2282,"gri":2283,"Av":2284,"vem":2285,"tagit":2286,"hjar":2287,"vecka":2288,"orter":2289,"framfor":2290,"strom":2291,"borja":2292,"Lin":2293,"spela":2294,"flesta":2295,"bety":2296,"dej":2297,"lun":2298,"inlagg":2299,"snabbt":2300,"fint":2301,"posi":2302,"hund":2303,"ses":2304,"kredit":2305,"xx":2306,"styrel":2307,"ore":2308,"utfor":2309,"lagen":2310,"sport":2311,"tem":2312,"AN":2313,"teck":2314,"mamma":2315,"ogra":2316,"skick":2317,"mojlig":2318,"So":2319,"sitter":2320,"ank":2321,"veckan":2322,"kommit":2323,"miss":2324,"procent":2325,"ultur":2326,"Fran":2327,"dit":2328,"unga":2329,"sjalva":2330,"fyll":2331,"hoppas":2332,"hotell":2333,"aka":2334,"nyg":2335,"40":2336,"nara":2337,"viktigt":2338,"kanna":2339,"ogon":2340,"kok":2341,"ting":2342,"verka":2343,"escort":2344,"Porr":2345,"bit":2346,"telefon":2347,"oner":2348,"sj":2349,"mojlighet":2350,"trev":2351,"Gratis":2352,"EN":2353,"Las":2354,"valja":2355,"dessutom":2356,"ibland":2357,"ytter":2358,"Bil":2359,"oli":2360,"....":2361,"minuter":2362,"varfor":2363,"massa":2364,"bill":2365,"off":2366,"ktiv":2367,"ac":2368,"igar":2369,"iskt":2370,"indi":2371,"centr":2372,"egna":2373,"emot":2374,"vice":2375,"tri":2376,"andet":2377,"fyra":2378,"altern":2379,"natet":2380,"rapp":2381,"brukar":2382,"huset":2383,"ningarna":2384,"spro":2385,"borde":2386,"Te":2387,"ont":2388,"skal":2389,"mande":2390,"fraga":2391,"let":2392,"ab":2393,"skort":2394,"tanka":2395,"num":2396,"dating":2397,"ins":2398,"ovr":2399,"passa":2400,"tom":2401,"rack":2402,"egentligen":2403,"kare":2404,"drar":2405,"por":2406,"langt":2407,"The":2408,"boll":2409,"Goteborg":2410,"tel":2411,"tot":2412,"publi":2413,"pper":2414,"gl":2415,"perfe":2416,"sli":2417,"skade":2418,"vande":2419,"valt":2420,"ovan":2421,"fik":2422,"sade":2423,"gillar":2424,"kunder":2425,"bada":2426,"sakerhet":2427,"video":2428,"traff":2429,"anal":2430,"ard":2431,"stockholm":2432,"gat":2433,"port":2434,"djur":2435,"set":2436,"qu":2437,"Si":2438,"erfar":2439,"Ber":2440,"Aven":2441,"Ska":2442,"lug":2443,"roll":2444,"platser":2445,"bast":2446,"arbetar":2447,"ppar":2448,"Fa":2449,"kant":2450,"ori":2451,"sall":2452,"Or":2453,"organis":2454,"kill":2455,"don":2456,"nader":2457,"finansi":2458,"erbjuder":2459,"\".":2460,"trots":2461,"skog":2462,"Denna":2463,"forsa":2464,"musik":2465,"dy":2466,"allman":2467,"alls":2468,"material":2469,"Inte":2470,"inter":2471,"tjej":2472,"Vid":2473,"utbildning":2474,"vanner":2475,"24":2476,"stads":2477,"skola":2478,"kronor":2479,"edel":2480,"flyt":2481,"landet":2482,"ots":2483,"xa":2484,"ob":2485,"borjan":2486,"heller":2487,"fakt":2488,"energi":2489,"60":2490,"knu":2491,"rade":2492,"ine":2493,"dent":2494,"tips":2495,"anser":2496,"AB":2497,"dejta":2498,"Ty":2499,"tering":2500,"niva":2501,"nit":2502,"ager":2503,"fanns":2504,"inna":2505,"Ni":2506,"smar":2507,"snitt":2508,"kap":2509,"snyg":2510,"”.":2511,"Bar":2512,"lands":2513,"cept":2514,"est":2515,"tillfall":2516,"alder":2517,"rom":2518,"lilla":2519,"bred":2520,"natdejting":2521,"ledning":2522,"OR":2523,"sign":2524,"behandling":2525,"halv":2526,"hjalpa":2527,"igenom":2528,"even":2529,"sto":2530,"2018":2531,"skill":2532,"rat":2533,"spir":2534,"bero":2535,"spann":2536,"alog":2537,"brott":2538,"flyg":2539,"dera":2540,"igheter":2541,"Ex":2542,"bilen":2543,"vanliga":2544,"ess":2545,"medan":2546,"jatte":2547,"passar":2548,"vux":2549,"vack":2550,"tim":2551,"varandra":2552,"forvan":2553,"haha":2554,"sagt":2555,"Sedan":2556,"alskar":2557,"nam":2558,"tisk":2559,"koping":2560,"casin":2561,"tiker":2562,"medlem":2563,"Svenska":2564,"forslag":2565,"Vil":2566,"das":2567,"ero":2568,"matt":2569,"Nag":2570,"mis":2571,"La":2572,"dater":2573,"terar":2574,"hander":2575,"illa":2576,"tes":2577,"rym":2578,"ST":2579,"resa":2580,"Par":2581,"fragan":2582,"antal":2583,"ika":2584,"Euro":2585,"viktiga":2586,"fod":2587,"utanfor":2588,"Ch":2589,"manad":2590,"prat":2591,"nars":2592,"up":2593,"thai":2594,"Sveriges":2595,"one":2596,"delen":2597,"omradet":2598,"sakert":2599,"slan":2600,"elever":2601,"kontroll":2602,"dela":2603,"fav":2604,"spri":2605,"gla":2606,"forand":2607,"gard":2608,"topp":2609,"varde":2610,"jol":2611,"veckor":2612,"ften":2613,"last":2614,"yndig":2615,"omen":2616,"trott":2617,"Vill":2618,"fora":2619,"staende":2620,"uld":2621,"bun":2622,"affar":2623,"tanker":2624,"aa":2625,"Bor":2626,"rut":2627,"arbetet":2628,"22":2629,"kyr":2630,"aler":2631,"Gu":2632,"elsen":2633,"veta":2634,"Johan":2635,"krav":2636,"gemen":2637,"hit":2638,"spelar":2639,"199":2640,"gym":2641,"Gen":2642,"Allt":2643,"malt":2644,"leva":2645,"fu":2646,"nummer":2647,"gol":2648,"th":2649,"gener":2650,"forra":2651,"laget":2652,"forhall":2653,"kultur":2654,"ander":2655,"Ra":2656,"spelare":2657,"2017":2658,"boken":2659,"sarskilt":2660,"redo":2661,"forstar":2662,"manader":2663,"klad":2664,"serna":2665,"dition":2666,"sera":2667,"akte":2668,"hag":2669,"ations":2670,"meter":2671,"registr":2672,"cir":2673,"fta":2674,"drom":2675,"Car":2676,"varr":2677,"server":2678,"maskin":2679,"ress":2680,"klass":2681,"eri":2682,"platsen":2683,"dels":2684,"iden":2685,"forsoka":2686,"traning":2687,"AL":2688,"bedom":2689,"rekommen":2690,"vall":2691,"gas":2692,"jter":2693,"sason":2694,"Far":2695,"unge":2696,"jobbet":2697,"blom":2698,"xi":2699,"avslut":2700,"Ri":2701,"eta":2702,"steg":2703,"kvalitet":2704,"knapp":2705,"upplev":2706,"igh":2707,"fullt":2708,"skont":2709,"dju":2710,"kund":2711,"kal":2712,"service":2713,"kning":2714,"dade":2715,"vers":2716,"stau":2717,"prov":2718,"porn":2719,"stil":2720,"mag":2721,"betala":2722,"Fin":2723,"derar":2724,"viss":2725,"uti":2726,"styrelsen":2727,"ljus":2728,"ocka":2729,"Dess":2730,"hast":2731,"gron":2732,"verket":2733,"free":2734,"klara":2735,"tio":2736,"rost":2737,"slo":2738,"rott":2739,"rummet":2740,"70":2741,"21":2742,"skydd":2743,"dagens":2744,"koll":2745,"install":2746,"super":2747,"sprak":2748,"foraldr":2749,"fungerar":2750,"80":2751,"yss":2752,"ktur":2753,"kvinna":2754,"lyss":2755,"beroende":2756,"anvands":2757,"soci":2758,"uppdrag":2759,"Esc":2760,"etter":2761,"Co":2762,"varm":2763,"bank":2764,"inspir":2765,"omfatt":2766,"otter":2767,"Mer":2768,"ini":2769,"bur":2770,"skra":2771,"Dan":2772,"litet":2773,"sfor":2774,"staden":2775,"Di":2776,"spannande":2777,"fla":2778,"rist":2779,"Ko":2780,"fte":2781,"skott":2782,"taget":2783,"sker":2784,"stund":2785,"23":2786,"post":2787,"arbeta":2788,"bat":2789,"ytterligare":2790,"mand":2791,"jen":2792,"varande":2793,"barnen":2794,"middag":2795,"forbatt":2796,"avsett":2797,"ativt":2798,"essa":2799,"bered":2800,"mote":2801,"Jon":2802,"dde":2803,"stit":2804,"ckar":2805,"data":2806,"EU":2807,"ungdom":2808,"situ":2809,"anti":2810,"beror":2811,"Eller":2812,"lopp":2813,"helgen":2814,"allde":2815,"popu":2816,"garden":2817,"kunskap":2818,"minn":2819,"pot":2820,"onen":2821,"bakom":2822,"kolla":2823,"date":2824,"folja":2825,"reger":2826,"innehaller":2827,"modell":2828,"Escort":2829,"liksom":2830,"AT":2831,"Tro":2832,"bord":2833,"aktivit":2834,"kvallen":2835,"eln":2836,"veten":2837,"igang":2838,"perfekt":2839,"stans":2840,"bocker":2841,"medlemmar":2842,"jobba":2843,"traffa":2844,"hogre":2845,"ktig":2846,"behand":2847,"tankte":2848,"grun":2849,"glas":2850,"tjanster":2851,"kand":2852,"lugn":2853,"hot":2854,"Tje":2855,"hort":2856,"respe":2857,"bot":2858,"Su":2859,"stang":2860,"hjalper":2861,"goda":2862,"SE":2863,"personal":2864,"ockan":2865,"Ne":2866,"forsok":2867,"skyl":2868,"chef":2869,"naden":2870,"Genom":2871,"sov":2872,"ers":2873,"con":2874,"kolle":2875,"stag":2876,"spa":2877,"kalla":2878,"lamp":2879,"start":2880,"valjer":2881,"Ka":2882,"cm":2883,"Dessutom":2884,"dern":2885,"ital":2886,"Knu":2887,"dejtingsajt":2888,"ras":2889,"span":2890,"bilden":2891,"positi":2892,"gro":2893,"vilja":2894,"varen":2895,"tin":2896,"anstall":2897,"ringar":2898,"Manga":2899,"alternativ":2900,"orit":2901,"titta":2902,"restau":2903,"USA":2904,"klubb":2905,"Ti":2906,"hamn":2907,"Sy":2908,"Pri":2909,"TV":2910,"maj":2911,"vacker":2912,"vaxt":2913,"ek":2914,"later":2915,"holl":2916,"amp":2917,"dning":2918,"ategor":2919,"mannen":2920,"ativa":2921,"funder":2922,"bek":2923,"tavling":2924,"garder":2925,"glom":2926,";)":2927,"anmal":2928,"slutet":2929,"detal":2930,"demok":2931,"vinna":2932,"tred":2933,"myndig":2934,"2016":2935,"meri":2936,"2015":2937,"fisk":2938,"psy":2939,"kommande":2940,"vist":2941,"kol":2942,"ong":2943,"Dessa":2944,"flytt":2945,"hets":2946,"pati":2947,"jord":2948,"Ander":2949,"skaper":2950,"lats":2951,"fortsatta":2952,"Malmo":2953,"ktioner":2954,"visning":2955,"iner":2956,"tvatt":2957,"terade":2958,"ordning":2959,"forsalj":2960,"ped":2961,"lagt":2962,"forsoker":2963,"mju":2964,"Tra":2965,"ssy":2966,"dod":2967,"foljande":2968,"samling":2969,"varder":2970,"mobil":2971,"aker":2972,"fal":2973,"any":2974,"njut":2975,"Sw":2976,"livs":2977,"eget":2978,"nation":2979,"Lo":2980,"kroppen":2981,"vitt":2982,"book":2983,"Ga":2984,"stav":2985,"lamna":2986,"SK":2987,"tol":2988,"uppdater":2989,"annon":2990,"Fri":2991,"rag":2992,"ckor":2993,"undersok":2994,"hl":2995,"marknaden":2996,"him":2997,"begran":2998,"fredag":2999,"dorr":3000,"ivag":3001,"casino":3002,"vester":3003,"lander":3004,"poang":3005,"luft":3006,":-":3007,"innehall":3008,"prin":3009,"mog":3010,"diga":3011,"Sta":3012,"nedan":3013,"oppet":3014,"satte":3015,"bygga":3016,"nads":3017,"tyckte":3018,"90":3019,"solut":3020,"doku":3021,"kem":3022,"hora":3023,"sas":3024,"ktor":3025,"jav":3026,"varld":3027,"nod":3028,"tredje":3029,"gel":3030,"Tack":3031,"jobbar":3032,"Ser":3033,"cent":3034,"undan":3035,"speciellt":3036,"pet":3037,"kombin":3038,"ktionen":3039,"internet":3040,"titt":3041,"komst":3042,"villkor":3043,"viktig":3044,"ity":3045,"giv":3046,"fritt":3047,"We":3048,"kam":3049,"ungefar":3050,"liknande":3051,"\",":3052,"dio":3053,"forande":3054,"favorit":3055,"otroligt":3056,"engel":3057,"tids":3058,"Lu":3059,"reda":3060,"knas":3061,"Karl":3062,"avtal":3063,"sala":3064,"uella":3065,"2014":3066,"laga":3067,"tyg":3068,"cken":3069,"lata":3070,"dejtingsidor":3071,"sav":3072,"varldens":3073,"Kanske":3074,"verkan":3075,"still":3076,"imorgon":3077,"ET":3078,"regler":3079,"Bra":3080,"miljoner":3081,"Fol":3082,"behovs":3083,"sats":3084,"utru":3085,"Go":3086,"sse":3087,"behova":3088,"svara":3089,"27":3090,"placer":3091,"markt":3092,"sjukdom":3093,"forvar":3094,"Hall":3095,"effekti":3096,"prova":3097,"26":3098,"papper":3099,"anvandas":3100,"splan":3101,"samtal":3102,"kas":3103,"Fast":3104,"On":3105,"tner":3106,"historia":3107,"recept":3108,"vackra":3109,"Ste":3110,"alldeles":3111,"defin":3112,"bilar":3113,"28":3114,"oper":3115,"mojligheter":3116,"sep":3117,"finner":3118,"dla":3119,"langa":3120,"betyder":3121,"zz":3122,"klassi":3123,"anta":3124,"ligtvis":3125,"kamp":3126,"massor":3127,"absolut":3128,"wid":3129,"foljer":3130,"can":3131,"oro":3132,"kora":3133,"samband":3134,"annars":3135,"kommentar":3136,"visade":3137,"inklu":3138,"indivi":3139,"seme":3140,"link":3141,"artikel":3142,"sitta":3143,"Mat":3144,"Fil":3145,"prakti":3146,"asi":3147,"vanlig":3148,"sur":3149,"tankt":3150,"omraden":3151,"staller":3152,"pat":3153,"gaende":3154,"filmen":3155,"vari":3156,"lista":3157,"cykel":3158,"IT":3159,"ringa":3160,"vik":3161,"deltag":3162,"demokr":3163,"lunch":3164,"mysig":3165,"kravs":3166,"Mil":3167,"kompis":3168,"tifi":3169,"okt":3170,"gal":3171,"teras":3172,"vol":3173,"snygg":3174,"pack":3175,"varme":3176,"tanke":3177,"Arbet":3178,"hard":3179,"dejtingsajter":3180,"erfarenhet":3181,"skrev":3182,"intressant":3183,"oker":3184,"goteborg":3185,"invester":3186,"ies":3187,"enter":3188,"sper":3189,"oftast":3190,"menar":3191,"sant":3192,"namligen":3193,"ure":3194,"pappa":3195,"ution":3196,"berattar":3197,"sterna":3198,"sno":3199,"dad":3200,"grad":3201,"internation":3202,"bbar":3203,"vant":3204,"sent":3205,"vader":3206,"testa":3207,"okus":3208,"klockan":3209,"//":3210,"nojd":3211,"radet":3212,"privat":3213,"lagger":3214,"Svensk":3215,"tjanst":3216,"utman":3217,"Europa":3218,"peri":3219,"29":3220,"bransch":3221,"”,":3222,"semester":3223,"www":3224,"tis":3225,"katt":3226,"fest":3227,"enor":3228,"rod":3229,"vita":3230,"gruppen":3231,"halsa":3232,"Pre":3233,"sattningar":3234,"versitet":3235,"handa":3236,"present":3237,"ensam":3238,"icke":3239,"aget":3240,"kansla":3241,"takt":3242,"gammal":3243,"host":3244,"Mass":3245,"tradition":3246,"borjat":3247,"dec":3248,"intresse":3249,"Just":3250,"kes":3251,"forklar":3252,"45":3253,"finnas":3254,"prata":3255,"bundet":3256,"marken":3257,"bidrag":3258,"eventu":3259,"larare":3260,"ansen":3261,"omo":3262,"fysi":3263,"wit":3264,"medic":3265,"ranger":3266,"regel":3267,"resten":3268,"Kv":3269,"sand":3270,"Del":3271,"gren":3272,"splat":3273,"gymna":3274,"Enligt":3275,"sked":3276,"cebook":3277,"kyl":3278,"Darfor":3279,"foretaget":3280,"kry":3281,"sova":3282,"bruk":3283,"out":3284,"scen":3285,"Hal":3286,"mare":3287,"vantar":3288,"til":3289,"betyd":3290,"Ver":3291,"uppgift":3292,"ember":3293,"vel":3294,"tillrack":3295,"zny":3296,"lager":3297,"foraldrar":3298,"laser":3299,"losa":3300,"Hem":3301,"blod":3302,"gatan":3303,"konto":3304,"Mi":3305,"anych":3306,"sommaren":3307,"owanych":3308,"zalog":3309,"oczny":3310,"paket":3311,"widoczny":3312,"zalogowanych":3313,"vanta":3314,"tider":3315,"Sjal":3316,"Hej":3317,"forfatt":3318,"platt":3319,"halso":3320,"Eftersom":3321,"dubb":3322,"visas":3323,"punkt":3324,"rande":3325,"fang":3326,"juni":3327,"ober":3328,"hant":3329,"sad":3330,"spelet":3331,"kopte":3332,"bestar":3333,"text":3334,"dam":3335,"hemsida":3336,"marknads":3337,"famil":3338,"varden":3339,"imp":3340,"uppe":3341,"ON":3342,"ledare":3343,"merikan":3344,"anslut":3345,"Intern":3346,"kurs":3347,"vald":3348,"tand":3349,"sel":3350,"Dag":3351,"grepp":3352,"mul":3353,"darmed":3354,"ktyg":3355,"omrade":3356,"smal":3357,"stning":3358,"spen":3359,"Hen":3360,"grader":3361,"hoppa":3362,"lack":3363,"sadana":3364,"exempelvis":3365,"kven":3366,"vision":3367,"jarn":3368,"boende":3369,"leder":3370,"cho":3371,"teknik":3372,"ey":3373,"allvar":3374,"ugu":3375,"design":3376,"delse":3377,"stik":3378,"personliga":3379,"familjen":3380,"tala":3381,"huvu":3382,"delning":3383,"beskriv":3384,"mod":3385,"enbart":3386,"produkt":3387,"Bu":3388,"utveckla":3389,"meto":3390,"ct":3391,"kontor":3392,"flo":3393,"okar":3394,"Ca":3395,"len":3396,"IS":3397,"eskort":3398,"indu":3399,"Fi":3400,"wa":3401,"vann":3402,"Vide":3403,"2013":3404,"pal":3405,"dator":3406,"mars":3407,"htt":3408,"fotboll":3409,"bry":3410,"rig":3411,"seende":3412,"skrivit":3413,"pt":3414,"Van":3415,"fortsatter":3416,"oppna":3417,"forskning":3418,"sann":3419,"poj":3420,"bba":3421,"knade":3422,"bete":3423,"No":3424,"profil":3425,"starka":3426,"To":3427,"daligt":3428,"trygg":3429,"omkring":3430,"promen":3431,"vagar":3432,"struktur":3433,"tyvarr":3434,"??":3435,"agar":3436,"tankar":3437,"ljud":3438,"mea":3439,"35":3440,"skit":3441,"uttryck":3442,"ovriga":3443,"frukt":3444,"El":3445,"ING":3446,"offent":3447,"dis":3448,"tember":3449,"visst":3450,"leda":3451,"social":3452,"lage":3453,"forening":3454,"pote":3455,"fotogra":3456,"km":3457,"Tan":3458,"oavsett":3459,"fas":3460,"eder":3461,"sst":3462,"He":3463,"sist":3464,"bloggen":3465,"skapar":3466,"handla":3467,"Tjejer":3468,"mail":3469,"ytt":3470,"stro":3471,"hittade":3472,"Hu":3473,"tta":3474,"SM":3475,"ssar":3476,"motor":3477,"varu":3478,"tiken":3479,"LA":3480,"typer":3481,"utred":3482,"brost":3483,"behor":3484,"stid":3485,"fokus":3486,"betalning":3487,"stiska":3488,"IK":3489,"drog":3490,"defini":3491,"pol":3492,"kontakta":3493,"aliser":3494,"kompet":3495,"kaffe":3496,"riks":3497,"enskil":3498,"Lat":3499,"fria":3500,"sum":3501,"verksamheten":3502,"Fot":3503,"ges":3504,"Fred":3505,"uppskatt":3506,"Hog":3507,"anvandning":3508,"moti":3509,"nodvand":3510,"tun":3511,"farger":3512,"kostnader":3513,"priser":3514,"tet":3515,"framst":3516,"formaga":3517,"lov":3518,"sorg":3519,"leksaker":3520,"kott":3521,"Star":3522,"ligheten":3523,"dagarna":3524,"Mon":3525,"Gor":3526,"Lar":3527,"cera":3528,"standigt":3529,"falt":3530,"verktyg":3531,"lut":3532,"sasom":3533,"uppmark":3534,"Dejt":3535,"rent":3536,"sverig":3537,"dejtingsida":3538,"dande":3539,"Her":3540,"enheter":3541,"pril":3542,"sjo":3543,"frukost":3544,"styck":3545,"stal":3546,"meddel":3547,"framtiden":3548,"://":3549,"engelska":3550,"pension":3551,"lyckas":3552,"tj":3553,"karlek":3554,"sokt":3555,"smak":3556,"grupper":3557,"skillnad":3558,"hart":3559,"gors":3560,"lart":3561,"Norr":3562,"vetenskap":3563,"skapet":3564,"dress":3565,"minska":3566,"mjol":3567,"uari":3568,"Nej":3569,"sh":3570,"hoga":3571,"timme":3572,"fika":3573,"helg":3574,"butik":3575,"cirka":3576,"brev":3577,"bekva":3578,"laggning":3579,"leverant":3580,"vanster":3581,"fen":3582,"Gar":3583,"samarbete":3584,"Over":3585,"Mu":3586,"Igar":3587,"allra":3588,"lop":3589,"rapport":3590,"stader":3591,"emal":3592,"test":3593,"nr":3594,"mej":3595,"sadant":3596,"fix":3597,"utrym":3598,"2012":3599,"kraver":3600,"arets":3601,"bolaget":3602,"kandes":3603,"version":3604,"ategi":3605,"ish":3606,"forlor":3607,"Gam":3608,"miljon":3609,"universitet":3610,"Kommun":3611,"beratta":3612,"atiska":3613,"RA":3614,"Sol":3615,"forvalt":3616,"framgang":3617,"vinter":3618,"Tor":3619,"cha":3620,"Res":3621,"31":3622,"aterna":3623,"jatt":3624,"Lang":3625,"ratten":3626,"ratta":3627,"forel":3628,"mesta":3629,"Str":3630,"nej":3631,"paverka":3632,"!!!":3633,"roliga":3634,"tors":3635,"vo":3636,"Oster":3637,"fallet":3638,"hoj":3639,"bonus":3640,"au":3641,"krig":3642,"utifran":3643,"autom":3644,"kanda":3645,"antligen":3646,"Person":3647,"sociala":3648,"fjar":3649,"Varfor":3650,"Po":3651,"marker":3652,"klipp":3653,"Ingen":3654,"medicin":3655,"stig":3656,"kategor":3657,"botten":3658,"lunda":3659,"september":3660,"bestall":3661,"saval":3662,"sprun":3663,"Er":3664,"dalig":3665,"Thai":3666,"trafik":3667,"arer":3668,"hogt":3669,"Porn":3670,"hoger":3671,"fyller":3672,"skom":3673,"Anvand":3674,"motsvar":3675,"oppen":3676,"njuta":3677,"OM":3678,"ftet":3679,"trodde":3680,"kallas":3681,"Sjalv":3682,"fastighet":3683,"himla":3684,"sangen":3685,"Com":3686,"Mot":3687,"interv":3688,"kommunen":3689,"oktober":3690,"vir":3691,"parker":3692,"Pu":3693,"Lund":3694,"eden":3695,"borta":3696,"erbjuda":3697,"trak":3698,"vig":3699,"banan":3700,"forsvar":3701,"profe":3702,"plug":3703,"urn":3704,"Bi":3705,"lock":3706,"Ge":3707,"atgarder":3708,"norr":3709,"Dare":3710,"skicka":3711,"priset":3712,"ktive":3713,"ube":3714,"inge":3715,"terat":3716,"programmet":3717,"smart":3718,"hat":3719,"lokal":3720,"sluta":3721,"novem":3722,"klam":3723,"jamfor":3724,"januari":3725,"kommunik":3726,"november":3727,"ork":3728,"princi":3729,"lex":3730,"amerikan":3731,"stade":3732,"dans":3733,"serien":3734,"gymnasi":3735,"elekt":3736,"Tran":3737,"euro":3738,"wi":3739,"arnas":3740,".”":3741,"strategi":3742,"ach":3743,"--":3744,"anledning":3745,"ight":3746,"respektive":3747,"datum":3748,"IF":3749,"2010":3750,"trana":3751,"uten":3752,"vattnet":3753,"Anna":3754,"natten":3755,"byta":3756,"kompl":3757,"avsnitt":3758,"bund":3759,"samhet":3760,"lattare":3761,"resur":3762,"Ham":3763,"serie":3764,"500":3765,"sprung":3766,"losning":3767,"Vaster":3768,"lust":3769,"uell":3770,"produktion":3771,"tals":3772,"flytta":3773,"nagonsin":3774,"centrum":3775,"betyg":3776,"Mag":3777,"lakare":3778,"ana":3779,"anpassa":3780,"peratur":3781,"satser":3782,"lia":3783,"forsakr":3784,"ovrigt":3785,"samhallet":3786,"bj":3787,"jon":3788,"hamta":3789,"Massage":3790,"slang":3791,"upptack":3792,"uppfatt":3793,"foring":3794,"tacka":3795,"press":3796,"marknad":3797,"totalt":3798,"arbetare":3799,"sverige":3800,"ordent":3801,"fiken":3802,"Erik":3803,"osv":3804,"llen":3805,"ikvall":3806,"Mycket":3807,"fulla":3808,"extre":3809,"Dejting":3810,"rapporter":3811,"underhall":3812,"forstas":3813,"instru":3814,"trevlig":3815,"hundar":3816,"plus":3817,"sug":3818,"SS":3819,"hogsta":3820,"perio":3821,"ugusti":3822,"ologi":3823,"2011":3824,"trevligt":3825,"garan":3826,"Stockholms":3827,"rika":3828,"spra":3829,"ningsvis":3830,"ora":3831,"jas":3832,"arki":3833,"Kli":3834,"bod":3835,"kata":3836,"position":3837,"lana":3838,"Sp":3839,"rid":3840,"larna":3841,"fardig":3842,"gall":3843,"Kvinnor":3844,"Gud":3845,"storlek":3846,"partner":3847,"lagre":3848,"varmt":3849,"stark":3850,"ale":3851,"skul":3852,"ange":3853,"hn":3854,"sexiga":3855,"rygg":3856,"skoter":3857,"sakra":3858,"april":3859,"sil":3860,"givare":3861,"ledningen":3862,"75":3863,"solen":3864,"rabatt":3865,"kansl":3866,"atiskt":3867,"Hoppas":3868,"andras":3869,"mangd":3870,"konkur":3871,"Uppsala":3872,"december":3873,"atten":3874,"Spel":3875,"inns":3876,"tum":3877,"Skan":3878,"okan":3879,"hum":3880,"vadr":3881,"genomfor":3882,"former":3883,"Varje":3884,"kn":3885,"gad":3886,"Bland":3887,"oo":3888,"mentet":3889,"mom":3890,"publicer":3891,"aring":3892,"erande":3893,"art":3894,"kunnat":3895,"makt":3896,"tillrackligt":3897,"slaget":3898,"vuxna":3899,"brand":3900,"namnet":3901,"forbi":3902,"bror":3903,"agare":3904,"dol":3905,"kille":3906,"otsligt":3907,"stalle":3908,"skada":3909,"EL":3910,"karna":3911,"Jan":3912,"onskar":3913,"Tank":3914,"iser":3915,"annonser":3916,"goras":3917,"soff":3918,"Bet":3919,"ungen":3920,"Dat":3921,"oren":3922,"stallningar":3923,"webbplats":3924,"sasongen":3925,"rin":3926,"bostads":3927,"sive":3928,"diska":3929,"bliote":3930,"Soc":3931,"premi":3932,"ryck":3933,"lagenhet":3934,"knulla":3935,"knappt":3936,"mala":3937,"vika":3938,"you":3939,"Jam":3940,"huvudet":3941,"ekonomiska":3942,"dotter":3943,"ssystem":3944,"ordforande":3945,"fantastisk":3946,"New":3947,"okat":3948,"samtliga":3949,"kil":3950,"varor":3951,"sajt":3952,"Free":3953,"fonster":3954,"af":3955,"antalet":3956,"Dom":3957,"ansokan":3958,"hud":3959,"IG":3960,"iaf":3961,"tillhor":3962,"valet":3963,"Trots":3964,"slog":3965,"ihag":3966,"ligga":3967,"analy":3968,"serv":3969,"bostad":3970,"studie":3971,"fordon":3972,"sjalvklart":3973,"fantastiskt":3974,"Th":3975,"skning":3976,"spelade":3977,"skjut":3978,"Stora":3979,"augusti":3980,"middagen":3981,"ED":3982,"Con":3983,"ussion":3984,"bygger":3985,"smi":3986,"karakt":3987,"ris":3988,"saklart":3989,"Bara":3990,"ID":3991,"aktiviteter":3992,"debatt":3993,"sjukt":3994,"senast":3995,"otal":3996,"inred":3997,"byggnad":3998,"orlunda":3999,"seri":4000,"process":4001,"svag":4002,"orsa":4003,"promenad":4004,"mas":4005,"kre":4006,"neg":4007,"givet":4008,"juli":4009,"utnytt":4010,"yngre":4011,"lokala":4012,"Me":4013,"lare":4014,"ssel":4015,"enkla":4016,"matchen":4017,"mast":4018,"forutom":4019,"moter":4020,"sning":4021,"Stu":4022,"mottag":4023,"36":4024,"CH":4025,"vas":4026,"tok":4027,"pul":4028,"utmarkt":4029,"Ero":4030,"stati":4031,"Soder":4032,"sed":4033,"kostnad":4034,"punkter":4035,"klare":4036,"smor":4037,"systemet":4038,"bom":4039,"ernas":4040,"starta":4041,"fantastiska":4042,"vardering":4043,"IL":4044,"saknar":4045,"organisation":4046,"At":4047,"how":4048,"talar":4049,"igare":4050,"ump":4051,"Lite":4052,"II":4053,"starkt":4054,"riktig":4055,"Vara":4056,"rakt":4057,"upplevelse":4058,"vinner":4059,"strand":4060,"198":4061,"forsakring":4062,"Hote":4063,"framat":4064,"ekonomi":4065,"lordag":4066,"bruari":4067,"Nat":4068,"blad":4069,"Bli":4070,"konsu":4071,"kret":4072,"ue":4073,"idrott":4074,"butiker":4075,"stre":4076,"studen":4077,"exakt":4078,"foku":4079,"xxx":4080,"gir":4081,"onsk":4082,"hosten":4083,"klimat":4084,"Gre":4085,"foreningen":4086,"undrar":4087,"skad":4088,"nagonting":4089,"ist":4090,"guld":4091,"tillstand":4092,"slos":4093,"fart":4094,"fett":4095,"grunden":4096,"ls":4097,"ingenting":4098,"agog":4099,"raden":4100,"strack":4101,"Din":4102,"vind":4103,"box":4104,"ppen":4105,"info":4106,"datorn":4107,"mandag":4108,"ssan":4109,"tusen":4110,"fortsatt":4111,"ky":4112,"Kop":4113,"kans":4114,"cit":4115,"Mitt":4116,"lande":4117,"skrift":4118,"Hade":4119,"fylla":4120,"forhallande":4121,"morgonen":4122,"thaimassage":4123,"monster":4124,"etc":4125,"slar":4126,"ked":4127,"brun":4128,"essen":4129,"vanda":4130,"akta":4131,"Ibland":4132,"region":4133,"sot":4134,"Tom":4135,"loss":4136,"kvalit":4137,"represen":4138,"mitten":4139,"Lag":4140,"anstallda":4141,"damer":4142,"roc":4143,"kostar":4144,"stin":4145,"rot":4146,"javla":4147,"betydligt":4148,"detaljer":4149,"recen":4150,"intervju":4151,"SV":4152,"dack":4153,".\"":4154,"ev":4155,"PR":4156,"slags":4157,"blick":4158,"fag":4159,"bell":4160,"narmare":4161,"33":4162,"Hans":4163,"okies":4164,"Hitta":4165,"vars":4166,"olyck":4167,"inal":4168,"Fram":4169,"sser":4170,"darefter":4171,"stret":4172,"malmo":4173,"Umea":4174,"igur":4175,"08":4176,"betydelse":4177,"djup":4178,"sekven":4179,"skur":4180,"snygga":4181,"sled":4182,"svang":4183,"partiet":4184,"vitet":4185,"effekt":4186,"fores":4187,"dubbel":4188,"manniska":4189,"budget":4190,"dryg":4191,"roman":4192,"leken":4193,"daremot":4194,"resultatet":4195,"stival":4196,"amator":4197,"Tva":4198,"socker":4199,"tillverk":4200,"bibliote":4201,"digit":4202,"studier":4203,"nyck":4204,"februari":4205,"skam":4206,"kapital":4207,"ite":4208,"Barn":4209,"viktigaste":4210,"tank":4211,"tydligt":4212,"Peter":4213,"potek":4214,"accep":4215,"planer":4216,"vore":4217,"int":4218,"jakt":4219,"Mog":4220,"lyssna":4221,"chat":4222,"vuxen":4223,"By":4224,"listan":4225,"als":4226,"Fl":4227,"Kri":4228,"fre":4229,"forsaljning":4230,"not":4231,"regn":4232,"2009":4233,"olja":4234,"dokument":4235,"allafall":4236,"videos":4237,"pratar":4238,"Eskort":4239,"sken":4240,"iet":4241,"Dock":4242,"Anders":4243,"sut":4244,"Bok":4245,"fortro":4246,"brist":4247,"plotsligt":4248,"lyckades":4249,"char":4250,"serar":4251,"igheten":4252,"fixa":4253,"skolor":4254,"tida":4255,"za":4256,"web":4257,"Yo":4258,"lay":4259,"finansiella":4260,"tyr":4261,"bilj":4262,"Wi":4263,"ratts":4264,"kopt":4265,"utvecklingen":4266,"kram":4267,"valkom":4268,"diskussion":4269,"lash":4270,"TE":4271,"drabb":4272,"fat":4273,"llade":4274,"intresserad":4275,"OS":4276,"gladje":4277,"http":4278,"harlig":4279,"Svar":4280,"avgift":4281,"skratt":4282,"satts":4283,"rolig":4284,"ona":4285,"55":4286,"valde":4287,"korde":4288,"Uni":4289,"Vet":4290,"kompetens":4291,"sens":4292,"chi":4293,"mg":4294,"seg":4295,"fing":4296,"visste":4297,"modern":4298,"spara":4299,"splats":4300,"litter":4301,"use":4302,"lamnar":4303,"skyldig":4304,"Post":4305,"live":4306,"resan":4307,"skador":4308,"hojd":4309,"pade":4310,"utbud":4311,"tionen":4312,"hone":4313,"diskut":4314,"bordet":4315,"dyr":4316,"ministr":4317,"entre":4318,"funktioner":4319,"gallande":4320,"lasare":4321,"losningar":4322,"klan":4323,"forutsattningar":4324,"Internet":4325,"sondag":4326,"rit":4327,"iteten":4328,"vinst":4329,"=)":4330,"lea":4331,"kamer":4332,"regeringen":4333,"hastar":4334,"muse":4335,"dvs":4336,"pon":4337,"radd":4338,"sw":4339,"svi":4340,"fir":4341,"chans":4342,"konstru":4343,"sjukvar":4344,"exper":4345,"traffar":4346,"period":4347,"sund":4348,"temperatur":4349,"enti":4350,"Sal":4351,"sym":4352,"koper":4353,"kontra":4354,"Kor":4355,"Facebook":4356,"kg":4357,"site":4358,"skogen":4359,"09":4360,"uppen":4361,"kvinn":4362,"team":4363,"salt":4364,"sasong":4365,"media":4366,"dyg":4367,"gande":4368,"atisk":4369,"spon":4370,"moder":4371,"tren":4372,"musk":4373,"AD":4374,"Andra":4375,"iel":4376,"glo":4377,"stick":4378,"ansikt":4379,"utrustning":4380,"ktiga":4381,"bjuder":4382,"projektet":4383,"konstater":4384,"dusch":4385,"ism":4386,"modligen":4387,"prote":4388,"misstan":4389,"journ":4390,"billiga":4391,"Hand":4392,"ordentligt":4393,"maten":4394,"jamfort":4395,".)":4396,"Kat":4397,"99":4398,"Amat":4399,"stjar":4400,"Tre":4401,"lost":4402,"Je":4403,"klicka":4404,"regl":4405,"desig":4406,"tittar":4407,"antingen":4408,"resor":4409,"mansk":4410,"annorlunda":4411,"inten":4412,"kons":4413,"kuk":4414,"sammanhang":4415,"made":4416,"nov":4417,"Ku":4418,"spoli":4419,"ranta":4420,"tak":4421,"kemedel":4422,"pas":4423,"beskrivning":4424,"special":4425,"Finns":4426,"politiska":4427,"fton":4428,"Ad":4429,"standard":4430,"brod":4431,"etabl":4432,"kara":4433,"bag":4434,"Spe":4435,"spektiv":4436,"alko":4437,"verkade":4438,"stift":4439,"minstone":4440,"gravid":4441,"underbara":4442,"sprogram":4443,"ES":4444,"Lind":4445,"gg":4446,"ister":4447,"lakemedel":4448,"Samtidigt":4449,"industri":4450,"gett":4451,"ald":4452,"havet":4453,"tube":4454,"stjan":4455,"Ore":4456,"Skulle":4457,"aten":4458,"stress":4459,"stas":4460,"jande":4461,"Gi":4462,"restaurang":4463,"ass":4464,"ografi":4465,"stitut":4466,"rejal":4467,"strax":4468,"Sc":4469,"blommor":4470,"bakgrund":4471,"amnen":4472,"stral":4473,"kad":4474,"funnit":4475,"Gra":4476,"ologiska":4477,"appar":4478,"pad":4479,"bili":4480,"mens":4481,"hyr":4482,"sky":4483,"visat":4484,"vr":4485,"ursprung":4486,"personuppgifter":4487,"ax":4488,"hallen":4489,"sche":4490,"otta":4491,"marke":4492,"singborg":4493,"harligt":4494,"hittat":4495,"bilderna":4496,"buss":4497,"undersokning":4498,"jda":4499,"vor":4500,"malet":4501,"odra":4502,"supp":4503,"bestamm":4504,"mjuk":4505,"Natur":4506,"Mor":4507,"paverkar":4508,"vardag":4509,"naturligtvis":4510,"tant":4511,"Berg":4512,"personlig":4513,"ppade":4514,"Regi":4515,"okad":4516,"bio":4517,"ferens":4518,"arm":4519,"soffan":4520,"underklader":4521,"modeller":4522,"fordel":4523,"tivt":4524,"skatte":4525,"Knulla":4526,"splatsen":4527,"morse":4528,"Forst":4529,"politiker":4530,"motet":4531,"plast":4532,"sjon":4533,"flykt":4534,"FOR":4535,"2008":4536,"litar":4537,"utvecklas":4538,"vila":4539,"Nagra":4540,"cam":4541,"Do":4542,"rea":4543,"ansvarig":4544,"Tur":4545,"situation":4546,"ze":4547,"vardags":4548,"vinn":4549,"mel":4550,"bergs":4551,"stisk":4552,"34":4553,"Bill":4554,"besvar":4555,"festival":4556,"Sexiga":4557,"choklad":4558,"cookies":4559,"gorande":4560,"belopp":4561,"max":4562,"rikta":4563,"antag":4564,"ungdomar":4565,"pool":4566,"lugnt":4567,"straff":4568,"but":4569,"US":4570,"lagar":4571,"feren":4572,"Red":4573,"Forsta":4574,"frisk":4575,"skydds":4576,"medvet":4577,"forbattra":4578,"mota":4579,"posta":4580,"Vart":4581,"IC":4582,"ycker":4583,"07":4584,"sva":4585,"dow":4586,"relig":4587,"riktning":4588,"salja":4589,"metoder":4590,"pig":4591,"klarar":4592,"Nil":4593,"Eng":4594,"OL":4595,"Maria":4596,"fet":4597,"Ul":4598,"ryg":4599,"killar":4600,"branschen":4601,"station":4602,"pedagog":4603,"Sch":4604,"konstigt":4605,"hantera":4606,"stopp":4607,"endet":4608,"ert":4609,"drygt":4610,"with":4611,"slutade":4612,"orkar":4613,"uellt":4614,"kterna":4615,"skuld":4616,"Ski":4617,"sprang":4618,"MA":4619,"tecken":4620,"ersattning":4621,"aktie":4622,"minister":4623,"grav":4624,"hallbar":4625,"App":4626,"cerad":4627,"fored":4628,"Ol":4629,"fro":4630,"Land":4631,"Matt":4632,"65":4633,"syns":4634,"glada":4635,"sjun":4636,"anger":4637,"syfte":4638,"grym":4639,"ep":4640,"banken":4641,"transport":4642,"bull":4643,"IP":4644,"langs":4645,"05":4646,"ledande":4647,"forandring":4648,"Gran":4649,"underbart":4650,"lagom":4651,"01":4652,"populara":4653,"bestamt":4654,"delta":4655,"mus":4656,"rattigheter":4657,"iallafall":4658,"ht":4659,"lund":4660,"varier":4661,"kunskaper":4662,"latta":4663,"ssatt":4664,"ladda":4665,"gy":4666,"normalt":4667,"psyki":4668,"racker":4669,"knull":4670,"juk":4671,"sub":4672,"ng":4673,"kallade":4674,"sallan":4675,"stian":4676,"stallen":4677,"Basta":4678,"saljer":4679,"recension":4680,"Online":4681,"pengarna":4682,"domstol":4683,"danden":4684,"barnet":4685,"Pen":4686,"fack":4687,"hogst":4688,"elle":4689,"38":4690,"omedel":4691,"Valkommen":4692,"ringer":4693,"uto":4694,"ction":4695,"darna":4696,"syster":4697,"ack":4698,"porrfilm":4699,"profession":4700,"stycken":4701,"forhopp":4702,"attra":4703,"inklusive":4704,"Fy":4705,"Orebro":4706,"halls":4707,"alien":4708,"flu":4709,"stanna":4710,"hals":4711,"ordin":4712,"renover":4713,"Mic":4714,"terad":4715,"yrkes":4716,"Finland":4717,"natverk":4718,"Tyvarr":4719,"forbundet":4720,"svarta":4721,"forandringar":4722,"rim":4723,"detalj":4724,"cerade":4725,"tving":4726,"Hi":4727,"32":4728,"givning":4729,"funkar":4730,"blo":4731,"magen":4732,"springa":4733,"byte":4734,"medarbetare":4735,"300":4736,"vaga":4737,"atminstone":4738,"stran":4739,"mojliga":4740,"ye":4741,"politik":4742,"rosa":4743,"San":4744,"personen":4745,"vaxer":4746,"Bon":4747,"lyckats":4748,"likt":4749,"kanslor":4750,"scha":4751,"UN":4752,"Foretag":4753,"sattningen":4754,"Fort":4755,"forhallanden":4756,"Kommer":4757,"gards":4758,"mojligheten":4759,"Sund":4760,"kyrkan":4761,"diag":4762,"John":4763,"rus":4764,"reklam":4765,"stallningen":4766,"Social":4767,"juster":4768,"sland":4769,"matcher":4770,"Nya":4771,"slakt":4772,"okej":4773,"hjul":4774,"bedri":4775,"vata":4776,"ion":4777,"Visst":4778,"mans":4779,"Fo":4780,"stitution":4781,"sallskap":4782,"Vilken":4783,"betalar":4784,"skapen":4785,"ya":4786,"laste":4787,"ustr":4788,"inkomst":4789,"ckan":4790,"Ah":4791,"bre":4792,"…]":4793,"obe":4794,"lingar":4795,"hantering":4796,"besoka":4797,"grann":4798,"sattet":4799,"drift":4800,"formodligen":4801,"varken":4802,"fotograf":4803,"mysigt":4804,"tagen":4805,"Aldre":4806,"numera":4807,"jobbigt":4808,"bler":4809,"sort":4810,"befolk":4811,"kampan":4812,"golv":4813,"Ben":4814,"cin":4815,"forelas":4816,"Hus":4817,"vun":4818,"Vin":4819,"06":4820,"Poli":4821,"tiskt":4822,"forum":4823,"Skol":4824,"utbil":4825,"spo":4826,"Jes":4827,"Nagon":4828,"39":4829,"kamera":4830,"2000":4831,"fungera":4832,"alkohol":4833,"siff":4834,"Forutom":4835,"xor":4836,"iz":4837,"kommunikation":4838,"eli":4839,"?!":4840,"karen":4841,"Tysk":4842,"faller":4843,"bis":4844,"forbered":4845,"48":4846,"marna":4847,"upply":4848,"underbar":4849,"Vissa":4850,"anses":4851,"Son":4852,"troller":4853,"[…]":4854,"kallar":4855,"Valj":4856,"samhalle":4857,"tve":4858,"fattar":4859,"para":4860,"Anal":4861,"Lon":4862,"kran":4863,"dex":4864,"hemmet":4865,"frihet":4866,"bandet":4867,"ric":4868,"internationella":4869,"tioner":4870,"saken":4871,"begrepp":4872,"genomsnitt":4873,"smarta":4874,"sover":4875,"tydligen":4876,"Fick":4877,"minns":4878,"jun":4879,"polisen":4880,"mission":4881,"mjolk":4882,"shopp":4883,"emang":4884,"Am":4885,"forr":4886,"aktivitet":4887,"vackert":4888,"dorren":4889,"skole":4890,"AG":4891,"sugen":4892,"langi":4893,"cu":4894,"fici":4895,"lom":4896,"anvandare":4897,"forsokte":4898,"konsekven":4899,"styrka":4900,"finansiering":4901,"delas":4902,"laggande":4903,"lapp":4904,"197":4905,"fordelar":4906,"Fal":4907,"foto":4908,"singlar":4909,"dia":4910,"sman":4911,"ani":4912,"04":4913,"organisationer":4914,"fodd":4915,"37":4916,"ssor":4917,"vak":4918,"artiklar":4919,"relativt":4920,"adress":4921,"metod":4922,"fragade":4923,"sorti":4924,"nyheter":4925,"Hol":4926,"Br":4927,"varna":4928,"varre":4929,"vakt":4930,"cks":4931,"enden":4932,"opti":4933,"traffade":4934,"tyst":4935,"hunnit":4936,"skull":4937,"soder":4938,"skot":4939,"ding":4940,"tad":4941,"OK":4942,"atit":4943,"kommuner":4944,"princip":4945,"prom":4946,"ideer":4947,"roda":4948,"Skri":4949,"chansen":4950,"cancer":4951,"God":4952,"pren":4953,"narheten":4954,"rader":4955,"konstnar":4956,"snabba":4957,"Krist":4958,"omsorg":4959,"Dating":4960,"SEK":4961,"lanet":4962,"avan":4963,"anner":4964,"avgifter":4965,"nuvarande":4966,"02":4967,"kanslan":4968,"ordet":4969,"ogle":4970,"tju":4971,"analys":4972,"CK":4973,"behovde":4974,"Helt":4975,"boka":4976,"gast":4977,"Ki":4978,"invand":4979,"vida":4980,"ringen":4981,"forsikt":4982,"klin":4983,"aktuella":4984,"Sna":4985,"uta":4986,"Carl":4987,"nere":4988,"bjod":4989,"undvika":4990,"rekommenderar":4991,"bedomning":4992,"slagen":4993,"humor":4994,"harliga":4995,"risken":4996,"tunn":4997,"bestalla":4998,"mogna":4999,"handlingar":5000,"snarare":5001,"lie":5002,"tanken":5003,"overra":5004,"Resultat":5005,"ome":5006,"formed":5007,"tip":5008,"perioden":5009,"stiskt":5010,"Bro":5011,"enklare":5012,"varan":5013,"givetvis":5014,"uppleva":5015,"formen":5016,"bana":5017,"Lars":5018,"Kung":5019,"sms":5020,"familje":5021,"relation":5022,"moten":5023,"lader":5024,"tranings":5025,"Kron":5026,"betalnings":5027,"figur":5028,"hinner":5029,"OT":5030,"torr":5031,"stalld":5032,"tillfalle":5033,"Produ":5034,"gli":5035,"startade":5036,"hindra":5037,"its":5038,"utgang":5039,"toppen":5040,"perspektiv":5041,"grip":5042,"yta":5043,"ktigt":5044,"klubben":5045,"SD":5046,"Vag":5047,"etten":5048,"rens":5049,"definitivt":5050,"gaster":5051,"tvungen":5052,"narings":5053,"Dal":5054,"porno":5055,"foljd":5056,"levande":5057,"oer":5058,"integr":5059,"kod":5060,"koket":5061,"befinner":5062,"fog":5063,"fortroende":5064,"kommentarer":5065,"varo":5066,"ago":5067,"termin":5068,"initi":5069,"2007":5070,"Hos":5071,"bott":5072,"Amator":5073,"skaffa":5074,"linjer":5075,"hann":5076,"omoj":5077,"vast":5078,"forman":5079,"lass":5080,"backen":5081,"inspiration":5082,"broll":5083,"hamnar":5084,"EM":5085,"Nakna":5086,"Bygg":5087,"central":5088,"Jen":5089,"berattade":5090,"varlds":5091,"riar":5092,"korta":5093,"motstand":5094,"popular":5095,"resurser":5096,"PA":5097,"vadret":5098,"utgor":5099,"got":5100,"amerikanska":5101,"riktiga":5102,"angen":5103,"Andersson":5104,"44":5105,"rele":5106,"bum":5107,"flickor":5108,"ura":5109,"erbjudanden":5110,"individu":5111,"My":5112,"brollop":5113,"rorelse":5114,"FF":5115,"anvande":5116,"Kal":5117,"pratade":5118,"Gun":5119,"myndighet":5120,"Super":5121,"agera":5122,"tydlig":5123,"sags":5124,"begar":5125,"planen":5126,"utsikt":5127,"valj":5128,"hinder":5129,"uer":5130,"vander":5131,"plocka":5132,"hyll":5133,"inta":5134,"alsk":5135,"kaka":5136,"tillverka":5137,"maktig":5138,"Lan":5139,"dire":5140,"perfekta":5141,"anlagg":5142,"HD":5143,"delningen":5144,"slutar":5145,"radi":5146,"langd":5147,"medier":5148,"stranden":5149,"hansyn":5150,"lamnade":5151,"Video":5152,":-)":5153,"varma":5154,"Ur":5155,"Nagot":5156,"burg":5157,"ogonen":5158,"mol":5159,"flash":5160,"hundra":5161,"grona":5162,"vade":5163,"landst":5164,"byn":5165,"vaster":5166,"bloggar":5167,"alle":5168,"jorden":5169,"tillgangliga":5170,"wo":5171,"administr":5172,"fabri":5173,"Information":5174,"agra":5175,"skrifter":5176,"kurser":5177,"Slut":5178,"samre":5179,"nytta":5180,"block":5181,"butiken":5182,"fitta":5183,"spun":5184,"besokare":5185,"mentar":5186,"Kra":5187,"haret":5188,"bidra":5189,"exa":5190,"NA":5191,"Bol":5192,"dricka":5193,"Pi":5194,"ms":5195,"Lagg":5196,"daliga":5197,"forbund":5198,"jobbat":5199,"lans":5200,"webbplatsen":5201,"Innan":5202,"stammer":5203,"Norge":5204,"patienter":5205,"Sand":5206,"Annars":5207,"Ve":5208,"rull":5209,"aning":5210,"golvet":5211,"overens":5212,"Vol":5213,"landska":5214,"ftel":5215,"ters":5216,"skru":5217,"ual":5218,"omfattande":5219,"Inne":5220,"tung":5221,"46":5222,"RE":5223,"cial":5224,"Vem":5225,"Utan":5226,"lyx":5227,"chatt":5228,"regering":5229,"trakigt":5230,"sle":5231,"Skane":5232,"Vilket":5233,"ags":5234,"Haha":5235,"innov":5236,"blan":5237,"Klicka":5238,"arran":5239,"Nam":5240,"bidrar":5241,"kademi":5242,"fakta":5243,"nack":5244,"gemensamma":5245,"Bru":5246,"utrymme":5247,"framforallt":5248,"meddelande":5249,"webbplatser":5250,"ila":5251,"Mam":5252,"eleverna":5253,"Gav":5254,"godis":5255,"unika":5256,"plo":5257,"kallt":5258,"dil":5259,"gay":5260,"finna":5261,"uppratt":5262,"arranger":5263,"hjarta":5264,"cell":5265,"ind":5266,"!)":5267,"oll":5268,"mening":5269,"potenti":5270,"ld":5271,"garanti":5272,"dades":5273,"miljar":5274,"snabbare":5275,"hotellet":5276,"jall":5277,"Span":5278,"intressanta":5279,"egenskaper":5280,"mangder":5281,"nart":5282,"litteratur":5283,"Tri":5284,"Tot":5285,"delade":5286,"foret":5287,"vapen":5288,"fard":5289,"huvudsak":5290,"moderna":5291,"extremt":5292,"mos":5293,"day":5294,"samla":5295,"rakna":5296,"bevis":5297,"journali":5298,"svarar":5299,"Andre":5300,"here":5301,"avseende":5302,"klo":5303,"Nord":5304,"vagg":5305,"Casin":5306,"Hela":5307,"IV":5308,"alskade":5309,"anne":5310,"vaknade":5311,"ular":5312,"cerat":5313,"arens":5314,"vintern":5315,"vera":5316,"AND":5317,"Ac":5318,"motsvarande":5319,"Ele":5320,"grundlaggande":5321,"iland":5322,"bul":5323,"driver":5324,"delsed":5325,"ette":5326,"bera":5327,"nyligen":5328,"hande":5329,"tillhanda":5330,"tittade":5331,"videor":5332,"dog":5333,"problemet":5334,"Mina":5335,"Tyskland":5336,"pga":5337,"anges":5338,"konser":5339,"framtid":5340,"sadar":5341,"driv":5342,"tekniska":5343,"tanter":5344,"domen":5345,"Verk":5346,"Fredrik":5347,"fs":5348,"49":5349,"Daniel":5350,"Ru":5351,"billigt":5352,"enskilda":5353,"bestammelser":5354,"total":5355,"Hor":5356,"bladet":5357,"utav":5358,"kombination":5359,"cel":5360,"hyres":5361,"erfarenheter":5362,"Martin":5363,"2006":5364,"bussen":5365,"intensi":5366,"singel":5367,"aventyr":5368,"centrala":5369,"lot":5370,"Visa":5371,"gangar":5372,"format":5373,"peiska":5374,"arbetat":5375,"sonder":5376,"Plan":5377,"03":5378,"separ":5379,"deltagare":5380,"utbildningen":5381,"Gol":5382,"Char":5383,"inlagget":5384,"ifi":5385,"ctor":5386,"allmanna":5387,"insatser":5388,"koppling":5389,"naturen":5390,"refle":5391,"PS":5392,"positivt":5393,"nodvandigt":5394,"narvarande":5395,"hjartat":5396,"hushall":5397,"anska":5398,"kontin":5399,"identifi":5400,"letar":5401,"stolt":5402,"priori":5403,"aktiva":5404,"yout":5405,"bestamde":5406,"atet":5407,"seger":5408,"enten":5409,"olikt":5410,"oster":5411,"betra":5412,"forran":5413,"snyggt":5414,"Samman":5415,"utlan":5416,"elektron":5417,"Tele":5418,"naderna":5419,"kollade":5420,"tidningen":5421,"Alex":5422,"krist":5423,"pasta":5424,"fit":5425,"oerhort":5426,"aktivt":5427,"Jesus":5428,"ftar":5429,"avstand":5430,"Pl":5431,"tjansten":5432,"underlag":5433,"ilt":5434,"hell":5435,"Frag":5436,"bisk":5437,"amne":5438,"Knull":5439,"iginal":5440,"forfattare":5441,"Vax":5442,"framgangs":5443,"trade":5444,"huden":5445,"tjanste":5446,"center":5447,"Met":5448,"styrelse":5449,"-,":5450,"skrivs":5451,"Ital":5452,"tillganglig":5453,".[":5454,"lekar":5455,"liggande":5456,"Got":5457,"ologisk":5458,"miner":5459,"die":5460,"ledar":5461,"wor":5462,"sproc":5463,"iv":5464,"car":5465,"ink":5466,"restauranger":5467,"statistik":5468,"Folk":5469,"fiske":5470,"ingarna":5471,"manaden":5472,"Hy":5473,"modellen":5474,"slappa":5475,"196":5476,"Cam":5477,"ior":5478,"1000":5479,"unt":5480,"bostader":5481,"Por":5482,"Foto":5483,"Tu":5484,"Kur":5485,"fragar":5486,"gin":5487,"jamn":5488,"kord":5489,"ash":5490,"stats":5491,"exklu":5492,"gjord":5493,"funnits":5494,"fyr":5495,"ordningen":5496,"lankar":5497,"beskriver":5498,"sprodu":5499,"familjer":5500,"effektivt":5501,"linje":5502,"avslo":5503,"leta":5504,"tillfallen":5505,"relater":5506,"Pe":5507,"aktiv":5508,"grej":5509,"Bilder":5510,"TA":5511,"radda":5512,"faktum":5513,"syr":5514,"Nasta":5515,"texten":5516,"sexuella":5517,"Riks":5518,"Is":5519,"Imorgon":5520,"varsta":5521,"Opp":5522,"SL":5523,"ringde":5524,"NING":5525,"motiv":5526,"serade":5527,"Led":5528,"400":5529,"staten":5530,"ah":5531,"VM":5532,"certifi":5533,"fodelsed":5534,"nj":5535,"massigt":5536,"derade":5537,"karl":5538,"livsmedel":5539,"Ater":5540,"market":5541,"valda":5542,"vie":5543,"lank":5544,"intresserade":5545,"eld":5546,"Daremot":5547,"Tror":5548,"balans":5549,"torsdag":5550,"eventuella":5551,"skickar":5552,"Lju":5553,"ockey":5554,"nagonstans":5555,"tillvaxt":5556,"lamnas":5557,"varav":5558,"que":5559,"Tid":5560,"privata":5561,"fukt":5562,"Pal":5563,"hailand":5564,"master":5565,"ford":5566,"positiva":5567,"symbol":5568,"startar":5569,"ckade":5570,"valkommen":5571,"Pol":5572,"smatt":5573,"karaktar":5574,"ktiva":5575,"qvist":5576,"atik":5577,"anvant":5578,"anmalan":5579,"somn":5580,"illar":5581,"forandra":5582,"visningen":5583,"Thaimassage":5584,"jung":5585,"kompisar":5586,"kors":5587,"klassen":5588,"Johansson":5589,"jarna":5590,"svall":5591,"assi":5592,"reser":5593,"hittills":5594,"kalen":5595,"tradgard":5596,"dekor":5597,"handlade":5598,"nus":5599,"hunden":5600,"hov":5601,"potatis":5602,"stalls":5603,"hanga":5604,"sering":5605,"flashback":5606,"namnden":5607,"ii":5608,"normal":5609,"kvan":5610,"skraft":5611,"leverans":5612,"minskar":5613,"pagar":5614,"student":5615,"tycka":5616,"rora":5617,"Black":5618,"arie":5619,"landa":5620,"sale":5621,"nojda":5622,"statt":5623,"handen":5624,"anmark":5625,"Film":5626,"AA":5627,"kursen":5628,"mogen":5629,"kakor":5630,"folket":5631,"individer":5632,"47":5633,"Ed":5634,"Svart":5635,"befint":5636,"nos":5637,"okade":5638,"skickas":5639,"sakerhets":5640,"ela":5641,"klassiska":5642,"amal":5643,"arbeten":5644,"varv":5645,"ium":5646,"your":5647,"rubri":5648,"150":5649,"passade":5650,"nio":5651,"Dig":5652,"ratter":5653,"tillam":5654,"Swed":5655,"okning":5656,"fullmaktig":5657,"bert":5658,"Google":5659,"langst":5660,"kontroller":5661,"genomfora":5662,"ono":5663,"invan":5664,"ond":5665,"isar":5666,"inkop":5667,"sota":5668,"ledig":5669,"show":5670,"knappa":5671,"halften":5672,"ias":5673,"somrade":5674,"orten":5675,"atorer":5676,"Kun":5677,"kult":5678,"overallt":5679,"undantag":5680,"skarm":5681,"inled":5682,"rena":5683,"utover":5684,"framtida":5685,"spelat":5686,"somraden":5687,"erades":5688,"lim":5689,"langivare":5690,"unda":5691,"standet":5692,"positiv":5693,"Marie":5694,"mad":5695,"presentation":5696,"forstor":5697,"bekvam":5698,"fasta":5699,"hanger":5700,"Inga":5701,"massan":5702,"studenter":5703,"horn":5704,"fjarde":5705,"uren":5706,"arig":5707,"Sil":5708,"stallt":5709,"Foren":5710,"matte":5711,"duktig":5712,"hallet":5713,"nyckel":5714,"Kontakt":5715,"peppar":5716,"desto":5717,"berak":5718,"Bri":5719,"Casino":5720,"bildning":5721,"agemang":5722,"vaxa":5723,"maskiner":5724,"Sara":5725,"personalen":5726,"glass":5727,"Max":5728,"lyft":5729,"bredvid":5730,"Win":5731,"Bj":5732,"bock":5733,"kast":5734,"VD":5735,"hjart":5736,"Rom":5737,"ometer":5738,"AS":5739,"nien":5740,"lamnat":5741,"nationella":5742,"digitala":5743,"Ann":5744,"Pat":5745,"ee":5746,"strikt":5747,"naturliga":5748,"95":5749,"Sma":5750,"trodu":5751,"gyn":5752,"logg":5753,"Konta":5754,"tillfallet":5755,"king":5756,"agerar":5757,"Ob":5758,"grill":5759,"sjukhus":5760,"hinna":5761,"lax":5762,"slipper":5763,"kostnads":5764,"oppnar":5765,"langsikt":5766,"tema":5767,"bodde":5768,"badrum":5769,"David":5770,"bryt":5771,"faktorer":5772,"behalla":5773,"42":5774,"Log":5775,"horde":5776,"forskare":5777,"anslutning":5778,"raknas":5779,"nakna":5780,"betalas":5781,"hyra":5782,"stimul":5783,"Bade":5784,"Ovr":5785,"mam":5786,"julkla":5787,"titel":5788,"Blir":5789,"leverantorer":5790,"tning":5791,"ved":5792,"AM":5793,"ktorn":5794,"bitar":5795,"Kultur":5796,"wer":5797,"mobilen":5798,"Sar":5799,"iosa":5800,"hej":5801,"real":5802,"kapa":5803,"forklara":5804,"ian":5805,"kasin":5806,"sajter":5807,"andes":5808,"park":5809,"Maste":5810,"stjarnor":5811,"naturligt":5812,"mormor":5813,"grejer":5814,"Helsingborg":5815,"nyhet":5816,"driva":5817,"Ton":5818,"facebook":5819,"pil":5820,"skydda":5821,"Saker":5822,"ytan":5823,"skat":5824,"major":5825,"fyn":5826,"bestamma":5827,"itu":5828,"utomhus":5829,"Soker":5830,"album":5831,"vanligtvis":5832,"skost":5833,"stiden":5834,"Precis":5835,"sortiment":5836,"latar":5837,"vagn":5838,"runda":5839,"this":5840,"rekry":5841,"grat":5842,"militar":5843,"uppna":5844,"minne":5845,"bestammer":5846,"leverantor":5847,"utfora":5848,"Ryss":5849,"handelser":5850,"tic":5851,"erotisk":5852,"Danmark":5853,"satsen":5854,"budet":5855,"loppet":5856,"kryd":5857,"psyk":5858,"Vilka":5859,"byra":5860,"somradet":5861,"fry":5862,"Asi":5863,"samverkan":5864,"batteri":5865,"Dagens":5866,"byxor":5867,"radio":5868,"urval":5869,"kameran":5870,"Gavle":5871,"relationer":5872,"fira":5873,"skram":5874,"tillbehor":5875,"motion":5876,"heta":5877,"nerv":5878,"utbildningar":5879,"objekt":5880,"benen":5881,"Sten":5882,"siffror":5883,"besvi":5884,"rese":5885,"ava":5886,"Mogna":5887,"falla":5888,"bekra":5889,"London":5890,"Darefter":5891,"silver":5892,"koncentr":5893,"forhoppningsvis":5894,"Bild":5895,"alltfor":5896,"paverkan":5897,"flyttade":5898,"mall":5899,"offici":5900,"mobler":5901,"inredning":5902,"siska":5903,"minut":5904,"Eli":5905,"Gro":5906,"upplever":5907,"eu":5908,"demokraterna":5909,"iP":5910,"ums":5911,"sarskilda":5912,"itter":5913,"minsta":5914,"guide":5915,"PP":5916,"rund":5917,"OB":5918,"givande":5919,"way":5920,"behandlas":5921,"ryggen":5922,"entu":5923,"vardig":5924,"ern":5925,"Chri":5926,"Play":5927,"strin":5928,"rida":5929,"ille":5930,"situationer":5931,"put":5932,"oxa":5933,"funderar":5934,"rock":5935,"Arbets":5936,"tavlingen":5937,"dollar":5938,"gemensamt":5939,"ALL":5940,"servera":5941,"Alltsa":5942,"bus":5943,"mikro":5944,"cia":5945,"Vast":5946,"forpack":5947,"Totalt":5948,"jet":5949,"Ofta":5950,"rep":5951,"marknadsforing":5952,"Frankri":5953,"inre":5954,"Oavsett":5955,"nare":5956,"Reg":5957,"kyck":5958,"forskott":5959,"gratt":5960,"2005":5961,"allmant":5962,"hypotek":5963,"lokaler":5964,"forstaelse":5965,"sock":5966,"arkite":5967,"sval":5968,"skvall":5969,"bjuda":5970,"digare":5971,"sigt":5972,"ktar":5973,"sporter":5974,"aktier":5975,"mover":5976,"Mark":5977,"Musi":5978,"verkligheten":5979,"agna":5980,"citet":5981,"Inom":5982,"myndigheter":5983,"polis":5984,"els":5985,"Tycker":5986,"gna":5987,"herr":5988,"andamal":5989,"trivs":5990,"lita":5991,"gum":5992,"ambi":5993,"barns":5994,"flexi":5995,"ox":5996,"automatiskt":5997,"happ":5998,"flick":5999,"onsdag":6000,"fron":6001,"gul":6002,"juri":6003,"stry":6004,"avgorande":6005,"flytande":6006,"ave":6007,"Sport":6008,"lagenheten":6009,"foretagen":6010,"langtar":6011,"saknas":6012,"vd":6013,"offentlig":6014,"cerar":6015,"verse":6016,"Indi":6017,"visor":6018,"pin":6019,"Fam":6020,"mater":6021,"ica":6022,"syd":6023,"Lad":6024,"uttal":6025,"bben":6026,"Forsa":6027,"korrekt":6028,"hypotekslan":6029,"skolans":6030,"maxi":6031,"dras":6032,"js":6033,"atan":6034,"traffat":6035,"sokande":6036,"derat":6037,"publik":6038,"skans":6039,"sexleksaker":6040,"engagemang":6041,"vunnit":6042,"produkten":6043,"processen":6044,"diet":6045,"gjorda":6046,"byggt":6047,"kallad":6048,"jack":6049,"Sweden":6050,"lagstift":6051,"satsa":6052,"Tex":6053,"ational":6054,"andring":6055,"Bel":6056,"Italien":6057,"noga":6058,"Fli":6059,"repar":6060,"85":6061,"skug":6062,"Sty":6063,"fortsatte":6064,"XX":6065,"gud":6066,"naken":6067,"forsor":6068,"foremal":6069,"narmaste":6070,"avlon":6071,"utredning":6072,"ral":6073,"HA":6074,"kunden":6075,"snall":6076,"situationen":6077,"Ek":6078,"foder":6079,"samhalls":6080,"fara":6081,"sspel":6082,"Jonas":6083,"kerna":6084,"besked":6085,"kommunens":6086,"onskemal":6087,"enlighet":6088,"miljarder":6089,"SP":6090,"papp":6091,"Net":6092,"vete":6093,"\u0000\u0000":6094,"kin":6095,"foreningar":6096,"dos":6097,"upplevelser":6098,"vardet":6099,"Les":6100,"Emma":6101,"mork":6102,"Skon":6103,"bett":6104,"knik":6105,"verkliga":6106,"fyllt":6107,"anord":6108,"avfall":6109,"teater":6110,"Sig":6111,"siga":6112,"**":6113,"forsamling":6114,"chen":6115,"brom":6116,"Fe":6117,"pum":6118,"fundera":6119,"konfli":6120,"diskutera":6121,"smin":6122,"beslutet":6123,"phone":6124,"git":6125,"tillamp":6126,"bruks":6127,"bbe":6128,"jade":6129,"Blev":6130,"tranar":6131,"gom":6132,"sprut":6133,"konkurren":6134,"bilitet":6135,"UT":6136,"lly":6137,"nivaer":6138,"Sofi":6139,"Sag":6140,"mata":6141,"prag":6142,"damm":6143,"japan":6144,"raka":6145,"ingred":6146,"Stefan":6147,"shopping":6148,"Kata":6149,"sjuka":6150,"Ror":6151,"belys":6152,"Kontakta":6153,"argu":6154,"historien":6155,"tjock":6156,"pyss":6157,"sid":6158,"balkon":6159,"Jar":6160,"avser":6161,"socialt":6162,"Bjor":6163,"Arets":6164,"erotiska":6165,"unik":6166,"hehe":6167,"ifall":6168,"skona":6169,"Gay":6170,"tyska":6171,"hastighet":6172,"eringen":6173,"tage":6174,"framsta":6175,"insats":6176,"stallde":6177,"Kro":6178,"lof":6179,"Flera":6180,"iter":6181,"traffas":6182,"Tillsammans":6183,"Bir":6184,"offentliga":6185,"kart":6186,"foll":6187,"Ener":6188,"sallad":6189,"!!!!":6190,"kyrka":6191,"Ung":6192,"Bjorn":6193,"inse":6194,"upptacka":6195,"atch":6196,"cre":6197,"forvant":6198,"enskom":6199,"trapp":6200,"Bal":6201,"strang":6202,"195":6203,"synd":6204,"frakt":6205,"trevliga":6206,"black":6207,"spins":6208,"support":6209,"konsumen":6210,"eventuellt":6211,"nord":6212,"forsokt":6213,"metall":6214,"play":6215,"Nilsson":6216,"slot":6217,"nyss":6218,"stack":6219,"baserad":6220,"ansvarar":6221,"sekunder":6222,"berom":6223,"gru":6224,"anlaggning":6225,"brett":6226,"forsakrings":6227,"framover":6228,"kannas":6229,"glob":6230,"inkom":6231,"original":6232,"skiljer":6233,"omfattar":6234,"aktorer":6235,"vaggen":6236,"ml":6237,"halva":6238,"allting":6239,"Frankrike":6240,"favori":6241,"City":6242,"luften":6243,"Rad":6244,"Sok":6245,"flam":6246,"tillagg":6247,"gransen":6248,"illi":6249,"Fru":6250,"savgift":6251,"svarare":6252,"punkten":6253,"titet":6254,"fann":6255,"kull":6256,"ersatt":6257,"Miljo":6258,"helhet":6259,"utslapp":6260,"sjukdomar":6261,"lyssnar":6262,"appen":6263,"formag":6264,"erings":6265,"exklusi":6266,"pizz":6267,"karriar":6268,"skaff":6269,"harda":6270,"Skar":6271,"Kanns":6272,"dot":6273,"Varm":6274,"stugan":6275,"sningar":6276,"sodra":6277,"41":6278,"resul":6279,"sim":6280,"spi":6281,"flicka":6282,"shi":6283,"nyfiken":6284,"status":6285,"Qu":6286,"kontrollera":6287,"alli":6288,"stagram":6289,"Ry":6290,"sinn":6291,"LO":6292,"toal":6293,"olik":6294,"lider":6295,"Ratt":6296,"beskriva":6297,"verksamheter":6298,"lagenheter":6299,"cce":6300,"make":6301,"Wil":6302,"forekommer":6303,"bokstav":6304,"byggd":6305,"jning":6306,"rejalt":6307,"valkomna":6308,"angel":6309,"Col":6310,"naring":6311,"vaxter":6312,"gjordes":6313,"trang":6314,"Projekt":6315,"golf":6316,"Cha":6317,"fortjan":6318,"plock":6319,"43":6320,"totala":6321,"Gener":6322,"assa":6323,"traningen":6324,"aldern":6325,"kontakter":6326,"namnda":6327,"patient":6328,"Mamma":6329,"kristna":6330,"drott":6331,"panel":6332,"smyck":6333,"uppstar":6334,"erbjudande":6335,"framgar":6336,"leka":6337,"uttar":6338,"Bes":6339,"omedelbart":6340,"omstand":6341,"effektiv":6342,"fatta":6343,"Gamla":6344,"ktions":6345,"texter":6346,"Japan":6347,"intill":6348,"kompli":6349,"byggande":6350,"byggnader":6351,"final":6352,"FS":6353,"teor":6354,"gifta":6355,"pask":6356,"biska":6357,"lant":6358,"affars":6359,"blandning":6360,"baserade":6361,"Fu":6362,"forts":6363,"nyhets":6364,"sannolikt":6365,"Thom":6366,"offer":6367,"varmen":6368,"oso":6369,"inser":6370,"skriven":6371,"riska":6372,"nitt":6373,"skrivning":6374,"dyker":6375,"asikter":6376,"sso":6377,"uppmarksamhet":6378,"tokoll":6379,"girl":6380,"baserat":6381,"sovrum":6382,"kortare":6383,"fullmaktige":6384,"tapp":6385,"utmaningar":6386,"sned":6387,"skapat":6388,"vanligaste":6389,"bestallning":6390,"sarskild":6391,"noll":6392,"tagna":6393,"ingsdag":6394,"zon":6395,"lone":6396,"KT":6397,"Mel":6398,"omojligt":6399,"tisdag":6400,"kvalitets":6401,"bryg":6402,"organisationen":6403,"youtube":6404,"You":6405,"Fun":6406,"utvecklings":6407,"kanten":6408,"2004":6409,"enskap":6410,"Lyck":6411,"kollektiv":6412,"fylld":6413,"mord":6414,"standig":6415,"effekter":6416,"Fr":6417,"elev":6418,"teckning":6419,"ceras":6420,"visningar":6421,"AV":6422,"ley":6423,"bryta":6424,"EG":6425,"strum":6426,"Ali":6427,"blogga":6428,"farligt":6429,"trycket":6430,"Christ":6431,"ekonomisk":6432,"Inget":6433,"belon":6434,"inslag":6435,"dialog":6436,"innehallet":6437,"amnet":6438,"skiva":6439,"utomlands":6440,"happy":6441,"styrelsens":6442,"presentera":6443,"ierna":6444,"uppfattning":6445,"sakta":6446,"lyfta":6447,"porrfilmer":6448,"issa":6449,"fyllda":6450,"that":6451,"klag":6452,"utbildnings":6453,"vards":6454,"veter":6455,"ryska":6456,"ekonomiskt":6457,"Perfe":6458,"planet":6459,"sakna":6460,"dryck":6461,"rangen":6462,"Exempel":6463,"betalningar":6464,"ssons":6465,"kortet":6466,"ful":6467,"Ryssland":6468,"introdu":6469,"uppfolj":6470,"lada":6471,"legi":6472,"presi":6473,"landets":6474,"Kina":6475,"intakter":6476,"Cla":6477,"delvis":6478,"kontrakt":6479,"mental":6480,"vardera":6481,"beteende":6482,"angest":6483,"Posted":6484,"flyttar":6485,"Istallet":6486,"lipp":6487,"kritik":6488,"kung":6489,"stot":6490,"byt":6491,"hemsidan":6492,"redu":6493,"behandlingen":6494,"undervisning":6495,"lane":6496,"part":6497,"lasning":6498,"byggnaden":6499,"Vasteras":6500,"leks":6501,"Air":6502,"arenden":6503,"orden":6504,"mmel":6505,"karn":6506,"asy":6507,"Sko":6508,"shop":6509,"institution":6510,"order":6511,"parla":6512,"Ron":6513,"ladd":6514,"svenskar":6515,"Kl":6516,"stoppa":6517,"fargen":6518,"rov":6519,"doft":6520,"planering":6521,"levt":6522,"arr":6523,"billig":6524,"tavla":6525,"tydliga":6526,"klatt":6527,"nom":6528,"norra":6529,"villa":6530,"kopings":6531,"jamfora":6532,"mask":6533,"nast":6534,"Ly":6535,".....":6536,"gemensam":6537,"stannar":6538,"avloningsdag":6539,"Webb":6540,"teringen":6541,"anpass":6542,"anter":6543,"Vastra":6544,"laten":6545,"redovisning":6546,"Lam":6547,"vies":6548,"vark":6549,"tabell":6550,"koncept":6551,"slott":6552,"ji":6553,"Au":6554,"Wor":6555,"forsvinner":6556,"Famil":6557,"sahar":6558,"stuga":6559,"vav":6560,"gardar":6561,"Ter":6562,"avtalet":6563,"Satt":6564,"Djur":6565,"mix":6566,"tliga":6567,"aktor":6568,"Erotisk":6569,"myn":6570,"britan":6571,"Ag":6572,"italien":6573,"Goteborgs":6574,"if":6575,"snu":6576,"stycket":6577,"franska":6578,"parkering":6579,"lip":6580,"Mika":6581,"jattebra":6582,"given":6583,"tral":6584,"register":6585,"mkt":6586,"felakt":6587,"ockade":6588,"allmanhet":6589,"Huv":6590,"pigg":6591,"tycks":6592,"ovanligt":6593,"York":6594,"tillverkar":6595,"ano":6596,"stabil":6597,"berattelse":6598,"System":6599,"skorter":6600,"spelas":6601,"billigare":6602,"formular":6603,"erbjuds":6604,"brit":6605,"Avs":6606,"Sjo":6607,"UR":6608,"klas":6609,"Sing":6610,"kalas":6611,"givaren":6612,"isol":6613,"narmast":6614,"irri":6615,"lott":6616,"losen":6617,"Vidare":6618,"gien":6619,"miljoer":6620,"prest":6621,"iken":6622,"historiska":6623,"OCH":6624,"planerar":6625,"celler":6626,"inen":6627,"gjorts":6628,"69":6629,"kollegor":6630,"Lor":6631,"Don":6632,"knappast":6633,"Ban":6634,"fonder":6635,"foljde":6636,"lask":6637,"hellre":6638,"skogs":6639,"Che":6640,"lycka":6641,"mann":6642,"Hotell":6643,"fond":6644,"semin":6645,"Kram":6646,"vaska":6647,"SVT":6648,"sjukvard":6649,"tradgarden":6650,"vardagen":6651,"usen":6652,"kassa":6653,"motiver":6654,"skillnaden":6655,"ise":6656,"fagel":6657,"anon":6658,"Of":6659,"Wa":6660,"manskliga":6661,"komplet":6662,"bby":6663,"nivan":6664,"Bank":6665,"milf":6666,"kollar":6667,"domin":6668,"ces":6669,"kanal":6670,"splatser":6671,"aterigen":6672,"doda":6673,"Akti":6674,"Vatten":6675,"utnyttja":6676,"laddning":6677,"Publi":6678,"strackning":6679,"gripande":6680,"Magnus":6681,"tomt":6682,"Redan":6683,"skulder":6684,"Fore":6685,"premiar":6686,"600":6687,"koppla":6688,"Bla":6689,"slu":6690,"ansiktet":6691,"kvinnan":6692,"ands":6693,"tjana":6694,"rekommendera":6695,"planera":6696,"informationen":6697,"dows":6698,"slippa":6699,"skorna":6700,"Ring":6701,"dildo":6702,"svard":6703,"serad":6704,"EA":6705,"Port":6706,"kilometer":6707,"iker":6708,"gront":6709,"lopande":6710,"ments":6711,"Inter":6712,"inbju":6713,"eftermiddagen":6714,"svarade":6715,"digital":6716,"osa":6717,"foregaende":6718,"lt":6719,"artikeln":6720,"bila":6721,"saledes":6722,"typen":6723,"undersoka":6724,"emi":6725,"ventil":6726,"ap":6727,"cafe":6728,"dell":6729,"Lok":6730,"efterat":6731,"plugga":6732,"kraftigt":6733,"fysiska":6734,"mstad":6735,"Ken":6736,"medveten":6737,"strid":6738,"jamforelse":6739,"Tim":6740,"pag":6741,"klanning":6742,"utseende":6743,"slosa":6744,"regionen":6745,"dum":6746,"Kort":6747,"speciella":6748,"hoppade":6749,"angaende":6750,"gymnasie":6751,"sande":6752,"ligheter":6753,"Pris":6754,"ingredien":6755,"byggda":6756,"emellan":6757,"jobbade":6758,"postadress":6759,"?)":6760,"Bad":6761,"Syftet":6762,"%.":6763,"bakat":6764,"glomma":6765,"sia":6766,"hamtade":6767,"speciell":6768,"biljetter":6769,"forsam":6770,"mani":6771,"kno":6772,"ytor":6773,"anstallning":6774,"freds":6775,"hamnade":6776,"pitel":6777,"rarna":6778,"Hjal":6779,"trygghet":6780,"Eva":6781,"exem":6782,"88":6783,"Egen":6784,"CD":6785,"Linkoping":6786,"tig":6787,"Snart":6788,"250":6789,"Guds":6790,"utsatt":6791,"handelse":6792,"faltet":6793,"varda":6794,"evenemang":6795,"smut":6796,"umgas":6797,"rorelsen":6798,"Enda":6799,"tter":6800,"https":6801,"Jack":6802,"kropps":6803,"annons":6804,"intressen":6805,"MS":6806,"tidning":6807,"verklighet":6808,"manniskan":6809,"from":6810,"kud":6811,"our":6812,"knappen":6813,"fritid":6814,"lett":6815,"planerat":6816,"forvaltning":6817,"Len":6818,"traditionella":6819,"Live":6820,"PC":6821,"bekant":6822,"Tjan":6823,"sprojekt":6824,"Kul":6825,"forlang":6826,"Henrik":6827,"baten":6828,"affarer":6829,"girls":6830,"tavlingar":6831,"Storbritan":6832,"oblig":6833,"66":6834,"Paris":6835,"frasch":6836,"bibliotek":6837,"fjall":6838,"styra":6839,"andas":6840,"fragas":6841,"cake":6842,"kristen":6843,"gronsaker":6844,"drommar":6845,"glomt":6846,"Reger":6847,"Beng":6848,"org":6849,"mage":6850,"darifran":6851,"77":6852,"cro":6853,"skop":6854,"rats":6855,"speciali":6856,"ativet":6857,"ider":6858,"domar":6859,"succe":6860,"Gustav":6861,"aspe":6862,"check":6863,"Kalmar":6864,"tillag":6865,"rare":6866,"borgar":6867,"kannande":6868,"enskomm":6869,"berattelser":6870,"lur":6871,"sted":6872,"troligen":6873,"Xxx":6874,"koncer":6875,"besoker":6876,"fredags":6877,"Paul":6878,"mys":6879,"yrke":6880,"fragorna":6881,"behovet":6882,"utgar":6883,"snur":6884,"tillbr":6885,"togs":6886,"Speci":6887,"ice":6888,"sprodukter":6889,"jort":6890,"col":6891,"kyckling":6892,"Cy":6893,"platta":6894,"delarna":6895,"lanken":6896,"forslaget":6897,"etiska":6898,"pann":6899,"vent":6900,"registrera":6901,"inspe":6902,"odi":6903,"HL":6904,"stannade":6905,"foljt":6906,"gymnasiet":6907,"stadens":6908,"atter":6909,"lings":6910,"antar":6911,"tvi":6912,"velat":6913,"foton":6914,"erligen":6915,"frivill":6916,"OD":6917,"finan":6918,"Thomas":6919,"ktivt":6920,"ada":6921,"tranare":6922,"invanare":6923,"Jonkoping":6924,"antagligen":6925,"dna":6926,"svaret":6927,"kelse":6928,"Forra":6929,"stallda":6930,"aringar":6931,"svenskt":6932,"reserv":6933,"sperson":6934,"umer":6935,"soft":6936,"light":6937,"publiken":6938,"aktiver":6939,"bunden":6940,"oberoende":6941,"fartyg":6942,"national":6943,"andringar":6944,"rutiner":6945,"knullar":6946,"Region":6947,"rt":6948,"klock":6949,"UL":6950,"meny":6951,"Karin":6952,"dagligen":6953,"cykla":6954,"sket":6955,"surf":6956,"Varl":6957,"Program":6958,"rekord":6959,"ola":6960,"redig":6961,"Jul":6962,"vinster":6963,"synner":6964,"Kanner":6965,"behandla":6966,"rakning":6967,"egendom":6968,"rollen":6969,"uppmarksamma":6970,"fritids":6971,"reglerna":6972,"ball":6973,"kets":6974,"sidorna":6975,"retur":6976,"zi":6977,"landerna":6978,"datorer":6979,"andan":6980,"Isra":6981,"raknar":6982,"index":6983,"vention":6984,"demon":6985,"utvecklar":6986,".,":6987,"Sjalvklart":6988,"skivor":6989,"overva":6990,"starkare":6991,"engag":6992,"uppgifterna":6993,"hatt":6994,"skron":6995,"cyklar":6996,"rike":6997,"utmar":6998,"war":6999,"skoj":7000,"Angel":7001,"Ren":7002,"Cen":7003,"fattning":7004,"viken":7005,"Tube":7006,"Sti":7007,"side":7008,"lycklig":7009,"stres":7010,"pli":7011,"respekt":7012,"Konst":7013,"krafter":7014,"pic":7015,"Sun":7016,"olution":7017,"explo":7018,"Big":7019,"Chi":7020,"mekan":7021,"moment":7022,"paus":7023,"insag":7024,"ugnen":7025,"Micro":7026,"hed":7027,"hantverk":7028,"grans":7029,"Ax":7030,"Tar":7031,"skre":7032,"ismen":7033,"120":7034,"begransad":7035,"registrering":7036,"Hotel":7037,":(":7038,"Kam":7039,"Blu":7040,"trar":7041,"mart":7042,"fonstret":7043,"tabl":7044,"ledde":7045,"Syn":7046,"Stra":7047,"Lans":7048,"Titta":7049,"win":7050,"dram":7051,"erotik":7052,"Anni":7053,"eftermiddag":7054,"Gir":7055,"regelbundet":7056,"veget":7057,"parken":7058,"flertal":7059,"mension":7060,"Samma":7061,"inomhus":7062,"avses":7063,"snor":7064,"mentera":7065,"storlekar":7066,"diverse":7067,"uttag":7068,"kabel":7069,"utlaning":7070,"serier":7071,"sili":7072,"fantasi":7073,"galla":7074,"specifika":7075,"TT":7076,"praktiskt":7077,"liter":7078,"Ikvall":7079,"effektiva":7080,"gilt":7081,"serat":7082,"speg":7083,"rads":7084,"Allman":7085,"granser":7086,"ovningar":7087,"versit":7088,"tusentals":7089,"ktivet":7090,"larande":7091,"ansvart":7092,"behandlar":7093,"England":7094,"tolv":7095,"lub":7096,"64":7097,"Mellan":7098,"__":7099,"festivalen":7100,"witter":7101,"ordna":7102,"munnen":7103,"fiber":7104,"symp":7105,"oty":7106,"utstrackning":7107,"ledsen":7108,"59":7109,"forhand":7110,"kommunal":7111,"kunn":7112,"bakter":7113,"hasten":7114,"talje":7115,"infe":7116,"roligare":7117,"Kvinna":7118,"vett":7119,"vac":7120,"havare":7121,"illustr":7122,"logga":7123,"recensioner":7124,"seras":7125,"homo":7126,"Tidigare":7127,"bevil":7128,"utmaning":7129,"RF":7130,"skrig":7131,"trafiken":7132,"tunga":7133,"gemang":7134,"Kopa":7135,"dygn":7136,"skottet":7137,"core":7138,"ney":7139,"aktuell":7140,"sakerstalla":7141,"hallas":7142,"fokusera":7143,"legat":7144,"krimin":7145,"nis":7146,"laggs":7147,"forlust":7148,"coach":7149,"GR":7150,"Pet":7151,"grymt":7152,"lordags":7153,"Mats":7154,"Full":7155,"Energi":7156,"rengor":7157,"Skriv":7158,"minnen":7159,"sjukskoter":7160,"bekym":7161,"utstallning":7162,"Dagen":7163,"formul":7164,"taket":7165,"belysning":7166,"kryss":7167,"2003":7168,"kontoret":7169,"samlar":7170,"filer":7171,"67":7172,"marks":7173,"Spanien":7174,"frekven":7175,"ATT":7176,"kontinuer":7177,"stada":7178,"kreter":7179,"IM":7180,";-":7181,"betrakta":7182,"BB":7183,"Beho":7184,"pry":7185,"provning":7186,"alisering":7187,"osaker":7188,"innebara":7189,"Kost":7190,"uppat":7191,"matta":7192,"terande":7193,"tall":7194,"jacka":7195,"faktor":7196,"Brun":7197,"borgare":7198,"mastare":7199,"uppenbar":7200,"forkyl":7201,"feber":7202,"Olof":7203,"besikt":7204,"sinstitut":7205,",,":7206,"city":7207,"kampa":7208,"deltar":7209,"avslapp":7210,"fastigheter":7211,"somnade":7212,"musiken":7213,"tika":7214,"ganis":7215,"Ovriga":7216,"alternativt":7217,"lediga":7218,"skrack":7219,"camp":7220,"best":7221,"syssel":7222,"forutsatt":7223,"rings":7224,"Tryck":7225,"somna":7226,"instrument":7227,"suttit":7228,"more":7229,"INTE":7230,"arg":7231,"fodelsedag":7232,"enormt":7233,"Storbritannien":7234,"FN":7235,"djupt":7236,"Spa":7237,"uu":7238,"ologiskt":7239,"sajten":7240,"Hennes":7241,"volym":7242,"motsvarar":7243,"Goran":7244,"Dri":7245,"bebis":7246,"Sitter":7247,"snamn":7248,"Ke":7249,"gangs":7250,"have":7251,"foretags":7252,"Videos":7253,"andina":7254,"ovning":7255,"ino":7256,"enheten":7257,"terings":7258,"springer":7259,"von":7260,"landsting":7261,"intryck":7262,"morka":7263,"leverera":7264,"dygnet":7265,"organiser":7266,"ansikte":7267,"onska":7268,"Utover":7269,"akademi":7270,"klubbar":7271,"genast":7272,"vartom":7273,"Antal":7274,"avsug":7275,"Skog":7276,"duktiga":7277,"storp":7278,"varierar":7279,"tagits":7280,"igger":7281,"distrikt":7282,"likadan":7283,"presenter":7284,"spraket":7285,"personligt":7286,"57":7287,"exister":7288,"pod":7289,"anvandar":7290,"ariga":7291,"Andreas":7292,"fuck":7293,"resen":7294,"skett":7295,"handeln":7296,"mangden":7297,"Larsson":7298,"spelarna":7299,"halsen":7300,"vasent":7301,"ordinarie":7302,"800":7303,"lamplig":7304,"syftar":7305,"favoriter":7306,"filoso":7307,"Perfekt":7308,"pape":7309,"Strom":7310,"foretagare":7311,"Alskar":7312,"inska":7313,"forklarar":7314,"vikten":7315,"brut":7316,"tret":7317,"orsak":7318,"Cre":7319,"protein":7320,"whi":7321,"konferens":7322,"talade":7323,"alders":7324,"arbetade":7325,"inriktning":7326,"oppnade":7327,"ingom":7328,"akut":7329,"misstag":7330,"Swedish":7331,"dods":7332,"Ger":7333,"wn":7334,"ugg":7335,"stallande":7336,"LE":7337,"kru":7338,"foreslar":7339,"examen":7340,"Fro":7341,"days":7342,"lovar":7343,"versionen":7344,"standar":7345,"duk":7346,"Arti":7347,"befolkningen":7348,"uri":7349,"Rum":7350,"smet":7351,"distri":7352,"forny":7353,"nick":7354,"VA":7355,"amot":7356,"beloppet":7357,"Wall":7358,"trader":7359,"kosten":7360,"Mc":7361,"ansok":7362,"forsaljare":7363,"Dam":7364,"ION":7365,"vandring":7366,"sagare":7367,"Huvud":7368,"ingo":7369,"new":7370,"forvand":7371,"befintliga":7372,"hr":7373,"motte":7374,"materialet":7375,"telefonen":7376,"skarmen":7377,"uppman":7378,"finalen":7379,"negativa":7380,"chefen":7381,"vantade":7382,"Cor":7383,"Run":7384,"anmala":7385,"Mad":7386,"foreskrifter":7387,"56":7388,"rapporten":7389,"Ord":7390,"praktiska":7391,"):":7392,"lakar":7393,"sexuell":7394,"berget":7395,"Damer":7396,"farre":7397,"bockerna":7398,"ph":7399,"forandras":7400,"Styrel":7401,"scenen":7402,"beva":7403,"trycka":7404,"maskinen":7405,"gag":7406,"otro":7407,"slin":7408,"Gusta":7409,"dagis":7410,"Ytter":7411,"Back":7412,"vistelse":7413,"praktiken":7414,"telefonnummer":7415,"Ab":7416,"allergi":7417,"arbetslos":7418,"Sommar":7419,"Nyheter":7420,"Karlsson":7421,"tron":7422,"utgangspun":7423,"signal":7424,"kladd":7425,"Manni":7426,"iller":7427,"hundrat":7428,"Elin":7429,"sorts":7430,"Handel":7431,"tiv":7432,"fota":7433,"forsknings":7434,"rutin":7435,"lille":7436,"smidigt":7437,"fotter":7438,"inkluderar":7439,"kulture":7440,"Hell":7441,"Kall":7442,"OP":7443,"konsult":7444,"tonaring":7445,"minuters":7446,"forare":7447,"repp":7448,"Mobil":7449,"stamma":7450,"holmen":7451,"Jer":7452,"initiativ":7453,"troja":7454,"annonsen":7455,"escorts":7456,"traden":7457,"arbetsgivare":7458,"stuna":7459,"rok":7460,"skinn":7461,"Eric":7462,"vana":7463,"hallare":7464,"riskerar":7465,"58":7466,"ljuset":7467,"rekommend":7468,"frika":7469,"wood":7470,"Spar":7471,"uppmun":7472,"Bengt":7473,"stilla":7474,"Sor":7475,"emo":7476,"fodda":7477,"starten":7478,"komplett":7479,"Lena":7480,"fardiga":7481,"ving":7482,"medfor":7483,"sakerna":7484,"Telefon":7485,"funktions":7486,"Bada":7487,"Naken":7488,"uppmarksam":7489,"stanga":7490,"grunder":7491,"dt":7492,"smaningom":7493,"blandade":7494,"rorelser":7495,"byggnads":7496,"menyn":7497,"drabbas":7498,"foretagets":7499,"stiga":7500,"Fler":7501,"standiga":7502,"framme":7503,"Porrfilm":7504,"vagnen":7505,"ellertid":7506,"bryr":7507,"Boras":7508,"terror":7509,"GB":7510,"levererar":7511,"partier":7512,"sby":7513,"Lulea":7514,"informer":7515,"paga":7516,"hjalpte":7517,"banker":7518,"Deras":7519,"skum":7520,"karleken":7521,"bron":7522,"Plus":7523,"webben":7524,"lill":7525,"gubbar":7526,"forlag":7527,"uppsala":7528,"hd":7529,"lordagen":7530,"mes":7531,"slapper":7532,"vastra":7533,"temp":7534,"nami":7535,"lakaren":7536,"Tankte":7537,"trosor":7538,"medborgare":7539,"europeiska":7540,"inar":7541,"utsatta":7542,"gig":7543,"Linda":7544,"skilstuna":7545,"mjuka":7546,"stant":7547,"lic":7548,"kny":7549,"blem":7550,"myndigheten":7551,"forskolan":7552,"erats":7553,"balanser":7554,"Trafik":7555,"bollen":7556,"suger":7557,"CC":7558,"bjorn":7559,"funktionen":7560,"vaggar":7561,"spanning":7562,"placering":7563,"68":7564,"syra":7565,"matem":7566,"samlat":7567,"diagno":7568,"betes":7569,"Nedan":7570,"stock":7571,"ledningar":7572,"verkets":7573,"dandet":7574,"djupa":7575,"kass":7576,"penning":7577,"dru":7578,"Stre":7579,"tvingas":7580,"packa":7581,"tekniker":7582,"hoja":7583,"paverkas":7584,"stamp":7585,"AP":7586,"….":7587,"own":7588,"kine":7589,"kategorin":7590,"sinne":7591,"Mikael":7592,"bens":7593,"himmel":7594,"Pla":7595,"gillade":7596,"Brost":7597,"ansvaret":7598,"vager":7599,"hack":7600,"Windows":7601,"natter":7602,"Nov":7603,"Lilla":7604,"stera":7605,"TR":7606,"pump":7607,"oni":7608,"look":7609,"forvaltningen":7610,"Fanta":7611,"aut":7612,"prenor":7613,"Syd":7614,"ige":7615,"try":7616,"Lagen":7617,"lampa":7618,"proff":7619,"kampanj":7620,"fallen":7621,"78":7622,"lades":7623,"grov":7624,"affaren":7625,"Porno":7626,"anhor":7627,"priserna":7628,"big":7629,"skrimin":7630,"foddes":7631,"bredd":7632,"eventuell":7633,"kasta":7634,"kusin":7635,"slit":7636,"uc":7637,"unden":7638,"spor":7639,"bokning":7640,"drivs":7641,"ogonblick":7642,"vaxande":7643,"bekvamt":7644,"Lou":7645,"kreditkort":7646,"draget":7647,"promena":7648,"Norrkoping":7649,"forutsattning":7650,"SB":7651,"dagliga":7652,"handerna":7653,"arch":7654,"kostnaden":7655,"konsument":7656,"krediter":7657,"edom":7658,"Anmal":7659,"arter":7660,"penhamn":7661,"SC":7662,"manniskors":7663,"filter":7664,"pressa":7665,"gritet":7666,"skurs":7667,"Hanna":7668,"uppfyller":7669,"Ange":7670,"forsen":7671,"foredrar":7672,"varenda":7673,"prog":7674,"umea":7675,"presenteras":7676,"Kyr":7677,"njuter":7678,"katastro":7679,"dd":7680,"hallning":7681,"vardighet":7682,"plagg":7683,"cool":7684,"risker":7685,"isen":7686,"VAR":7687,"impon":7688,"foral":7689,"rester":7690,"��":7691,"Bre":7692,"chanser":7693,"skrivna":7694,"vaningen":7695,"Rapp":7696,"Vaxjo":7697,"farliga":7698,"blank":7699,"eleven":7700,"Grund":7701,"krets":7702,"kraven":7703,"formagan":7704,"vibr":7705,"hors":7706,"loser":7707,"forhindra":7708,"deklar":7709,"cus":7710,"Snyg":7711,"denne":7712,"52":7713,"museum":7714,"Bur":7715,"spendera":7716,"skapade":7717,"Fre":7718,"hette":7719,"Boken":7720,"spelen":7721,"landskap":7722,"old":7723,"ramen":7724,"lem":7725,"kiska":7726,"Besok":7727,"sprida":7728,"igaste":7729,"revolution":7730,"skots":7731,"betalningsanmark":7732,"riktlinjer":7733,"skande":7734,"overenskomm":7735,"Filmer":7736,"temot":7737,"biljett":7738,"rosta":7739,"internationell":7740,"vakna":7741,"skrona":7742,"Johanna":7743,"2001":7744,"zo":7745,"ifragas":7746,"arv":7747,"ower":7748,"medlemskap":7749,"dyra":7750,"98":7751,"specifi":7752,"will":7753,"klassisk":7754,"brister":7755,"syskon":7756,"ingenjor":7757,"arrangemang":7758,"krang":7759,"malm":7760,"hallit":7761,"ationerna":7762,"tillater":7763,"ugh":7764,"Medel":7765,"larm":7766,"snon":7767,"Micha":7768,"tillfreds":7769,"varderingar":7770,"dimension":7771,"stom":7772,"testat":7773,"rikes":7774,"passion":7775,"baks":7776,"forsvann":7777,"turner":7778,"larar":7779,"mers":7780,"naturlig":7781,"Gustaf":7782,"Los":7783,"fysisk":7784,"lampligt":7785,"arliga":7786,"tai":7787,"Center":7788,"samlade":7789,"rekommenderas":7790,"spre":7791,"betalt":7792,"gerna":7793,"ness":7794,"Fly":7795,"husen":7796,"sparar":7797,"turi":7798,"inspel":7799,"lakt":7800,"time":7801,"Vux":7802,"view":7803,"2002":7804,"hemale":7805,"Ram":7806,"farmor":7807,"snack":7808,"tillfor":7809,"orolig":7810,"Hard":7811,"rutan":7812,"bransle":7813,"kommunala":7814,"atal":7815,"brotts":7816,"inger":7817,"hungr":7818,"spelaren":7819,"bolagets":7820,"pojkvan":7821,"Stat":7822,"pression":7823,"industrin":7824,"forvantningar":7825,"baby":7826,"stiger":7827,"bekan":7828,"praktik":7829,"avdelning":7830,"stolen":7831,"emat":7832,"locka":7833,"markte":7834,"Sodra":7835,"etik":7836,"serios":7837,"skonhet":7838,"halvar":7839,"forsakra":7840,"Resultatet":7841,"slanga":7842,"oron":7843,"tuff":7844,"snalla":7845,"1800":7846,"kvalite":7847,"Lisa":7848,"stallas":7849,"dies":7850,"ffer":7851,"doms":7852,"foreningens":7853,"bs":7854,"rante":7855,"Tjej":7856,"\":":7857,"Malin":7858,"beraknas":7859,"apotek":7860,"LED":7861,"Kolla":7862,"forber":7863,"roster":7864,"kallor":7865,"Fitta":7866,"forvag":7867,"Anda":7868,"gull":7869,"tagning":7870,"aner":7871,"Tav":7872,"Glom":7873,"stolar":7874,"ladan":7875,"innehalla":7876,"samarbet":7877,"Gri":7878,"casinon":7879,"kir":7880,"visserligen":7881,"mering":7882,"Hot":7883,"hjarnan":7884,"flaska":7885,"midsommar":7886,"stamning":7887,"tekniken":7888,"DN":7889,"stodja":7890,"Victor":7891,"Kuk":7892,"sambo":7893,"transporter":7894,"investeringar":7895,"Vard":7896,"uppdraget":7897,"Fastighet":7898,"Park":7899,"kontant":7900,"mosfar":7901,"house":7902,"tatt":7903,"pojkar":7904,"handlingen":7905,"Fragan":7906,"gymmet":7907,"avsugning":7908,"inflam":7909,"belast":7910,"gava":7911,"ycke":7912,"2019":7913,"tions":7914,"deltagarna":7915,"kika":7916,"andinavi":7917,"samlas":7918,"Sarskil":7919,"stjanst":7920,"Mig":7921,"kvadr":7922,"saaa":7923,"frastruktur":7924,"Start":7925,"resultaten":7926,"pop":7927,"timmars":7928,"festen":7929,"Lid":7930,"avsed":7931,"DE":7932,"Ditt":7933,"tillverkare":7934,"ostra":7935,"anledningen":7936,"cle":7937,"jamstalld":7938,"domstolen":7939,"hult":7940,"kategorier":7941,"Sundsvall":7942,"olje":7943,"paren":7944,"kningar":7945,"tram":7946,"malen":7947,"individ":7948,"dorrar":7949,"Simon":7950,"Art":7951,"tidningar":7952,"glasogon":7953,"Can":7954,"undersokningar":7955,"kondition":7956,"religi":7957,"astad":7958,"Folj":7959,"vy":7960,"emellertid":7961,"CO":7962,"fungerande":7963,"Ost":7964,"gummi":7965,"hatar":7966,"ferenser":7967,"moln":7968,"losningen":7969,"Hit":7970,"vetenskapliga":7971,"tempo":7972,"anstrang":7973,"atgard":7974,"alu":7975,"ile":7976,"sticka":7977,"politiskt":7978,"Thailand":7979,"Robert":7980,"behandlingar":7981,"reson":7982,"produktionen":7983,"president":7984,"alska":7985,"landsbyg":7986,"jakla":7987,"tillgod":7988,"koks":7989,"flode":7990,"Dem":7991,"finaste":7992,"blanda":7993,"Persson":7994,"meddelanden":7995,"betydande":7996,"Eriksson":7997,"omvand":7998,"presenterar":7999,"poker":8000,"bbl":8001,"kanon":8002,"servi":8003,"imorse":8004,"pam":8005,"Real":8006,"forstod":8007,"kvinnliga":8008,"vaccin":8009,"specifik":8010,"skickade":8011,"konsum":8012,"plar":8013,"ygga":8014,"kreterare":8015,"multi":8016,"armen":8017,"Kla":8018,"avvi":8019,"fangelse":8020,"debatten":8021,"komple":8022,"bomull":8023,"Batt":8024,"Histor":8025,"experi":8026,"Blom":8027,"Trad":8028,"skrav":8029,"yoga":8030,"ikapp":8031,"flyttat":8032,"pamin":8033,"MEN":8034,"fiska":8035,"One":8036,"recep":8037,"studera":8038,"bbel":8039,"galet":8040,"plant":8041,"top":8042,"konsekvenser":8043,"scar":8044,"anlaggningar":8045,"lektion":8046,"listor":8047,"Stall":8048,"underlatta":8049,"nyar":8050,"veckorna":8051,"kvalifi":8052,"fastigheten":8053,"kit":8054,"karta":8055,"himlen":8056,"utform":8057,"overlag":8058,"mojligen":8059,"lampor":8060,"IR":8061,"sling":8062,"foran":8063,"muskel":8064,"hamna":8065,"konomi":8066,"pizza":8067,"movies":8068,"forbju":8069,"ere":8070,"54":8071,"Namn":8072,"kriget":8073,"Lever":8074,"konsert":8075,"Rel":8076,"bords":8077,"Sum":8078,"sakt":8079,"West":8080,"installning":8081,"come":8082,"Tag":8083,"overty":8084,"ungdoms":8085,"Utveck":8086,"undra":8087,"byter":8088,"end":8089,"seffe":8090,"databas":8091,"Jenny":8092,"----":8093,"citron":8094,";-)":8095,"ence":8096,"gras":8097,"skid":8098,"uppre":8099,"sokte":8100,"rasi":8101,"Beslut":8102,"trans":8103,"51":8104,"tjejerna":8105,"rakar":8106,"telefoner":8107,"ova":8108,"faktura":8109,"kapitel":8110,"sop":8111,"arlig":8112,"FA":8113,"sjukhuset":8114,"Mote":8115,"bullar":8116,"internationellt":8117,"skillnader":8118,"avlopp":8119,"minnes":8120,"uppvarm":8121,"dyrt":8122,"backa":8123,"skapas":8124,"Glo":8125,"foraldrarna":8126,"stjarn":8127,"debut":8128,"pressen":8129,"jaren":8130,"Hakan":8131,"stenar":8132,"julklapp":8133,"formar":8134,"blon":8135,"hydr":8136,"53":8137,"demokrati":8138,"jamt":8139,"fenomen":8140,"event":8141,"ally":8142,"korv":8143,"ktade":8144,"hlm":8145,"beskrivs":8146,"schef":8147,"Milf":8148,"vantat":8149,"generellt":8150,"BA":8151,"kne":8152,"levereras":8153,"svarigheter":8154,"uppehall":8155,"primar":8156,"gammalt":8157,"list":8158,"kapacitet":8159,"ming":8160,"Mid":8161,"uppdatera":8162,"finans":8163,"narna":8164,"kampar":8165,"ftea":8166,"kvarter":8167,"oft":8168,"Sida":8169,"leg":8170,"Bostad":8171,"steget":8172,"Medan":8173,"ene":8174,"Sv":8175,"kommersi":8176,"ulti":8177,"langsamt":8178,"koden":8179,"arbetsplats":8180,"medans":8181,"kanaler":8182,"slots":8183,"fardigt":8184,"forsiktigt":8185,"sele":8186,"mangfal":8187,"blin":8188,"spartner":8189,"mur":8190,"tvatta":8191,"fotterna":8192,"disp":8193,"insattning":8194,"katalog":8195,"forvantas":8196,"Mac":8197,"talat":8198,"riktad":8199,"bonusar":8200,"Bak":8201,"ovre":8202,"lyser":8203,"politiken":8204,"agaren":8205,"moms":8206,"reha":8207,"Mogen":8208,"exp":8209,"fyllde":8210,"forfattaren":8211,"World":8212,"forstatt":8213,"ders":8214,"gradde":8215,"edi":8216,"MP":8217,"snab":8218,"vinkel":8219,"kategori":8220,"politisk":8221,"tacksam":8222,"ilj":8223,"pratat":8224,"forskola":8225,"orien":8226,"tapet":8227,"Tips":8228,"ILL":8229,"has":8230,"levde":8231,"ros":8232,"sovit":8233,"overgripande":8234,"valla":8235,"trum":8236,"zy":8237,"Jord":8238,"upplevelsen":8239,"Out":8240,"seriosa":8241,"ration":8242,"missa":8243,"71":8244,"kompletter":8245,"sokning":8246,"wiki":8247,"Riktigt":8248,"Ake":8249,"Data":8250,"ckning":8251,"Island":8252,"synpunkter":8253,"avsluta":8254,"HAR":8255,"kommission":8256,"OBS":8257,"Jose":8258,"Fem":8259,"ftonbladet":8260,"turer":8261,"fanga":8262,"deltog":8263,"ston":8264,"Fan":8265,"cher":8266,"yttre":8267,"vanligen":8268,"personlighet":8269,"stadning":8270,"ansoka":8271,"cas":8272,"hogskola":8273,"daren":8274,"mats":8275,"kog":8276,"bolagen":8277,"separat":8278,"tillskott":8279,"Petter":8280,"tyder":8281,"forskar":8282,"ves":8283,"forlu":8284,"Tekni":8285,"ternativ":8286,"Lill":8287,"Hed":8288,"SO":8289,"minskning":8290,"besokte":8291,"distans":8292,"ors":8293,"Rod":8294,"atmosfar":8295,"tru":8296,"FC":8297,"anstalld":8298,"work":8299,"IB":8300,"arium":8301,"Vit":8302,"temperaturen":8303,"omfattas":8304,"anpassade":8305,"Jamfor":8306,"Endast":8307,"dricker":8308,"Tel":8309,"batar":8310,"suga":8311,"obehag":8312,"sannolik":8313,"body":8314,"videon":8315,"manaderna":8316,"faktur":8317,"jeans":8318,"bian":8319,"avse":8320,"missat":8321,"riksdagen":8322,"blatt":8323,"lagstiftning":8324,"gade":8325,"forresten":8326,"uppskattar":8327,"vaknar":8328,"besviken":8329,"outfit":8330,"ografiska":8331,"jus":8332,"slok":8333,"Master":8334,"iPhone":8335,"behag":8336,"utlandska":8337,"Apple":8338,"dium":8339,"tander":8340,"prenumer":8341,"summa":8342,"Mann":8343,"idat":8344,"begav":8345,"Valdigt":8346,"ensta":8347,"protokoll":8348,"stillstand":8349,"piskt":8350,"exi":8351,"Gron":8352,"sexig":8353,"relaterade":8354,"stationen":8355,"livsstil":8356,"matning":8357,"Intress":8358,"sej":8359,"Norra":8360,"budskap":8361,"klarade":8362,"linjen":8363,"provat":8364,"sondagen":8365,"allmanheten":8366,"pir":8367,"diskuter":8368,"tysk":8369,"atag":8370,"hammar":8371,"Bod":8372,"funktionsned":8373,"rullar":8374,"aldsta":8375,"Moj":8376,"kosta":8377,"atgar":8378,"Isa":8379,"party":8380,"meddela":8381,"vinnare":8382,"jog":8383,"hovs":8384,"karleks":8385,"hogskolan":8386,"Radio":8387,"72":8388,"identitet":8389,"syss":8390,"laggas":8391,"morkt":8392,"brot":8393,"vitamin":8394,"godkanner":8395,"aktenskap":8396,"logi":8397,"floden":8398,"dikt":8399,"less":8400,"fynd":8401,"erkanna":8402,"avgora":8403,"iten":8404,"variant":8405,"efterfragan":8406,"ugn":8407,"ovanfor":8408,"hagen":8409,"rest":8410,"revision":8411,"''":8412,"forbereda":8413,"katter":8414,"variera":8415,"stiken":8416,"Pra":8417,"jonkoping":8418,"63":8419,"Instagram":8420,"styrning":8421,"finger":8422,"3D":8423,"tillverkning":8424,"tunnel":8425,"integritet":8426,"vags":8427,"invig":8428,"skrivet":8429,"Sid":8430,"museet":8431,"metoden":8432,"Dis":8433,"Antligen":8434,"anten":8435,"expert":8436,"skepp":8437,"store":8438,"forlorade":8439,"Linne":8440,"utredningen":8441,"halt":8442,"kej":8443,"noje":8444,"nervos":8445,"Lik":8446,"79":8447,"sakr":8448,"Sexleksaker":8449,"fja":8450,"ktera":8451,"gressi":8452,"ete":8453,"titlar":8454,"diskrimin":8455,"argument":8456,"attack":8457,"omgiv":8458,"parna":8459,"populart":8460,"cur":8461,"posten":8462,"forklaring":8463,"siness":8464,"anen":8465,"hogskole":8466,"hundarna":8467,"barnens":8468,"huvudtaget":8469,"distribu":8470,"ungar":8471,"Team":8472,"acceptera":8473,"lappar":8474,"planerade":8475,"ongen":8476,"ytte":8477,"skala":8478,"knar":8479,"Hammar":8480,"Sofia":8481,"ledarskap":8482,"Tog":8483,"forbud":8484,"femte":8485,"skara":8486,"Moder":8487,"Ing":8488,"doo":8489,"Infor":8490,"tillampas":8491,"paminner":8492,"Amer":8493,"ingredienser":8494,"farsk":8495,"hockey":8496,"vinden":8497,"Ce":8498,"minium":8499,"pase":8500,"gula":8501,"yndigheten":8502,"Samtliga":8503,"slutligen":8504,"semi":8505,"tvartom":8506,"works":8507,"%)":8508,"konsumenter":8509,"bytt":8510,"inspirerande":8511,"Typ":8512,"medlems":8513,"lockar":8514,"Ulf":8515,"policy":8516,"Israel":8517,"tain":8518,"teen":8519,"odling":8520,"Rock":8521,"broder":8522,"konkurrens":8523,"Malet":8524,"Pan":8525,"stjarna":8526,"konstruktion":8527,"tungt":8528,"utgifter":8529,"utvecklat":8530,"oga":8531,"Emil":8532,"Premi":8533,"finska":8534,"very":8535,"veckans":8536,"kasinon":8537,"Flyg":8538,"korning":8539,"julen":8540,"minskat":8541,"dic":8542,"sonen":8543,"ssystemet":8544,"kostnaderna":8545,"enorma":8546,"dop":8547,"enorm":8548,"sprocessen":8549,"tekn":8550,"soli":8551,"tillgangar":8552,"temat":8553,"gemenskap":8554,"upptackte":8555,"War":8556,"stel":8557,"Kontroll":8558,"killen":8559,"Mari":8560,"negativt":8561,"forbru":8562,"restaurangen":8563,"hjalpmedel":8564,"elva":8565,"danska":8566,"forvir":8567,"obligator":8568,"Sad":8569,"begrav":8570,"Avsug":8571,"varumarken":8572,"SN":8573,"tillat":8574,"inflytande":8575,"satsar":8576,"arkiv":8577,"upplysning":8578,"tillganglighet":8579,"symt":8580,"Latt":8581,"sexual":8582,"GA":8583,"teknisk":8584,"relevant":8585,"Vall":8586,"Galler":8587,"nie":8588,"nomin":8589,"byran":8590,"Ass":8591,"fakti":8592,"62":8593,"Sov":8594,"bestaende":8595,"pagaende":8596,"sanningen":8597,"kollat":8598,"dagars":8599,"forlora":8600,"statliga":8601,"colle":8602,"professor":8603,"ogen":8604,"forloss":8605,"sekund":8606,"UC":8607,"Karlstad":8608,"sack":8609,"uppfoljning":8610,"Gillar":8611,"ketter":8612,"aterstall":8613,"processer":8614,"fonden":8615,"dage":8616,"medlemmarna":8617,"abo":8618,"biblioteket":8619,"nodvandiga":8620,"Kristian":8621,"torka":8622,"storst":8623,"informations":8624,"varianter":8625,"usch":8626,"kust":8627,"aldrar":8628,"verkat":8629,"allvarligt":8630,"speri":8631,"vaxte":8632,"koka":8633,"stunder":8634,"kvadrat":8635,"UM":8636,"Behover":8637,"kris":8638,"jta":8639,"norska":8640,"omsattning":8641,"forvaring":8642,"avsnittet":8643,"infrastruktur":8644,"fredagen":8645,"kusten":8646,"villkoren":8647,"svett":8648,"lagsta":8649,"begreppet":8650,"centralen":8651,"producera":8652,"bryter":8653,"!\"":8654,"Service":8655,"Michael":8656,"redovisas":8657,"ego":8658,"uch":8659,"Trev":8660,"bundna":8661,"Design":8662,"Foretaget":8663,"1990":8664,"undersokningen":8665,"ftelse":8666,"kore":8667,"passet":8668,"ath":8669,"dokumen":8670,"strar":8671,"SMS":8672,"investering":8673,"serveras":8674,"Press":8675,"fysiskt":8676,"teori":8677,"klickar":8678,"liber":8679,"tjanar":8680,"viagra":8681,"obje":8682,"helsingborg":8683,"Olsson":8684,"fruktansvart":8685,"banklan":8686,"klassiker":8687,"merad":8688,"fullstandigt":8689,"foten":8690,"saljare":8691,"forvarva":8692,"tjejen":8693,"sledare":8694,"Material":8695,"banor":8696,"betong":8697,"vandra":8698,"Mun":8699,"ida":8700,"muskler":8701,"fjarr":8702,"dik":8703,"plom":8704,"klippa":8705,"kommunerna":8706,"BR":8707,"Gratt":8708,"FR":8709,"splanen":8710,"speriod":8711,"anna":8712,"Wal":8713,"transa":8714,"tuttar":8715,"Sju":8716,"hihi":8717,"lampliga":8718,"skriget":8719,"influ":8720,"konstatera":8721,"spets":8722,"viktigare":8723,"dok":8724,"ssjuk":8725,"sve":8726,"byggdes":8727,"sana":8728,"Ji":8729,"rakningar":8730,"Stort":8731,"godkand":8732,"institut":8733,"Mand":8734,"fastighets":8735,"cal":8736,"drack":8737,"arbetsmiljo":8738,"turen":8739,"experter":8740,"slutat":8741,"mastar":8742,"omstandigheter":8743,"imor":8744,"non":8745,"forbin":8746,"frikan":8747,"Mol":8748,"begransat":8749,"lacker":8750,"billigaste":8751,"neder":8752,"sdag":8753,"derande":8754,"icera":8755,"Lika":8756,"utvecklats":8757,"orebro":8758,"atar":8759,"Holm":8760,"saljs":8761,"anvan":8762,"religion":8763,"Blanda":8764,"Gotland":8765,"lador":8766,"lod":8767,"makten":8768,"etto":8769,"mots":8770,"framja":8771,"oth":8772,"ogat":8773,"700":8774,"tarta":8775,"utgangspunkt":8776,"Volvo":8777,"radgivning":8778,"Tal":8779,"borgs":8780,"riktar":8781,"gardin":8782,"Bas":8783,"forsakringen":8784,"Tanken":8785,"like":8786,"Sista":8787,"AC":8788,"Norden":8789,"^^":8790,"nel":8791,"aver":8792,"forebyggande":8793,"Green":8794,"informera":8795,"deltagande":8796,"skivan":8797,"aval":8798,"Web":8799,"nut":8800,"mojligheterna":8801,"Twitter":8802,"patienten":8803,"love":8804,"unikt":8805,"doktor":8806,"neut":8807,"ledaren":8808,"hallbarhet":8809,"Oppna":8810,"dun":8811,"raddar":8812,"olf":8813,"huru":8814,"Skapa":8815,"some":8816,"aaaa":8817,"globala":8818,"uel":8819,"hjarn":8820,"Gunnar":8821,"traditionell":8822,"skyddar":8823,"1900":8824,"sondags":8825,"tagande":8826,"sites":8827,"enskild":8828,"lyfter":8829,"skapande":8830,"tarna":8831,"avdelningen":8832,"gilla":8833,"89":8834,"arbetstag":8835,"skyddet":8836,"meningen":8837,"farten":8838,"TER":8839,"nal":8840,"larde":8841,"Anton":8842,"Ani":8843,"Halmstad":8844,"Asa":8845,"definition":8846,"hamtning":8847,"Nic":8848,"element":8849,"Bolaget":8850,"VI":8851,"galen":8852,"efterhand":8853,"perman":8854,"belt":8855,"ktorer":8856,"talas":8857,"illiam":8858,"poster":8859,"rap":8860,"redskap":8861,"Sjuk":8862,"skjuta":8863,"kladerna":8864,"redit":8865,"aktuellt":8866,"PD":8867,"Kol":8868,"Forsvar":8869,"Dina":8870,"kallat":8871,"bekvama":8872,"Avsugning":8873,"historier":8874,"spot":8875,"namna":8876,"urin":8877,"tam":8878,"Registr":8879,"Kungs":8880,"Senaste":8881,"narhet":8882,"Brand":8883,"slappte":8884,"kilo":8885,"intresset":8886,"chefer":8887,"badoo":8888,"saft":8889,"utvalda":8890,"Sve":8891,"udd":8892,"ersatta":8893,"satsning":8894,"Stads":8895,"uru":8896,"TS":8897,"room":8898,"skidor":8899,"installation":8900,"titeln":8901,"Fer":8902,"fattig":8903,"harmon":8904,"skilja":8905,"gallde":8906,"oj":8907,"skiv":8908,"sis":8909,"skatter":8910,"garanterat":8911,"befolkning":8912,"Hag":8913,"upphandling":8914,"sattnings":8915,"eskorter":8916,"dustri":8917,"narm":8918,"allvarliga":8919,"varumarke":8920,"delat":8921,"stanger":8922,"vaxten":8923,"modu":8924,"fokuserar":8925,"Fon":8926,"atervin":8927,"handlare":8928,"savtal":8929,"Harry":8930,"forval":8931,"maende":8932,"uthyr":8933,"vaxel":8934,"61":8935,"NY":8936,"avlag":8937,"skyldighet":8938,"blix":8939,"cke":8940,"manniskorna":8941,"plattform":8942,"bonne":8943,"ares":8944,"tradgards":8945,"spanska":8946,"entrum":8947,"ode":8948,"kunderna":8949,"sweden":8950,"anvandningen":8951,"troligt":8952,"Unga":8953,"utbudet":8954,"jamna":8955,"navig":8956,"trag":8957,"Innehall":8958,"enstaka":8959,"forsakringar":8960,"kompeten":8961,"kalender":8962,"flor":8963,"klick":8964,"Love":8965,"aterforsaljare":8966,"ytterst":8967,"officiella":8968,"Ci":8969,"avsikt":8970,"weiz":8971,"Skicka":8972,"identifiera":8973,"grattis":8974,"Gick":8975,"Let":8976,"spelautom":8977,"paketet":8978,"Traffa":8979,"svamp":8980,"vaken":8981,"loc":8982,"Bred":8983,"komponen":8984,"Skont":8985,"1999":8986,"hindrar":8987,"Arki":8988,"kos":8989,"lova":8990,"terape":8991,"tvek":8992,"kastning":8993,"faglar":8994,"vitlok":8995,"redi":8996,"spet":8997,"Ostersund":8998,"skiftet":8999,"rubriken":9000,"ilda":9001,"Snabb":9002,"potential":9003,"strat":9004,"holms":9005,"turist":9006,"kvart":9007,"ktivitet":9008,"xid":9009,"firma":9010,"anteck":9011,"medal":9012,"ads":9013,"Sha":9014,"trycker":9015,"hh":9016,"lease":9017,"nordiska":9018,"stek":9019,"rantor":9020,"Prin":9021,"Rosen":9022,"noggran":9023,"bollar":9024,"Chat":9025,"Barnen":9026,"Box":9027,"avdrag":9028,"harom":9029,"frage":9030,"spons":9031,"Utbild":9032,"86":9033,"givar":9034,"Ljung":9035,"narvaro":9036,"komfort":9037,"hemskt":9038,"Austr":9039,"dl":9040,"tidiga":9041,"jula":9042,"lokalt":9043,"onskade":9044,"stider":9045,"utforska":9046,"Mattias":9047,"alitet":9048,"Svensson":9049,"diskussioner":9050,"komplex":9051,"kvallar":9052,"losenord":9053,"tive":9054,"kryp":9055,"smslan":9056,"egas":9057,"champ":9058,"operation":9059,"smink":9060,"Kopenhamn":9061,"armar":9062,"Knullar":9063,"igheterna":9064,"Sky":9065,"1500":9066,"small":9067,"inatt":9068,"fungerade":9069,"vagnar":9070,"ics":9071,"aterstar":9072,"kolhydr":9073,"rater":9074,"varas":9075,"Helsing":9076,"smycken":9077,"kriter":9078,"Risk":9079,"uf":9080,"Gotal":9081,"asyl":9082,"Grattis":9083,"pancake":9084,"delad":9085,"medvetna":9086,"storm":9087,"Adam":9088,"utrymmen":9089,"begaran":9090,"handels":9091,"Fraga":9092,"minus":9093,"down":9094,"motorn":9095,"Anne":9096,"filmerna":9097,"riktade":9098,"tranat":9099,"oversikt":9100,"angs":9101,"smaken":9102,"Pop":9103,"konsul":9104,"rand":9105,"cirkel":9106,"Livet":9107,"ledigt":9108,"prestanda":9109,"pulver":9110,"normala":9111,"flickvan":9112,"Beg":9113,"OV":9114,"yng":9115,"professionell":9116,"tacker":9117,"asikt":9118,"96":9119,"EC":9120,"arendet":9121,"Proble":9122,"Fakt":9123,"sjunga":9124,"eleg":9125,"andelen":9126,"forordning":9127,"uppfor":9128,"Haller":9129,"janst":9130,"svenskan":9131,"vallen":9132,"ganget":9133,"kvi":9134,"vokat":9135,"dubbla":9136,"entreprenor":9137,"garn":9138,"lagd":9139,"kvm":9140,"morfar":9141,"hormon":9142,"sprocess":9143,"regeringens":9144,"kontinuerligt":9145,"tagare":9146,"brudar":9147,"anvants":9148,"ekonomin":9149,"fixade":9150,"usa":9151,"verklig":9152,"76":9153,"Nastan":9154,"front":9155,"likationer":9156,"granskning":9157,"itets":9158,"bg":9159,"kopplad":9160,"onom":9161,"ffi":9162,"idrotts":9163,"hyf":9164,"hangde":9165,"Foreningen":9166,"tang":9167,"mmer":9168,"oman":9169,"DA":9170,"Motor":9171,"vagarna":9172,"power":9173,"puss":9174,"frid":9175,"vaskan":9176,"minnas":9177,"Mr":9178,"godkant":9179,"pussy":9180,"tiotal":9181,"underlatt":9182,"?\"":9183,"sperio":9184,"onerande":9185,"kassan":9186,"firar":9187,"raddning":9188,"samord":9189,"talets":9190,"skyn":9191,"produkterna":9192,"placera":9193,"spin":9194,"Blo":9195,"krava":9196,"inerande":9197,"tax":9198,"sem":9199,"dring":9200,"tings":9201,"handlat":9202,"stern":9203,"forenings":9204,"beslutade":9205,"bakgrunden":9206,"narmar":9207,"sorters":9208,"kontanter":9209,"ativitet":9210,"rop":9211,"report":9212,"landsk":9213,"Regeringen":9214,"ague":9215,"numret":9216,"personligen":9217,"exemplar":9218,"skamt":9219,"motesplatsen":9220,"barhet":9221,"Observera":9222,"arende":9223,"Ell":9224,"skilda":9225,"arligt":9226,"strun":9227,"studien":9228,"overtyg":9229,"William":9230,"fixat":9231,"alternativet":9232,"sattas":9233,"hamtar":9234,"anpassad":9235,"Musik":9236,"?”":9237,"gest":9238,"skickat":9239,"hoppar":9240,"urs":9241,"praktisk":9242,"omfattning":9243,"Whi":9244,"onodigt":9245,"cering":9246,"74":9247,"jell":9248,"eti":9249,"olycka":9250,"kopet":9251,"installningar":9252,"jde":9253,"ild":9254,"massiga":9255,"gasterna":9256,"tvekan":9257,"Happ":9258,"parfy":9259,"pappers":9260,"sklass":9261,"strategier":9262,"konstant":9263,"sjunger":9264,"plattor":9265,"forvaltnings":9266,"bonnemang":9267,"Skatte":9268,"bekraft":9269,"anvandarna":9270,"vanilj":9271,"baren":9272,"vasen":9273,"genomfors":9274,"oand":9275,"bytte":9276,"uteslut":9277,"stedt":9278,"uppfylla":9279,"penis":9280,"stravar":9281,"forhandling":9282,"amerikansk":9283,"frustr":9284,"gitarr":9285,"parall":9286,"foralder":9287,"bang":9288,"agarna":9289,"Mest":9290,"gentemot":9291,"Anledningen":9292,"underhallning":9293,"publiceras":9294,"tappa":9295,"Jonsson":9296,"valuta":9297,"Pay":9298,"konver":9299,"SF":9300,"taxi":9301,"cra":9302,"Phi":9303,"jes":9304,"storleken":9305,"roller":9306,"mation":9307,"begag":9308,"Top":9309,"Nytt":9310,"ikali":9311,"prylar":9312,"gt":9313,"unds":9314,"sjukvarden":9315,"Stand":9316,"formiddagen":9317,"forutsattningarna":9318,"beslutar":9319,"skedde":9320,"kling":9321,"Dra":9322,"berattelsen":9323,"beskatt":9324,"trafi":9325,"Proc":9326,"batter":9327,"Bran":9328,"As":9329,"intensiv":9330,"kniv":9331,"friska":9332,"kollega":9333,"mut":9334,"berattig":9335,"Kategor":9336,"presenterade":9337,"overhuvudtaget":9338,"Alltid":9339,"odd":9340,"ply":9341,"Media":9342,"Restau":9343,"sekret":9344,"lyckad":9345,"sektorn":9346,"py":9347,"Fyll":9348,"paret":9349,"fitt":9350,"skadade":9351,"Mannen":9352,"designer":9353,"utfors":9354,"stodet":9355,"91":9356,"vantan":9357,"bekymmer":9358,"decen":9359,"Ir":9360,"oppettider":9361,"dyka":9362,"mobila":9363,"kvaliteten":9364,"Carol":9365,"Nils":9366,"dome":9367,"benam":9368,"thailand":9369,"Alexander":9370,"yog":9371,"breda":9372,"barnets":9373,"lagda":9374,"flygplatsen":9375,"blas":9376,"Herr":9377,"oftare":9378,"Ock":9379,"professionella":9380,"placeras":9381,"lagare":9382,"nyhetsbrev":9383,"pojke":9384,"tjugo":9385,"Robin":9386,"........":9387,"langden":9388,"anvandes":9389,"reali":9390,"galopp":9391,"exklusiva":9392,"Trum":9393,"uppdatering":9394,"entrepren":9395,"bemot":9396,"sprogrammet":9397,"orkade":9398,"kland":9399,"kombinera":9400,"aluminium":9401,"NE":9402,"gs":9403,"1998":9404,"perioder":9405,"djuren":9406,"dena":9407,"73":9408,"upplagg":9409,"Stad":9410,"varmare":9411,"svan":9412,"Kok":9413,"kommunicera":9414,"liknar":9415,"omgaende":9416,"koppar":9417,"hett":9418,"soffa":9419,"aringen":9420,"feb":9421,"synnerhet":9422,"kopplade":9423,"Ant":9424,"klaga":9425,"trotta":9426,"Ker":9427,"ffel":9428,"Annu":9429,"arrangor":9430,"havs":9431,"Sim":9432,"cs":9433,"ansvariga":9434,"forvanad":9435,"panik":9436,"Forsakring":9437,"skrap":9438,"Vasa":9439,"ratte":9440,"appli":9441,"salen":9442,"Bestalla":9443,"\u0000\u0000\u0000\u0000":9444,"direktor":9445,"Logga":9446,"hanterar":9447,"sons":9448,"virus":9449,"gotland":9450,"halvt":9451,"utt":9452,"division":9453,"sticker":9454,"problemen":9455,"Klockan":9456,"strumpor":9457,"leende":9458,"effekten":9459,"parte":9460,"Vuxen":9461,"hamnen":9462,"].":9463,"Hjar":9464,"iva":9465,"decenni":9466,"una":9467,"samarbetet":9468,"robot":9469,"dragit":9470,"svet":9471,"cor":9472,"ingang":9473,"dynami":9474,"hallbart":9475,"sul":9476,"aterkommer":9477,"Lof":9478,"slagit":9479,"fiskar":9480,"cup":9481,"ursprungliga":9482,"Kval":9483,"lis":9484,"tankarna":9485,"hastarna":9486,"intervjuer":9487,"anfall":9488,"foraldra":9489,"forkni":9490,"finansinstitut":9491,"lednings":9492,"centralt":9493,"ily":9494,"nyanser":9495,"Egentligen":9496,"manus":9497,"yttrande":9498,"HE":9499,"korkort":9500,"AIK":9501,"raknat":9502,"kontrollen":9503,"Kap":9504,"kampen":9505,"korna":9506,"uth":9507,"sanna":9508,"Dels":9509,"bilaga":9510,"rip":9511,"slump":9512,"provet":9513,"ition":9514,"sanning":9515,"sakerheten":9516,"borgen":9517,"uk":9518,"aterbetalning":9519,"Artikel":9520,"rem":9521,"Sel":9522,"orsaka":9523,"900":9524,"toalett":9525,"rn":9526,"verkstad":9527,"klocka":9528,"skota":9529,"uppgiften":9530,"beln":9531,"Jobb":9532,"raff":9533,"skylt":9534,"load":9535,"Ven":9536,"investera":9537,"buds":9538,"Power":9539,"Oscar":9540,"stjanster":9541,"klarat":9542,"Spr":9543,"doden":9544,"beth":9545,"medborgar":9546,"orka":9547,"skratta":9548,"undvi":9549,"file":9550,"Gott":9551,"privatpersoner":9552,"specialist":9553,"brittiska":9554,"kontaktannonser":9555,"demonstr":9556,"glommer":9557,"mejl":9558,"utvardering":9559,"besluta":9560,"invol":9561,"Styrelsen":9562,"artister":9563,"Sus":9564,"elleftea":9565,"skontroll":9566,"kot":9567,"syftet":9568,"analysera":9569,"Eskilstuna":9570,"ward":9571,"fattas":9572,"vning":9573,"panna":9574,"utrymmet":9575,"kvinnorna":9576,"indik":9577,"ORT":9578,"Speciellt":9579,"hands":9580,"majoritet":9581,"Bry":9582,"Turki":9583,"kandidat":9584,"vilt":9585,"pinn":9586,"bedoma":9587,"intell":9588,"fotbolls":9589,"individuella":9590,"kock":9591,"Oj":9592,"MAN":9593,"slappt":9594,"Studi":9595,"cykeln":9596,"nodvandig":9597,"83":9598,"ensamstaende":9599,"Wo":9600,"Microsoft":9601,"pekar":9602,"overklag":9603,"lyssnade":9604,"preci":9605,"karton":9606,"stracka":9607,"tappar":9608,"tyng":9609,"flyga":9610,"kvitt":9611,"tomma":9612,"dalen":9613,"etiskt":9614,"fft":9615,"beslutat":9616,"demokratiska":9617,"boy":9618,"verkande":9619,"uppenbart":9620,"Ida":9621,"Hun":9622,"resurs":9623,"utfar":9624,"havdar":9625,"installera":9626,"terapi":9627,"stracker":9628,"vasteras":9629,"noggrann":9630,"signer":9631,"principer":9632,"radsla":9633,"kedja":9634,"Antalet":9635,"givna":9636,"kapit":9637,"hemliga":9638,"lugna":9639,"fixar":9640,"relevanta":9641,"kanter":9642,"Club":9643,"behorighet":9644,"Billig":9645,"psykiat":9646,"bekanta":9647,"tankande":9648,"jat":9649,"kea":9650,"livets":9651,"godkannande":9652,"livslang":9653,"tavlings":9654,"ombord":9655,"laddar":9656,"insikt":9657,"vatska":9658,"analyser":9659,"orsaken":9660,"svam":9661,"kann":9662,"Kim":9663,"110":9664,"!.":9665,"sparet":9666,"ortera":9667,"anslag":9668,"kers":9669,"avslutade":9670,"Effe":9671,"hip":9672,"balkong":9673,"Markna":9674,"miga":9675,"Strand":9676,"frig":9677,"Ric":9678,"inkl":9679,"email":9680,"Axel":9681,"troligtvis":9682,"smaker":9683,"startat":9684,"sanka":9685,"beredd":9686,"Andro":9687,"ameter":9688,"rehabili":9689,"Vagbeskrivning":9690,"diabetes":9691,"bokat":9692,"bile":9693,"grati":9694,"...]":9695,"Marcus":9696,"seriost":9697,"vardagsrum":9698,"sme":9699,"dansa":9700,"overfor":9701,"svin":9702,"Even":9703,"symtom":9704,"drig":9705,"Cu":9706,"92":9707,"lagret":9708,"ose":9709,"Disk":9710,"lerna":9711,"sprin":9712,"ulette":9713,"komna":9714,"USB":9715,"League":9716,"tillgangligt":9717,"vardagsrummet":9718,"ggr":9719,"Watch":9720,"kaos":9721,"demokrat":9722,"baksidan":9723,"OG":9724,"plugg":9725,"Maj":9726,"cialis":9727,"ymer":9728,"kartan":9729,"garen":9730,"lararna":9731,"medicinska":9732,"negativ":9733,"licen":9734,"kirur":9735,"lasaren":9736,"matlag":9737,"napp":9738,"provade":9739,"mjukt":9740,"onde":9741,"Berlin":9742,"ekologiska":9743,"sexfilm":9744,"ljusa":9745,"arbetsmarknaden":9746,"missade":9747,"siv":9748,"lanser":9749,"Bestall":9750,"filen":9751,"besokt":9752,"kommentera":9753,"missar":9754,"Erotik":9755,"infora":9756,"varon":9757,"Kund":9758,"tillhorande":9759,"tz":9760,"servering":9761,"upphovs":9762,"gissa":9763,"df":9764,"fotografi":9765,"Engel":9766,"now":9767,"ader":9768,"aterkommande":9769,"stream":9770,"hjalpt":9771,"Flor":9772,"interna":9773,"elit":9774,"Kr":9775,"utsatts":9776,"oci":9777,"diskret":9778,"Aftonbladet":9779,"etta":9780,"valp":9781,"PL":9782,"ffran":9783,"blu":9784,"Plat":9785,"rakade":9786,"arligen":9787,"Problemet":9788,"Oskar":9789,"placerade":9790,"board":9791,"Dejta":9792,"tillverkade":9793,"varierande":9794,"smidig":9795,"konton":9796,"destin":9797,"kontakten":9798,"fargade":9799,"Off":9800,"Cir":9801,"97":9802,"Smal":9803,"Camp":9804,"Kronika":9805,"samarbetar":9806,"tryggt":9807,"lovet":9808,"ofor":9809,"tackar":9810,"ICA":9811,"sjong":9812,"ursakt":9813,"dets":9814,"kammar":9815,"Europeiska":9816,"halsan":9817,"menade":9818,"kroppar":9819,"page":9820,"biten":9821,"konstaterar":9822,"imponerande":9823,"Oper":9824,"Dalarna":9825,"storningar":9826,"tent":9827,"kraften":9828,"korg":9829,"avslutas":9830,"andrar":9831,"utvecklare":9832,"viteter":9833,"inkomster":9834,"jp":9835,"foredrag":9836,"bastu":9837,"Holl":9838,"definier":9839,"verkningar":9840,"ith":9841,"kriti":9842,"Sem":9843,"rorande":9844,"blr":9845,"hygien":9846,"bensin":9847,"passande":9848,"fabrik":9849,"utbildade":9850,"viner":9851,"84":9852,"radare":9853,"sproblem":9854,"Happy":9855,"DR":9856,"Rekommen":9857,"stycke":9858,"holls":9859,"Cat":9860,"borjare":9861,"respon":9862,"paborj":9863,"Jor":9864,"behaller":9865,"kampanjer":9866,"visnings":9867,"motes":9868,"cing":9869,"skel":9870,"Passar":9871,"plockade":9872,"dottern":9873,"cket":9874,"okon":9875,"lastbil":9876,"borger":9877,"head":9878,"tiderna":9879,"stov":9880,"skatten":9881,"ama":9882,"Tomas":9883,"oppnas":9884,"reaktion":9885,"parter":9886,"forelasning":9887,"bespar":9888,"dagslaget":9889,"Op":9890,"webblasare":9891,"missbruk":9892,"fur":9893,"komsten":9894,"Champ":9895,"Ytterligare":9896,"Sarskilt":9897,"trend":9898,"fans":9899,"brevet":9900,"onskan":9901,"angi":9902,"cast":9903,"gur":9904,"brann":9905,"grafik":9906,"allas":9907,"huvudvark":9908,"radande":9909,"Jatte":9910,"94":9911,"upplevt":9912,"undrade":9913,"Tun":9914,"utdelning":9915,"varat":9916,"spring":9917,"burk":9918,"Kalla":9919,"musli":9920,"remiss":9921,"JA":9922,"granska":9923,"talare":9924,"UD":9925,"ferensen":9926,");":9927,"salu":9928,"tittat":9929,"forberedel":9930,"klasser":9931,"Mini":9932,"bedriva":9933,"ween":9934,"Julia":9935,"menten":9936,"Christian":9937,"stangd":9938,"flodet":9939,"vaskor":9940,"skarp":9941,"laggare":9942,"morkret":9943,"Jako":9944,"general":9945,"torra":9946,"medie":9947,"cli":9948,"arbetsuppgifter":9949,"intyg":9950,"departe":9951,"pedia":9952,"trygga":9953,"anledningar":9954,"ationella":9955,"Extra":9956,"Inkop":9957,"kontot":9958,"Bot":9959,"maila":9960,"!?":9961,"flit":9962,"glatt":9963,"marknader":9964,"Ras":9965,"avancerade":9966,"grannar":9967,"Home":9968,"180":9969,"Mode":9970,"hungrig":9971,"hylla":9972,"torget":9973,"IA":9974,"tappat":9975,"Lud":9976,"samlingen":9977,"lung":9978,"aspekter":9979,"rummen":9980,"heltid":9981,"utstallningen":9982,"ado":9983,"kameror":9984,"sekreterare":9985,"skym":9986,"fars":9987,"skvallen":9988,"Ahl":9989,"referens":9990,"skalen":9991,"tjansteman":9992,"delsen":9993,"ftelsen":9994,"flertalet":9995,"Arbetet":9996,"trist":9997,"Smart":9998,"smaka":9999,"testade":10000,"Android":10001,"Nick":10002,"Direkt":10003,"ront":10004,"lesbisk":10005,"garage":10006,"gator":10007,"Hemma":10008,"tillverkad":10009,"racka":10010,"Oli":10011,"bevara":10012,"brak":10013,"gandet":10014,"kungen":10015,"KL":10016,"Grupp":10017,"aug":10018,"semestern":10019,"Landst":10020,"poteket":10021,"generation":10022,"Dela":10023,"Boka":10024,"norge":10025,"ngre":10026,"frammande":10027,"underteck":10028,"stroms":10029,"mynt":10030,"anonym":10031,"plet":10032,"blott":10033,"Jessi":10034,"julafton":10035,"betting":10036,"vanor":10037,"82":10038,"rider":10039,"besluts":10040,"salde":10041,"toner":10042,"skiner":10043,"kreativa":10044,"Manniskor":10045,"Em":10046,"upptacker":10047,"SR":10048,"emar":10049,"Tum":10050,"koncern":10051,"tester":10052,"hing":10053,"Bast":10054,"slapps":10055,"Dy":10056,"Australien":10057,"kanslig":10058,"ester":10059,"jerna":10060,"maltid":10061,"SU":10062,"Bang":10063,"HT":10064,"upptackt":10065,"immun":10066,"hundratals":10067,"bely":10068,"yga":10069,"mysiga":10070,"likhet":10071,"Lak":10072,"Lun":10073,"dokumentar":10074,"bestod":10075,"befri":10076,"detsamma":10077,"schema":10078,"malar":10079,"ekologisk":10080,"grundades":10081,"stands":10082,"sevard":10083,"stipen":10084,"forma":10085,"forhallandet":10086,"forlorar":10087,"dyrare":10088,"beton":10089,"ou":10090,"fortjanar":10091,"renovering":10092,"Liv":10093,"regionala":10094,"fristaende":10095,"Hav":10096,"agt":10097,"sni":10098,"litt":10099,"levnad":10100,"1980":10101,"synlig":10102,"registrerade":10103,"kjol":10104,"effektivitet":10105,"markligt":10106,"bedoms":10107,"ograf":10108,"Bay":10109,"innovation":10110,"italienska":10111,"Enkel":10112,"Utbildning":10113,"forlorat":10114,"Helena":10115,"Datum":10116,"Blog":10117,"genu":10118,"Stan":10119,"dult":10120,"specialiser":10121,"ged":10122,"forordningen":10123,"symboler":10124,"Forfatt":10125,"sjalvklar":10126,"ire":10127,"tillracklig":10128,"strad":10129,"International":10130,"belaget":10131,"psykolog":10132,"stralande":10133,"citat":10134,"Kvar":10135,"gata":10136,"skrivande":10137,"forsorjning":10138,"iens":10139,"langsiktigt":10140,"huruvida":10141,"ningens":10142,"overenskommelse":10143,"!”":10144,"bestallde":10145,"Vanster":10146,"delningar":10147,"NU":10148,"kningen":10149,"fattade":10150,"undervisningen":10151,"alisera":10152,"tvar":10153,"sho":10154,"ledamoter":10155,"ture":10156,"depression":10157,"direktiv":10158,"smakar":10159,"Polisen":10160,"byggas":10161,"fattat":10162,"BT":10163,"Fel":10164,"BM":10165,"oten":10166,"93":10167,"cht":10168,"diskriminering":10169,"baseras":10170,"Ladda":10171,"merade":10172,"noveller":10173,"bestallt":10174,"samtalet":10175,"ingers":10176,"kelser":10177,"Farg":10178,"flykting":10179,"uttrycka":10180,"narko":10181,"yp":10182,"gui":10183,"lagade":10184,"platserna":10185,"yal":10186,"action":10187,"National":10188,"skrattade":10189,"palit":10190,"aternas":10191,"kansliga":10192,"tillfalligt":10193,"psykisk":10194,"bildar":10195,"talt":10196,"aro":10197,"Europas":10198,"wal":10199,"Ljus":10200,"zen":10201,"skassan":10202,"Medic":10203,"leker":10204,"laggningen":10205,"ljuv":10206,"enkat":10207,"grupperna":10208,"regnet":10209,"forsvinna":10210,"toler":10211,"export":10212,"djupare":10213,"ingens":10214,"manads":10215,"inrednings":10216,"serverar":10217,"axel":10218,"tunna":10219,"overtygad":10220,"flyger":10221,"Blon":10222,"avkastning":10223,"synas":10224,"skift":10225,"medvetet":10226,"mobiltelefon":10227,"overvakning":10228,"Skill":10229,"skostnader":10230,"tidens":10231,"Mora":10232,"bilda":10233,"kreditvardighet":10234,"funderingar":10235,"Filmen":10236,"Dahl":10237,"Up":10238,"III":10239,"berorda":10240,"nationell":10241,"expon":10242,"Hjalp":10243,"javligt":10244,"Swe":10245,"musiker":10246,"uppfyll":10247,"forelasningar":10248,"tuffa":10249,"bolags":10250,"odds":10251,"arkitektur":10252,"was":10253,"symptom":10254,"rantan":10255,"komponenter":10256,"well":10257,"fjol":10258,"lasta":10259,"87":10260,"good":10261,"njot":10262,"Plats":10263,"Spi":10264,"home":10265,"eriet":10266,"Word":10267,"ights":10268,"rytt":10269,"hemska":10270,"slam":10271,"fader":10272,"rast":10273,"DET":10274,"samarbeta":10275,"tipsa":10276,"funderat":10277,"genomsnittet":10278,"avslutar":10279,"hornet":10280,"varldskriget":10281,"ils":10282,"Senare":10283,"Malm":10284,"givit":10285,"sformed":10286,"synen":10287,"Funder":10288,"sition":10289,"forsaljningen":10290,"ush":10291,"IFK":10292,"udda":10293,"mangfald":10294,"sokan":10295,"tillkommer":10296,"partiets":10297,"duschen":10298,"maken":10299,"PM":10300,"tappade":10301,"deln":10302,"eda":10303,"Gym":10304,"Vegas":10305,"bearbet":10306,"acce":10307,"Idrott":10308,"Fortsatt":10309,"dukar":10310,"Brom":10311,"tifran":10312,"vild":10313,"vuxit":10314,"hardare":10315,"bjor":10316,"[...]":10317,"brud":10318,"uppsag":10319,"BK":10320,"killarna":10321,"King":10322,"sisk":10323,"trav":10324,"jattem":10325,"pall":10326,"hemifran":10327,"Geor":10328,"ole":10329,"sorgen":10330,"oratt":10331,"smitt":10332,"stjansten":10333,"dioxid":10334,"utna":10335,"guiden":10336,"tranade":10337,"uppger":10338,"1970":10339,"ited":10340,"namns":10341,"There":10342,"Bilden":10343,"vinsten":10344,"linkoping":10345,"mossa":10346,"Patrik":10347,"Turkiet":10348,"brinner":10349,"SJ":10350,"forekommande":10351,"nyborjare":10352,"redog":10353,"Fotboll":10354,"fatal":10355,"rapporterar":10356,"aliska":10357,"noggrant":10358,"ocke":10359,"SAM":10360,"agda":10361,"Vita":10362,"kraftig":10363,"knep":10364,"anlaggningen":10365,"Frida":10366,"portratt":10367,"handtag":10368,"Nordic":10369,"skede":10370,"koder":10371,"tradgardar":10372,"forskole":10373,"ansluta":10374,"blyg":10375,"orgas":10376,"bt":10377,"Ze":10378,"deci":10379,"jordgubbar":10380,"Cup":10381,"talande":10382,"Vir":10383,"malade":10384,"Lyss":10385,"blot":10386,"hug":10387,"dubbelt":10388,"avgor":10389,"externa":10390,"bandy":10391,"hjarna":10392,"HP":10393,"sly":10394,"stolta":10395,"Group":10396,"Beskrivning":10397,"frisor":10398,"Okej":10399,"extern":10400,"tillatet":10401,"sidig":10402,"stamman":10403,"cos":10404,"forbattring":10405,"ressen":10406,"byggs":10407,"utoka":10408,"vaning":10409,"Grekland":10410,"glomde":10411,"diskt":10412,"producerar":10413,"uppsta":10414,"omgivning":10415,"hyd":10416,"paj":10417,"ping":10418,"nats":10419,"olen":10420,"Lager":10421,"stationer":10422,"bryn":10423,"farska":10424,"James":10425,"Framfor":10426,"opini":10427,"rades":10428,"skarpa":10429,"Juni":10430,"Indien":10431,"tillsyn":10432,"sammanlagt":10433,"beromda":10434,"tyckt":10435,"sanger":10436,":.":10437,"terminen":10438,"It":10439,"Bud":10440,"cted":10441,"poolen":10442,"belagg":10443,"skontor":10444,"tillslut":10445,"bonu":10446,"medicinsk":10447,"femini":10448,"insk":10449,"skep":10450,"trada":10451,"tillbring":10452,"sikter":10453,"representanter":10454,"skikt":10455,"hustru":10456,"Troll":10457,"BE":10458,"saldern":10459,"beman":10460,"begara":10461,"elegant":10462,"Jaco":10463,"Grand":10464,"Wiki":10465,"eringar":10466,"uppenbarligen":10467,"Ran":10468,"Ocksa":10469,"life":10470,"spolitik":10471,"Universit":10472,"kreativitet":10473,"Villa":10474,"laggen":10475,"Ola":10476,"langvar":10477,"beakta":10478,"slav":10479,"vanskap":10480,"soppa":10481,"skane":10482,"hamnat":10483,"Oh":10484,"ary":10485,"mell":10486,"tomten":10487,"Klu":10488,"alisk":10489,"Svenskt":10490,"Helsingfors":10491,"flaskor":10492,"nant":10493,"skraddar":10494,"omass":10495,"mojliggor":10496,"minsann":10497,"berga":10498,"cock":10499,"ix":10500,"driven":10501,"sklader":10502,"kostade":10503,"konflikt":10504,"ip":10505,"framgangsrika":10506,"vde":10507,"brukare":10508,"Cle":10509,"legen":10510,"kunskaps":10511,"riket":10512,"gods":10513,"bildas":10514,"kopare":10515,"cirkul":10516,"ljudet":10517,"bedomer":10518,"gorna":10519,"kyla":10520,"ous":10521,"typiskt":10522,"kulturen":10523,"BN":10524,"Match":10525,"oritet":10526,"aukt":10527,"tufft":10528,"Kommentar":10529,"klund":10530,"spridning":10531,"Bostads":10532,"genomforas":10533,"xy":10534,"insamling":10535,"japanska":10536,"minuten":10537,"SKA":10538,"falls":10539,"skadespelare":10540,"Skelleftea":10541,"jk":10542,"sha":10543,"vilda":10544,"orsakar":10545,"???":10546,"rotter":10547,"byggde":10548,"GD":10549,"nackdelar":10550,"Guld":10551,"flest":10552,"Tru":10553,"torp":10554,"Projektet":10555,"rengoring":10556,"cat":10557,"besoket":10558,"high":10559,"zer":10560,"Cro":10561,"betraktas":10562,"vaggarna":10563,"klister":10564,"rien":10565,"anhoriga":10566,"Yout":10567,"mandags":10568,"accepterar":10569,"graviditet":10570,"funktionsnedsattning":10571,"Rid":10572,"Will":10573,"ktighet":10574,"etni":10575,"minskade":10576,"imple":10577,"konsumtion":10578,"mammor":10579,"uppdaterad":10580,"bredband":10581,"katten":10582,"bruket":10583,"partners":10584,"KOM":10585,"utse":10586,"innefattar":10587,"ikon":10588,"eck":10589,"specifikt":10590,"majoriteten":10591,"forvantar":10592,"blomma":10593,"uppgick":10594,"profiler":10595,"snacka":10596,"jarnvag":10597,"Mia":10598,"julklappar":10599,"jakten":10600,"Annika":10601,"civil":10602,"Universitet":10603,"forebygga":10604,"Hittade":10605,"1997":10606,"natverket":10607,"dokumentation":10608,"bergen":10609,"cum":10610,"entuna":10611,"Elisa":10612,"speglar":10613,"apr":10614,"tradet":10615,"hjartan":10616,"muslim":10617,"heder":10618,"komligt":10619,"forklarade":10620,"kaff":10621,"inuti":10622,"berattat":10623,"ppad":10624,"sek":10625,"verksamhets":10626,"slen":10627,"feta":10628,"somras":10629,"hotos":10630,"kemikali":10631,"spekt":10632,"skval":10633,"inven":10634,"spray":10635,"skyr":10636,"segr":10637,"finland":10638,"chatta":10639,"hanteras":10640,"riksdag":10641,"ison":10642,"trakig":10643,"Ret":10644,"omed":10645,"ovanstaende":10646,"HET":10647,"varg":10648,"Beach":10649,"mandat":10650,"isera":10651,"deg":10652,"Amanda":10653,"ppan":10654,"rekrytering":10655,"kvartalet":10656,"grata":10657,"badrummet":10658,"flask":10659,"gill":10660,"sangar":10661,"skolorna":10662,"slost":10663,"aterupp":10664,"samheten":10665,"Erotiska":10666,"arbetsgivaren":10667,"kastar":10668,"IKEA":10669,"lotter":10670,"jamstalldhet":10671,"Arena":10672,"kvallarna":10673,"blandat":10674,"involver":10675,"fotografering":10676,"passager":10677,"tros":10678,"Sur":10679,"disken":10680,"kvadratmeter":10681,"tjocka":10682,"ettan":10683,"stur":10684,"BO":10685,"bilarna":10686,"Read":10687,"adressen":10688,"Rog":10689,"portion":10690,"Jamt":10691,"tillhandahaller":10692,"pick":10693,"dsm":10694,"receptet":10695,"innande":10696,"inspirerad":10697,"tify":10698,"lovat":10699,"fororen":10700,"teringar":10701,"lektioner":10702,"lamn":10703,"madde":10704,"</":10705,"vandrar":10706,"skyldiga":10707,"Gal":10708,"Solna":10709,"benet":10710,"nedanfor":10711,"katastrof":10712,"magnet":10713,"foretradare":10714,"avel":10715,"konkurs":10716,"programvara":10717,"stangt":10718,"bakterier":10719,"Pr":10720,"kik":10721,"House":10722,"underlattar":10723,"sparti":10724,"pyssel":10725,"Transport":10726,"forsvara":10727,"oroa":10728,"sparken":10729,"varsin":10730,"plattan":10731,"fordela":10732,"ansag":10733,"invandrare":10734,"kreta":10735,"bloggare":10736,"matcherna":10737,"dringar":10738,"psyko":10739,"hallbara":10740,"Rosa":10741,"portfolj":10742,"flygplan":10743,"shoppa":10744,"Viktor":10745,"trakt":10746,"nude":10747,"ius":10748,"forvanta":10749,"skadad":10750,"graden":10751,"buffe":10752,"tillbaks":10753,"utbyte":10754,"HR":10755,"inas":10756,"magasin":10757,"kinesiska":10758,"bruna":10759,"skand":10760,"intag":10761,"firade":10762,"This":10763,"forsiktig":10764,"underhallande":10765,"Medlem":10766,"Im":10767,"eland":10768,"rimligt":10769,"aska":10770,"Sas":10771,"jak":10772,"tanderna":10773,"Dr":10774,"Blek":10775,"margin":10776,"BL":10777,"ensamma":10778,"viks":10779,"prinse":10780,"sexuellt":10781,"matematik":10782,"ummer":10783,"ssitu":10784,"hyllan":10785,"bir":10786,"degen":10787,"Kopp":10788,"Golf":10789,"ligan":10790,"Schweiz":10791,"130":10792,"mmy":10793,"timma":10794,"Juli":10795,"Darmed":10796,"Barcel":10797,"nasan":10798,"Af":10799,"Hotellet":10800,"ombi":10801,"tavlar":10802,"ihjal":10803,"overgrepp":10804,"Psy":10805,"tull":10806,"lokalen":10807,"flag":10808,"slapptes":10809,"fargerna":10810,"oklipp":10811,"kus":10812,"mammas":10813,"rations":10814,"tolkning":10815,"stens":10816,"blaser":10817,"omgang":10818,"mellanrum":10819,"Tem":10820,"tomat":10821,"sorter":10822,"brukade":10823,"varannan":10824,"konvention":10825,"ligaste":10826,"permanent":10827,"medi":10828,"Augu":10829,"labor":10830,"saa":10831,"innanfor":10832,"skla":10833,"vacka":10834,"etisk":10835,"casinot":10836,"NO":10837,"marknadsfor":10838,"personerna":10839,"garderob":10840,"osse":10841,"norrland":10842,"splaner":10843,"uppdateringar":10844,"forbrukning":10845,"ative":10846,"tabletter":10847,"stilar":10848,"bog":10849,"appel":10850,"Borja":10851,"swed":10852,"vanligare":10853,"arbetssatt":10854,"spark":10855,"lila":10856,"pals":10857,"ware":10858,"Frank":10859,"vagrar":10860,"kommunfullmaktige":10861,"vardnads":10862,"81":10863,"bokar":10864,"emedel":10865,"kokos":10866,"boda":10867,"flackar":10868,"Life":10869,"Natdejting":10870,"ula":10871,"bedriver":10872,"Via":10873,"pens":10874,"promenader":10875,"Johannes":10876,"agnar":10877,"UND":10878,"Kanada":10879,"burgare":10880,"flakt":10881,"samarbetspartner":10882,"aktivera":10883,"bildades":10884,"Europe":10885,"merar":10886,"backar":10887,"hogkvalit":10888,"Akademi":10889,"linne":10890,"ican":10891,"Tech":10892,"instruktioner":10893,"KR":10894,"dran":10895,"High":10896,"avsloja":10897,"faste":10898,"beteck":10899,"reste":10900,"tillverkas":10901,"Lotta":10902,"flyttning":10903,"Ansvar":10904,"sinformation":10905,"stjarnan":10906,"tummarna":10907,"rosor":10908,"ktionerna":10909,"universitetet":10910,"farlig":10911,"Kalle":10912,"alg":10913,"Bat":10914,"huvudsakligen":10915,"kannet":10916,"chock":10917,"tabellen":10918,"Lant":10919,"varning":10920,"Niklas":10921,"oken":10922,"iphone":10923,"riv":10924,"belagen":10925,"spekul":10926,"skrattar":10927,"friheten":10928,"sexy":10929,"kvalls":10930,"1994":10931,"hallon":10932,"medlet":10933,"forstora":10934,"lovade":10935,"studio":10936,"ankny":10937,"Tiden":10938,"iger":10939,"forfragan":10940,"Ros":10941,"PDF":10942,"Veck":10943,"kommuni":10944,"snabblan":10945,"begransade":10946,"gitta":10947,"hobby":10948,"Sexig":10949,"olyckor":10950,"CE":10951,"mannens":10952,"vagledning":10953,"Muse":10954,"gent":10955,"allvarlig":10956,"damp":10957,"rekommendationer":10958,"utbildad":10959,"Ned":10960,"lopning":10961,"Forum":10962,"stunden":10963,"orth":10964,"loper":10965,"Harligt":10966,"omi":10967,"halsar":10968,"altan":10969,"diskuterar":10970,"ssas":10971,"derad":10972,"insidan":10973,"fattiga":10974,"overnatt":10975,"slat":10976,"stabilitet":10977,"Colle":10978,"steknik":10979,"ington":10980,"140":10981,"knappar":10982,"samtycke":10983,"Thor":10984,"Lennart":10985,"godkanda":10986,"idi":10987,"fasa":10988,"Lansstyrelsen":10989,"misstankt":10990,"svarda":10991,"mega":10992,"Ons":10993,"Not":10994,"ese":10995,"ance":10996,"kundtjanst":10997,"spelande":10998,"vistas":10999,"avancerad":11000,"utvecklade":11001,"korn":11002,"filtr":11003,"erfarna":11004,"univers":11005,"lekte":11006,"drabbade":11007,"namnde":11008,"modernt":11009,"kladda":11010,"Blue":11011,"read":11012,"montering":11013,"abonnemang":11014,"boenden":11015,"sjukdomen":11016,"dumt":11017,"drommer":11018,"And":11019,"Hast":11020,"prestation":11021,"agement":11022,"ansoker":11023,"etablering":11024,"kim":11025,"pasar":11026,"Central":11027,"janster":11028,"Spo":11029,"diagnos":11030,"oliv":11031,"olag":11032,"anvandaren":11033,"sperioden":11034,"game":11035,"Forhopp":11036,"europe":11037,"Soci":11038,"minnet":11039,"utflykt":11040,"middags":11041,"franvaro":11042,"formedla":11043,"kasino":11044,"fula":11045,"shamn":11046,"JAG":11047,"bedomningen":11048,"bekraftelse":11049,"hytt":11050,"stressad":11051,"tech":11052,"sprider":11053,"progno":11054,"agne":11055,"leksak":11056,"bokade":11057,"Borg":11058,"Sodertalje":11059,"positioner":11060,"flygplats":11061,"genomfort":11062,"bassa":11063,"nyheterna":11064,"tidpunkt":11065,"doma":11066,"tradande":11067,"siden":11068,"blicken":11069,"mum":11070,"Motesplatsen":11071,"skyltar":11072,"uran":11073,"forskningen":11074,"oversattning":11075,"Kali":11076,"feed":11077,"Polen":11078,"tradde":11079,"jour":11080,"Tis":11081,"Skovde":11082,"rulla":11083,"Industri":11084,"koldioxid":11085,"pastar":11086,"Girl":11087,"\"-":11088,"honung":11089,"orsaker":11090,"Ganska":11091,"horts":11092,"simma":11093,"Personalen":11094,"forestallningar":11095,"fester":11096,"cience":11097,"kompa":11098,"begransningar":11099,"utnyttjar":11100,"arier":11101,"kunskapen":11102,"kakan":11103,"call":11104,"prover":11105,"manliga":11106,"representerar":11107,"notter":11108,"Flo":11109,"halvtimme":11110,"ningsmedel":11111,"onger":11112,"Olika":11113,"soldater":11114,"Anti":11115,"Ten":11116,"lid":11117,"kottet":11118,"svull":11119,"Tillsatt":11120,"manaders":11121,"Tin":11122,"kallare":11123,"Cit":11124,"ljust":11125,"piller":11126,"brottet":11127,"world":11128,"raken":11129,"orange":11130,"pdf":11131,"Fors":11132,"trakiga":11133,"ENS":11134,"elli":11135,"okanda":11136,"blivande":11137,"scener":11138,"rektor":11139,"overvag":11140,"mals":11141,"kompen":11142,"skrivare":11143,"onskat":11144,"sakti":11145,"forne":11146,"ppe":11147,"kak":11148,"Fredag":11149,"latit":11150,"stodjer":11151,"hojden":11152,"konkreta":11153,"utformning":11154,"overleva":11155,"utstall":11156,"resenarer":11157,"kanned":11158,"konkret":11159,"grovt":11160,"studenten":11161,"Fir":11162,"pes":11163,"torn":11164,"bestammelserna":11165,"bbla":11166,"drakt":11167,"flod":11168,"emon":11169,"LIG":11170,"bagge":11171,"skrevs":11172,"farden":11173,"Livs":11174,"bottens":11175,"asyster":11176,"GT":11177,"advokat":11178,"Alice":11179,"modi":11180,"spegel":11181,"ghan":11182,"samhallets":11183,"sallsyn":11184,"kulturella":11185,"verifi":11186,"blandad":11187,"debi":11188,"Cra":11189,"asiatiska":11190,"Justin":11191,"journalist":11192,"rensa":11193,"tiva":11194,"Sandra":11195,"Neder":11196,"ftade":11197,"mattan":11198,"kastru":11199,"Stati":11200,"Down":11201,"United":11202,"vindkraft":11203,"Pappa":11204,"Stock":11205,"marin":11206,"sektor":11207,"nyans":11208,"Dod":11209,"Socialdemokraterna":11210,"astadkomma":11211,"bony":11212,"Vo":11213,"licens":11214,"eken":11215,"salternativ":11216,"Date":11217,"inrikt":11218,"tydligare":11219,"Lunds":11220,"hamtat":11221,"vagade":11222,"inci":11223,"?.":11224,"foreslag":11225,"Figur":11226,"ryss":11227,"Svan":11228,"Are":11229,"alternativa":11230,"hp":11231,"tekniskt":11232,"bik":11233,"Narings":11234,"betet":11235,"rymd":11236,"Ak":11237,"ravaror":11238,"rymmer":11239,"Vatt":11240,"dda":11241,"DU":11242,"fice":11243,"Falun":11244,"dansk":11245,"kopplat":11246,"hemsidor":11247,"ystem":11248,"affi":11249,"behall":11250,"kyrko":11251,"Afrika":11252,"ydnad":11253,"belastning":11254,"EX":11255,"motorer":11256,"onda":11257,"omradena":11258,"kartor":11259,"takti":11260,"Karol":11261,"1995":11262,"iler":11263,"Kjell":11264,"anas":11265,"leden":11266,"Priset":11267,"historiskt":11268,"torsdagen":11269,"gie":11270,"konkurrenskraft":11271,"auto":11272,"sovrummet":11273,",\"":11274,"omdome":11275,"Fyra":11276,"Drag":11277,"schemat":11278,"jobbig":11279,"luktar":11280,"oween":11281,"muslimer":11282,"Show":11283,"lararen":11284,"avslutning":11285,"registret":11286,"uppdateras":11287,"genomforande":11288,"MT":11289,"Mart":11290,"ili":11291,"Nike":11292,"ckare":11293,"helvete":11294,"Spara":11295,"kostnadsfritt":11296,"hyfsat":11297,"verksamma":11298,"influen":11299,"alskling":11300,"visso":11301,"skotsel":11302,"ART":11303,"langsam":11304,"meddelar":11305,"nice":11306,"eko":11307,"avla":11308,"Jessica":11309,"inneha":11310,"Vas":11311,"tryckt":11312,"ohalsa":11313,"triv":11314,"varst":11315,"individuellt":11316,"delser":11317,"peter":11318,"Doku":11319,"partierna":11320,"Snygga":11321,"genomfordes":11322,"teckna":11323,"raning":11324,"duscha":11325,"utga":11326,"mottagning":11327,"virtu":11328,"drycker":11329,"Naturligtvis":11330,"Forslag":11331,"display":11332,"valkanda":11333,"oh":11334,"Jakob":11335,"kopplas":11336,"content":11337,"tillforlit":11338,"armarna":11339,"Book":11340,"kreditupplysning":11341,"slutning":11342,"pis":11343,"cipl":11344,"Sl":11345,"ansvars":11346,"alerna":11347,"normer":11348,"Abo":11349,"forrad":11350,"skriker":11351,"ighets":11352,"Nas":11353,"beredskap":11354,"sus":11355,"kontaktar":11356,"skningen":11357,"mysa":11358,"utrustad":11359,"nedre":11360,"agde":11361,"farfar":11362,"roligaste":11363,"tillhandahalla":11364,"hare":11365,"tvung":11366,"paminn":11367,"reagerar":11368,"fordelning":11369,"Feli":11370,"160":11371,"inblandade":11372,"dustrin":11373,"Teen":11374,"konstiga":11375,"Est":11376,"operator":11377,"jorde":11378,"SEX":11379,"parten":11380,"radets":11381,"klagom":11382,"tonaringar":11383,"1996":11384,"expan":11385,"ningssatt":11386,"brygg":11387,"stent":11388,"staderna":11389,"andning":11390,"1700":11391,"fasen":11392,"m2":11393,"torg":11394,"sparas":11395,"Miss":11396,"dering":11397,"forsvaret":11398,"klok":11399,"style":11400,"intervall":11401,"passerar":11402,"utskott":11403,"foranden":11404,"ef":11405,"loj":11406,"ties":11407,"samnen":11408,"stamm":11409,"onym":11410,"human":11411,"Ara":11412,"konflikter":11413,"terra":11414,"Skyd":11415,"Ars":11416,"oma":11417,"frys":11418,"torsdags":11419,"narkotika":11420,"diskuteras":11421,"isch":11422,"tillata":11423,"legitim":11424,"smalt":11425,"Best":11426,"Flickor":11427,"stott":11428,"Fisk":11429,"boli":11430,"mandagen":11431,"Centrum":11432,"gavle":11433,"Wel":11434,"ordentlig":11435,"gluten":11436,"Skolan":11437,"stata":11438,"filosofi":11439,"Dil":11440,"spill":11441,"mobl":11442,"kondom":11443,"nt":11444,"foss":11445,"naglar":11446,"vackraste":11447,"arskurs":11448,"auti":11449,"TV4":11450,"namnd":11451,"blast":11452,"Tommy":11453,"zu":11454,"ologin":11455,"brid":11456,"revi":11457,"engelsk":11458,"marg":11459,"Victoria":11460,"elly":11461,"junktur":11462,"klanningar":11463,"Prova":11464,"Christer":11465,"Videor":11466,"ryt":11467,"jatteg":11468,"buller":11469,"Leif":11470,"overforing":11471,"import":11472,"pers":11473,"Tvatt":11474,"yll":11475,"Silver":11476,"Barcelona":11477,"UK":11478,"lidande":11479,"latelse":11480,"utforas":11481,"klev":11482,"proje":11483,"jazz":11484,"badet":11485,"maklare":11486,"-/":11487,"Akt":11488,"kanel":11489,"overraskning":11490,"matlagning":11491,"skro":11492,"see":11493,"fornu":11494,"hattan":11495,"stamningen":11496,"skrek":11497,"religiosa":11498,"etid":11499,"MC":11500,"saknade":11501,"350":11502,"360":11503,"bussar":11504,"Youtube":11505,"Hd":11506,"kannedom":11507,"ssin":11508,"Lordag":11509,"camping":11510,"ponny":11511,"eten":11512,"rackte":11513,"EF":11514,"sionen":11515,"kvallens":11516,"entusia":11517,"Shi":11518,"sung":11519,"torrt":11520,"Later":11521,"sie":11522,"etablerade":11523,"Sm":11524,"fickor":11525,"videospel":11526,"ivna":11527,"kali":11528,"bostaden":11529,"Dags":11530,"Pir":11531,"agerande":11532,"repet":11533,"branna":11534,"fabriken":11535,"Pass":11536,"garanterar":11537,"betrakt":11538,"size":11539,"timmen":11540,"Last":11541,"motverka":11542,"hjalpen":11543,"locket":11544,"5000":11545,"balkongen":11546,"VR":11547,"lysande":11548,"antor":11549,"genomgang":11550,"formularet":11551,"lanade":11552,"absoluta":11553,"sporten":11554,"motstandare":11555,"CHF":11556,"skrammande":11557,"ursprungligen":11558,"apel":11559,"doc":11560,"inlogg":11561,"sien":11562,"dott":11563,"ckra":11564,"pannan":11565,"korgen":11566,"tackt":11567,"Business":11568,"kemi":11569,"biverkningar":11570,"flyttas":11571,"MED":11572,"kick":11573,"Leo":11574,"ledamot":11575,"anlanda":11576,"hurt":11577,"stop":11578,"artist":11579,"sannolikhet":11580,"atorn":11581,"badkar":11582,"alys":11583,"samrad":11584,"avsedd":11585,"strackan":11586,"1960":11587,"motesplats":11588,"ask":11589,"olj":11590,"melodi":11591,"glans":11592,"letade":11593,"ALLA":11594,"Jacob":11595,"ple":11596,"Tabell":11597,"Kopte":11598,"stjal":11599,"sjut":11600,"ions":11601,"bestamd":11602,"Lesbisk":11603,"stanser":11604,"segra":11605,"migt":11606,"arke":11607,"vic":11608,"finansiell":11609,"fisken":11610,"kolhydrater":11611,"buk":11612,"alltmer":11613,"begransa":11614,"grus":11615,"VC":11616,"sions":11617,"ligg":11618,"bars":11619,"villiga":11620,"Sidan":11621,"bemotande":11622,"kontaktuppgifter":11623,"forekomma":11624,"FM":11625,"Hund":11626,"Glad":11627,"langsiktiga":11628,"hemlighet":11629,"fotografer":11630,"Sverigedemokraterna":11631,"krypa":11632,"gynn":11633,"tillsatt":11634,"markning":11635,"lurar":11636,"TILL":11637,"manniskans":11638,"strander":11639,"vert":11640,"testar":11641,"Chatt":11642,"Escorts":11643,"SH":11644,"saret":11645,"vingar":11646,"publicera":11647,"lonen":11648,"jsa":11649,"morker":11650,"radgivare":11651,"sun":11652,"pepp":11653,"syre":11654,"ovantat":11655,"avgiften":11656,"kanalen":11657,"forfl":11658,"valen":11659,"Forsvarsma":11660,"effektivi":11661,"kommissionen":11662,"Affar":11663,"Mang":11664,"clu":11665,"berakna":11666,"Teknik":11667,"forpackning":11668,"oppning":11669,"Tit":11670,"tug":11671,"Trump":11672,"ventilation":11673,"vetet":11674,"Forsok":11675,"upphor":11676,"forandrats":11677,"iera":11678,"ydde":11679,"vantas":11680,"forestallning":11681,"Huset":11682,"straning":11683,"toppar":11684,"tvang":11685,"klubbens":11686,"bygget":11687,"Elever":11688,"Elekt":11689,"auktori":11690,"journalister":11691,"trupp":11692,"sjunker":11693,"potentiella":11694,"svarde":11695,"beskrivningar":11696,"langtan":11697,"vap":11698,"Kommunen":11699,"sagas":11700,"Hill":11701,"nyttigt":11702,"menings":11703,"Linnea":11704,"saljaren":11705,"samlingar":11706,"arbetarna":11707,"skida":11708,"skytt":11709,"konstig":11710,"synliga":11711,"lampan":11712,"marka":11713,"ambul":11714,"klokt":11715,"observ":11716,"bes":11717,"Oftast":11718,"Ute":11719,"shemale":11720,"varnar":11721,"kompon":11722,"sjalvstandigt":11723,"engagerade":11724,"domare":11725,"islam":11726,"ext":11727,"likadant":11728,"vetenskaplig":11729,"iss":11730,"parterna":11731,"global":11732,"Puss":11733,"mestadels":11734,"batterier":11735,"halsade":11736,"premium":11737,"studerande":11738,"slet":11739,"Kristus":11740,"visades":11741,"chips":11742,"mannisko":11743,"Oppet":11744,"odde":11745,"karaktarer":11746,"kyrk":11747,"arkitekt":11748,"jud":11749,"ffen":11750,"1993":11751,"ated":11752,"forluster":11753,"2020":11754,"natterna":11755,"Utred":11756,"storning":11757,"betalningsanmarkningar":11758,"ason":11759,"ssade":11760,"personuppgift":11761,"diplom":11762,"inflammation":11763,"forban":11764,"vackande":11765,"Varmland":11766,"Stod":11767,"regiss":11768,"videoklipp":11769,"night":11770,"Natet":11771,"stadat":11772,"handelsen":11773,"slutandan":11774,"Tj":11775,"komplettera":11776,"ffande":11777,"ruta":11778,"Joa":11779,"Produkt":11780,"forbundets":11781,"granne":11782,"stotta":11783,"ministern":11784,"ficer":11785,"bondage":11786,"projektledare":11787,"Poker":11788,"SW":11789,"rumpa":11790,"jamnt":11791,"nationellt":11792,"Skara":11793,"uppratthalla":11794,"hojer":11795,"kastade":11796,"hyre":11797,"bjods":11798,"instagram":11799,"sprit":11800,"tarar":11801,"Alli":11802,"reglering":11803,"Girls":11804,"atervanda":11805,"betyda":11806,"placerad":11807,"lags":11808,"matcha":11809,"uppvarmning":11810,"uppskatta":11811,"flyktingar":11812,"Anmalan":11813,"anpassas":11814,"ombud":11815,"DVD":11816,"kallades":11817,"Vinn":11818,"sorer":11819,"Lina":11820,"oarna":11821,"fortjust":11822,"Matte":11823,"teamet":11824,"amet":11825,"Sep":11826,"oppo":11827,"justera":11828,"feldt":11829,"stningen":11830,"Ale":11831,"Iran":11832,"uss":11833,"-.":11834,"variation":11835,"utrikes":11836,"foreslas":11837,"LAG":11838,"valbe":11839,"utforande":11840,"departementet":11841,"rup":11842,"Undrar":11843,"sena":11844,"rulle":11845,"MAR":11846,"enskilt":11847,"uppmuntra":11848,"gavs":11849,"Klart":11850,"herre":11851,"skruv":11852,"dejten":11853,"iella":11854,"jansten":11855,"his":11856,"arige":11857,"ittar":11858,"borden":11859,"She":11860,"burit":11861,"heterna":11862,"offentligt":11863,"hindr":11864,"kongre":11865,"kritisk":11866,"framgangsrik":11867,"iakt":11868,"mamman":11869,"aterfinns":11870,"valfard":11871,"forde":11872,"veder":11873,"White":11874,"Njut":11875,"STA":11876,"landsbygden":11877,"Mich":11878,"smala":11879,"roret":11880,"Singel":11881,"webbsida":11882,"Aut":11883,"foga":11884,"banden":11885,"Styr":11886,"foljs":11887,"forvarv":11888,"kunnig":11889,"ст":11890,"aaa":11891,"dolda":11892,"spolicy":11893,"flot":11894,"Cap":11895,"centi":11896,"Halso":11897,"oronen":11898,"armband":11899,"Fina":11900,"Lycka":11901,"administration":11902,"Varldens":11903,"elektronik":11904,"slap":11905,"flickan":11906,"manland":11907,"stren":11908,"kelsen":11909,"Kontrollera":11910,"cover":11911,"rostade":11912,"Gang":11913,"Topp":11914,"narmsta":11915,"stilen":11916,"shirt":11917,"konsten":11918,"fardigheter":11919,"Spela":11920,"ordnar":11921,"Lek":11922,"heli":11923,"existerar":11924,"fos":11925,"fax":11926,"nedgang":11927,"forhallningssatt":11928,"kliva":11929,"sters":11930,"dragen":11931,"besta":11932,"sorganis":11933,"atering":11934,"speed":11935,"diameter":11936,"bbarna":11937,"DI":11938,"inspektionen":11939,"onskad":11940,"prop":11941,"garantera":11942,"dahl":11943,"Ox":11944,"Olle":11945,"designen":11946,"pedagogiska":11947,"andrade":11948,"regerings":11949,"Givet":11950,"lagad":11951,"Solen":11952,"Benny":11953,"universit":11954,"Handels":11955,"PU":11956,"Oslo":11957,"Bull":11958,"starker":11959,"savgiften":11960,"juter":11961,"vecko":11962,"monstret":11963,"helger":11964,"xis":11965,"motivation":11966,"Forvalt":11967,"Que":11968,"nyfi":11969,"kterar":11970,"relationen":11971,"bestaller":11972,"bomb":11973,"oversatt":11974,"nadde":11975,"intellig":11976,"neuro":11977,"Fuck":11978,"spelautomater":11979,"fangar":11980,"behandlings":11981,"haftigt":11982,"brad":11983,"grava":11984,"LAN":11985,"goog":11986,"segern":11987,"3000":11988,"ffan":11989,"Ov":11990,"kvist":11991,"igg":11992,"utstallningar":11993,"what":11994,"tankas":11995,"talamod":11996,"dea":11997,"fascin":11998,"avbrott":11999,"ript":12000,"klagomal":12001,"takter":12002,"Ang":12003,"uthyrning":12004,"Tyd":12005,"borr":12006,"omdomen":12007,"Baby":12008,"Lamna":12009,"name":12010,"egel":12011,"basen":12012,"ISO":12013,"representerade":12014,"Andelen":12015,"husets":12016,"drin":12017,"sekretess":12018,"forbattringar":12019,"kraina":12020,"malning":12021,"Fall":12022,"boendet":12023,"Blekinge":12024,"juice":12025,"levnads":12026,"webcam":12027,"Birgitta":12028,"alar":12029,"orier":12030,"rehabilitering":12031,"darav":12032,"Annon":12033,"ansokningar":12034,"Lasse":12035,"framtidens":12036,"vardagar":12037,"siva":12038,"skun":12039,"regioner":12040,"digitalt":12041,"rabatter":12042,"likasa":12043,"PT":12044,"omet":12045,"years":12046,"arena":12047,"passi":12048,"landskapet":12049,"efterlang":12050,"coun":12051,"revisor":12052,"funka":12053,"volution":12054,"blandningen":12055,"Maten":12056,"sido":12057,"smo":12058,"Micke":12059,"summan":12060,"Profe":12061,"kravande":12062,"Margar":12063,"Forsakr":12064,"mediciner":12065,"lagring":12066,"Foljande":12067,"kedjan":12068,"skoll":12069,"sjukskoterska":12070,"Kristina":12071,"kryddor":12072,"Dnr":12073,"bonder":12074,"myndigheterna":12075,"utgora":12076,"blogginlagg":12077,"frukter":12078,"Aker":12079,"Holly":12080,"individuell":12081,"historisk":12082,"leds":12083,"ane":12084,"fingrar":12085,"ansprak":12086,"pur":12087,"kants":12088,"oppnat":12089,"Special":12090,"byx":12091,"nandet":12092,"omhander":12093,"arbetsplatser":12094,"plockar":12095,"loner":12096,"slappna":12097,"stackars":12098,"KS":12099,"narliggande":12100,"proffs":12101,"rita":12102,"boj":12103,"sjalvfortroende":12104,"irriterad":12105,"generationer":12106,"integration":12107,"leveranser":12108,"Eskorter":12109,"tus":12110,"Battre":12111,"introduktion":12112,"afrikan":12113,"utmarkta":12114,"125":12115,"nacken":12116,"filt":12117,"slas":12118,"sklu":12119,"manat":12120,"resulterade":12121,"vitra":12122,"University":12123,"hs":12124,"kravet":12125,"bias":12126,"ugal":12127,"minimal":12128,"socken":12129,"assistans":12130,"Kristianstad":12131,"rakningen":12132,"ataganden":12133,"laggningar":12134,"tisdagen":12135,"sparen":12136,"Katt":12137,"Faktum":12138,"bidragit":12139,"vate":12140,"KA":12141,"signaler":12142,"rykte":12143,"Lov":12144,"aliskt":12145,"Aldrig":12146,"LCHF":12147,"arbetsloshet":12148,"hava":12149,"bow":12150,"air":12151,"melie":12152,"phi":12153,"rattsliga":12154,"Borjade":12155,"sku":12156,"Exempelvis":12157,"kroppens":12158,"kylen":12159,"stapel":12160,"migran":12161,"Gull":12162,"fysik":12163,"fargad":12164,"add":12165,"Rese":12166,"verken":12167,"oljan":12168,"flog":12169,"skriften":12170,"konso":12171,"swedish":12172,"operativ":12173,"leveran":12174,"aktiebolag":12175,"koordin":12176,"Sjalva":12177,"une":12178,"foras":12179,"mattor":12180,"hm":12181,"arbetslosa":12182,"reaktioner":12183,"UV":12184,"vilar":12185,"Flash":12186,"Cer":12187,"onsdagen":12188,"knat":12189,"teman":12190,"ssic":12191,"iordning":12192,"versioner":12193,"mobb":12194,"Rik":12195,"Ansokan":12196,"hotel":12197,"MO":12198,"talang":12199,"planeras":12200,"tenderar":12201,"lasar":12202,"Dre":12203,"varar":12204,"behorig":12205,":/":12206,"underlaget":12207,"spis":12208,"matningar":12209,"betalat":12210,"passform":12211,"ANDE":12212,"rada":12213,"trivas":12214,"krona":12215,"kopia":12216,"skjuts":12217,"vardena":12218,"utat":12219,"Nan":12220,"mak":12221,"Natt":12222,"ckit":12223,"drabbats":12224,"Band":12225,"Mars":12226,"Cho":12227,"villig":12228,"drama":12229,"Trygg":12230,"stovlar":12231,"unionen":12232,"Rick":12233,"More":12234,"regud":12235,"hemmaplan":12236,"extrem":12237,"ategory":12238,"Open":12239,"arbetsplatsen":12240,"inneholl":12241,"snarast":12242,"samvete":12243,"hogra":12244,"svarat":12245,"bege":12246,"sco":12247,"Unge":12248,"framsteg":12249,"vikar":12250,"komplement":12251,"presentkort":12252,"firande":12253,"Organis":12254,"ngt":12255,"klade":12256,"rattvisa":12257,"turister":12258,"angeli":12259,"novell":12260,"hugg":12261,"sea":12262,"jobbiga":12263,"omedelbar":12264,"Seri":12265,"marknadens":12266,"bredare":12267,"Privat":12268,"salong":12269,"bien":12270,"alistiska":12271,"utvardera":12272,"eto":12273,"Uppdater":12274,"sanda":12275,"behovas":12276,"skugga":12277,"positionen":12278,"karlstad":12279,"about":12280,"fingrarna":12281,"skyddad":12282,"forfarande":12283,"avslutades":12284,"rapportering":12285,"figurer":12286,"konven":12287,"Kraft":12288,"omgivningen":12289,"ami":12290,"......":12291,"yer":12292,"betalningen":12293,"laro":12294,"Ifall":12295,"offen":12296,"OF":12297,"denafil":12298,"1600":12299,"vens":12300,"blandar":12301,"Arbetsformed":12302,"spontan":12303,"uppfo":12304,"genomforts":12305,"genomsnittliga":12306,"Porrfilmer":12307,"kvinnors":12308,"Svarta":12309,"Maja":12310,"budgeten":12311,"resonemang":12312,"Para":12313,"konstnarer":12314,"lyckat":12315,"utrustade":12316,"bbw":12317,"utmanande":12318,"heim":12319,"Vaknade":12320,"lexi":12321,"malan":12322,"Hang":12323,"ALLT":12324,"skulp":12325,"ekologiskt":12326,"sax":12327,"forhor":12328,"skalet":12329,"Ostra":12330,"intensivt":12331,"prast":12332,"Sant":12333,"discipl":12334,"mnen":12335,"satsningar":12336,"lufts":12337,"Yr":12338,"Hug":12339,"foreligger":12340,"koncernen":12341,"besiktning":12342,"vaxjo":12343,"Host":12344,"fortsattningen":12345,"statistiken":12346,"taggad":12347,"Bjork":12348,"Camilla":12349,"stok":12350,"finansiera":12351,"kapten":12352,"loppis":12353,",.":12354,"forse":12355,"ssle":12356,"Brasili":12357,"fransk":12358,"llekt":12359,"senior":12360,"taren":12361,"Mall":12362,"turne":12363,"ew":12364,"Skandinavi":12365,"Vis":12366,"forfar":12367,"ryn":12368,"1992":12369,"fA":12370,"indiker":12371,"oklart":12372,"kirurgi":12373,"ends":12374,"halsband":12375,"sioner":12376,"Lil":12377,"Richard":12378,"April":12379,"edagog":12380,"konserv":12381,"Stig":12382,"smeten":12383,"snamnden":12384,"borsen":12385,"skaps":12386,"Ej":12387,"regelbundna":12388,"tolka":12389,"diesel":12390,"rekta":12391,"Kille":12392,"1950":12393,"kisk":12394,"psykiska":12395,"elserna":12396,"Usch":12397,"wh":12398,"konkurr":12399,"grid":12400,"ityd":12401,"mottes":12402,"ded":12403,"lillebror":12404,"patag":12405,"tisdags":12406,"valdtakt":12407,"mobel":12408,"flack":12409,"Dor":12410,"ramar":12411,"atom":12412,"drink":12413,"August":12414,"ridor":12415,"reportage":12416,"veterinar":12417,"sevardheter":12418,"chili":12419,"diagram":12420,"akvar":12421,"kandid":12422,"kriterier":12423,"vinnande":12424,"daglig":12425,"kundens":12426,"namner":12427,"visande":12428,"Kursen":12429,"tankta":12430,"dejtingsidan":12431,"bebygg":12432,"foda":12433,"halvaret":12434,"tvungna":12435,"Drom":12436,"Asien":12437,"advent":12438,"xD":12439,"fotografera":12440,"Carlsson":12441,"direktivet":12442,"ssyn":12443,"deltagit":12444,"orke":12445,"comments":12446,"blind":12447,"ssp":12448,"forbran":12449,"frascha":12450,"Fargen":12451,"flexibel":12452,"valkomst":12453,"tarm":12454,"gni":12455,"retro":12456,"lake":12457,"hittas":12458,"synes":12459,"grot":12460,"bekamp":12461,"!).":12462,"dupp":12463,"badd":12464,"ageri":12465,"Spra":12466,"Personal":12467,"ambassa":12468,"string":12469,"onsdags":12470,"smitta":12471,"schyr":12472,"hopa":12473,"blar":12474,"spelning":12475,"spelades":12476,"ideal":12477,"Forhoppningsvis":12478,"utmaningen":12479,"Lyssna":12480,"elt":12481,"tennis":12482,"betalda":12483,"femin":12484,"nyckeln":12485,"sses":12486,"forfall":12487,"textil":12488,"tratt":12489,"strateg":12490,"Tol":12491,"avi":12492,"extrema":12493,"ico":12494,"ersatts":12495,"Gymna":12496,"valdig":12497,"infektion":12498,"GE":12499,"portioner":12500,"roulette":12501,"stegen":12502,"vinet":12503,"gavor":12504,"Karlskrona":12505,"kolon":12506,"apoteket":12507,"Boll":12508,"Pati":12509,"bakade":12510,"spekta":12511,"kritiska":12512,"legiti":12513,"fornuft":12514,"Onskar":12515,"rekla":12516,"hahaha":12517,"sammanhanget":12518,"mull":12519,"oljor":12520,"Your":12521,"poliser":12522,"andre":12523,"laren":12524,"Ekonomi":12525,"Hammarby":12526,"utfly":12527,"know":12528,"lanar":12529,"kylan":12530,"rinner":12531,"Egy":12532,"vasentligt":12533,"modifi":12534,"ridning":12535,"foraren":12536,"dressen":12537,"lojal":12538,"blandas":12539,"misstanker":12540,"framgangar":12541,"drivna":12542,"lyckliga":12543,"gorelse":12544,"skarna":12545,"Finansi":12546,"huvudsakliga":12547,"cilia":12548,"valdes":12549,"stir":12550,"poly":12551,"fordelarna":12552,"Horn":12553,"konjunktur":12554,"elin":12555,"attityd":12556,"oden":12557,"Personer":12558,"skaffat":12559,"frest":12560,"naringslivet":12561,"Vacker":12562,"diskussionen":12563,"Student":12564,"intraffar":12565,"tea":12566,"Expressen":12567,"graset":12568,"Shemale":12569,"olycks":12570,"%,":12571,"rums":12572,"tanda":12573,"malat":12574,"seminarium":12575,"juridiska":12576,"pjas":12577,"tavlor":12578,"postades":12579,"quiz":12580,"ATION":12581,"bevisa":12582,"redigera":12583,"monteras":12584,"viv":12585,"Aktie":12586,"XXX":12587,"riga":12588,"hie":12589,"Pettersson":12590,"Gift":12591,"kandet":12592,"Store":12593,"sovmorgon":12594,"bristen":12595,"lagst":12596,"runa":12597,"session":12598,"arsaldern":12599,"Amerikan":12600,"mem":12601,"Klassi":12602,"certifikat":12603,"varens":12604,"slip":12605,"prick":12606,"njutning":12607,"inratt":12608,"rangor":12609,"Sang":12610,"Body":12611,"hemat":12612,"Pite":12613,"avveck":12614,"gardagens":12615,"fliken":12616,"wall":12617,"Der":12618,"Brudar":12619,"betan":12620,"korrig":12621,"individen":12622,"andrat":12623,"fronten":12624,"hord":12625,"gigan":12626,"Ovrigt":12627,"forlangning":12628,"Hil":12629,"fods":12630,"boxen":12631,"faster":12632,"svarden":12633,"kommunikations":12634,"Coun":12635,"antibio":12636,"narstaende":12637,"akten":12638,"ople":12639,"delades":12640,"annanstans":12641,"istan":12642,"Jarn":12643,"forvisso":12644,"forbattras":12645,"framgangsrikt":12646,"ymen":12647,"myr":12648,"frivilligt":12649,"lugnare":12650,"Total":12651,"ending":12652,"kreativ":12653,"gatu":12654,"behovt":12655,"pix":12656,"forutsatter":12657,"Halland":12658,"Bilaga":12659,"Form":12660,"atern":12661,"mula":12662,"Day":12663,"utbilda":12664,"glid":12665,"ansikts":12666,"trojor":12667,"betalningsanmarkning":12668,"pend":12669,"enterna":12670,"prester":12671,"alskare":12672,"okande":12673,"branscher":12674,"Dog":12675,"...)":12676,"CR":12677,"montera":12678,"romantisk":12679,"sakerligen":12680,"creme":12681,"Mull":12682,"utreda":12683,"fordonet":12684,"produktions":12685,"tillampning":12686,"pyn":12687,"husdjur":12688,"billan":12689,"sintress":12690,"spersonal":12691,"sundsvall":12692,"rostning":12693,"aggressi":12694,"handikapp":12695,"apelsin":12696,"oende":12697,"Spotify":12698,"hom":12699,"word":12700,"fullstandig":12701,"stater":12702,"Alm":12703,"byten":12704,"Katar":12705,"kanneteck":12706,"innovativa":12707,"other":12708,"Hardcore":12709,"Smaland":12710,"overskott":12711,"underratt":12712,"halsosam":12713,"Senast":12714,"attar":12715,"Vackra":12716,"forkylning":12717,"plockat":12718,"lius":12719,"kommersiella":12720,"Louise":12721,"anmarkning":12722,"forestalla":12723,"Givetvis":12724,"sserier":12725,"pom":12726,"Hz":12727,"kraftiga":12728,"(\"":12729,"forsvunnit":12730,"uppskattat":12731,"Roda":12732,"madra":12733,"forord":12734,"rabattkod":12735,"Lokal":12736,"kommand":12737,"vans":12738,"dressyr":12739,"ML":12740,"styrkan":12741,"Borlange":12742,"ssnitt":12743,"avslojar":12744,"ersatter":12745,"grin":12746,"kommuns":12747,"klockor":12748,"login":12749,"sexfilmer":12750,"Sthlm":12751,"Dia":12752,"Cafe":12753,"bekrafta":12754,"kakel":12755,"politikerna":12756,"inspirera":12757,"Poj":12758,"fragat":12759,"amn":12760,"resi":12761,"Jaja":12762,"mottagare":12763,"militara":12764,"Charlot":12765,"vardnad":12766,"tvivel":12767,"Konsu":12768,"yttersta":12769,"kansli":12770,"Maxi":12771,"1991":12772,"elimin":12773,"legg":12774,"marginal":12775,"centimeter":12776,"lier":12777,"planerad":12778,"hostas":12779,"oke":12780,"Runt":12781,"Dec":12782,"packade":12783,"hardcore":12784,"Kvinn":12785,"Gast":12786,"attraktiva":12787,"namndens":12788,"stitu":12789,"Uppgifter":12790,"verkligt":12791,"arrangeras":12792,"story":12793,"receptfritt":12794,"Digital":12795,"Hogskolan":12796,"oben":12797,"kuddar":12798,"BI":12799,"kallaren":12800,"sthlm":12801,"Strax":12802,"Tillgang":12803,"NT":12804,"commun":12805,"Visby":12806,"Synd":12807,"strider":12808,"skytte":12809,"intellekt":12810,"VER":12811,"fastan":12812,"kulturell":12813,"insett":12814,"slass":12815,"passerat":12816,"historik":12817,"Christina":12818,"valkomnar":12819,"Programmet":12820,"asen":12821,"anvisningar":12822,"kollektivavtal":12823,"kandis":12824,"bedrivs":12825,"engagera":12826,"lish":12827,"utfort":12828,"matare":12829,"minskad":12830,"droger":12831,"gifte":12832,"terrang":12833,"Street":12834,"OO":12835,"blodet":12836,"tradar":12837,"stralar":12838,"studerar":12839,"key":12840,"Sammanfattning":12841,"ftt":12842,"kyrkans":12843,"FT":12844,"ativen":12845,"tantra":12846,"imponerad":12847,"veckors":12848,"aran":12849,"Sop":12850,">>":12851,"resande":12852,"varumarket":12853,"hanteringen":12854,"urer":12855,"maximal":12856,"rostar":12857,"uppgar":12858,"Bakgrund":12859,"skare":12860,"muff":12861,"uppvaxt":12862,"cinerande":12863,"Cum":12864,"Fra":12865,"utgors":12866,"ofs":12867,"beller":12868,"anpassat":12869,"suck":12870,"livslangd":12871,"jackpot":12872,"ppat":12873,"hentai":12874,"arrangerar":12875,":).":12876,"Cal":12877,"dete":12878,"Massor":12879,"rr":12880,"odla":12881,"jaga":12882,"krigs":12883,"edd":12884,"phon":12885,"likvar":12886,"overvaga":12887,"jattekul":12888,"darpa":12889,"klimatet":12890,"nxx":12891,"quist":12892,"Ryska":12893,"antog":12894,"butikerna":12895,"Nacka":12896,"dopp":12897,"haromdagen":12898,"latarna":12899,"Finan":12900,"bedr":12901,"arbetsgivar":12902,"Trafikverket":12903,"Glas":12904,"vaxthus":12905,"etts":12906,"bankkonto":12907,"Ford":12908,"sexualitet":12909,"misslyckas":12910,"farenhet":12911,"engagerad":12912,"universitets":12913,"meddelade":12914,"drev":12915,"lyssnat":12916,"Tonaring":12917,"anlita":12918,"LRF":12919,"harig":12920,"stemen":12921,"kollektion":12922,"savgifter":12923,"utor":12924,"bygds":12925,"Test":12926,"forsvars":12927,"tits":12928,"Portugal":12929,"avtryck":12930,"Ari":12931,"ingick":12932,"aton":12933,"Roger":12934,"enklaste":12935,"rick":12936,"aland":12937,"fastnade":12938,"xamen":12939,"frekvens":12940,"nyttig":12941,"musklerna":12942,"foretagande":12943,"regeln":12944,"stest":12945,"skadar":12946,"befann":12947,"Aja":12948,"packning":12949,"randet":12950,"parfym":12951,"bileum":12952,"balansen":12953,"Vanligen":12954,"Stang":12955,"inverkan":12956,"gubbe":12957,"lunchen":12958,"Ner":12959,"torde":12960,"cou":12961,"poangen":12962,"registrerar":12963,"sysselsattning":12964,"tval":12965,"MI":12966,"markta":12967,"Beroende":12968,"bostadsratts":12969,"Allmanna":12970,"Mandag":12971,"blomster":12972,"plikt":12973,"karri":12974,"stenen":12975,"Stal":12976,"forn":12977,"lys":12978,"vattent":12979,"avund":12980,"ever":12981,"Step":12982,"lukt":12983,"utbetalning":12984,"statens":12985,"Slott":12986,"clo":12987,"oav":12988,"tranga":12989,"reservat":12990,"bokstaver":12991,"slakten":12992,"forsaljnings":12993,"laborator":12994,"popularitet":12995,"bortom":12996,"Forstar":12997,"skommun":12998,"inleds":12999,"gos":13000,"Luft":13001,"produceras":13002,"vamp":13003,"narma":13004,"syror":13005,"okand":13006,"angrepp":13007,"dim":13008,"elektroniska":13009,"stoppar":13010,"mandel":13011,"erska":13012,"provar":13013,"dartill":13014,"Fair":13015,"spris":13016,"Mom":13017,"Betyg":13018,"maximalt":13019,"feedback":13020,"Samsung":13021,"betraffande":13022,"pus":13023,"angivna":13024,"Liber":13025,"cts":13026,"stein":13027,"ofog":13028,"andro":13029,"ovanpa":13030,"servicen":13031,"ating":13032,"avslappnad":13033,"kulor":13034,"Filip":13035,"institutioner":13036,"varade":13037,"Jim":13038,"sakrare":13039,"touch":13040,"mineral":13041,"grekiska":13042,"antas":13043,"laskigt":13044,"brant":13045,"aly":13046,"krok":13047,"siffrorna":13048,"kretsar":13049,"Ama":13050,"skulden":13051,"hamtas":13052,"arom":13053,"hallande":13054,"konserter":13055,"spack":13056,"Stina":13057,"uppskattade":13058,"bai":13059,"Rov":13060,"tyngd":13061,"rann":13062,"hampo":13063,"intraffade":13064,"albumet":13065,"conta":13066,"smyg":13067,"bh":13068,"staket":13069,"Liksom":13070,"arbetstid":13071,"dals":13072,"alist":13073,"lesbiska":13074,"Institution":13075,"prepar":13076,"Gemen":13077,"Betal":13078,"forratt":13079,"utspelar":13080,"lapparna":13081,"Hum":13082,"tankbara":13083,"ambition":13084,"gris":13085,"latsas":13086,"bostadsratt":13087,"Steg":13088,"Nation":13089,"avsedda":13090,"forfog":13091,"stalldes":13092,"OTE":13093,"Jonkopings":13094,"orgasm":13095,"forbattrar":13096,"uppsattning":13097,"hindrade":13098,"ANT":13099,"website":13100,"Sat":13101,"lagras":13102,"arsmote":13103,"utvid":13104,"kombinerar":13105,"Osterrike":13106,"trettio":13107,"parlamentet":13108,"delaktighet":13109,"Cecilia":13110,"Ungefar":13111,"ontin":13112,"kemikalier":13113,"samsta":13114,"etterna":13115,"gladjen":13116,"Tjansten":13117,"Game":13118,"fastnar":13119,"stemperatur":13120,"finare":13121,"mente":13122,"stockholms":13123,"strukturer":13124,"enastaende":13125,"ankomst":13126,"klor":13127,"sspar":13128,"granserna":13129,"logoty":13130,"blickar":13131,"accepta":13132,"frost":13133,"frukosten":13134,"varia":13135,"tegel":13136,"falska":13137,"Skall":13138,"flexibilitet":13139,"omsorgen":13140,"magiska":13141,"formaner":13142,"brostet":13143,"funderade":13144,"bour":13145,"Migrations":13146,"Jens":13147,"glod":13148,"faktiska":13149,"tillampa":13150,"Antingen":13151,"registreras":13152,"skold":13153,"vakten":13154,"fordju":13155,"anknytning":13156,"svaren":13157,"Clo":13158,"kunniga":13159,"resterande":13160,"horsel":13161,"pussel":13162,"fortiden":13163,"Detal":13164,"behovdes":13165,"kritiker":13166,"kompati":13167,"nedsatt":13168,"klippt":13169,"kemiska":13170,"jattemycket":13171,"emellanat":13172,"simul":13173,"pant":13174,"Laget":13175,"puls":13176,"sommarens":13177,"ledighet":13178,"kvarn":13179,"Hockey":13180,"njur":13181,"bingo":13182,"FRA":13183,"nifi":13184,"junior":13185,"Tv":13186,"utskick":13187,"sistens":13188,"ay":13189,"ulin":13190,"netto":13191,"representant":13192,"traningspass":13193,"formog":13194,"kampanjen":13195,"anstalla":13196,"ways":13197,"Sondag":13198,"borgarna":13199,"anklag":13200,"Verksamhet":13201,"Bort":13202,"Summa":13203,"limin":13204,"rer":13205,"sedd":13206,"/.":13207,"symboli":13208,"iPad":13209,"pos":13210,"traffades":13211,"LT":13212,"borna":13213,"okie":13214,"Entre":13215,"jordbruk":13216,"barnmor":13217,"harifran":13218,"fodral":13219,"uppsats":13220,"vegetari":13221,"beta":13222,"ktas":13223,"tvinga":13224,"CV":13225,"unna":13226,"Statens":13227,"\",\"":13228,"Sla":13229,"Cli":13230,"varandras":13231,"Jean":13232,"Nina":13233,"skoterska":13234,"mmare":13235,"Eti":13236,"pres":13237,"Tjeck":13238,"hostens":13239,"grand":13240,"365":13241,"maklar":13242,"streck":13243,"emission":13244,"uppfattas":13245,"arbetskraft":13246,"Funderar":13247,"sjalen":13248,"Wild":13249,"Tekniska":13250,"Katarina":13251,"Kredit":13252,"pastor":13253,"skadan":13254,"stammar":13255,"blond":13256,"smaterial":13257,"Cas":13258,"femton":13259,"skyddade":13260,"utova":13261,"Parker":13262,"havda":13263,"publicerade":13264,"kamrat":13265,"Cru":13266,"AF":13267,"Herren":13268,"distan":13269,"salongen":13270,"rapportera":13271,"stere":13272,"energin":13273,"bitter":13274,"galna":13275,"norrkoping":13276,"Kerstin":13277,"SOM":13278,"sott":13279,"sindustrin":13280,"ficka":13281,"effekterna":13282,"Pun":13283,"arden":13284,"keram":13285,"konstaterade":13286,"Sanna":13287,"rys":13288,"fortsattning":13289,"anvandarnamn":13290,"tjat":13291,"rog":13292,"intet":13293,"mie":13294,"jattes":13295,"Spann":13296,"oter":13297,"kvinnlig":13298,"DC":13299,"noter":13300,"Bag":13301,"hogtalare":13302,"bekraftar":13303,"May":13304,"otrolig":13305,"svaga":13306,"ira":13307,"Dejtingsidor":13308,"Hmm":13309,"anpassning":13310,"handledning":13311,"huvudstad":13312,"stralning":13313,"fisket":13314,"AK":13315,"Borjar":13316,"meddelandet":13317,"Plotsligt":13318,"Nr":13319,"face":13320,"demokratin":13321,"skyddas":13322,"plag":13323,"Emelie":13324,"Sexy":13325,"burkar":13326,"gjut":13327,"nodvandigtvis":13328,"hane":13329,"forb":13330,"funkade":13331,"Ky":13332,"lagts":13333,"Tand":13334,"upplevde":13335,"kvit":13336,"utdrag":13337,"Lakemedel":13338,"Arlanda":13339,"aden":13340,"snas":13341,"kylskap":13342,"naringsliv":13343,"Forsakringskassan":13344,"hlin":13345,"ignor":13346,"erhalla":13347,"Ill":13348,"Ikea":13349,"mate":13350,"kapp":13351,"bifog":13352,"Moderaterna":13353,"GDPR":13354,"smorgas":13355,"Samar":13356,"Brit":13357,"egenskap":13358,"bristande":13359,"she":13360,"Ville":13361,"krankande":13362,"Made":13363,"qui":13364,"naz":13365,"GAR":13366,"tangent":13367,"slottet":13368,"skiten":13369,"upplosning":13370,"sensu":13371,"namnt":13372,"Tall":13373,"kontors":13374,"MB":13375,"syrran":13376,"klagar":13377,"bostadshus":13378,"Bell":13379,"Vinter":13380,"utmana":13381,"cop":13382,"kopier":13383,"slagna":13384,"krisen":13385,"Forsalj":13386,"apple":13387,"typiska":13388,"tja":13389,"elektronisk":13390,"Bio":13391,"korridor":13392,"irriterande":13393,"dier":13394,"redovisa":13395,"Fet":13396,"avli":13397,"sveriges":13398,"upplaga":13399,"Advisor":13400,"inledde":13401,"medfora":13402,"070":13403,"investerings":13404,"Well":13405,"dejtar":13406,"HER":13407,"doften":13408,"dennes":13409,"stekni":13410,"setts":13411,"RO":13412,"))":13413,"Fjar":13414,"stagande":13415,"bonor":13416,"Ide":13417,"uppror":13418,"Ekonom":13419,"HAHA":13420,"rord":13421,"wards":13422,"faci":13423,"nedat":13424,"alv":13425,"broschyr":13426,"Joakim":13427,"PO":13428,"vidta":13429,"studion":13430,"bent":13431,"vackte":13432,"right":13433,"undvik":13434,"ear":13435,"halvlek":13436,"vardefulla":13437,"klack":13438,"flaskan":13439,"konferensen":13440,"anstallnings":13441,"trender":13442,"Liten":13443,"sasen":13444,"regional":13445,"Testa":13446,"vest":13447,"Sot":13448,"komplicerad":13449,"begri":13450,"Office":13451,"konceptet":13452,"HO":13453,"sallskapet":13454,"skadestand":13455,"Emi":13456,"berakning":13457,"varmer":13458,"forsamlingen":13459,"matchar":13460,"klads":13461,"funktionshinder":13462,"stabilt":13463,"giss":13464,"stallts":13465,"Nyck":13466,"versi":13467,"eds":13468,"Nara":13469,"nia":13470,"Syrien":13471,"firmor":13472,"sprinci":13473,"merna":13474,"valpar":13475,"weeken":13476,"protester":13477,"gryta":13478,"fascinerande":13479,"kontrast":13480,"traka":13481,"Het":13482,"medverka":13483,"Supp":13484,"Install":13485,"fling":13486,"Soft":13487,"cond":13488,"scenari":13489,"skalla":13490,"besvara":13491,"ktel":13492,"salla":13493,"ops":13494,"saljas":13495,"Registrera":13496,"MER":13497,"udden":13498,"laddas":13499,"vitaminer":13500,"strids":13501,"traditionellt":13502,"biologiska":13503,"fyllning":13504,"begagnade":13505,"tenta":13506,"knan":13507,"Redo":13508,"SI":13509,"Tobias":13510,"myt":13511,"visit":13512,"halmstad":13513,"nyfikna":13514,"sey":13515,"Recept":13516,"gangna":13517,"Seba":13518,"Analy":13519,"ovrig":13520,"Norrland":13521,"forvantat":13522,"beskrivningen":13523,"halvan":13524,"grenar":13525,"Pussy":13526,"elevernas":13527,"styrs":13528,"chester":13529,"Kna":13530,"blankett":13531,"DEN":13532,"Fragor":13533,"sokningen":13534,"neta":13535,"lulea":13536,"Trip":13537,"Pil":13538,"Skatteverket":13539,"nyanlanda":13540,"Rein":13541,"gubb":13542,"riksdags":13543,"sammanfattning":13544,"Udde":13545,"isa":13546,"trotthet":13547,"viga":13548,"blabar":13549,"sinspe":13550,"darigenom":13551,"blodtryck":13552,"pay":13553,"dromma":13554,"bankerna":13555,"batteriet":13556,"akademiker":13557,"barndom":13558,"avsevart":13559,"tacke":13560,"fungerat":13561,"skigt":13562,"gardiner":13563,"FL":13564,"Letar":13565,"Skal":13566,"roka":13567,"kommenterar":13568,"jagar":13569,"fattande":13570,"upphov":13571,"food":13572,"hjalte":13573,"dur":13574,"omgangar":13575,"forandringen":13576,"sortimentet":13577,"klot":13578,"ersattare":13579,"psykiskt":13580,"boras":13581,"officiellt":13582,"kulturer":13583,"trappan":13584,"}.":13585,"skyldigheter":13586,"Enter":13587,"konsolider":13588,"hemsk":13589,"umma":13590,"tillverkaren":13591,"bella":13592,"VAL":13593,"klassiskt":13594,"kaffet":13595,"nagorlunda":13596,"inlaggen":13597,"mentala":13598,"skadliga":13599,"Ovan":13600,"syndrom":13601,"arbetslivet":13602,"vettigt":13603,"illen":13604,"Tja":13605,"Viagra":13606,"bedomningar":13607,"Hollywood":13608,"valfri":13609,"Ume":13610,"exakta":13611,"regnar":13612,"suver":13613,"sammanstallning":13614,"Tillbaka":13615,"hojning":13616,"kostnadseffe":13617,"Generisk":13618,"helikop":13619,"skningar":13620,"apparater":13621,"vits":13622,"html":13623,"forstand":13624,"toaletten":13625,"utskottet":13626,"Gjorde":13627,"skjuter":13628,"gnall":13629,"American":13630,"Bit":13631,"Vasterbotten":13632,"BD":13633,"tystnad":13634,"Dick":13635,"producent":13636,"Heta":13637,"bly":13638,"sammantrade":13639,"row":13640,"Singlar":13641,"Sin":13642,"yrken":13643,"Jansson":13644,"uttalande":13645,"sjukvards":13646,"Gotaland":13647,"hub":13648,"user":13649,"maltider":13650,"oslo":13651,"nagel":13652,"Tanker":13653,"ages":13654,"valds":13655,"leverantoren":13656,"Champions":13657,"fasad":13658,"JO":13659,"inleddes":13660,"garderoben":13661,"place":13662,"Belgien":13663,"Atlan":13664,"Autom":13665,"vul":13666,"letat":13667,"slosningar":13668,"aku":13669,"konsol":13670,"mentalt":13671,"borgerliga":13672,"terri":13673,"Namnet":13674,"ging":13675,"gern":13676,"halet":13677,"ults":13678,"slutsatser":13679,"forbunds":13680,"mant":13681,"posit":13682,"ocket":13683,"sekonom":13684,"ocken":13685,"ampie":13686,"kvinno":13687,"tomater":13688,"Nobel":13689,"sjatte":13690,"skarmar":13691,"Inspir":13692,"kyrkor":13693,"damerika":13694,"radik":13695,"doman":13696,"gardens":13697,"Restaurang":13698,"beviljas":13699,"IGT":13700,"backe":13701,"misslyck":13702,"Und":13703,"Wh":13704,"blixt":13705,"paborja":13706,"mator":13707,"ingaende":13708,"stugor":13709,"drommen":13710,"komplexa":13711,"familjens":13712,"beredningen":13713,"Rapport":13714,"cet":13715,"Server":13716,"trenden":13717,"Gabri":13718,"Dejtingsajter":13719,"ни":13720,"fallit":13721,"foster":13722,"livsmedels":13723,"every":13724,"Jaha":13725,"undviker":13726,"bladdra":13727,"nyfikenhet":13728,"attraktiv":13729,"Afghan":13730,"varderas":13731,"Et":13732,"kanslomass":13733,"tyngre":13734,"radion":13735,"lampar":13736,"stips":13737,"EK":13738,"koren":13739,"Rebe":13740,"afton":13741,"redovisningen":13742,"frascht":13743,"barer":13744,"kraftfull":13745,"kis":13746,"smartphone":13747,"fullkomligt":13748,"fral":13749,"games":13750,"droppar":13751,"Taby":13752,"omvarlden":13753,"tillfalliga":13754,"slanger":13755,"neutr":13756,"solna":13757,"chauf":13758,"ates":13759,"Put":13760,"fallande":13761,"cky":13762,"organisations":13763,"omgangen":13764,"lamm":13765,"surfa":13766,"bakgrunds":13767,"dolj":13768,"Standard":13769,"Finlands":13770,"siffra":13771,"Ler":13772,"trop":13773,"sattes":13774,"Iden":13775,"Elisabeth":13776,"Samuel":13777,"valbefinn":13778,"Linn":13779,"Visser":13780,"teknologi":13781,"punkterna":13782,"skylla":13783,"snallt":13784,"Djurgarden":13785,"Falken":13786,"pressmeddelande":13787,"gruppens":13788,"skrid":13789,"tysta":13790,"spenderat":13791,"bokforing":13792,"koparen":13793,"sugna":13794,"traditioner":13795,"sert":13796,"iggande":13797,"ljusare":13798,"Valkomna":13799,"BAR":13800,"reflex":13801,"marktes":13802,"Drott":13803,"vaxling":13804,"SCB":13805,"medvetenhet":13806,"raknade":13807,"trojan":13808,"women":13809,"forfrag":13810,"komplicerat":13811,"fient":13812,"Underbart":13813,"utmatt":13814,"lasas":13815,"prognos":13816,"sander":13817,"tamligen":13818,"expand":13819,"experiment":13820,"jordens":13821,"Parti":13822,"inriktad":13823,"direkta":13824,"ра":13825,"Akte":13826,"But":13827,"oar":13828,"felaktigt":13829,"mastaren":13830,"skrivas":13831,"somnar":13832,"Hotels":13833,"atervinning":13834,"bosatt":13835,"huvudstaden":13836,"Sakerhet":13837,"skrivningar":13838,"siffran":13839,"UPP":13840,"fargat":13841,"Gy":13842,"laddat":13843,"Klipp":13844,"Socialstyrelsen":13845,"bratt":13846,"ai":13847,"sprungit":13848,"etablera":13849,"orp":13850,"upptagen":13851,"passagerare":13852,"Sall":13853,"ialis":13854,"beloning":13855,"inlar":13856,"Visserligen":13857,"Sub":13858,"ortering":13859,"Arvid":13860,"но":13861,"axlar":13862,"flug":13863,"Markus":13864,"uthall":13865,"Bakom":13866,"jorta":13867,"cupen":13868,"squ":13869,"Slutligen":13870,"HC":13871,"denten":13872,"Maskin":13873,"alag":13874,"field":13875,"nulaget":13876,"Rose":13877,"Samt":13878,"snackar":13879,"smakade":13880,"Fag":13881,"Dju":13882,"korten":13883,"Pia":13884,"herrar":13885,"rostfritt":13886,"watch":13887,"knyta":13888,"Mell":13889,"talen":13890,"1200":13891,"havre":13892,"scher":13893,"drivet":13894,"grejen":13895,"meta":13896,"Fit":13897,"forsorj":13898,"Cur":13899,"paminna":13900,"uppdaterade":13901,"orelse":13902,"Pitea":13903,"markera":13904,"Knut":13905,"fjaril":13906,"Mindre":13907,"hanvisar":13908,"onodiga":13909,"Partner":13910,"nanting":13911,"Mona":13912,"Resten":13913,"(!)":13914,"Elec":13915,"yoghurt":13916,"varn":13917,"pumpar":13918,"smalta":13919,"hastigheten":13920,"tusan":13921,"ryttare":13922,"forbjudet":13923,"tyget":13924,"Bom":13925,"deleg":13926,"Hogsta":13927,"beteenden":13928,"Jesper":13929,"stadigt":13930,"konvers":13931,"resulterar":13932,"judar":13933,"notera":13934,"hyper":13935,"uppnatt":13936,"grens":13937,"Veckans":13938,"eh":13939,"Britt":13940,"edda":13941,"forestallningen":13942,"omfatta":13943,"strommen":13944,"foresla":13945,"Syda":13946,"hangt":13947,"kakade":13948,"brygga":13949,"dagbok":13950,"Charlotte":13951,"Egyp":13952,"sakrade":13953,"tvingades":13954,"forfattar":13955,"oral":13956,"tillats":13957,"на":13958,"buren":13959,"attacker":13960,"barnbarn":13961,"dricks":13962,"globalt":13963,"manen":13964,"DS":13965,"ockt":13966,"bytas":13967,"formiddag":13968,"moped":13969,"densamma":13970,"splatt":13971,"kriminal":13972,"QU":13973,"vinnaren":13974,"privatlan":13975,"lind":13976,"kanterna":13977,"stekt":13978,"segel":13979,"Dire":13980,"flitigt":13981,"Finn":13982,"Engelska":13983,"rorde":13984,"intensiva":13985,"mott":13986,"uttrycker":13987,"kristall":13988,"prisvarda":13989,"Staffan":13990,"Langtar":13991,"sektion":13992,"angelagen":13993,"Sens":13994,"forlat":13995,"Cast":13996,"dofter":13997,"hops":13998,"Radi":13999,"Kent":14000,"Time":14001,"tumblr":14002,"Buss":14003,"samlades":14004,"teckningar":14005,"djupet":14006,"skogar":14007,"bladen":14008,"enskilde":14009,"galden":14010,"adult":14011,"sands":14012,"isla":14013,"smuts":14014,"”-":14015,"ely":14016,"komprom":14017,"delnings":14018,"____":14019,"If":14020,"Call":14021,"Fas":14022,"varorna":14023,"ungarna":14024,"hamt":14025,"stoder":14026,"Gustafsson":14027,"bokfor":14028,"strump":14029,"tillvaron":14030,"VIP":14031,"lighetens":14032,"tripp":14033,"salda":14034,"forbattrad":14035,"bytet":14036,"halsning":14037,"moral":14038,"grunda":14039,"evigt":14040,"sittande":14041,"knut":14042,"surt":14043,"brunt":14044,"smartan":14045,"inet":14046,"Kvallen":14047,"chill":14048,"strategiska":14049,"norm":14050,"atervander":14051,"Prom":14052,"Sto":14053,"cyklade":14054,"Nederlanderna":14055,"verkning":14056,"vra":14057,"Cop":14058,"alth":14059,"ark":14060,"entreprenorer":14061,"medium":14062,"bestallningar":14063,"Ske":14064,"adel":14065,"atts":14066,"bygglov":14067,"effektivare":14068,"farga":14069,"styrkor":14070,"lyder":14071,"parlor":14072,"ception":14073,"erbjudas":14074,"svardet":14075,"tvaa":14076,"Leks":14077,"pojken":14078,"sades":14079,"pott":14080,"sill":14081,"Ingrid":14082,"landade":14083,"anhorig":14084,"Nog":14085,"utvecklad":14086,"uppsagning":14087,"Ok":14088,"ISK":14089,"brinnande":14090,"Ostergotland":14091,"George":14092,"menas":14093,"lakemedels":14094,"schen":14095,"etty":14096,"Servi":14097,"terapeut":14098,"tillvaro":14099,"ktad":14100,"UF":14101,"landar":14102,"EP":14103,"onan":14104,"avsta":14105,"snick":14106,"panelen":14107,"Ado":14108,"upplag":14109,"prioritera":14110,"dorrarna":14111,"fortare":14112,"Ebba":14113,"objektiv":14114,"kundservice":14115,"Naja":14116,"Adol":14117,"nm":14118,"publicerades":14119,"HEL":14120,"MSEK":14121,"swe":14122,"Forsvarsmakten":14123,"atkomst":14124,"Good":14125,"utlaningsprodukter":14126,"webbsidor":14127,"gens":14128,"llene":14129,"Juster":14130,"inbrott":14131,"tie":14132,"IKT":14133,"DNA":14134,"Holland":14135,"homosexuella":14136,"lagstiftningen":14137,"modet":14138,"utsidan":14139,"beredda":14140,"invandring":14141,"Forskning":14142,"drabbar":14143,"vetenskapligt":14144,"splitt":14145,"innehav":14146,"betyget":14147,"prostata":14148,"varva":14149,"skadlig":14150,"Sist":14151,"450":14152,"hariga":14153,"iro":14154,"glan":14155,"kvarts":14156,"noja":14157,"Vansterpartiet":14158,"ungdomarna":14159,"Kand":14160,"rigt":14161,"andliga":14162,"tillsyns":14163,"forbruk":14164,"medit":14165,"kommunstyrelsen":14166,"Scho":14167,"professionellt":14168,"hosta":14169,"modellerna":14170,"Missa":14171,"grundare":14172,"ashington":14173,"beslag":14174,"chan":14175,"glaset":14176,"stangning":14177,"rav":14178,"tendens":14179,"startades":14180,"stravan":14181,"mordet":14182,"fodelse":14183,"Mega":14184,"Billiga":14185,"yester":14186,"escorter":14187,"who":14188,"planerna":14189,"ups":14190,"bjuds":14191,"bevakning":14192,"lagligt":14193,"arsmotet":14194,"Vikt":14195,"installd":14196,"samhallen":14197,"svalt":14198,"Latina":14199,"ENT":14200,"skrivbord":14201,"iteter":14202,"Blogg":14203,"gers":14204,"utnyttjas":14205,"slaktingar":14206,"optimal":14207,"px":14208,"area":14209,"pedagogisk":14210,"Extre":14211,"vardel":14212,"ender":14213,"alafil":14214,"behar":14215,"nyttiga":14216,"erfaren":14217,"landslaget":14218,"studenterna":14219,"Text":14220,"overskri":14221,"knack":14222,"skapades":14223,"stimulera":14224,"bildade":14225,"applikationer":14226,"Gall":14227,"Borde":14228,"lektionen":14229,"klanningen":14230,"koncentration":14231,"anmalt":14232,"uppmanar":14233,"istiska":14234,"Arbetsformedlingen":14235,"osakra":14236,"hudvard":14237,"misshandel":14238,"ordnade":14239,"Gold":14240,"Trodde":14241,"forutsag":14242,"Leon":14243,"Trevlig":14244,"bistand":14245,"regleras":14246,"rosten":14247,"begransning":14248,"dir":14249,"bass":14250,"levs":14251,"eur":14252,"Sovjet":14253,"ordforanden":14254,"svenskarna":14255,"coolt":14256,"fortroendet":14257,"proced":14258,"morkare":14259,"Jenni":14260,"slangde":14261,"ology":14262,"skontoret":14263,"arbetstagare":14264,"funda":14265,"distribution":14266,"Kunde":14267,"Mala":14268,"anstrangning":14269,"Medle":14270,"flyter":14271,"mpan":14272,"bearbetning":14273,"Journ":14274,"forkyld":14275,"granssnitt":14276,"detaljerna":14277,"malvakt":14278,"hantverkare":14279,"cla":14280,"moss":14281,"kompakt":14282,"Telia":14283,"tatu":14284,"betalade":14285,"horison":14286,"unn":14287,"linjerna":14288,"verktyget":14289,"mc":14290,"Kir":14291,"kiss":14292,"brygger":14293,"saknat":14294,"race":14295,"landslag":14296,"bubbel":14297,"forblir":14298,"frivillig":14299,"lappen":14300,"samarbeten":14301,"bosatta":14302,"spruta":14303,"trakasserier":14304,"Sprak":14305,"uppstod":14306,"avskil":14307,"Aland":14308,"MIL":14309,"bygge":14310,"NHL":14311,"skadespel":14312,"svagt":14313,"Dildo":14314,"vegan":14315,"hap":14316,"utformad":14317,"bygd":14318,"coola":14319,"naren":14320,"Sli":14321,"fari":14322,"tillfallig":14323,"nedanstaende":14324,"ftas":14325,"kramar":14326,"Hugo":14327,"aterkomma":14328,"angar":14329,"Defin":14330,"sikten":14331,"bruten":14332,"Welcome":14333,"reparation":14334,"trappa":14335,"uppnas":14336,"felet":14337,"befal":14338,"sne":14339,"efterratt":14340,"after":14341,"druckit":14342,"foro":14343,"bebi":14344,"HV":14345,"vanstra":14346,"Ica":14347,"Spelet":14348,"rimlig":14349,"solsken":14350,"frysen":14351,"--------":14352,"vaknat":14353,"psykologi":14354,"nostal":14355,"llo":14356,"forpackningar":14357,"gult":14358,"tw":14359,"Astrid":14360,"stold":14361,"Linus":14362,"hjulet":14363,"aventy":14364,"handledare":14365,"daribland":14366,"forumet":14367,"klump":14368,"Eventu":14369,"papri":14370,"gala":14371,"Lady":14372,"ines":14373,"singles":14374,"popularaste":14375,"fusk":14376,"Cialis":14377,"Sno":14378,"GPS":14379,"llentuna":14380,"arerna":14381,"sakerstaller":14382,"krogen":14383,"Fokus":14384,"differ":14385,"ec":14386,"tackande":14387,"First":14388,"kollektivtrafik":14389,"Hov":14390,"pinnar":14391,"producerade":14392,"massig":14393,"Brasilien":14394,"meet":14395,"seminarier":14396,"avdelningar":14397,"sola":14398,"Ott":14399,"pilot":14400,"avslutad":14401,"mansklig":14402,"tvill":14403,"Sadana":14404,"Agneta":14405,"foljare":14406,"Alliansen":14407,"brytare":14408,"arenan":14409,"Mas":14410,"trangt":14411,"tallri":14412,"porten":14413,"yy":14414,"kanin":14415,"atiken":14416,"Java":14417,"kk":14418,"avslutat":14419,"Fire":14420,"utlandsk":14421,"tillbringa":14422,"ulen":14423,"tipsar":14424,"VS":14425,"1989":14426,"satserna":14427,"minoritet":14428,"Donald":14429,"Royal":14430,"frysa":14431,"Lot":14432,"inje":14433,"sambon":14434,"Kommunik":14435,"gaming":14436,"Jimmy":14437,"Bb":14438,"fingret":14439,"meras":14440,"sankt":14441,"promenaden":14442,"imorn":14443,"Arne":14444,"Pengar":14445,"jutit":14446,"pappas":14447,"segrar":14448,"jel":14449,"testet":14450,"RT":14451,"lines":14452,"kademin":14453,"receptionen":14454,"bliv":14455,"penna":14456,"Linkopings":14457,"Institutionen":14458,"skadat":14459,"utredningar":14460,"Familjen":14461,"OLL":14462,"Inledning":14463,"aled":14464,"emma":14465,"spolitiken":14466,"befintlig":14467,"Mis":14468,"casinospel":14469,"cola":14470,"Hentai":14471,"blasa":14472,"erbjudandet":14473,"vagrade":14474,"club":14475,"registrerat":14476,"Rut":14477,"shit":14478,"gatorna":14479,"atu":14480,"Numera":14481,"cross":14482,"uppgrader":14483,"tagaren":14484,"Halsa":14485,"TRA":14486,"Bertil":14487,"skjorta":14488,"landstinget":14489,"Mur":14490,"insatsen":14491,"forsakrade":14492,"Karlek":14493,"davarande":14494,"kopplar":14495,"uppfod":14496,"asiatisk":14497,"anmaler":14498,"fjader":14499,"vardar":14500,"galleri":14501,"sydda":14502,"pics":14503,"logistik":14504,"laddade":14505,"skli":14506,"skagg":14507,"istens":14508,"konsekvenserna":14509,"jterna":14510,"beach":14511,"road":14512,"kalendern":14513,"Utifran":14514,"inform":14515,"robu":14516,"dryga":14517,"pensionarer":14518,"restri":14519,"agd":14520,"kamrater":14521,"phones":14522,"forflutna":14523,"smyndigheten":14524,"gbg":14525,"ced":14526,"bikini":14527,"Brott":14528,"kontrollerar":14529,"blaa":14530,"motas":14531,"How":14532,"kompletta":14533,"sortera":14534,"Moln":14535,"inspireras":14536,"reagera":14537,"Chan":14538,"Janne":14539,"Utbildningen":14540,"kliver":14541,"inbjudan":14542,"mild":14543,"lina":14544,"graviditeten":14545,"bris":14546,"sistnamnda":14547,"Light":14548,"syntet":14549,"kafe":14550,"tingsratt":14551,"ordnings":14552,"Kin":14553,"dax":14554,"felaktiga":14555,"utflykter":14556,"olo":14557,"namnen":14558,"planeringen":14559,"meningar":14560,"Multi":14561,"solo":14562,"Halla":14563,"rontgen":14564,"besegra":14565,"lovande":14566,"sofi":14567,"broms":14568,"Karolinska":14569,"syntes":14570,"sperspektiv":14571,"absor":14572,"resmal":14573,"riva":14574,"yrket":14575,"monter":14576,"Ursprung":14577,"kistan":14578,"stigande":14579,"Institut":14580,"faren":14581,"losas":14582,"Tok":14583,"Invester":14584,"skov":14585,"Sh":14586,"Landskrona":14587,"Irak":14588,"blommorna":14589,"utlandet":14590,"grymma":14591,"langsta":14592,"sparade":14593,"Andel":14594,"hemmag":14595,"fylls":14596,"cca":14597,"beskedet":14598,"kalk":14599,"GP":14600,"Carina":14601,"Gotalands":14602,"nett":14603,"alven":14604,"elektri":14605,"vass":14606,"onani":14607,"denter":14608,"statlig":14609,"Gala":14610,"kombinationer":14611,"otrogen":14612,"North":14613,"sivt":14614,"drun":14615,"Ulrika":14616,"imum":14617,"kaps":14618,"snett":14619,"aningen":14620,"resta":14621,"lyckligt":14622,"sjalvklara":14623,"long":14624,"stapeln":14625,"shorts":14626,"gaser":14627,"beakt":14628,"Orn":14629,"Madrid":14630,"prestig":14631,"Traning":14632,"Monica":14633,"folks":14634,"paminnelse":14635,"dugg":14636,"ultimata":14637,"Siri":14638,"rundan":14639,"skuggan":14640,"piano":14641,"ME":14642,"tobak":14643,"premiaren":14644,"ope":14645,"skrika":14646,"GI":14647,"\u0000\u0000\u0000\u0000\u0000\u0000\u0000\u0000":14648,"dolja":14649,"Imp":14650,"tillverkat":14651,"Laser":14652,"viktigast":14653,"olivolja":14654,"grannen":14655,"Therese":14656,"Amerika":14657,"Line":14658,"Ligger":14659,"forbereder":14660,"fikade":14661,"Wen":14662,"samarbetspartners":14663,"open":14664,"ariet":14665,"mir":14666,"overraskande":14667,"tillvaxten":14668,"olyckan":14669,"Normalt":14670,"bling":14671,"formagor":14672,"Sym":14673,"demokraternas":14674,"handlaggare":14675,"photos":14676,"byar":14677,"angrar":14678,"saknad":14679,"villor":14680,"saks":14681,"rubrik":14682,"tycke":14683,"public":14684,"Bera":14685,"malsattning":14686,"avagen":14687,"langtat":14688,"Fitt":14689,"Forel":14690,"agerade":14691,"Rol":14692,"Pont":14693,"exponering":14694,"valjare":14695,"forklaras":14696,"markes":14697,"presenterades":14698,"pensions":14699,"Torn":14700,"garant":14701,"overblick":14702,"Auto":14703,"viljan":14704,"gryn":14705,"passera":14706,"promenera":14707,"macka":14708,"antibiotika":14709,"goa":14710,"bestams":14711,"zar":14712,"Sarah":14713,"Mjol":14714,"ody":14715,"TripAdvisor":14716,"rett":14717,"esultat":14718,"mmes":14719,"hyllor":14720,"pell":14721,"japansk":14722,"karaktaren":14723,"Tuttar":14724,"framjande":14725,"vansinn":14726,"racial":14727,"duken":14728,"rasism":14729,"hoo":14730,"skultur":14731,"bagar":14732,"scre":14733,"spol":14734,"bjudit":14735,"utfall":14736,"kastrull":14737,"Altern":14738,"silikon":14739,"haver":14740,"resp":14741,"spektaku":14742,"strade":14743,"kliniken":14744,"starkaste":14745,"kombineras":14746,"tyger":14747,"klattra":14748,"besokarna":14749,"Mans":14750,"atra":14751,"uppskattas":14752,"Clar":14753,"inbyggd":14754,"Bl":14755,"Minn":14756,"Tusen":14757,"Upptack":14758,"Storlek":14759,"akers":14760,
[...]
