[PAD]
[unused0]
[unused1]
[unused2]
[unused3]
[unused4]
[unused5]
[unused6]
[unused7]
[unused8]
[unused9]
[unused10]
[unused11]
[unused12]
[unused13]
[unused14]
[unused15]
[unused16]
[unused17]
[unused18]
[unused19]
[unused20]
[unused21]
[unused22]
[unused23]
[unused24]
[unused25]
[unused26]
[unused27]
[unused28]
[unused29]
[unused30]
[unused31]
[unused32]
[unused33]
[unused34]
[unused35]
[unused36]
[unused37]
[unused38]
[unused39]
[unused40]
[unused41]
[unused42]
[unused43]
[unused44]
[unused45]
[unused46]
[unused47]
[unused48]
[unused49]
[unused50]
[unused51]
[unused52]
[unused53]
[unused54]
[unused55]
[unused56]
[unused57]
[unused58]
[unused59]
[unused60]
[unused61]
[unused62]
[unused63]
[unused64]
[unused65]
[unused66]
[unused67]
[unused68]
[unused69]
[unused70]
[unused71]
[unused72]
[unused73]
[unused74]
[unused75]
[unused76]
[unused77]
[unused78]
[unused79]
[unused80]
[unused81]
[unused82]
[unused83]
[unused84]
[unused85]
[unused86]
[unused87]
[unused88]
[unused89]
[unused90]
[unused91]
[unused92]
[unused93]
[unused94]
[unused95]
[unused96]
[unused97]
[unused98]
[unused99]
[UNK]
[CLS]
[SEP]
[MASK]
##!
##"
###
##$
##%
##&
##'
##(
##)
##*
##+
##,
##-
##.
##/
##0
##1
##2
##3
##4
##5
##6
##7
##8
##9
##:
##;
##=
##?
##@
##A
##B
##C
##D
##E
##F
##G
##H
##I
##J
##K
##L
##M
##N
##O
##P
##Q
##R
##S
##T
##U
##V
##W
##X
##Y
##Z
##[
##\
##]
##^
##_
##`
##a
##b
##c
##d
##e
##f
##g
##h
##i
##j
##k
##l
##m
##n
##o
##p
##q
##r
##s
##t
##u
##v
##w
##x
##y
##z
##{
##|
##}
##~
##¡
##£
##§
##¨
##«
##­
##®
##°
##±
##²
##³
##´
##µ
##·
##¹
##º
##»
##¼
##½
##Æ
##Ð
##×
##Ø
##Þ
##ß
##æ
##ð
##ø
##þ
##Đ
##đ
##Ħ
##ħ
##ı
##Ł
##ł
##ŋ
##Œ
##œ
##Ə
##ƒ
##ɐ
##ɑ
##ɔ
##ə
##ɛ
##ɨ
##ɪ
##ɾ
##ʀ
##ʁ
##ʃ
##ʊ
##ʒ
##ʲ
##ʹ
##ʻ
##ʾ
##ʿ
##ˈ
##ː
##˚
##Α
##Β
##Γ
##Δ
##Ε
##Η
##Θ
##Ι
##Κ
##Λ
##Μ
##Ν
##Ο
##Π
##Ρ
##Σ
##Τ
##Φ
##Χ
##Ω
##α
##β
##γ
##δ
##ε
##ζ
##η
##θ
##ι
##κ
##λ
##μ
##ν
##ξ
##ο
##π
##ρ
##ς
##σ
##τ
##υ
##φ
##χ
##ψ
##ω
##І
##Ј
##А
##Б
##В
##Г
##Д
##Е
##Ж
##З
##И
##К
##Л
##М
##Н
##О
##П
##Р
##С
##Т
##У
##Ф
##Х
##Ц
##Ч
##Ш
##Э
##Ю
##Я
##а
##б
##в
##г
##д
##е
##ж
##з
##и
##к
##л
##м
##н
##о
##п
##р
##с
##т
##у
##ф
##х
##ц
##ч
##ш
##щ
##ъ
##ы
##ь
##э
##ю
##я
##і
##ј
##љ
##њ
##ћ
##џ
##қ
##ү
##ә
##Ө
##ө
##Ա
##Ե
##Լ
##Կ
##Հ
##Մ
##Ս
##ա
##բ
##գ
##դ
##ե
##զ
##թ
##ի
##լ
##խ
##կ
##հ
##ղ
##մ
##յ
##ն
##շ
##ո
##պ
##ռ
##ս
##վ
##տ
##ր
##ց
##ւ
##ք
##א
##ב
##ג
##ד
##ה
##ו
##ז
##ח
##ט
##י
##כ
##ל
##ם
##מ
##ן
##נ
##ס
##ע
##ף
##פ
##צ
##ק
##ר
##ש
##ת
##ء
##ا
##ب
##ة
##ت
##ث
##ج
##ح
##خ
##د
##ذ
##ر
##ز
##س
##ش
##ص
##ض
##ط
##ظ
##ع
##غ
##ـ
##ف
##ق
##ك
##ل
##م
##ن
##ه
##و
##ى
##ي
##پ
##چ
##ډ
##ژ
##ک
##گ
##ہ
##ۆ
##ی
##ێ
##ې
##ە
##ܐ
##ܝ
##ܪ
##क
##ग
##ज
##ट
##त
##द
##न
##प
##ब
##म
##य
##र
##ल
##व
##श
##स
##ह
##গ
##দ
##ন
##ব
##ম
##র
##ল
##க
##ட
##த
##ன
##ப
##ம
##ர
##ก
##ง
##ช
##ด
##ต
##ท
##น
##บ
##พ
##ม
##ย
##ร
##ล
##ว
##ส
##ห
##อ
##ะ
##า
##เ
##་
##ག
##ང
##བ
##ར
##ས
##ა
##ბ
##გ
##დ
##ე
##ვ
##ზ
##თ
##ი
##კ
##ლ
##მ
##ნ
##ო
##პ
##რ
##ს
##ტ
##უ
##ფ
##ქ
##ღ
##ყ
##შ
##ჩ
##ც
##ძ
##წ
##ხ
##ჯ
##ᄀ
##ᄂ
##ᄃ
##ᄅ
##ᄆ
##ᄇ
##ᄉ
##ᄊ
##ᄋ
##ᄌ
##ᄎ
##ᄏ
##ᄐ
##ᄑ
##ᄒ
##ᅡ
##ᅢ
##ᅣ
##ᅥ
##ᅦ
##ᅧ
##ᅨ
##ᅩ
##ᅪ
##ᅬ
##ᅭ
##ᅮ
##ᅯ
##ᅱ
##ᅲ
##ᅳ
##ᅴ
##ᅵ
##ᆨ
##ᆫ
##ᆯ
##ᆷ
##ᆸ
##ᆺ
##ᆼ
##ᚠ
##ᚢ
##ᚦ
##ᚱ
##ᚴ
##ᚾ
##ᛁ
##ᛅ
##ᛋ
##ᛏ
##ᛚ
##᛫
##᛬
##‌
##‐
##‑
##–
##—
##‘
##’
##“
##”
##„
##†
##•
##…
##‰
##′
##″
##€
##№
##ℵ
##→
##∈
##−
##√
##∞
##≈
##≤
##≥
##⋅
##─
##│
##└
##├
##★
##☉
##♭
##⟨
##⟩
##い
##か
##き
##し
##と
##の
##ん
##ア
##イ
##ウ
##カ
##キ
##ク
##コ
##シ
##ス
##タ
##ッ
##テ
##ト
##ハ
##ヒ
##フ
##ホ
##マ
##ラ
##リ
##ル
##レ
##ロ
##ン
##・
##ー
##一
##丁
##七
##万
##三
##上
##下
##东
##两
##中
##丰
##临
##义
##之
##乌
##乐
##九
##乡
##二
##云
##五
##井
##亚
##京
##亭
##人
##什
##仁
##仓
##仙
##伊
##会
##佛
##依
##保
##信
##候
##元
##光
##克
##八
##公
##六
##兰
##关
##兴
##内
##军
##农
##凤
##刘
##则
##利
##前
##力
##加
##勒
##包
##化
##北
##区
##十
##千
##华
##南
##博
##卡
##厂
##原
##县
##双
##口
##古
##台
##号
##司
##合
##吉
##同
##后
##吐
##向
##吴
##周
##咀
##和
##哈
##唐
##喀
##嘉
##嘎
##四
##回
##团
##园
##国
##图
##國
##土
##圩
##地
##场
##坊
##坑
##坝
##坡
##坪
##城
##埠
##基
##堂
##堆
##堡
##塔
##塘
##墩
##夏
##外
##多
##大
##天
##太
##头
##如
##子
##孔
##字
##孙
##孜
##学
##宁
##安
##宋
##宗
##官
##定
##宝
##宫
##家
##富
##寨
##寺
##寿
##小
##尔
##尖
##尼
##尾
##屯
##山
##屿
##岔
##岗
##岛
##岩
##岭
##峡
##峰
##島
##川
##州
##工
##巴
##市
##布
##帝
##常
##干
##平
##年
##广
##庄
##庆
##库
##底
##店
##庙
##康
##建
##式
##张
##当
##彝
##彦
##徐
##德
##心
##成
##房
##所
##扎
##托
##拉
##排
##敖
##文
##斯
##新
##方
##族
##旗
##日
##昌
##明
##星
##春
##普
##景
##曲
##曹
##月
##朗
##望
##朝
##木
##本
##朱
##机
##李
##村
##杜
##来
##杨
##東
##松
##板
##林
##果
##柏
##查
##柳
##树
##株
##根
##格
##桂
##桃
##桑
##桥
##梁
##梅
##楼
##横
##正
##武
##毛
##民
##水
##永
##汉
##江
##池
##汤
##沙
##沟
##河
##治
##泉
##法
##泡
##波
##泰
##洋
##洛
##洞
##津
##洪
##洲
##流
##浦
##浪
##海
##清
##渡
##温
##港
##湖
##湾
##源
##溪
##满
##滩
##潭
##灣
##火
##灵
##热
##牛
##特
##玉
##王
##玛
##珠
##琼
##瑶
##瓦
##甘
##生
##田
##甲
##界
##白
##百
##皇
##盖
##盘
##盛
##石
##矿
##社
##神
##福
##秀
##科
##窝
##立
##站
##章
##竹
##米
##紫
##红
##纳
##结
##罗
##羊
##美
##群
##老
##联
##胜
##胡
##自
##良
##色
##芦
##花
##苏
##苗
##英
##茶
##草
##荣
##莫
##莲
##营
##萨
##董
##蒲
##藏
##虎
##街
##西
##观
##角
##谷
##贡
##赛
##赤
##赵
##路
##车
##辛
##边
##达
##连
##通
##道
##那
##郊
##郎
##部
##郭
##都
##里
##野
##金
##钦
##铁
##铜
##铺
##错
##镇
##长
##门
##阳
##阿
##陈
##院
##陵
##隆
##雄
##雅
##集
##雪
##青
##面
##音
##顶
##顺
##风
##香
##马
##高
##鱼
##鲁
##鸡
##鹤
##鹿
##麦
##麻
##黄
##黑
##龙
##en
##ar
##er
##an
##st
##et
##or
##in
##at
##om
##de
##li
##ra
##ch
##ed
##al
##den
##il
##och
##av
##sk
##un
##on
##ing
##la
##kt
##re
##am
##med
##and
##ste
##va
##sta
##it
##lig
##del
##for
##ord
##em
##el
##som
##eter
##ur
##der
##og
##per
##art
##Den
##ol
##att
##ig
##ov
##var
##na
##be
##man
##da
##sn
##erb
##ck
##kten
##ri
##land
##ederb
##ederbord
##pa
##ill
##ma
##ingar
##19
##ut
##gen
##are
##sa
##ska
##ud
##itt
##ot
##me
##hu
##tem
##ger
##inn
##meter
##tra
##ran
##is
##es
##unt
##till
##atur
##pp
##us
##mm
##ber
##ett
##temper
##medel
##ga
##id
##aturen
##aden
##all
##temperaturen
##medeltemperaturen
##vud
##huvud
##manaden
##ter
##km
##snitt
##of
##omsnitt
##nederbord
##under
##det
##ost
##fe
##ade
##ari
##over
##ligger
##sla
##od
##In
##ion
##Ar
##as
##van
##finn
##ilj
##trakten
##finns
##ning
##pr
##ue
##rev
##reg
##sam
##le
##sy
##kil
##amilj
##ometer
##kilometer
##familj
##ad
##Li
##slakt
##runt
##familjen
##br
##vast
##jan
##hav
##ta
##arter
##ul
##skrev
##op
##alla
##maste
##ia
##sp
##nar
##slaktet
##sen
##fol
##delen
##atal
##skrevs
##se
##uari
##iv
##beskrevs
##tor
##underarter
##han
##lista
##mat
##atalog
##Life
##Catalog
##Catalogue
##Inga
##des
##listade
##havet
##rat
##ik
##staden
##har
##ell
##landet
##20
##iga
##kalla
##um
##huvudstaden
##kom
##te
##stor
##os
##het
##mar
##ang
##illi
##ju
##invan
##vad
##invanare
##ak
##regn
##men
##Gen
##Ars
##Arsmedeltemperaturen
##varmaste
##kallaste
##18
##kvad
##kvadrat
##igaste
##ic
##kvadratkilometer
##ust
##genomsnitt
##milli
##torra
##millimeter
##vax
##ag
##arsn
##Genomsnitt
##torraste
##Genomsnittlig
##arsnederbord
##regnigaste
##kan
##folk
##ver
##limat
##syd
##ock
##januari
##ug
##upp
##nord
##ens
##sak
##pl
##vid
##ok
##isk
##fl
##fran
##befolk
##ande
##Det
##juli
##iska
##hog
##ent
##ningar
##ser
##ro
##ist
##ka
##ovin
##komm
##Tra
##bor
##tal
##son
##huvudsak
##heten
##ha
##fter
##opp
##ann
##Trakten
##nor
##ien
##rangen
##hall
##rader
##yg
##provin
##sl
##ember
##pun
##ort
##berg
##sj
##gr
##narheten
##gan
##provinsen
##so
##ugust
##klimat
##ir
##hogsta
##eller
##ac
##St
##kon
##ick
##Runt
##he
##giv
##august
##augusti
##An
##sv
##min
##200
##Ter
##befolkat
##punkten
##Han
##ionen
##sin
##ram
##kommun
##jar
##sig
##ningarna
##amn
##si
##und
##ant
##lag
##Terrangen
##ung
##kr
##sart
##ala
##yt
##ub
##ab
##mark
##dar
##Ch
##givningarna
##bar
##vatt
##dra
##yr
##lar
##00
##oli
##oster
##bet
##gar
##sydost
##ft
##star
##ster
##talet
##tva
##ob
##uk
##rik
##samhall
##skog
##Al
##gra
##ation
##ana
##skap
##hi
##era
##oc
##efter
##Nar
##red
##gl
##erna
##lev
##eg
##tid
##ex
##yck
##nordvast
##ling
##vaster
##mot
##vaxt
##febr
##februari
##cen
##somra
##bland
##uni
##ea
##ligen
##201
##storre
##ott
##norr
##nordost
##vatten
##ats
##ne
##ades
##rikt
##uper
##ida
##forst
##hor
##dec
##199
##soder
##aven
##blev
##sydvast
##far
##ier
##tr
##ligt
##tat
##ba
##juni
##str
##ina
##).
##hade
##hon
##Lak
##namn
##dre
##gi
##ningen
##december
##oll
##yn
##inte
##ten
##je
##spel
##En
##andra
##fram
##drag
##centra
##De
##kuper
##verk
##Lake
##kuperad
##liga
##".
##ds
##ou
##par
##di
##samhalle
##iskt
##ganska
##vil
##Narmaste
##uh
##val
##satt
##ek
##mo
##vi
##sep
##fod
##ygg
##oppen
##yl
##198
##centrala
##ans
##uc
##arna
##bestar
##ater
##197
##gles
##io
##17
##bil
##lang
##ap
##nara
##glesbefolkat
##im
##wa
##las
##omgivningarna
##jor
##Toppen
##vaxer
##ry
##ge
##alt
##led
##ober
##slut
##nov
##fa
##stat
##tember
##jande
##september
##smark
##Kuh
##fick
##196
##Un
##regionen
##onen
##Le
##vattendrag
##fodd
##amp
##mer
##",
##sven
##platt
##Jo
##aren
##bo
##november
##lad
##omra
##ingen
##ve
##lan
##her
##okt
##ata
##ara
##stra
##sjo
##mars
##hol
##foljande
##Om
##forsta
##bruk
##fjar
##ong
##genom
##edan
##tatbefolkat
##ket
##ella
##mindre
##For
##alb
##hem
##res
##mal
##ja
##spe
##ti
##sitt
##huvudsakligen
##Fran
##gor
##vaxtart
##),
##Ma
##vis
##verig
##Pa
##fta
##oktober
##Me
##ycket
##Sverig
##jord
##ind
##ets
##ukt
##stad
##samt
##stall
##igt
##195
##fors
##bygg
##ulle
##La
##ny
##lat
##ard
##maj
##rinn
##hus
##bas
##ers
##arbet
##bi
##fjaril
##tv
##Ne
##plat
##193
##ellan
##15
##16
##ci
##fatt
##mycket
##ho
##kor
##ingsomra
##194
##rinningsomra
##part
##erade
##kring
##syfta
##ement
##ie
##ty
##sklimat
##mus
##up
##kar
##vaxter
##befolkad
##tt
##ali
##Mo
##kl
##ron
##co
##skri
##storsta
##apr
##holm
##arl
##dod
##jur
##vand
##ocksa
##ce
##nog
##riktning
##odra
##bli
##etta
##idae
##april
##Mar
##Tr
##ven
##fil
##obefolkad
##Be
##ys
##nu
##rak
##yd
##tog
##mellan
##vande
##inge
##ner
##omradet
##Sa
##by
##hal
##Omgivningarna
##kall
##Br
##ca
##Sverige
##bl
##lade
##vilket
##omm
##samman
##Par
##jordbruk
##sedan
##192
##zonen
##kommunen
##bore
##lit
##pre
##mon
##190
##staten
##sydostra
##platser
##ken
##boreala
##klimatzonen
##don
##Nor
##fore
##dom
##ow
##ich
##nas
##ementet
##anada
##fjarilsart
##bred
##landskap
##inne
##Ot
##ke
##omkring
##ratt
##gs
##ff
##Sp
##san
##yp
##kra
##hand
##avann
##Kanada
##annat
##tvav
##iet
##Re
##lien
##dr
##hans
##ars
##opiskt
##int
##Bo
##ip
##veck
##delstaten
##sten
##ye
##jordbruksmark
##kyr
##Stock
##sodra
##lis
##stek
##Hon
##norra
##ica
##erat
##El
##Sch
##tvavinge
##tvavingeart
##Under
##ula
##ris
##ola
##lighet
##Lac
##Stockholm
##10
##svensk
##Bra
##tre
##tawa
##Ottawa
##ogra
##kun
##fin
##lia
##ine
##ton
##nings
##nes
##els
##Ett
##Ber
##che
##Ba
##Gu
##djur
##fi
##hel
##samma
##Art
##ym
##San
##inom
##band
##ya
##bu
##amer
##avrinningsomra
##189
##Pr
##qu
##Te
##rad
##Cre
##hen
##ensis
##Va
##mi
##rist
##kv
##ban
##bredning
##oph
##tur
##14
##form
##Col
##..
##gjor
##anska
##ende
##samling
##tag
##anvand
##ns
##ull
##gang
##Bar
##vara
##ytt
##skol
##prod
##dess
##utan
##Cer
##ess
##ostra
##akt
##igare
##skulle
##Fin
##fri
##bel
##eri
##("
##mann
##lo
##itet
##Efter
##liv
##hj
##dist
##gall
##lik
##")
##vastra
##givande
##somrade
##eae
##sar
##stand
##13
##Creek
##oken
##do
##pel
##olog
##Klimat
##Sk
##oppet
##lam
##fort
##Ha
##sekt
##Bred
##flera
##slag
##kommer
##cker
##basen
##ork
##bra
##omgivande
##Se
##rom
##ian
##iss
##ct
##grund
##Ge
##varl
##ings
##terrangen
##gick
##eng
##lin
##utbredning
##lov
##vag
##ora
##12
##Bredden
##ele
##ura
##ena
##enligt
##senare
##ansk
##sina
##hemi
##lem
##Or
##natur
##olika
##lands
##ide
##utveck
##hemiboreala
##188
##nag
##sjon
##Co
##ph
##The
##inga
##bergig
##nad
##trad
##olit
##kand
##agg
##Man
##Stor
##dock
##Mon
##vaxtlighet
##fall
##vit
##forb
##ham
##alen
##Ko
##rid
##gav
##fot
##amerik
##ote
##ben
##insekt
##stan
##Artens
##He
##nation
##utbredningsomrade
##detta
##Tropiskt
##ogram
##net
##ss
##blandskog
##minist
##lades
##Ta
##Her
##arta
##ins
##tidigare
##tar
##kop
##Medel
##gjorde
##iker
##jarn
##flug
##rike
##skalb
##person
##inter
##Cerro
##ommun
##Per
##iz
##heter
##konom
##sammans
##konst
##depart
##hn
##186
##Klimatet
##flugor
##oma
##Que
##New
##187
##svenska
##distrikt
##gran
##Mount
##jon
##aria
##So
##pub
##ile
##tillhor
##Av
##histor
##sson
##spr
##strom
##alv
##lite
##Ut
##borj
##Finland
##Savann
##rich
##Savannklimat
##ator
##antalet
##ru
##departementet
##off
##ark
##exem
##Are
##rit
##est
##blad
##dag
##pen
##plan
##cia
##ekonom
##Ka
##sch
##cer
##gu
##ium
##ofta
##nade
##oss
##innan
##Har
##sland
##Ph
##smarker
##bur
##grasmarker
##pt
##ppklimat
##ivers
##busk
##ustra
##plats
##Ro
##Ca
##kallt
##skalbagg
##skalbaggsart
##ror
##stod
##insektsart
##ren
##yc
##stu
##yra
##fisk
##iva
##Hen
##sal
##dem
##bilda
##grupp
##Frank
##skil
##borg
##manga
##SA
##Da
##pra
##vill
##Arten
##erar
##ius
##kraft
##fra
##bia
##tillsammans
##arten
##mor
##ity
##ep
##Ra
##000
##Hels
##gallande
##Vid
##Jak
##Brasi
##Arean
##11
##nat
##Helsing
##indel
##Mal
##stappklimat
##met
##rig
##ota
##denna
##skar
##forsamling
##von
##enda
##siska
##slakte
##busklandskap
##album
##ko
##ish
##Carl
##musik
##stora
##Ad
##dens
##po
##borjade
##Th
##kant
##publi
##dels
##utom
##gron
##bild
##riks
##ila
##ler
##Mex
##kat
##Del
##flyg
##sydlig
##oi
##exempel
##unda
##polit
##Dar
##kulle
##Antalet
##dal
##za
##eln
##spelare
##sma
##ira
##30
##vet
##Austra
##On
##sason
##hoj
##Eur
##ioner
##Gun
##Nord
##sydvastra
##natt
##Mor
##au
##ey
##svar
##vastlig
##vin
##Gr
##sock
##du
##nordostra
##to
##ander
##okenklimat
##ops
##stam
##proc
##th
##II
##185
##esien
##orn
##produc
##landsklimat
##sti
##rel
##else
##USA
##bara
##peri
##Bu
##stads
##stracker
##Iran
##lovskog
##eder
##vann
##tav
##Sam
##ani
##eh
##egen
##elart
##Johan
##namnet
##Indon
##vat
##ivis
##hov
##Indonesien
##if
##allt
##kn
##go
##laget
##foret
##sprak
##samhallen
##sjalv
##kul
##bb
##sub
##Helsingfors
##unn
##cher
##derna
##barn
##illa
##ama
##ts
##Karl
##klas
##Jakarta
##Ja
##steklar
##fann
##heran
##Frankrike
##rek
##ii
##ellt
##Teheran
##stekelart
##rum
##ald
##organ
##bak
##atus
##Hi
##ite
##Con
##dessa
##kort
##ux
##krig
##hos
##ots
##org
##area
##nordvastra
##ske
##we
##Kommun
##Sc
##Hans
##persiska
##nya
##lor
##cir
##medlem
##boll
##Kar
##ava
##Ste
##folj
##sid
##mosa
##spelade
##ekonomiska
##bin
##milj
##Medelhav
##vik
##ovr
##djursart
##forfatt
##ua
##con
##film
##Am
##sju
##25
##utveckling
##Medelhavsklimat
##verksam
##dae
##John
##fem
##Car
##yll
##lex
##Bi
##erades
##fyra
##ico
##Ol
##ckt
##varit
##ministrat
##Inlandsklimat
##jo
##Je
##una
##ografi
##Pol
##Ed
##honom
##flytt
##mest
##ale
##ski
##Kon
##sol
##Rio
##gam
##osa
##egor
##naturlig
##tot
##foren
##Sven
##Ty
##otter
##erad
##borjan
##rekt
##rukt
##sprung
##stats
##tan
##tempererat
##rinningsomradet
##Avrinningsomradet
##pe
##avrinningsomrade
##Klad
##sex
##les
##Na
##Lag
##ktar
##kunde
##pas
##dare
##blir
##2000
##sun
##ker
##tes
##mosaik
##Kladogram
##fer
##flo
##lj
##vo
##stadse
##stadsegron
##hela
##syste
##tran
##but
##roll
##hett
##period
##port
##Lon
##sc
##esh
##ice
##Di
##infor
##Cor
##fanns
##distriktet
##184
##syn
##prof
##aceae
##2010
##hur
##Ser
##fast
##dent
##kvinn
##Australien
##savann
##nagra
##stud
##univers
##landskapet
##ly
##alp
##Kommunen
##dern
##lingar
##dig
##skade
##Char
##Upp
##andet
##anda
##Detta
##ions
##presen
##Eng
##Pe
##count
##vikt
##ceae
##Hav
##sm
##uli
##gul
##socken
##bade
##ita
##opa
##Gunung
##kter
##eta
##kol
##ursprung
##pri
##Kina
##sh
##bok
##elsen
##Sjon
##ona
##Hu
##ova
##len
##Med
##Sant
##the
##gangen
##igen
##Oster
##bergs
##Tor
##brit
##monsun
##tiden
##rar
##monsunklimat
##ons
##innebar
##cirka
##Gote
##bro
##omfatt
##organis
##Chile
##Po
##one
##24
##erande
##ole
##kin
##ymp
##visa
##mang
##Som
##delar
##orter
##Ac
##ned
##amerikansk
##Befolk
##dor
##britann
##Cha
##klub
##divis
##olf
##itar
##Storbritann
##eras
##bla
##gift
##spindel
##atan
##Till
##ope
##orkide
##ji
##ition
##slapp
##TV
##unds
##ley
##Var
##ass
##regnskog
##byg
##foretag
##iken
##skolan
##Wal
##Gra
##svamp
##kategor
##sna
##ationer
##back
##Ver
##2006
##holl
##lu
##spar
##skapet
##amot
##anien
##Wil
##Willi
##gent
##anvands
##rag
##komp
##grav
##byggna
##lagen
##ros
##Alger
##Reg
##forekommer
##50
##studer
##sag
##ministrativ
##ox
##Syd
##meh
##fun
##reger
##ili
##cent
##pla
##burg
##klar
##Ind
##Dan
##hamn
##2008
##Sy
##procent
##regnskogsklimat
##riar
##norrut
##Storbritannien
##ring
##istan
##countyt
##skland
##fordes
##London
##landsk
##City
##nagon
##Ru
##deras
##soderut
##tjan
##2007
##fag
##orna
##profess
##Mad
##hennes
##ampar
##jer
##Bro
##Er
##eli
##gens
##Fri
##Su
##chef
##pat
##enskap
##atta
##Mel
##slutet
##sang
##21
##nagot
##mare
##Histor
##antal
##Chesh
##lok
##kvar
##%.
##UC
##Cheshmeh
##ive
##lagg
##universitet
##bec
##pop
##engel
##omy
##ith
##unge
##ash
##moj
##fotboll
##utgor
##Fred
##ruktbar
##hot
##ene
##dri
##forsk
##Jam
##tidigt
##2009
##lav
##26
##Ex
##23
##gas
##ofruktbar
##cus
##Af
##iko
##yo
##28
##fekt
##William
##Ga
##Des
##Ny
##sok
##medan
##iver
##Hol
##langd
##hy
##27
##kyrkan
##IUC
##IUCN
##Bur
##endast
##Tan
##fal
##Provin
##cis
##hjart
##oner
##sad
##2011
##Ham
##hl
##Pal
##sty
##full
##ze
##ern
##darefter
##Si
##We
##aldre
##stort
##seud
##sasongen
##kel
##kantonen
##huset
##muse
##totalt
##direkt
##tit
##varande
##dotter
##Ab
##ationen
##teck
##serien
##Mus
##nen
##Brasilien
##adi
##osterut
##gren
##ori
##vasterut
##vs
##Qu
##fortsatt
##grunda
##As
##varier
##produkt
##ika
##ont
##tex
##2005
##Enligt
##22
##tropiskt
##Lu
##Lin
##Quebec
##sing
##ps
##bety
##Ho
##mitt
##fte
##kte
##SM
##avrinningsomradet
##lt
##At
##ment
##oper
##hektar
##eld
##Ons
##prakt
##framst
##sommar
##uth
##Tyskland
##kung
##igh
##Ben
##svampar
##2016
##Havet
##ighet
##lek
##alli
##delas
##myr
##ore
##kategoris
##Ti
##2004
##ate
##oni
##gel
##Fil
##hr
##183
##29
##ef
##1990
##represen
##ane
##kam
##Mari
##uss
##start
##iat
##Kab
##inat
##mmer
##Mag
##Sar
##ret
##personer
##ric
##onia
##Bor
##sista
##2012
##gruppen
##mask
##elser
##via
##borgs
##its
##Gar
##allet
##our
##1980
##Mexiko
##Sveriges
##Christ
##bon
##skrig
##amen
##upper
##delstats
##eck
##forande
##cha
##fler
##gener
##fan
##ille
##Colom
##mas
##kategoriserar
##lack
##gard
##region
##gre
##ligare
##jen
##slutade
##Fa
##Kung
##skola
##Vi
##kap
##vig
##delstatshuvudstaden
##rop
##rot
##fukt
##britt
##Val
##Ander
##Mac
##1970
##ropp
##2014
##ovrigt
##tillverk
##ledde
##kallas
##bladig
##deltog
##vers
##vilken
##England
##Men
##chen
##Spanien
##jekt
##ghan
##kyrka
##skra
##ister
##sidan
##pol
##iner
##stit
##Koh
##fang
##eftersom
##samband
##af
##Fl
##Saint
##spekt
##tyska
##divisionen
##Dom
##Sal
##hop
##jam
##ivt
##bert
##ford
##varld
##ument
##40
##redje
##Peter
##ici
##spelar
##tackt
##Norra
##aldr
##1960
##ville
##administrativ
##esiska
##haller
##bran
##styr
##opsis
##ernas
##rond
##ure
##bildades
##2015
##fjarilar
##Ag
##soci
##bat
##Stockholms
##arbete
##mannisk
##spindelart
##glob
##brott
##Mart
##ordning
##Em
##ain
##ni
##jung
##god
##kur
##mast
##que
##ec
##flyn
##redan
##mesta
##anvan
##Dist
##nis
##horningar
##Jon
##nattflyn
##sked
##rod
##Sh
##spind
##Kal
##ologi
##ult
##hang
##avvatt
##debut
##asit
##gem
##lingen
##Paul
##Gran
##Tur
##kvinnor
##fle
##matare
##Fol
##forfattare
##rott
##filmen
##ino
##fik
##Svenska
##2013
##dena
##opter
##Island
##barr
##popul
##2002
##fart
##ario
##bada
##ytan
##rost
##spindlar
##aret
##sil
##innare
##ytter
##fred
##pan
##kron
##Vast
##sning
##idag
##Hal
##Kust
##cy
##forde
##ini
##vagen
##hjartbladig
##skyd
##Lou
##sjuk
##tredje
##mak
##milit
##AB
##periodiskt
##Afghan
##Alex
##bag
##Brasilia
##allman
##list
##Norr
##no
##Go
##stroms
##Ita
##stri
##2018
##old
##zi
##reproduc
##blomm
##lyck
##ering
##2003
##1999
##svampart
##Can
##cho
##Afghanistan
##Ri
##vars
##Rom
##skapa
##Dav
##gora
##parasit
##amerikanska
##mos
##stift
##ledamot
##sarskil
##Pi
##vissa
##falt
##Befolknings
##istallet
##mis
##Kr
##dy
##Befolkningsutveckling
##hora
##rondiss
##sat
##Pas
##bal
##gj
##omas
##60
##troll
##vattnet
##skriget
##flod
##undet
##helt
##fuktigt
##aver
##Geor
##tysk
##ema
##Inter
##subtropiskt
##Rab
##arrondiss
##Mexico
##byggdes
##pal
##kallad
##Region
##okrat
##esi
##kallar
##forn
##myn
##Mer
##Van
##sala
##num
##barrskog
##dam
##krit
##gamla
##Ost
##mmet
##riket
##svart
##ganger
##emi
##omrade
##Goteborg
##lever
##dis
##Kabul
##Com
##ors
##reproducerande
##sags
##ress
##olymp
##arkite
##otten
##Kustklimat
##kultur
##Indien
##arrondissementet
##koping
##bit
##varje
##180
##1900
##ordforande
##Europa
##orten
##Bel
##وه
##omyia
##karriar
##guver
##Is
##100
##slaget
##ordningen
##lander
##darfor
##avax
##atten
##kyrk
##Colum
##Sm
##Aven
##Cal
##Air
##sluttar
##nytt
##tillbak
##VM
##Provincia
##Mc
##mestadels
##iro
##los
##Danmark
##tro
##Las
##Mich
##saker
##beskri
##helm
##hojden
##Ju
##uren
##program
##Bog
##arbetade
##2001
##guld
##kare
##sand
##65
##vard
##Min
##Uppsala
##icus
##Land
##blom
##internation
##Paris
##unta
##Brit
##blivit
##2017
##framgang
##gt
##Hy
##flyttade
##Pri
##Koud
##ogon
##system
##republi
##Ont
##Bul
##kanda
##vidare
##globalt
##ria
##aten
##tu
##Denna
##70
##80
##gras
##ersatt
##ack
##stallning
##jarvi
##kinesiska
##vilka
##Colombia
##Ten
##reser
##kropp
##Ap
##nande
##1998
##Bay
##Biografi
##George
##strukt
##spinnare
##Pseud
##Soder
##mag
##ytor
##hjalp
##Erik
##Ontario
##kallade
##stitut
##langhorningar
##hitt
##medlemmar
##ogs
##fon
##vux
##pris
##radet
##jet
##tekn
##Mic
##skrift
##Sta
##Pet
##savannskog
##vel
##1971
##tryck
##nam
##national
##oga
##speci
##edon
##ras
##mt
##staende
##Mat
##annan
##Loma
##Maria
##Krist
##HI
##Tri
##yta
##konstnar
##Lo
##zz
##engelska
##Sedan
##utanfor
##bid
##litter
##Tim
##grev
##utbild
##historia
##Mountain
##Kat
##skon
##Mas
##oides
##Los
##vare
##spelen
##%,
##Met
##1992
##York
##uch
##eur
##lac
##Mot
##ockey
##iden
##Rober
##trakt
##ograf
##por
##dagen
##All
##Sten
##64
##1994
##bock
##ungefar
##Madrid
##River
##ktis
##ix
##bandet
##British
##Herc
##sas
##uta
##varlden
##Nu
##My
##delse
##stil
##31
##Jar
##Ul
##gavs
##Sol
##Do
##1950
##ocko
##Ou
##slott
##orts
##strand
##tri
##varierad
##Tid
##makt
##verksamhet
##brada
##tillbaka
##bad
##sade
##Georg
##can
##avar
##Sim
##aler
##Columbia
##Dra
##tus
##osten
##terade
##master
##studerade
##uppstroms
##stritar
##%).
##Ger
##oversatt
##Jean
##iago
##ljus
##Tall
##Nation
##vetenskap
##itz
##ank
##ides
##Quebrada
##provins
##spor
##brev
##dat
##vent
##1996
##terna
##Hel
##osit
##franska
##alj
##halv
##arnas
##SMHI
##styrel
##Jawa
##Santiago
##yggor
##Bland
##Marocko
##IF
##professor
##Bon
##jarnen
##fli
##stopp
##vald
##Louis
##delavrinningsomrade
##hojd
##bed
##varlds
##Pro
##oren
##Don
##Delavrinningsomrade
##onom
##tvahjartbladig
##Far
##fo
##landska
##staf
##1995
##uel
##beratt
##vattenytor
##1991
##motor
##arab
##Italien
##Rabat
##naden
##oth
##Res
##Lind
##sjoprocent
##vart
##til
##Bosn
##byggnad
##Sodra
##henne
##forsok
##ges
##verkade
##dagar
##udde
##resul
##Dal
##emot
##Punta
##kunna
##pass
##aris
##Medelhojden
##1997
##elli
##Bre
##get
##ward
##1993
##fab
##adem
##formen
##bror
##ki
##Eu
##Bosnien
##mannen
##Andre
##Count
##slapptes
##basta
##demokrat
##Pre
##skan
##saga
##90
##forhall
##ytterligare
##last
##varg
##albumet
##ovina
##hin
##nuvarande
##jud
##Sen
##Cen
##ood
##ryska
##skatt
##amnet
##hund
##South
##poli
##lub
##."
##orth
##framfor
##sida
##presi
##Herceg
##skraft
##ero
##mac
##tol
##roman
##1930
##mel
##nom
##pro
##Wa
##tjanst
##Ke
##itali
##Historia
##Argent
##kriget
##miljoner
##minister
##das
##Du
##ustri
##garden
##Jab
##ism
##tradde
##Bou
##fiskart
##vapen
##Bak
##chi
##skt
##flesta
##hopp
##com
##OS
##farande
##Mi
##studier
##Jac
##bort
##Lang
##Hercegovina
##Hill
##Nil
##1988
##Lund
##jorn
##Berg
##serie
##Univers
##ovan
##Gust
##Santa
##Ant
##2019
##forma
##fr
##punkt
##mastare
##bart
##1920
##Fer
##latt
##Bogota
##lut
##Kyr
##Dessa
##gatan
##amar
##1800
##togs
##کوه
##ilus
##Charles
##Camp
##orkideer
##sall
##kraftdjursart
##handel
##isse
##olympiska
##osof
##Ur
##urt
##radi
##ibland
##arkitekt
##hast
##upptackt
##Ken
##behand
##iteten
##iaceae
##alet
##Wilhelm
##Sha
##bos
##Nag
##Bat
##cka
##Ain
##Argentina
##got
##Norge
##visar
##typ
##Mun
##halla
##Gustav
##sport
##loss
##flyt
##biflo
##provinshuvudstaden
##Malmo
##lamnade
##Op
##ider
##sel
##Pan
##iti
##1989
##odes
##lika
##Distri
##Eli
##nast
##1940
##sens
##Desa
##bergstopp
##Ep
##myggor
##Algeriet
##lant
##oj
##Robert
##1974
##loppet
##Vaster
##sman
##Fried
##skall
##rang
##jap
##Sara
##igheter
##darmed
##fortfarande
##batt
##innehaller
##1952
##1987
##Lan
##republiken
##mera
##weiz
##Lud
##August
##ney
##unga
##wan
##Gam
##langre
##varldskriget
##1984
##laten
##Bir
##klubben
##fly
##fartyg
##1986
##Pen
##varav
##stol
##reh
##ks
##ast
##County
##matcher
##teater
##oul
##brok
##orkideart
##sarskilt
##station
##Kan
##nig
##grupper
##Gre
##oblem
##su
##Il
##skal
##ulus
##lic
##flodar
##bestam
##utgiv
##avvattnar
##zo
##Ku
##dju
##nades
##dub
##model
##bus
##ovjet
##filosof
##anth
##dan
##Hall
##ped
##Ak
##serv
##Sav
##District
##jas
##ito
##anus
##skadespelare
##").
##Che
##uer
##desordning
##biflodesordning
##rov
##bod
##Dag
##anvandes
##praktfjarilar
##intres
##fen
##museum
##slandor
##mande
##1979
##kande
##sokte
##zar
##alder
##politiker
##grundades
##poang
##ulata
##premi
##Es
##forbunds
##materi
##1968
##use
##parti
##1985
##partiet
##omraden
##skiv
##1972
##fest
##open
##klassen
##Delhi
##Kh
##Jabal
##Friedrich
##1982
##forbundet
##Gi
##Sand
##nan
##yer
##ump
##ome
##179
##garna
##inna
##spelades
##idi
##Josep
##vol
##Alexander
##gjordes
##1983
##livskraft
##Thomas
##aldrig
##Vic
##platsen
##Rich
##stjar
##"),
##Ram
##ledare
##Lars
##samtidigt
##ente
##bildade
##mord
##stes
##Vis
##Gl
##vari
##inus
##1976
##kust
##Tam
##Park
##Osterrike
##War
##Bl
##oa
##ogen
##1962
##Bal
##vingar
##1981
##Nya
##Mont
##skul
##kal
##Joseph
##Gustaf
##Arro
##idrott
##Pra
##emat
##Jose
##umet
##oba
##ej
##West
##uri
##verket
##war
##anstall
##inkl
##Mu
##ansvar
##gjort
##Ai
##motsvar
##problem
##skick
##nus
##1967
##Berlin
##ktor
##uppdrag
##mana
##dvarg
##Plat
##bolaget
##aka
##Kn
##belagen
##forsvar
##Ni
##car
##funkt
##Rys
##stel
##Hand
##livskraftig
##varmt
##1973
##horn
##bud
##placer
##parasitsteklar
##David
##forening
##otek
##brokparasitsteklar
##fotbolls
##kas
##1977
##eus
##president
##Dess
##Got
##Wien
##Fi
##Brook
##inia
##mand
##1969
##uck
##Stra
##seende
##komma
##1964
##lopp
##boken
##Eg
##korea
##uts
##1978
##farg
##kla
##uti
##Rud
##stav
##ute
##Henry
##1975
##ledning
##klass
##ophila
##Leon
##jag
##skilj
##huvudort
##lans
##forlor
##sasom
##offici
##skill
##aktiv
##haft
##italien
##Kor
##Francis
##snabb
##not
##elekt
##gifte
##delades
##fagel
##hard
##Band
##unden
##egna
##isseau
##Port
##manniskor
##armen
##Airport
##Rad
##1965
##bul
##rade
##ano
##Lapp
##numera
##bolag
##Ruisseau
##oarna
##tack
##takt
##projekt
##bot
##sav
##Cy
##Pat
##kara
##chus
##fortsatte
##1910
##alis
##tax
##Bas
##rakt
##byn
##Por
##langt
##als
##Sj
##progra
##js
##spela
##1945
##vuxna
##cu
##Jan
##Dam
##exempelvis
##Underarter
##col
##elle
##minst
##riksdelen
##enos
##Ghar
##Tet
##silver
##Tre
##Amer
##trots
##lipp
##gla
##fic
##Skan
##pet
##sim
##premiar
##dok
##Hor
##skott
##sym
##Rh
##ugh
##indiv
##ursprungligen
##inska
##liknande
##35
##Filmen
##ral
##mitten
##atte
##Az
##James
##Hyp
##stero
##cens
##slande
##Anton
##Dje
##risk
##1939
##1912
##own
##industri
##rus
##langa
##prov
##kamp
##eget
##kval
##stallet
##kopp
##liten
##anden
##kran
##bebygg
##Fal
##uppgick
##Gron
##1966
##nads
##nastan
##Mil
##Buk
##olia
##odi
##178
##tio
##konser
##somradet
##forklar
##Fre
##arabiska
##visade
##Kir
##uba
##Barn
##inen
##rack
##fj
##1914
##harad
##cm
##Ox
##Cla
##Hem
##perio
##Ir
##modern
##Martin
##sjal
##oende
##flock
##rym
##75
##Bag
##Cap
##uter
##Cat
##ony
##stru
##vas
##dade
##Djebel
##pade
##brack
##Grek
##spelet
##1938
##slandeart
##artvaxter
##etter
##lus
##brun
##Sil
##fora
##skold
##ovriga
##sled
##general
##politiska
##pes
##rika
##Eup
##Hog
##igur
##byt
##relig
##bocker
##guvern
##dog
##resultat
##bord
##lanet
##atet
##ei
##istiska
##National
##Smith
##Alb
##HL
##Gor
##scen
##bom
##maskart
##litet
##grek
##zon
##III
##representer
##valt
##forbundslandet
##Gol
##sett
##icola
##Cam
##bol
##opeiska
##bisk
##mes
##Grand
##ague
##stader
##din
##ations
##500
##Schweiz
##Andra
##ses
##betyd
##match
##pap
##lon
##rikes
##Mol
##respekt
##1961
##oftast
##dad
##1913
##1963
##Jap
##vanligt
##makedon
##fiskar
##ht
##beslut
##nummer
##vinter
##vanliga
##Darreh
##kri
##ungdom
##fur
##larare
##Peak
##fragor
##sack
##Vil
##eau
##.,
##uppfordes
##astr
##Ly
##But
##1908
##Za
##stjarn
##let
##stid
##Ve
##Ker
##Cu
##1911
##alle
##serna
##lyckades
##iens
##cerade
##byggnaden
##utstall
##disk
##Ras
##valdes
##Namnet
##finalen
##1941
##Mes
##Laguna
##Stat
##pha
##Anna
##tradition
##2020
##Ze
##ylla
##1936
##medic
##utbildning
##Dor
##hire
##gards
##Ali
##Jer
##gal
##guvernementet
##Gora
##1918
##grad
##fabrik
##xi
##Luc
##klock
##kors
##ologiska
##Sv
##1958
##baggar
##1956
##militar
##arah
##iks
##varandra
##Ryssland
##ange
##prefekt
##odor
##fas
##Fredrik
##tig
##ire
##ppar
##rin
##mans
##jevo
##startade
##Est
##Mur
##ansprak
##beteck
##chy
##tida
##rien
##omat
##artvaxtart
##inner
##Vol
##Sw
##Hein
##1957
##ight
##1917
##Not
##yk
##lakt
##urna
##tillhorde
##roat
##utgav
##etes
##laga
##deltag
##sikt
##starkt
##arean
##kontrakt
##Goteborgs
##Pier
##annu
##1948
##behov
##opus
##sur
##jut
##Kali
##dvargstritar
##paver
##Bern
##landskommun
##Stora
##luft
##Tanjung
##1928
##samlingen
##Ott
##1924
##ige
##1944
##biart
##uppen
##kontroll
##Arroyo
##hogre
##kanal
##Nat
##bast
##artik
##Ore
##ias
##stern
##Christian
##Aires
##vall
##anses
##klubb
##Victor
##skriv
##krets
##lie
##anthus
##Buenos
##Centra
##1959
##Pla
##kontor
##otus
##skepp
##Wh
##ocar
##North
##lingarna
##brittiska
##valet
##uppe
##fron
##centrum
##rys
##ingo
##foretaget
##orsak
##nit
##Bran
##filmer
##Kam
##jeck
##arran
##gifter
##1907
##inal
##unionen
##aknas
##Kol
##1906
##University
##Liban
##45
##vist
##urus
##dokt
##inratt
##grevskapet
##To
##lats
##Tar
##regering
##Lappland
##oka
##kommit
##betydelse
##ulerade
##final
##kopings
##atum
##gern
##ette
##trod
##1926
##yi
##kallades
##Lep
##bjorn
##Ara
##omfattar
##Litt
##League
##1909
##Sab
##Timur
##Staden
##ful
##mens
##Lar
##Shan
##Grekland
##1927
##1933
##1929
##avled
##ild
##sasong
##ffer
##undan
##wig
##handlar
##avsnitt
##1937
##fransk
##liksom
##uz
##Ban
##gransen
##oder
##Antar
##1955
##oden
##stein
##herr
##regeringen
##Lov
##Sarajevo
##1919
##djup
##1932
##Bol
##gaende
##frika
##regi
##Ax
##bracksteklar
##Lam
##hets
##1954
##vitt
##format
##Gud
##1947
##trafik
##funger
##gym
##saari
##dans
##park
##1935
##ati
##lagt
##orl
##1942
##igheten
##kta
##Dani
##unnit
##ener
##medverkade
##1934
##hjal
##1953
##orer
##lop
##titeln
##rock
##spelat
##arie
##Ple
##backen
##rog
##galler
##ingick
##foddes
##psy
##hed
##utnamn
##1925
##banan
##parla
##respektive
##Sel
##sommarspelen
##delade
##nik
##Rod
##1905
##way
##Trich
##ath
##Genom
##1949
##mun
##1921
##formula
##kommen
##Adolf
##formula_
##eland
##flertal
##nadde
##lager
##Anders
##anger
##Marie
##medal
##Micha
##Cas
##dansk
##brons
##reservat
##miss
##Johannes
##1943
##Ron
##1946
##gah
##anvanda
##forskning
##tart
##1951
##invig
##bestod
##latar
##1922
##hou
##mangd
##begrav
##inc
##besok
##pis
##internationella
##Sof
##1916
##177
##former
##Sig
##1915
##Mellan
##samhallet
##sor
##pus
##flygplan
##miljo
##1931
##anvandas
##uppmark
##pi
##kva
##Tom
##landerna
##Befolkningen
##cup
##moss
##skaper
##sekr
##antar
##redakt
##pot
##flockblomm
##ovo
##Boli
##umen
##how
##avaxter
##ado
##tom
##Rap
##Ek
##dari
##innes
##sjalva
##Str
##litteratur
##fjarde
##faglar
##langs
##[[
##ago
##sons
##sjukdom
##cord
##dessutom
##eria
##tera
##sker
##]]
##Agu
##Dyn
##vide
##Aren
##ales
##Edward
##Maur
##systemet
##1923
##grepp
##itu
##enser
##gri
##une
##arbeten
##Bab
##skrifter
##lange
##cht
##ruz
##mu
##ophyll
##cel
##programmet
##material
##Antarktis
##central
##Hennes
##ise
##livet
##version
##fyl
##Cent
##Ped
##ington
##serade
##civ
##Kopen
##arke
##ackum
##organisation
##bibli
##kons
##Lat
##major
##figur
##gemen
##sanger
##ishockey
##Sang
##post
##Red
##Rock
##hidae
##festiv
##log
##ordet
##debuterade
##floden
##sattning
##Wales
##Sydkorea
##vak
##parlament
##Black
##oda
##yan
##yx
##rick
##kommande
##inger
##omen
##Hed
##Seoul
##kandid
##traf
##Vastra
##dia
##avslut
##otta
##Kopenhamn
##Richard
##34
##lip
##wood
##offent
##inci
##1904
##Japan
##Bla
##illo
##dubbel
##unc
##stal
##fus
##ech
##bong
##styck
##soma
##urg
##Fili
##Tab
##avaxtart
##aca
##egent
##urs
##dol
##Aten
##Rob
##tving
##effekt
##institut
##Bill
##sager
##staur
##cc
##byggnader
##Soc
##gru
##Angel
##enn
##Tak
##bana
##lim
##publicer
##fores
##Pot
##fotbollsspelare
##gammal
##icer
##ackumulerade
##jal
##win
##brittisk
##osus
##175
##vaxte
##Dare
##Flor
##lust
##flott
##Kra
##omyc
##Otto
##romer
##bakom
##tavling
##mod
##gitar
##entiteten
##kem
##arbetar
##Alto
##Para
##anvander
##Part
##raknas
##betyder
##erber
##ringar
##Egyp
##sattes
##37
##ال
##Gri
##uella
##examen
##Kap
##uan
##1902
##fraga
##rh
##Walker
##1700
##tion
##ration
##foreningen
##Barat
##skot
##hack
##kes
##dater
##ez
##36
##Bjor
##Cast
##Sund
##FC
##bevar
##moder
##dator
##forbund
##sek
##vap
##mad
##historiska
##turner
##astronom
##omer
##mid
##grasart
##ament
##ved
##Shu
##icol
##Juli
##valde
##topp
##osc
##Kungliga
##ami
##gatt
##komst
##jt
##Kur
##motstand
##Brun
##rollen
##listan
##rapp
##inled
##Kong
##singel
##Ven
##ies
##gon
##pad
##arbetet
##foljd
##Tang
##drott
##Omradet
##ush
##Johann
##riska
##prote
##gy
##linjen
##holls
##traff
##Dol
##Ji
##strack
##Max
##Konst
##satta
##cep
##fel
##IK
##vanligen
##ston
##dit
##hogskolan
##direktor
##Jes
##aldsta
##eth
##fys
##talets
##Nik
##nationella
##Mak
##ademien
##1903
##blod
##aut
##relat
##age
##sjalvstand
##bron
##horde
##raket
##journa
##Fram
##1901
##در
##Att
##ior
##allen
##revol
##insekter
##omgiv
##No
##ipen
##bergspass
##ms
##gad
##forlorade
##iana
##framsta
##Stad
##Henrik
##insp
##stig
##uca
##affar
##tavlingen
##masterskap
##kna
##39
##ihop
##Lept
##Ana
##Tu
##Heinrich
##38
##krav
##Libanon
##Rid
##begran
##Ele
##Sur
##Phi
##gari
##igenom
##Olof
##social
##ah
##amo
##syl
##berget
##Grande
##avdel
##Ce
##heim
##domin
##gud
##Queens
##ophyllum
##perioden
##Utover
##ax
##forvalt
##upptacktes
##atervande
##Point
##Kom
##agde
##manader
##spelaren
##ljud
##tillgang
##emal
##ited
##ingenjor
##myndig
##Kall
##Over
##SS
##brand
##hotad
##Darefter
##glas
##Little
##Pasir
##etenskap
##smal
##bidrag
##Utbredning
##avarande
##Ki
##omfattande
##Alla
##enbart
##%)
##davarande
##tand
##tele
##osition
##Jack
##ador
##sted
##produktion
##"-
##dikt
##orden
##taxa
##tas
##bane
##mur
##undersok
##Manga
##wn
##danska
##vice
##sjoarna
##anal
##landets
##osp
##pastor
##text
##my
##holms
##Pon
##Dem
##kost
##66
##ign
##tet
##sekreter
##gara
##viss
##stre
##dera
##Gil
##nere
##fallande
##strid
##dagens
##regel
##jav
##ason
##bach
##170
##pil
##doktor
##ios
##forand
##ial
##bese
##dags
##32
##pon
##Bygg
##icke
##Bukit
##ان
##inea
##etab
##bank
##informat
##abri
##Dic
##buk
##ften
##kre
##sena
##mojlig
##profession
##malar
##krigs
##Handling
##stallde
##pres
##lil
##roc
##anslut
##irk
##levde
##Monte
##Cham
##oar
##ting
##issi
##400
##allra
##niva
##tunn
##bibliotek
##Tran
##svan
##steg
##Pierre
##Abo
##bre
##Reser
##kore
##stran
##iere
##Sankt
##1897
##ingart
##Stefan
##vags
##Spel
##lakare
##skedde
##Osc
##ima
##odon
##Blan
##tyd
##48
##bygga
##yah
##alter
##snack
##ands
##Ang
##slags
##Sovjet
##Glac
##restaur
##sket
##torn
##Ov
##Ros
##rea
##slog
##sem
##She
##varen
##marken
##yngre
##Dyntaxa
##isten
##1890
##Daniel
##funktion
##borjar
##Glacier
##skriven
##ikanska
##Son
##alltid
##Nas
##slo
##defin
##harkran
##narmaste
##tillfall
##betrakt
##isa
##lea
##lund
##bjornspinnare
##Michael
##harkrankar
##Lab
##Divis
##saval
##Foren
##ophora
##Mark
##tin
##wadi
##Matt
##Sydney
##Asp
##hoga
##68
##orm
##Tal
##priset
##ligan
##livs
##enga
##Pter
##Hus
##Jebel
##Tjeck
##Egypten
##gade
##biskop
##posit
##framgangs
##iser
##syster
##300
##bryt
##Clar
##konkur
##skrivit
##sningar
##skat
##yang
##skulp
##Ludwig
##Heter
##United
##manus
##sky
##arme
##alltsa
##eda
##ution
##bis
##Dia
##satte
##kronor
##ftet
##varde
##stas
##ischer
##arbets
##1600
##ids
##Das
##arv
##Senare
##snabbt
##67
##unde
##Gav
##Kul
##Utloppet
##bri
##zan
##iller
##Bry
##rackligt
##Neder
##Queensland
##avrinningsomraden
##exempl
##vir
##gande
##Les
##Cup
##Nova
##Kroat
##tagit
##studen
##1898
##Mos
##beroende
##begrepp
##mangfot
##befal
##Albert
##vita
##150
##skillnad
##varldens
##ere
##arg
##Cry
##flav
##bell
##servator
##Mala
##Magnus
##nod
##oe
##styrelsen
##kungen
##1862
##ursprungliga
##ape
##Huvud
##Dessutom
##verkar
##Gal
##anga
##troligen
##orig
##foljde
##Cr
##ques
##Gronland
##Alfred
##matt
##usa
##Bris
##jk
##Varm
##ital
##unger
##asan
##sekreterare
##yet
##1899
##rorelsen
##Trots
##delvis
##33
##juvel
##norska
##psyk
##1895
##marevaxter
##gol
##stadens
##az
##Riv
##mossart
##Ah
##sommaren
##kvarter
##kommunal
##diam
##Andersson
##bodde
##ansi
##Phou
##69
##tjarnen
##tidningen
##forvar
##Tengah
##Skar
##his
##marks
##International
##ave
##brukar
##pul
##Teng
##Australia
##Freder
##1896
##cor
##Fo
##bladmossart
##uma
##Indi
##Gro
##sign
##skydd
##kandidat
##ambet
##antarktis
##Eric
##sporsack
##qvist
##strax
##Santo
##47
##arbeta
##uder
##guvernor
##Long
##sporsacksvampar
##enhet
##Nan
##Henri
##snart
##Nils
##Koudiat
##kammar
##avrinningsomradena
##Raknas
##enten
##steroid
##alls
##territ
##cell
##iter
##Pula
##drar
##Division
##drog
##sed
##finner
##Ran
##malt
##jol
##ble
##eten
##Chi
##erationen
##Tro
##Chan
##emente
##anvande
##Forsamlingen
##mansk
##fre
##oz
##Jacob
##inspel
##delarna
##popular
##lokal
##anne
##Herr
##Kri
##juk
##vok
##Tem
##Roy
##arranger
##God
##privat
##Syn
##Tex
##Fed
##Sag
##Lev
##hosten
##viktig
##mastar
##grundade
##asi
##Historik
##Ama
##Pod
##publik
##akten
##nasi
##delta
##titel
##dop
##oca
##ovi
##Zag
##Isla
##musiker
##Eri
##ephal
##sningen
##jader
##fru
##inflyt
##stalla
##regemente
##Vir
##kombin
##grade
##tis
##Polit
##motiv
##Cl
##raff
##prefekturen
##vinn
##mol
##inget
##Inom
##Kl
##museet
##ckte
##set
##ose
##samarbete
##iske
##battre
##kommuner
##engelsk
##revs
##stade
##uppratt
##mork
##slot
##frukt
##eum
##Fr
##lidae
##jorden
##asteroid
##pur
##lagga
##stalldes
##prast
##etag
##malare
##lius
##ink
##dokument
##field
##tata
##Beng
##1893
##nst
##befolkningen
##anen
##krist
##ocent
##verksamheten
##44
##Plan
##marevaxtart
##forste
##gat
##Os
##ylus
##Brdo
##Serra
##press
##flick
##Gul
##Shi
##Bolivia
##losa
##konstrukt
##Kaliforn
##hit
##55
##Tillsammans
##nos
##ylt
##ete
##Pu
##mass
##long
##marker
##Record
##Mega
##Bad
##Vall
##amerika
##flyttades
##Bil
##roda
##Kalifornien
##Kot
##niska
##dium
##erbotten
##fyr
##1880
##nant
##dro
##Sao
##Pulau
##ringmaskart
##pans
##fakt
##studio
##pseud
##Hot
##Kroatien
##rego
##reb
##serad
##EM
##jakt
##myror
##hjul
##Brisbane
##Tel
##Ungern
##ves
##Nagra
##Song
##taget
##fardig
##oleander
##vattendraget
##mangfotingart
##omo
##ellertid
##isc
##1892
##Administrativ
##uller
##tills
##medeltida
##utnamndes
##botten
##1889
##skriften
##Ari
##juvelvingar
##Im
##wi
##Sula
##Suc
##hoe
##modell
##bergsked
##49
##foll
##Tot
##Spr
##iae
##Au
##samtliga
##finska
##utgors
##kong
##Ala
##160
##jd
##Gard
##span
##Kun
##Eugen
##Film
##Chal
##egro
##iosa
##Bri
##Py
##Polen
##invigdes
##ae
##1894
##utsags
##tilldelades
##separ
##ido
##nio
##arbetare
##ismen
##Ostra
##Tidigare
##inrattades
##Kristian
##anlagg
##officer
##introd
##jul
##ui
##kans
##rac
##icum
##avvattnas
##rust
##Tour
##just
##dades
##strument
##Ober
##prins
##Smal
##Corrego
##angd
##Orebro
##Leuc
##slatt
##Skott
##Scot
##ornis
##Domin
##vetenskapliga
##osia
##orld
##seger
##sangare
##flu
##itets
##Phil
##ager
##Gon
##vakt
##ach
##Cra
##uppgift
##atis
##okar
##دره
##cal
##Pl
##uppskatt
##1891
##mojligt
##Sud
##Margar
##Johans
##Republi
##out
##NA
##Lit
##forutom
##bilder
##hemma
##nordvastlig
##beck
##vagar
##gotland
##Dr
##fyll
##avstand
##Jamt
##olont
##mob
##handels
##beh
##dela
##foraldr
##serades
##slagen
##rub
##Musik
##lovfallande
##yana
##hertig
##grekiska
##liggande
##orus
##lokala
##forstor
##jak
##ellersta
##Djur
##chia
##Dub
##utfor
##baserad
##wer
##Melolont
##vanlig
##radio
##skilda
##Klub
##neder
##leder
##Fag
##Lago
##Villa
##aller
##manland
##idium
##anna
##hastar
##indi
##Beir
##resa
##1888
##omp
##Der
##Vill
##samhet
##splan
##skogs
##Bea
##IV
##straff
##yla
##forbindel
##ordin
##diameter
##lande
##Fe
##Laten
##regler
##uttryck
##oker
##Jag
##levande
##rund
##Tek
##ugu
##olax
##1870
##Folk
##desh
##kning
##Axel
##1885
##bosatt
##Qa
##darpa
##Super
##Tas
##uppfatt
##Chu
##enkel
##tina
##starka
##dott
##mit
##Melolonthidae
##Beirut
##fjader
##bytte
##forlust
##Hyd
##Pha
##salt
##tidiga
##omet
##Lor
##organisationen
##alternat
##regiss
##fader
##redaktor
##sterna
##Hab
##init
##Ernst
##Aster
##kade
##ratten
##Skane
##oce
##Tenggara
##Juan
##ces
##teor
##syr
##Albumet
##europeiska
##relativt
##viken
##optera
##Phyll
##Bez
##student
##Fort
##Foljande
##Prag
##trupper
##avan
##administrat
##larna
##forskare
##tz
##italienska
##iidae
##1887
##jod
##medalj
##Ribe
##inde
##forlag
##zak
##ary
##Hermann
##Flyg
##Dre
##skalbag
##Ori
##flora
##domen
##Ob
##kh
##latin
##Pradesh
##division
##holmen
##ato
##uppgifter
##dagg
##pens
##ativ
##Hag
##matchen
##tillstand
##phi
##ame
##moderna
##ingarna
##Sul
##kok
##42
##ifran
##skor
##svenskan
##Poly
##borde
##ocer
##Depart
##ku
##forsokte
##ierna
##brot
##kyrko
##antus
##Forsta
##lare
##eman
##myrten
##lage
##likt
##kontakt
##still
##exemplar
##vunnit
##onis
##idia
##hustru
##malv
##vant
##naturreservat
##usive
##job
##dennes
##iku
##Vas
##karaktar
##elen
##gymnasi
##andena
##princi
##stick
##Lim
##portratt
##Oper
##atem
##agua
##fack
##Riks
##inas
##Skop
##utred
##Nusa
##rattigheter
##hara
##ocha
##Stan
##Records
##balt
##Tva
##World
##ois
##Morro
##torel
##samlingar
##run
##zer
##sandes
##inerna
##bour
##Eftersom
##givare
##daga
##tids
##forut
##Isra
##bygger
##tavlade
##Big
##ulatus
##Rosen
##VD
##dorf
##Savolax
##ory
##orum
##Rog
##agus
##Ren
##folkrak
##Tjeckien
##Jord
##berom
##mir
##intresse
##Geografi
##Tol
##Central
##sasonger
##Bang
##Bart
##put
##stationen
##ersattes
##kej
##ophor
##emellertid
##foljer
##Sing
##anser
##kallat
##etts
##46
##allmanna
##ansag
##amnen
##flygplats
##85
##lara
##1878
##Simon
##lid
##ratts
##forfattaren
##NHL
##cken
##komposit
##”.
##SV
##Sri
##journalist
##eftertrad
##skolor
##huvudstad
##sovjet
##handling
##nattslandeart
##japanska
##kejs
##isen
##status
##Skottland
##sko
##Hom
##bergskedja
##How
##spraket
##Skopje
##Teg
##Ry
##iah
##agare
##dell
##otes
##Stud
##introduc
##oro
##grans
##historik
##skalbaggar
##regis
##ese
##upplo
##okus
##domstol
##ike
##ift
##nader
##makedonien
##Thor
##jart
##lagre
##tron
##ace
##Idag
##rer
##1500
##kapten
##Nordmakedonien
##1886
##cur
##ktiv
##energi
##Rudolf
##skiljer
##mic
##Mali
##forsamlingen
##Samma
##Cop
##ariket
##Ale
##forslag
##drabb
##forkort
##erholl
##mea
##byggd
##Khan
##Ig
##Sock
##gardar
##rona
##lamna
##kott
##Tha
##Ray
##inklusive
##hia
##fir
##Nederlanderna
##King
##uell
##okade
##atern
##nare
##stedt
##sno
##Bulu
##sjtina
##Liv
##spindeldjursart
##kvalster
##opha
##skapade
##stjarna
##hant
##Strom
##eds
##rekord
##Koudyet
##fragan
##visades
##uttal
##senaste
##oft
##cta
##talen
##mmar
##Western
##riksdag
##anten
##iella
##svenskt
##Cruz
##saldes
##forbatt
##test
##sjoar
##hir
##eral
##Brom
##stang
##Elisa
##1884
##Mosk
##Kalmar
##typer
##Sor
##verka
##namns
##Pil
##1863
##exist
##Loi
##denne
##wesi
##ares
##spanska
##bilden
##Sin
##uten
##regist
##antha
##ladi
##ppa
##Syrien
##serier
##Cur
##Angeles
##pjas
##inspir
##eira
##erov
##EU
##forhallandena
##Vin
##cit
##ffe
##vagnar
##Agua
##orke
##server
##assist
##Oscar
##oto
##ania
##heterna
##ansags
##arts
##umm
##sammanhang
##gin
##Kron
##hallet
##Fra
##ude
##Gunnar
##fog
##roster
##Hamp
##mond
##bes
##Franco
##Flera
##dron
##matemat
##char
##usen
##Will
##vinna
##63
##Gott
##akantus
##1860
##Dy
##forhallande
##aga
##Orten
##Vasa
##sadan
##Domingo
##1882
##utt
##Chil
##Ria
##bildar
##skriva
##Darah
##omgivningen
##cupen
##ijan
##officiella
##avlade
##chin
##Champ
##fallet
##befinner
##inledde
##43
##utvecklades
##Manit
##fiske
##rella
##Pap
##arbetat
##Lem
##halls
##sent
##95
##hundra
##ygt
##draget
##fard
##kopte
##Sulawesi
##tak
##Ferdin
##liber
##ljung
##artist
##Spe
##Aust
##feld
##professionell
##ungen
##oua
##Abu
##zen
##ularis
##Kongo
##Dhar
##sist
##tros
##byggnads
##amento
##information
##vades
##bestaende
##Colle
##standard
##ule
##Ky
##hyp
##stark
##struktur
##1879
##avse
##Psy
##jus
##tjanstgjorde
##Antonio
##sprid
##finansi
##Fu
##patraff
##edi
##yng
##Varl
##frikan
##forsalj
##riksdagen
##Sofia
##Alber
##ierra
##ridge
##East
##vanster
##Exem
##Stre
##katol
##politik
##masterskapet
##Sovjetunionen
##femte
##cke
##rande
##mekan
##Lis
##Ann
##Vit
##adel
##tillkom
##Irak
##fla
##Fiji
##antingen
##viktigaste
##Nilsson
##stammar
##klad
##Victoria
##Myn
##Elisabet
##41
##universitetet
##mil
##oppor
##Kos
##betydande
##slappte
##underarten
##Redan
##Lunds
##omus
##haer
##uda
##grunden
##Carol
##tagen
##Ferdinand
##syft
##Pers
##tryc
##Sem
##Francisco
##fjall
##ool
##aker
##slutligen
##hart
##instrument
##Vax
##Adam
##Foretag
##ding
##skjut
##Johansson
##Lanka
##gjord
##egang
##svarta
##ense
##Ribeira
##austra
##CD
##snar
##1881
##nominat
##extra
##strat
##atemala
##ocera
##ار
##Sat
##semi
##kyrkor
##nomin
##ifolia
##Gh
##artill
##snamn
##skyr
##stens
##utskott
##Zagreb
##uce
##daribland
##Kas
##Suva
##syfte
##57
##².
##Guatemala
##Departamento
##Kyrkan
##Holm
##isch
##motsvarar
##rades
##forord
##foremal
##pian
##otte
##polis
##Ther
##hoger
##ij
##spelas
##mont
##1865
##konfli
##Sason
##maskar
##stycken
##insk
##ums
##ills
##Dama
##handlingar
##ib
##parasitflugor
##Mary
##veckor
##Mid
##Anth
##Dur
##fullmakt
##yth
##festivalen
##rix
##smaharkrankar
##Jarn
##itch
##etten
##kritik
##ower
##Manitoba
##Massa
##serar
##cos
##varn
##Just
##Exempel
##Mah
##kolle
##amin
##norsk
##gast
##Spar
##perman
##Ecu
##kart
##sey
##Khor
##him
##sken
##obius
##olyck
##inkluder
##aro
##oki
##nej
##Hockey
##brak
##slyck
##karlek
##matik
##tatt
##riaren
##koreanska
##camp
##media
##Familj
##Pin
##glans
##funn
##filosofie
##myrart
##stem
##istisk
##Tele
##otill
##beskrivs
##kog
##aterupp
##iger
##Pop
##Forutom
##Ing
##Institut
##kroppen
##end
##rysk
##IS
##solen
##arden
##1883
##finlandsk
##Hak
##Och
##drygt
##1877
##Hil
##Lill
##mex
##fulla
##Filipp
##nominatformen
##uppror
##sera
##ligaste
##77
##civil
##utstallningar
##blomflugor
##overste
##Scotia
##hette
##oppna
##arker
##ferenser
##cin
##Bengt
##visning
##stjarnor
##Prot
##omfattade
##Castle
##kak
##klipp
##havs
##nem
##japansk
##prop
##Arthur
##tvingades
##styrelse
##Sucre
##1874
##flack
##essen
##uras
##itionen
##slogs
##Myr
##itten
##obygg
##aland
##1875
##Dominikanska
##friidrott
##58
##seder
##hort
##valkrets
##antas
##box
##kapell
##tj
##lamp
##ase
##ellus
##Smaland
##sburg
##vade
##Brown
##Coll
##ensam
##Shar
##engager
##ence
##hogt
##fylumet
##minuter
##Mars
##vika
##individer
##borr
##alven
##neg
##eton
##fyn
##kvinnliga
##otis
##lagan
##Green
##ines
##stjan
##byggde
##fokus
##Ribeirao
##rata
##Ecuador
##arina
##skogar
##Nic
##onoma
##tranare
##mam
##uppkallad
##bedri
##well
##kvalsterart
##Lom
##idan
##Irland
##rapporter
##99
##Jakob
##Pel
##ical
##die
##bebyggt
##iativ
##misslyck
##lings
##karn
##Yo
##kraftigt
##officiellt
##blads
##oiden
##verkat
##ligheten
##splat
##usten
##flykt
##hoglandsklimat
##Kre
##utrikes
##nia
##mmen
##hag
##mangden
##pengar
##utes
##drottning
##linje
##Shuiku
##ev
##andin
##yu
##Et
##egentligen
##yle
##stylt
##pers
##Olymp
##Bot
##gil
##snackart
##lojt
##ssel
##Gym
##garen
##Laur
##168
##Federationen
##62
##Tapp
##Nue
##Igar
##Sun
##ctus
##sund
##Lilla
##tam
##Ach
##Kuba
##olo
##Crypt
##leg
##minnes
##lific
##Tiz
##manien
##Pic
##grod
##app
##omor
##landslag
##observator
##dipl
##sann
##kvinna
##bott
##rep
##fier
##hum
##namnda
##Heli
##storlek
##Vissa
##edes
##flockblommiga
##wald
##fordon
##1876
##baltet
##omyza
##kir
##France
##gle
##Cir
##Nou
##1869
##Israel
##Finlands
##Franz
##arida
##uellt
##SC
##Mann
##Sr
##sakerhet
##inflytande
##You
##kullar
##Has
##anvandning
##super
##Sasongen
##Cord
##Charl
##Samtidigt
##bilar
##has
##Igarape
##olis
##suc
##viol
##befolkning
##belag
##ags
##120
##Bell
##makedonska
##omycetes
##bostad
##61
##cas
##Ivan
##Jacques
##terades
##klart
##oversattning
##iri
##utgjorde
##aldern
##represent
##forestall
##Cab
##formis
##benamn
##1866
##Star
##Moskva
##cap
##funnits
##forsvars
##skapades
##ckerlack
##lata
##tacker
##ovis
##jarnvags
##illust
##angs
##sledamot
##sporter
##skivan
##ball
##hatt
##hug
##Linne
##shire
##ican
##gett
##ving
##upphorde
##lojtnant
##Wood
##tatbebyggt
##kackerlack
##fangelse
##meddelade
##pper
##frit
##beror
##makten
##Costa
##Bent
##sidor
##Hop
##parken
##avtal
##fotograf
##webb
##Kha
##teknik
##Tip
##wal
##Nun
##Aph
##Afrika
##Tok
##Lid
##skomm
##rymd
##kompon
##sadana
##grash
##78
##Oli
##betal
##Mis
##dos
##mig
##Ere
##mandat
##Jane
##-,
##skus
##viktiga
##hindra
##eden
##anvants
##Zar
##obel
##bba
##drom
##aner
##lagr
##tiop
##Egent
##ophagus
##lock
##soner
##hip
##lavart
##bry
##orien
##ogae
##tering
##kommiss
##Vatten
##olen
##ode
##otrich
##versionen
##Gavle
##Jesus
##osterrik
##Jbel
##varierar
##utionen
##seg
##mul
##varfor
##kanske
##psal
##menar
##1868
##parish
##orit
##massa
##White
##ryg
##Riviere
##Verk
##gro
##emon
##hallen
##formaga
##stag
##skyl
##Shah
##salde
##Karriar
##mia
##Wash
##ekonomi
##Kairo
##prot
##individ
##1864
##Hammar
##sedermera
##avi
##Stu
##obe
##zhou
##ktes
##brist
##ativa
##etiska
##Zeeland
##mart
##itte
##atar
##jurid
##Bet
##Rub
##igan
##Nom
##Cro
##Rut
##ør
##onde
##mara
##Sn
##adens
##Mir
##ledande
##aba
##produkter
##dekor
##eval
##utgavs
##Fore
##Gir
##cept
##ophilus
##Tappeh
##Isa
##mani
##mata
##Cyr
##onien
##overgick
##Wadi
##line
##ikern
##berak
##Salt
##SVT
##situ
##myt
##Bob
##Pass
##reakt
##dap
##Nam
##Etiop
##publicerades
##grashoppor
##vic
##kristna
##anes
##Prod
##tecken
##hogskola
##spin
##ansen
##wards
##framtrad
##nasta
##Horn
##astronomen
##allvar
##anstallda
##yne
##Wat
##vind
##Sl
##Oslo
##Svart
##temperatur
##jun
##Dalarna
##1858
##union
##qa
##skad
##eti
##1867
##ipes
##1871
##valdigt
##zarba
##vilj
##inre
##leva
##aterfinns
##itel
##etus
##malm
##1872
##sonen
##pin
##deltagare
##lae
##Qar
##Top
##rester
##representerade
##samlings
##tekniska
##Kasti
##kolon
##slakten
##slan
##Radio
##Bom
##71
##FF
##Damaskus
##ove
##tagande
##andrades
##slar
##Pit
##urval
##ledningen
##uppmarksamma
##foraldrar
##andinav
##fria
##publicerade
##doda
##gne
##reformen
##Abra
##bete
##Ci
##brom
##Ash
##objekt
##Mats
##militara
##edra
##stock
##producent
##representerad
##upplagan
##kontin
##utvecklade
##Rag
##ando
##ranun
##Gali
##cra
##ophylla
##aukt
##Die
##vards
##Egentliga
##stiden
##Umea
##block
##sats
##sankm
##1873
##600
##stadsdelen
##Kastilien
##Perth
##yri
##skrona
##boli
##hastighet
##Hart
##edd
##opt
##Nikola
##ards
##strids
##infordes
##wick
##ongoli
##800
##saknar
##traffade
##otyp
##lett
##pred
##miljon
##phia
##alist
##aktiva
##egori
##ert
##politisk
##uf
##Madaga
##140
##gitarr
##grat
##130
##hak
##Pam
##utstallning
##territor
##79
##Sierra
##antik
##socia
##skulptur
##skaff
##Ophi
##initiativ
##nassel
##kyrkog
##Bezirk
##Bes
##itis
##Lut
##odin
##styrkor
##Sir
##ologisk
##Warren
##Cyc
##Bada
##hegy
##italiensk
##stant
##Vad
##1861
##App
##Siah
##imus
##Bjorn
##Alban
##Francois
##Cacho
##singeln
##1850
##sankmarker
##72
##aktenskap
##Jen
##Klimatforhallandena
##grader
##Pyr
##tillfal
##utkom
##Asteroiden
##Etiopien
##Tub
##Nav
##oria
##250
##jes
##pac
##Chic
##genomfordes
##uv
##oke
##Glav
##hasa
##Kyrk
##gransar
##Hell
##repp
##kommunerna
##minne
##skadespel
##sociala
##Status
##mala
##yes
##slin
##upphov
##ephalus
##ordinarie
##()
##huvudbaltet
##fordel
##hals
##spart
##Washington
##Chlor
##other
##elever
##flockblommig
##Gabri
##Feli
##verkan
##stades
##tunnel
##It
##kunskap
##Skol
##ilis
##alpa
##Step
##Melan
##lass
##SK
##jiang
##ond
##Tav
##lys
##varia
##Jamtland
##benam
##daremot
##chis
##Cerat
##pam
##stater
##permanent
##angen
##Nap
##stin
##install
##havare
##Oued
##Dock
##Piz
##zat
##landslaget
##olly
##sitter
##non
##sallskap
##Bap
##undantag
##Madagaskar
##tju
##98
##trop
##Belg
##slav
##ovre
##Hir
##vanligtvis
##Bank
##aring
##rest
##ardo
##Vrh
##karen
##reste
##utvecklingen
##etabl
##chal
##metod
##kompl
##blommiga
##dramat
##resten
##exped
##fortsatta
##High
##Puer
##Scha
##Buttu
##faren
##rorelse
##Utseende
##aman
##svav
##Europeiska
##sjukhus
##socialdemokrat
##Bulgari
##frihet
##roller
##Augu
##tyck
##ambas
##hyn
##forband
##splats
##geli
##tegel
##dods
##Britt
##Hos
##kreis
##Bus
##bir
##kristen
##sul
##arius
##uning
##lagger
##mastaren
##Pek
##bildning
##Cachoeira
##jel
##vata
##bladet
##potatis
##Arn
##laggning
##osi
##medeltiden
##kejsar
##avratt
##ple
##arens
##Sad
##tolv
##hana
##registr
##Kategori
##kusten
##Wer
##konstru
##Vasteras
##Yang
##anum
##grand
##mojlighet
##Foretaget
##Ostantarktis
##bildas
##May
##...
##oland
##1859
##manad
##process
##52
##ows
##Ast
##svag
##Hond
##1000
##akh
##populara
##Dip
##Ljung
##kallor
##speciellt
##Rapids
##kret
##oslav
##Julius
##Kim
##jamfor
##medlemmarna
##nordiska
##73
##lige
##uro
##belon
##oppnade
##vul
##kast
##Dun
##leda
##forekom
##ders
##regissor
##College
##utforde
##Len
##element
##Samuel
##betydligt
##precis
##organisationer
##Mall
##qi
##korta
##Theodor
##Khorasan
##hone
##Hur
##faller
##imeter
##Love
##pu
##autonoma
##Had
##Mig
##varden
##masterskapen
##svalet
##naz
##see
##Kungariket
##motsvarande
##Anger
##zarbaijan
##forsoker
##Range
##ray
##59
##position
##snings
##koptes
##ogaster
##Saskat
##Arbet
##behandling
##skiftet
##fullt
##stazarbaijan
##ates
##skinn
##malningar
##Deras
##avgor
##ungebin
##Munchen
##inleddes
##Typ
##dollar
##soldater
##Ec
##politiskt
##Pav
##alo
##fera
##atom
##ics
##idea
##medaljor
##Osterbotten
##heller
##bring
##Pahar
##56
##Ludvig
##Estero
##stjart
##Mill
##narmare
##knott
##Bac
##pska
##sande
##skrivna
##Monten
##Politischer
##Robin
##schen
##Hud
##Hard
##hea
##hes
##nier
##avslutade
##punc
##sto
##lech
##RA
##akta
##ocker
##chewan
##hamnade
##Scott
##lax
##planer
##Bure
##offer
##stalt
##Myc
##88
##rarna
##falla
##skusten
##aur
##sattningen
##regementet
##svampdjursart
##styrka
##sades
##54
##historien
##skiva
##76
##eles
##folket
##Hug
##Gamla
##board
##skij
##Phyt
##nabb
##insat
##kyrkans
##fien
##1857
##fordra
##Parc
##behover
##herre
##gangar
##symbol
##Hit
##top
##Back
##elektron
##ungdoms
##alum
##skam
##Lad
##Larsson
##vav
##51
##lossum
##Strand
##74
##Bis
##phala
##vor
##arer
##Nort
##kommunik
##Saskatchewan
##strandlinjen
##total
##eps
##somraden
##Mellersta
##ao
##anthes
##svaxtart
##Law
##Tai
##vartbit
##yat
##slottet
##Belgien
##karriaren
##segr
##aki
##Kamar
##farger
##marknads
##planet
##viv
##Serien
##Varje
##namnas
##Champions
##fullmaktige
##vartbitare
##drev
##Cle
##Riacho
##kanalen
##Ton
##arus
##udi
##bury
##ustrin
##sarbar
##fenben
##hra
##inslag
##parlamentet
##Aqu
##Dji
##anstalld
##inneholl
##offentliga
##koncent
##Gord
##icornis
##elev
##bakgrund
##oche
##imm
##advok
##betraktas
##Royal
##anj
##areal
##sannoli
##drift
##Miss
##folia
##nedan
##anges
##aterigen
##extre
##monster
##projektet
##ocephalus
##Colonia
##paborj
##Guinea
##Qal
##hotell
##kus
##Natura
##Ukra
##anord
##Lakes
##Chry
##aran
##opera
##timmar
##ologin
##rol
##dals
##centimeter
##Mitt
##Distrikt
##Yu
##nr
##visat
##musiken
##Srpska
##Republika
##kanna
##States
##gom
##bildad
##Wol
##internationellt
##interv
##max
##hogst
##Lee
##hyd
##Anne
##Tizi
##Borg
##Seg
##skid
##Prix
##tac
##Totalt
##strav
##wen
##bered
##Breuning
##bouti
##Chen
##Num
##specia
##forandringar
##Dicran
##utrust
##rovflugor
##narna
##Honduras
##experi
##administrativa
##kad
##synner
##Bulgarien
##Oz
##dir
##berattar
##Mang
##kvalific
##studioalbum
##lium
##omfattning
##villa
##enhjartbladig
##Atlant
##vanner
##""
##Kin
##Fest
##bili
##sum
##Forsvar
##kloster
##Djibouti
##icolor
##ocarpus
##hul
##klin
##Svensk
##longi
##1848
##Colombo
##forts
##Sac
##spri
##lah
##delsen
##renover
##arder
##satts
##anfall
##halvon
##Infor
##sattningar
##dapest
##skriver
##1856
##Arg
##anti
##minska
##Budapest
##Aland
##Aut
##borgar
##para
##Liber
##beskriver
##knapp
##vader
##essa
##erba
##EP
##Wolf
##standet
##aliska
##trans
##ingom
##ivi
##53
##ytte
##egenskaper
##romerska
##Od
##spets
##1830
##Guyana
##Utt
##paret
##1852
##orp
##urn
##اب
##Blu
##Rik
##oppnades
##Glavica
##ky
##utnytt
##aph
##American
##byggda
##vapnet
##svara
##aville
##utgivet
##Bam
##Piper
##forhallanden
##Malm
##accep
##varefter
##belaget
##Roth
##rut
##bevarade
##110
##teri
##Filippinerna
##lilla
##day
##placerade
##magnit
##Lenn
##made
##tala
##artister
##wang
##teatern
##katolska
##graf
##ivet
##inata
##anta
##peppar
##Kenya
##hat
##sili
##svaxter
##won
##vert
##biograf
##fonster
##Fir
##Josef
##resor
##utgiven
##ningens
##Bos
##fing
##Johnson
##medverkat
##tah
##1855
##forare
##Wind
##forlang
##Morne
##debatt
##Montenegro
##Elfenben
##Varmland
##broder
##rosophila
##framgangar
##odia
##syftar
##sakademien
##smaningom
##School
##enia
##arterna
##Gall
##nens
##palli
##Mora
##Mik
##forsak
##Brazz
##Skargards
##otillrackligt
##Ayn
##hab
##Euc
##Turk
##Norden
##evan
##samlade
##Pereval
##glest
##teckning
##occus
##innehall
##Peru
##texten
##studera
##talje
##Hob
##dyg
##riga
##hern
##anpas
##forsv
##Moha
##Bolag
##hoven
##Haw
##produktionen
##chot
##bergen
##Sz
##escens
##trumm
##flottan
##.)
##demon
##della
##Brazzaville
##ello
##chsen
##Eriksson
##Boken
##oy
##Herrarnas
##influ
##ferens
##atter
##utmark
##usso
##Mynnar
##styltflugor
##olle
##Brand
##ipennis
##Elfenbenskusten
##forran
##Jul
##quad
##Bun
##pansar
##Wen
##gemang
##rup
##stipen
##eftertraddes
##menade
##inten
##varv
##Ye
##rollerna
##rent
##Nem
##jarnvag
##Pala
##Innan
##Moore
##fungerar
##fjadermyggor
##studerad
##Cyper
##Linkoping
##Grad
##aneh
##gers
##vanda
##Music
##ranunkel
##Stappklimat
##greve
##mossor
##internationell
##minstone
##Jor
##bundet
##itta
##nagonsin
##utstallningen
##Skara
##Dahl
##beskriv
##inrikt
##brost
##wis
##BK
##svis
##kryp
##Baker
##lister
##Sym
##169
##Referenser
##Indian
##1200
##Wall
##utok
##orkester
##cera
##soni
##hil
##baserade
##metall
##Prin
##Bakgrund
##osum
##ellen
##ungar
##klubbar
##mut
##passager
##original
##Phn
##Territ
##korall
##Namn
##definier
##Tag
##rug
##foreningar
##ungs
##artiklar
##sigt
##1840
##pec
##Olsson
##Abe
##Ovan
##Wang
##89
##Addis
##live
##tavlingar
##Byggnaden
##vack
##ental
##halften
##cyl
##kov
##hai
##skoldloss
##Kle
##Asien
##svetenskap
##tillfallen
##trade
##bostads
##Vag
##ogr
##borger
##quist
##drama
##fton
##hua
##sering
##ophaga
##arez
##domdes
##texter
##ftea
##Reyk
##distri
##Ouadi
##Foreningen
##folja
##Bow
##Run
##mik
##puck
##ringen
##Club
##ident
##medvet
##Barra
##sberg
##byte
##IFK
##Organ
##varian
##Wilson
##Bagdad
##andrade
##oter
##Tipula
##umb
##ues
##kritiker
##misstan
##begreppet
##Beg
##pades
##oblast
##Walter
##Fur
##fid
##ов
##revolutionen
##Jones
##مه
##1851
##Ark
##Aret
##order
##Harry
##fadern
##goda
##vagn
##forbindelse
##Chrys
##Barcel
##ور
##Nordamerika
##agog
##Svan
##narvarande
##exp
##kg
##Hali
##teori
##Polyp
##romanen
##agen
##flode
##Opsjtina
##ites
##Chah
##Glen
##Stand
##karna
##Act
##iserade
##Tit
##kortare
##skador
##Kop
##)"
##ego
##opogon
##Syl
##erus
##zu
##sprakiga
##tattingar
##elin
##skots
##rip
##fazat
##allmant
##Pom
##utseende
##lamningar
##Skargardshavet
##istik
##sklub
##Taung
##Draa
##normalt
##klassiska
##avent
##Puerto
##Dash
##liknar
##vuxen
##Off
##Let
##Onth
##Frit
##86
##CA
##Uttar
##1853
##gula
##tillrackligt
##bourne
##Astra
##foli
##lio
##Williams
##tjanste
##lita
##trett
##Kultur
##brut
##Stal
##byggt
##Mul
##ithe
##Emil
##faktor
##baserat
##Knut
##faltet
##minor
##ylon
##predik
##gott
##Play
##mynnar
##Kie
##Slakt
##sekv
##General
##sallan
##Mohafazat
##700
##Portug
##personal
##inis
##klot
##Ida
##Color
##Tysk
##republikan
##Mine
##opht
##besegrade
##Texas
##ylor
##handlingen
##torp
##Klubben
##Kent
##beslutade
##Led
##strackning
##sangen
##tern
##robot
##tror
##Yt
##uppstod
##skada
##genombrott
##Gruppen
##Beach
##Maja
##Brad
##rotter
##staderna
##Vastergotland
##cess
##Rhe
##intervju
##vac
##icta
##Alberta
##Pak
##uela
##borja
##bedom
##patraffats
##elt
##attack
##Sidi
##maskin
##ew
##erats
##historisk
##Reykjav
##Vetenskap
##oav
##stop
##forsknings
##Oc
##1854
##Distriktet
##sokt
##traditionella
##andre
##intill
##kommunhuvudort
##rana
##Dod
##oleandervaxter
##framforallt
##ostoma
##Khar
##avdelning
##polska
##fartyget
##borgare
##Sus
##Herman
##Onthophagus
##elva
##handboll
##ktion
##ydde
##medicin
##islam
##systematik
##Engel
##yst
##tillhorande
##Wi
##Andreas
##australi
##US
##atminstone
##Ball
##rygg
##bidrog
##modellen
##framat
##celler
##sloj
##marknaden
##bytt
##كوه
##Mam
##stral
##befordra
##metoder
##1849
##framgangsrika
##Dry
##zjan
##siff
##terar
##kalen
##agnade
##Pir
##Chang
##skop
##utbildade
##sea
##itter
##fet
##finna
##ortsvaxter
##erbju
##Nordkorea
##Syda
##Hampson
##Comm
##Mem
##samlar
##Spring
##ango
##Dipl
##bryg
##Kungs
##palats
##dyn
##talis
##yttre
##tung
##Reykjavik
##Dich
##Statens
##Xant
##Til
##tider
##event
##sii
##advokat
##jed
##Bulb
##sammanlagt
##brett
##Internationella
##Dig
##etia
##narmast
##distan
##glanssteklar
##mund
##iland
##psalm
##rill
##pastorat
##bs
##ypt
##Pedro
##skrivning
##emang
##AIK
##mjol
##tillverkades
##Chicago
##lankar
##Maz
##stenar
##Mans
##osh
##Wik
##ay
##vanligaste
##upplostes
##Lasi
##erbo
##osper
##Rem
##nars
##ingham
##kins
##Doli
##parall
##artikel
##konservat
##anslutning
##ked
##lju
##Evan
##rium
##desig
##Jonas
##bebyggelse
##turneringen
##Dis
##Gilbert
##malet
##Pur
##oleon
##spansk
##Sundsv
##wo
##Rac
##magnitud
##dea
##ikon
##yrkes
##visas
##lapp
##ucig
##tennis
##Lek
##anni
##kannet
##Din
##kanneteck
##foring
##ilton
##Center
##rey
##Philipp
##chn
##socknen
##Win
##Bandet
##ilo
##utmar
##slov
##skivor
##Calli
##vive
##varm
##cks
##kanner
##inborde
##talar
##personen
##pals
##ogne
##standigt
##nodvand
##data
##opel
##bun
##Cten
##Havanna
##skj
##Landkreis
##Finska
##mynt
##Levu
##folkrakningen
##olus
##alko
##eme
##Cri
##jazz
##ryck
##tim
##ensson
##ritningar
##oco
##Ay
##universitets
##kammaren
##yeong
##kod
##bekraft
##Tob
##kyrkoher
##manlands
##syns
##spann
##aux
##bulgari
##Bapti
##pennis
##Agr
##Eva
##Fars
##tidskriften
##ych
##Halsing
##utta
##konvent
##avveck
##aco
##Orth
##skivbolaget
##drakt
##itze
##cial
##Say
##Ces
##Mey
##Gabriel
##abad
##Norrkoping
##blandning
##utskottet
##Gab
##soldat
##banken
##Arch
##ukro
##oko
##othi
##Beet
##ucigalpa
##Meg
##Tegucigalpa
##denten
##fysik
##Reserve
##Ned
##Reich
##Bost
##gallmyggor
##iola
##Cours
##Lagoa
##hah
##freds
##arkitektur
##ambassa
##Cet
##lep
##Frederick
##Fot
##bou
##iph
##konstnaren
##eftertradde
##cykel
##konsert
##Kallor
##varme
##Guer
##vision
##Muller
##oneura
##latta
##olja
##radande
##amal
##saledes
##Stads
##honan
##Valle
##dun
##Eurovis
##partiets
##omvand
##bandy
##varna
##Pand
##finlandska
##fars
##stallande
##ffa
##Iso
##fynd
##sval
##trycket
##trag
##Nuuk
##Rica
##ulen
##Schiz
##Vik
##sjatte
##metal
##viks
##Social
##reklam
##variant
##Sid
##folkm
##sekunder
##tillverkning
##Hay
##FA
##tvaa
##motte
##gasin
##Forst
##nard
##qui
##mem
##rell
##religiosa
##Podgor
##milis
##alus
##Lik
##Ytter
##vasen
##oris
##tian
##oshi
##Vr
##One
##rah
##barnen
##Ring
##Rein
##Pse
##kommunreformen
##Nov
##Museum
##ruf
##kvarteret
##bek
##diale
##multi
##Care
##aton
##sner
##yeh
##ouz
##Sak
##kansl
##ophia
##Helsingborg
##Water
##prefektur
##Tun
##erberg
##By
##Pad
##Master
##nejlik
##pav
##diplomat
##rings
##Barcelona
##BA
##Tekniska
##historiskt
##gogae
##Franska
##Baptiste
##Muh
##onus
##statliga
##Bour
##bens
##oberoende
##lagar
##Nich
##fasta
##manniskan
##Kil
##Gunt
##Ingen
##ocal
##Odon
##Ford
##quin
##Centre
##uppmarksamhet
##Vilhelm
##dirig
##kav
##ressen
##regionhuvudstaden
##strads
##special
##omataceae
##konkurr
##isterna
##rok
##Turner
##inella
##odendron
##jev
##Florida
##Ris
##iler
##Podgorica
##ligtvis
##omgangen
##skontrakt
##Yamo
##lier
##flor
##Bureau
##foregang
##1400
##1847
##lap
##koloni
##tvavingar
##landst
##VI
##gensis
##Turkiet
##zia
##serat
##batar
##amne
##cip
##smannen
##graci
##fu
##talas
##bevis
##historiker
##Yamousso
##Zard
##fritt
##tum
##Yamoussoukro
##zig
##mote
##damm
##uke
##cum
##”,
##ofs
##husen
##fasci
##Estland
##kommersi
##ularia
##olph
##tidens
##bladhorningar
##Stig
##Vaxjo
##lost
##poj
##bilis
##ryp
##Kum
##Varlds
##asen
##feder
##iculata
##sprang
##Boh
##kunga
##1846
##kanadens
##Call
##prom
##Vo
##ademi
##malade
##lagstift
##ophorus
##Eurovision
##docent
##kalk
##rater
##hamt
##Fon
##Blom
##Cens
##Emi
##utveckla
##skildr
##Socknen
##Viet
##Gur
##esia
##Ske
##Vel
##minn
##ysi
##Janeiro
##skogen
##sammanslag
##Philip
##video
##ationerna
##sli
##FN
##Kel
##Valen
##ular
##Doug
##worth
##statt
##upe
##Elisabeth
##prag
##begravd
##zakstan
##oleandervaxtart
##Rene
##stannade
##speg
##kultu
##Andr
##regement
##BC
##hitta
##Drott
##lokaler
##Ross
##natten
##modeller
##strateg
##Adela
##pek
##gruppens
##viktigt
##transport
##row
##riksdags
##Cali
##Greg
##utov
##regerings
##utbrott
##tifier
##sallsyn
##avsnittet
##Gros
##Loire
##resp
##emen
##statens
##Hugo
##nest
##tel
##spet
##transporter
##Jackson
##monument
##infan
##landa
##ortsvaxtart
##besokte
##Schmid
##filosofi
##erbajd
##arkitekten
##ppe
##Pyong
##Dublin
##avsked
##1300
##Chur
##fastighet
##komplex
##Margareta
##Nuevo
##groddjursart
##brig
##Bod
##Byn
##Blek
##overtog
##alternativ
##geri
##tillbring
##autom
##skadespelaren
##skel
##Cos
##Karelen
##framtradande
##utover
##othe
##berga
##Halm
##82
##Jr
##rats
##tillhorigheten
##romersk
##heh
##erbajdzjan
##erier
##inve
##allmanhet
##sparris
##omedel
##Gardaneh
##cla
##kos
##yen
##frikanska
##hom
##brunn
##Carolina
##Hul
##چش
##papper
##Tig
##bruket
##Fern
##Zam
##akadem
##grann
##Ilha
##oten
##Jun
##slappt
##tankt
##bab
##atra
##prost
##tecknare
##zab
##pip
##leden
##observatoriet
##Auguste
##yon
##spolit
##ople
##Roda
##Akra
##Poli
##framstaende
##IA
##trupp
##Seri
##turne
##1838
##Laurent
##blommor
##gods
##onym
##familjer
##resultatet
##hof
##slangd
##Cano
##ivan
##Sum
##arets
##minut
##Arets
##bygd
##Krig
##neum
##koppar
##make
##Wu
##Montre
##overfordes
##staterna
##forsor
##privata
##huvudet
##antin
##Mand
##Torn
##Teater
##flytta
##Xi
##sovjetiska
##mina
##gemensamma
##alitet
##bostader
##rosvaxter
##aventyr
##stalld
##konstruktion
##hani
##rador
##Platy
##miljarder
##ocke
##Hamilton
##Fab
##gruva
##Abeba
##raf
##ultat
##assel
##چشمه
##84
##Thel
##skrivare
##elson
##ison
##Thom
##ehr
##sexamen
##Luis
##startades
##skning
##Adel
##Balt
##krimin
##tidning
##myrtenvaxter
##isol
##soc
##reservo
##hallit
##trask
##Vidare
##Kef
##Ud
##torelvaxter
##Kuk
##ladimir
##Ner
##Peking
##mum
##Beethoven
##MS
##kines
##Stanley
##Census
##foljare
##Donald
##Jur
##Sommar
##tjock
##Mongoli
##later
##aspis
##bomb
##Alpes
##snarare
##Nab
##design
##vatet
##83
##brann
##Adelaide
##Pyongyang
##Gang
##producerade
##romaner
##begar
##foral
##mix
##Lok
##atre
##Fageln
##representerar
##inae
##naturliga
##Hong
##varo
##studenter
##fored
##onidae
##halvgras
##Anom
##bly
##Gotland
##1844
##Kj
##chan
##ologen
##edel
##olas
##vardera
##effe
##wall
##gata
##Darfor
##underhall
##ekonomisk
##Ath
##utspelar
##grekisk
##Alek
##elegan
##Externa
##Andrew
##strof
##Akt
##amus
##hoppspindlar
##manna
##issa
##smyck
##Neu
##Brach
##"(
##itioner
##ovac
##trada
##Ich
##attslandor
##bridge
##ough
##plos
##tillverkade
##olympisk
##vaga
##arligen
##namligen
##Now
##oste
##iteter
##ligheter
##forman
##iris
##stenen
##frig
##Gad
##batal
##emin
##Vladimir
##invand
##diver
##jde
##tingslag
##Jonsson
##Spelet
##center
##artilleri
##storstad
##plo
##yrus
##fs
##rektor
##utifran
##inder
##alia
##anter
##dets
##ulosa
##botan
##anerna
##tydligt
##epis
##harstammar
##gors
##turk
##Dagh
##offentlig
##berattelser
##insatser
##inar
##svid
##Hjal
##Ola
##bladiga
##fat
##oun
##tidig
##ersatte
##lamnat
##bund
##sorg
##Dong
##Vie
##Katarina
##tandspinnare
##programledare
##Petit
##eu
##gos
##vatmarker
##cyk
##flottilj
##stug
##slang
##اد
##fattar
##obia
##idion
##polisen
##glaci
##jae
##narings
##Grund
##Khu
##ariga
##Hov
##acia
##fotingar
##komplett
##Quito
##enkelt
##utrustning
##Doro
##Fj
##Rost
##fabriken
##Cot
##varor
##Rosa
##studie
##fragorna
##Miguel
##syra
##etabler
##Persson
##Arvid
##Mach
##Gull
##Ung
##kommunalforbundet
##Jug
##versioner
##Hum
##enskilda
##Jiang
##Howard
##Adrar
##.-
##odrom
##experiment
##Sub
##regl
##efternamn
##illus
##ollen
##mode
##genomforde
##diskut
##cium
##Aur
##Taylor
##bjor
##omia
##angzhou
##sagor
##Cote
##Elit
##alpus
##ansvarig
##87
##Real
##sarskild
##solo
##Amazon
##Low
##Konda
##stationer
##yllis
##Ix
##tecknade
##Goran
##schweiz
##myrtenvaxtart
##Fen
##anlades
##Vietnam
##familje
##Chaet
##nyck
##posten
##Melbourne
##separat
##ellidae
##vintern
##revolution
##blo
##utvid
##ience
##hjalpa
##aska
##skolans
##Dahr
##Grupp
##icip
##braken
##Fair
##Bud
##Chat
##Tat
##klockan
##samtida
##MA
##chefen
##81
##oti
##legen
##lagare
##byra
##varvid
##nastin
##Corne
##cius
##Bara
##arm
##bei
##utlandska
##domet
##egendom
##teckningar
##rank
##varianter
##ellia
##Young
##Boy
##Chri
##fodda
##opol
##totala
##amat
##Finn
##malvavaxter
##Fun
##Dog
##teras
##1842
##ptus
##producerades
##Colorado
##svik
##satter
##Vastantarktis
##Allsvenskan
##delning
##hander
##diet
##Lyn
##Stein
##Glava
##sanka
##Psychot
##idus
##Kazakstan
##driver
##Nyland
##Mog
##smakten
##uppdraget
##Strauss
##pedagog
##Mongoliet
##skin
##terat
##ophi
##angar
##Rat
##Natur
##Schlech
##wart
##princip
##anslot
##ryss
##Union
##atgar
##Reservatet
##Cant
##mmy
##Edu
##Gle
##sjong
##dikter
##svidknott
##regioner
##trollslandeart
##Mika
##premiarminister
##Moham
##rors
##skytte
##mossdjursart
##LC
##kopa
##etti
##Bebygg
##driv
##bulgariska
##Anti
##oman
##vager
##Lulea
##Societ
##beromda
##iso
##kyrkobygg
##stallen
##Psychotria
##Bulbophyllum
##Xyl
##antis
##inkluderar
##langtungebin
##Kara
##leken
##linjer
##resulterade
##imp
##kraver
##Tetra
##Award
##uppfor
##egentliga
##reda
##koncer
##avsed
##hamns
##torelvaxtart
##Contest
##dahl
##chester
##valla
##skript
##Ler
##agar
##Blue
##sut
##Cien
##dalen
##ettix
##Slut
##supp
##parad
##Guld
##hovding
##europe
##Olympiska
##Prout
##gyn
##pum
##eni
##Paulo
##Daghi
##iceps
##anstalldes
##Ostergotland
##igi
##And
##haus
##stjarnan
##Michel
##vinst
##vinterspelen
##Cypern
##Ug
##undervisning
##saknas
##spi
##borjat
##Vene
##titt
##tornet
##reich
##indelning
##Compan
##religion
##krafter
##ianus
##byggas
##Cher
##Slo
##onica
##graden
##Gas
##avgjordes
##beskrev
##ladd
##ifier
##gus
##bestamde
##Tasmanien
##detalj
##idaceae
##etapp
##Pant
##Mou
##Sall
##handa
##omys
##tenu
##Portugal
##Zan
##sorter
##1845
##Hub
##Tyr
##halvgrasart
##urner
##storp
##ela
##finnas
##rant
##akantusvaxter
##Jonkopings
##friidrottare
##iao
##antogs
##Tubu
##Ofta
##sate
##odox
##medlems
##Parac
##begravning
##synnerhet
##Pont
##yia
##skydds
##Minas
##punkter
##Phnum
##Gold
##rons
##stone
##delad
##varvades
##slos
##Haj
##Sydafrika
##beraknas
##Kotal
##Associ
##golf
##ospor
##rerade
##toppen
##Lewis
##paborjades
##enor
##1839
##segel
##Ukraina
##sne
##formod
##introducerades
##fund
##flex
##klara
##sangaren
##bandets
##bladloss
##innehade
##Hooker
##funktioner
##fungerade
##Eskil
##Guad
##Pointe
##marna
##rorelser
##mier
##allmanheten
##92
##Rin
##bruna
##lasa
##brasili
##esch
##grona
##zin
##forestand
##stro
##Leonard
##foda
##otal
##bium
##Pampa
##Mit
##lantbruk
##placering
##leuc
##Karlskrona
##avgick
##gjorts
##ocarpa
##Penn
##svavflugor
##klost
##reservoar
##900
##Zap
##Bull
##formellt
##lopare
##Dendro
##veckan
##Canada
##ffar
##laggande
##atak
##aff
##Post
##telefon
##Prince
##ifer
##sjukdomar
##Filip
##origin
##kogel
##vu
##placeras
##tatort
##ioides
##Ordet
##rummet
##chel
##denburg
##avgorande
##nel
##96
##rero
##skommun
##ione
##edia
##Micro
##institutet
##phis
##Ile
##vecka
##Karlsson
##Ake
##Rav
##forhand
##ografiska
##doden
##orgel
##ogi
##Chia
##hjarn
##lanserades
##Tap
##partier
##Hoch
##Hes
##erska
##Fla
##lug
##xen
##hynchus
##ogat
##Lilj
##ilen
##Zi
##medborgare
##syrsor
##Ursprung
##Gha
##gur
##latarna
##Resultat
##Ever
##icia
##ells
##Rose
##xia
##Lux
##akte
##galus
##framstall
##Rhod
##gemensamt
##isering
##yna
##upplev
##upplaga
##Harris
##Nieder
##kopinghuvudort
##Centrala
##eto
##invaldes
##Virg
##tyskland
##berlin
##segl
##torget
##upptradde
##drivs
##Wag
##medaljer
##Lav
##erovrade
##arena
##nut
##enheter
##klatt
##grasvaxtart
##gemensam
##ako
##hackar
##icollis
##cist
##valja
##1100
##Astragalus
##spun
##ulium
##Ernest
##Jin
##Bunt
##figurer
##spelad
##indiska
##uge
##sjalvstandighet
##nack
##hud
##avskaff
##Fabri
##trader
##rosvaxtart
##illon
##ishockeyspelare
##Skelle
##Orn
##stabil
##forklarade
##DNA
##lob
##andi
##gallde
##Ponta
##Prov
##rie
##Armen
##signal
##Dac
##Ret
##sot
##bilen
##Edwards
##xa
##igg
##fortsatter
##isar
##kombination
##Lju
##anty
##kot
##verb
##Euro
##unionens
##edo
##avgran
##Jung
##helst
##mangder
##Alm
##atorer
##cerat
##laggningen
##planen
##zel
##jaure
##Albanien
##honor
##Viktor
##Sap
##Pach
##fried
##ussen
##97
##Minor
##Lisa
##Bok
##talade
##igu
##Egen
##oniidae
##splatsen
##stadsdel
##Organis
##Log
##odont
##intens
##Thi
##karl
##idu
##humor
##smaort
##motorer
##Bade
##Dagens
##belagna
##satser
##befordrades
##bromsar
##villkor
##kiri
##roch
##forsvann
##Anvand
##ctylus
##normal
##brots
##Kins
##Halsingland
##forfattar
##formel
##tillbringade
##Khal
##sadant
##ansson
##Muse
##Emer
##uppgar
##eringen
##entre
##kretsar
##Maurice
##fav
##inred
##Gunther
##Drosophila
##litterara
##formade
##arch
##Bebyggelsen
##listiska
##husflugor
##skild
##ilum
##Skog
##resi
##partik
##radd
##sific
##akantusvaxtart
##Fall
##IT
##lyckas
##lung
##tillat
##Montag
##نگ
##oller
##ardi
##grundare
##melan
##Xen
##itus
##gjorda
##beslutet
##Allen
##ministern
##huvudorten
##kapit
##avdelningen
##representant
##malvavaxtart
##sjunde
##befalhavare
##decen
##ithecia
##Sefid
##Roger
##kompositor
##kanadensisk
##kravs
##Kors
##essan
##siffror
##kravde
##yns
##rinner
##assa
##Vattendraget
##etisk
##sannolikt
##vem
##lich
##tatus
##Blekinge
##Hid
##motet
##Butler
##91
##ikan
##AS
##Asa
##mog
##beteckningen
##Kani
##lyst
##Lucas
##house
##festival
##Coc
##Sachsen
##lussteklar
##Kamen
##foljdes
##Ostazarbaijan
##isi
##fattig
##Thunder
##cat
##olje
##grenar
##brakenvaxtart
##sle
##flen
##Occ
##jamfort
##94
##aterkom
##jatte
##Tibet
##drabbades
##Eupithecia
##Rhone
##neut
##Reger
##texamen
##usik
##kraftdjur
##skulptor
##Motor
##bella
##Ulf
##Europ
##skaps
##teolog
##hantverk
##oser
##head
##lagda
##Nomos
##Montreal
##ovanligt
##bef
##draft
##coides
##howr
##Katal
##gifta
##konserter
##kvadratmeter
##korallart
##neumon
##Mr
##Ratt
##Nig
##ка
##Sport
##streck
##flag
##cio
##bredd
##kungliga
##riv
##mmat
##heders
##doms
##Shak
##antag
##dah
##Ibland
##irus
##typen
##Kerman
##Svea
##termin
##Samt
##illes
##ifoli
##Chel
##93
##Jama
##Group
##etik
##iensis
##Esc
##tals
##ionerna
##cancer
##Schlechter
##Davis
##larover
##observer
##Beskrivning
##filmerna
##stjarnbilden
##Bentham
##angust
##scenen
##Hymen
##Gordon
##tyg
##hyl
##Brachy
##hk
##Brother
##omyces
##Bourg
##ogrammet
##territori
##finans
##arth
##Tysklands
##harads
##tun
##skars
##odle
##Chir
##Fisk
##plex
##herrar
##hammar
##Isch
##Pue
##romant
##manska
##oura
##iza
##Holly
##ukra
##اه
##velle
##Gota
##forsoka
##flest
##Pia
##perioder
##gn
##processen
##hittades
##obsc
##Province
##Kort
##cl
##Hobart
##LP
##ovit
##Karin
##phy
##cola
##handelser
##nigri
##1834
##dykare
##klader
##CC
##likhet
##broderna
##Velik
##tuber
##olla
##poly
##undersokningar
##Angermanland
##utvecklas
##ikt
##Anto
##west
##vander
##syche
##1841
##Azerbajdzjan
##sylvan
##Tidningen
##byran
##frid
##inbordeskriget
##DVD
##1843
##Kinshasa
##listen
##mmel
##segrar
##stadt
##Pett
##tavlingarna
##trover
##opet
##skyddat
##elflugor
##Chung
##manskliga
##paminner
##prak
##Bjork
##Lord
##aster
##Cli
##eriet
##anledning
##Boras
##TV4
##Koudiet
##kropps
##Eumen
##lakem
##ulu
##Taiwan
##heng
##Head
##had
##rane
##takter
##invester
##Dick
##tilltradde
##Cheng
##Sjo
##recens
##rema
##idrotts
##industrin
##Gyll
##fasa
##omradena
##hovet
##marke
##Melast
##1835
##imper
##boende
##skydda
##cata
##utvecklat
##effektiv
##gaster
##bard
##bars
##belg
##front
##arskontrakt
##Camer
##sius
##mers
##borrflugor
##IP
##hind
##natverk
##bang
##mission
##konsul
##sys
##GP
##enay
##avlag
##ube
##tonsatt
##sagt
##seri
##andras
##rorsbladloss
##pic
##konstit
##undi
##langrorsbladloss
##enz
##Hamburg
##atel
##bosatte
##ysia
##frivil
##Europe
##kirimoj
##pool
##janst
##ugis
##Hipp
##Anderson
##Simp
##hs
##Syste
##'.
##runda
##tain
##uhstor
##Sodertalje
##akut
##split
##ctor
##foretrad
##Svensson
##strackan
##minskade
##radik
##iane
##uteslut
##serb
##yya
##iven
##vistas
##Carlos
##mojligen
##Cob
##ifera
##Barrage
##220
##studentexamen
##acruz
##forekommande
##hamnen
##Dh
##bildat
##Ovriga
##kapac
##etablerade
##Ow
##gades
##terad
##selia
##borgerliga
##ance
##verkstallande
##kopf
##konstnarer
##territoriet
##Naz
##BM
##forbi
##jin
##Rha
##varum
##klassisk
##Sala
##jarnvagen
##Kro
##Negro
##kanon
##symboli
##1837
##Kak
##Nis
##Simulium
##Avrinningsomradets
##opteryx
##Sham
##iled
##banor
##kackerlackor
##Puc
##sler
##uppre
##forsaljning
##nadssatt
##karakt
##kyrkliga
##framgangsrik
##formad
##orelsen
##Amphi
##undersokning
##Rand
##Ovre
##Medan
##pension
##automat
##House
##borta
##hong
##ily
##lof
##overens
##alkohol
##dle
##tolk
##Pub
##liens
##Normand
##Mek
##tings
##enkla
##kvalitet
##okat
##blomster
##Huset
##tratt
##jatt
##utflode
##Basta
##kunnat
##prin
##jah
##Bagh
##Nes
##verkt
##salis
##hangare
##Company
##ural
##Virginia
##kejsaren
##konflikt
##tagare
##uppf
##chang
##konstmuseum
##styre
##ume
##eler
##Troll
##Neo
##invald
##Verb
##Ya
##Veracruz
##vaningar
##elset
##skarriar
##Chap
##Silver
##Gla
##Karol
##Ves
##itanien
##edig
##fak
##liska
##junior
##Billboard
##orda
##riset
##vagg
##titlar
##odleart
##forblev
##Anis
##Drottning
##rull
##uld
##Kari
##siva
##traffar
##nell
##hona
##Ort
##Golo
##arsus
##Laos
##bockerna
##beteckning
##trafiken
##folkrakning
##Kem
##vilja
##kungens
##smas
##Edvard
##medarbetare
##Banglades
##rare
##elidae
##inriktning
##Alv
##tjeck
##Varmlands
##oglossum
##Abraham
##Association
##begav
##elsson
##Sou
##undvika
##examin
##Melastomataceae
##trafiker
##vanns
##erby
##Beck
##edonien
##luc
##flit
##mant
##judar
##eno
##infekt
##ocy
##1829
##givit
##Linkopings
##Maj
##placerades
##Prist
##ival
##Ster
##Town
##perspekt
##ST
##tall
##reduc
##Norman
##Alp
##drum
##nick
##Handels
##Good
##kub
##ovic
##Liksom
##smor
##Jugoslav
##Cyp
##rim
##forvan
##haw
##demokraterna
##iscus
##jarne
##kvist
##Istallet
##praktiken
##naturen
##storm
##maculata
##Tou
##vavar
##yss
##Felix
##stjanst
##kyl
##Utara
##Wild
##debutalbum
##sarskilda
##Napoleon
##sump
##oron
##mull
##sakra
##sangerska
##myndigheter
##Helena
##Qarah
##Kla
##Gray
##Christop
##svans
##Gom
##majoritet
##Hunt
##iral
##Paso
##Bangladesh
##utru
##kontra
##ccion
##SD
##anmar
##gestalt
##quia
##Palm
##larde
##ratta
##amerikanske
##Flo
##Lans
##jungfr
##ocephala
##rica
##fangats
##enden
##naderna
##Beat
##lamnar
##Northern
##Crist
##grip
##starten
##inum
##utova
##hittills
##insjoar
##Rhyn
##foss
##forstordes
##Louise
##Oct
##Pitt
##bryta
##personliga
##Great
##medicine
##Rho
##Laget
##gardens
##jods
##Boston
##relation
##Tokyo
##radsomradet
##Aq
##salja
##لا
##hagen
##elius
##aktivt
##korde
##pert
##huvudrollen
##Skandinav
##Pico
##1833
##Lager
##fril
##flydde
##Hyl
##Mario
##wit
##stak
##varder
##tillfalle
##aktie
##Charlotte
##rytt
##dras
##uki
##Boris
##Lett
##tidningar
##court
##allierade
##handeln
##avslutades
##Sebast
##Fox
##Rhin
##dygn
##Pul
##forhindra
##,"
##Fruhstor
##rof
##marin
##lokalt
##artikeln
##Fruhstorfer
##ML
##gymnast
##Thu
##Erit
##slutar
##stell
##trodde
##inspekt
##iers
##Nouvelle
##inda
##ljungvaxter
##nordostlig
##kvarts
##Fast
##utvecklats
##nationalpark
##tofs
##utstrackning
##Lennart
##210
##bius
##monark
##Birg
##dus
##atgarder
##harda
##Souss
##portugis
##Angola
##bladsvaxter
##Tomas
##behandlas
##Kanda
##itaine
##Norrbotten
##Skelleftea
##Alan
##bedrev
##Bug
##Bohu
##Schaus
##halt
##fenomen
##Sumat
##Loch
##reformer
##say
##Academ
##Slott
##nav
##jurist
##hebre
##horax
##snyl
##paborjade
##Cari
##manu
##skinnbaggar
##schild
##sater
##urser
##annars
##chs
##orerna
##Lepid
##Feder
##zal
##soka
##tage
##Day
##kategorin
##Hills
##motstandare
##Megaselia
##fara
##onotus
##Cand
##Asc
##deltagit
##Sagu
##gentian
##halsa
##stump
##Enda
##ideer
##planerade
##Pos
##Douglas
##stans
##raka
##beslot
##cou
##utfar
##ariidae
##Scap
##reform
##skole
##malning
##succe
##habit
##gator
##betala
##Scop
##Amm
##host
##produ
##HC
##alism
##mju
##cea
##Sydamerika
##Spa
##Dolich
##Eduard
##Kamp
##mek
##Euphor
##dokumentar
##arn
##skapen
##Upper
##1820
##Ask
##sax
##given
##Old
##anhangare
##Prof
##Arab
##spora
##sonder
##alton
##Open
##Umm
##behalla
##ravin
##Dc
##klassific
##Gosta
##1809
##endet
##borator
##formodligen
##Aga
##side
##amaryllis
##Cetoniidae
##Major
##arte
##Coch
##kulturen
##verktyg
##Serb
##rodlistan
##cover
##lay
##similis
##illustrat
##begransad
##Krit
##rekommen
##mour
##nerv
##pastoratet
##Venez
##livsmedel
##dik
##angel
##Petersburg
##Produkt
##provfiske
##Put
##Pleur
##Mant
##eo
##forra
##right
##Vasterbotten
##was
##Occitanien
##Ric
##tillam
##amper
##Rot
##wana
##Minnes
##pter
##fangar
##kyrkoherde
##bog
##huvudkontor
##vavarspindlar
##Andal
##thys
##utbildnings
##AC
##Tong
##forkortning
##øn
##Parad
##Sarc
##Spir
##tackvavarspindlar
##Sork
##allas
##sistnamnda
##Elias
##areh
##gala
##rio
##pati
##snackor
##Ozero
##lagd
##Hj
##cul
##Gyeong
##ada
##elm
##hasten
##Acant
##opez
##ovich
##bygden
##Dow
##dong
##Familjen
##Aquitaine
##Meyrick
##wak
##ococcus
##parker
##ubb
##priser
##Nicola
##Tum
##Alt
##Curt
##Nico
##fikt
##joki
##Honor
##fodelse
##Church
##cion
##gun
##foreslog
##Rus
##ction
##Lap
##sunds
##more
##Lob
##Sich
##ingens
##kull
##ан
##Hyper
##oplat
##tillhort
##oxid
##Tir
##tavlar
##Alvs
##lattare
##ambassador
##Vent
##Filmografi
##Arkite
##Magall
##forestandare
##ingue
##Ekologi
##Mort
##zyg
##Jersey
##dyr
##kroat
##arium
##dottern
##betyg
##mult
##intress
##basket
##Oh
##behovde
##Kok
##mellersta
##ones
##dack
##Bryssel
##lora
##omon
##dak
##kammare
##analys
##jian
##Rutelidae
##igma
##Gene
##tatorten
##lyft
##ophthal
##ognat
##Magallanes
##":
##utfordes
##radda
##Ahl
##tjanster
##speciali
##stumpbaggar
##Pun
##rion
##domstolen
##hausen
##besegra
##Mira
##pid
##Kopp
##Rol
##bys
##langst
##Emb
##Hun
##meddel
##Ska
##ockup
##ifraga
##Folkmangden
##";
##Mile
##inomhus
##kyrkobyggnad
##klan
##katal
##Esp
##Nationalmuseum
##AT
##kalendern
##Gera
##amb
##steater
##1832
##forkn
##kry
##230
##Stilla
##Kjell
##liter
##Street
##Rothschild
##burn
##Sali
##okad
##EC
##erkan
##Bahia
##Station
##Lea
##Cort
##Ord
##svarade
##forstar
##heli
##grundlaggande
##Ling
##Clark
##Enter
##skapar
##Eumenidae
##invas
##acan
##Cart
##fjarden
##rute
##ettan
##jordbruks
##Fron
##kakt
##Stephen
##entris
##forbud
##strider
##cout
##esa
##andel
##testam
##Fors
##trar
##furt
##kommitte
##Georgien
##Gotlands
##ersson
##domare
##Myanmar
##elit
##strang
##erbott
##upptackte
##skilja
##1836
##plant
##Sip
##opio
##mening
##mari
##yar
##Meli
##lyder
##Serge
##Russ
##yton
##Auver
##sjost
##Windows
##daligt
##term
##Liby
##Arena
##ouan
##Trig
##Comte
##gruv
##Hjalmar
##rosa
##Phila
##torg
##cili
##betyda
##inspi
##Tow
##senast
##Sher
##anka
##avancerade
##jning
##lanta
##ylis
##nominerades
##vinrute
##water
##hemmet
##disput
##korsblommiga
##ologiskt
##Macro
##snyltrots
##broll
##350
##vagrade
##Abd
##Loren
##Lof
##etown
##maskiner
##Bibli
##Buntu
##foras
##riddar
##Ame
##Wis
##meters
##Paz
##sledare
##Inge
##strar
##pressen
##Auvergne
##kommunikation
##granser
##utbildningen
##Cav
##edom
##olin
##anvant
##traditionellt
##Normandie
##alem
##jara
##ctic
##Kav
##ður
##kompan
##Slaget
##Veli
##veget
##slutt
##kompani
##vulkan
##Acanth
##ypha
##lejon
##uensis
##befatt
##husets
##jamte
##Konstantin
##egypt
##Christina
##mojligheter
##Lant
##kackerlacksart
##arkiv
##vaningen
##genomgick
##avhandling
##Vig
##stilen
##Claude
##uppstar
##valv
##synlig
##feren
##Wahl
##stiska
##Dendrobium
##plikt
##tunga
##kanten
##inb
##slosa
##trapp
##Saguenay
##Wars
##Fredriks
##sidae
##administrativt
##Jordan
##240
##found
##Pac
##havdade
##tabell
##ugg
##reserv
##opsyl
##sind
##beton
##analy
##anas
##Ting
##yds
##py
##strum
##digit
##Jud
##varpa
##ocerus
##ljungvaxtart
##Ghowr
##deh
##bebyggelsen
##sia
##skilt
##Kristina
##Urban
##Guds
##medaljen
##vakien
##opis
##Rolf
##massigt
##sjof
##politiken
##amarant
##Brian
##Zem
##fos
##gram
##brant
##sekund
##restaurang
##Joe
##passerar
##Egenskaper
##sling
##Oskar
##iten
##motorn
##fristaende
##satsen
##Harald
##Mesa
##Net
##aterkommande
##kvarn
##pion
##Harri
##glaciar
##Nelson
##Set
##Vinter
##opod
##pho
##anim
##Garden
##driva
##bonde
##Koch
##Chin
##muslim
##ortodox
##key
##lanssteklar
##ophy
##operan
##Rodrig
##finglanssteklar
##Buck
##Chiapas
##helik
##utman
##staller
##Kunt
##Fem
##ophus
##Andalus
##valen
##tagna
##foregaende
##tillhorighet
##bagge
##Bala
##peran
##icana
##blommig
##gracilis
##damer
##Ace
##anensis
##vardet
##forfattade
##Carlsson
##Zo
##nats
##trum
##Folket
##aktig
##torr
##lart
##hult
##skatte
##Tul
##sakert
##cana
##Allt
##omorpha
##terror
##Peg
##nisk
##lick
##ifrons
##Sas
##stuna
##antyder
##Uppland
##brytning
##Nicholas
##kemi
##strup
##Forest
##ungdomar
##Blo
##judiska
##Dolok
##skyrkan
##perspektiv
##Kash
##Saf
##litteraturen
##Chryso
##kata
##fac
##Paret
##utgang
##Norges
##Hapl
##obi
##karr
##veta
##Nordiska
##anklaga
##umi
##kortvingar
##Adri
##Aboland
##End
##population
##Cit
##skapat
##knappt
##Out
##inidae
##lader
##okand
##kvall
##Hann
##Prote
##Amerika
##Bron
##snabba
##svampmyggor
##diskuss
##Mikael
##Giov
##Qor
##Opp
##ous
##ellet
##frag
##Islands
##otrop
##vinde
##formed
##istiskt
##ombord
##hony
##Meta
##stjarnen
##eteck
##magasin
##jubil
##integr
##ovanfor
##bah
##behandlar
##Leip
##Lun
##Margaret
##brod
##lod
##xis
##konsten
##Ej
##aterade
##hamnar
##arig
##ockuper
##kora
##landskamper
##Did
##blatt
##ping
##blik
##Norte
##livsmiljo
##nin
##forr
##metoden
##hebreiska
##1815
##skeppet
##ES
##ovans
##losning
##Daremot
##utomlands
##antog
##Sex
##Bergen
##borgmastare
##tillverkas
##dokumen
##cina
##Bert
##Team
##Muham
##cri
##Latlista
##Cin
##uga
##staka
##halvan
##vagbin
##utform
##sphaer
##samhalls
##beteende
##utz
##absol
##Four
##varade
##stalle
##Phylla
##gotlands
##alon
##Mande
##Arist
##Kec
##cylind
##sammanslagning
##idens
##ruc
##forlaget
##artica
##Championship
##sexuella
##Um
##Fabricius
##skare
##Boul
##omedelbart
##tvungen
##Sjal
##cre
##pent
##anor
##Melodi
##Ech
##jerna
##kis
##wat
##aljer
##raten
##Marshall
##Ble
##sjob
##manliga
##Holland
##Cocker
##Alf
##fastlandet
##Arne
##smak
##sjukvar
##ukas
##emia
##omnamns
##Bois
##musikalbum
##Miller
##saknade
##femin
##Baku
##emellan
##incta
##Fel
##zy
##ledar
##Forn
##poet
##Amazonas
##rorande
##Dys
##Fod
##ches
##kraftverk
##engagerad
##beholl
##molek
##Eritrea
##Fle
##Peri
##lind
##speciella
##attle
##rier
##tillvaxt
##hias
##egel
##forsamlingar
##hers
##belonades
##Chilena
##teh
##nedre
##yas
##slotts
##habitat
##Cienaga
##Hansson
##issima
##adels
##revis
##dalena
##Canal
##kine
##tia
##Form
##bladsvaxtart
##ktioner
##hittas
##Bruce
##skyldig
##inspelningar
##Valley
##semifinal
##Culi
##sney
##stierna
##Marc
##!"
##utfora
##halso
##ombildades
##puckelflugor
##elus
##tillag
##Aer
##Fischer
##nederlandska
##bottens
##askadare
##tillfalligt
##rina
##turn
##barnet
##Stone
##hm
##riktigt
##Nick
##hyll
##huvudsakliga
##riksdagsledamot
##Skivan
##Newfound
##magnet
##hyr
##sallskapet
##Dramat
##uropa
##Moritz
##lasare
##Sundsvall
##Hollywood
##minskar
##juridik
##manniska
##tavla
##stipendium
##spelarna
##asiat
##internet
##venemang
##uelo
##Antartica
##Habit
##kyrkogard
##trasket
##overtogs
##Trin
##Fart
##obal
##hira
##bearbet
##formogen
##foreningens
##Elizab
##Venedig
##ambetsman
##klostret
##uru
##marknad
##sterdam
##Parana
##nationell
##Rak
##smitt
##grupperna
##igang
##ritade
##datab
##1824
##spat
##idendrum
##beslakt
##okon
##visst
##hushall
##andamal
##Kala
##partiled
##Bourgogne
##angi
##shan
##Verde
##Micros
##Hela
##Helsingborgs
##stapel
##morka
##Dhaka
##rand
##1818
##ygen
##Epidendrum
##stach
##ners
##stallda
##jagar
##enson
##heder
##georg
##kusin
##storharkrankar
##skala
##odling
##ritades
##populart
##wich
##heta
##knyt
##samlarbin
##Bid
##Disk
##Grev
##anstallning
##illy
##Amsterdam
##sangerskan
##1828
##osterreich
##falz
##klubbens
##Potosi
##vackte
##Jonkoping
##Eskilstuna
##Lie
##kard
##mah
##intressen
##buksamlarbin
##Labrador
##Phyllach
##smalt
##Oliver
##ер
##kvalificerade
##nica
##pak
##bruks
##Manchester
##Mut
##ochrom
##avsloj
##spitze
##black
##prog
##ienne
##tagits
##Patrick
##ylum
##matematik
##zona
##samheten
##framforde
##Universitet
##iserades
##insats
##Cameron
##Symp
##medverkar
##iton
##Samtliga
##forvaltning
##pali
##djurart
##Bayern
##presidenten
##horns
##Ian
##Nak
##starta
##1810
##betong
##alens
##Skolan
##Andalusien
##Newfoundland
##Hugh
##Damernas
##hiz
##latskrivare
##solens
##orange
##magister
##Dasht
##idaw
##Braun
##icha
##Giovanni
##Lig
##segern
##marg
##jarna
##Dz
##fjord
##godkan
##Fritz
##neby
##AR
##rikets
##Up
##fili
##grundat
##forvand
##Ericsson
##work
##Elmer
##Luxem
##konsekv
##Kell
##Rou
##imal
##uay
##Ghana
##ledamoter
##foresprak
##ual
##egal
##presenterades
##reppet
##emblik
##Euphorbia
##bygds
##ypy
##Frankrikes
##rosterna
##Numera
##vits
##Karlstad
##branschen
##skytt
##annon
##Llan
##borre
##Marcus
##Schmidt
##Gerais
##caceae
##ege
##Id
##forber
##foder
##Fly
##lider
##kontrover
##atervanda
##qua
##Tanger
##skoldlussteklar
##Pennsylvan
##ljusar
##Thailand
##kallats
##kaktus
##ER
##Falls
##Vat
##skrid
##Cockerell
##pack
##foregangare
##Syds
##Veliki
##Katalonien
##Kurt
##Kvarn
##Ral
##jala
##lada
##Frans
##cula
##tolkning
##sjalvmord
##Elizabeth
##umat
##ische
##Birger
##anlaggningen
##eftertradare
##algo
##ogna
##Illin
##iskan
##Schwar
##respon
##jing
##syre
##byggts
##xamen
##plast
##bats
##tiderna
##Jim
##cast
##Georgetown
##noll
##Karls
##Nea
##fods
##Trad
##Hauts
##Litau
##Tad
##felakt
##Alli
##nun
##State
##anlande
##uppman
##sklubb
##fald
##enus
##ree
##Deh
##Time
##neur
##stallt
##Jugoslavien
##artade
##gler
##budd
##skans
##sagas
##textil
##kampen
##bic
##buss
##ming
##Cephal
##Flat
##fatal
##ento
##Arm
##svenske
##نه
##faderns
##aridae
##agh
##Stro
##wah
##سر
##befann
##komedi
##Juni
##asy
##Cambridge
##witz
##konver
##elserna
##Drae
##Eut
##konkurs
##Fas
##Rhein
##ymer
##inton
##daggflugor
##Jules
##kraftig
##nagare
##PC
##Internet
##Tabanus
##Kv
##leddes
##Harjed
##yak
##ekonomiskt
##listor
##inet
##betydelsen
##flickor
##Guadal
##tempel
##spis
##Xin
##onto
##Inte
##Ass
##Olig
##desmus
##bergstra
##publiken
##inhem
##attonde
##Alg
##byggnaderna
##Hex
##chon
##sjunger
##kvinnan
##Naypy
##kretsen
##Naypyidaw
##Kvinn
##emer
##1831
##osterrikiska
##Society
##2021
##Rumanien
##Antio
##Corn
##uno
##borgen
##piano
##uit
##hanen
##1819
##Franche
##justit
##sark
##erbjuder
##nyckel
##):
##Gira
##regisserad
##Shin
##pagick
##county
##Carex
##taket
##valda
##Main
##skilde
##Embrik
##iran
##vaxande
##Dres
##proces
##ersatta
##tidskrift
##tavlings
##enbach
##strackt
##breda
##Koudia
##linge
##Werner
##Kit
##wil
##avser
##kurs
##dottrar
##utton
##Svenskt
##stranden
##lakemedel
##othy
##soarna
##ovice
##darifran
##Massachus
##Erich
##Lot
##yli
##harmon
##Darwin
##Sla
##Leop
##SF
##1825
##dirigent
##Sma
##skand
##Massachusetts
##Gn
##sakerhets
##tens
##yte
##Gill
##seras
##uco
##Darmed
##organiserade
##opoda
##skickade
##pupp
##kinestrads
##Norrbottens
##Lys
##Param
##Semi
##utgivna
##Drew
##budget
##Europas
##Hoff
##helgon
##rence
##maleri
##sjukhuset
##Cac
##Ljus
##Dim
##ariska
##mottog
##Antioquia
##utexamin
##namnen
##knut
##Ostersjon
##sanddyn
##Slaktet
##tea
##agna
##byar
##vitj
##Television
##fahan
##ladder
##neri
##Mell
##Spen
##uppfattning
##Hammarby
##Pow
##shi
##Nobel
##hann
##Lith
##manuel
##matning
##steatern
##Sci
##passa
##Fro
##Carlo
##kinesisk
##Eun
##jum
##arier
##1814
##departement
##Tallinn
##Bolagh
##rundmaskart
##Card
##Show
##okant
##pod
##filmat
##Halland
##regent
##misslyckades
##Claes
##phus
##ummer
##pression
##tycks
##kali
##anlaggning
##Homer
##ww
##biblioteket
##Pros
##sekel
##fortro
##omi
##orea
##trummor
##Ced
##trea
##praster
##Selatan
##nivaer
##Clad
##Yaz
##cost
##deltagande
##punctata
##isp
##Omkring
##licent
##olata
##usch
##sparken
##regionala
##identifier
##pulch
##Aker
##amba
##fargen
##beln
##Kuopio
##Golden
##bygget
##forsvaret
##Person
##gymnasiet
##Bali
##dur
##ingi
##Inloppet
##butik
##Gutta
##Oak
##underjord
##1826
##Bernard
##atorn
##Jerus
##vaning
##Kenora
##kapacitet
##Valencia
##bataljon
##HD
##gjut
##ovansidan
##Kosa
##GA
##etc
##malvakt
##Nairo
##SE
##drevs
##uppfinn
##Gren
##cali
##utokades
##forsam
##lektor
##tull
##polsk
##besokare
##Christopher
##parat
##Shir
##Whit
##turnering
##hustr
##opsyche
##blandade
##Magdalena
##Lena
##margin
##Trop
##dryck
##aktenskapet
##div
##Minsk
##civila
##Disney
##framtida
##inensis
##Sound
##ulidae
##Obsjtina
##finsk
##Kad
##bist
##domar
##stodde
##arrester
##Kang
##Wallen
##ng
##ratal
##kommissionen
##Cel
##Gru
##Live
##hansyn
##ianum
##materialet
##jat
##lott
##enkl
##Haiti
##geme
##bruck
##jaren
##eor
##Road
##anlit
##Drag
##sinstitut
##sie
##Volvo
##ambetet
##katt
##Lei
##Glas
##Night
##bow
##Pennsylvania
##homo
##Thomson
##Sve
##Illinois
##vey
##Kirk
##hio
##strad
##demokratiska
##palatset
##jab
##uu
##Alta
##fangen
##dvs
##rostning
##sant
##undervi
##singlar
##Merrill
##asp
##assistent
##Skov
##scener
##Venezuela
##pli
##deleg
##His
##Sed
##1823
##Phan
##رد
##pros
##paris
##Morgan
##trupperna
##Leo
##Hast
##inspelning
##Halmstad
##Wei
##lord
##tez
##rou
##kordes
##mjolk
##Iz
##Push
##soker
##Spin
##amerikanskt
##Nairobi
##nett
##Hitler
##',
##volution
##تل
##Nad
##tydlig
##grov
##Premier
##cock
##amik
##Tara
##skrivs
##Amph
##hui
##vaxel
##ollo
##Mod
##Huidu
##fungera
##nederlandsk
##tryckt
##Regional
##ografiskt
##inspiration
##1812
##fargade
##Leipzig
##esen
##arenan
##stadion
##berattelse
##hundar
##Gag
##varken
##1816
##Neph
##Halle
##Ytterligare
##ulins
##tyske
##Bjorne
##Ivar
##Dir
##ionde
##fagels
##Alice
##Holstein
##Visby
##Pargas
##landsting
##Bed
##syssel
##Tony
##real
##iki
##forenings
##Lamp
##atskil
##Ridge
##Territory
##feldt
##ross
##Reka
##bent
##Kurdistan
##esv
##grundad
##Vista
##republik
##forbundets
##boda
##Dak
##ID
##forlorat
##havdar
##ict
##Foot
##ær
##ulatum
##fina
##arum
##Modern
##domsaga
##utredning
##ieri
##Broad
##tronen
##frekv
##licentiat
##skida
##forandring
##pach
##naturvards
##fett
##verkstad
##ecil
##samla
##hier
##Bromma
##krypare
##angan
##scens
##ls
##lach
##opon
##akvar
##ija
##etis
##tema
##ademin
##Hidalgo
##Agari
##stiftelsen
##bitradande
##here
##Philadel
##plus
##byta
##kunder
##Bruns
##skrivet
##regelbundet
##tyckte
##standig
##intresserad
##paverkar
##Kann
##vileg
##elong
##Utan
##Emma
##odiidae
##delningen
##Bonnier
##handelse
##Toronto
##ranunkelvaxter
##ospora
##Kyrkobygg
##hockey
##Bertil
##banden
##Lincol
##Peder
##Tin
##lism
##samiska
##stallningen
##Jav
##Shela
##skur
##verken
##amerun
##Danmarks
##spridning
##Nicar
##Amar
##Edmond
##Ostergotlands
##Alexand
##vivlar
##Zur
##kli
##tvar
##alltmer
##bokstav
##ungerska
##expedition
##opar
##agdes
##Blanco
##stravbladiga
##Provincial
##Stift
##Frederik
##besvar
##Chris
##Brandenburg
##Birkal
##potent
##yga
##uppfora
##heliga
##sallsynt
##erbottens
##oh
##manen
##minsta
##stickmyggor
##fant
##undersidan
##Viti
##spetsen
##Hua
##angare
##Industri
##nasseldjursart
##entes
##tanke
##gium
##Cyrt
##rese
##forny
##ffen
##Plag
##Rig
##Eugenia
##Dri
##repar
##ctes
##butiker
##ansvaret
##with
##bokst
##service
##konservativa
##Oax
##Tava
##udden
##bonder
##oversattare
##Libyen
##oen
##phan
##Rhy
##sparet
##forvaltnings
##elegans
##semifinalen
##sjun
##kommunala
##ledaren
##LA
##Baden
##enstaka
##utrym
##freden
##elos
##Stri
##lokali
##kyrkbyn
##radar
##backa
##Milit
##store
##oslo
##dynastin
##Disc
##socker
##Botten
##omma
##befri
##resan
##skadade
##Sangen
##blan
##rans
##kommitten
##myndighet
##Gyllen
##Zhang
##stafett
##Rick
##prinsessan
##osterrikisk
##turist
##Lyck
##annex
##cheong
##Panama
##Esfahan
##hugg
##bind
##Liver
##sands
##Sichuan
##Vor
##gravar
##Shelah
##genomfora
##hundratal
##260
##vila
##inforli
##medforde
##foljt
##Mez
##Norrland
##uman
##omgangar
##delat
##hjalpte
##fursten
##Partiet
##Endast
##Jerusalem
##Rena
##dodades
##vinkel
##alerna
##korg
##bransle
##teorin
##diverse
##Hof
##temot
##opterus
##racing
##Steve
##Coel
##intraffade
##ithi
##isra
##verkliga
##sattet
##esvampar
##human
##Hack
##dale
##1827
##latinska
##flyttning
##varu
##mordet
##handlade
##lossa
##bac
##Culicoides
##Petter
##Rapides
##fakult
##stot
##foretradare
##tofsspinnare
##mota
##omoj
##tii
##lamnades
##burgh
##pig
##mern
##kronan
##fronten
##ansikt
##Dendr
##moten
##fix
##1790
##Tammer
##utforda
##scha
##Kieffer
##naturligt
##biskopen
##ła
##korrekt
##Series
##onne
##Stjarn
##bura
##tvan
##egenskap
##korsblommig
##overstelojtnant
##Linn
##export
##Rain
##ljusare
##observ
##jia
##hovd
##ryggen
##soldaterna
##grodor
##dominerande
##stadsplan
##skett
##amatan
##leds
##skillnader
##Milj
##slok
##Sok
##Eugene
##atmos
##underart
##aktiviteter
##Gabon
##لی
##arliga
##vacker
##Palindi
##Lidingo
##Boll
##Lopez
##ores
##dero
##darigenom
##Bergs
##Sebastian
##karp
##arkebiskop
##Institute
##forkortat
##Key
##opul
##klor
##mira
##skrack
##America
##Bernhard
##Fotboll
##CO
##glad
##zburg
##opteris
##huvudrollerna
##Enc
##dimens
##fordraget
##spraken
##sjalvstandig
##Gara
##inkomst
##jobb
##ев
##manniskans
##parten
##romia
##Bru
##Aar
##cle
##perna
##nationellt
##stuga
##forknip
##flertalet
##Mike
##cilia
##1822
##Lovisa
##Sale
##olycka
##framfordes
##utexaminerades
##Galli
##Pang
##vich
##Falken
##Mitch
##uy
##huvu
##Lug
##Tres
##ophan
##fargad
##ichi
##Zel
##seled
##Tw
##inforde
##Augustus
##cephal
##moter
##nie
##seat
##360
##lyckats
##nordisk
##fastning
##spektral
##Kecamatan
##anteles
##Tammerfors
##jamn
##luften
##felt
##ppi
##Robinson
##pagne
##Bohmen
##hura
##ongo
##Cook
##skillnaden
##igera
##akry
##tusen
##Bates
##arrangerades
##bestamm
##kejsare
##fladder
##drab
##oux
##profil
##unculus
##Cross
##alit
##celi
##radgivare
##alistiska
##bicolor
##bergia
##videon
##Sumatera
##sov
##kapital
##Nunatak
##gentemot
##imer
##pafagels
##rem
##marmor
##riken
##officerare
##Pena
##Guerrero
##Ok
##any
##hallare
##Meyer
##forvax
##bidra
##Chungcheong
##nets
##spark
##protester
##Anvandning
##Arag
##Lagoon
##ique
##raea
##staben
##1821
##yrmex
##Wad
##karakter
##miljoer
##sae
##mannia
##Dalton
##Tes
##basidi
##mojligheten
##bem
##avut
##plet
##Sture
##pit
##Asmara
##ligga
##Dasy
##Dio
##ند
##livstid
##Murray
##avlingarna
##cam
##nt
##Begreppet
##DC
##brodern
##sagare
##Levnadssatt
##Oaxaca
##Siyah
##Nicolas
##sluta
##rice
##ocken
##Cho
##zawa
##Ryd
##yler
##Pachy
##turkiska
##Scopula
##Pfalz
##ossa
##hold
##loven
##edda
##koret
##Tyska
##avs
##fords
##basidiesvampar
##densis
##slutspel
##tradgards
##1808
##tob
##pojk
##Tetouan
##sound
##indelat
##lot
##beskrivning
##altar
##ionella
##ografer
##dialekt
##atu
##umer
##alais
##Lasioglossum
##naturvardsunionen
##otea
##storps
##Solna
##tropiska
##Serie
##orr
##Hei
##Brunswick
##AP
##generation
##Racing
##Programmet
##fiskals
##goras
##skickades
##rips
##exakt
##sele
##Strax
##sakrist
##Lore
##Conakry
##asteroidgruppen
##mom
##Leeds
##ai
##acken
##ryt
##kanaler
##medicinska
##Achille
##Philadelphia
##mjuk
##hems
##trav
##ness
##Line
##Base
##ipa
##ivag
##paverkan
##lake
##Gy
##rena
##bevak
##ulin
##leby
##drogs
##striden
##datorer
##resurser
##270
##teknisk
##mikro
##korpor
##Montagne
##Zyg
##situation
##betes
##jeh
##Moder
##Sainte
##1758
##katoli
##flamm
##Preussen
##Indiana
##Raymond
##Ater
##omlopp
##fororen
##illar
##juris
##iona
##Lip
##forela
##Benjam
##regeringens
##gilt
##ativt
##jordens
##Hakan
##evangeli
##argent
##inium
##alom
##tillverka
##Falk
##Jamtlands
##Nunavut
##apotek
##tillverkare
##Mauret
##skyrka
##stralning
##marskal
##Haute
##Kou
##bakter
##kampanj
##ulum
##oso
##turen
##Lod
##1817
##Valde
##traditionell
##anah
##Aphodiidae
##Lawrence
##Sep
##itas
##balsam
##onomus
##myndigheterna
##detaljer
##byggandet
##tjugo
##Kand
##Pent
##frik
##vilar
##ckar
##Hardy
##inrikes
##imi
##Bergman
##disputerade
##sporten
##ramer
##Olle
##Kyrkobyggnaden
##thon
##DR
##Syzyg
##Shang
##tyng
##orin
##medborgar
##sac
##kraftiga
##forslaget
##emann
##Queen
##herrgard
##ridae
##saka
##traditionen
##skrigets
##Hedvig
##Nicaragua
##komsten
##Anthony
##Arnold
##Antoine
##Commun
##ра
##allsvenskan
##kongres
##uridae
##Hydra
##galan
##manusforfattare
##Fagel
##khan
##ury
##siden
##artiller
##skildrar
##uber
##ин
##ights
##Klubb
##Riddar
##sniva
##innefattar
##mojliga
##Velika
##Herber
##oo
##tacka
##Nyheter
##dansflugor
##loper
##ranunkelvaxtart
##Ding
##show
##producera
##atskilliga
##Ryss
##kansli
##astad
##1775
##flytande
##blot
##Echin
##akter
##inspelningen
##Row
##landsoarna
##otiska
##ienter
##dagarna
##vagarna
##ehamn
##fogder
##Gum
##Zhe
##paven
##presenterade
##entals
##Burundi
##handlare
##hornstritar
##Bohuslan
##osoma
##Prog
##Montana
##Kosovo
##Astana
##bestand
##edit
##utsmyck
##Harold
##jungfrulins
##team
##konen
##natet
##Try
##XII
##Idi
##Tobias
##nattslandor
##produktions
##snick
##market
##Harnos
##utbildad
##tillforord
##Norrkopings
##alfab
##brotts
##bestammer
##Vita
##gyll
##Rafa
##Sho
##helg
##inspirerad
##Strang
##marsch
##Anomala
##saken
##Rudolph
##affars
##Nac
##jade
##uka
##utus
##roa
##Aleksand
##Lum
##obra
##Sodermanland
##gitarrist
##Clem
##rosen
##skivbolag
##Olat
##Schw
##Seh
##fallen
##Eleon
##Cem
##SP
##vild
##variabel
##narliggande
##quer
##asu
##Kiruna
##Aw
##uppford
##quen
##Kristus
##سی
##inos
##Medlem
##Mauric
##cz
##hallandet
##Litauen
##sjop
##imb
##oon
##vr
##mane
##djuren
##Map
##Pab
##bildandet
##kari
##minerar
##Luxemburg
##ochilus
##brach
##hren
##sidorna
##splatser
##alog
##See
##passagerare
##illing
##utgrav
##Jok
##gg
##1813
##Hansen
##Sphaer
##fastigheter
##nyligen
##tyder
##Jamaica
##smek
##kallavaxter
##vetenskaplig
##Shet
##mottes
##Samman
##atiska
##darav
##staty
##eliaceae
##ол
##Sey
##radie
##Milano
##Oden
##uil
##seriet
##Blanca
##Melodifestivalen
##SO
##svarmare
##Petrov
##slutspelet
##Tach
##Northwest
##individuella
##cli
##stim
##benamns
##cien
##omum
##Mauretanien
##proff
##ellata
##Allan
##professionella
##positiva
##hing
##Gesner
##skift
##ogel
##plattmaskart
##bergstrakter
##Syzygium
##Doc
##TA
##rundan
##blem
##Vagen
##Privat
##Astr
##bronsal
##²,
##instift
##hax
##odinidae
##Minnesota
##Zab
##vaggar
##Vari
##liaceae
##Ohio
##Sigism
##Nedre
##raden
##eterna
##Media
##beskriva
##flackar
##Born
##Vu
##uppsattning
##kroppslangd
##Shen
##Swe
##Prins
##Lasse
##Serbien
##Nip
##Hanna
##flygplanet
##rap
##hemman
##Glyp
##favorit
##ional
##biografi
##Gottfried
##Gradina
##overen
##friherre
##Pho
##avsikt
##Chamberlin
##folkmangd
##lii
##opor
##mater
##plots
##Vasterbottens
##Bond
##ulla
##koncept
##mineral
##teorier
##skande
##musikaliska
##Lindberg
##berattelsen
##Liverpool
##zj
##stena
##Wie
##laborator
##diff
##klok
##stycke
##jamforelse
##uku
##Gesneriaceae
##tepec
##faktorer
##Idaea
##bunden
##rekry
##jana
##Parap
##only
##Druce
##Qing
##SL
##Tomm
##Tbili
##born
##Frances
##fasciata
##Guadalupe
##dalig
##rann
##relationer
##rekordet
##Roman
##ekv
##fattiga
##utlan
##trollslandor
##Georges
##koncernen
##stolen
##Pettersson
##forsvara
##Ursprungligen
##Hosten
##Wes
##Boz
##stanna
##Graham
##orsakade
##Shel
##intresserade
##forestallningar
##stare
##arsskiftet
##skikt
##color
##Skanska
##genren
##vattenfall
##naturskyddat
##Vetenskapsakademien
##katastrof
##enta
##tidskrifter
##studerat
##Motala
##Tbilisi
##blomsvaxter
##Qol
##Oliv
##sjalvstandigt
##Sorkh
##Benjamin
##inta
##ely
##fect
##ditt
##kommunistiska
##gitarri
##Nua
##Pare
##essor
##hima
##giz
##svarigheter
##inclu
##kulturella
##coc
##intryck
##expans
##Box
##fangsla
##doptes
##Roll
##Cela
##hattan
##Ela
##skom
##igny
##byttes
##utsch
##tap
##abborre
##Tors
##Gymn
##gnagare
##ijer
##rass
##dotterbo
##Wul
##fro
##syskon
##minskat
##hiza
##Meck
##benamningen
##Bild
##Marrak
##modifier
##engagemang
##ladius
##Leopold
##BBC
##avtalet
##tanter
##Wagner
##uns
##stracka
##upproret
##vackra
##kvart
##FK
##fral
##Uran
##kamer
##ulon
##rox
##ypter
##Tax
##unnen
##Arkitekt
##Mud
##lagervaxter
##dac
##slaktingar
##stravbladig
##puppglanssteklar
##popularitet
##mott
##trott
##attacker
##statistik
##jordlopare
##erbjud
##givning
##melodi
##Skepp
##Yukon
##Elitserien
##Drak
##Scen
##offens
##motsats
##Hoc
##Taza
##Ekman
##Punt
##fundet
##Indivi
##erfar
##backhopp
##fjad
##alternativt
##nal
##angaende
##tillverkad
##king
##graven
##System
##Game
##Limn
##slide
##Kalle
##uppvaxt
##Akademien
##Frey
##Mull
##oplus
##novell
##sumpmark
##medier
##agaren
##plock
##heus
##Mina
##espe
##flyttar
##kollektiv
##blivande
##cond
##Zhejiang
##ulis
##quart
##gart
##tander
##utvecklings
##uppehall
##Ronald
##Krim
##emig
##helhet
##Kanal
##Marrakech
##Becker
##halva
##kostnad
##forna
##ovs
##franske
##tradgard
##ific
##pepparvaxter
##muren
##1789
##ен
##reformat
##bely
##omya
##slor
##militart
##seledamot
##Oran
##overgang
##operativ
##rera
##invol
##foretagets
##violin
##lers
##riddare
##Xanthop
##ᅩᆼ
##kyrkogarden
##kannetecknas
##pafagelsspinnare
##Ts
##amator
##Book
##Projekt
##infanteri
##Yazd
##Via
##gis
##Asplen
##resande
##firman
##ongen
##stodja
##pepparvaxtart
##Nob
##barns
##rax
##forluster
##Individerna
##forklaring
##Ahmad
##Fame
##alyp
##forekommit
##Lista
##baten
##Barbara
##yllus
##Forenade
##talande
##Vap
##morgon
##ussel
##Emile
##fiken
##garnis
##Lop
##Radi
##Tens
##cinia
##Wright
##odyn
##nejlikvaxter
##spott
##Keith
##Crot
##gaz
##TH
##Demokrat
##Adams
##larar
##skede
##Awards
##illas
##ilong
##law
##sytan
##Inre
##iventris
##magn
##Sommaren
##Lhasa
##ogo
##stret
##Metrop
##provis
##Hat
##utmed
##1793
##Cour
##Cres
##smala
##vivevaxter
##Boissi
##Opius
##avsedd
##originalt
##exkl
##owski
##utsedd
##gh
##utbyte
##upplag
##starkare
##murar
##Yan
##gio
##duk
##Pres
##hao
##Beni
##dragen
##Lecan
##produktioner
##valjer
##Forster
##Kaw
##Anop
##280
##bundna
##uez
##oire
##backslandeart
##situationen
##iste
##styrkan
##jubileum
##ologer
##hinder
##skoter
##Brev
##Sina
##ekul
##Dothi
##Hawa
##benamning
##Oua
##rora
##ombud
##upply
##ythr
##foretog
##gemenskap
##bav
##stille
##Gan
##rocer
##arist
##hew
##riktade
##Dead
##dies
##kallavaxtart
##utgava
##Tand
##Linda
##Sodermanlands
##inflytelser
##Forsvarsmakten
##Conne
##ochaeta
##iman
##pera
##play
##Luft
##sau
##1801
##styrelseledamot
##lagervaxtart
##gymnastik
##iba
##vre
##foran
##konferens
##leddjur
##Sout
##Skovde
##IN
##gross
##Kus
##Sik
##overra
##simm
##nodvandigt
##lyn
##styra
##omnamn
##Bromeliaceae
##itra
##sinn
##Fat
##Pes
##midae
##Phys
##Capit
##cras
##skug
##Coqu
##olleh
##omac
##efterfoljande
##SCB
##Fartyg
##jang
##framtradde
##Nagu
##spartiet
##ير
##Afton
##ilia
##upt
##Johanna
##junkt
##Vatt
##sakt
##Stur
##smart
##mae
##Haouz
##Lepanthes
##kemiska
##distribut
##ofon
##obas
##Thecla
##klasser
##traning
##Michigan
##success
##Program
##erfaren
##anske
##berattade
##Ornskold
##lagenheter
##pjaser
##kommunist
##tonsattare
##Theatre
##poesi
##ferensen
##quel
##vens
##dii
##Bolaget
##Mariehamn
##Bari
##Dana
##Suk
##tvatt
##utgora
##Puebla
##Kola
##Pag
##imala
##Vitt
##include
##termen
##samtal
##getingar
##Pushtah
##Squ
##cop
##Nept
##hovratt
##bbspindlar
##licens
##Forcip
##frakt
##Polyg
##speciell
##Hallands
##Krono
##icipal
##Hier
##Wir
##pher
##rob
##benen
##Bujum
##koppling
##eima
##clav
##Copa
##Tirana
##frukter
##Qolleh
##sviks
##alltfor
##omar
##horighet
##SR
##uft
##beord
##couver
##Chapman
##Bujumbura
##ake
##hae
##varldscupen
##Klock
##gymnasium
##Alvsborgs
##brid
##teologi
##Kristi
##Ferr
##Californ
##Lagen
##forbattra
##Armenien
##hotade
##Vastmanland
##Ranunculus
##drabbade
##utrikesminister
##Trel
##iermark
##1792
##orlunda
##Idrott
##ocam
##ission
##Studio
##avseende
##Taoun
##Nahr
##Aran
##pave
##vardag
##Chong
##Spencer
##lun
##fantas
##sagan
##ostre
##Dicranomyia
##fell
##iley
##Six
##Herbert
##Hale
##derade
##Fries
##Varen
##hti
##naring
##deb
##assan
##djupt
##officiell
##Trans
##kapellet
##reaktion
##annorlunda
##Chahar
##inosa
##varierande
##skepps
##Lorestan
##alskar
##trades
##rast
##inledning
##femton
##uris
##Miconia
##Nuvarande
##alands
##Leg
##tillfang
##Mauricie
##ester
##antrop
##spunkt
##producerat
##Atlanta
##Oland
##ifolium
##lein
##senat
##komed
##riktiga
##Taounate
##Gand
##entet
##langsta
##science
##erovr
##hue
##uteslutande
##skov
##landskaps
##okoll
##bosatta
##Hydrop
##Dha
##hya
##Gua
##hittats
##positiv
##liberala
##levnad
##onlyinclude
##pung
##Frankfurt
##Belarus
##spic
##tillforordnad
##utgar
##snabbare
##forvaltningen
##Malloch
##tje
##skull
##iodes
##angrepp
##intel
##Andrea
##angdong
##مر
##borough
##forbjud
##utlandsk
##ories
##mobil
##Festival
##olophia
##ekar
##Mato
##Tensift
##Byr
##lenburg
##vivevaxtart
##tilli
##Theod
##ingaende
##1802
##Portez
##avhandlingen
##manni
##massan
##juden
##Stav
##religios
##pjasen
##Jarnvag
##omkom
##tagning
##apic
##bers
##Vient
##Liu
##mynning
##Comp
##tekniker
##Campbell
##stangdes
##chile
##samarbetet
##glom
##Teatern
##utomhus
##Ostersund
##icauda
##tionde
##Yong
##jare
##oud
##paverka
##Cordoba
##Football
##overenskomm
##Tis
##skargard
##forbindelser
##Grant
##indelad
##laroverk
##mors
##kvarvarande
##effekter
##Sigismund
##Aud
##reus
##attrakt
##fiender
##ariaceae
##svin
##blotta
##backslandor
##yrtus
##kontoret
##ين
##hoppade
##Tripoli
##Shakespe
##givna
##ipe
##Julia
##1806
##Cad
##hina
##gali
##placerad
##Swed
##Stephan
##Hoceima
##arkt
##ellaceae
##fig
##blandad
##Thur
##bekan
##moz
##Schu
##Boissier
##etiskt
##Psil
##hallas
##skara
##hari
##framtiden
##primar
##1803
##tril
##from
##ocon
##elektriska
##sanda
##Cauca
##regissoren
##Carpen
##Gustafsson
##fortroende
##More
##HK
##turnerade
##Tric
##opia
##town
##volym
##Makedonien
##fastigheten
##tha
##isera
##jarnaldern
##risken
##begravdes
##blomsvaxtart
##opposition
##1805
##ista
##meister
##uppna
##sokan
##Lox
##Microp
##Ein
##Landskrona
##daggdjur
##bevap
##sai
##Eud
##prova
##Anat
##pionjar
##Rafael
##mytologi
##Mohammad
##Cyat
##annexforsamling
##California
##unnan
##Hammer
##Agri
##Girault
##refer
##vie
##svagt
##Forcipomyia
##pia
##sockenhuvudort
##Huang
##Sofla
##Oscars
##Vientiane
##Kamerun
##inatus
##legat
##lanades
##kottflugor
##Best
##patri
##anlaggningar
##skulpturer
##geomet
##Vide
##anknyt
##inkorpor
##paket
##okning
##Bamako
##GT
##genre
##ophis
##Tommy
##cav
##obium
##Phy
##Carlyle
##Vasttyskland
##Atlanten
##Habitatet
##Portezuelo
##urinsektsart
##flotta
##Jesu
##Helicon
##ortodoxa
##Fyra
##iphora
##Maxim
##Koppar
##Phe
##Joao
##flagga
##IC
##tidpunkt
##chefredaktor
##tillverkningen
##obla
##virid
##gonen
##cosa
##originaltitel
##hay
##vandring
##Sot
##Your
##wh
##Falun
##pensioner
##Bott
##Gis
##Skandinavien
##Eux
##behovs
##arrangemang
##Oriental
##recensioner
##Kaj
##Scler
##Wester
##Hotel
##Arsen
##lane
##fond
##Smed
##fysi
##rigt
##Iron
##uen
##utsatt
##flicka
##uppenbar
##delats
##mega
##Kropp
##forhandlingar
##nab
##helea
##demokratisk
##Papua
##enklare
##اغ
##sei
##kopt
##stadsfullmaktige
##massor
##uria
##styrkorna
##Io
##foni
##matidae
##fangelset
##Jas
##trafikeras
##Fis
##Riga
##sorts
##vasent
##standiga
##skanal
##Beau
##Skaraborgs
##bukt
##amas
##Shaw
##Div
##Lorra
##Uul
##yndig
##othrix
##spons
##goring
##smyggor
##corn
##Kanarie
##fiction
##sus
##stund
##Berk
##Piedra
##tjansteman
##Kub
##Oph
##leh
##rymmer
##kunskaper
##Honan
##Operan
##afrikanska
##uve
##agt
##quadri
##egu
##komponerade
##Autom
##Chor
##Mancha
##minnen
##flitigt
##Lub
##ratus
##ciden
##utrymme
##Sloven
##Campo
##harstam
##1811
##erings
##Arc
##horus
##Entertain
##gemeinde
##Rase
##frons
##Megachile
##ал
##tillamp
##tiotal
##konstitution
##trog
##trang
##emoni
##eko
##Wor
##smar
##inspelad
##cerad
##strafik
##amaster
##uvida
##Llo
##fritflugor
##avrattades
##Evans
##propa
##tillganglig
##Hassel
##Whe
##skapad
##Vancouver
##alders
##sjalvstandiga
##Cow
##Sit
##Toro
##samre
##rakning
##Cay
##Rubus
##Watson
##Wolfgang
##nejlikvaxtart
##minerarflugor
##samlades
##Brittiska
##Udde
##Ait
##Kalla
##kler
##skarm
##fogderier
##AHL
##gerna
##hipp
##producenten
##Godar
##senator
##Misso
##definieras
##Carpenter
##yros
##Castel
##Justicia
##kommission
##slem
##regerande
##Party
##koncentration
##EN
##grus
##domsagor
##ykh
##stallningar
##blick
##Oxy
##ploea
##Sis
##zeh
##klund
##Brig
##Rayon
##sparrisvaxter
##roder
##darna
##Zheng
##himm
##tankar
##kandidatexamen
##Aguada
##320
##skadades
##underratt
##territoriets
##Steiermark
##Jeff
##codes
##Limon
##kampade
##Fager
##Ragnar
##stakademien
##quet
##elles
##Moderna
##Johnny
##Lagun
##tyskt
##Georgia
##Oxford
##Lettland
##varns
##adensiska
##vasendet
##arken
##lak
##Aceh
##Tala
##Utveck
##kontroversi
##Kanneteck
##antor
##hrus
##Fan
##Fac
##vaggen
##virus
##havaren
##Parat
##varldskrigets
##iera
##Thal
##gau
##djuret
##Arts
##Syftet
##Loew
##akch
##sjukdomen
##usia
##Pseudo
##Tox
##ordnade
##forvant
##kansla
##halvo
##chae
##hittade
##Dagbladet
##konservator
##Acacia
##mamma
##Birkaland
##(),
##seringen
##Trafik
##rypt
##Schles
##berger
##framja
##ways
##Hamn
##vikten
##Storre
##Euploea
##melod
##bevarad
##raknades
##tillgangliga
##BS
##upphoj
##tjansten
##Martins
##Phae
##iseras
##ografisk
##Graf
##triang
##institutioner
##tydliga
##Gala
##Sari
##stjarne
##argument
##Kings
##uppat
##hastarna
##skommunen
##Pis
##kanoner
##kampa
##Olika
##Christoph
##Apanteles
##Nueva
##Fry
##Vastazarbaijan
##Ninten
##Pich
##oraceae
##avli
##Avsnitt
##viking
##Jens
##framstallning
##tifran
##inhemska
##karpfiskar
##etet
##chem
##laser
##Strat
##sittande
##Stewart
##Cyn
##Wel
##ryn
##arrangerade
##Isid
##Manuel
##fartygen
##Kristianstad
##Tyrolen
##bio
##luther
##belagr
##Ent
##avagen
##Petrus
##kanslor
##innehalla
##uppmarksammade
##Jason
##fika
##alu
##Tafil
##offentligt
##Hin
##toner
##fysiska
##Odont
##israeli
##sha
##vistades
##Guan
##Kirgiz
##ramma
##Kristianstads
##folium
##bilj
##kvallen
##Glo
##Stil
##git
##storst
##flygplatsen
##fageln
##generalmajor
##Karolinska
##gymnasie
##450
##anthe
##ompson
##Cathar
##forteckning
##grens
##hornet
##Raz
##Pick
##deles
##euro
##derar
##atelje
##Kanarieoarna
##Zetter
##strim
##Aedes
##aktivitet
##ukrainska
##akers
##anny
##flygning
##Andrena
##punk
##yren
##Staff
##Polyc
##abaa
##Shand
##listar
##asca
##obus
##lagret
##Suz
##Riodinidae
##pall
##opin
##Coen
##rasen
##vardig
##Walt
##ич
##partner
##hittar
##proport
##Gem
##framgar
##flyttas
##stom
##Saab
##basis
##Philli
##Gotalands
##Exempelvis
##roit
##laggs
##Thy
##Molophilus
##Territories
##Cun
##Dos
##Raven
##systemat
##Nielsen
##Eleonora
##spir
##fjarilsmyggor
##utgavan
##mill
##rads
##andan
##rysa
##Kenned
##konkurren
##ET
##slap
##verkande
##kampan
##entrepr
##Rah
##garh
##branden
##Rea
##usta
##ون
##skis
##miar
##Gast
##Fadern
##Lands
##Birgitta
##Knight
##stelse
##Nouakch
##skildringar
##Dresden
##Nouakchott
##sis
##Mick
##UN
##alisk
##Quer
##1804
##Reichenbach
##Hongkong
##sjunga
##Navar
##socknens
##fortsattning
##portugisiska
##Oue
##spels
##Bruk
##125
##hojer
##Rancho
##inspirerade
##Dil
##Kinas
##igo
##geografiska
##Zen
##Leif
##Sper
##Burma
##Baba
##Thun
##Hod
##Ping
##Marin
##nationen
##veter
##stich
##konomi
##1807
##otrichia
##utmarkelser
##ofor
##zzia
##cret
##avslo
##verksamma
##auktors
##Kashmir
##Oreg
##Guangdong
##gravbin
##storstadsomrade
##Cue
##Ock
##Guilla
##mannens
##svard
##morkare
##overty
##beromd
##Sarcophaga
##Strangnas
##Krak
##Wy
##XX
##alan
##Gramm
##nionde
##yph
##riksdagens
##Potok
##fardiga
##?"
##Nyc
##medi
##ottor
##invanarna
##verkligen
##lassen
##Folke
##Zer
##eventuellt
##Vincent
##Diskografi
##mp
##landsfiskals
##Karez
##Vanua
##erbjod
##idna
##ytta
##api
##ceremoni
##gult
##utgivare
##Paras
##aktuella
##operation
##nj
##vaxa
##Ili
##Hippar
##sjuka
##anthera
##chet
##dete
##socialistiska
##Dothide
##osma
##kontakter
##iano
##loppor
##Pakistan
##huvuden
##Kep
##PR
##Entertainment
##Gow
##Rug
##skas
##esor
##mossa
##Operation
##evenemang
##nybildade
##Mab
##rantz
##yphus
##oue
##light
##lei
##Konig
##zania
##olep
##Andor
##spelats
##auktorsforkortning
##Lower
##odlas
##osaur
##chard
##uci
##Luer
##Mecklenburg
##dt
##skapare
##tatbefolkad
##langfilm
##tifik
##Kreis
##Pim
##Leh
##vagns
##fylke
##skenbar
##Marka
##furst
##garde
##engagerade
##opsylla
##iserat
##Ng
##adan
##pist
##senaten
##entin
##exil
##vedlar
##First
##Hangzhou
##Loph
##Ange
##daggdjursart
##="
##Pieter
##له
##lakar
##havsytan
##Grosso
##Nuaf
##fattade
##varda
##utu
##karleks
##parallellt
##Burg
##Sudbury
##efterhand
##nyare
##ratter
##skolle
##%),
##AF
##Pard
##sgatan
##dege
##bekant
##vapenflugor
##urium
##Bird
##Libanonberget
##Pitea
##korgblommiga
##kala
##overlag
##lasar
##brukade
##Vega
##konflikter
##Ambly
##deltar
##utdod
##serierna
##hyper
##Kansas
##Elekt
##amensis
##mouth
##ffel
##tragspinnare
##Adrian
##inalis
##Bast
##fotter
##Mata
##main
##1780
##Sche
##nova
##1794
##igar
##listas
##Eryth
##rapport
##Nigeria
##Aragonien
##05
##blek
##spen
##riksdagsman
##eres
##tima
##fornlamningar
##orsaken
##spridda
##Our
##asci
##Brod
##Meknes
##Eds
##uster
##helikopter
##reso
##kraften
##fasad
##varldsmasterskapen
##slangden
##Eriks
##laste
##lagsta
##Ingrid
##Lorraine
##omstand
##troligtvis
##Staud
##begransade
##Batt
##Dark
##tang
##undey
##IX
##jou
##enlighet
##omgang
##idad
##Corpor
##Kristine
##olepis
##idis
##ostern
##Seccion
##Stelis
##socialt
##angers
##stallas
##kontinuer
##vesi
##itsch
##aguay
##Verksamheten
##Republiken
##lakaren
##ockeyt
##avskaffades
##vida
##jarnor
##grenen
##traditioner
##bestamt
##Emery
##dil
##hanger
##Nepal
##Clarke
##usi
##icz
##kommunens
##hjalper
##absolut
##cari
##ctr
##potatisvaxter
##forrad
##mats
##Elli
##oavsett
##iggins
##spilus
##Djurgarden
##Cum
##HF
##ichthys
##tank
##arkeologiska
##Karel
##Myco
##silvermedaljor
##kongressen
##Hasan
##Luk
##enaria
##hogra
##Caes
##Cele
##Upplands
##bros
##Guy
##historie
##laggningar
##AG
##snamnet
##Ror
##kanadensiska
##privileg
##Torsten
##gammalt
##Pie
##Guangzhou
##tamligen
##hamtade
##Clo
##Vet
##cki
##Bren
##datum
##Regeringen
##Peper
##representanter
##Institutet
##Warszawa
##bevilj
##utse
##Chrom
##Bolivar
##faktum
##odde
##patienter
##gripande
##naren
##snapp
##Bit
##vanligare
##anae
##populationen
##semin
##Mitchell
##Bock
##dim
##vatmark
##hjulspindlar
##Was
##tillagg
##Branch
##definition
##instrukt
##jac
##plund
##Mazar
##ains
##she
##ramen
##Haga
##Bundes
##Mandeh
##IM
##fans
##punct
##boj
##Erebia
##avvik
##skamp
##Volcan
##Phytose
##Connectic
##().
##Narings
##farbror
##aterforen
##rita
##Luanda
##Cecilia
##introducerade
##kommersiella
##Museet
##Bum
##forfolj
##cky
##1798
##sasongerna
##ppen
##Otter
##anklag
##Musiken
##fanga
##come
##eva
##obo
##Ghundey
##socialdemokratiska
##Vac
##sic
##maken
##sparrisvaxtart
##Nash
##paci
##Lika
##Lucien
##befint
##sekelskiftet
##ettia
##slager
##ffi
##Storbritanniens
##pos
##personlighet
##infra
##artisten
##Lady
##Academy
##fjorden
##arat
##tvingade
##bedriver
##befolkade
##funktionen
##tai
##Atac
##orton
##sokande
##Dou
##bourg
##Sweden
##dele
##shamn
##Linde
##ll
##ostylis
##tomt
##fritids
##sop
##Helic
##Studios
##gota
##rostratt
##Kirgizistan
##Sord
##ampton
##Notera
##faktiskt
##Stiftelsen
##syntes
##Casey
##Detroit
##protestant
##ril
##etz
##oms
##spett
##klarade
##tyskarna
##Charlotta
##foraldra
##Buff
##befinna
##producerar
##framgangsrikt
##Lloyd
##Dw
##Tart
##statlig
##ogramma
##sprakig
##Carter
##amiral
##ogonen
##Moon
##olor
##lept
##330
##Hara
##Gerhard
##bez
##identitet
##//
##Oce
##iment
##XIV
##forklara
##Tjeckoslo
##vd
##iren
##orterna
##stjarnans
##Ges
##svam
##bay
##EA
##Jos
##Light
##290
##landsfiskalsdistrikt
##Elae
##ils
##rose
##frammande
##studierna
##Tanzania
##Bots
##poster
##ersattning
##skylt
##usar
##gravid
##bie
##anknytning
##OR
##لو
##Inde
##herrarnas
##visor
##onomi
##HS
##orpha
##slop
##kvinnlig
##Peters
##snamnden
##vinnare
##acris
##avgift
##skaren
##Thompson
##gravfalt
##mordades
##Metropolit
##Aa
##Lock
##bildats
##ormart
##ар
##stugan
##Peperomia
##Sug
##usse
##angran
##hallning
##indo
##Elsa
##skjuta
##kup
##uppfoljare
##ogift
##statsminister
##skontor
##formation
##xon
##ovica
##skaffa
##Hut
##Won
##aspe
##judisk
##armens
##Aftonbladet
##Two
##thi
##ikor
##passions
##kroatiska
##Ib
##munt
##obot
##distin
##finger
##low
##Einar
##phal
##konstnarliga
##uppdater
##kredit
##webbplats
##processer
##Staudinger
##anatom
##harror
##thes
##forfattarskap
##elo
##Stationen
##amph
##urahan
##skonst
##gae
##sonii
##Diego
##specifika
##spektralklass
##Bli
##hors
##ceps
##omphus
##thonius
##intog
##Mountains
##Dah
##utformning
##Nur
##gli
##Neur
##ospermum
##underlag
##slots
##anvandare
##Edgar
##Banks
##Komm
##Wan
##aks
##entuna
##Albin
##uchi
##gitarristen
##etery
##trads
##flog
##imen
##undervisade
##tidigaste
##pelare
##08
##Times
##ods
##skapten
##kostade
##berry
##schack
##Vastmanlands
##expand
##framtid
##Levi
##rattegang
##kungs
##medicinsk
##Kelurahan
##pekar
##CR
##vali
##osfar
##cipl
##forekomma
##Coy
##separata
##meddelades
##rykte
##Schon
##Sodermalm
##bronsmedaljor
##Strind
##campo
##nemis
##Oro
##Down
##rius
##visats
##bildningen
##Zah
##residens
##Tafilalet
##Xia
##ор
##etablerades
##urnering
##xt
##daliga
##illia
##uguay
##porten
##stillverk
##chas
##varifran
##Plect
##foreslag
##ogruppen
##Cemetery
##Cran
##styp
##dotterbolag
##Sea
##jonen
##rets
##gaard
##Schul
##dukt
##Clara
##arvs
##siana
##farfar
##stavlingarna
##Qornet
##Dothideomycetes
##Beth
##territorium
##Ful
##motta
##Roberts
##Vart
##karta
##Flem
##blas
##yong
##Rek
##uttagen
##hane
##caena
##korset
##Kant
##Tj
##late
##bredvid
##Anthurium
##Produc
##Librev
##faste
##finlands
##ilian
##sovjetisk
##Jup
##bela
##ylan
##ussure
##tillfallet
##Wo
##enius
##Salzburg
##Champagne
##Dum
##ftor
##svenskarna
##Raseborg
##grott
##Stam
##Brita
##Libreville
##limer
##Cooper
##Ellen
##Seine
##Hogsta
##orientalis
##akademiska
##mullbar
##pta
##ugou
##noveller
##sprida
##foster
##verksamheter
##presidentvalet
##vilda
##timmer
##digital
##doktors
##traffa
##Phyllanthus
##Atacama
##Wid
##fed
##iya
##otrema
##motes
##Juarez
##Mindre
##skanska
##stemma
##Rhynch
##anner
##Saw
##landshovding
##Medelhavet
##produceras
##Ip
##Kut
##Baserat
##sloven
##kabin
##radhus
##regional
##serbiska
##pale
##Esperan
##besitt
##krok
##Teph
##Phyllachora
##kris
##ogg
##substant
##ekonomin
##angsskinnbaggar
##rypare
##oq
##vana
##plata
##hova
##fient
##Katt
##Natt
##lieb
##ospha
##Cheil
##Opera
##Aleksandr
##bbe
##jos
##chu
##kvalet
##asikter
##edalen
##Heart
##hns
##Lagos
##340
##track
##lagets
##Trelle
##Roche
##langvar
##Last
##radde
##Moln
##LO
##distans
##Satur
##etum
##hantes
##ology
##orsakar
##Rov
##ters
##godset
##europeisk
##aterna
##tidnings
##Canad
##1795
##regisserades
##ademiens
##sali
##samm
##oppia
##rostningen
##dyker
##bussar
##Typhl
##importer
##Cub
##inflamm
##byarna
##Isaac
##stur
##Groß
##jarnarna
##kandider
##socknar
##upplagor
##avesi
##stab
##samfund
##Model
##Medic
##urttem
##Microsoft
##Bush
##arren
##erium
##tillika
##Sval
##svenskar
##Jeolla
##furste
##Nikolaj
##role
##zie
##life
##vagl
##song
##utnamnd
##Cornelis
##Cuch
##oty
##Taman
##avvecklades
##kina
##varldsmastare
##Matsum
##oklart
##sian
##lado
##generellt
##armelia
##Shor
##1776
##skadespelerska
##arerna
##chez
##kejser
##frekvens
##.&
##ugn
##Chengdu
##Kis
##mamat
##foto
##Album
##Schwarz
##Mycosphaer
##cic
##tanken
##plosis
##kommunfullmaktige
##ineata
##Cuka
##ljusa
##Gyeongsang
##);
##Ted
##Zor
##skrit
##folkom
##proctus
##Gib
##Channel
##gadda
##muslimska
##squ
##pappers
##Bolaghi
##Dob
##itiska
##Kay
##konstnarlig
##balla
##gig
##anmal
##regul
##antika
##intelle
##Perez
##flyga
##Arroio
##Gonz
##rud
##Griff
##iserats
##Russell
##1796
##partiledare
##fullstandigt
##Lindley
##DS
##bata
##qing
##Polyn
##ikh
##Billy
##Jal
##Osman
##smed
##rostade
##dome
##helmina
##negativa
##Jansson
##bula
##lum
##upptrader
##visningar
##involver
##Ocampo
##aldste
##Gat
##andringar
##krona
##studieresor
##positivt
##omlopps
##onda
##besta
##acu
##flyttat
##urgi
##ikationer
##tym
##litz
##strommen
##Kambod
##sannolik
##Boca
##Shur
##Torre
##Dicty
##Varld
##kardinal
##ostrom
##finaler
##ersatts
##skicka
##klokrypare
##katalog
##undin
##framre
##natus
##Karn
##ðurland
##inv
##forhallandet
##1791
##sonson
##irland
##parv
##spred
##demokrati
##fangenskap
##Nintendo
##vala
##Leptog
##australis
##Jimmy
##Cuc
##tigen
##forordningar
##Cou
##Planet
##Zim
##into
##pappa
##amarca
##uppmarksammades
##membran
##verna
##ipedia
##faststalldes
##Sibi
##affarer
##Ichneumon
##sateri
##Lille
##Hermel
##renovering
##gay
##parvi
##kriminal
##Ave
##olig
##rine
##skiljs
##fyller
##Kraft
##ск
##komponen
##1788
##betecknar
##Erioca
##Lombar
##apan
##kass
##nic
##tors
##Terara
##personlig
##fullbord
##rele
##bestandet
##umt
##uppkom
##Forbundet
##Rheinland
##ligamat
##premiaren
##Inne
##rett
##ام
##chidae
##markt
##bibel
##skoldpad
##restauranger
##Socknens
##Devil
##bollen
##bronsaldern
##Dab
##Heg
##ungan
##ogonia
##carus
##protokoll
##yngsta
##etaceae
##nivan
##fordelade
##uppskattas
##dramafilm
##Corporation
##Get
##dei
##ilon
##310
##overb
##underteck
##icera
##ongol
##Fjall
##Buc
##Euch
##Bracon
##journalisten
##kladda
##expert
##partierna
##Gallivare
##seriens
##vedsvaxtart
##hastigheten
##itibi
##Svarta
##figuren
##Mob
##Pelle
##sec
##Kid
##nyong
##Chelonus
##konstant
##crass
##Rhop
##VII
##spopul
##verkligheten
##myst
##deltagarna
##ocentrus
##tekniken
##Dream
##vier
##intradde
##oped
##Stutt
##formul
##Arecaceae
##Phas
##hedersdoktor
##Kru
##Tod
##forsen
##verkets
##forvarvade
##upprepade
##ombyggnad
##Orle
##liberal
##Kob
##spital
##industriella
##plotsligt
##Tredje
##stillstand
##Bengtsson
##Pep
##glund
##Borga
##onyx
##forsakrings
##Kennedy
##aly
##web
##Merce
##Ole
##levt
##Nasta
##inspektor
##Missouri
##Roland
##zzo
##Arizona
##09
##omtalas
##iserad
##sjar
##domkyrka
##Santander
##Fjar
##udad
##arp
##stakade
##vador
##Agnes
##upptackts
##forsvarade
##Ridley
##Fujian
##kirimojavaxter
##Rang
##sort
##ubbel
##hemis
##skolorna
##Cory
##Gaz
##Yorkshire
##konflikten
##Cabo
##Zhu
##sander
##athan
##qq
##oly
##timme
##tradet
##familjens
##ardin
##kyrkom
##Temisc
##Mycet
##Herb
##erierna
##Lal
##grafik
##hoff
##Oec
##Swan
##riskt
##hena
##March
##representera
##reservatet
##axel
##myndigheten
##Zurich
##Lyman
##forskar
##samarbetade
##Jammu
##race
##ries
##Skogs
##bates
##paverkade
##svansen
##Dognin
##urttemberg
##mation
##impon
##vikens
##kladd
##Power
##Tell
##anea
##unna
##Barrio
##Vasternorr
##celis
##existerar
##Temiscam
##Pyc
##forda
##Catarina
##intellekt
##likheter
##sjons
##Bened
##Ide
##dinge
##oblig
##producerad
##besoker
##tyngd
##Pari
##Trigon
##mate
##Ess
##Hip
##Tjer
##Wur
##utsikt
##mental
##bolagen
##flyger
##fororeningar
##PA
##forskningen
##Palest
##Lindgren
##utredningen
##skelett
##spolitik
##infora
##Mottagande
##Cape
##Botswana
##Klas
##ilin
##buskar
##sundet
##Kronobergs
##UK
##tillats
##book
##kriterier
##kompositioner
##talman
##potatisvaxtart
##Gale
##Isl
##Rt
##redig
##gnost
##orium
##acut
##Edwin
##Og
##Vest
##ididae
##cirkel
##expeditionen
##lian
##Inc
##Abitibi
##kurser
##golv
##rattigheterna
##andliga
##Diosc
##populationer
##utvecklad
##tyr
##akim
##lagts
##1770
##.”
##Sigur
##misk
##orak
##serande
##landsbygden
##brevet
##oniscus
##nyhet
##hjarta
##skuld
##opo
##hielm
##Tack
##Tavlingen
##mongoli
##Daw
##stoppa
##Home
##lana
##Mest
##1799
##1787
##Niederosterreich
##otom
##ialis
##ormar
##Kaz
##asjon
##kanot
##drottningen
##hantera
##folkhogskola
##Georgi
##uj
##olet
##utfort
##ussa
##sjos
##laggas
##valkanda
##motorvag
##Gotaland
##Delta
##forsokt
##nationer
##granit
##Tord
##borna
##acea
##hults
##hun
##allax
##matus
##ophyt
##Connecticut
##Sut
##dita
##بر
##peru
##kanter
##ubi
##filmens
##funnit
##flygflottilj
##affinis
##Aba
##pend
##Romanen
##utmarkt
##Temiscamingue
##Organisationen
##voir
##varldsmasterskapet
##trycktes
##alyptus
##utro
##organist
##Ev
##Qala
##Sjuk
##Otte
##Florens
##tungebin
##osci
##sviken
##dagstid
##Dju
##Pus
##Solle
##simplex
##pansarskoldloss
##Dat
##yuan
##enskild
##steh
##slappa
##utsche
##pyr
##bero
##hogland
##eley
##osta
##lash
##forebild
##fiera
##korttungebin
##tillverkaren
##Paulus
##Winter
##Turin
##Gregor
##galla
##jør
##spekul
##Garcia
##danske
##Moser
##konstruerade
##Ghaz
##oge
##phop
##hyres
##Ulrika
##European
##Andorra
##Cron
##Marta
##valgor
##prastvig
##gratis
##Uddevalla
##cad
##chansen
##otettix
##tillkan
##Ald
##hormon
##hodes
##Valet
##Chalmers
##spa
##spira
##farre
##biot
##caud
##sektion
##utgivning
##VIII
##cte
##ocoris
##ups
##formagan
##Bisk
##Bass
##Oy
##utry
##elektrisk
##pseudony
##dammbyggnad
##Gig
##saljs
##Norrlands
##centralt
##1797
##klockvaxter
##immat
##neutra
##SN
##ivitet
##tillkannag
##sned
##talang
##haga
##sattas
##fastighets
##Ores
##Sju
##Munster
##erfarenhet
##ophon
##ocladius
##spelningar
##ardia
##ytterst
##Fuz
##elds
##statligt
##Spani
##mittfalt
##Julian
##FM
##OK
##tres
##roy
##vingarna
##osphaer
##reglerna
##Hass
##Mund
##rescens
##morgonen
##Ciudad
##Lorenzo
##Shandong
##Hue
##ocen
##platserna
##konsthall
##Amt
##ansluter
##gurk
##ansvarar
##musk
##Kunst
##skandinav
##cirkul
##huruvida
##stations
##Algoma
##ther
##korsar
##dispon
##Beatles
##inforlivades
##Lomas
##ylland
##Gross
##pojkar
##esis
##talare
##gong
##dodade
##Neapel
##Atra
##utgjordes
##overvak
##ouch
##byggande
##Pip
##Tung
##اس
##snokar
##tillhanda
##overvag
##Chama
##kontrollen
##grafiker
##01
##Aug
##leri
##varma
##kmok
##problemet
##Habenaria
##Rim
##Syr
##lava
##kortfilm
##Nacka
##atlant
##Pakt
##Of
##befast
##genast
##sif
##indelta
##hjalte
##Engler
##visuell
##Accra
##leyi
##municipal
##Sovjetunionens
##Wick
##ografin
##successivt
##Bjur
##Oskars
##Trond
##inho
##Helge
##varianten
##framtradanden
##Roch
##ovanlig
##behovet
##bryns
##hex
##Mueller
##Cru
##skapas
##blind
##Rasmus
##Lec
##studiet
##jarnvagsstation
##Microt
##Sundsvalls
##stum
##varar
##fecture
##Torg
##landslags
##ptom
##Buen
##krigets
##comyc
##pilot
##Nedan
##Tull
##Taka
##lags
##smakackerlackor
##mmi
##kontrollera
##malarskola
##AM
##rach
##foljaren
##upptacker
##bilitet
##betraktades
##yenne
##Kambodja
##او
##olj
##viet
##Rincon
##fordshire
##infl
##explos
##ighets
##Yam
##senior
##Edin
##djupa
##Lincoln
##voblast
##traden
##akademien
##cae
##Precis
##frikansk
##Higgins
##beli
##sert
##barock
##neo
##Moz
##nominer
##Mercedes
##Koz
##Malmohus
##debatten
##Sceli
##Culex
##upprattades
##Rysslands
##formar
##symt
##bestamma
##Phyllophaga
##Kiev
##osperma
##Civ
##bevara
##cephala
##handlaren
##kolonier
##04
##115
##givet
##Schult
##Bach
##Graub
##Kristiania
##Stuart
##ophthalmus
##Schleswig
##librett
##typiska
##styrelseordforande
##rapporterade
##greg
##Denne
##vattens
##yrha
##Mim
##Saussure
##iche
##bestamd
##angayer
##intresset
##Jokkmok
##Joakim
##city
##acum
##coe
##stenaldern
##Jang
##Baal
##matcherna
##ostomus
##tillverkar
##Boc
##overlevde
##pund
##Sie
##stannar
##toppar
##amia
##dubbla
##NT
##gak
##agu
##kryss
##korrespon
##Managua
##Ignat
##Orleans
##hri
##andro
##yrke
##komposition
##lagstiftning
##ostigma
##agor
##Stuttgart
##ktorn
##Charlie
##krans
##undersoka
##Bridge
##Lane
##anto
##imit
##flyter
##Peng
##itions
##bark
##Koln
##laz
##kult
##himmels
##Fru
##hill
##Baron
##thur
##Texten
##Jordanien
##influenser
##Rum
##otoma
##ators
##studion
##Luther
##omstandigheter
##Morris
##fuktiga
##leverantor
##ovanliga
##Cycl
##pryd
##tagg
##Sib
##erberis
##Gottlieb
##sallsynta
##Jiangxi
##380
##Stol
##oblasten
##Afri
##Dus
##Kvar
##Slav
##Wurttemberg
##berodde
##alleri
##ashi
##narvaro
##lute
##hemmaplan
##effekten
##Graubunden
##Dala
##ody
##Lima
##stras
##kritiska
##Clav
##Derb
##Hund
##bebod
##torde
##Ener
##Sjalv
##Ula
##avu
##parallax
##vate
##krigen
##forklarar
##ouais
##Vadstena
##brad
##Jensen
##flenortsvaxter
##Diosp
##Fisher
##Ey
##Pehr
##Cole
##Eury
##barndom
##Hormoz
##konung
##Handel
##guden
##Minn
##jug
##baseras
##Hend
##Forfatt
##Rune
##Rhab
##lunda
##turnen
##Pterolophia
##Asplenium
##phe
##Adrien
##sjarvi
##understod
##langden
##kova
##stammen
##Takht
##besegrades
##Esen
##Elap
##ordinat
##oporus
##ellum
##Diospyros
##ird
##Poecil
##kapitel
##Berlins
##nominerad
##Junior
##arica
##Tjeckoslovakien
##siste
##praglas
##discipl
##1772
##infanter
##mim
##anis
##personerna
##Dongar
##extremt
##storstadsomradet
##Solleftea
##Rok
##forinnan
##pagar
##Agi
##yama
##albanska
##Nora
##operas
##informations
##kejsard
##kristendomen
##steuropa
##Naw
##ympha
##Willis
##brottet
##striderna
##negativ
##sinne
##aru
##Empis
##bryter
##drabbas
##Rayonu
##06
##Walla
##ensuu
##muss
##regisserade
##Nabaa
##issus
##Hima
##bonsyr
##brollop
##hustrun
##Porter
##Gener
##SJ
##handen
##skapande
##forne
##Marcel
##Conrad
##ropis
##otti
##samlingsutstallningar
##brigad
##strander
##Utbildning
##Folkets
##bitar
##plattform
##Hormozgan
##Phor
##unik
##burgs
##kroppar
##digitala
##Ata
##Klara
##utgivningen
##simul
##Pik
##annes
##gardet
##raknar
##betecknas
##avslutas
##teman
##Kna
##Tyl
##kne
##rul
##사
##latit
##bler
##bredare
##emus
##arias
##odus
##eki
##Bretag
##Acraea
##Perry
##Harvard
##Dact
##pom
##elberg
##fotbollsklubb
##majoriteten
##foraldrarna
##skamt
##Euxoa
##Bin
##Outa
##Tos
##ref
##atti
##rida
##uppvuxen
##verklig
##sjok
##marskalk
##mort
##ualitet
##itos
##ouf
##dorr
##kirimojavaxtart
##Ice
##itan
##prat
##malningen
##foretagen
##Sjalva
##skribent
##Saut
##hammars
##Carmen
##fragment
##Dari
##spoli
##drivna
##Piet
##afri
##inkom
##cester
##Nyslotts
##Studen
##cti
##eb
##dentata
##seart
##hemlighet
##johan
##centralort
##konkurrens
##laddning
##Resultatet
##angransande
##PS
##Still
##hok
##Kyrkans
##bonsyrseart
##cs
##okanda
##byggs
##ype
##Sarskilt
##gardarna
##scout
##redovi
##bakre
##orsaka
##prinsen
##Mass
##oensis
##erkande
##Leslie
##tretton
##Simpson
##friluft
##simmare
##grunder
##Chem
##kunglig
##bidragit
##sorgmyggor
##Alam
##yris
##delagare
##samlas
##Vicente
##paverkas
##Riz
##Vinn
##syriska
##serligen
##Aisen
##illen
##Hey
##vikingat
##Tennes
##uppmarksam
##oer
##ionell
##nordligaste
##korn
##bildande
##formogenhet
##Ceder
##Sle
##fabriker
##teologie
##Dok
##Libert
##skrivas
##balett
##andaran
##othal
##irs
##ellerna
##Kentuck
##ychus
##occiden
##ichte
##Priset
##yrel
##langsamt
##singelli
##Landskommunen
##Huddinge
##Hors
##Viola
##voblasten
##antiken
##trig
##spelning
##byggare
##tabellen
##Hessen
##ogor
##Alma
##flaggan
##Games
##odonta
##ady
##herine
##organiserades
##listisk
##Epi
##iseringen
##Djurgardens
##Kval
##Beaver
##losningar
##styv
##Ulla
##Magnusson
##Adi
##Glad
##Mok
##levnads
##vagnen
##Singeln
##bera
##verklighet
##1781
##Slovenien
##Utifran
##ante
##sjonk
##himlen
##fladdermus
##;*
##dum
##avga
##Marne
##Human
##Amat
##sexton
##igua
##skyddade
##Lange
##Kelly
##Baren
##ssen
##arket
##opf
##avgora
##testa
##Baj
##utvecklar
##Palma
##bransch
##Lup
##bescens
##rationen
##Esenbeck
##Twin
##entz
##Parme
##Tore
##ilos
##langhus
##quez
##levererades
##Dul
##epec
##jkek
##RT
##tilltal
##idy
##vest
##jerg
##drojde
##Bisjkek
##ovitj
##logs
##ogona
##ants
##Mariti
##vargspindlar
##Fartyget
##iakt
##icka
##regeringstid
##bedrivs
##jir
##ulara
##sexuell
##reager
##Ljungby
##folkmusik
##Fodan
##Pok
##Salv
##appar
##ilt
##ikum
##valdet
##Rangers
##sche
##kai
##Seger
##forutsattningar
##Blues
##Sordari
##IB
##vanstra
##Male
##Changs
##katolsk
##tryckte
##Christen
##amt
##vada
##hali
##Joensuu
##eriana
##burits
##Uganda
##Kost
##kritisk
##vinner
##otr
##parsek
##tons
##foten
##That
##Enri
##grundarna
##Tavast
##Pine
##unika
##fransmannen
##avista
##Standley
##Amal
##chil
##Rhododendron
##ethe
##pah
##sparen
##Landslag
##macro
##Frei
##kommendor
##tvingas
##ummet
##referens
##Laz
##lagenhet
##Lucia
##avsedda
##ols
##oversvam
##agon
##kvinnorna
##alismen
##AD
##utfors
##tapp
##Styl
##relaterade
##Thelypter
##ulia
##etniska
##osis
##grastrads
##halft
##stiftelse
##distribu
##Yar
##ardig
##Beratt
##utsag
##stalls
##Empo
##ositionen
##Gos
##Kennet
##missions
##Playstation
##vinrutevaxter
##degeiska
##ligamatcher
##Gut
##orhynchus
##oler
##behar
##uppvisar
##Dalsland
##amaryllisvaxter
##hembygds
##Constant
##maculatus
##Fuzhou
##musselart
##Denis
##bond
##volley
##generationen
##dikten
##Franklin
##gui
##Dhabi
##07
##Eke
##ciner
##gok
##ofaga
##Joy
##Lau
##klockvaxtart
##bidae
##ellit
##gront
##Ryska
##pallida
##tvangs
##Mom
##refle
##Campyl
##Privatliv
##Etym
##htt
##chlor
##amor
##damernas
##Lemp
##tusentals
##Outaouais
##Ville
##cidae
##oui
##ryong
##klotspindlar
##iets
##naceae
##odidae
##brov
##opidae
##irt
##Antan
##yllac
##Unge
##base
##rodd
##lippa
##Qimmat
##kades
##representerat
##buddh
##Cic
##Mov
##stus
##unus
##genetiska
##ceremon
##irisvaxter
##bett
##udd
##grotta
##registrerade
##Actin
##Llano
##Xanthoparmelia
##utrot
##samarbet
##tapet
##zah
##vaku
##okande
##teringen
##Malaren
##core
##dartill
##gning
##uin
##you
##Lundberg
##pianist
##bekraftade
##adlades
##teat
##iron
##sine
##ungarna
##Nim
##Englands
##servation
##dep
##kapp
##Stars
##Termen
##greps
##fangst
##manager
##snyltrotsvaxter
##lom
##florum
##Dit
##Mili
##minus
##Guana
##floder
##Adolfs
##Mazandaran
##trich
##ethus
##pasta
##Schne
##antagligen
##hemliga
##Spat
##specifik
##Bonde
##othisa
##Pandanus
##brigaden
##Ses
##ochrysa
##onsk
##bostadshus
##Rhiz
##agarna
##sikten
##kategorier
##orial
##Stjarnan
##spottstritar
##Qi
##soli
##tyst
##summa
##utovare
##Aub
##Kham
##Paraguay
##etens
##utford
##antia
##indon
##penning
##Raja
##Prefecture
##Gavleborgs
##Cong
##Hult
##Qark
##olik
##skoga
##Satak
##Geneve
##Eag
##roe
##direktoren
##kommentar
##ungersk
##vietnam
##Cog
##stadi
##abi
##biologiska
##Parker
##guer
##ormbun
##Kannetecken
##--
##arali
##Doub
##trettio
##decennier
##intellig
##vaxten
##conte
##Hoh
##vardefulla
##tycker
##('
##Europaparlamentet
##Eucalyptus
##Sici
##lovade
##affarsman
##370
##nea
##arin
##ktiga
##vidd
##Unter
##bidraget
##ophie
##://
##Sna
##zh
##huang
##upphav
##sja
##laggare
##roth
##kontinenten
##strikt
##Andy
##Ardis
##Orig
##klockor
##ognathus
##mades
##revir
##grammat
##tavlande
##Jonathan
##foraren
##lagun
##olima
##Bretagne
##Konstakademien
##tunnelban
##medverkan
##kompaniet
##ieres
##flygvapnet
##aure
##vinnaren
##Hudik
##publicerat
##ersattare
##1782
##Clin
##icula
##radets
##principen
##hla
##Chak
##oliv
##Glob
##kryd
##forsedd
##1785
##produkten
##utla
##folkets
##redskap
##Rese
##grobladsvaxter
##beslaktade
##3000
##alez
##ovning
##halvar
##Monica
##museer
##positioner
##Europamaster
##Emanuel
##arhundra
##inan
##daler
##kolonis
##Pyram
##kirurg
##Ulea
##storleken
##sident
##Mesoch
##pagaende
##drivande
##ojt
##fasaden
##gado
##Dec
##energ
##Kotka
##nutida
##alldeles
##kraftor
##sektionen
##Euryt
##pacif
##etera
##Bibeln
##spanning
##principer
##artilleriregemente
##Barran
##Alaska
##erfarenheter
##hyg
##avsett
##Ani
##Skill
##Semiothisa
##sjopung
##dittills
##Fam
##mini
##yeon
##Sky
##Krok
##oversattningar
##sporr
##Esperanza
##utgick
##diplom
##klag
##kab
##vuxit
##Staffan
##ygge
##Vegas
##Kerstin
##Teluk
##flenortsvaxtart
##amarantvaxter
##ofys
##hertigen
##villor
##Edmund
##praktiska
##Antofaga
##holi
##rerad
##tillater
##ulo
##saki
##ungna
##ytes
##skildra
##palsen
##religions
##foredrar
##Verbands
##Non
##suff
##avstandet
##Gangwon
##Christer
##Antofagasta
##Amor
##ulina
##ouard
##Bear
##Faroarna
##begransat
##besoka
##ophyllaceae
##slinjen
##Nazity
##Felder
##Tac
##kidna
##emo
##slam
##uston
##ierade
##inklu
##konsult
##smalare
##enberg
##ordent
##1750
##Lah
##yttan
##domineras
##flam
##tric
##بل
##slagit
##hamta
##Vasternorrlands
##Ardisia
##Verbandsgemeinde
##utmarkelsen
##hjarnan
##Mys
##hoglossum
##minuten
##tenn
##Formel
##owska
##Sarah
##filosofiska
##sper
##landern
##Felipe
##desto
##oplan
##icea
##stadsteater
##forlangning
##vy
##avgang
##ktig
##ubat
##Deli
##platta
##Sjons
##direkta
##Hyal
##maxim
##intendent
##Himachal
##islandska
##ocks
##stren
##propag
##iriska
##uip
##series
##colle
##lednings
##preus
##Hunan
##Zac
##Bett
##commun
##itor
##gravit
##spreds
##arrangeras
##cliffe
##pseudonymen
##Aden
##nac
##ensem
##Sista
##Flam
##Gel
##Qas
##syk
##oppning
##boet
##sandel
##Austin
##Augusta
##blodet
##Handelshogskolan
##Harrison
##Stadens
##agoza
##karaktarer
##Witt
##borne
##Cox
##bage
##Clement
##celli
##plag
##illos
##Fraser
##cheh
##Techn
##bladbaggar
##dominerade
##montana
##vaggarna
##offic
##rorde
##gut
##ocamp
##Honda
##syndrom
##enee
##Kopenhamns
##Universitetet
##undervisningen
##tillfangat
##Baz
##konstater
##Palme
##Salvador
##medfor
##hii
##Tennessee
##bidrar
##Hyg
##gling
##heri
##albi
##Nathani
##psykiat
##Ralph
##kag
##idningen
##strackte
##Bard
##EG
##Uz
##ced
##lanserade
##regimen
##Rocky
##fardigt
##varnplikt
##Heliconius
##Nathaniel
##skii
##perfekt
##Stens
##ject
##Kentucky
##Sitt
##stravan
##Poc
##blott
##representation
##Plac
##opyg
##yllo
##brittiske
##Organisation
##sjopungsart
##Dmit
##Sapr
##riva
##spra
##interna
##varldsrekord
##Playa
##institutionen
##forsaljnings
##Snow
##Skr
##anari
##onger
##typiskt
##formula_1
##Fernando
##ordens
##hemmamat
##guldmedalj
##Jenny
##Utanfor
##Hudiksv
##Diet
##uppdelad
##ratte
##dalens
##Macquart
##Oswald
##Phytoseiidae
##Fou
##kund
##unka
##Force
##idrottare
##bensin
##Lilje
##stabs
##historikern
##Round
##Rail
##patent
##argen
##Rehn
##synliga
##smassa
##Aby
##Wain
##atervander
##upen
##Sax
##Crni
##fordelning
##Acon
##Muk
##juridiska
##utbrot
##opota
##nye
##konstruktionen
##Markazi
##)".
##ringa
##ية
##berna
##register
##tyckt
##Zaragoza
##arit
##ledarna
##alpin
##Fut
##lla
##itim
##rens
##atts
##Catharina
##Nina
##Nami
##tidpunkten
##jorde
##Sacc
##Wikipedia
##Wed
##stred
##alba
##hei
##tradgarden
##analyt
##Gong
##icty
##abstra
##Fornlamningar
##Harjedalen
##Ryan
##zas
##bey
##spjut
##Zahr
##Smalands
##Singap
##Navas
##Mjol
##aterstar
##foljs
##Bayan
##Lambert
##Matthew
##existerade
##Sø
##umba
##byter
##Norrtalje
##existens
##tsar
##utlandet
##schweizisk
##ochia
##itlan
##Stran
##sektorn
##salda
##ocharis
##verser
##skotsk
##kolonin
##ornas
##roi
##patiens
##Mississi
##crantz
##overvin
##Nordvast
##fastningen
##opteridaceae
##Highland
##uo
##iterna
##kaffe
##musslor
##Hohen
##Ouest
##Dall
##leta
##musikal
##Jay
##restes
##artion
##hantering
##ytarsus
##jamt
##tacks
##skotska
##EF
##Mare
##inf
##undersida
##folkskol
##spelets
##universum
##besegrat
##handbolls
##"".
##ocep
##synonym
##Teniet
##stasien
##uppmarksammad
##insag
##Web
##fonden
##1786
##Volks
##Toc
##omal
##ylind
##nominerade
##karaktaren
##illustrator
##schaft
##Valdemar
##Matsumura
##ask
##ogh
##ikansk
##ansiktet
##Mycetophila
##Frid
##etra
##urou
##tab
##Claud
##begaran
##Astrid
##Khallet
##Mura
##minuta
##pojke
##Provence
##agent
##شت
##wai
##1680
##Hawaii
##XI
##pyg
##hanar
##Brunn
##Adolph
##prim
##forklarades
##diesel
##Marx
##dorff
##strands
##behandlade
##bolagets
##Baalbek
##trajon
##uhl
##inkluderade
##Southern
##Cram
##miska
##atoma
##samfundet
##bru
##hons
##Ender
##tibet
##Harvey
##bakat
##Diam
##byten
##Sundby
##Kart
##Arvika
##Ambl
##smarta
##kritiserade
##bytet
##Sparre
##olyckan
##Golf
##Kana
##Mara
##Rhen
##utbud
##ules
##Guel
##nojes
##1783
##Phal
##omin
##ingang
##feber
##storningar
##riker
##kly
##mall
##eringar
##Arct
##provinserna
##uktion
##planerna
##Extre
##hittat
##nigra
##kopplade
##uttalas
##Yun
##Lindstrom
##bestammelser
##Scelionidae
##forbered
##Kevin
##typisk
##Arbetet
##øy
##upptrad
##quil
##intermedia
##Nanchang
##kit
##may
##Three
##pyram
##folkbok
##Rey
##Utmark
##Agla
##Bruno
##karnvapen
##schweiziska
##Sordariomycetes
##BT
##Well
##initi
##Neil
##Latin
##Pris
##UD
##afrika
##hala
##mell
##水库
##rei
##Verksamhet
##allvarliga
##rasset
##Etymologi
##Mian
##zsch
##alag
##yrkan
##Fang
##arlig
##befolknings
##Chico
##irisvaxtart
##spre
##Chon
##kallan
##onymus
##Alands
##Khe
##Tut
##1760
##alisering
##Abel
##Tort
##bien
##lansvag
##Eph
##ochus
##rektang
##Pseudoc
##vallmo
##Kenneth
##skru
##skarp
##Tamanrasset
##Gou
##takten
##narkot
##sodes
##steknik
##Luz
##Liga
##Toul
##pure
##tyngre
##fabriks
##huden
##hanseende
##aliskt
##Guenee
##jagare
##Rhamph
##Elaphoglossum
##ypus
##Patri
##reporter
##sug
##etan
##hallar
##abo
##inrattade
##Mellanostern
##Dance
##grise
##Ehren
##Sanchez
##Dagen
##Brann
##1778
##bjork
##anarivo
##assoc
##kroppens
##noterades
##Dryopteridaceae
##750
##onskade
##adena
##slat
##arki
##uran
##uttrycket
##sving
##Coast
##fodels
##mekaniska
##timm
##Jinan
##GM
##aet
##arige
##onot
##innehallet
##assans
##oversatte
##Kvarter
##Fus
##هر
##Sarab
##Litter
##fyllda
##observationer
##Fos
##jevitj
##ministeriet
##sorters
##bea
##gend
##Solanum
##vetenskapligt
##moln
##immun
##Fell
##loe
##oias
##proctis
##vatska
##Antananarivo
##ulauan
##knuten
##guvernoren
##Ujung
##cham
##forlan
##Dennis
##Charax
##tjanade
##numret
##aluminium
##Sallskapet
##maka
##ostris
##arrangor
##singellistan
##Gour
##atro
##barare
##vensen
##salong
##keramik
##gruvan
##robust
##Glor
##Mycket
##gir
##vod
##delberg
##Coeli
##Fire
##Kepulauan
##Clus
##Mind
##sspindlar
##etidae
##repor
##delstatens
##urer
##Lef
##kvinno
##Baluch
##Banan
##Fish
##Marl
##Redon
##ponny
##Ivanovich
##urin
##byx
##vinden
##oversatts
##ryssarna
##Neoc
##schi
##Jacobus
##bryggan
##Space
##jov
##recht
##sommart
##Org
##Kajan
##forsamlings
##egendomen
##sockenkyrkan
##partiklar
##kvartsfinal
##deklar
##Dyar
##sakristia
##enheten
##ariensis
##Indiska
##vagnarna
##قر
##mots
##Delong
##militaren
##Salto
##alistisk
##Brotherus
##belgiska
##mittfaltare
##trajonvaxtart
##udo
##overs
##icularis
##Chas
##vals
##gestal
##indisk
##kamrat
##Sicilien
##Sic
##ophas
##gava
##protein
##databasen
##Haemat
##sprogram
##;/
##Vand
##Alter
##Mack
##Speci
##sultan
##hovdingen
##ojtnant
##Class
##Mix
##Ystad
##lago
##ornata
##medverka
##huvudroll
##storhet
##Cerros
##handelsen
##minnet
##kastade
##slavar
##befintliga
##Yunnan
##maa
##rish
##Helen
##Tekn
##slarare
##slinje
##Forsvars
##Muhammad
##adow
##Chart
##Nees
##kunnig
##ricitet
##observatorium
##allvarligt
##australisk
##kavalleri
##amaryllisvaxtart
##Dad
##Zu
##tul
##differ
##Edouard
##Frol
##Phoen
##Jat
##schef
##arbetslos
##allians
##adeln
##vackt
##snat
##krabbspindlar
##vete
##zestan
##1773
##ormstjarne
##inbjud
##ormstjarneart
##P3
##nandet
##otra
##Malta
##beslutades
##Willem
##obscura
##Gagne
##Abb
##BI
##Kars
##pora
##opolis
##stammer
##Aj
##bam
##ffekt
##ocyt
##ophle
##Steven
##forfattarna
##samlingsalbum
##cephalus
##Guillaume
##doli
##Arterna
##Lejon
##Boden
##iras
##bonus
##proffs
##Berna
##bub
##anthem
##forbjods
##svarare
##Buch
##upplosning
##hwa
##amea
##koren
##Porto
##publicerad
##koden
##Delar
##Sharp
##ubbelfotingar
##TC
##chrys
##Pecina
##snyltrotsvaxtart
##exklus
##Parmeliaceae
##wel
##Int
##minim
##eldans
##Dru
##Goli
##Kram
##biska
##kens
##busta
##avdelningar
##Reservoir
##Fyn
##Falt
##etto
##ssons
##effektivt
##stiger
##fardigstalldes
##vagor
##arisk
##borst
##fjarr
##fotosfar
##Venus
##flyktingar
##inflytelserika
##HA
##ariet
##sprick
##Chag
##Separat
##htis
##horis
##Deutsch
##iphon
##strukturen
##Eus
##jic
##riktad
##bokstaver
##Gorn
##rilus
##sprut
##driften
##Rhyt
##beund
##illie
##Alle
##langsam
##ritad
##missade
##georgiska
##tavlan
##organismer
##befalet
##Khuzestan
##113
##Ami
##albin
##Nordisk
##broar
##Shakh
##Hydro
##ław
##alfabetet
##vacc
##starrar
##Alfa
##riktningen
##yles
##skotsel
##spopulationen
##Font
##Nix
##Pty
##Vinnare
##zman
##formella
##bladen
##kategori
##Lyon
##Mana
##Smitt
##bant
##invader
##olon
##obli
##emiraten
##othrips
##duon
##1779
##utgangspunkt
##atrix
##forstarkt
##plar
##glesbefolkad
##Marse
##tavlor
##Prim
##brorson
##Curtis
##Rhyac
##seni
##lard
##prasten
##styrman
##Khwar
##vinrutevaxtart
##EL
##jok
##vardags
##ppel
##Brahe
##Rox
##panel
##odromus
##viker
##anan
##sonia
##kros
##nyheter
##arsjubileum
##britterna
##firma
##medlemskap
##Charaxes
##gia
##new
##Field
##manshah
##institution
##SSR
##katalanska
##inkorporerades
##KF
##Pott
##Anledningen
##nyhets
##kalfjall
##morkt
##oider
##kulturer
##hackning
##designer
##Militar
##four
##ront
##Swart
##iness
##spinn
##inez
##fortjan
##diag
##boplat
##gow
##Inn
##bakt
##Cayenne
##roddare
##ljuset
##Ovrigt
##intag
##perto
##olan
##tradgardar
##generationer
##Satakunta
##kmal
##sje
##sitta
##manniskorna
##hlen
##ла
##tator
##distanslop
##splittrades
##manuskript
##isortsvaxter
##kommand
##irlandsk
##Paijan
##ullskoldloss
##Haag
##Tanete
##civilingenjor
##Maximilian
##Cera
##Kermanshah
##robotar
##Ferrari
##avlidit
##Dactyl
##lasta
##ofer
##utbredningsomradet
##Langs
##bomull
##urneringen
##tingsratt
##nius
##idius
##akare
##barhet
##meria
##tviv
##Nagon
##rymden
##Final
##Centrum
##uttag
##mene
##Enico
##arsis
##Italiens
##hinus
##Tetran
##rikaste
##Rodriguez
##Vem
##vattenflugor
##Pauli
##Ved
##pann
##Zach
##Qarat
##ryttare
##kinestradsvaxter
##jama
##forar
##forsags
##ctis
##natura
##forenade
##variera
##Amerikanska
##Gome
##Hap
##besatt
##ikki
##Bayer
##orlogs
##gudom
##kommunalforordningar
##Lombardiet
##HMS
##Kuch
##یر
##orgia
##Way
##californ
##aq
##brunt
##mogen
##unk
##manns
##Inger
##syftet
##trump
##uhrer
##Sever
##Webb
##balsamin
##Psal
##Work
##wyn
##Linder
##Platyp
##sindustrin
##ealis
##Scol
##Stadium
##Rash
##Vers
##framste
##Ronneby
##benamnd
##garnison
##ofull
##Leconte
##visserligen
##Spaniens
##oridae
##rima
##uds
##ikerna
##hius
##Superettan
##emblikavaxter
##nah
##uppforde
##uppmun
##lines
##kvinnors
##Micr
##Plata
##Guanaju
##Cola
##Klipp
##normala
##Uruguay
##Pem
##monotyp
##periodisk
##mossl
##Flores
##Found
##Dynast
##nedanfor
##tranings
##styrs
##Dave
##invid
##Chand
##arbetarna
##Gift
##ED
##ogle
##ally
##akust
##bosn
##Valpara
##klubbarna
##Empoasca
##buksspindlar
##Plut
##konson
##country
##Weber
##beskrivits
##Noth
##wu
##ilema
##plattbuksspindlar
##blues
##Curran
##svetenskapsakademien
##lystet
##ingiber
##Isak
##yos
##rada
##urum
##Pau
##Verket
##Duck
##Balkan
##avsevart
##Cuchilla
##big
##prosa
##matningar
##Lahtis
##insularis
##praktisk
##DJ
##gevar
##Reid
##Silva
##turneringar
##tackten
##Laurentides
##Mesochorus
##ammun
##1719
##hemsida
##Bohus
##oidea
##동
##inac
##lica
##Surkh
##urnal
##Cresson
##Tik
##Poe
##grenad
##Cua
##zelius
##motiver
##vistelse
##Nicosia
##occidentalis
##Sek
##anfoll
##cheng
##otre
##adh
##slakting
##ulp
##rosta
##guldmedaljor
##republikansk
##Halmstads
##sandeltrads
##Eul
##Fes
##halsen
##fikon
##Paijanne
##iset
##konspi
##givits
##ouia
##Allmanna
##dubb
##lur
##framford
##Conservation
##1777
##ansikte
##Munt
##Nie
##Pay
##Medelpad
##Peric
##Rapp
##Service
##Madhya
##zee
##IR
##opan
##bukten
##Era
##Roma
##pinn
##دو
##slalom
##oblystet
##Village
##odlings
##segrade
##tium
##Valparaiso
##likan
##splen
##Samhallet
##Science
##kontraktet
##tillfalliga
##Slottet
##inledningsvis
##Pong
##arhund
##ceus
##Spi
##byns
##Impatiens
##segment
##oserica
##Qe
##chor
##Stich
##monia
##planerat
##consin
##klarar
##litterar
##Plagi
##trol
##tillhora
##bildnings
##McCart
##Enicospilus
##icipali
##forsaljningen
##Face
##pag
##lef
##torlar
##planerades
##oversattes
##Centralprovinsen
##nasselvaxter
##Ane
##memoar
##federala
##felaktigt
##Ornskoldsviks
##avy
##Arb
##narbelagna
##hardr
##Unes
##Meigen
##hele
##planeten
##Jerevan
##sah
##handla
##styrelsens
##skatter
##gazine
##Pred
##passerade
##Vaners
##Tidning
##erbjuda
##agan
##icks
##Narke
##landsia
##Morelos
##asiatiska
##Cyrtandra
##ophytum
##Inget
##ycus
##112
##Ish
##sslaktet
##racer
##stemon
##robusta
##jordbav
##yces
##ursprungs
##inleds
##accepterade
##ryssland
##Pristina
##sydligaste
##Soderberg
##loppart
##vanligast
##forvaras
##News
##Sandy
##Castillo
##Xiang
##Sibirien
##oacan
##upptrada
##korv
##Platsen
##symboler
##02
##vernor
##strig
##Moose
##keart
##backe
##praktiskt
##kartor
##Aber
##armar
##medeltid
##ofa
##arenden
##ologie
##knande
##kejserliga
##haren
##grar
##Sagan
##administration
##Farah
##Jy
##olim
##namner
##tvilling
##Batu
##Gue
##Hemi
##Oum
##TO
##pant
##Pack
##This
##Thes
##Zingiber
##vek
##systrar
##laglandet
##obates
##utbildningar
##missbruk
##ostema
##comycetes
##NP
##anica
##Greta
##Nykoping
##trium
##halvt
##dansare
##odactylus
##Stromsunds
##hypotes
##Student
##Tillandsia
##Bella
##Tator
##1763
##musikern
##Ischn
##vindevaxter
##Jokkmokks
##fia
##kilstritar
##daren
##trunc
##Unga
##litets
##kungariket
##Mia
##gradvis
##Edinburgh
##1660
##Erica
##mobel
##Java
##fim
##pask
##ocos
##Herre
##Bulud
##anordnades
##oblastet
##Wisconsin
##amu
##itrium
##osticta
##undo
##imbo
##Moj
##Hampshire
##:"
##Tog
##Ormos
##Calyp
##Krigs
##reformationen
##komponenter
##eros
##vanta
##brud
##barna
##omfatta
##industrier
##Kiel
##befattning
##Agaricomycetes
##preussiska
##Hatt
##hut
##varvet
##omradets
##fiber
##Sved
##Feng
##tred
##arct
##deval
##kton
##Lakh
##bilderna
##Sahl
##Nordirland
##luck
##puckeldans
##Guanajuato
##behova
##mela
##Trachy
##Solen
##Nanjing
##rymdfar
##grobladsvaxtart
##forlangdes
##ilosoma
##Hydraena
##MTV
##wol
##haj
##Termin
##Boys
##stamma
##Gras
##Dagı
##Ahmar
##Bord
##nitz
##edral
##promen
##Erem
##utnyttja
##Pommern
##Tunis
##Ejido
##390
##sproc
##Andrej
##ather
##ovia
##allsvenska
##odlor
##misstag
##يل
##meteor
##uppfost
##forvaxlas
##Vara
##Forum
##sido
##flodet
##Swin
##Fitz
##Nog
##bull
##eger
##mej
##bladloppor
##inriktad
##Naringsliv
##puckeldansflugor
##Produktion
##stimul
##sterb
##adress
##illius
##1767
##ideal
##Clinton
##wicz
##ست
##opius
##fodde
##muslimer
##benet
##interi
##Agrotis
##Sars
##avses
##vakten
##forgift
##ovar
##Bahr
##Akadem
##gynn
##atidae
##china
##mottagande
##Amman
##radiost
##nigric
##forsvinner
##Crique
##emblikavaxtart
##Dynastidae
##Gris
##Chabet
##Michoacan
##oversatta
##Ked
##innov
##abilis
##upprattade
##speglar
##Drom
##chans
##Alc
##tecknad
##Girl
##bakterier
##Rel
##Soli
##slas
##jordbruket
##opeza
##uppskattning
##Igna
##situationer
##Thorn
##xant
##illata
##ulifera
##sbergs
##enas
##inii
##santa
##galleri
##lamnas
##hurst
##Miner
##rimin
##Ardenne
##kasteh
##Beli
##Antwer
##Polypod
##Pseuda
##gentianavaxter
##odynerus
##03
##Fig
##lyd
##uis
##atri
##maire
##jarv
##Kommunens
##protest
##stilleben
##listerna
##motsvarighet
##Sasong
##Hz
##terrang
##mannii
##lovflugor
##traffat
##assisterande
##predikant
##Research
##Cym
##Gyn
##Ohl
##kamera
##krisen
##Riau
##stjansten
##gris
##sumak
##Bradford
##Osmanska
##Carri
##driven
##noterade
##kastning
##Dallas
##Fren
##Grig
##Ue
##umont
##Ebba
##utlopp
##odrosophila
##irlandska
##Grav
##coron
##culus
##umo
##spring
##Campan
##Clev
##hits
##ulation
##spelningen
##inforandet
##kravdes
##signaler
##sklubben
##skildring
##Fler
##Lyc
##øl
##anstrang
##mali
##forhandlingarna
##Tavastland
##forhor
##varie
##otan
##opyga
##hein
##regerade
##fysisk
##Landet
##attent
##Laura
##Hewit
##fossil
##klack
##sexualitet
##Mendo
##Strong
##hjuldjursart
##fakulteten
##Maritime
##atia
##ppo
##administ
##Provinsen
##Tenuip
##Etienne
##Cesar
##Schumann
##fordrag
##ridi
##ossor
##satellit
##svaga
##otet
##larob
##bola
##1774
##auktor
##avlagsna
##stapeln
##Cut
##Jons
##Tings
##Spil
##Tau
##Bjorneborg
##icipality
##Rif
##Svet
##inkop
##alea
##ochthonius
##strafiken
##binder
##Wayne
##Ghazni
##Dion
##ylen
##Maran
##Peck
##volleyboll
##stilla
##igra
##othorax
##stata
##Kommunikationer
##Knock
##buken
##blomsterflugor
##stachya
##)",
##lera
##grundandet
##itsup
##restaurering
##erkannande
##Trondheim
##Varberg
##betydelsefulla
##agi
##action
##upta
##Bilen
##egyptiska
##Theodore
##Ulaan
##Data
##slagna
##expansion
##Bub
##Dup
##onskan
##besattning
##Lib
##franskt
##graver
##laktet
##Niklas
##MLB
##kou
##ocala
##indien
##uckerna
##oriteter
##materiel
##Arabemiraten
##Gilli
##Mate
##Oromia
##Tio
##Women
##syda
##Ingeborg
##Tier
##stott
##emy
##ischen
##harkomst
##jarnet
##schwe
##riksvag
##Emilio
##Bald
##Soll
##namndes
##nosen
##konsum
##Craw
##spinosa
##Hubner
##Cul
##olds
##Schwe
##riksradet
##Stenbock
##Swedish
##Dartill
##tla
##ostom
##obolus
##Melita
##toni
##essel
##issing
##ifik
##kram
##act
##sibi
##Deutsche
##Raj
##Warner
##Japans
##atmosfar
##SU
##dactylus
##verkning
##Perdita
##ariae
##Utrikes
##mjuka
##Ignatz
##ymen
##grottor
##Berger
##Sevilla
##Amp
##Osttyskland
##Toy
##Hope
##skym
##bega
##uppgiften
##Changsha
##rattor
##dubbelt
##boxning
##Hannover
##Karen
##utsatts
##Horse
##hoeff
##styltmalar
##ockuperade
##Nere
##sw
##itsa
##ricus
##underlatta
##slutgilt
##poeten
##forelasningar
##Brist
##Ora
##odlade
##opi
##plans
##Personer
##fordelningen
##Pittsburg
##reli
##utslagen
##Bror
##opot
##ullen
##Cruc
##Svensktoppen
##catus
##omed
##ressiva
##hous
##Beier
##styrde
##hardt
##Slovakien
##amarantvaxtart
##dalis
##lish
##Karlstads
##polo
##pressa
##reaktioner
##nasselvaxtart
##Pyrene
##paradox
##recept
##Forel
##drick
##Euproctis
##premiarvisades
##Muhammed
##Ungefar
##Press
##Vul
##foringen
##bekamp
##Arter
##Guay
##historier
##summan
##exper
##tibast
##Sau
##behandlades
##strukturer
##Bottenhavet
##liano
##alg
##avia
##cheon
##Andersen
##sammanhangande
##templet
##kallare
##gravsattes
##forskaren
##avsluta
##Mississippi
##Kes
##thor
##ochlora
##ipha
##Storm
##datorspel
##utmarkte
##Hipparcos
##ads
##satsa
##symmet
##Schen
##dialekter
##Rolling
##Hok
##Spart
##opard
##Ching
##Coron
##Garet
##Korea
##Rhyacophila
##ierre
##partist
##Forenta
##Zemmour
##lasarett
##samlingarna
##Teodor
##europ
##Musk
##Powell
##oriska
##1766
##anvandningen
##Qaasu
##antikens
##Projektet
##Tian
##arpa
##cay
##lilje
##Glenea
##draftades
##650
##1720
##keh
##erovrades
##begarde
##Bem
##Jus
##jem
##qah
##Marianne
##kurd
##Ashme
##Kott
##Poll
##forings
##idig
##hjort
##Bath
##kemisk
##ادي
##Yi
##ingent
##steget
##pragl
##Qafa
##Maryland
##vegetation
##Gary
##Ishan
##listorna
##Qaasuitsup
##Catal
##Foster
##zor
##Gui
##figurerna
##nederlag
##Standard
##foredrag
##Hewitson
##diga
##uto
##spion
##Spilosoma
##phyr
##konstverk
##1784
##tilltalsnamn
##ware
##chok
##alat
##biologi
##Alexandre
##Pablo
##hande
##boy
##vektor
##Lach
##utbrottet
##iculatus
##undre
##konstnars
##Semnan
##Age
##jm
##skomp
##kabel
##garan
##dioxid
##tvungna
##issionen
##Gilan
##aktiebolag
##valds
##Malp
##tolkas
##Kiri
##Konstantinopel
##lutherska
##Gonzalez
##svager
##andar
##illaria
##Cara
##Roc
##Tower
##تنگ
##medie
##stack
##Lia
##barande
##Elin
##divisioner
##Luigi
##resterande
##siffrorna
##Baluchistan
##Chav
##demann
##ismens
##betit
##grundserien
##ovansida
##hedrar
##Asi
##Cler
##cias
##Trump
##epe
##alpis
##Beno
##bonderna
##Richards
##Viejo
##Sophie
##asyl
##Ellis
##alvens
##styret
##Camponotus
##Oxen
##forsvarsbeslutet
##ochromis
##Isidro
##Wells
##anark
##forbattrade
##Chateau
##Rhopal
##Snor
##andes
##spok
##apo
##Zak
##1740
##buch
##utgavor
##Voda
##densamma
##ilje
##quis
##ophyla
##vink
##Qarku
##temat
##umn
##iern
##Illi
##svang
##Kajanaland
##Bres
##Kitt
##andrad
##Quin
##Viborg
##tittar
##Broadway
##Tali
##dic
##opsidae
##Maine
##Casa
##Coni
##Carden
##Fagelns
##Utmarkelser
##ansokan
##hiro
##oupe
##Unger
##Johns
##voj
##Bergstrom
##vertik
##utovade
##Cich
##flagg
##vanskap
##Saari
##likationer
##carpa
##giftermal
##muskel
##lamplig
##Gry
##Novo
##kvant
##omalus
##cherna
##agda
##ext
##verks
##doma
##fotterna
##Reinhold
##hle
##Karlskoga
##rosten
##behor
##spy
##tales
##turer
##Orgel
##Asper
##klassic
##inledande
##Made
##bama
##chium
##egg
##Uno
##lyx
##rotund
##Silve
##grandis
##Stem
##urella
##pastod
##utslapp
##marx
##Municipality
##Hogskolan
##tjeckiska
##Cov
##drakten
##laran
##krigstiden
##wei
##Gharb
##dramatiker
##kalksten
##moment
##sjung
##ledningar
##kristall
##uppfattas
##tenuis
##Navarra
##obligator
##stis
##omic
##soktes
##ftar
##ryas
##fattande
##halom
##Milan
##dramatiska
##Lycksele
##Vell
##orsaker
##bildningar
##Benito
##bezirk
##forandras
##ogyne
##ledd
##Kai
##edralen
##forsakring
##Ada
##Ehr
##ombe
##yrer
##intern
##Distant
##brasiliansk
##stachys
##omojligt
##bena
##cac
##kanen
##iret
##flockar
##Ahmed
##dopt
##Enderlein
##Goni
##Iden
##Lamar
##iulus
##skadad
##kah
##ventarier
##bevarat
##indian
##Caroline
##alensis
##lab
##reson
##vinster
##alm
##konstforening
##utses
##Araneus
##horisont
##halia
##truppen
##Moluckerna
##radikala
##Paktika
##symtom
##Sistan
##Tuna
##huvudbyggnaden
##Nect
##Sprak
##sandningar
##Metal
##frivillig
##Holl
##vass
##taine
##opla
##Entre
##visste
##renassan
##stupade
##styrande
##brittiskt
##Year
##castle
##Landslagskarriar
##monotypisk
##ynes
##praglades
##105
##1771
##moderforsamling
##regementets
##Nut
##Posten
##isia
##betet
##Relig
##Hero
##Sandor
##Dramaten
##johannes
##Goias
##teologiska
##solit
##Troch
##Parken
##globala
##Bremen
##Jerry
##Hang
##bevatt
##Chironomus
##kandiderade
##Job
##Yng
##jades
##skort
##isortsvaxtart
##Flet
##racklig
##Mattias
##slovs
##stjal
##amet
##mmor
##sammansattning
##Martinez
##rall
##Full
##Kring
##SI
##skrot
##rator
##Percy
##Varbergs
##kik
##Mask
##Bela
##tjana
##Singapore
##cand
##ии
##inot
##vacka
##overlakare
##gie
##rididae
##handelserna
##Palestina
##Stern
##namnde
##Roe
##kontors
##tillgangar
##114
##Jel
##delakt
##otro
##ionellt
##hogtid
##knopp
##berattig
##orkestern
##innehallande
##intressant
##vindevaxtart
##Gnat
##uret
##sier
##ekor
##ophyl
##pect
##telef
##Hudson
##Bami
##Vard
##besattningen
##Shekasteh
##Kunth
##Herat
##hockeyt
##osen
##Lauren
##Schef
##skiold
##Charac
##Houston
##vetenskapen
##allojtnant
##nordamerikanska
##hac
##Biel
##Rije
##odesmus
##Arrow
##fiende
##Kopparbergs
##Eure
##Lily
##huvudserien
##Anlaggningen
##Princ
##Nykopings
##Vanster
##moderklubb
##Bula
##Hou
##forbruk
##Kalix
##renoverades
##Gus
##hogar
##Nara
##hollandska
##karnan
##lins
##tanker
##fullstandig
##macr
##akvarell
##crassi
##Cec
##Fros
##از
##Trach
##bracte
##specifikt
##Michail
##psykologi
##Socialdemokraterna
##diplomatiska
##Kow
##idas
##hemlig
##malaren
##Papa
##formyn
##texterna
##skonhet
##invigningen
##Eurytoma
##Este
##ст
##omb
##istern
##Stats
##Lazar
##richia
##Verhoeff
##Phaonia
##medborgarskap
##Eum
##Tunn
##uppsta
##roma
##ritat
##ferrug
##klassiker
##konstruktioner
##studioalbumet
##ockupation
##Pittsburgh
##Winn
##cing
##iderna
##syntet
##alpina
##dammen
##motorvagen
##fylld
##tryckta
##BMW
##Cyathea
##Arsenal
##Sera
##SHL
##anat
##indelas
##Guang
##moral
##skicklig
##ingenting
##Ez
##onensis
##krys
##hojder
##jamna
##brandes
##erovra
##Gap
##evolution
##krog
##tena
##korrup
##automatiskt
##Malpigh
##Aou
##Frost
##rav
##marck
##ims
##Pays
##ysis
##rakna
##Schi
##forbran
##medlemmen
##kostnader
##Wit
##sjom
##andraplats
##lance
##planerad
##Johnston
##omerus
##Elect
##tennisspelare
##sjukvard
##send
##merit
##tredjedel
##marknadsforing
##eventuella
##sjostjarne
##elongata
##idum
##Armad
##lekar
##helige
##insula
##vallen
##Oregon
##prastvigdes
##sjostjarneart
##Gyp
##avel
##ossen
##loa
##Kingston
##komplexa
##begravningsplatsen
##Dolichopus
##Cala
##fit
##vex
##narhet
##Enare
##Handlingen
##Utbredningsomradet
##kinestradsvaxtart
##OM
##vads
##namnd
##Kreta
##Klubbkarriar
##Mendoza
##oval
##tidvis
##baatar
##sympat
##Auriv
##frivilliga
##Aeg
##Moll
##ик
##brook
##fordju
##Trinidad
##Iowa
##pala
##Free
##Sigurd
##Viv
##iata
##ingsas
##harskare
##thy
##Quad
##inriktade
##Ljusdals
##Elat
##Gius
##Ming
##Xer
##champ
##ambit
##deln
##elea
##hiphop
##Pool
##fasc
##Lamb
##eleverna
##Liberia
##Dud
##Talb
##رو
##gratt
##Anda
##hjartbladiga
##orianska
##Arte
##ultra
##ceptor
##tilltrade
##male
##Hagen
##Gert
##Ceara
##skrivits
##Lissa
##demonstrat
##Turneringen
##asciata
##Nurn
##queta
##Gabor
##cyp
##amiska
##generaldirektor
##herrlandslag
##mobler
##Sympl
##Bollnas
##Zimbab
##Khos
##kow
##dres
##raknat
##skickas
##Proteaceae
##EB
##ljust
##rota
##dex
##tempor
##Styr
##sprit
##saljer
##nagonting
##agera
##fotografier
##Memorial
##Aurivillius
##Lost
##Tolima
##Valla
##Vera
##landarea
##umin
##langhorns
##domde
##Dalarnas
##Hilde
##اباد
##smeknamnet
##산
##rackte
##hackspett
##forhallandevis
##exporter
##Engelska
##Bamiyan
##DDR
##hamp
##olag
##oton
##kommando
##obran
##livnar
##chefs
##generalsekreterare
##knappa
##Kinn
##valific
##emane
##istrikt
##Adler
##australiska
##Brothers
##Melitaea
##wyl
##irostris
##ocrat
##etablera
##infektion
##Hassle
##Nott
##arda
##ikos
##malad
##olabis
##banks
##museets
##politikern
##jobbar
##Kymmen
##Hjort
##indonesiska
##Hull
##Yama
##kopia
##svarar
##cykl
##otiomycetes
##cini
##gum
##jka
##Arke
##lagkapten
##fibr
##banker
##tekniskt
##Apple
##forknippas
##koordinat
##Isle
##demokraternas
##Pyg
##uana
##arsia
##Viking
##Jungfru
##Francesco
##Rund
##spara
##enti
##konferensen
##Meh
##Bah
##joner
##Henning
##Malet
##utnamnde
##ombi
##storning
##oct
##arbetsmark
##Baham
##studi
##kavaller
##arare
##jury
##Katrine
##fyllt
##kyrkorna
##framstalls
##Antwerpen
##jarten
##liz
##terings
##kastar
##Spha
##Santos
##Brow
##parlamentsvalet
##Taby
##tunnelbana
##Dussel
##Jura
##Moller
##Wald
##sace
##viola
##Dals
##micro
##Slutligen
##gentianavaxtart
##galax
##Frolunda
##وادي
##innor
##torps
##plum
##ongia
##Haus
##Flora
##Moss
##Us
##Valais
##fut
##gue
##uff
##eknik
##gangs
##Petersen
##rockbandet
##aer
##pura
##spad
##akademin
##Soul
##Helina
##Louisiana
##forestallningen
##Tatorter
##Epar
##Rita
##Than
##Breton
##sprint
##roten
##Galicien
##Lutz
##Cornelius
##underjordiska
##kanned
##tiana
##linjerna
##generallojtnant
##Stras
##fjorton
##Spirostre
##Pheid
##etap
##statsk
##Mani
##fiskare
##foljes
##Swamp
##lagstiftande
##comeback
##Dioscorea
##inser
##dialog
##Kungl
##formula_2
##fusion
##orienta
##Rhamphomyia
##Jad
##dav
##Chelse
##Deep
##storstads
##bands
##Palo
##utsander
##symptom
##Ving
##vinge
##genomgatt
##Ludvika
##affaren
##engelsksprakiga
##kompositoren
##samhallets
##horst
##Rode
##Sydshet
##revider
##leant
##ytus
##censen
##Trog
##Baja
##guldet
##Osaka
##aud
##rupper
##provinser
##forestallning
##Barry
##President
##melodin
##runsten
##utrustade
##Sydshetlandsoarna
##fester
##lyong
##slappts
##professorn
##Sandberg
##sledningen
##Vran
##eon
##wagen
##Marcos
##Eld
##fallit
##Marius
##hotellet
##inflammation
##yrhachis
##Pall
##fei
##toria
##Hanen
##Giuse
##efterfoljare
##strong
##paren
##onaut
##kompens
##arkitekter
##flykting
##Pizzo
##etscher
##sensis
##hundratals
##Khen
##на
##stiga
##atton
##Prop
##Khwa
##ambete
##temperaturer
##illidae
##Mae
##Onc
##rotoma
##Miles
##experimen
##Sony
##omges
##raknade
##Motte
##Kungen
##Bactro
##Hari
##Wies
##يد
##uppfort
##phes
##Nyg
##skord
##landhockeyt
##uppvarm
##Ostersunds
##Kalat
##Alberto
##stjarnorna
##misstankt
##tunna
##smorbul
##(”
##avfall
##opart
##ize
##primara
##japonica
##lephar
##spegel
##Xanth
##villan
##Eddie
##brunne
##Wheeler
##rattegangen
##Tich
##pok
##mash
##flut
##irah
##Transport
##kontinent
##urd
##attlingar
##exter
##tungvikt
##Dmitri
##Sart
##Boe
##turister
##aktorer
##foretags
##Burkina
##pulver
##Homoneura
##reali
##cko
##styrdes
##makens
##jobbade
##Xanthor
##soundtrack
##Kod
##gna
##nyg
##andrar
##ismat
##frisk
##Andres
##Skanes
##teleskop
##Dasych
##Heidelberg
##artnamn
##Perkins
##patag
##Petri
##budskap
##uppratta
##Villan
##forestaller
##Khus
##alin
##ythe
##Pors
##arr
##inblandade
##sou
##Bros
##standarden
##extrema
##Flandern
##Vy
##Yr
##Court
##natverket
##aniemi
##primit
##odera
##kandidater
##diagnost
##praglad
##Cros
##plic
##rison
##icans
##slump
##icaud
##Broderna
##kommersiell
##Kritik
##AL
##brostet
##cement
##uppgav
##adar
##spitz
##skapandet
##rykt
##holmens
##innehavare
##tanka
##smalbin
##varldsarv
##Ingvar
##extrem
##ocarpaceae
##Barl
##frek
##kunn
##kniv
##Mater
##veder
##skrov
##rista
##svalt
##Allium
##Joach
##scut
##Galleri
##Hager
##Orgr
##stilar
##Sudan
##overgar
##kommunikations
##Piaui
##Agen
##Sti
##mansklig
##Middle
##Cochrane
##illustrationer
##Maple
##enhets
##ogn
##samlare
##ictus
##stralar
##relater
##programm
##Public
##Dasychira
##Betta
##Oarna
##Design
##videor
##skyla
##Fortplant
##Lerr
##Hagg
##fris
##oppa
##kajarvi
##Magazine
##armeniska
##ingenjoren
##stranare
##alternativa
##Gibson
##atare
##itj
##begick
##utbildades
##tilldelats
##Alingsas
##Fria
##Vetenskaps
##Ward
##konsm
##strarna
##anii
##journalister
##Veck
##dug
##vaka
##delstat
##Aloe
##uralis
##Summer
##oftare
##overvagande
##anthemum
##Nyslott
##foga
##erskan
##itius
##paus
##svet
##Testam
##boks
##lopning
##tuberc
##Renault
##Utah
##innebara
##resultaten
##existerande
##Sidney
##Rip
##tent
##ilers
##onius
##erae
##forsedda
##turbin
##numer
##Dubrov
##Euse
##kers
##atz
##lib
##iense
##indica
##ycon
##uaq
##Malawi
##romantiska
##Buenavista
##kvarstod
##Villman
##Ingenjor
##otheca
##Giuseppe
##Milli
##avsattes
##Ski
##forbinder
##Richardson
##Oberthur
##yab
##uppsattningar
##norna
##bergi
##stallare
##Bodens
##Kaf
##cyklar
##Jenn
##palest
##traffades
##omgiven
##Blume
##infrastruktur
##arra
##eris
##vaxlande
##mind
##stadsregionen
##rosia
##likasa
##Lycaena
##golvet
##Megal
##Jiangsu
##Hunter
##foresprakade
##ophanes
##IL
##TT
##montan
##Princi
##passar
##German
##Lundgren
##sandebud
##invasionen
##devallia
##Joachim
##Kill
##eura
##hyra
##entrum
##Schl
##ulax
##present
##Stenen
##stalten
##invasion
##Bash
##Dander
##FL
##KTH
##Nin
##ostylus
##opora
##Masdevallia
##strackor
##Jorgen
##egr
##hild
##ihjal
##ymus
##synen
##bordet
##rattsliga
##meddelande
##Gastrik
##Fletcher
##nytta
##Karlshamn
##Bend
##yttersta
##Lotta
##cyc
##fum
##yun
##medium
##formeln
##pipran
##bearbetning
##Yon
##byl
##ionidae
##lath
##modersmal
##Buffalo
##dran
##lots
##arton
##odis
##invanar
##Burn
##operla
##Geran
##datidens
##bryts
##fiktiva
##bysant
##www
##Brid
##Ea
##belia
##kopman
##iverk
##myrlejon
##programmen
##bedriva
##Bjør
##Gyl
##gret
##ichus
##Google
##flickan
##forsorjning
##norske
##motsatte
##slutat
##Guadel
##varieg
##Kho
##utbyggnad
##udan
##opes
##eke
##cirk
##Miquel
##Arenan
##charge
##Fav
##Rico
##utsattes
##utbrytning
##Kejs
##Khak
##rustning
##Schefflera
##Apat
##Lion
##Rush
##atlan
##def
##Nann
##yin
##Skri
##Fraccion
##Harnosands
##Yak
##brus
##Arbets
##Skepps
##Wallace
##Jyva
##dvar
##saaret
##flava
##Skal
##Heliga
##Atrich
##bracke
##Titan
##Cylind
##reperto
##anax
##Look
##modul
##uttalade
##Phytomyza
##strategi
##forandrades
##landers
##komiker
##efterat
##Saq
##ineh
##operativa
##maculi
##legenden
##komedifilm
##koll
##utsatta
##badet
##imon
##Karnat
##placera
##Palmas
##Dalmat
##Euphy
##oderma
##fragade
##torngrashoppor
##Homs
##Philippe
##fjadrar
##beordrade
##Latt
##ел
##aterb
##rect
##foranden
##makterna
##mandatperiod
##Zahrat
##"/
##Indig
##syror
##uniform
##1650
##Paran
##Hender
##manaders
##finansiella
##kristendom
##Front
##Gau
##uens
##avsag
##detsamma
##svatten
##stammor
##tackta
##Microc
##Jess
##MP
##Nice
##Okla
##Palp
##dragon
##oceanen
##befogen
##Ashmead
##')
##yz
##rede
##adenia
##adliga
##forete
##Pied
##Douk
##placeringar
##Brunner
##registrerades
##ninge
##vidstrackt
##vecklare
##Sermer
##mangfald
##Columbus
##programmer
##Hexatoma
##.).
##Xbox
##andlig
##agd
##iru
##Deger
##ledda
##Acal
##sleden
##uppskattade
##Faso
##undinamarca
##Oen
##eru
##alge
##onii
##mastarna
##Varldspopulationen
##NBA
##osom
##jarns
##hemlandet
##1640
##Carr
##Djurs
##Harl
##Tallet
##leys
##malen
##basist
##stekn
##public
##ifs
##Mason
##diskrimin
##uncil
##starkaste
##Lex
##fuhrer
##Baby
##forvarvades
##Musikaliska
##ein
##kling
##stamp
##ogren
##nych
##heltid
##Nordafrika
##trana
##Wein
##ansluta
##Chimar
##morker
##Songs
##ebr
##mekanisk
##justiti
##artilleriet
##Fow
##nave
##tila
##اش
##insig
##overlevande
##blandas
##frisim
##operator
##rorelsens
##mytologin
##slinjer
##Dusseldorf
##Akten
##Kag
##Saone
##Peterson
##Pleospor
##vokal
##karnsvampar
##intervjuer
##finansminister
##Harjedalens
##anstalt
##presenteras
##Palsen
##Linden
##skalan
##Byggnads
##spanjor
##Alexandria
##Hwang
##onem
##maraton
##stry
##Mahar
##partis
##Parque
##innehar
##fisken
##Epic
##orphus
##brunnea
##Gyeonggi
##ompan
##forre
##ellaria
##Heilong
##flykten
##suppleant
##Nipissing
##Guadeloupe
##yad
##naken
##agement
##Expressen
##Hogre
##behovdes
##faglarna
##Indepen
##coll
##stycket
##deli
##hannar
##engels
##Nagy
##What
##koreansk
##punctatus
##overenskommelse
##Brat
##homa
##kont
##grac
##identi
##ockupationen
##Barend
##ormbunkeart
##Cep
##wand
##bekampa
##paa
##innebandy
##krasch
##Ull
##soloalbum
##Simpsons
##Orgryte
##410
##Lus
##vilt
##aterkomst
##Negra
##ringmaskar
##fornam
##athis
##brytande
##svavel
##vrch
##jn
##sip
##Jazz
##Olav
##Oulad
##Gonomyia
##Theridion
##fokuserar
##gyllene
##myrlejonslandor
##Cundinamarca
##Jub
##Lana
##ucha
##yed
##Steph
##Rodnik
##Botan
##Systematik
##uppges
##Sports
##krag
##Samu
##Vila
##hunden
##bau
##apost
##Haut
##brachy
##passade
##Larsen
##Chloroc
##Fredrikshamn
##Ficus
##Neg
##Ruth
##eser
##rado
##sasongens
##organisera
##smanattslandor
##Austro
##Cirka
##ikondi
##Kvarteret
##Hipparcosuppdraget
##Giro
##yza
##uttryckte
##terats
##Ingem
##entia
##vasterlandska
##Malin
##bronsmedalj
##foreslogs
##Nassau
##jattest
##Fleming
##Kymmenedalen
##smorbults
##Jør
##Dahan
##foljden
##tomten
##ocalyx
##Karnataka
##Xyst
##alta
##andring
##jansten
##icata
##Marsh
##Skid
##gua
##Daikondi
##civilis
##Masters
##apicalis
##Lempke
##tillbr
##vial
##Chaouia
##Alabama
##420
##Camar
##Eust
##lukt
##Stark
##valjs
##skontroll
##road
##aterfanns
##burger
##landskamp
##forntida
##fasen
##Markus
##stagare
##550
##iflora
##itia
##haven
##acus
##ocom
##heles
##kogarden
##smorbultsfiskar
##Kemi
##Nos
##cab
##elet
##arien
##ledet
##bosa
##Hamra
##Patrik
##enorma
##Kandahar
##Eparchia
##Wings
##add
##orada
##AN
##Tham
##ingrad
##illhorighet
##Arda
##firas
##stadsrattigheter
##orientering
##ryggrad
##synnerligen
##obio
##Death
##Oruro
##fotografer
##Nynas
##hybrid
##namo
##Tidigt
##oscopus
##Hiroshi
##haradshovding
##Nordvastprovinsen
##Eck
##beng
##omyrmex
##givaren
##Malar
##Flint
##Ouardig
##oteket
##forvaltas
##Dongri
##Hesper
##Dakota
##Dansk
##hist
##rikedom
##kvick
##Devils
##opti
##antenn
##Saga
##castan
##imperiet
##Swinhoe
##Jyvaskyla
##116
##nitt
##glatt
##lamning
##kyrkligt
##iscidae
##raddning
##Bibliografi
##Abi
##ipp
##mud
##icanus
##Konstnar
##Athlet
##beman
##oles
##Arme
##neh
##skommitten
##Boulemane
##(,
##krat
##angri
##sooq
##dala
##avag
##perma
##svikt
##ierad
##dorrar
##patient
##sindustri
##Ouardigha
##fordelar
##Spec
##aktiga
##Blanchard
##Aspid
##parallaxmatning
##alam
##avhandlingar
##oning
##ovant
##ishi
##101
##Olympia
##diskussion
##Nacional
##Ulaanbaatar
##Heilongjiang
##Idol
##raser
##otidae
##beratta
##upi
##stenbracke
##beskrivas
##Silene
##kyrkoherden
##decenn
##Cristobal
##Zimbabwe
##Sermersooq
##Kiss
##terus
##bygge
##avslutat
##prototyp
##Brandt
##nackor
##Kind
##Lise
##vore
##inverkan
##esson
##Span
##Spor
##Reed
##ophrys
##aktier
##hama
##Nagot
##utmarkelse
##Phnom
##arresterades
##othallis
##Hø
##ON
##uden
##ilda
##skost
##tankte
##Regier
##Roms
##Clarence
##Fral
##Ture
##onna
##arian
##hjartat
##bataljonen
##Nurnberg
##Chelsea
##Fog
##forum
##tilldelas
##spetsar
##osphaeria
##sljus
##ineura
##hene
##ophron
##stensote
##GB
##deput
##Seattle
##foretagsledare
##Ruiz
##Catherine
##Vilhelmina
##hiracarus
##430
##Foss
##Sura
##brekt
##sir
##papp
##udiere
##oula
##americana
##Acron
##fanta
##Nixon
##inha
##ordna
##ovard
##overgangen
##koms
##marina
##hogkvarter
##Zaer
##skotte
##tappade
##Sunda
##Saar
##behag
##konservativ
##Pleurothallis
##Shanghai
##Polypodiaceae
##delser
##debuten
##brevis
##cant
##lal
##emit
##uppstatt
##plen
##Dame
##dinosaur
##installerades
##legendari
##Harnosand
##Cuk
##Ester
##igel
##sjoan
##osaurus
##Paraiso
##Platypalpus
##sagaren
##angu
##Never
##fotografi
##Newton
##skadespelar
##seglade
##Xest
##utions
##idning
##Limen
##Saudi
##otaenia
##Grun
##Fredrika
##volymer
##konsument
##Socia
##Fuller
##uggl
##Maq
##auf
##hoppflugor
##rymde
##proteiner
##kommersiellt
##anklagades
##oponnes
##Christensen
##omval
##yrket
##lararen
##Norfolk
##koordin
##skulder
##upplevelser
##hemmamatcher
##rations
##merparten
##Falu
##Engelbrekt
##chemilla
##Bactrocera
##From
##forfog
##servat
##arbetskraft
##radion
##Holmes
##polar
##ljudet
##trumpet
##Kale
##Sold
##chos
##itum
##tras
##absor
##herren
##dagliga
##innanfor
##foretrades
##universitetets
##hydra
##munk
##argumen
##uppforandet
##Tradition
##Jarl
##MC
##iformis
##ulosus
##granserna
##fanrik
##Kaledonien
##intressanta
##forsvunnit
##Strindberg
##geriet
##slakare
##leo
##hangar
##verige
##Lax
##omada
##Cabe
##albumen
##hamnd
##Toledo
##Kimito
##Emilia
##Muc
##سف
##onum
##utat
##tram
##kmen
##arkul
##Belle
##Trio
##Musta
##Nicolaus
##astadkomma
##kampanjen
##Dans
##bytes
##Evert
##apa
##syri
##kana
##icki
##passera
##ropus
##Hyla
##Mist
##depress
##ostig
##garning
##Tropid
##otaceae
##bilarna
##nemus
##skidakning
##Gomez
##Boulen
##istexamen
##bju
##fost
##siflora
##kronprins
##Vetlanda
##Hendrik
##Eich
##Galler
##omis
##hogskolor
##ference
##kungar
##Craig
##ifolius
##wala
##mine
##Tech
##musikvideo
##lysande
##varumarke
##Scapt
##rote
##beslag
##manniskors
##Roberto
##Tetrag
##ethes
##tunneln
##latinets
##koket
##berakningar
##Fissi
##overtyg
##revy
##]],
##kedjan
##officers
##Wehr
##ocher
##igne
##upptogs
##sini
##garn
##somradena
##planeras
##Salomon
##motsvarade
##anza
##osch
##ffle
##ornament
##spindeldjur
##philipp
##negativt
##israeliska
##Boulenger
##hell
##고
##skatten
##innam
##uppsattningen
##hey
##kommuns
##Chapel
##praktik
##maskinen
##datorn
##Townsend
##Kore
##په
##elfte
##idigt
##view
##hoppa
##ressiv
##publicerats
##Drepan
##kirurgi
##440
##reflex
##stafrika
##pakt
##seus
##1769
##hour
##Oros
##startat
##Microd
##bortgang
##ambassad
##slidevaxter
##Anar
##obtus
##Edmon
##bosattning
##inspirerat
##tolkningar
##Regierungs
##Gia
##odiscus
##Polar
##funna
##Bish
##GC
##Gorg
##nub
##Holger
##kommend
##festivaler
##Cyclop
##tillampas
##Eker
##avla
##vagens
##Pax
##nykter
##Here
##fysiker
##brynsbaggar
##Cichlidae
##jma
##mingham
##attes
##Inns
##vattenbrynsbaggar
##strak
##rodbrun
##Rios
##publiceras
##hertigdomet
##brutit
##Kalli
##forvir
##juster
##kane
##provning
##Haematopota
##skald
##samverkan
##jakten
##spec
##formell
##Lissabon
##beri
##riktig
##bransl
##symfon
##Claus
##marginata
##grenadjar
##Rie
##operationer
##fusca
##spannmal
##municipalsamhalle
##medlet
##byggmastare
##Borlange
##ljusfororeningar
##Leucania
##fyllde
##Nikolai
##jad
##skvad
##usu
##Joel
##oxylon
##Skansen
##gruvor
##Collins
##fetbladsvaxter
##Svin
##stangd
##forfader
##Romeo
##ematang
##kirchen
##praglade
##hallits
##Crat
##Qez
##Tierra
##somn
##varan
##tillkommit
##Store
##conc
##Bradysia
##dokumentarfilm
##motion
##Mai
##rito
##prick
##komplic
##pilgri
##arbetsgivare
##Shakespeare
##Eub
##UFC
##skaft
##icella
##efterfragan
##noggran
##Henan
##varldsmasterskap
##Savo
##Klein
##Ungdom
##kaktusvaxter
##Sida
##jeg
##atha
##otisk
##boskap
##zei
##eminister
##Osten
##Ples
##Qaz
##fry
##avbrott
##motsatt
##monopol
##meta
##canus
##anpassade
##tapetserar
##forint
##yae
##hamna
##Tornet
##backs
##Myrme
##generat
##odius
##sere
##aterstaende
##ellipt
##Kej
##stella
##Fairmaire
##Bolog
##Pematang
##cun
##slutliga
##Musa
##sackspinnare
##Cocc
##anklagade
##Mta
##ctron
##ochroa
##formerna
##brahim
##Kohl
##sparv
##Isabel
##passagerar
##Springfield
##urat
##Annu
##statssekreterare
##Grey
##forsvarare
##inredning
##Phar
##aqu
##idar
##overleva
##hole
##Suf
##dagars
##variation
##Selen
##upphovs
##instiftades
##Xanthorhoe
##jattestjarna
##wr
##anaceae
##omala
##maren
##upptack
##livets
##kompetens
##Birmingham
##Westwood
##Isabella
##Ik
##arvet
##mantal
##1768
##fakta
##roner
##Marion
##slokaler
##reportage
##Phoenix
##Giv
##Prev
##skapats
##malades
##Sphe
##stands
##Mahunka
##juridisk
##Snart
##lottis
##Pheidole
##bunds
##ochilum
##Fasa
##slaviska
##normalar
##parna
##Norðurland
##Opist
##brytare
##belgisk
##erbjods
##1762
##massak
##niger
##godkandes
##konsekvens
##Mav
##belli
##stensotevaxtart
##andia
##umbr
##uko
##sammanslut
##Rest
##Calam
##Konsthogskolan
##virtu
##Ixora
##sporrstritar
##Scandinav
##Burni
##kapitali
##taxon
##oviensis
##Holmberg
##upphojdes
##osphaeriaceae
##nud
##ukten
##zes
##starna
##uhr
##losningen
##variationer
##dominerar
##Filippo
##Aula
##Ged
##utbilda
##lismen
##Cima
##Dale
##flat
##Schel
##Veronica
##Moselle
##Nancy
##stridsvagnar
##konstruerades
##slappas
##ffield
##Must
##lunds
##alar
##opre
##befalhavaren
##forestallande
##konventionen
##hawks
##cott
##eran
##overfamiljen
##upplevde
##minima
##Monaco
##organiserad
##oribates
##stationerna
##modellerna
##syftade
##snamnd
##biroll
##Lysandra
##Rhip
##kasta
##blandat
##stallts
##chefer
##nedat
##keyboard
##Jorden
##OC
##Ove
##atisk
##onympha
##forme
##havn
##spon
##baron
##eplig
##flygande
##Karang
##sagverk
##Moto
##yermark
##drabbats
##Oka
##anlagga
##inskript
##ochi
##sachsen
##havskanal
##vaxling
##plattor
##Aphan
##Epis
##mensis
##matematiker
##Trollhattan
##aming
##aggen
##uppsatser
##gavor
##rellt
##Hubert
##Gerd
##strej
##kontrast
##iost
##tic
##unicolor
##overkla
##torped
##ratet
##Chase
##Pastor
##rums
##UE
##xe
##ogil
##sters
##Macha
##personalen
##Roh
##metalli
##flygeln
##ografen
##Germain
##forklaras
##ilding
##purpur
##timmars
##Most
##rae
##lappar
##Liang
##Sah
##Abda
##silvermedalj
##Network
##adelsman
##konsekvenser
##Strobil
##Ps
##thal
##alger
##utnam
##Poz
##debutalbumet
##ansvarade
##Sabz
##skadespelarna
##Ignacio
##Halv
##Tla
##rival
##odlad
##bokt
##liknade
##bidion
##micr
##Titeln
##Foundation
##Bale
##Tari
##osakert
##anlade
##ingangen
##ulta
##oks
##ouar
##geografi
##geografiskt
##Mose
##koalit
##Basel
##Porcelli
##Blake
##doktorsexamen
##animerade
##Namibia
##Koster
##landernas
##puncta
##Parall
##Engstrom
##oversattningen
##kontrollerade
##forlagd
##varumarket
##cub
##”)
##inuti
##vandrar
##Sergi
##Tiden
##gudar
##P1
##vica
##Parag
##Schuma
##firade
##Ather
##Rym
##ده
##slade
##uppgrader
##julianska
##subjekt
##chah
##sekret
##flickslandor
##Falkenbergs
##Nazityskland
##racerforare
##OL
##gill
##nophila
##kafe
##Restaur
##Rouge
##flygel
##Stevens
##Britton
##Chol
##eneuve
##ersattas
##Talbot
##TS
##ede
##ono
##odo
##lagtavlingen
##valuta
##planeter
##Strack
##Karnten
##Limenitis
##Equ
##Kate
##tist
##denia
##skurs
##ctum
##makare
##skaffade
##utvidgades
##Oklahoma
##Sigt
##Tch
##uia
##inister
##unungan
##knot
##Politik
##segling
##-"
##kampar
##anmark
##forflut
##personligen
##Know
##glauc
##vapnets
##rubusar
##Rogers
##adensis
##bedoms
##belysning
##Bethune
##Sop
##trist
##Stall
##arsaldern
##skildes
##retor
##tackade
##1759
##index
##Crow
##kolonial
##olepta
##handbollsspelare
##Chimarra
##boc
##Agios
##3D
##Jum
##death
##forlit
##overlat
##romarna
##stadsdistriktet
##Italia
##taxonom
##Nabati
##viridis
##ophylax
##Regierungsbezirk
##Eber
##spris
##Geoff
##viner
##Atten
##startar
##oldav
##klocka
##gemenskapen
##Bek
##atit
##derus
##tillfoll
##1710
##Buyu
##Express
##Hypoc
##Andhra
##bokstaven
##Kawm
##Cof
##njur
##yensis
##acanthus
##Nationella
##Danielsson
##kabinett
##Duc
##Mug
##Nir
##alah
##Orsaken
##Konstrukt
##Uppvaxt
##Lindqvist
##kopplas
##Pedra
##madura
##fysiskt
##kongress
##Earl
##Marten
##Ruper
##ensamma
##underhuset
##eaux
##ledon
##forstaelse
##salven
##operor
##Bagge
##marginal
##identifiera
##foretradesvis
##fford
##sab
##islav
##Council
##Manhattan
##spektrum
##cyan
##Penta
##zur
##avbrots
##materia
##ifte
##roppar
##salts
##Zapata
##alina
##forward
##adjunkt
##stjanster
##fasciatus
##Zingiberaceae
##Cleveland
##Sena
##elia
##lyp
##asia
##vius
##Barnes
##Adol
##placerat
##boter
##amanuens
##Bahamas
##Ei
##regeln
##redo
##hoja
##Harbin
##formatet
##Aphis
##Ytt
##ikas
##miner
##Alder
##renassans
##Vanliga
##Gertr
##placerar
##1761
##Miami
##fargerna
##hantverkare
##Pegunungan
##utgravningar
##Saudiarab
##Dali
##Race
##Zav
##illera
##dodar
##landskommuner
##uppratthalla
##fackel
##Thunberg
##Sist
##Tju
##celia
##Hoya
##afro
##Matchen
##jutant
##orsakas
##publikationer
##tuberkul
##Estan
##Olov
##Yout
##ostasien
##Marina
##definit
##Kata
##laus
##Bluff
##Biz
##Cyt
##Luke
##Malt
##gigan
##sagen
##termer
##miniat
##ysan
##oxys
##Praia
##avslutad
##underjordisk
##fylla
##inblandning
##itata
##gramm
##kraven
##biskops
##Framfor
##omgivning
##frey
##belagg
##impl
##tvek
##Mona
##statsrad
##Athyri
##producenter
##ostis
##umbi
##mino
##rene
##qaa
##romantisk
##saxofon
##rekommend
##Progreso
##Litteratur
##Tiger
##onte
##folkmangden
##vaxtdelar
##gelige
##145
##kopior
##boxare
##Nok
##Tina
##oja
##nasti
##snes
##utformade
##geng
##1765
##bygdens
##elektronik
##Gnoph
##ishan
##baste
##fira
##Secret
##Somers
##Penh
##Oresund
##ranta
##marinen
##Ador
##1756
##uppfattningen
##patienten
##nob
##olatus
##utforande
##marknader
##statist
##Hubei
##Magn
##ABC
##videvaxter
##hirs
##Topografiskt
##undervisnings
##bing
##uoto
##chip
##osmanska
##1764
##lavar
##motorcykel
##Polystich
##Vasili
##uppforda
##ocybe
##Chongqing
##inette
##forstora
##annia
##himmel
##psis
##Kuus
##problemen
##animerad
##Pjas
##iot
##khor
##riaceae
##genomfor
##Nordens
##musikalen
##scyk
##Pirat
##Larry
##ranunkler
##intensiv
##BR
##aber
##jte
##forort
##genrer
##rykten
##rakade
##Bau
##ophry
##snab
##amiento
##skyltar
##fish
##kro
##pola
##festen
##hail
##Coryn
##sandning
##bestamdes
##biografiska
##databas
##Jupiter
##nice
##starter
##indust
##dagbok
##epide
##tranar
##Radcliffe
##Nikolaus
##stugor
##hyllning
##Phillips
##Khwajah
##alda
##stemet
##ordnad
##landor
##akan
##bora
##sjoman
##Marco
##ulaceae
##portal
##Cus
##Pist
##emont
##asco
##entus
##markerade
##1730
##Mei
##dessforinnan
##Benz
##Brooklyn
##tjugot
##Federation
##Doukala
##Innsbruck
##resterna
##oglossa
##samarbetat
##Tru
##riksrad
##rotation
##Myndig
##langhornsslandor
##Trev
##depression
##sklass
##ustin
##vern
##hium
##exakta
##basisten
##Kourou
##Acrop
##Azul
##Mannisk
##Argoviensis
##kannetecken
##ranking
##AA
##Tage
##ply
##Orche
##Belgrad
##arvde
##Evangeli
##Henderson
##inblandad
##omrostning
##huvuddelen
##lee
##1695
##gallm
##certifier
##centrus
##Sadana
##elden
##ivo
##klov
##cada
##Schroder
##motstands
##Jesper
##stigande
##ophoridae
##Slakten
##skandinaviska
##UF
##bjud
##wara
##trast
##overta
##Debut
##stamm
##samtid
##Hai
##astrofys
##elektronisk
##Wimb
##ems
##barangayer
##nebul
##filer
##1757
##flottans
##phora
##grabrun
##grande
##tredjeplats
##slemmaskar
##omloppsbana
##cele
##inspelade
##Gent
##sve
##lasma
##Mekan
##Bratt
##bedrevs
##Peninsula
##1751
##botaniker
##spyflugor
##zii
##hemland
##Myri
##Tidiga
##legitim
##Schneider
##Kard
##Tana
##cantha
##pf
##udda
##ices
##svi
##Chun
##larj
##ouine
##fiktiv
##Theater
##Tah
##Agnet
##Branche
##dubbelstjarna
##fienden
##medveten
##entreprenor
##Eben
##maea
##spo
##Herz
##Svante
##slojd
##Grat
##Mocam
##sjen
##jack
##toal
##Naq
##behandlingen
##symfoni
##kha
##sjor
##lington
##cafe
##Castell
##Valent
##Hals
##Donau
##odesmidae
##Providen
##hindrar
##Systemet
##Bjorneborgs
##Hegy
##antan
##135
##sexa
##tranade
##Acude
##uppskattad
##Justin
##Rijeka
##اي
##ankomst
##istus
##ryske
##filmregissor
##styrning
##litau
##sjostjarnor
##bekann
##orelse
##raz
##adin
##Reuter
##pengarna
##Igir
##Alternat
##cyrtus
##nay
##synes
##Second
##backar
##Weiss
##bibliotekarie
##koncern
##Who
##anledningen
##steori
##Serp
##framstalla
##Israels
##Sjoberg
##Mama
##Vier
##bald
##slund
##signatur
##ibn
##nana
##pton
##skagg
##kapri
##Epit
##forutsattning
##niaux
##trummisen
##Elaph
##libretto
##Eagle
##Elatostema
##Sigtuna
##Kare
##Lins
##گرد
##herald
##kei
##Reyn
##jarnvagar
##flyttats
##Sydostasien
##tillverkat
##Eksjo
##splanen
##Szeplig
##Bia
##Eilema
##If
##odium
##kaus
##sexuellt
##Spelaren
##Sadd
##avslojade
##ochiton
##stead
##landade
##Univer
##Country
##Willy
##gatorna
##Safed
##baseboll
##yggesteklar
##Croc
##doc
##kob
##yam
##otto
##Lacs
##peper
##Torne
##Kirby
##klippor
##gallmyggesteklar
##reras
##Colin
##fortjanst
##skarpa
##Palmer
##oniaceae
##Polyped
##urban
##Polens
##Dome
##Hemer
##uttrycks
##Olive
##socialdemokratisk
##Anopheles
##Uri
##Yin
##Zod
##vos
##edad
##planering
##Piemon
##Gudda
##permanenta
##skadespelerskan
##avgransas
##Mycosphaerellaceae
##حم
##ittata
##Linux
##Half
##individen
##positionen
##Kloster
##etappen
##fasader
##Crambidae
##HV
##Qad
##hunger
##hteh
##varon
##landia
##distrikts
##batarna
##Metaph
##leton
##Nicolai
##Ocksa
##Derbidae
##Gatan
##MMA
##Pien
##obr
##ος
##اق
##livan
##snot
##upptackten
##straceae
##Cond
##Metac
##Villeneuve
##Korn
##With
##stiskt
##inka
##Cary
##Lubeck
##noden
##bristande
##allvarlig
##Phaner
##Canadon
##kaprifol
##Fight
##vus
##ول
##sped
##diskussioner
##Armstrong
##Sollentuna
##Posh
##eff
##utbred
##flan
##rington
##Albrekt
##lopande
##Platygaster
##raddnings
##نهر
##Uleaborg
##Wimbledon
##Kik
##Kling
##Pana
##XVI
##lasning
##bevarande
##gai
##sous
##forsoken
##Ribb
##ogenes
##vinnande
##kedja
##Sammanlagt
##emigrerade
##Extremadura
##Nabatiye
##kut
##oknen
##accel
##1741
##Papp
##strommar
##epal
##stamning
##oneurus
##generalen
##tillgangligt
##specialist
##promover
##ulart
##talades
##korsningen
##salar
##Poul
##falttag
##Mua
##Osu
##hunnit
##riomyza
##Arje
##Manz
##forbundskapten
##Springs
##amanca
##Pardosa
##U21
##uata
##orella
##sach
##torns
##ryptus
##meri
##cair
##Darrehsi
##rhod
##eph
##fint
##sion
##rafi
##german
##idon
##allskapet
##angaren
##malms
##olam
##salunda
##Darutover
##bolivi
##Hughes
##sommartid
##andelen
##anseende
##remix
##Bennett
##lidande
##Dera
##eup
##etn
##ambul
##oppnar
##tjej
##Banten
##ihag
##otarsus
##spik
##akac
##skiffer
##amoto
##astronomiska
##Phili
##Lundell
##Svealand
##ammunition
##ryggradslosa
##Cost
##Kush
##kula
##wing
##otho
##bakgrunden
##koldioxid
##Fuente
##edikt
##Orange
##Pele
##mena
##touren
##floderna
##Melander
##skottet
##Hemic
##Mauritius
##fetbladsvaxtart
##Alvdalens
##Weimar
##ای
##ᅧᆫ
##Ans
##betjan
##innehav
##Versa
##vention
##Akers
##Modellen
##Dels
##Tron
##ires
##vri
##spha
##olikt
##acceptera
##aterforenades
##Aman
##salen
##demo
##elina
##ilja
##Dixon
##Mission
##Hults
##Budd
##Bundesliga
##aspekter
##Blackburn
##Peloponnes
##individuellt
##sjobacken
##Tuc
##tech
##fark
##Saur
##hammare
##personligt
##itao
##behandla
##Boyaca
##playoff
##Aberg
##Wolo
##qiao
##bevisa
##ados
##ocetus
##try
##finan
##Gach
##inatum
##Gustavs
##riksdagsvalet
##bari
##kord
##pren
##umna
##caster
##litis
##onimo
##Agh
##societ
##religionen
##Tumba
##choklad
##Jern
##Ostr
##indelade
##resen
##innande
##Jow
##iansk
##Irena
##fusc
##Ecole
##Pseude
##Fernande
##uppmanade
##Sue
##iopsis
##anu
##huvudbyggnad
##franvaro
##kruk
##ciaceae
##stadshus
##Timber
##dubbelfotingar
##1755
##Mannen
##Dasyhelea
##Neptis
##Eisen
##belagt
##samlat
##Kah
##Canton
##Tint
##edag
##Artem
##upptacka
##Maxi
##aktion
##inforande
##thebius
##balans
##Chrysop
##detektiv
##Dalmatien
##Euphyia
##tapetserarbin
##qat
##uben
##horne
##indiker
##Burmeister
##Jarnvags
##boplatser
##Amata
##Ljud
##blag
##ronen
##haver
##akademi
##Gao
##kelt
##Canadi
##Horns
##motstandet
##Gastrikland
##Youtube
##Sod
##altaret
##Joan
##ogramm
##Five
##NK
##junc
##ungens
##asper
##mium
##vittata
##Malaysia
##Rupert
##Cove
##Pira
##kang
##deltavlingen
##syta
##sluten
##baserades
##cox
##Gibb
##Husby
##Psych
##capensis
##Lennon
##paradis
##fundament
##foresprakare
##folkomrostning
##Gesch
##Samp
##Them
##Vog
##bung
##داغ
##licer
##friheten
##Gauld
##brasilianska
##mirabilis
##Coquimbo
##feng
##gana
##Berry
##Nastan
##elegant
##Fraccionamiento
##Bologna
##Piemonte
##Eug
##Side
##1670
##hamtat
##Sybra
##maki
##Robertson
##Bezzi
##Clear
##Schumacher
##HT
##sigill
##alition
##domsagas
##Beslut
##Clemens
##stakademi
##Sup
##Sark
##farfars
##ourea
##iebolag
##ophil
##ogastr
##rovdjur
##semester
##replik
##tillfallig
##Aus
##Ery
##speltid
##Castan
##Nordic
##Glyc
##aequ
##Oberosterreich
##rubri
##Holmgren
##Ket
##MD
##orpa
##repet
##steck
##illan
##atergick
##albansk
##organiska
##Dimash
##Eliza
##modernare
##citron
##Speed
##Verbas
##kny
##جبل
##skron
##andas
##1742
##Journal
##Nipp
##Konstfack
##fvud
##explo
##ministrar
##lokalerna
##Xinjiang
##offensiv
##bevattning
##Oul
##skarna
##idos
##oku
##Malcol
##Graven
##skriftliga
##Farje
##blotdjursart
##Wiedemann
##frilufts
##Dubrovnik
##Aval
##pell
##ures
##yal
##elatus
##Leotiomycetes
##ningsman
##kemist
##yllacris
##Vali
##Watten
##dov
##myeon
##vamp
##namnden
##Tanken
##kyrkby
##ocarya
##Manner
##trummis
##Janne
##oregel
##lagman
##ansetts
##holland
##malat
##Kaiser
##gruppspelet
##rarda
##Petr
##Helmand
##purpure
##specialiserade
##Glasgow
##Nang
##slit
##rab
##skota
##farden
##Omphal
##urale
##Medio
##Indiv
##lastbil
##teoretisk
##fritid
##magasinet
##Sweet
##aristokrat
##Phen
##Topp
##roj
##ortens
##organisationerna
##Grim
##benamndes
##betalade
##kontinuerligt
##landhockey
##Pali
##arbetena
##Schist
##Bailey
##Geer
##alliansen
##forsoket
##Flatidae
##Dimashq
##Verbascum
##RS
##udia
##seius
##Baha
##Munk
##Vasterviks
##Oxyt
##modernt
##djupare
##Rond
##Flygvapnet
##utlanad
##Kli
##Kull
##eslaktet
##Medea
##Emellertid
##Come
##Tree
##Nathan
##Troligen
##medlemsstater
##laroverket
##)&
##;&
##Oe
##destin
##icul
##Amy
##Granada
##sandbin
##strejk
##gatu
##anpassa
##dyra
##grop
##lagarna
##Duzee
##Rocks
##Hasse
##hindrade
##Kimitoon
##valkand
##Australiens
##Eastern
##Dylan
##clar
##skaja
##soul
##ladan
##stenarna
##aktor
##redaktion
##Special
##Diplaz
##flottiljen
##Liljeval
##nuk
##sell
##dek
##varsin
##heat
##Marg
##Attem
##manaderna
##]].
##Niedersachsen
##vardighet
##Canadiens
##Vindel
##bala
##tagandet
##pragel
##ljunga
##sandas
##forlusten
##Diplazium
##RF
##gub
##ws
##samarbeta
##uppnadde
##Sto
##skapets
##sammanfatt
##enae
##Rioja
##brottning
##Vitryssland
##utfardade
##ompanj
##ee
##overforing
##betra
##otts
##baser
##Orden
##syllis
##golen
##jakka
##kollekt
##ISO
##Polypedilum
##Aston
##Nymp
##vaara
##dao
##snummer
##samarbetar
##gry
##gary
##blyg
##planerar
##Advent
##Juvent
##alisco
##moderns
##aventyrs
##livsmedels
##slovenska
##etapper
##chneumon
##Chip
##redit
##heltal
##skilsmassa
##raffande
##Robineau
##Wint
##Yuz
##cren
##filtr
##Boet
##kalender
##Reinhard
##foregangaren
##oljemal
##iellt
##klade
##zhen
##artens
##uther
##same
##Bryg
##Torres
##ventil
##vedsvaxter
##Rovaniemi
##kannedom
##Myt
##alskade
##overlamnade
##kay
##ighton
##reserver
##byggnadsminne
##avslojar
##Slam
##stjarten
##amira
##ikens
##juristexamen
##Hertig
##Burton
##utrustad
##anfallet
##iserande
##ofil
##Alon
##trogen
##salu
##systemen
##Abborr
##Kyrkor
##Heinz
##relationen
##Ptil
##deri
##overgavs
##slaktskap
##hanvisning
##halten
##langdhopp
##skankte
##bomber
##vittnes
##Frederic
##mexicana
##forlangde
##1697
##lantbrukare
##distribution
##Shire
##bob
##stabilitet
##frihets
##forbjod
##estniska
##tavlat
##Fergus
##slidevaxtart
##ات
##alaria
##Saimen
##cirkus
##Kalan
##Sjof
##kopplad
##nodvandiga
##Oftast
##federationen
##akacior
##Guni
##Metta
##oras
##unis
##agnet
##uppkallat
##frank
##grundet
##troligt
##pedition
##komponerad
##oavgjort
##Yal
##deck
##liidae
##ambo
##foreg
##meier
##ikomm
##sonerna
##Terry
##Nebra
##mellanrum
##Manus
##Kaukas
##voidy
##Sydegeiska
##tillstandet
##Edmonton
##Szepligeti
##E4
##Hssen
##dz
##tos
##varmare
##besokt
##rikas
##kategoriseras
##Senegal
##Ronn
##Gripen
##forstorde
##Hajji
##foljeslagare
##Arjepl
##oming
##varelser
##akia
##Chrarda
##professur
##Erythr
##passage
##Demokratiska
##Jalisco
##ogin
##trappa
##102
##ughton
##Peloponnesos
##olana
##igona
##dodas
##missno
##mordad
##flygplanen
##Bobby
##melodier
##squam
##college
##kurdiska
##Frod
##Semat
##sjutton
##Defin
##sammansatt
##stanga
##betalning
##tjocka
##forbjudet
##Hig
##oloma
##habad
##1658
##tarm
##Newcastle
##Turn
##varldscup
##tjanstgoring
##postumt
##bevarats
##teoretiska
##Malpighiaceae
##Fernandez
##xas
##erhallit
##skod
##larver
##loja
##Darya
##Teneri
##funktions
##Cymot
##Ect
##less
##senhet
##oppositionen
##guan
##Vastindien
##Catocala
##effektiva
##matematiken
##foralskad
##tobak
##Arboga
##oronen
##Masa
##ographa
##tankta
##Macrom
##Jarfalla
##mojliggor
##Virgin
##niv
##avlopp
##storget
##sima
##ious
##Leice
##tvart
##Guern
##formgivare
##fontan
##Cordillera
##Kiv
##Nomada
##genus
##rankade
##Like
##formos
##otepec
##Airlines
##Ramon
##rockgruppen
##Living
##opetalum
##http
##Earth
##sit
##germanska
##tillkomst
##grundande
##saljas
##Essen
##elektricitet
##avslutande
##Posht
##Polygala
##rontgen
##Obad
##nobel
##edt
##skyi
##sap
##turism
##Seven
##Brooks
##Cyan
##Leksands
##Ekonom
##atnj
##omtyckt
##hie
##dragit
##Conference
##Blomm
##Mahren
##cylinder
##Ocotea
##Thuringen
##sjaurs
##insignis
##Host
##tions
##intakt
##ogomphus
##oscelis
##horande
##genomgaende
##Mast
##Commune
##Aprost
##Cock
##Rit
##Yas
##ochlor
##runtom
##faster
##ronia
##prise
##oniella
##Murphy
##ович
##minoritet
##omvandlades
##Dragon
##fantasy
##Strobilanthes
##Keng
##forval
##deres
##ocnemis
##liss
##Monument
##substan
##Shaykh
##paverkad
##Tarn
##Badakh
##seglare
##sord
##zza
##onas
##overhuvud
##klimatet
##odiplosis
##Saltsjob
##Dokt
##ochit
##kilogram
##Quint
##lampliga
##Arvidsjaurs
##hedersledamot
##Olivier
##larjunge
##Situ
##moll
##anlander
##ugan
##uppnatt
##handerna
##Macr
##Small
##finansiering
##nazist
##othecium
##Vre
##muc
##tillatet
##fjard
##pusilla
##slock
##tidningarna
##meriter
##Kanadas
##izhou
##illustrerade
##skidakare
##Uch
##vingen
##adeh
##vaxlar
##Anita
##Forsamling
##Forsberg
##hemstad
##Alexandra
##disc
##ovanpa
##betydde
##regementen
##brasiliensis
##CP
##ffl
##elka
##kilo
##lagaren
##strade
##costa
##kallorna
##fiol
##flojt
##Dasineura
##artistnamnet
##anordnas
##longipes
##forsamlingarna
##Porsche
##Atrichopogon
##Gole
##kterna
##sondagen
##iros
##tvaan
##spro
##Bristol
##bique
##Ponte
##manskligheten
##prinsessa
##phium
##Crawford
##Sli
##ingatt
##vain
##utokade
##1690
##ceum
##dren
##salongen
##godkant
##stolar
##stavning
##Baghlan
##Utveckling
##siffran
##Guelb
##Gudde
##Tama
##VA
##plana
##phila
##Universal
##Philodendron
##Isma
##ombo
##snica
##uppdelat
##Franc
##128
##Direkt
##satelli
##ellii
##Vilnius
##homosexuella
##Europamasterskapet
##Versailles
##Ist
##gomer
##hakt
##bles
##jarneks
##Bonniers
##redigerade
##Badakhshan
##ganden
##phyll
##Montes
##Anthrax
##parallell
##dokumenterade
##Hohhot
##Istan
##rhein
##huk
##Forbund
##1630
##Parar
##Phle
##Calgary
##Kaliman
##patraffades
##psalmbok
##Cesjma
##Ungdoms
##Nobelpriset
##480
##Potter
##ilan
##nordliga
##exek
##impla
##ideell
##konstaterade
##Utom
##albumlistan
##rosor
##hyster
##Bonn
##enosia
##gudstjanst
##Anisodes
##pigment
##Aet
##Ogo
##laros
##nybyggda
##1648
##metaller
##berattas
##Grona
##Saker
##censis
##ophen
##imidae
##malningarna
##sektor
##publicera
##Salamanca
##enzym
##Ouagado
##Pottiaceae
##sjenattslandor
##Bing
##ghar
##osan
##Norsk
##lova
##Tetram
##ryssjenattslandor
##1754
##Nassjo
##Musikhogskolan
##Square
##mb
##tolf
##forson
##snattslandor
##lank
##Atta
##Sheffield
##Emiliano
##storhetstid
##Ouagadougou
##Eken
##cut
##hob
##تر
##krock
##1748
##plattan
##anvandaren
##kulor
##ogonflugor
##Metro
##skickar
##Hakon
##Wuhan
##icipio
##skinkar
##berland
##ulan
##Devon
##Castro
##Zanjan
##Gaborone
##Wattenwyl
##dai
##islandsk
##ipan
##Colorada
##flodens
##praglat
##Saudiarabien
##Esta
##Flag
##Hole
##deriv
##plural
##Schloss
##hjalt
##Grote
##Helene
##uppgifterna
##Wallin
##pavilj
##Lt
##getts
##medhjalp
##forem
##versa
##grin
##mottagare
##visnings
##juryn
##Hedem
##byggen
##bords
##beteckna
##droger
##Schaffer
##begravningsplats
##Cardenas
##Sophia
##Vind
##pie
##ynastin
##enthal
##konsol
##Bai
##Cafe
##indelningen
##Polyrhachis
##Kongelige
##judarna
##Stalin
##Danau
##Xian
##cala
##uger
##saj
##ungu
##1743
##sanlaggning
##quito
##Seco
##regionerna
##satsning
##onomen
##morkbrun
##jobba
##Jarnvagar
##konservatoriet
##Caesar
##460
##Ekonomi
##GN
##Gli
##Lunda
##varter
##slass
##Split
##Gunilla
##guldogon
##etablerat
##dimensioner
##steins
##forad
##varsta
##overgrepp
##domkyrko
##Nordstrom
##stadsdistrikt
##tranaren
##viktigare
##skicklighet
##vicepresident
##arginata
##Frederiks
##splaner
##skoldpaddor
##betraktar
##Emm
##Kup
##Owen
##klang
##indirekt
##kapa
##Forskning
##ornit
##Somalia
##Palomar
##suver
##uppskattats
##arhundraden
##Fowler
##Obadiah
##aust
##een
##kvan
##kromo
##ytten
##fardas
##filt
##Steen
##Burns
##ogonblick
##fartygs
##otrichum
##navig
##Berkeley
##Schlesien
##Aprostocetus
##Zhen
##bordes
##bergets
##Friese
##inskran
##opleura
[...]
