{"version":"1.0","truncation":null,"padding":null,"added_tokens":[{"id":0,"special":true,"content":"<unk>","single_word":false,"lstrip":false,"rstrip":false,"normalized":false}],"normalizer":{"type":"Sequence","normalizers":[{"type":"NFD"},{"type":"StripAccents"}]},"pre_tokenizer":{"type":"Whitespace"},"post_processor":null,"decoder":{"type":"Metaspace","replacement":"▁","str_rep":"▁","add_prefix_space":true},"model":{"type":"BPE","dropout":null,"unk_token":null,"continuing_subword_prefix":null,"end_of_word_suffix":null,"fuse_unk":false,"vocab":{"<unk>":0,"\u0000":1,"\u0001":2,"\u0003":3,"\u0007":4,"\b":5,"\u0013":6,"!":7,"\"":8,"#":9,"$":10,"%":11,"&":12,"'":13,"(":14,")":15,"*":16,"+":17,",":18,"-":19,".":20,"/":21,"0":22,"1":23,"2":24,"3":25,"4":26,"5":27,"6":28,"7":29,"8":30,"9":31,":":32,";":33,"<":34,"=":35,">":36,"?":37,"@":38,"A":39,"B":40,"C":41,"D":42,"E":43,"F":44,"G":45,"H":46,"I":47,"J":48,"K":49,"L":50,"M":51,"N":52,"O":53,"P":54,"Q":55,"R":56,"S":57,"T":58,"U":59,"V":60,"W":61,"X":62,"Y":63,"Z":64,"[":65,"\\":66,"]":67,"^":68,"_":69,"`":70,"a":71,"b":72,"c":73,"d":74,"e":75,"f":76,"g":77,"h":78,"i":79,"j":80,"k":81,"l":82,"m":83,"n":84,"o":85,"p":86,"q":87,"r":88,"s":89,"t":90,"u":91,"v":92,"w":93,"x":94,"y":95,"z":96,"{":97,"|":98,"}":99,"~":100,"":101,"":102,"":103,"":104,"":105,"":106,"":107,"":108,"¡":109,"¢":110,"£":111,"¤":112,"¥":113,"¦":114,"§":115,"¨":116,"©":117,"ª":118,"«":119,"¬":120,"­":121,"®":122,"°":123,"±":124,"²":125,"³":126,"´":127,"µ":128,"¶":129,"·":130,"¸":131,"¹":132,"º":133,"»":134,"¼":135,"½":136,"¾":137,"¿":138,"Æ":139,"×":140,"Ø":141,"Þ":142,"ß":143,"æ":144,"ð":145,"÷":146,"ø":147,"þ":148,"Đ":149,"đ":150,"ı":151,"Ł":152,"ł":153,"ŋ":154,"Œ":155,"œ":156,"ƒ":157,"ɑ":158,"ɔ":159,"ə":160,"ɛ":161,"ɪ":162,"ʃ":163,"ʹ":164,"ʻ":165,"ʾ":166,"ʿ":167,"ˆ":168,"ˇ":169,"ˈ":170,"ː":171,"˚":172,"˜":173,"Α":174,"Β":175,"Γ":176,"Δ":177,"Ε":178,"Η":179,"Θ":180,"Ι":181,"Κ":182,"Λ":183,"Μ":184,"Ν":185,"Ο":186,"Π":187,"Ρ":188,"Σ":189,"Τ":190,"Υ":191,"Φ":192,"Χ":193,"Ω":194,"α":195,"β":196,"γ":197,"δ":198,"ε":199,"ζ":200,"η":201,"θ":202,"ι":203,"κ":204,"λ":205,"μ":206,"ν":207,"ξ":208,"ο":209,"π":210,"ρ":211,"ς":212,"σ":213,"τ":214,"υ":215,"φ":216,"χ":217,"ψ":218,"ω":219,"Ѕ":220,"А":221,"Б":222,"В":223,"Г":224,"Д":225,"Е":226,"Ж":227,"З":228,"И":229,"К":230,"Л":231,"М":232,"Н":233,"О":234,"П":235,"Р":236,"С":237,"Т":238,"У":239,"Ф":240,"Х":241,"Ц":242,"Ч":243,"Ш":244,"Э":245,"Ю":246,"Я":247,"а":248,"б":249,"в":250,"г":251,"д":252,"е":253,"ж":254,"з":255,"и":256,"к":257,"л":258,"м":259,"н":260,"о":261,"п":262,"р":263,"с":264,"т":265,"у":266,"ф":267,"х":268,"ц":269,"ч":270,"ш":271,"щ":272,"ъ":273,"ы":274,"ь":275,"э":276,"ю":277,"я":278,"ѕ":279,"і":280,"ј":281,"Ґ":282,"ա":283,"ե":284,"ի":285,"ն":286,"ո":287,"ր":288,"א":289,"ב":290,"ג":291,"ד":292,"ה":293,"ו":294,"ז":295,"ח":296,"ט":297,"י":298,"כ":299,"ל":300,"ם":301,"מ":302,"ן":303,"נ":304,"ס":305,"ע":306,"פ":307,"צ":308,"ק":309,"ר":310,"ש":311,"ת":312,"،":313,"ء":314,"ا":315,"ب":316,"ة":317,"ت":318,"ث":319,"ج":320,"ح":321,"خ":322,"د":323,"ذ":324,"ر":325,"ز":326,"س":327,"ش":328,"ص":329,"ض":330,"ط":331,"ظ":332,"ع":333,"غ":334,"ـ":335,"ف":336,"ق":337,"ك":338,"ل":339,"م":340,"ن":341,"ه":342,"و":343,"ى":344,"ي":345,"ٱ":346,"پ":347,"ک":348,"گ":349,"ی":350,"क":351,"ग":352,"च":353,"ज":354,"त":355,"द":356,"न":357,"प":358,"ब":359,"म":360,"य":361,"र":362,"ल":363,"व":364,"श":365,"स":366,"ह":367,"॥":368,"ক":369,"ত":370,"ন":371,"ব":372,"ম":373,"য":374,"র":375,"ল":376,"স":377,"ਕ":378,"ਜ":379,"ਤ":380,"ਨ":381,"ਮ":382,"ਰ":383,"ਵ":384,"ਸ":385,"ਹ":386,"க":387,"ம":388,"క":389,"త":390,"ద":391,"న":392,"ప":393,"ర":394,"ల":395,"ก":396,"ค":397,"ง":398,"ช":399,"ด":400,"ต":401,"ท":402,"น":403,"บ":404,"พ":405,"ม":406,"ย":407,"ร":408,"ล":409,"ว":410,"ส":411,"ห":412,"อ":413,"ะ":414,"า":415,"฿":416,"เ":417,"แ":418,"ไ":419,"་":420,"ག":421,"ང":422,"ད":423,"ན":424,"པ":425,"བ":426,"མ":427,"འ":428,"ར":429,"ལ":430,"ས":431,"ა":432,"ე":433,"ი":434,"ლ":435,"მ":436,"ო":437,"რ":438,"ს":439,"ღ":440,"ᄀ":441,"ᄂ":442,"ᄃ":443,"ᄅ":444,"ᄆ":445,"ᄇ":446,"ᄉ":447,"ᄋ":448,"ᄌ":449,"ᄎ":450,"ᄏ":451,"ᄐ":452,"ᄑ":453,"ᄒ":454,"ᅡ":455,"ᅢ":456,"ᅥ":457,"ᅦ":458,"ᅧ":459,"ᅩ":460,"ᅪ":461,"ᅭ":462,"ᅮ":463,"ᅲ":464,"ᅳ":465,"ᅴ":466,"ᅵ":467,"ᆨ":468,"ᆫ":469,"ᆯ":470,"ᆷ":471,"ᆸ":472,"ᆻ":473,"ᆼ":474,"​":475,"‌":476,"‍":477,"‎":478,"‐":479,"‑":480,"‒":481,"–":482,"—":483,"―":484,"‘":485,"’":486,"‚":487,"“":488,"”":489,"„":490,"†":491,"•":492,"…":493,"‪":494,"‬":495,"‰":496,"′":497,"″":498,"‹":499,"›":500,"⁄":501,"⁠":502,"₂":503,"₨":504,"€":505,"℃":506,"℉":507,"™":508,"←":509,"↑":510,"→":511,"∂":512,"−":513,"∙":514,"√":515,"≈":516,"≤":517,"≥":518,"⋅":519,"─":520,"│":521,"├":522,"■":523,"□":524,"▫":525,"►":526,"▻":527,"○":528,"●":529,"☀":530,"★":531,"☆":532,"☺":533,"♀":534,"♂":535,"♡":536,"♣":537,"♥":538,"♦":539,"✅":540,"✓":541,"✔":542,"✚":543,"✨":544,"❤":545,"➧":546,"⠀":547,"、":548,"。":549,"「":550,"」":551,"あ":552,"い":553,"う":554,"え":555,"お":556,"か":557,"き":558,"く":559,"け":560,"こ":561,"さ":562,"し":563,"す":564,"せ":565,"そ":566,"た":567,"ち":568,"っ":569,"つ":570,"て":571,"と":572,"な":573,"に":574,"の":575,"は":576,"ま":577,"み":578,"め":579,"も":580,"や":581,"よ":582,"ら":583,"り":584,"る":585,"れ":586,"わ":587,"を":588,"ん":589,"ア":590,"ィ":591,"イ":592,"ウ":593,"ェ":594,"エ":595,"オ":596,"カ":597,"キ":598,"ク":599,"ケ":600,"コ":601,"サ":602,"シ":603,"ス":604,"セ":605,"タ":606,"チ":607,"ッ":608,"ツ":609,"テ":610,"ト":611,"ナ":612,"ニ":613,"ヌ":614,"ハ":615,"ヒ":616,"フ":617,"ヘ":618,"ホ":619,"マ":620,"ミ":621,"ム":622,"メ":623,"ャ":624,"ュ":625,"ョ":626,"ラ":627,"リ":628,"ル":629,"レ":630,"ロ":631,"ン":632,"・":633,"ー":634,"一":635,"七":636,"万":637,"三":638,"上":639,"下":640,"不":641,"世":642,"业":643,"东":644,"两":645,"个":646,"中":647,"为":648,"主":649,"之":650,"九":651,"也":652,"乡":653,"买":654,"了":655,"事":656,"二":657,"于":658,"五":659,"交":660,"产":661,"京":662,"人":663,"今":664,"他":665,"仙":666,"代":667,"以":668,"们":669,"件":670,"会":671,"位":672,"体":673,"作":674,"使":675,"保":676,"信":677,"元":678,"光":679,"入":680,"全":681,"八":682,"公":683,"六":684,"关":685,"内":686,"円":687,"准":688,"出":689,"分":690,"创":691,"利":692,"到":693,"前":694,"力":695,"加":696,"动":697,"動":698,"化":699,"北":700,"区":701,"十":702,"华":703,"单":704,"南":705,"原":706,"县":707,"双":708,"发":709,"口":710,"古":711,"可":712,"台":713,"号":714,"司":715,"合":716,"同":717,"名":718,"后":719,"和":720,"品":721,"商":722,"啊":723,"啥":724,"器":725,"四":726,"回":727,"国":728,"图":729,"國":730,"在":731,"地":732,"场":733,"址":734,"坛":735,"城":736,"基":737,"堂":738,"場":739,"士":740,"外":741,"多":742,"大":743,"天":744,"太":745,"头":746,"奇":747,"奖":748,"女":749,"好":750,"姐":751,"婆":752,"子":753,"字":754,"学":755,"安":756,"宗":757,"官":758,"定":759,"宝":760,"家":761,"富":762,"对":763,"寺":764,"小":765,"就":766,"尾":767,"山":768,"島":769,"川":770,"州":771,"工":772,"市":773,"平":774,"年":775,"广":776,"库":777,"店":778,"度":779,"建":780,"开":781,"式":782,"当":783,"彩":784,"律":785,"得":786,"德":787,"心":788,"必":789,"思":790,"性":791,"情":792,"意":793,"成":794,"我":795,"所":796,"手":797,"技":798,"报":799,"挂":800,"提":801,"政":802,"救":803,"教":804,"数":805,"文":806,"料":807,"新":808,"方":809,"族":810,"无":811,"日":812,"时":813,"明":814,"星":815,"是":816,"時":817,"曾":818,"最":819,"月":820,"有":821,"服":822,"期":823,"木":824,"本":825,"机":826,"杀":827,"李":828,"村":829,"来":830,"東":831,"林":832,"果":833,"業":834,"正":835,"武":836,"民":837,"氓":838,"水":839,"江":840,"河":841,"治":842,"法":843,"波":844,"活":845,"海":846,"清":847,"港":848,"湖":849,"点":850,"片":851,"版":852,"牌":853,"物":854,"特":855,"狗":856,"玄":857,"王":858,"玩":859,"现":860,"理":861,"生":862,"用":863,"田":864,"电":865,"画":866,"白":867,"百":868,"的":869,"目":870,"直":871,"相":872,"看":873,"県":874,"真":875,"着":876,"知":877,"石":878,"码":879,"社":880,"神":881,"福":882,"科":883,"程":884,"空":885,"立":886,"站":887,"第":888,"等":889,"算":890,"管":891,"精":892,"系":893,"經":894,"红":895,"线":896,"经":897,"结":898,"网":899,"美":900,"老":901,"者":902,"肖":903,"能":904,"自":905,"色":906,"花":907,"英":908,"行":909,"表":910,"西":911,"要":912,"解":913,"語":914,"论":915,"诗":916,"财":917,"资":918,"赌":919,"赛":920,"跑":921,"路":922,"这":923,"通":924,"道":925,"部":926,"都":927,"酶":928,"里":929,"重":930,"野":931,"量":932,"金":933,"错":934,"镇":935,"長":936,"长":937,"门":938,"阳":939,"院":940,"集":941,"青":942,"面":943,"香":944,"马":945,"高":946,"黄":947,"龙":948,"":949,"":950,"":951,"":952,"":953,"":954,"":955,"":956,"":957,"":958,"":959,"":960,"":961,"":962,"":963,"":964,"":965,"ﬀ":966,"ﬁ":967,"ﬂ":968,"﻿":969,"！":970,"（":971,"）":972,"，":973,"：":974,"？":975,"ﾆ":976,"ﾊ":977,"ﾟ":978,"￼":979,"�":980,"🏻":981,"🏼":982,"👌":983,"👍":984,"👏":985,"😀":986,"😁":987,"😂":988,"😃":989,"😄":990,"😅":991,"😆":992,"😉":993,"😊":994,"😍":995,"😎":996,"😛":997,"🙁":998,"🙂":999,"🤗":1000,"er":1001,"en":1002,"et":1003,"in":1004,"or":1005,"an":1006,"ar":1007,"st":1008,"el":1009,"og":1010,"om":1011,"il":1012,"sk":1013,"re":1014,"at":1015,"for":1016,"al":1017,"ed":1018,"de":1019,"ing":1020,"li":1021,"le":1022,"av":1023,"on":1024,"te":1025,"til":1026,"ik":1027,"se":1028,"det":1029,"ra":1030,"som":1031,"pa":1032,"un":1033,"ter":1034,"ke":1035,"ig":1036,"sa":1037,"ut":1038,"den":1039,"ne":1040,"med":1041,"der":1042,"ør":1043,"sj":1044,"ver":1045,"vi":1046,"ene":1047,"pp":1048,"eg":1049,"si":1050,"ler":1051,"ag":1052,"ol":1053,"var":1054,"men":1055,"ti":1056,"lig":1057,"and":1058,"ri":1059,"be":1060,"har":1061,"ser":1062,"opp":1063,"sjon":1064,"ak":1065,"sp":1066,"ste":1067,"gj":1068,"sen":1069,"inn":1070,"ge":1071,"ro":1072,"tt":1073,"mer":1074,"ru":1075,"ett":1076,"ning":1077,"fra":1078,"ek":1079,"ær":1080,"ur":1081,"no":1082,"du":1083,"ikke":1084,"ker":1085,"ble":1086,"ap":1087,"ss":1088,"di":1089,"ske":1090,"kan":1091,"kj":1092,"del":1093,"am":1094,"Det":1095,"ang":1096,"ul":1097,"ok":1098,"ad":1099,"enn":1100,"id":1101,"att":1102,"sl":1103,"ve":1104,"kom":1105,"man":1106,"het":1107,"ma":1108,"sam":1109,"me":1110,"tet":1111,"ere":1112,"før":1113,"ikk":1114,"ot":1115,"bli":1116,"tr":1117,"20":1118,"la":1119,"vil":1120,"eller":1121,"etter":1122,"gi":1123,"seg":1124,"over":1125,"ende":1126,"kt":1127,"øy":1128,"jeg":1129,"es":1130,"bru":1131,"ved":1132,"gg":1133,"kon":1134,"ent":1135,"na":1136,"bar":1137,"by":1138,"pro":1139,"per":1140,"sy":1141,"unn":1142,"ann":1143,"ell":1144,"eng":1145,"dag":1146,"tid":1147,"ord":1148,"sel":1149,"ære":1150,"kl":1151,"ny":1152,"ster":1153,"ten":1154,"sø":1155,"dt":1156,"hol":1157,"han":1158,"us":1159,"fø":1160,"lan":1161,"is":1162,"all":1163,"ogsa":1164,"vel":1165,"hel":1166,"hv":1167,"gr":1168,"19":1169,"skap":1170,"it":1171,"elig":1172,"ling":1173,"ort":1174,"ba":1175,"min":1176,"vik":1177,"skj":1178,"skal":1179,"dig":1180,"under":1181,"kk":1182,"alt":1183,"da":1184,"dat":1185,"ens":1186,"yr":1187,"arbe":1188,"ta":1189,"lag":1190,"ber":1191,"em":1192,"ly":1193,"ha":1194,"øn":1195,"sin":1196,"ho":1197,"po":1198,"go":1199,"fa":1200,"kr":1201,"far":1202,"andre":1203,"ff":1204,"bil":1205,"adde":1206,"mat":1207,"isk":1208,"øp":1209,"stor":1210,"vis":1211,"legg":1212,"00":1213,"201":1214,"være":1215,"hadde":1216,"val":1217,"ingen":1218,"ft":1219,"ven":1220,"ir":1221,"inne":1222,"Nor":1223,"vær":1224,"gang":1225,"ale":1226,"dette":1227,"asjon":1228,"noen":1229,"um":1230,"else":1231,"gen":1232,"sm":1233,"tak":1234,"hj":1235,"to":1236,"rett":1237,"dre":1238,"nor":1239,"sten":1240,"art":1241,"sli":1242,"alle":1243,"Vi":1244,"hand":1245,"..":1246,"ger":1247,"he":1248,"øre":1249,"mot":1250,"ennom":1251,"sik":1252,"For":1253,"noe":1254,"str":1255,"dr":1256,"stil":1257,"land":1258,"blir":1259,"nett":1260,"son":1261,"fre":1262,"lige":1263,"kun":1264,"lere":1265,"met":1266,"tre":1267,"vært":1268,"tig":1269,"spil":1270,"jen":1271,"my":1272,"gjennom":1273,"ob":1274,"sse":1275,"led":1276,"br":1277,"selv":1278,"ud":1279,"gjør":1280,"ans":1281,"St":1282,"iske":1283,"føl":1284,"uten":1285,"net":1286,"elt":1287,"Den":1288,"ien":1289,"sted":1290,"vet":1291,"mun":1292,"mo":1293,"ant":1294,"bet":1295,"nar":1296,"ier":1297,"ket":1298,"her":1299,"ner":1300,"gar":1301,"dere":1302,"set":1303,"De":1304,"pr":1305,"pre":1306,"inger":1307,"ga":1308,"ken":1309,"par":1310,"mu":1311,"elle":1312,"sker":1313,"arbeid":1314,"høy":1315,"tter":1316,"denne":1317,"hun":1318,"In":1319,"fikk":1320,"bare":1321,"like":1322,"hen":1323,"fe":1324,"hold":1325,"gjøre":1326,"Norge":1327,"hver":1328,"lo":1329,"siden":1330,"iser":1331,"yn":1332,"skri":1333,"beg":1334,"ie":1335,"grunn":1336,"mal":1337,"fort":1338,"kke":1339,"bo":1340,"yl":1341,"inter":1342,"mar":1343,"deg":1344,"as":1345,"ist":1346,"frem":1347,"dating":1348,"En":1349,"ine":1350,"mange":1351,"star":1352,"dom":1353,"fil":1354,"fer":1355,"ko":1356,"ksjon":1357,"im":1358,"sammen":1359,"pe":1360,"hvor":1361,"inner":1362,"sta":1363,"litt":1364,"iv":1365,"ellom":1366,"meg":1367,"tte":1368,"ned":1369,"ige":1370,"ia":1371,"oss":1372,"mye":1373,"ret":1374,"200":1375,"Jeg":1376,"ka":1377,"tur":1378,"mel":1379,"første":1380,"ch":1381,"tra":1382,"pla":1383,"Han":1384,"sn":1385,"van":1386,"flere":1387,"nes":1388,"fol":1389,"vir":1390,"kommun":1391,"mellom":1392,"søk":1393,"ert":1394,"Dette":1395,"sjek":1396,"An":1397,"let":1398,"mø":1399,"lø":1400,"ninger":1401,"utvik":1402,"fri":1403,"valg":1404,"18":1405,"mil":1406,"styr":1407,"bed":1408,"org":1409,"slo":1410,"annet":1411,"lighet":1412,"kv":1413,"pri":1414,"bruk":1415,"lu":1416,"stem":1417,"fj":1418,"ev":1419,"tek":1420,"ty":1421,"arbei":1422,"ings":1423,"satt":1424,"of":1425,"ram":1426,"Men":1427,").":1428,"ningen":1429,"dem":1430,"slik":1431,"ull":1432,"finne":1433,"atte":1434,"person":1435,"nær":1436,"mann":1437,"rik":1438,"reg":1439,"viktig":1440,"hva":1441,"ran":1442,"enk":1443,"dri":1444,"bade":1445,"nye":1446,"produ":1447,"svar":1448,"kunne":1449,"god":1450,"res":1451,"run":1452,"fin":1453,"tar":1454,"gge":1455,"dene":1456,"enger":1457,"jene":1458,"syn":1459,"bruker":1460,"sert":1461,"kjøp":1462,"bruke":1463,"tal":1464,"Al":1465,"lang":1466,"stør":1467,"lant":1468,"ry":1469,"ød":1470,"erne":1471,"itt":1472,"lem":1473,"ic":1474,"sv":1475,"slag":1476,"mid":1477,"Ar":1478,"ordan":1479,"bygg":1480,"stu":1481,"hjel":1482,"mp":1483,"slut":1484,"kommer":1485,"løp":1486,"øm":1487,"disse":1488,"igjen":1489,"sex":1490,"sent":1491,"spe":1492,"rad":1493,"ater":1494,"hus":1495,"akt":1496,"rak":1497,"fly":1498,"Pa":1499,"sti":1500,"ulle":1501,"itet":1502,"bl":1503,"elsen":1504,"stre":1505,"bak":1506,"kur":1507,"kre":1508,"akti":1509,"sier":1510,"sett":1511,"pen":1512,"are":1513,"10":1514,"so":1515,"omra":1516,"je":1517,"plan":1518,"stat":1519,"sko":1520,"din":1521,"hi":1522,"helt":1523,"gru":1524,"sep":1525,"fatt":1526,"sje":1527,"ab":1528,"ei":1529,"store":1530,"hele":1531,"sjonen":1532,"rom":1533,"ele":1534,"su":1535,"virk":1536,"oner":1537,"ban":1538,"ede":1539,"blant":1540,"godt":1541,"try":1542,"gir":1543,"nytt":1544,"poli":1545,"len":1546,"ligere":1547,"off":1548,"va":1549,"jø":1550,"ben":1551,"tatt":1552,"Og":1553,"skje":1554,"atur":1555,"ce":1556,"heter":1557,"ekt":1558,"des":1559,"ug":1560,"lær":1561,"job":1562,"vare":1563,"forma":1564,"sak":1565,"dan":1566,"gav":1567,"ønn":1568,"blitt":1569,"sjoner":1570,"olog":1571,"sser":1572,"innen":1573,"lever":1574,"hjem":1575,"kjent":1576,"hvordan":1577,"rundt":1578,"samme":1579,"ssen":1580,"sine":1581,"regi":1582,"lat":1583,"norske":1584,"ets":1585,"bu":1586,"spesi":1587,"barn":1588,"bake":1589,"funn":1590,"tok":1591,"folk":1592,"bok":1593,"stilling":1594,"ati":1595,"Un":1596,"klu":1597,"kar":1598,"ca":1599,"ju":1600,"pet":1601,"verden":1602,"begyn":1603,"tro":1604,"...":1605,"Her":1606,"menn":1607,"tes":1608,"aller":1609,"skulle":1610,"io":1611,"dra":1612,"15":1613,"stad":1614,"prosjek":1615,"kker":1616,"norsk":1617,"handling":1618,"tilbake":1619,"mor":1620,"gikk":1621,"vart":1622,"siste":1623,"mark":1624,"tu":1625,"organ":1626,"fyl":1627,"grupp":1628,"jer":1629,"nok":1630,"red":1631,"sitt":1632,"ein":1633,"),":1634,"fun":1635,"fag":1636,"gre":1637,"menne":1638,"mest":1639,"heten":1640,"tere":1641,"Sk":1642,"tillegg":1643,"Der":1644,"formasjon":1645,"Oslo":1646,"Etter":1647,"egen":1648,"fle":1649,"les":1650,"jo":1651,"ment":1652,"ult":1653,"nasjon":1654,"17":1655,"Da":1656,"lik":1657,"od":1658,"stø":1659,"tall":1660,"oll":1661,"hav":1662,"utvikling":1663,"full":1664,"Du":1665,"vok":1666,"ting":1667,"und":1668,"gjen":1669,"por":1670,"est":1671,"ung":1672,"ck":1673,"bedre":1674,"følge":1675,"kjen":1676,"medlem":1677,"klar":1678,"side":1679,"beste":1680,"bud":1681,"bel":1682,"søker":1683,"fram":1684,"nav":1685,"veldig":1686,"Med":1687,"nings":1688,"lok":1689,"forhold":1690,"anse":1691,"plass":1692,"venn":1693,"bi":1694,"mens":1695,"stand":1696,"spør":1697,"ska":1698,"forskj":1699,"skapet":1700,"tiv":1701,"viser":1702,"app":1703,"mber":1704,"stra":1705,"gam":1706,"ire":1707,"semp":1708,"12":1709,"bin":1710,"ønsker":1711,"øk":1712,"verk":1713,"gjel":1714,"ører":1715,"mulig":1716,"Mar":1717,"anske":1718,"ren":1719,"bør":1720,"hos":1721,"veg":1722,"elser":1723,"stri":1724,"syk":1725,"kket":1726,"16":1727,"kor":1728,"informasjon":1729,"lagt":1730,"ført":1731,"vin":1732,"tidligere":1733,"ski":1734,"kam":1735,"utt":1736,"hoved":1737,"sc":1738,"amil":1739,"kri":1740,"liv":1741,"Sa":1742,"op":1743,"eder":1744,"ham":1745,"lin":1746,"pu":1747,"ulike":1748,"199":1749,"elige":1750,"ring":1751,"ogram":1752,"prø":1753,"tjene":1754,"videre":1755,"ener":1756,"atis":1757,"kra":1758,"legge":1759,"os":1760,"form":1761,"Ut":1762,"30":1763,"alen":1764,"eksemp":1765,"landet":1766,"Nar":1767,"delig":1768,"isa":1769,"tiden":1770,"smal":1771,"mulighet":1772,"senter":1773,"histor":1774,"følg":1775,"skre":1776,"Man":1777,"vur":1778,"sol":1779,"ide":1780,"vek":1781,"Jo":1782,"laget":1783,"kul":1784,"arbeidet":1785,"tisk":1786,"heng":1787,"uni":1788,"14":1789,"skole":1790,"Se":1791,"inst":1792,"spill":1793,"hans":1794,"bor":1795,"Til":1796,"elen":1797,"leder":1798,"mus":1799,"sene":1800,"ville":1801,"sikker":1802,"forsk":1803,"kvinner":1804,"bra":1805,"hvert":1806,"fot":1807,"tiske":1808,"dy":1809,"Ber":1810,"mi":1811,"tor":1812,"gener":1813,"ark":1814,"000":1815,"vann":1816,"kval":1817,"føre":1818,"bre":1819,"Sam":1820,"Pro":1821,"hy":1822,"møte":1823,"asjoner":1824,"gode":1825,"famil":1826,"ard":1827,"ofte":1828,"fter":1829,"olen":1830,"takt":1831,"byg":1832,"opple":1833,"bid":1834,"aler":1835,"alv":1836,"fall":1837,"hjelp":1838,"lys":1839,"annen":1840,"get":1841,"konom":1842,"gt":1843,"derfor":1844,"Re":1845,"natur":1846,"ise":1847,"ond":1848,"sør":1849,"gitt":1850,"deres":1851,"uro":1852,"gjort":1853,"hø":1854,"lav":1855,"ate":1856,"anger":1857,"ust":1858,"sal":1859,"løs":1860,"Hun":1861,"gratis":1862,"fordi":1863,"sette":1864,"holde":1865,"sek":1866,"finnes":1867,"vol":1868,"ps":1869,"løpet":1870,"ball":1871,"samt":1872,"Som":1873,"50":1874,"atter":1875,"ansvar":1876,"Sp":1877,"bilder":1878,"komme":1879,"tekn":1880,"No":1881,"søke":1882,"13":1883,"ligger":1884,"vitet":1885,"Kon":1886,"rig":1887,"svært":1888,"innlegg":1889,"kjø":1890,"helse":1891,"ering":1892,"holder":1893,"nev":1894,"proble":1895,"kommune":1896,"Kj":1897,"kla":1898,"stedet":1899,"dø":1900,"klok":1901,"bestem":1902,"eksempel":1903,"delse":1904,"Tr":1905,"hu":1906,"sty":1907,"Ved":1908,"ativ":1909,"SA":1910,"mindre":1911,"eri":1912,"Har":1913,"11":1914,"spiller":1915,"dagen":1916,"kte":1917,"nord":1918,"entlig":1919,"sky":1920,"hvis":1921,"Na":1922,"ssa":1923,"jenter":1924,"samfunn":1925,"kanskje":1926,"dager":1927,"ssi":1928,"født":1929,"mate":1930,"aret":1931,"skil":1932,"hag":1933,"vide":1934,"but":1935,"endr":1936,"finner":1937,"matte":1938,"Nord":1939,"erte":1940,"oku":1941,"Ma":1942,"dal":1943,"kraft":1944,"først":1945,"større":1946,"mennesker":1947,"kter":1948,"ute":1949,"arene":1950,"forel":1951,"skjer":1952,"Sel":1953,"tren":1954,"vei":1955,"steder":1956,"fører":1957,"rel":1958,"Denne":1959,"tidig":1960,"enes":1961,"hvil":1962,"hov":1963,"ften":1964,"sere":1965,"program":1966,"ds":1967,"lov":1968,"felle":1969,"lett":1970,"ttet":1971,"kes":1972,"utfor":1973,"sitet":1974,"barne":1975,"2017":1976,"sma":1977,"gjelder":1978,"ikken":1979,"iva":1980,"kli":1981,"vise":1982,"Be":1983,"ina":1984,"dire":1985,"miljø":1986,"kort":1987,"sku":1988,"kultur":1989,"result":1990,"ov":1991,"ighet":1992,"fan":1993,"brukes":1994,"fl":1995,"forskjel":1996,"sept":1997,"kjøpe":1998,"studi":1999,"ding":2000,"198":2001,"behandling":2002,"oppgav":2003,"øl":2004,"milli":2005,"spørsmal":2006,"iden":2007,"ferdig":2008,"fast":2009,"sh":2010,"organisa":2011,"Opp":2012,"opprett":2013,"deler":2014,"øker":2015,"kontr":2016,"ike":2017,"rekke":2018,"unnskap":2019,"skelig":2020,"ane":2021,"Et":2022,"utvalg":2023,"kontakt":2024,"økonom":2025,"tert":2026,"sport":2027,"Mo":2028,"vak":2029,"rask":2030,"ganger":2031,"berg":2032,"krav":2033,"eff":2034,"El":2035,"co":2036,"byen":2037,"».":2038,"sær":2039,"fr":2040,"ikker":2041,"olle":2042,"sikt":2043,"mini":2044,"bla":2045,"unkt":2046,"Gr":2047,"prosent":2048,"vanlig":2049,"utter":2050,"asjonen":2051,"tallet":2052,"mene":2053,"enkelt":2054,"gjeng":2055,"sosi":2056,"ekte":2057,"Er":2058,"ci":2059,"jør":2060,"funksjon":2061,"vurder":2062,"sing":2063,"perio":2064,"alltid":2065,"kir":2066,"kjør":2067,"ign":2068,"Le":2069,"trenger":2070,"kvalitet":2071,"ars":2072,"Ch":2073,"agra":2074,"au":2075,"brukt":2076,"sat":2077,"vendig":2078,"stort":2079,"orde":2080,"mener":2081,"omradet":2082,"stan":2083,"senere":2084,"ore":2085,"iner":2086,"topp":2087,"fore":2088,"dd":2089,"verdi":2090,"sider":2091,"hør":2092,"Kri":2093,"ons":2094,"ja":2095,"konkur":2096,"ite":2097,"stru":2098,"langt":2099,"kommen":2100,"Inn":2101,"marked":2102,"enkel":2103,"ER":2104,"posi":2105,"pper":2106,"Kom":2107,"sket":2108,"Ne":2109,"ærlighet":2110,"resept":2111,"25":2112,"nøy":2113,"porno":2114,"apen":2115,"The":2116,"197":2117,"bety":2118,"ille":2119,"kje":2120,"klub":2121,"aldri":2122,"sann":2123,"tan":2124,"arbeids":2125,"sentr":2126,"hatt":2127,"dustri":2128,"Bar":2129,"mentet":2130,"veien":2131,"video":2132,"kjenn":2133,"utdan":2134,"trykk":2135,"vert":2136,"lite":2137,"grad":2138,"dar":2139,"fleste":2140,"produksjon":2141,"virksom":2142,"fortsatt":2143,"Hvis":2144,"ktet":2145,"fire":2146,"ay":2147,"forskjellige":2148,"the":2149,"Om":2150,"stille":2151,"undersøk":2152,"ateg":2153,"Norges":2154,"vanskelig":2155,"skolen":2156,"fiser":2157,"Po":2158,"snak":2159,"livet":2160,"teg":2161,"behov":2162,"største":2163,"Ny":2164,"Ro":2165,"pris":2166,"liten":2167,"idler":2168,"rapp":2169,"tiet":2170,"merk":2171,"enter":2172,"beny":2173,"best":2174,"neste":2175,"kjem":2176,"kost":2177,"syke":2178,"jan":2179,"interes":2180,"leng":2181,"velse":2182,"line":2183,"gjorde":2184,"ditt":2185,"atet":2186,"støtte":2187,"\".":2188,"repre":2189,"søn":2190,"sjons":2191,"fon":2192,"likt":2193,"alder":2194,"erfar":2195,"selskap":2196,"blog":2197,"By":2198,"setter":2199,"kunnskap":2200,"pul":2201,"nød":2202,"gamle":2203,"kvel":2204,"fem":2205,"øv":2206,"ori":2207,"bur":2208,"Av":2209,"2016":2210,"\",":2211,"hap":2212,"prak":2213,"bry":2214,"dyr":2215,"menter":2216,"mang":2217,"gjerne":2218,"vest":2219,"føring":2220,"ftet":2221,"rer":2222,"merik":2223,"navn":2224,"etab":2225,"Ho":2226,"tale":2227,"nad":2228,"40":2229,"ummer":2230,"meter":2231,"personer":2232,"publi":2233,"spesielt":2234,"registr":2235,"kunst":2236,"unge":2237,"dte":2238,"dei":2239,"tilby":2240,"orden":2241,"feil":2242,"viagra":2243,"kjære":2244,"skud":2245,"kropp":2246,"hot":2247,"samarbeid":2248,"bygge":2249,"196":2250,"AS":2251,"eit":2252,"kken":2253,"gra":2254,"redu":2255,"fisk":2256,"aktivitet":2257,"stet":2258,"lene":2259,"gren":2260,"bef":2261,"delt":2262,"sommer":2263,"kjærlighet":2264,"heller":2265,"seson":2266,"anlegg":2267,"vit":2268,"satte":2269,"ple":2270,"internasjon":2271,"part":2272,"legger":2273,"ikt":2274,"gatt":2275,"øst":2276,"do":2277,"besøk":2278,"kjente":2279,"virkelig":2280,"bidra":2281,"krig":2282,"kn":2283,"fjell":2284,"holdt":2285,"skjed":2286,"sjø":2287,"sle":2288,"sset":2289,"ingene":2290,"ungdom":2291,"utstyr":2292,"mon":2293,"sis":2294,"2015":2295,"bedri":2296,"allerede":2297,"gjer":2298,"avheng":2299,"skrive":2300,"saken":2301,"nt":2302,"bær":2303,"tering":2304,"mott":2305,"norge":2306,"nødvendig":2307,"data":2308,"kroner":2309,"dine":2310,"vende":2311,"heim":2312,"gl":2313,"100":2314,"Or":2315,"sto":2316,"Fre":2317,"22":2318,"pl":2319,"pav":2320,"egne":2321,"mere":2322,"ologi":2323,"erer":2324,"alis":2325,"bri":2326,"Bo":2327,"aliser":2328,"betyr":2329,"doku":2330,"bilde":2331,"hjemme":2332,"prosjekt":2333,"saker":2334,"lenge":2335,"bolig":2336,"slutt":2337,"24":2338,"aten":2339,"kal":2340,"musikk":2341,"aug":2342,"død":2343,"ton":2344,"spor":2345,"Alle":2346,"tiltak":2347,"syste":2348,"Ba":2349,"kil":2350,"handler":2351,"riktig":2352,"utfordr":2353,"tror":2354,"Under":2355,"gangen":2356,"spro":2357,"Per":2358,"fte":2359,"minst":2360,"fatter":2361,"likevel":2362,"kamp":2363,"Norsk":2364,"situ":2365,"tilgjeng":2366,"ogra":2367,"»,":2368,"Fra":2369,"Sør":2370,"henne":2371,"gu":2372,"felles":2373,"pi":2374,"oper":2375,"ningene":2376,"eres":2377,"mai":2378,"aly":2379,"skriver":2380,"ast":2381,"inklu":2382,"nesten":2383,"USA":2384,"vat":2385,"industri":2386,"forbin":2387,"forskning":2388,"drag":2389,"foret":2390,"massa":2391,"Euro":2392,"studen":2393,"post":2394,"huset":2395,"isse":2396,"sprak":2397,"lege":2398,"ansatte":2399,"enda":2400,"effek":2401,"bort":2402,"dam":2403,"hjelpe":2404,"ganske":2405,"dde":2406,"skrevet":2407,"fakti":2408,"Bru":2409,"spr":2410,"aut":2411,"ong":2412,"tilf":2413,"mak":2414,"Hv":2415,"IN":2416,"tern":2417,"ppe":2418,"itu":2419,"ffe":2420,"uar":2421,"læring":2422,"klart":2423,"tran":2424,"lar":2425,"eter":2426,"ky":2427,"knytt":2428,"materi":2429,"sil":2430,"lage":2431,"orte":2432,"dighet":2433,"deling":2434,"Dat":2435,"Kar":2436,"serte":2437,"Noen":2438,"økt":2439,"2014":2440,"niva":2441,"Før":2442,"forsta":2443,"rum":2444,"kompet":2445,"skrift":2446,"tikk":2447,"stoff":2448,"Sy":2449,"ator":2450,"ktor":2451,"grav":2452,"mess":2453,"vist":2454,"arbeider":2455,"samling":2456,"Arbe":2457,"film":2458,"foren":2459,"Mer":2460,"iver":2461,"holdet":2462,"21":2463,"sende":2464,"etabler":2465,"sdag":2466,"imidler":2467,"Selv":2468,"opplys":2469,"imidlertid":2470,"fi":2471,"alet":2472,"Dag":2473,"rige":2474,"utdanning":2475,"idrett":2476,"strøm":2477,"Hva":2478,"online":2479,"lese":2480,"gift":2481,"midler":2482,"Hel":2483,"eren":2484,"oppr":2485,"ress":2486,"mannen":2487,"one":2488,"sikre":2489,"natt":2490,"eget":2491,"rette":2492,"lands":2493,"Var":2494,"tru":2495,"23":2496,"nen":2497,"skog":2498,"basert":2499,"kontroll":2500,"drift":2501,"tive":2502,"millioner":2503,"forv":2504,"dersom":2505,"retning":2506,"vekt":2507,"sikkerhet":2508,"sykdom":2509,"we":2510,"Kan":2511,"EN":2512,"spenn":2513,"apr":2514,"timer":2515,"plasser":2516,"faktisk":2517,"halv":2518,"sne":2519,"tap":2520,"eldre":2521,"ekstra":2522,"dermed":2523,"øver":2524,"antall":2525,"Th":2526,"TV":2527,"stein":2528,"Bil":2529,"ian":2530,"fanta":2531,"jord":2532,"amerik":2533,"særlig":2534,"knyttet":2535,"spille":2536,"vant":2537,"skyl":2538,"begynte":2539,"poeng":2540,"samtidig":2541,"startet":2542,"fritt":2543,"kjønn":2544,"popul":2545,"mag":2546,"Ja":2547,"prosjektet":2548,"vite":2549,"medlemmer":2550,"fy":2551,"anbef":2552,"ku":2553,"beveg":2554,"arr":2555,"enten":2556,"begge":2557,"egg":2558,"Reg":2559,"prose":2560,"omrader":2561,"sper":2562,"fjer":2563,"penger":2564,"km":2565,"leg":2566,"2013":2567,"reise":2568,"hin":2569,"forslag":2570,"Gj":2571,"utenfor":2572,"Co":2573,"gjøres":2574,"To":2575,"Fa":2576,"tradi":2577,"hverandre":2578,"gruppe":2579,"Ikke":2580,"enkelte":2581,"pt":2582,"følger":2583,"ital":2584,"myn":2585,"damer":2586,"juni":2587,"kene":2588,"afil":2589,"Mange":2590,"qu":2591,"energi":2592,"iendom":2593,"vice":2594,"førte":2595,"forb":2596,"inkluder":2597,"annon":2598,"elefon":2599,"lære":2600,"kret":2601,"høyere":2602,"kap":2603,"slike":2604,"ansett":2605,"pap":2606,"snitt":2607,"hennes":2608,"event":2609,"høye":2610,"region":2611,"2012":2612,"nem":2613,"funnet":2614,"avtal":2615,"ative":2616,"kart":2617,"salg":2618,"sjef":2619,"pasi":2620,"prøve":2621,"spek":2622,"ansen":2623,"eneste":2624,"ansk":2625,"skudd":2626,"nak":2627,"kvinne":2628,"com":2629,"60":2630,"eier":2631,"sist":2632,"via":2633,"altsa":2634,"januar":2635,"begr":2636,"dige":2637,"giver":2638,"fotball":2639,"OL":2640,"ion":2641,"innenfor":2642,"oppdat":2643,"venner":2644,"egentlig":2645,"eld":2646,"ks":2647,"komp":2648,"barna":2649,"lede":2650,"194":2651,"velge":2652,"Andre":2653,"Go":2654,"La":2655,"tidlig":2656,"verdens":2657,"tred":2658,"uke":2659,"synes":2660,"ves":2661,"massasje":2662,"stene":2663,"risik":2664,"rolig":2665,"ation":2666,"øye":2667,"tot":2668,"tilgjengelig":2669,"skaper":2670,"forbindelse":2671,"ikkje":2672,"Te":2673,"apo":2674,"up":2675,"amp":2676,"Par":2677,"th":2678,"Stat":2679,"divi":2680,"klær":2681,"Vel":2682,"følgende":2683,"alene":2684,"tjenester":2685,"dens":2686,"alist":2687,"jobb":2688,"Disse":2689,"møter":2690,"Fran":2691,"mester":2692,"tri":2693,"late":2694,"forteller":2695,"28":2696,"mobil":2697,"2011":2698,"start":2699,"ktur":2700,"mine":2701,"skin":2702,"oslo":2703,"Ty":2704,"195":2705,"konkurran":2706,"Ser":2707,"atene":2708,"Bergen":2709,"rappor":2710,"spennende":2711,"ekk":2712,"Inter":2713,"styret":2714,"betal":2715,"jente":2716,"kompetanse":2717,"fo":2718,"ind":2719,"2018":2720,"tom":2721,"Ste":2722,"øte":2723,"maten":2724,"sagt":2725,"fav":2726,"use":2727,"nr":2728,"ill":2729,"forsvar":2730,"hal":2731,"direkte":2732,"isin":2733,"27":2734,"Gud":2735,"iet":2736,"delen":2737,"akk":2738,"vern":2739,"føres":2740,"avhengig":2741,"model":2742,"utvikle":2743,"Ver":2744,"tember":2745,"int":2746,"Li":2747,"26":2748,"Kr":2749,"vem":2750,"varer":2751,"verket":2752,"uler":2753,"Stor":2754,"insp":2755,"okus":2756,"døde":2757,"ou":2758,"fant":2759,"rasjon":2760,"Tor":2761,"2010":2762,"kommet":2763,"dør":2764,"Br":2765,"Ha":2766,"historie":2767,"verige":2768,"eksp":2769,"Hol":2770,"klare":2771,"velser":2772,"virksomhet":2773,"lyst":2774,"alvor":2775,"trening":2776,"tids":2777,"motor":2778,"ikasjon":2779,"ni":2780,"ferd":2781,"Dersom":2782,":)":2783,"profe":2784,"Fot":2785,"cialis":2786,"ht":2787,"moder":2788,"lenger":2789,"parte":2790,"synlig":2791,"sjett":2792,"styre":2793,"Ra":2794,"dende":2795,"dagens":2796,"regel":2797,"itter":2798,"OR":2799,"jent":2800,"malt":2801,"analy":2802,"bon":2803,"former":2804,"alitet":2805,"september":2806,"mars":2807,"At":2808,"sjen":2809,"oms":2810,"iddel":2811,"bum":2812,"log":2813,"bøker":2814,"Europa":2815,"sla":2816,"bran":2817,"vember":2818,"bakgrunn":2819,"øs":2820,"tene":2821,"fjor":2822,"kry":2823,"Su":2824,"spen":2825,"ssy":2826,"imot":2827,"ressur":2828,"kirke":2829,"blo":2830,"barnehag":2831,"jobber":2832,"kjenner":2833,"serer":2834,"fantast":2835,"fu":2836,"lønn":2837,"kere":2838,"bygget":2839,"familien":2840,"skape":2841,"viste":2842,"deltak":2843,"april":2844,"tivt":2845,"sember":2846,"mitt":2847,"pavir":2848,"mand":2849,"tør":2850,"29":2851,"tilbud":2852,"hn":2853,"enga":2854,"gruppen":2855,"bal":2856,"begynner":2857,"august":2858,"band":2859,"tema":2860,"spar":2861,"plassen":2862,"forut":2863,"Fri":2864,"meste":2865,"tasjon":2866,"navnet":2867,"tredje":2868,"perioden":2869,"nummer":2870,"aker":2871,"rø":2872,"rei":2873,"terer":2874,"univer":2875,"minutter":2876,"age":2877,"ali":2878,"liker":2879,"slatt":2880,"vde":2881,"spillet":2882,"ager":2883,"stopp":2884,"engel":2885,"favor":2886,"spunkt":2887,"terte":2888,"kjøre":2889,"Eng":2890,"za":2891,"akkur":2892,"lass":2893,"Hen":2894,"desember":2895,"fokus":2896,"skom":2897,"utgang":2898,"dning":2899,"tober":2900,"avgjør":2901,"utviklet":2902,"øya":2903,"selskapet":2904,"fart":2905,"mt":2906,"butikk":2907,"datter":2908,"foran":2909,"Si":2910,"system":2911,"regn":2912,"altern":2913,"akkurat":2914,"handel":2915,"urn":2916,"passer":2917,"valgt":2918,"II":2919,"eks":2920,"nov":2921,"elev":2922,"jul":2923,"november":2924,"uker":2925,"entlige":2926,"oktober":2927,"tv":2928,"melig":2929,"Vest":2930,"Chri":2931,"stats":2932,"familie":2933,"deles":2934,"iker":2935,"unktet":2936,"psyk":2937,"date":2938,"Mat":2939,"kel":2940,"høyt":2941,"gammel":2942,"viktigste":2943,"klokker":2944,"maned":2945,"pal":2946,"Trond":2947,"lit":2948,"ges":2949,"darlig":2950,"grupper":2951,"book":2952,"hotell":2953,"ST":2954,"Ru":2955,"øke":2956,"Sc":2957,"forsøk":2958,"kveld":2959,"ativt":2960,"radet":2961,"setning":2962,"lott":2963,"delser":2964,"fel":2965,"minister":2966,"avtale":2967,"kalt":2968,"Pri":2969,"voksne":2970,"slett":2971,"sven":2972,"Dan":2973,"2009":2974,"bevis":2975,"problemer":2976,"ligg":2977,"sisk":2978,"stadig":2979,"sar":2980,"!!":2981,"omrade":2982,"letter":2983,"hvilke":2984,"parti":2985,"ttes":2986,"rep":2987,"tem":2988,"funger":2989,"fint":2990,"partementet":2991,"splan":2992,"næring":2993,"budsjett":2994,"kkel":2995,"uelle":2996,"defin":2997,"oppgaver":2998,"oten":2999,"kning":3000,"Ge":3001,"chat":3002,"bruar":3003,"vand":3004,"punkt":3005,"verre":3006,"dro":3007,"Sol":3008,"nø":3009,"2008":3010,"ssel":3011,"oppdag":3012,"duksjon":3013,"New":3014,"produkter":3015,"igur":3016,"stillinger":3017,"tenke":3018,"innhold":3019,"AN":3020,"So":3021,"Hans":3022,"deretter":3023,"Over":3024,"legges":3025,"80":3026,"fang":3027,"tradisjon":3028,"brukere":3029,"melding":3030,"avslut":3031,"ønsket":3032,"sig":3033,"bestar":3034,"Kommun":3035,"vedtak":3036,"time":3037,"vinter":3038,"forsik":3039,"ytter":3040,"profil":3041,"Sex":3042,"finan":3043,"ful":3044,"Kun":3045,"tron":3046,"vinner":3047,"sens":3048,"befolk":3049,"meng":3050,"organisasjon":3051,"lokale":3052,"gjenopprett":3053,"opprinn":3054,"kombin":3055,"behand":3056,"kommunen":3057,"risiko":3058,"opplysninger":3059,"disku":3060,"sendt":3061,"fornøy":3062,"ktøy":3063,"Pr":3064,"ande":3065,"mis":3066,"kroppen":3067,"Johan":3068,"merket":3069,"revi":3070,"Ta":3071,"fiske":3072,"Les":3073,"gje":3074,"bildet":3075,"masse":3076,"bart":3077,"ømme":3078,"foreldre":3079,"februar":3080,"Univer":3081,"urt":3082,"stav":3083,"barnet":3084,"messig":3085,"fran":3086,"felt":3087,"He":3088,"nettsteder":3089,"utrolig":3090,"bane":3091,"tann":3092,"ming":3093,"bærer":3094,"sjer":3095,"vd":3096,"Car":3097,"album":3098,"luft":3099,"70":3100,"apne":3101,"merksom":3102,"alte":3103,"besky":3104,"juli":3105,"tilpa":3106,"tilbyr":3107,"jev":3108,"193":3109,"raskt":3110,"stasjon":3111,"mek":3112,"bygging":3113,"NA":3114,"jenester":3115,"opplæring":3116,"arrang":3117,"ega":3118,"Land":3119,"inneholder":3120,"lek":3121,"Arbeid":3122,"disk":3123,"klubb":3124,"høre":3125,"olje":3126,"Kristi":3127,"merke":3128,"aner":3129,"anser":3130,"arbeide":3131,"fine":3132,"orien":3133,"kat":3134,"oppmerksom":3135,"muligheter":3136,"telefon":3137,"middel":3138,"sosiale":3139,"trafikk":3140,"strateg":3141,"maneder":3142,"størr":3143,"bat":3144,"klarer":3145,"NT":3146,"akter":3147,"oppdrag":3148,"ess":3149,"slutten":3150,"spillere":3151,"naturlig":3152,"tjeneste":3153,"igheter":3154,"nene":3155,"kant":3156,"viktige":3157,"mør":3158,"tilgang":3159,"verktøy":3160,"fakt":3161,"ært":3162,"resten":3163,"hev":3164,"visning":3165,"politi":3166,"søkt":3167,"spo":3168,"kkes":3169,"stol":3170,"Sen":3171,"oven":3172,"lager":3173,"høyre":3174,"ys":3175,"2007":3176,"ww":3177,"nemlig":3178,"meld":3179,"denafil":3180,"struktur":3181,"oller":3182,"ollen":3183,"lærer":3184,"internasjonale":3185,"borg":3186,"statt":3187,"kampen":3188,"ep":3189,"fest":3190,"malet":3191,"gjennomført":3192,"prin":3193,"skaps":3194,"nere":3195,"con":3196,"ania":3197,"ET":3198,"fru":3199,"ue":3200,"prosjekter":3201,"hvem":3202,"bidr":3203,"Fol":3204,"way":3205,"tas":3206,"kontor":3207,"jobbe":3208,"design":3209,"representer":3210,"organiser":3211,"problem":3212,"medisin":3213,"dele":3214,"styrke":3215,"selig":3216,"løse":3217,"Finn":3218,"dato":3219,"klokke":3220,"siske":3221,"erfaring":3222,"AR":3223,"Derfor":3224,"eiendom":3225,"Str":3226,"fylke":3227,"Øst":3228,"fyr":3229,"Far":3230,"endringer":3231,"innlegget":3232,"meto":3233,"virke":3234,"sesongen":3235,"Rom":3236,"sats":3237,"Ol":3238,"innbygg":3239,"ktør":3240,"ero":3241,"90":3242,"IT":3243,"offentlig":3244,"aktiv":3245,"autom":3246,"tett":3247,"Fr":3248,"vinne":3249,"Mil":3250,"slaget":3251,"test":3252,"Sverige":3253,"leve":3254,"batt":3255,"Bjør":3256,"samlet":3257,"dess":3258,"Ju":3259,"grunnlag":3260,"slags":3261,"kurs":3262,"haper":3263,"Gjennom":3264,"ordin":3265,"kten":3266,"forskjell":3267,"ologisk":3268,"tross":3269,"dokumen":3270,"viten":3271,"ette":3272,"Lu":3273,"ini":3274,"fry":3275,"diske":3276,"aland":3277,"euro":3278,"lokal":3279,"oversikt":3280,"settes":3281,"kse":3282,"russi":3283,"fir":3284,"EU":3285,"Fin":3286,"hil":3287,"nader":3288,"folke":3289,"velger":3290,"skrev":3291,"systemet":3292,"hører":3293,"Hu":3294,"arets":3295,"vekst":3296,"vurdering":3297,"valgte":3298,"sister":3299,"delige":3300,"Høy":3301,"nettet":3302,"skon":3303,"sino":3304,"ama":3305,"radi":3306,"Ad":3307,"seks":3308,"undet":3309,"John":3310,"sikkert":3311,"nevnt":3312,"følgelig":3313,"rolle":3314,"prøver":3315,"blogg":3316,"fold":3317,"smil":3318,"departementet":3319,"mater":3320,"Hi":3321,"ppet":3322,"Alt":3323,"delag":3324,"otte":3325,"sang":3326,"Fil":3327,"praksis":3328,"sjel":3329,"tips":3330,"Mon":3331,"Kjøp":3332,"sielle":3333,"ider":3334,"omo":3335,"havet":3336,"utviklingen":3337,"IS":3338,"Nett":3339,"sav":3340,"bro":3341,"Tid":3342,"banen":3343,"rike":3344,"regjer":3345,"forven":3346,"inve":3347,"2006":3348,"obb":3349,"taler":3350,"anner":3351,"kvinn":3352,"skorte":3353,"polit":3354,"sammenheng":3355,"tion":3356,"gave":3357,"stillingen":3358,"Mor":3359,"uelt":3360,"langs":3361,"Norske":3362,"tilsvar":3363,"smak":3364,"flott":3365,"Hand":3366,"skol":3367,"anti":3368,"single":3369,"NR":3370,"henhold":3371,"fug":3372,"ledd":3373,"morgen":3374,"opptatt":3375,"Hj":3376,"Ban":3377,"sitter":3378,"apotek":3379,"Trondheim":3380,"Foto":3381,"Di":3382,"samfunnet":3383,"makt":3384,"kring":3385,"høyde":3386,"turen":3387,"bilen":3388,"fjord":3389,"skikk":3390,"brudd":3391,"inget":3392,"muligheten":3393,"leser":3394,"fat":3395,"ity":3396,"bord":3397,"Me":3398,"forvalt":3399,"orer":3400,"cebook":3401,"atisk":3402,"ppen":3403,"lør":3404,"ara":3405,"rør":3406,"Mal":3407,"undersøkelse":3408,"krever":3409,"leverand":3410,"stid":3411,"hjer":3412,"IL":3413,"amerikanske":3414,"kob":3415,"Trom":3416,"kong":3417,"budet":3418,"rygg":3419,"seier":3420,"litter":3421,"nærmere":3422,"tekst":3423,"ped":3424,"server":3425,"jern":3426,"synet":3427,"daglig":3428,"detal":3429,"snø":3430,"plikt":3431,"fik":3432,"range":3433,"deltok":3434,"utgi":3435,"rettet":3436,"helst":3437,"markedet":3438,"hai":3439,"instru":3440,"hvorfor":3441,"aget":3442,"lyd":3443,"Bu":3444,"EL":3445,"rene":3446,"sfor":3447,"represent":3448,"minist":3449,"bladet":3450,"glad":3451,"løsninger":3452,"leie":3453,"190":3454,"Helse":3455,"veil":3456,"forfatter":3457,"IK":3458,"Stu":3459,"pass":3460,"filmen":3461,"Pre":3462,"Stort":3463,"løsning":3464,"Stav":3465,"institu":3466,"universitet":3467,"spilte":3468,"Ag":3469,"iør":3470,"ana":3471,"endre":3472,"lange":3473,"Ham":3474,"Eg":3475,"utvalget":3476,"Hvor":3477,"snart":3478,"35":3479,"nede":3480,"moderne":3481,"sland":3482,"Siden":3483,"unnga":3484,"Tysk":3485,"gull":3486,"My":3487,"tydelig":3488,"fullt":3489,"eta":3490,"31":3491,"skade":3492,"transport":3493,"sentrum":3494,"legging":3495,"frik":3496,"spunktet":3497,"nevn":3498,"lende":3499,"gul":3500,"milit":3501,"skul":3502,"bered":3503,"Por":3504,"pan":3505,"elever":3506,"staende":3507,"esc":3508,"brukte":3509,"begrens":3510,"egnet":3511,"kontra":3512,"NO":3513,"produkt":3514,"meget":3515,"2005":3516,"sesong":3517,"ksjoner":3518,"føler":3519,"kjæreste":3520,"varme":3521,"sterke":3522,"hovedsak":3523,"inkludert":3524,"egge":3525,"bred":3526,"service":3527,"kolle":3528,"nende":3529,"Ka":3530,"gard":3531,"vold":3532,"burde":3533,"privat":3534,"resultater":3535,"iene":3536,"apnet":3537,"stilt":3538,"invi":3539,"sammenlig":3540,"Vil":3541,"endelig":3542,"king":3543,"ac":3544,"maskin":3545,"tin":3546,"øse":3547,"kraftig":3548,"kalle":3549,"xx":3550,"hopp":3551,"interess":3552,"perf":3553,"Con":3554,"Min":3555,"politiet":3556,"ansvarlig":3557,"utvi":3558,"loven":3559,"staur":3560,"reguler":3561,"hjelper":3562,"hundre":3563,"midt":3564,"anter":3565,"vitenskap":3566,"serien":3567,"kunder":3568,"ins":3569,"relig":3570,"retten":3571,"trent":3572,"uansett":3573,"somt":3574,"identi":3575,"hensyn":3576,"typer":3577,"klubben":3578,"artikk":3579,"nelsen":3580,"strekk":3581,"ifølge":3582,"alog":3583,"kommunikasjon":3584,"stral":3585,"bom":3586,"tab":3587,"gis":3588,"annonser":3589,"indivi":3590,"fler":3591,"etablert":3592,"ikere":3593,"engelsk":3594,"Sak":3595,"filmer":3596,"Del":3597,"stendig":3598,"politiske":3599,"Ti":3600,"reseptfritt":3601,"farge":3602,"Dating":3603,"port":3604,"kateg":3605,"2000":3606,"Ve":3607,"stin":3608,"omfatt":3609,"offentlige":3610,"Hvordan":3611,"lille":3612,"45":3613,"spise":3614,"blikk":3615,"stiller":3616,"kny":3617,"pat":3618,"hets":3619,"aktig":3620,"ving":3621,"Sand":3622,"prisen":3623,"vent":3624,"betydning":3625,"drene":3626,"lub":3627,"aren":3628,"ald":3629,"Wil":3630,"datingside":3631,"enfor":3632,"plu":3633,"san":3634,"mm":3635,"sed":3636,"delta":3637,"stede":3638,"Ogsa":3639,"resultat":3640,"sliv":3641,"biler":3642,"vate":3643,"web":3644,"Jan":3645,"nevnte":3646,"ame":3647,"neg":3648,"Eller":3649,"skjema":3650,"ministr":3651,"presenter":3652,"bære":3653,"grader":3654,"programmet":3655,"hvilken":3656,"lengre":3657,"nettopp":3658,"fornøyd":3659,"ith":3660,"brev":3661,"blom":3662,"Lo":3663,"sønn":3664,"seksu":3665,"interesse":3666,"kreft":3667,"lei":3668,"istikk":3669,"VM":3670,"Mag":3671,"nasjonale":3672,"Val":3673,"klasse":3674,"bestille":3675,"varen":3676,"gro":3677,"Au":3678,"flyttet":3679,"presiden":3680,"repet":3681,"papir":3682,"bestemt":3683,"fantastisk":3684,"velsen":3685,"lettere":3686,"boken":3687,"nasjonal":3688,"utøver":3689,"elses":3690,"male":3691,"type":3692,"muse":3693,"treff":3694,"NRK":3695,"oppna":3696,"Fyl":3697,"kommende":3698,"periode":3699,"gjennomsnitt":3700,"hard":3701,"elek":3702,"ES":3703,"klarte":3704,"stig":3705,"AL":3706,"ifiser":3707,"spla":3708,"boka":3709,"markeds":3710,"henger":3711,"teknologi":3712,"iks":3713,"lot":3714,"enner":3715,"titt":3716,"ønne":3717,"uttrykk":3718,"rommet":3719,"regj":3720,"yngre":3721,"skip":3722,"venstre":3723,"bol":3724,"Ek":3725,"ister":3726,"hygg":3727,"formal":3728,"valget":3729,"brann":3730,"Hoved":3731,"vilkar":3732,"tivitet":3733,"hem":3734,"sson":3735,"els":3736,"hodet":3737,"ct":3738,"ppa":3739,"Tyskland":3740,"glede":3741,"trygg":3742,"pol":3743,"starter":3744,"middag":3745,"tekt":3746,"ete":3747,"Hø":3748,"bus":3749,"organisasjoner":3750,"vari":3751,"slipp":3752,"økonomi":3753,"innebærer":3754,"staten":3755,"generisk":3756,"che":3757,"fungerer":3758,"kamer":3759,"ilig":3760,"trekk":3761,"Spe":3762,"byr":3763,"virker":3764,"tilfeller":3765,"folket":3766,"eksister":3767,"avvik":3768,"Kn":3769,"vurdere":3770,"beslut":3771,"utd":3772,"fen":3773,"isen":3774,"grep":3775,"bygd":3776,"snakke":3777,"cm":3778,"partiet":3779,"blod":3780,"Ingen":3781,"rut":3782,"Ca":3783,"stander":3784,"stival":3785,"terr":3786,"bedrift":3787,"rek":3788,"arder":3789,"slin":3790,"Stavanger":3791,"ledet":3792,"sterk":3793,"Flere":3794,"resp":3795,"urer":3796,"selvfølgelig":3797,"bidrar":3798,"spilt":3799,"Tu":3800,"svart":3801,"sterkt":3802,"old":3803,"Bak":3804,"høst":3805,"inten":3806,"regler":3807,"konser":3808,"500":3809,"opplevelse":3810,"driver":3811,"Sko":3812,"sykehus":3813,"We":3814,"Is":3815,"ologiske":3816,"ork":3817,"krigen":3818,"feltet":3819,"delingen":3820,"gan":3821,"Bi":3822,"skjul":3823,"skoler":3824,"myndighet":3825,"partner":3826,"publik":3827,"interv":3828,"uer":3829,"ønske":3830,"forhand":3831,"itte":3832,"omsorg":3833,"oppfølg":3834,"ømmer":3835,"sannsynlig":3836,"rul":3837,"stod":3838,"fulle":3839,"avtalen":3840,"sosial":3841,"skar":3842,"tol":3843,"rav":3844,"Hei":3845,"mist":3846,"sielt":3847,"Ly":3848,"gene":3849,"Nav":3850,"profesjon":3851,"aksjon":3852,"elsene":3853,"hor":3854,"kjenne":3855,"tusen":3856,"Prosjek":3857,"invester":3858,"inga":3859,"studenter":3860,"vedlike":3861,"wn":3862,"ses":3863,"tvil":3864,"møtet":3865,"Ander":3866,"Ul":3867,"regjering":3868,"retts":3869,"dame":3870,"høsten":3871,"Jes":3872,"utfordringer":3873,"aktiviteter":3874,"journ":3875,"talt":3876,"takk":3877,"sjøen":3878,"kjempe":3879,"cir":3880,"økonomisk":3881,"Com":3882,"enkle":3883,"restaur":3884,"okr":3885,"karakter":3886,"gte":3887,"2004":3888,"Mu":3889,"ondon":3890,"presen":3891,"ika":3892,"peratur":3893,"arrange":3894,"tenker":3895,"Samtidig":3896,"refer":3897,"oppfyl":3898,"politikk":3899,"ultur":3900,"kjøpt":3901,"fett":3902,"las":3903,"æren":3904,"okt":3905,"ino":3906,"politisk":3907,"vapen":3908,"registrert":3909,"direktør":3910,"Nær":3911,"farger":3912,"enting":3913,"regjeringen":3914,"forrige":3915,"betale":3916,"EM":3917,"digheter":3918,"klassi":3919,"anled":3920,"reiser":3921,"raft":3922,"populære":3923,"Gu":3924,"frivil":3925,"tanke":3926,"varier":3927,"feng":3928,"Ga":3929,"øt":3930,"flat":3931,"vesen":3932,"God":3933,"selve":3934,"eskorte":3935,"kjøper":3936,"iso":3937,"ata":3938,"økonomiske":3939,"konkurranse":3940,"nettstedet":3941,"lørdag":3942,"bedrifter":3943,"eli":3944,"latt":3945,"kvar":3946,"Gener":3947,"jek":3948,"slar":3949,"flotte":3950,"lavere":3951,"gn":3952,"utgjør":3953,"skjedde":3954,"kjøkken":3955,"ssor":3956,"sjekke":3957,"drer":3958,"Styr":3959,"Poli":3960,"faglig":3961,"Produksjon":3962,"somra":3963,"MS":3964,"Erik":3965,"Dr":3966,"godkjent":3967,"begynne":3968,"Mic":3969,"egaende":3970,"studie":3971,"mes":3972,"ony":3973,"forening":3974,"Res":3975,"andel":3976,"Bok":3977,"nu":3978,"poten":3979,"ING":3980,".»":3981,"starte":3982,"sia":3983,"fortsette":3984,"personlig":3985,"super":3986,"kommentar":3987,"inspir":3988,"bunn":3989,"elekt":3990,"konf":3991,"tyske":3992,"formen":3993,"ogn":3994,"Russ":3995,"spel":3996,"....":3997,"inntil":3998,"søndag":3999,"digit":4000,"finn":4001,"betydelig":4002,"bert":4003,"naken":4004,"Kir":4005,"lv":4006,"innsats":4007,"sentral":4008,"elsker":4009,"skriften":4010,"stitu":4011,"utsatt":4012,"havn":4013,"spre":4014,"steg":4015,"glem":4016,"ringer":4017,"priser":4018,"blio":4019,"gel":4020,"gri":4021,"sykkel":4022,"unna":4023,"gere":4024,"parten":4025,"grønn":4026,"forholdet":4027,"vanlige":4028,"Mart":4029,"freds":4030,"kjæresten":4031,"Like":4032,"oppgave":4033,"kontak":4034,"øren":4035,"overfor":4036,"Lar":4037,"trinn":4038,"fortelle":4039,"jobbet":4040,"europe":4041,"Vis":4042,"London":4043,"Mid":4044,"ellers":4045,"holdning":4046,"bandet":4047,"vo":4048,"Bra":4049,"ssert":4050,"vind":4051,".[":4052,"distr":4053,"redusere":4054,"skader":4055,"fla":4056,"vinn":4057,"Universitet":4058,"møtte":4059,"team":4060,"Fo":4061,"veis":4062,"situasjonen":4063,"opphold":4064,"OS":4065,"Jon":4066,"seri":4067,"innvand":4068,"toppen":4069,"gjennomføre":4070,"dia":4071,"livs":4072,"oppleve":4073,"fjorden":4074,"Slik":4075,"sler":4076,"smer":4077,"vene":4078,"private":4079,"osv":4080,"priori":4081,"treng":4082,"straff":4083,"sign":4084,"opplever":4085,"unnet":4086,"Ko":4087,"nettapotek":4088,"bakken":4089,"ola":4090,"høg":4091,"jobben":4092,"sloven":4093,"rag":4094,"skue":4095,"sken":4096,"uly":4097,"dalen":4098,"billig":4099,"falt":4100,"tillit":4101,"tilsvarende":4102,"ferie":4103,"Ifølge":4104,"kast":4105,"tver":4106,"agen":4107,"administr":4108,"uk":4109,"nærings":4110,"inge":4111,"\")":4112,"overrask":4113,"liste":4114,"skatt":4115,"Kanskje":4116,"formid":4117,"øvrig":4118,"36":4119,"slekt":4120,"189":4121,"Lin":4122,"garden":4123,"bank":4124,"stabil":4125,"intervju":4126,"sor":4127,"Facebook":4128,"seres":4129,"Hot":4130,"skrig":4131,"festival":4132,"Danmark":4133,"sukse":4134,"søknad":4135,"kol":4136,"pil":4137,"serie":4138,"situasjon":4139,"elevene":4140,"menneske":4141,"standard":4142,"taket":4143,"løy":4144,"Des":4145,"RA":4146,"von":4147,"zz":4148,"bytte":4149,"veier":4150,"fredag":4151,"Aker":4152,"Øy":4153,"grunnlegg":4154,"beskri":4155,"vanligvis":4156,"ønner":4157,"jule":4158,"Vik":4159,"gaende":4160,"Fj":4161,"Side":4162,"nettverk":4163,"siktig":4164,"roman":4165,"rapport":4166,"Frankr":4167,"somme":4168,"mennesk":4169,"ressurser":4170,"Tre":4171,"debatt":4172,"Plan":4173,"hvit":4174,"San":4175,"standen":4176,"konstru":4177,"bjør":4178,"hjerte":4179,"favoritter":4180,"selskaper":4181,"forbundet":4182,"vitra":4183,"slapp":4184,"bestemmel":4185,"sukker":4186,"trekke":4187,"utover":4188,"riks":4189,"omradene":4190,"endret":4191,"ris":4192,"sjonene":4193,"On":4194,"utført":4195,"75":4196,"bestemte":4197,"ED":4198,"vitt":4199,"pasitet":4200,"vider":4201,"flyt":4202,"nytte":4203,"stam":4204,"spi":4205,"skikkelig":4206,"høyeste":4207,"gli":4208,"omtrent":4209,"lingen":4210,"later":4211,"rykk":4212,"studier":4213,"videoer":4214,"betaling":4215,"krist":4216,"eleg":4217,"totalt":4218,"ile":4219,"sektor":4220,"):":4221,"ass":4222,"kjøtt":4223,"bloggen":4224,"bredt":4225,"lak":4226,"teres":4227,"invol":4228,"last":4229,"effekt":4230,"vises":4231,"kommunene":4232,"heldig":4233,"foretak":4234,"enklere":4235,"rael":4236,"arter":4237,"fortsetter":4238,"jet":4239,"vannet":4240,"fron":4241,"forbund":4242,"ers":4243,"inte":4244,"ledelse":4245,"veit":4246,"klima":4247,"tø":4248,"befolkningen":4249,"pasient":4250,"prinsi":4251,"hl":4252,"angrep":4253,"formasjonen":4254,"Kultur":4255,"veiled":4256,"enhet":4257,"olf":4258,"matisk":4259,"fordel":4260,"fak":4261,"allen":4262,"fro":4263,"ID":4264,"medier":4265,"utgangspunkt":4266,"drik":4267,"figur":4268,"trener":4269,"slikt":4270,"tta":4271,"slivet":4272,"mente":4273,"ip":4274,"meldinger":4275,"rød":4276,"samfunns":4277,"forstaelse":4278,"Bade":4279,"oppfor":4280,"Kong":4281,"historien":4282,"smo":4283,"bildene":4284,"kron":4285,"Ung":4286,"kjøret":4287,"SK":4288,"slet":4289,"ordet":4290,"2003":4291,"Bygg":4292,"sentrale":4293,"trolig":4294,"sommeren":4295,"utvikler":4296,"lest":4297,"bevisst":4298,"president":4299,"nam":4300,"Sal":4301,"tider":4302,"smø":4303,"ada":4304,"siv":4305,"skommun":4306,"ytterligere":4307,"medal":4308,"administ":4309,"vne":4310,"greit":4311,"foku":4312,"oppfølging":4313,"forsv":4314,"firma":4315,"aksep":4316,"fred":4317,"Off":4318,"isere":4319,"utgitt":4320,"Ex":4321,"imp":4322,"Sommer":4323,"begynnelsen":4324,"komite":4325,"jenesten":4326,"aktør":4327,"Bruk":4328,"ivar":4329,"inntekt":4330,"PS":4331,"Inst":4332,"isert":4333,"relativt":4334,"Frankrike":4335,"andid":4336,"33":4337,"unt":4338,"jakt":4339,"gutter":4340,"avgjørende":4341,"cy":4342,"oppe":4343,"lignende":4344,"enhver":4345,"kvalifiser":4346,"Bla":4347,"opprettet":4348,"Kor":4349,"isering":4350,"ramme":4351,"kjører":4352,"Can":4353,"ex":4354,"hardt":4355,"ffet":4356,"Forsk":4357,"biblio":4358,"størrelse":4359,"Hau":4360,"innbyggere":4361,"ekom":4362,"sym":4363,"benyttes":4364,"kjer":4365,"engasj":4366,"tysk":4367,"vedtatt":4368,"Service":4369,"oppdaget":4370,"alla":4371,"ellet":4372,"prosessen":4373,"Russland":4374,"arbeidere":4375,"hit":4376,"fotogra":4377,"vs":4378,"status":4379,"homo":4380,"merker":4381,"Kli":4382,"versjon":4383,"nettsted":4384,"jak":4385,"temperatur":4386,"sexy":4387,"internett":4388,"dommer":4389,"soli":4390,"gutt":4391,"aen":4392,"Sammen":4393,"beløp":4394,"starten":4395,"offi":4396,"ledes":4397,"publikum":4398,"rent":4399,"stoffer":4400,"casino":4401,"porn":4402,"Videre":4403,"As":4404,"amma":4405,"ometer":4406,"trad":4407,"IF":4408,"Person":4409,"kna":4410,"areal":4411,"Christi":4412,"asjons":4413,"hyggelig":4414,"ungdoms":4415,"grunnleggende":4416,"Histor":4417,"pensjon":4418,"rettigheter":4419,"karri":4420,"arked":4421,"konse":4422,"dekk":4423,"atiske":4424,"grense":4425,"ekstre":4426,"orier":4427,"kommuner":4428,"Bri":4429,"-)":4430,"ies":4431,"ente":4432,"derimot":4433,"klin":4434,"levitra":4435,"dret":4436,"ærende":4437,"oppgjør":4438,"utslipp":4439,"kalles":4440,"tekter":4441,"parker":4442,"sul":4443,"stemmer":4444,"how":4445,"arti":4446,"flu":4447,"hens":4448,"konto":4449,"kunde":4450,"Ele":4451,"strand":4452,"svis":4453,"litteratur":4454,"Lille":4455,"endring":4456,"US":4457,"vesent":4458,"enna":4459,"Ak":4460,"vere":4461,"Møte":4462,"Result":4463,"Gar":4464,"absol":4465,"Bli":4466,"funksjoner":4467,"kvelden":4468,"finalen":4469,"omfattende":4470,"selen":4471,"bisk":4472,"England":4473,"generelt":4474,"Barn":4475,"demokr":4476,"batter":4477,"voksen":4478,"redning":4479,"Tek":4480,"planen":4481,"sidene":4482,"tenkt":4483,"tyn":4484,"tilsyn":4485,"fjellet":4486,"free":4487,"ida":4488,"Do":4489,"russiske":4490,"innov":4491,"materiale":4492,"byra":4493,"pene":4494,"legen":4495,"spra":4496,"tegn":4497,"kamper":4498,"butikken":4499,"Stortinget":4500,"bransjen":4501,"ekteskap":4502,"assa":4503,"sprosjek":4504,"PC":4505,"vakre":4506,"uren":4507,"34":4508,"elektron":4509,"ani":4510,"sniva":4511,"cu":4512,"planer":4513,"Sch":4514,"verdier":4515,"vindu":4516,"188":4517,"pasienter":4518,"uken":4519,"2001":4520,".)":4521,"opti":4522,"sja":4523,"bekre":4524,"normalt":4525,"stund":4526,"bygger":4527,"ellen":4528,"hindre":4529,"apner":4530,"Organ":4531,"gut":4532,"Fe":4533,"liggende":4534,"prote":4535,"rere":4536,"uttal":4537,"tilstrekk":4538,"Dermed":4539,"tog":4540,"delsen":4541,"alisering":4542,"Trøn":4543,"okk":4544,"avdeling":4545,"Berg":4546,"hentet":4547,"sering":4548,"uavhengig":4549,"presse":4550,"bror":4551,"Dess":4552,"sprogram":4553,"byer":4554,"kontin":4555,"Ale":4556,"hum":4557,"røy":4558,"gøy":4559,"Ole":4560,"svenske":4561,"miljøet":4562,"møn":4563,"skilt":4564,"skrifter":4565,"atør":4566,"rus":4567,"yt":4568,"Ter":4569,"sørge":4570,"stikk":4571,"(\"":4572,"ki":4573,"hjul":4574,"ogle":4575,"volu":4576,"yo":4577,"dik":4578,"bist":4579,"stak":4580,"sinn":4581,"Dagbladet":4582,"forvaltning":4583,"Fredrik":4584,"ros":4585,"ømt":4586,"alli":4587,"ight":4588,"minne":4589,"itutt":4590,"borte":4591,"anbefal":4592,"stj":4593,"forbed":4594,"organisasjonen":4595,"2002":4596,"NS":4597,"fysisk":4598,"CO":4599,"omfatter":4600,"desig":4601,"risk":4602,"nærheten":4603,"Bank":4604,"32":4605,"kle":4606,"erfaringer":4607,"sju":4608,"Ital":4609,"svarte":4610,"idretts":4611,"adal":4612,"diag":4613,"alternativ":4614,"escort":4615,"stilte":4616,"mede":4617,"Tra":4618,"smiljø":4619,"engene":4620,"oppdatert":4621,"Bare":4622,"ante":4623,"Tom":4624,"omkring":4625,"ari":4626,"laste":4627,"gjøring":4628,"forsker":4629,"sling":4630,"listen":4631,"snakker":4632,"ettersom":4633,"une":4634,"ube":4635,"stjer":4636,"konkret":4637,"Mel":4638,"undersøkelser":4639,"kym":4640,"britann":4641,"benytte":4642,"venter":4643,"NM":4644,"turer":4645,"vedlikehold":4646,"runde":4647,"Gre":4648,"drikke":4649,"Eli":4650,"Søk":4651,"naden":4652,"gjenoppretting":4653,"jf":4654,"fabr":4655,"lam":4656,"videregaende":4657,"setting":4658,"sitte":4659,"ander":4660,"minn":4661,"virkning":4662,"latelse":4663,"sir":4664,"sberg":4665,"endte":4666,"bekym":4667,"refle":4668,"sølv":4669,"undervisning":4670,"dagene":4671,"utselig":4672,"butikker":4673,"albumet":4674,"tøy":4675,"Tran":4676,"ventet":4677,"dekke":4678,"Jesus":4679,"39":4680,"mening":4681,"Bjørn":4682,"ikler":4683,"aktuelle":4684,"UN":4685,"suksess":4686,"beskjed":4687,"sjelden":4688,"haug":4689,"tten":4690,"Nil":4691,"myndigheter":4692,"drive":4693,"37":4694,"fremst":4695,"løst":4696,"Kina":4697,"gjent":4698,",-":4699,"virksomheten":4700,"posisjon":4701,"ittel":4702,"Skal":4703,"undersøkelsen":4704,"rammen":4705,"Ap":4706,"tilfreds":4707,"fal":4708,"Olav":4709,"selvsagt":4710,"borger":4711,"dring":4712,"holdes":4713,"selger":4714,"ppene":4715,"fremdeles":4716,"tic":4717,"evne":4718,".\"":4719,"favoritt":4720,"arbeidsgiver":4721,"uell":4722,"Anne":4723,"umiddel":4724,"engt":4725,"regionen":4726,"rede":4727,"aktive":4728,"ild":4729,"Blant":4730,"forum":4731,"løper":4732,"hente":4733,"innom":4734,"kirken":4735,"Tromsø":4736,"skjønn":4737,"interessant":4738,"kristne":4739,"sprose":4740,"dekket":4741,"hvite":4742,"opptak":4743,"nordmenn":4744,"RE":4745,"Pu":4746,"bøl":4747,"fare":4748,"forvent":4749,"Ven":4750,"dikt":4751,"bruken":4752,"tilrett":4753,"Uten":4754,"ærer":4755,"ya":4756,"landske":4757,"onen":4758,"Dav":4759,"Sport":4760,"indre":4761,"religi":4762,"ice":4763,"besøke":4764,"agt":4765,"ledere":4766,"inspi":4767,"prosess":4768,"spa":4769,"perfekt":4770,"messige":4771,"samle":4772,"ior":4773,"benyttet":4774,"oppmerksomhet":4775,"Nordland":4776,"retningslin":4777,"sur":4778,"gass":4779,"AT":4780,"rimelig":4781,"kamera":4782,"agog":4783,"flin":4784,"misjon":4785,"plik":4786,"landets":4787,"plat":4788,"iz":4789,"fek":4790,"Mot":4791,"38":4792,"bad":4793,"Internett":4794,"vente":4795,"foreg":4796,"radio":4797,"him":4798,"ingenting":4799,"ordningen":4800,"Hy":4801,"ender":4802,"defini":4803,"Bro":4804,"helset":4805,"rist":4806,"student":4807,"søy":4808,"55":4809,"revolu":4810,"absolutt":4811,"steret":4812,"kne":4813,"ledende":4814,"Trøndelag":4815,"Grunn":4816,"tilhør":4817,"Ungdom":4818,"handle":4819,"bidrag":4820,"arkite":4821,"spørsmalet":4822,"personlige":4823,"resultatet":4824,"riske":4825,"eto":4826,"48":4827,"Storbritann":4828,"SE":4829,"skyld":4830,"Red":4831,"ordning":4832,"als":4833,"revisjon":4834,"Ed":4835,"shem":4836,"Ein":4837,"usikker":4838,"kjøretøy":4839,"troll":4840,"tilstrekkelig":4841,"oni":4842,"skiner":4843,"aga":4844,"Mens":4845,"forand":4846,"uttry":4847,"App":4848,".-":4849,"ford":4850,"britiske":4851,"bland":4852,"unntak":4853,"verdt":4854,"bereg":4855,"levert":4856,"fulgt":4857,"arrangert":4858,"ansvaret":4859,"handlinger":4860,"skatte":4861,"jennom":4862,"opplevelser":4863,"kjærligheten":4864,"Gam":4865,"1990":4866,"Gratis":4867,"lom":4868,"Nasjon":4869,"interessert":4870,"obser":4871,"integr":4872,"sildenafil":4873,"spesielle":4874,"Sto":4875,"sjekk":4876,"senteret":4877,"apent":4878,"fød":4879,"plassert":4880,"All":4881,"avgift":4882,"arlig":4883,"Hver":4884,"musk":4885,"trom":4886,"kjøpte":4887,"ley":4888,"circa":4889,"analyse":4890,"syl":4891,"glass":4892,"alvorlig":4893,"Føl":4894,"Kunst":4895,"opprinnelig":4896,"65":4897,"kandid":4898,"fatte":4899,"www":4900,"300":4901,"drept":4902,"hovet":4903,"09":4904,"svensk":4905,"smøte":4906,"redusert":4907,"valu":4908,"Peter":4909,"lun":4910,"Bor":4911,"fremover":4912,"marker":4913,"eker":4914,"konklu":4915,"ctor":4916,"bler":4917,"amerikansk":4918,"kka":4919,"kjøring":4920,"esel":4921,"grun":4922,"flytte":4923,"tida":4924,"innholdet":4925,"Sj":4926,"jeneste":4927,"arar":4928,"kine":4929,"mangler":4930,"Thom":4931,"Rø":4932,"tung":4933,"spesial":4934,"Am":4935,"turner":4936,"bruket":4937,"adalafil":4938,"nyte":4939,"produsert":4940,"ksjonen":4941,"sion":4942,"aka":4943,"ica":4944,"neder":4945,"individu":4946,"bygning":4947,"Paul":4948,"nylig":4949,"begrenset":4950,"grunnen":4951,"godkjen":4952,"Pla":4953,"systemer":4954,"praktisk":4955,"konfer":4956,"TO":4957,"solgt":4958,"lave":4959,"Først":4960,"enor":4961,"linje":4962,"trene":4963,"gjeldende":4964,"ure":4965,"saks":4966,"Fort":4967,"sive":4968,"ze":4969,"format":4970,"unkter":4971,"posten":4972,"vekk":4973,"Øv":4974,"gruppa":4975,"bevar":4976,"slam":4977,"Ben":4978,"avtaler":4979,"økene":4980,"jentene":4981,"angen":4982,"arm":4983,"kilometer":4984,"aring":4985,"ach":4986,"hei":4987,"sendes":4988,"TE":4989,"mote":4990,"etten":4991,"bit":4992,"kobling":4993,"smarked":4994,"yre":4995,"shus":4996,"Mi":4997,"lim":4998,"rim":4999,"vennlig":5000,"smar":5001,"VG":5002,"Sta":5003,"alderen":5004,"anbefaler":5005,"hau":5006,"grenser":5007,"sjøl":5008,"kapasitet":5009,"SS":5010,"Tru":5011,"ape":5012,"Bet":5013,"kvens":5014,"live":5015,"soldat":5016,"bø":5017,"deilig":5018,"igjennom":5019,"Rad":5020,"ønt":5021,"Rog":5022,"glob":5023,"Id":5024,"sub":5025,"økte":5026,"urte":5027,"skjedd":5028,"utgifter":5029,"ick":5030,"oritet":5031,"01":5032,"cke":5033,"kunstner":5034,"Hjem":5035,"minner":5036,"sand":5037,"sender":5038,"sivil":5039,"hek":5040,"Lang":5041,"hode":5042,"Utdan":5043,"tilfel":5044,"LO":5045,"følelse":5046,"dessuten":5047,"jevn":5048,"verdenskrig":5049,"nest":5050,"Tjenester":5051,"kas":5052,"oret":5053,"symp":5054,"supp":5055,"burg":5056,"Storbritannia":5057,"utgangspunktet":5058,"Ski":5059,"fremme":5060,"intro":5061,"with":5062,"modell":5063,"bodde":5064,"forsknings":5065,"Rei":5066,"Hus":5067,"Jer":5068,"flykt":5069,"//":5070,"stemme":5071,"renn":5072,"vidt":5073,"rapporten":5074,"spørre":5075,"aktører":5076,"Google":5077,"gleder":5078,"hyl":5079,"klassen":5080,"fjerne":5081,"Afrik":5082,"barnehage":5083,"Gi":5084,"levere":5085,"cam":5086,"styring":5087,"Karl":5088,"tjenesten":5089,"mandag":5090,"setninger":5091,"Kristians":5092,"apning":5093,"forbruk":5094,"Vare":5095,"lade":5096,"seil":5097,"anmel":5098,"løpe":5099,"homofil":5100,"ødel":5101,"motiv":5102,"blei":5103,"Log":5104,"tekniske":5105,"spart":5106,"foreldrene":5107,"begynt":5108,"ærlig":5109,"Gru":5110,"preget":5111,"Skog":5112,"ph":5113,"frukt":5114,"Fer":5115,"kontroller":5116,"Dei":5117,"ørt":5118,"erende":5119,"staden":5120,"anlegget":5121,"dit":5122,"internasjonalt":5123,"AP":5124,"ws":5125,"omen":5126,"faste":5127,"oly":5128,"sled":5129,"kjed":5130,"Deretter":5131,"inspirasjon":5132,"europeiske":5133,"dokumenter":5134,"skyldes":5135,"sekven":5136,"frihet":5137,"pleier":5138,"føle":5139,"Italia":5140,"okker":5141,"slan":5142,"yen":5143,"verdig":5144,"verd":5145,"alisert":5146,"thai":5147,"47":5148,"Lars":5149,"uen":5150,"istisk":5151,"lover":5152,"istiske":5153,"anledning":5154,"Statens":5155,"forekom":5156,"illu":5157,"general":5158,"entre":5159,"eventuelt":5160,"moti":5161,"adcirca":5162,"diagno":5163,"gate":5164,"York":5165,"not":5166,"dert":5167,"betalt":5168,"urs":5169,"søket":5170,"Riks":5171,"press":5172,"Hav":5173,"sant":5174,"Gro":5175,"ikal":5176,"situasjoner":5177,"Amerik":5178,"benytter":5179,"mamma":5180,"vanza":5181,"ktoratet":5182,"eksisterende":5183,"bot":5184,"maler":5185,"sf":5186,"nei":5187,"giftet":5188,"helhet":5189,"opply":5190,"plutselig":5191,"finansier":5192,"franske":5193,"FN":5194,"derte":5195,"bul":5196,"deren":5197,"dørs":5198,"Fag":5199,"identifiser":5200,"dykt":5201,"tanker":5202,"hverdag":5203,"tadalafil":5204,"relev":5205,"hud":5206,"fantastiske":5207,"utgav":5208,"dyp":5209,"Paris":5210,"informasjonen":5211,"føringen":5212,"Noe":5213,"Knut":5214,"Sm":5215,"fylt":5216,"fengsel":5217,"aktivt":5218,"400":5219,"FOR":5220,"positive":5221,"alko":5222,"wa":5223,"nedenfor":5224,"tilskudd":5225,"tilrettel":5226,"Col":5227,"detaljer":5228,"midten":5229,"initi":5230,"Barne":5231,"Vir":5232,"vardenafil":5233,"stal":5234,"professor":5235,"Universitetet":5236,"levende":5237,"orig":5238,"Bre":5239,"dialog":5240,"elva":5241,"avsl":5242,"wer":5243,"produksjonen":5244,"ano":5245,"behandlet":5246,"rid":5247,"økning":5248,"bokstav":5249,"frav":5250,"OM":5251,"behovet":5252,"scen":5253,"wo":5254,"hørt":5255,"dessverre":5256,"fremtiden":5257,"vell":5258,"Lan":5259,"digitale":5260,"dis":5261,"enheter":5262,"-,":5263,"kristen":5264,"media":5265,"mik":5266,"kg":5267,"1999":5268,"leverandør":5269,"gud":5270,"tir":5271,"utlandet":5272,"etc":5273,"torsdag":5274,"Martin":5275,"frisk":5276,"fored":5277,"Store":5278,"fekk":5279,"programmer":5280,":-)":5281,"flest":5282,"forbered":5283,"munn":5284,"smøtet":5285,"OG":5286,"brukerne":5287,"foner":5288,"Van":5289,"habil":5290,"Guds":5291,"faglige":5292,"nyheter":5293,"klo":5294,"umu":5295,"ational":5296,"holm":5297,"fjerde":5298,"sakalte":5299,"faren":5300,"gy":5301,"samarbeidet":5302,"ansatt":5303,"muler":5304,"real":5305,"sakene":5306,"reser":5307,"holdene":5308,"helgen":5309,"Første":5310,"nettsiden":5311,"tning":5312,"Arne":5313,"sum":5314,"krimin":5315,"44":5316,"08":5317,"dyre":5318,"mangel":5319,"blad":5320,"mottak":5321,"Bolig":5322,"beskytt":5323,"teknisk":5324,"pengene":5325,"strategi":5326,"sikring":5327,"pisk":5328,"leir":5329,"rakt":5330,"base":5331,"vesentlig":5332,"omgang":5333,"Bel":5334,"187":5335,"støy":5336,"grunnlaget":5337,"nettsider":5338,"samsvar":5339,"konge":5340,"omin":5341,"Mol":5342,"Eiendom":5343,"tige":5344,"jap":5345,"ferdigheter":5346,"fransk":5347,"Organisa":5348,"artikler":5349,"tilpasset":5350,"isme":5351,"tradisjonelle":5352,"vivanza":5353,"ium":5354,"utdann":5355,"Ark":5356,"1980":5357,"rekr":5358,"dio":5359,"Data":5360,"kall":5361,"fulgte":5362,"origin":5363,"pren":5364,"resultatene":5365,"boliger":5366,"hop":5367,"Char":5368,"uttet":5369,"Ni":5370,"PR":5371,"mende":5372,"gas":5373,"tenkte":5374,"personell":5375,"Pal":5376,"gjennomføring":5377,"Kvinner":5378,"forklar":5379,"minste":5380,"IV":5381,"kjørt":5382,"automatisk":5383,"Økonom":5384,"ands":5385,"redd":5386,"fylkeskommun":5387,"--":5388,"lie":5389,"99":5390,"passa":5391,"Bat":5392,"foto":5393,"tilfelle":5394,"mentene":5395,"bordet":5396,"FO":5397,"Bod":5398,"ash":5399,"elefoner":5400,"Gra":5401,"konkurransen":5402,"artikkelen":5403,"Stein":5404,"hensikt":5405,"Krist":5406,"viss":5407,"snakket":5408,"gjennomføres":5409,"1000":5410,"faller":5411,"demon":5412,"Fylkes":5413,"oppen":5414,"forbedre":5415,"back":5416,"fortell":5417,"kjørte":5418,"fylkes":5419,"farlig":5420,"can":5421,"foreningen":5422,"baten":5423,"Aret":5424,"utføre":5425,"avsluttet":5426,"internasjonal":5427,"driv":5428,"søster":5429,"Fly":5430,"vakt":5431,"skaffe":5432,".,":5433,"sit":5434,"økende":5435,"dog":5436,"erotiske":5437,"2019":5438,"Sil":5439,"nøyaktig":5440,"tel":5441,"fær":5442,"skogen":5443,"ingsm":5444,"representant":5445,"forsikring":5446,"frist":5447,"inntrykk":5448,"eksempler":5449,"Lag":5450,"summer":5451,"you":5452,"”.":5453,"oen":5454,"øpig":5455,"ografi":5456,"vid":5457,"kastet":5458,"anten":5459,"kompon":5460,"NU":5461,"planlagt":5462,"vurdert":5463,"seende":5464,"dokumentasjon":5465,"støtter":5466,"Design":5467,"rester":5468,"Tel":5469,"argu":5470,"hund":5471,"bergen":5472,"datama":5473,"dommen":5474,"platt":5475,"mail":5476,"skuespiller":5477,"sykdommer":5478,"retter":5479,"1970":5480,"fortsatte":5481,"Ry":5482,"egenskaper":5483,"bøkene":5484,"match":5485,"typen":5486,"pedagog":5487,"Takk":5488,"syns":5489,"milliarder":5490,"avfall":5491,"Afrika":5492,"skam":5493,"Peder":5494,"eldste":5495,"bruks":5496,"ellene":5497,"Litt":5498,"karriere":5499,"htt":5500,"Super":5501,"yrk":5502,"effektiv":5503,"ringen":5504,"manns":5505,"utel":5506,"distrikt":5507,"mig":5508,"foss":5509,"Foren":5510,"forplikt":5511,"Israel":5512,"idet":5513,"oppstar":5514,"sekret":5515,"trekker":5516,"IG":5517,"Regjer":5518,"ld":5519,"trygt":5520,"skrav":5521,"edi":5522,"etil":5523,"helg":5524,"Island":5525,"mistet":5526,"Tot":5527,"Søker":5528,"jener":5529,"ona":5530,"gende":5531,"inkluderer":5532,"ON":5533,"talen":5534,"medlemmene":5535,"dels":5536,"strid":5537,"splass":5538,"opprette":5539,"46":5540,"ts":5541,"Skole":5542,"dekker":5543,"lad":5544,"AB":5545,"blomster":5546,"øvrige":5547,"annerledes":5548,"svek":5549,"ryd":5550,"umiddelbart":5551,"nyttig":5552,"lette":5553,"mottatt":5554,"vakker":5555,"tral":5556,"fortalte":5557,"iel":5558,"186":5559,"Qu":5560,"stall":5561,"eksa":5562,"Sing":5563,"hagen":5564,"bransje":5565,"tildelt":5566,"væ":5567,"møtt":5568,"Frem":5569,"Likevel":5570,"lurt":5571,"Styret":5572,"styrker":5573,"delvis":5574,"mill":5575,"militær":5576,"alternati":5577,"Liv":5578,"siell":5579,"Thomas":5580,"svik":5581,"fartøy":5582,"problemet":5583,"Anlegg":5584,"relasjoner":5585,"ye":5586,"fullstendig":5587,"vokat":5588,"prim":5589,"42":5590,"personen":5591,"resse":5592,"gjest":5593,"trenings":5594,"veiledning":5595,"grensen":5596,"stasjoner":5597,"provin":5598,"ulti":5599,"Bø":5600,"Agder":5601,"Petter":5602,"blan":5603,"Spør":5604,"tilnær":5605,"etterhvert":5606,"onse":5607,"bedriften":5608,"øynene":5609,"historiske":5610,"fukt":5611,"forskjellig":5612,"svare":5613,"normal":5614,"regnes":5615,"svak":5616,"frie":5617,"interesser":5618,"understre":5619,"vennskap":5620,"bjørn":5621,"Mus":5622,"Vol":5623,"trodde":5624,"Christian":5625,"park":5626,"Kat":5627,"hevder":5628,"artikkel":5629,"forret":5630,"Je":5631,"engasje":5632,"SV":5633,"hotellet":5634,"relevant":5635,"hur":5636,"jar":5637,"myndighetene":5638,"modeller":5639,"sein":5640,"ura":5641,"feir":5642,"alkohol":5643,"avisen":5644,"sleder":5645,"tilkny":5646,"samlingen":5647,"forbi":5648,"positivt":5649,"stadi":5650,"beskrevet":5651,"avis":5652,"ls":5653,"regnet":5654,"flate":5655,"Massa":5656,"velsene":5657,"plast":5658,"Don":5659,"hovedsakelig":5660,"kysten":5661,"stasjonen":5662,"maling":5663,"Hadde":5664,"ish":5665,"himmel":5666,"igh":5667,"oppgaven":5668,"lagg":5669,"speil":5670,"egn":5671,"skjerm":5672,"Pe":5673,"Mad":5674,"spesif":5675,"Industri":5676,"reiste":5677,"behandlingen":5678,"sida":5679,"tidige":5680,"naturen":5681,"oren":5682,"nabo":5683,"representerte":5684,"teater":5685,"eventyr":5686,"nøye":5687,"ffer":5688,"ekster":5689,"lykkes":5690,"sikkerhets":5691,"konsul":5692,"Ri":5693,"aper":5694,"osof":5695,"rollen":5696,"drøm":5697,"umulig":5698,"indu":5699,"ita":5700,"Sti":5701,"planlegging":5702,"hr":5703,"siktet":5704,"forelig":5705,"Forskning":5706,"spoli":5707,"49":5708,"distri":5709,"Skj":5710,"Spania":5711,"Tidligere":5712,"ssene":5713,"nødvendige":5714,"fet":5715,"Ned":5716,"selge":5717,"lokalt":5718,"1998":5719,"sov":5720,"leil":5721,"rift":5722,"1800":5723,"talet":5724,"Høyre":5725,"opptil":5726,"publisert":5727,"nakne":5728,"leverer":5729,"Selskapet":5730,"://":5731,"lagene":5732,"vante":5733,"ome":5734,"øyeblikk":5735,"Mark":5736,"forskrift":5737,"Bir":5738,"fanget":5739,"regnskap":5740,"italien":5741,"ledelsen":5742,"gin":5743,"klokken":5744,"splasser":5745,"Forsvar":5746,"sperio":5747,"Malet":5748,"forholdene":5749,"kaller":5750,"salt":5751,"Hal":5752,"brett":5753,"hjemmet":5754,"mengder":5755,"frig":5756,"rop":5757,"valitet":5758,"yrkes":5759,"Transport":5760,"visst":5761,"Finnmark":5762,"150":5763,"sekvenser":5764,"hendelser":5765,"forsøker":5766,"prem":5767,"forskere":5768,"positiv":5769,"weg":5770,"Kontakt":5771,"følelser":5772,"garn":5773,"ktiv":5774,"befolkning":5775,"1997":5776,"kyr":5777,"opplevd":5778,"Akershus":5779,"verne":5780,"historier":5781,"osi":5782,"Vær":5783,"symptom":5784,"lærere":5785,"master":5786,"Wor":5787,"mennene":5788,"ambi":5789,"hverdagen":5790,"kok":5791,"draget":5792,"etablere":5793,"iger":5794,"nærmeste":5795,"forsiktig":5796,"bia":5797,"korte":5798,"Sven":5799,"kritikk":5800,"vning":5801,"ded":5802,"avstand":5803,"leker":5804,"trer":5805,"Tri":5806,"teket":5807,"konflikt":5808,"sasjon":5809,"Henrik":5810,"radgiver":5811,"erstat":5812,"HF":5813,"Olsen":5814,"utøvere":5815,"melse":5816,"ave":5817,"Bon":5818,"grens":5819,"retningslinjer":5820,"kostnader":5821,"skiller":5822,"asi":5823,"fta":5824,"huske":5825,"iki":5826,"frykt":5827,"teksten":5828,"terier":5829,"Anders":5830,"still":5831,"AD":5832,"kilder":5833,"utstilling":5834,"spesiell":5835,"edes":5836,"emat":5837,"melde":5838,"Kjem":5839,"gyl":5840,"avn":5841,"Beg":5842,"Hor":5843,"sentralt":5844,"Bruker":5845,"forny":5846,"bb":5847,"ico":5848,"onsdag":5849,"psykisk":5850,"Nye":5851,"ideer":5852,"ykket":5853,"lete":5854,"ging":5855,"rense":5856,"opphav":5857,"bringe":5858,"uka":5859,"eland":5860,"løpende":5861,"metoder":5862,"apt":5863,"vedkommende":5864,"Jak":5865,"kningen":5866,"ettet":5867,"bygde":5868,"mengde":5869,"06":5870,"Begge":5871,"operasjon":5872,"Arbeids":5873,"Mc":5874,"Hall":5875,"leverandører":5876,"1960":5877,"tide":5878,"baserte":5879,"sover":5880,"kampan":5881,"drevet":5882,"hjør":5883,"05":5884,"kategorier":5885,"MC":5886,"skiftet":5887,"obbelt":5888,"vic":5889,"bein":5890,"nasjonalt":5891,"opprinnelige":5892,"visste":5893,"reglene":5894,"sanger":5895,"bevegelse":5896,"ordfører":5897,"LE":5898,"City":5899,"ksi":5900,"eksk":5901,"jenta":5902,"ligge":5903,"slu":5904,"opper":5905,"Hed":5906,"Utvik":5907,"hat":5908,"forstar":5909,"museum":5910,"episo":5911,"spare":5912,"site":5913,"dvs":5914,"vinteren":5915,"ovenfor":5916,"leke":5917,"sannsynligvis":5918,"NTB":5919,"banken":5920,"nadde":5921,"kontrakt":5922,"rele":5923,"avan":5924,"varm":5925,"landene":5926,"skinn":5927,"bren":5928,"ologien":5929,"Arbeider":5930,"skritt":5931,"tis":5932,"nærmest":5933,"løsningen":5934,"forskjeller":5935,"nadene":5936,"fleire":5937,"budsjettet":5938,"sw":5939,"aringen":5940,"bevil":5941,"fli":5942,"studio":5943,"tirsdag":5944,"produsent":5945,"ssyste":5946,"kostnad":5947,"representerer":5948,"Alex":5949,"utvidet":5950,"pin":5951,"journalist":5952,"kombinasjon":5953,"etterpa":5954,"185":5955,"Jør":5956,"russisk":5957,"motstand":5958,"søkte":5959,"utform":5960,"tilhører":5961,"levering":5962,"David":5963,"kommunale":5964,"divisjon":5965,"Sh":5966,"Mari":5967,"akon":5968,"Ir":5969,"sterkere":5970,"1996":5971,"skapt":5972,"skjel":5973,"hvilket":5974,"virket":5975,"pavirke":5976,"erklær":5977,"tvang":5978,"skifte":5979,"ensen":5980,"stilles":5981,"asin":5982,"forslaget":5983,"total":5984,"sluttet":5985,"tidspunkt":5986,"setningen":5987,"Bed":5988,"teste":5989,"alders":5990,"statistikk":5991,"anna":5992,"grunner":5993,"øpt":5994,"raskere":5995,"minim":5996,"kravene":5997,"jun":5998,"tekster":5999,"uta":6000,"avgi":6001,"repar":6002,"passe":6003,"kaffe":6004,"appen":6005,"danske":6006,"svarer":6007,"sendte":6008,"vilje":6009,"enige":6010,"tlig":6011,"singel":6012,"terreng":6013,"Folke":6014,"angel":6015,"dets":6016,"fødsel":6017,"retur":6018,"komst":6019,"Porno":6020,"beting":6021,"perspek":6022,"krevende":6023,"skjær":6024,"Kjøpe":6025,"Sve":6026,"beskrive":6027,"Ram":6028,"Norway":6029,"Hvorfor":6030,"deltakere":6031,"opprør":6032,"Ren":6033,"Air":6034,"Cor":6035,"hage":6036,"tilpasse":6037,"43":6038,"historisk":6039,"NB":6040,"flaten":6041,"fylle":6042,"skipet":6043,"Em":6044,"omgi":6045,"out":6046,"filosof":6047,"iller":6048,"kled":6049,"emark":6050,"Sig":6051,"hull":6052,"familier":6053,"Sjø":6054,"Amerika":6055,"AM":6056,"studentene":6057,"slipper":6058,"wegian":6059,"budt":6060,"følte":6061,"oppfat":6062,"representanter":6063,"yd":6064,"Studen":6065,"smessig":6066,"usen":6067,"Veg":6068,"øyne":6069,"gangs":6070,"fungere":6071,"gjeld":6072,"gitar":6073,"juster":6074,"Win":6075,"bile":6076,"que":6077,"seliv":6078,"bibliotek":6079,"færre":6080,"oo":6081,"bater":6082,"Thor":6083,"AK":6084,"41":6085,"CD":6086,"Rapp":6087,"skru":6088,"Uansett":6089,"melder":6090,"opplegg":6091,"Telefon":6092,"Hansen":6093,"dringer":6094,"Informasjon":6095,"pakke":6096,"habili":6097,"formann":6098,"avdel":6099,"attrak":6100,"appar":6101,"Vin":6102,"kilde":6103,"virksomheter":6104,"1994":6105,"Jap":6106,"ligheten":6107,"fordelt":6108,"kongen":6109,"ogen":6110,"dimen":6111,"Nei":6112,"sports":6113,"tillatelse":6114,"eventuelle":6115,"utte":6116,"elementer":6117,"evalu":6118,"Maria":6119,"Port":6120,"tittelen":6121,"konsert":6122,"IM":6123,"ward":6124,"ttene":6125,"jor":6126,"yng":6127,"arer":6128,"huden":6129,"rammer":6130,"fysiske":6131,"Lø":6132,"just":6133,"tilgjengelige":6134,"hast":6135,"07":6136,"møtes":6137,"hjertet":6138,"naturlige":6139,"gruppene":6140,"vig":6141,"juri":6142,"alister":6143,"rings":6144,"likhet":6145,"Klikk":6146,"grønne":6147,"tegne":6148,"undersøke":6149,"ala":6150,"beskrivelse":6151,"vernet":6152,"fond":6153,"kvaliteten":6154,"Jenter":6155,"garan":6156,"Ob":6157,"sentra":6158,"stren":6159,"datingsider":6160,"innstilling":6161,"IP":6162,"utgave":6163,"feb":6164,"1900":6165,"øyene":6166,"hjemmel":6167,"sial":6168,"ytre":6169,"innovasjon":6170,"redde":6171,"Gran":6172,"ii":6173,"settelse":6174,"dobbelt":6175,"1995":6176,"spraket":6177,"elles":6178,"reag":6179,"trykket":6180,"Kristiansand":6181,"overnatt":6182,"aksjoner":6183,"buss":6184,"moro":6185,"beskriver":6186,"pyn":6187,"manglende":6188,"mulige":6189,"tvers":6190,"vokser":6191,"institusjoner":6192,"Kommunen":6193,"installa":6194,"fravær":6195,"rekker":6196,"raske":6197,"gaver":6198,"linger":6199,"skapene":6200,"konsekvenser":6201,"meldt":6202,"medarbeidere":6203,"underveis":6204,"rat":6205,"innkjøp":6206,"igheten":6207,"Andreas":6208,"rekl":6209,"fjern":6210,"Miljø":6211,"skriftlig":6212,"drar":6213,"naværende":6214,"nevne":6215,"sity":6216,"utenlandske":6217,"klat":6218,"fisert":6219,"opprettholde":6220,"tilknytning":6221,"innført":6222,"stiden":6223,"distribu":6224,"visse":6225,"spon":6226,"Utdanning":6227,"prøvde":6228,"Bio":6229,"sverige":6230,"kvinnen":6231,"pause":6232,"NAV":6233,"fleksi":6234,"Nyheter":6235,"1992":6236,"bestemmelser":6237,"etiske":6238,"brukeren":6239,"besøkende":6240,"samty":6241,"indik":6242,"pavirker":6243,"kone":6244,"Økonomi":6245,"innspill":6246,"saman":6247,"barnehagen":6248,"vunnet":6249,"Ky":6250,"maksi":6251,"detalj":6252,"fien":6253,"røde":6254,"uft":6255,"You":6256,"Rett":6257,"Program":6258,"cel":6259,"rud":6260,"registrering":6261,"engasjement":6262,"forsøke":6263,"Vide":6264,"Drammen":6265,"deltar":6266,"Husk":6267,"administrasjon":6268,"Hos":6269,"somrader":6270,"feste":6271,"million":6272,"ivaret":6273,"utmerket":6274,"ollar":6275,"lært":6276,"sikten":6277,"EF":6278,"Ac":6279,"Studi":6280,"Produ":6281,"innr":6282,"Mann":6283,"ordnet":6284,"vurderes":6285,"svin":6286,"mørke":6287,"mund":6288,"ffek":6289,"lengde":6290,"faget":6291,"bevegelsen":6292,"utarbeidet":6293,"frivillig":6294,"ato":6295,"presentere":6296,"belen":6297,"inngar":6298,"søkere":6299,"hunder":6300,"kreves":6301,"rang":6302,"strak":6303,"gifte":6304,"slippe":6305,"Troms":6306,"Menn":6307,"yer":6308,"Dessuten":6309,"ited":6310,"forventet":6311,"objek":6312,"skjermen":6313,"opplysningene":6314,"tenn":6315,"vag":6316,"oppført":6317,"85":6318,"kapittel":6319,"klager":6320,"befinner":6321,"parkering":6322,"overvak":6323,"skille":6324,"nomin":6325,"Vart":6326,"Figur":6327,"arsaker":6328,"()":6329,"cook":6330,"engelske":6331,"ria":6332,"pel":6333,"onning":6334,"ryggen":6335,"modu":6336,"ømte":6337,"kreve":6338,"ms":6339,"2020":6340,"blikket":6341,"snakk":6342,"kaste":6343,"rutiner":6344,"regulering":6345,"tilstede":6346,"para":6347,"plassering":6348,"inav":6349,"utvek":6350,"istan":6351,"stoppe":6352,"vansk":6353,"eksklu":6354,"sløs":6355,"ilde":6356,"Son":6357,"arena":6358,"Run":6359,"ballen":6360,"vask":6361,"oftest":6362,"Prosjekt":6363,"amatør":6364,"vondt":6365,"markedsføring":6366,"Din":6367,"nd":6368,"dansk":6369,"motsetning":6370,"kreditt":6371,"Hvil":6372,"tilstand":6373,"halvparten":6374,"Jam":6375,"splikt":6376,"tilfeldig":6377,"spillerne":6378,"tilbudet":6379,"sem":6380,"egner":6381,"tegnet":6382,"belast":6383,"Søn":6384,"ssenter":6385,"dannet":6386,"ics":6387,"støv":6388,"mekan":6389,"deleg":6390,"Midt":6391,"somhet":6392,"urder":6393,"cher":6394,"Leg":6395,"Jac":6396,"ague":6397,"foregar":6398,"inde":6399,"bygninger":6400,"rasjonen":6401,"Bud":6402,"serti":6403,"utro":6404,"deltag":6405,"dags":6406,"Mye":6407,"spiser":6408,"resul":6409,"Kre":6410,"samtale":6411,"gled":6412,"fattet":6413,"punkter":6414,"forskriften":6415,"inspirert":6416,"sikrer":6417,"KS":6418,"klikk":6419,"foreløpig":6420,"AG":6421,"alj":6422,"natten":6423,"ose":6424,"Esc":6425,"idag":6426,"Stil":6427,"PP":6428,"strikk":6429,"fril":6430,"drifts":6431,"Prosjektet":6432,"erot":6433,"66":6434,"nadd":6435,"wi":6436,"sjølv":6437,"behandler":6438,"kundene":6439,"95":6440,"Hele":6441,"delene":6442,"ulov":6443,"fordeler":6444,"standar":6445,"Ener":6446,"fellesskap":6447,"kyst":6448,"ligheter":6449,"herunder":6450,"NTNU":6451,"andinav":6452,"identitet":6453,"AV":6454,"Nam":6455,"Høg":6456,"involvert":6457,"Byen":6458,"olymp":6459,"rekord":6460,"Natur":6461,"amin":6462,"handtere":6463,"asyl":6464,"…]":6465,"relevante":6466,"islam":6467,"motta":6468,"Geor":6469,"praktiske":6470,"ifra":6471,"avdelingen":6472,"Ann":6473,"bronse":6474,"utføres":6475,"skjønner":6476,"kjønns":6477,"galt":6478,"terror":6479,"soft":6480,"brun":6481,"vurderinger":6482,"Johannes":6483,"modellen":6484,"Eid":6485,"Marie":6486,"trø":6487,"Gul":6488,"tant":6489,"minutt":6490,"frivillige":6491,"iktet":6492,"kritisk":6493,"kommunens":6494,"stress":6495,"kontinuer":6496,"reist":6497,"organisert":6498,"string":6499,"Bodø":6500,"kommentarer":6501,"sosialt":6502,"statsminister":6503,"inske":6504,"[…]":6505,"etablerte":6506,"versjonen":6507,"Harald":6508,"semin":6509,"our":6510,"spis":6511,"effektivt":6512,"uth":6513,"1993":6514,"Kjø":6515,"Lok":6516,"plate":6517,"otter":6518,"penis":6519,"02":6520,"aa":6521,"arab":6522,"drø":6523,"pga":6524,"bryter":6525,"UT":6526,"beskyttelse":6527,"tonn":6528,"vurderer":6529,"Gunn":6530,"engang":6531,"øpet":6532,"ney":6533,"Austral":6534,"inntekter":6535,"entrepren":6536,"yllu":6537,"lane":6538,"ommet":6539,"offisielle":6540,"Ola":6541,"Fi":6542,"SP":6543,"bun":6544,"stjerne":6545,"ansene":6546,"teknikk":6547,"varsel":6548,"Bør":6549,"1991":6550,"HO":6551,"størst":6552,"produktet":6553,"67":6554,"lagte":6555,"Medlem":6556,"leste":6557,"været":6558,"religion":6559,"hemmelig":6560,"undervis":6561,"atom":6562,"gjester":6563,"rammet":6564,"stykke":6565,"unike":6566,"koordin":6567,"fitte":6568,"hurtig":6569,"førsel":6570,"vn":6571,"Robert":6572,"prosesser":6573,"Aren":6574,"gare":6575,"likte":6576,"smel":6577,"øvelse":6578,"nettside":6579,"Wal":6580,"AF":6581,"mesterskapet":6582,"diver":6583,"bygningen":6584,"Fiske":6585,"prøvd":6586,"regne":6587,"enig":6588,"punktet":6589,"fattig":6590,"preg":6591,"bedt":6592,"profesjonelle":6593,"Ellers":6594,"maskiner":6595,"ula":6596,"institusjon":6597,"bøy":6598,"skapsler":6599,"Dagens":6600,"avhengige":6601,"verken":6602,"spenning":6603,"Willi":6604,"dømt":6605,"lansert":6606,"ighets":6607,"mg":6608,"cer":6609,"penge":6610,"dollar":6611,"Famil":6612,"treffe":6613,"forretning":6614,"gjennomgang":6615,"NOK":6616,"Mun":6617,"deltakelse":6618,"trukket":6619,"spurte":6620,"basis":6621,"pum":6622,"Østfold":6623,"Inge":6624,"erotikk":6625,"arkiv":6626,"trav":6627,"inen":6628,"kontaktannonser":6629,"husker":6630,"følelsen":6631,"Post":6632,"solid":6633,"Senere":6634,"militære":6635,"kapital":6636,"populær":6637,"komfor":6638,"Mø":6639,"wor":6640,"finansiering":6641,"respon":6642,"kvinnelige":6643,"Klub":6644,"ørte":6645,"utdannet":6646,"Elek":6647,"innflyt":6648,"negative":6649,"levde":6650,"oppover":6651,"funksjonen":6652,"keiser":6653,"Fu":6654,"Øster":6655,"Tan":6656,"League":6657,"Spesielt":6658,"Bes":6659,"Byg":6660,"Pen":6661,"Kunnskap":6662,"optimal":6663,"Star":6664,"virkninger":6665,"Kol":6666,"parken":6667,"hammer":6668,"veggen":6669,"Aug":6670,"anal":6671,"Sar":6672,"leket":6673,"Fro":6674,"haret":6675,"forklarer":6676,"ella":6677,"urens":6678,"berre":6679,"eiere":6680,"skraft":6681,"03":6682,"komple":6683,"industrien":6684,"klag":6685,"Berlin":6686,"pleie":6687,"??":6688,"metall":6689,"ryg":6690,"nus":6691,"besøker":6692,"tverr":6693,"erotisk":6694,"Nasjonal":6695,"Tekn":6696,"Mand":6697,"heldigvis":6698,"materialer":6699,"Svar":6700,"Free":6701,"produsere":6702,"behandle":6703,"Kap":6704,"syv":6705,"stiftet":6706,"Ord":6707,"smerte":6708,"rettferdig":6709,"sjefen":6710,"Coun":6711,"iP":6712,"Helt":6713,"if":6714,"sunn":6715,"emo":6716,"døgn":6717,"døds":6718,"begrepet":6719,"presi":6720,"koselig":6721,"andelen":6722,"irri":6723,"varig":6724,"daglige":6725,"Ger":6726,"Spar":6727,"utfordring":6728,"Tren":6729,"pappa":6730,"foredrag":6731,"tyder":6732,"gal":6733,"klage":6734,"show":6735,"ødelag":6736,"foreligger":6737,"utnytt":6738,"stift":6739,"mikro":6740,"vass":6741,"Stock":6742,"bonus":6743,"India":6744,"anses":6745,"designet":6746,"langsiktig":6747,"pping":6748,"planter":6749,"forklare":6750,"kunnskaps":6751,"kro":6752,"sammenlignet":6753,"intern":6754,"kanten":6755,"dreier":6756,"skøy":6757,"festet":6758,"opplevelsen":6759,"Christ":6760,"festivalen":6761,"Neder":6762,"trakk":6763,"Syn":6764,"mod":6765,"Medisin":6766,"alvorlige":6767,"minimum":6768,"beskytte":6769,"matiske":6770,"anda":6771,"ikerne":6772,"sies":6773,"annonse":6774,"Regjeringen":6775,"utsikt":6776,"byggingen":6777,"sørger":6778,"AC":6779,"rot":6780,"herre":6781,"garanti":6782,"næringsliv":6783,"samtaler":6784,";)":6785,"Sek":6786,"melt":6787,"forstyr":6788,"flertall":6789,"Morten":6790,"don":6791,"musikken":6792,"faktor":6793,"magasin":6794,"kontoret":6795,"prog":6796,"nettbutikk":6797,"Nød":6798,"utforske":6799,"faktorer":6800,"Mac":6801,"skuddet":6802,"Haper":6803,"handtering":6804,"orter":6805,"frastruktur":6806,"Tur":6807,"slav":6808,"presentert":6809,"stemning":6810,"Telemark":6811,"forretnings":6812,"godkjenning":6813,"populært":6814,"plikter":6815,"bestemmer":6816,"angi":6817,"korre":6818,"sund":6819,"ansikt":6820,"Part":6821,"konkrete":6822,"syntes":6823,"grepet":6824,"sove":6825,"kravet":6826,"Nort":6827,"same":6828,"IC":6829,"Pat":6830,"fugl":6831,"arranger":6832,"sun":6833,"visor":6834,"04":6835,"opplær":6836,"brød":6837,"medisinsk":6838,"kjennelse":6839,"sykl":6840,"Fl":6841,"Rik":6842,"Oper":6843,"Lær":6844,"sliter":6845,"respekt":6846,"varierer":6847,"forsy":6848,"Len":6849,"forskjellen":6850,"88":6851,"Dato":6852,"metode":6853,"ora":6854,"Spørsmal":6855,"karet":6856,"Ab":6857,"iland":6858,"byene":6859,"info":6860,"konsekvens":6861,"altfor":6862,"vokst":6863,"Odd":6864,"morsomt":6865,"premi":6866,"Aut":6867,"Politiet":6868,"kjerne":6869,"Trykk":6870,"odi":6871,"senior":6872,"bygda":6873,"produktene":6874,"riktige":6875,"menneskene":6876,"beth":6877,"spurt":6878,"tingene":6879,"antallet":6880,"Arets":6881,"lt":6882,"Øn":6883,"villig":6884,"Japan":6885,"værende":6886,"leveres":6887,"partene":6888,"armer":6889,"lurer":6890,"visjon":6891,"Bur":6892,"klasser":6893,"boks":6894,"lia":6895,"University":6896,"user":6897,"ressurs":6898,"meir":6899,"teknologisk":6900,"kortet":6901,"Jobb":6902,"vokste":6903,"deltakerne":6904,"Carl":6905,"anven":6906,"aksjonen":6907,"øvelser":6908,"koster":6909,"arsa":6910,"nært":6911,"Thai":6912,"vegg":6913,"tit":6914,"leter":6915,"potet":6916,"600":6917,"Pris":6918,"Finland":6919,"turi":6920,"kode":6921,"digital":6922,"Net":6923,"aks":6924,"William":6925,"matt":6926,"ressen":6927,"skr":6928,"utan":6929,"orientering":6930,"selskapene":6931,"Ui":6932,"Ke":6933,"jorden":6934,"arrangement":6935,"Kø":6936,"iere":6937,"komiteen":6938,"betyd":6939,"kvinnene":6940,"nydelig":6941,"romer":6942,"byens":6943,"flytt":6944,"hagelig":6945,"leger":6946,"1950":6947,"idi":6948,"mønster":6949,"alisere":6950,"kop":6951,"vore":6952,"grunnlagt":6953,"blogger":6954,"utbygging":6955,"skadet":6956,"balanse":6957,"famili":6958,"eksamen":6959,"lyn":6960,"tunn":6961,"regionale":6962,"rund":6963,"beregnet":6964,"besøkte":6965,"Folk":6966,"pus":6967,"1989":6968,"Rogaland":6969,"kontinuerlig":6970,"ppel":6971,"fjernet":6972,"gevin":6973,"finansi":6974,"Dom":6975,"rute":6976,"elling":6977,"leketøy":6978,"kalla":6979,"ynam":6980,"car":6981,"konsentra":6982,"brud":6983,"sekunder":6984,"Senter":6985,"oblig":6986,"domin":6987,"aust":6988,"derer":6989,"igang":6990,"tørr":6991,"staker":6992,"bio":6993,"mulighetene":6994,"noko":6995,"henven":6996,"registrere":6997,"eig":6998,"oppgavene":6999,"lista":7000,"ow":7001,"arbeidstak":7002,"ematikk":7003,"døpt":7004,"vestlige":7005,"Sn":7006,"Blu":7007,"kompli":7008,"utelu":7009,"trygge":7010,"api":7011,"smu":7012,"klubber":7013,"pes":7014,"herlig":7015,"innsikt":7016,"%.":7017,"vill":7018,"Ci":7019,"kkelen":7020,"bredelse":7021,"skriv":7022,"akadem":7023,"”,":7024,"800":7025,"rekrutter":7026,"respek":7027,"barns":7028,"symbol":7029,"samler":7030,"Antall":7031,"ventil":7032,"dob":7033,"mengden":7034,"skolene":7035,"koble":7036,"splassen":7037,"bryllu":7038,"somrade":7039,"hetene":7040,"grundig":7041,"nedover":7042,"nettdating":7043,"Fun":7044,"kopi":7045,"omtalt":7046,"oppgrader":7047,"sic":7048,"forsøkte":7049,"plante":7050,"ultet":7051,"sag":7052,"lister":7053,"tapte":7054,"Ing":7055,"Elektron":7056,"Jens":7057,"streng":7058,"sambo":7059,"Il":7060,"opplevde":7061,"bestilling":7062,"Bus":7063,"benhavn":7064,"64":7065,"initiativ":7066,"miner":7067,"Forsikring":7068,"utdannelse":7069,"Kvinne":7070,"rapporter":7071,"ilt":7072,"innga":7073,"Kam":7074,"kurset":7075,"Øvrige":7076,"utenom":7077,"angrepet":7078,"billetter":7079,"samlinger":7080,"Sim":7081,"hytte":7082,"fortalt":7083,"ric":7084,"nivaet":7085,"interessante":7086,"advokat":7087,"Akk":7088,"separ":7089,"skapte":7090,"Generisk":7091,"vaske":7092,"bestemme":7093,"Lov":7094,"rart":7095,"stoppet":7096,"ferien":7097,"malene":7098,"stedene":7099,"Dy":7100,"institutt":7101,"sannsyn":7102,"kunden":7103,"totale":7104,"Dere":7105,"IKT":7106,"veter":7107,"West":7108,"Canada":7109,"Kort":7110,"brø":7111,"rehabili":7112,"stekn":7113,"ikon":7114,"sjansen":7115,"generelle":7116,"gjekk":7117,"glade":7118,"introdu":7119,"prisene":7120,"lesere":7121,"Eksemp":7122,"istr":7123,"Ero":7124,"Aller":7125,"hørte":7126,"human":7127,"pupper":7128,"misten":7129,"arv":7130,"Intern":7131,"kta":7132,"ago":7133,"perioder":7134,"kkene":7135,"darlige":7136,"studiet":7137,"Noreg":7138,"seksuelle":7139,"iverk":7140,"Nak":7141,"støttet":7142,"Aften":7143,"chel":7144,"klassisk":7145,"dans":7146,"sjok":7147,"Klær":7148,"Hit":7149,"forsøkt":7150,"1988":7151,"velkommen":7152,"øyen":7153,"dil":7154,"III":7155,"ekstremt":7156,"sikret":7157,"stengt":7158,"materialet":7159,"konkurr":7160,"vensjon":7161,"handels":7162,"hone":7163,"day":7164,"lande":7165,"pluss":7166,"sete":7167,"mosf":7168,"datamaskin":7169,"informasjonskapsler":7170,"elektronisk":7171,"testet":7172,"ingeniør":7173,"redig":7174,"hoteller":7175,"ighetene":7176,"97":7177,"tilsynet":7178,"krit":7179,"sjanse":7180,"protok":7181,"Black":7182,"salgs":7183,"øve":7184,"diverse":7185,"World":7186,"Tw":7187,"produsenter":7188,"byttet":7189,"Interiør":7190,"moren":7191,"Team":7192,"Park":7193,"cen":7194,"hunden":7195,"camp":7196,"tjenestene":7197,"restaurant":7198,"stjerner":7199,"skift":7200,"somradet":7201,"sevne":7202,"handlet":7203,"Rus":7204,"edel":7205,"begrav":7206,"Brasil":7207,"ismen":7208,"Met":7209,"PA":7210,"Vestfold":7211,"arch":7212,"ssystem":7213,"interiør":7214,"risikoen":7215,"arlige":7216,"delte":7217,"medfører":7218,"ferdsel":7219,"etisk":7220,"Strøm":7221,"hovud":7222,"legare":7223,"Kommune":7224,"Massasje":7225,"rens":7226,"parter":7227,"okku":7228,"soldater":7229,"ingre":7230,"57":7231,"nyhets":7232,"bunnen":7233,"smidler":7234,"alternativer":7235,"Nes":7236,"dekor":7237,"menneskerett":7238,"OK":7239,"ssing":7240,"unde":7241,"brak":7242,"gress":7243,"verdien":7244,"kraftverk":7245,"teori":7246,"bistand":7247,"erob":7248,"Molde":7249,"rur":7250,"føles":7251,"erstatt":7252,"profesjonell":7253,"infek":7254,"observ":7255,"smart":7256,"riket":7257,"apenbart":7258,"krigs":7259,"profiler":7260,"ink":7261,"kull":7262,"Muse":7263,"grat":7264,"gesund":7265,"xxx":7266,"hender":7267,"samarbeidspart":7268,"spekter":7269,"lert":7270,"Cat":7271,"gata":7272,"alp":7273,"bryte":7274,"henge":7275,"Sogn":7276,"stolen":7277,"selskapets":7278,"sving":7279,"søknaden":7280,"temaet":7281,"petanse":7282,"FF":7283,"lavt":7284,"stolt":7285,"masøy":7286,"perfekte":7287,"ron":7288,"ums":7289,"takket":7290,"behandles":7291,"oppstart":7292,"kose":7293,"utforming":7294,"iat":7295,"58":7296,"øyet":7297,"arki":7298,"Legg":7299,"Sov":7300,"infrastruktur":7301,"sønnen":7302,"Skjønn":7303,"52":7304,"cookies":7305,"oppd":7306,"nødvendigvis":7307,"redaktør":7308,"arsaken":7309,"varian":7310,"engasjert":7311,"adresse":7312,"Publi":7313,"Web":7314,"ftig":7315,"henholdsvis":7316,"trær":7317,"inngatt":7318,"programvare":7319,"IR":7320,"Phil":7321,"cker":7322,"56":7323,"yrke":7324,"oli":7325,"sykdommen":7326,"sidig":7327,"sch":7328,"strekker":7329,"idar":7330,"stant":7331,"ødelagt":7332,"stjenester":7333,"forurens":7334,"bøn":7335,"slutte":7336,"cup":7337,"betaler":7338,"noens":7339,"Australia":7340,"Jacob":7341,"scenen":7342,"telefoner":7343,"Mellom":7344,"København":7345,"innsat":7346,"buk":7347,"driften":7348,"sped":7349,"sykehuset":7350,"allmenn":7351,"ake":7352,"krefter":7353,"Anna":7354,"oter":7355,"forhandling":7356,"eleder":7357,"hip":7358,"sites":7359,"spørsel":7360,"oppbevar":7361,"spesialist":7362,"meldingen":7363,"seng":7364,"Trump":7365,"arane":7366,"effekten":7367,"urat":7368,"fase":7369,"Kristian":7370,"prosed":7371,"vedlegg":7372,"anta":7373,"effektive":7374,"Region":7375,"temp":7376,"Asia":7377,"givning":7378,"moen":7379,"Bæ":7380,"ias":7381,"Hvem":7382,"iko":7383,"landsk":7384,"abon":7385,"rulle":7386,"mur":7387,"løfte":7388,"trengte":7389,"serier":7390,"Bay":7391,"DE":7392,"sakalt":7393,"wood":7394,"forventninger":7395,"blanding":7396,"ivareta":7397,"eksperi":7398,"ction":7399,"ømmet":7400,"anne":7401,"styrer":7402,"Start":7403,"katol":7404,"kvart":7405,"andres":7406,"snu":7407,"oppsummer":7408,"provinsen":7409,"Fredrikstad":7410,"typisk":7411,"behør":7412,"katt":7413,"ikten":7414,"debatten":7415,"Gjør":7416,"Stockholm":7417,"rende":7418,"imponer":7419,"lønns":7420,"aksjer":7421,"sekretær":7422,"oppgitt":7423,"oga":7424,"prest":7425,"iken":7426,"entur":7427,"Bakgrunn":7428,"Hjel":7429,"Tak":7430,"runn":7431,"søte":7432,"Hotel":7433,"sjekket":7434,"Kur":7435,"vegen":7436,"overgrep":7437,"atmosf":7438,"paret":7439,"bens":7440,"DS":7441,"reduksjon":7442,"fødte":7443,"anbefale":7444,"facebook":7445,"mord":7446,"varmt":7447,"nærmer":7448,"Sky":7449,"mottar":7450,"United":7451,"gradvis":7452,"bassen":7453,"fersk":7454,"kjo":7455,"museet":7456,"vie":7457,"friluft":7458,"tasjonen":7459,"Tar":7460,"Sist":7461,"muslim":7462,"ituttet":7463,"59":7464,"ordninger":7465,"bilitet":7466,"Ki":7467,"informasjons":7468,"Stand":7469,"asjonene":7470,"Venstre":7471,"vellykket":7472,"ollege":7473,"piske":7474,"tim":7475,"lings":7476,"ukjent":7477,"Forel":7478,"kvalitets":7479,"presset":7480,"skaff":7481,"Syke":7482,"datert":7483,"politikere":7484,"ras":7485,"tester":7486,"utfører":7487,"1945":7488,"skum":7489,"rev":7490,"Fotball":7491,"søt":7492,"allet":7493,"1940":7494,"etning":7495,"Sw":7496,"arbeidsmiljø":7497,"signer":7498,"utgaven":7499,"organisering":7500,"chen":7501,"istene":7502,"opplyser":7503,"NOR":7504,"bebo":7505,"dres":7506,"seksjon":7507,"klokka":7508,"Roma":7509,"etn":7510,"Dig":7511,"installer":7512,"rader":7513,"ulik":7514,"Landbruk":7515,"forbud":7516,"skrem":7517,"Best":7518,"tapt":7519,"skjemaet":7520,"vesenet":7521,"Tro":7522,"Va":7523,"Ring":7524,"fattes":7525,"sidan":7526,"talte":7527,"inder":7528,"smy":7529,"involver":7530,"XX":7531,"alistisk":7532,"vegne":7533,"Drikke":7534,"eloven":7535,"HD":7536,"lyse":7537,"Bal":7538,",.":7539,"beholde":7540,"fasen":7541,"vennlige":7542,"Offentlige":7543,"ally":7544,"slas":7545,"brygg":7546,"KE":7547,"overtok":7548,"62":7549,"skost":7550,"holdninger":7551,"bekreftet":7552,"etikk":7553,"Kjærlighet":7554,"Reiseliv":7555,"arbeidslivet":7556,"Tenk":7557,"Porn":7558,"Tab":7559,"depre":7560,"vanskelige":7561,"fange":7562,"Pol":7563,"gulv":7564,"Skri":7565,"Detalj":7566,"Stre":7567,"imple":7568,"likestilling":7569,"Kla":7570,"forfatteren":7571,"Micro":7572,"null":7573,"velig":7574,"nevnes":7575,"innskudd":7576,"blø":7577,"bygges":7578,"Sann":7579,"føringer":7580,"skred":7581,"forbruker":7582,"pon":7583,"tusenvis":7584,"ckey":7585,"stiltak":7586,"Medier":7587,"ktene":7588,"cks":7589,"jel":7590,"Sø":7591,"stitusjon":7592,"tanken":7593,"viktigere":7594,"dinger":7595,"panel":7596,"forsin":7597,"nære":7598,"anbefales":7599,"parla":7600,"snar":7601,"hevdet":7602,"maskinen":7603,"stran":7604,"front":7605,"gravid":7606,"Tusen":7607,"Just":7608,"Lei":7609,"Historie":7610,"diskusjon":7611,"68":7612,"grov":7613,"bryst":7614,"norway":7615,"Pi":7616,"Angel":7617,"utviklings":7618,"kolon":7619,"veksten":7620,"pasienten":7621,"Norwegian":7622,"revolusjon":7623,"øverste":7624,"spilleren":7625,"fakta":7626,"Sovjet":7627,"fylte":7628,"Lund":7629,"alu":7630,"kjennet":7631,"onym":7632,"tillits":7633,"(«":7634,"utbredt":7635,"dum":7636,"Andersen":7637,"ledning":7638,"kens":7639,"col":7640,"Svein":7641,"misjonen":7642,"medalje":7643,"verste":7644,"entene":7645,"forbe":7646,"selvstendig":7647,"Enkel":7648,"dann":7649,"fordeling":7650,"garder":7651,"inerende":7652,"opptre":7653,"Fritid":7654,"rettes":7655,"Velg":7656,"iserte":7657,"søvn":7658,"Pet":7659,"Veldig":7660,"evt":7661,"Fram":7662,"Fjell":7663,"informer":7664,"deri":7665,"gram":7666,"Nils":7667,"Totalt":7668,"VE":7669,"ørende":7670,"atorer":7671,"tempo":7672,"77":7673,"tivet":7674,"250":7675,"dukker":7676,"Larsen":7677,"tens":7678,"ordinære":7679,"reklame":7680,"atert":7681,"Lou":7682,"scene":7683,"ettermiddag":7684,"hed":7685,"Ukjent":7686,"1984":7687,"Heldig":7688,"hytta":7689,"pad":7690,"sikte":7691,"ugh":7692,"kortere":7693,"unget":7694,"yndighet":7695,"srett":7696,"danse":7697,"drømmer":7698,"materiell":7699,"51":7700,"tag":7701,"1500":7702,"Logistikk":7703,"hallen":7704,"debu":7705,"inene":7706,"korn":7707,"gia":7708,"heve":7709,"representert":7710,"Engros":7711,"volum":7712,"kvartal":7713,"Magnus":7714,"lyset":7715,"hjemmeside":7716,"foretatt":7717,"stopper":7718,"oppfordrer":7719,"kalen":7720,"virkeligheten":7721,"vilkarene":7722,"handlingen":7723,"1985":7724,"dows":7725,"hvorav":7726,"oppdage":7727,"Tøn":7728,"pavirket":7729,"fallet":7730,"milf":7731,"frokost":7732,"mani":7733,"religiøse":7734,"Neste":7735,"statte":7736,"apper":7737,"fasc":7738,"sprosessen":7739,"medie":7740,"tittel":7741,"forholde":7742,"Ofte":7743,"1987":7744,"Akkurat":7745,"straffe":7746,"iserer":7747,"tun":7748,"regner":7749,"noensinne":7750,"brutt":7751,"presenterer":7752,"1986":7753,"vog":7754,"ørene":7755,"kontrol":7756,"sok":7757,"dekning":7758,"120":7759,"aktuelt":7760,"revisjonens":7761,"utendørs":7762,"kommand":7763,"fornu":7764,"cial":7765,"overføring":7766,"utstyrt":7767,"foreslar":7768,"magen":7769,"overraskende":7770,"54":7771,"Dem":7772,"fugler":7773,"Cla":7774,"spørsmalene":7775,"Ev":7776,"gaard":7777,"stur":7778,"onom":7779,"sperson":7780,"meldte":7781,"billett":7782,"politikken":7783,"tenk":7784,"mykje":7785,"rente":7786,"ssystemet":7787,"Ris":7788,"midlertidig":7789,"gutta":7790,"skutt":7791,"samarbeide":7792,"tilknyttet":7793,"astro":7794,"republi":7795,"Grand":7796,"tilhørende":7797,"olu":7798,"grønnsaker":7799,"diser":7800,"fotograf":7801,"trygghet":7802,"miste":7803,"Ric":7804,"69":7805,"øyer":7806,"hydr":7807,"sporet":7808,"finale":7809,"Sle":7810,"sapass":7811,"verdige":7812,"Ron":7813,"nettleser":7814,"krets":7815,"nødt":7816,"undertøy":7817,"direktoratet":7818,"amba":7819,"multi":7820,"generell":7821,"kropps":7822,"løk":7823,"Roy":7824,"Sande":7825,"liksom":7826,"aksj":7827,"mottok":7828,"Roms":7829,"overgang":7830,"Felles":7831,"perspektiv":7832,"xi":7833,"nordiske":7834,"ost":7835,"Vann":7836,"trafikken":7837,"kraftige":7838,"kja":7839,"Kore":7840,"passet":7841,"rykket":7842,"Led":7843,"Resultatet":7844,"ordaland":7845,"trans":7846,"gresk":7847,"uter":7848,"vard":7849,"1920":7850,"Kari":7851,"ruter":7852,"innføring":7853,"bidratt":7854,"rich":7855,"muskel":7856,"inni":7857,"smodel":7858,"vokse":7859,"seth":7860,"Heldigvis":7861,"kjøkkenet":7862,"stisk":7863,"enta":7864,"barhet":7865,"Slike":7866,"asen":7867,"stry":7868,"analyser":7869,"studere":7870,"attra":7871,"unik":7872,"konsentr":7873,"maneden":7874,"Organisasjoner":7875,"overrasket":7876,"hael":7877,"rup":7878,"saktivitet":7879,"Solberg":7880,"plom":7881,"kapit":7882,"aterte":7883,"MA":7884,"utvide":7885,"styrt":7886,"avholdt":7887,"Handverk":7888,"personopplysninger":7889,"eringer":7890,"sopp":7891,"kjøle":7892,"innflytelse":7893,"hvitt":7894,"iga":7895,"knappen":7896,"Institutt":7897,"faktum":7898,"kollega":7899,"utvalgte":7900,"forster":7901,"nøkkel":7902,"statlige":7903,"utfordrende":7904,"nettverket":7905,"yrer":7906,"agram":7907,"TER":7908,"Kjemisk":7909,"celler":7910,"muligens":7911,"stipen":7912,"Krav":7913,"utgift":7914,"ØS":7915,"registrerte":7916,"vanskeligere":7917,"Stør":7918,"overbe":7919,"KrF":7920,"drev":7921,"utnevnt":7922,"tillatt":7923,"demokrati":7924,"flyktninger":7925,"debut":7926,"Ku":7927,"oppfatning":7928,"Elektronikk":7929,"chi":7930,"Apple":7931,"fed":7932,"biske":7933,"foreta":7934,"peker":7935,"Finne":7936,"orten":7937,"Fisk":7938,"Brann":7939,"myk":7940,"utnytte":7941,"begrunn":7942,"femte":7943,"beløpet":7944,"forkant":7945,"mangfold":7946,"Fal":7947,"Arbeidsmarked":7948,"Kro":7949,"Skjønnhet":7950,"»-":7951,"hest":7952,"stoffet":7953,"frø":7954,"mister":7955,"beina":7956,"darligere":7957,"Kle":7958,"splanen":7959,"Jensen":7960,"end":7961,"kino":7962,"lunsj":7963,"fargen":7964,"Underholdning":7965,"sgjer":7966,"ingsmiddel":7967,"Gl":7968,"Bærum":7969,"fusjon":7970,"bortsett":7971,"finger":7972,"Dire":7973,"Hamar":7974,"ungene":7975,"Cham":7976,"samtykke":7977,"reaksjon":7978,"skyte":7979,"iteen":7980,"kler":7981,"Valg":7982,"Nederland":7983,"tunge":7984,"Ør":7985,"tein":7986,"morsom":7987,"now":7988,"baby":7989,"hall":7990,"Riksrevisjonens":7991,"rock":7992,"masøytisk":7993,"53":7994,"vitenskapelige":7995,"Proble":7996,"yrkia":7997,"psykiske":7998,"arkitektur":7999,"edag":8000,"Jørgen":8001,"nda":8002,"innvandrere":8003,"telefonen":8004,"hailand":8005,"kinesisk":8006,"aliteten":8007,"Tore":8008,"stige":8009,"ongen":8010,"gjennomsnittlig":8011,"infor":8012,"UR":8013,"klassiske":8014,"tillate":8015,"Sandnes":8016,"erstattet":8017,"grunnet":8018,"investeringer":8019,"mentar":8020,"stavanger":8021,"øyeblikket":8022,"kvi":8023,"humor":8024,"ordre":8025,"Ønsker":8026,"motivasjon":8027,"Sunn":8028,"dype":8029,"Sjekk":8030,"fabrikk":8031,"Online":8032,"oppdatering":8033,"ografiske":8034,"barnevern":8035,"http":8036,"strasjon":8037,"planlegger":8038,"imellom":8039,"produserer":8040,"Ble":8041,"døren":8042,"ukene":8043,"smeto":8044,"spark":8045,"velg":8046,"forfat":8047,"rørende":8048,"atferd":8049,"unionen":8050,"matematikk":8051,"handball":8052,"Kl":8053,"belig":8054,"ji":8055,"tidlegare":8056,"jevnt":8057,"framover":8058,"sektoren":8059,"kontrollere":8060,"illustr":8061,"motiver":8062,"arrangementer":8063,"ryt":8064,"mannens":8065,"Frank":8066,"from":8067,"ulovlig":8068,"kjemp":8069,"systematisk":8070,"Fire":8071,"Arkiv":8072,"rust":8073,"seksuell":8074,"bryt":8075,"temaer":8076,"represen":8077,"song":8078,"omtale":8079,"eksplo":8080,"Polen":8081,"hastighet":8082,"avhengighet":8083,"pensjons":8084,"fyller":8085,"dukket":8086,"ØR":8087,"lokaler":8088,"Fir":8089,"flo":8090,"bærekraftig":8091,"sip":8092,"prosjektene":8093,"uel":8094,"Idrett":8095,"utseende":8096,"Jack":8097,"jur":8098,"kryss":8099,"forleng":8100,"Skogbruk":8101,"dyktige":8102,"bes":8103,"medlemskap":8104,"forskningen":8105,"Hedmark":8106,"lykk":8107,"reisen":8108,"servere":8109,"forarsa":8110,"hvile":8111,"Engroshandel":8112,"dispen":8113,"elven":8114,"Velvære":8115,"fotografer":8116,"ghan":8117,"strøk":8118,"Rag":8119,"avløp":8120,"BB":8121,"ssyke":8122,"gjenstander":8123,"Foreninger":8124,"1972":8125,"landskap":8126,"Filmen":8127,"aste":8128,"spillene":8129,"spesifikke":8130,"eksper":8131,"utdanningen":8132,"Sveit":8133,"enheten":8134,"diskri":8135,"tungt":8136,"Kjell":8137,"gran":8138,"medisinske":8139,"kampene":8140,"Agentur":8141,"galler":8142,"næringslivet":8143,"Windows":8144,"ces":8145,"forsvaret":8146,"Næringsmiddel":8147,"allikevel":8148,"stammer":8149,"aver":8150,"massage":8151,"vitne":8152,"Leder":8153,"slutning":8154,"kake":8155,"øret":8156,"solgte":8157,"Blir":8158,"foreslatt":8159,"Farmasøytisk":8160,"fritid":8161,"Victor":8162,"betong":8163,"fokusere":8164,"63":8165,"ffen":8166,"britisk":8167,"\"-":8168,"Undersøk":8169,"tøff":8170,"iness":8171,"lovlig":8172,"papeker":8173,"Energi":8174,"symptomer":8175,"Telefoni":8176,"brenn":8177,"støt":8178,"invitert":8179,"MO":8180,"dist":8181,"psy":8182,"nia":8183,"more":8184,"skerud":8185,"utfordringene":8186,"inneholde":8187,"Bioteknologisk":8188,"Ska":8189,"Geir":8190,"Venn":8191,"Vinter":8192,"begrep":8193,"hapentlig":8194,"beslutning":8195,"miljøer":8196,"betrak":8197,"dals":8198,"Play":8199,"biter":8200,"høyden":8201,"Nytt":8202,"lykke":8203,"homofile":8204,"ikeren":8205,"musikal":8206,"roller":8207,"gjørelse":8208,"hjelpem":8209,"latter":8210,"industi":8211,"Nødnummer":8212,"98":8213,"forval":8214,"forsvarlig":8215,"innvil":8216,"motsatt":8217,"automat":8218,"flagg":8219,"Detaljvarer":8220,"zen":8221,"hapet":8222,"zi":8223,"tallene":8224,"skad":8225,"generasjon":8226,"UK":8227,"ec":8228,"Gir":8229,"konver":8230,"pop":8231,"vinning":8232,"James":8233,"pas":8234,"speed":8235,"endringene":8236,"biblioteket":8237,"jazz":8238,"illa":8239,"ase":8240,"forventer":8241,"samtlige":8242,"tilbakemelding":8243,"arbeidsplasser":8244,"stret":8245,"moral":8246,"definert":8247,"erstatning":8248,"hovedstaden":8249,"linjer":8250,"ønsk":8251,"medlems":8252,"fristen":8253,"tilfellet":8254,"pent":8255,"Fylkesmannen":8256,"gjestene":8257,"Dra":8258,"planlegge":8259,"stillende":8260,"beredskap":8261,"stater":8262,"spolitikk":8263,"scoret":8264,"kulturelle":8265,"ktes":8266,"utfør":8267,"liter":8268,"Gen":8269,"forber":8270,"fullført":8271,"gjenopp":8272,"vika":8273,"ungdommer":8274,"slutter":8275,"1930":8276,"mental":8277,"applik":8278,"sangen":8279,"Cup":8280,"biskop":8281,"Rør":8282,"norges":8283,"besluttet":8284,"endres":8285,"Sett":8286,"Mang":8287,"pale":8288,"Johansen":8289,"sad":8290,"jing":8291,"your":8292,"assist":8293,"flink":8294,"NE":8295,"hockey":8296,"flyet":8297,"Lør":8298,"tiar":8299,"Kristin":8300,"parall":8301,"badet":8302,"fylket":8303,"stua":8304,"filer":8305,"illet":8306,"videoen":8307,"utbytte":8308,"kelig":8309,"arkitekt":8310,"Pedersen":8311,"fastsatt":8312,"Rek":8313,"1968":8314,"Søknad":8315,"legi":8316,"Ur":8317,"overført":8318,"register":8319,"ansiktet":8320,"Dessverre":8321,"barnehager":8322,"søknader":8323,"leis":8324,"hvertfall":8325,"boksen":8326,"danner":8327,"pix":8328,"72":8329,"friske":8330,"satse":8331,"israel":8332,"utvikles":8333,"svaret":8334,"tiver":8335,"gun":8336,"hild":8337,"givende":8338,"namn":8339,"skra":8340,"spir":8341,"diskutere":8342,"Michael":8343,"armen":8344,"Aust":8345,"kjempet":8346,"nedgang":8347,"EØS":8348,"tilbakemeldinger":8349,"oppvar":8350,"Sted":8351,"gent":8352,"byggende":8353,"høres":8354,"ringe":8355,"kinesiske":8356,"skerne":8357,"NK":8358,"tau":8359,"ware":8360,"Barna":8361,"autor":8362,"dypt":8363,"omet":8364,"Event":8365,"vedtaket":8366,"Asker":8367,"ments":8368,"af":8369,"velferd":8370,"sprosjekt":8371,"nivaer":8372,"nektet":8373,"Sveits":8374,"moh":8375,"bevare":8376,"reis":8377,"Cam":8378,"senten":8379,"Nok":8380,"satsing":8381,"transpor":8382,"aringer":8383,"termin":8384,"ambassa":8385,"ordene":8386,"!!!":8387,"kyn":8388,"Pl":8389,"rosa":8390,"lagring":8391,"tradisjonell":8392,"Frp":8393,"offer":8394,"Beste":8395,"Jar":8396,"samisk":8397,"heldige":8398,"navig":8399,"Unn":8400,"fenomen":8401,"ypt":8402,"vilt":8403,"koste":8404,"61":8405,"sproble":8406,"bredde":8407,"skilte":8408,"BI":8409,"voll":8410,"ords":8411,"hevet":8412,"trengs":8413,"RO":8414,"falle":8415,"stiler":8416,"brut":8417,"knapt":8418,"eper":8419,"betrakt":8420,"Damer":8421,"poster":8422,"utstyret":8423,"Film":8424,"guide":8425,"entu":8426,"boligen":8427,"nedbør":8428,"trykke":8429,"adgang":8430,"finans":8431,"mesterskap":8432,"fornøyde":8433,"effekter":8434,"artene":8435,"havnet":8436,"rinn":8437,"1979":8438,"underlagt":8439,"Eskorte":8440,"drama":8441,"partnere":8442,"International":8443,"parørende":8444,"eiendommen":8445,"CO2":8446,"zo":8447,"apningen":8448,"sekun":8449,"kategori":8450,"kjennskap":8451,"Rosen":8452,"reaksjoner":8453,"War":8454,"melige":8455,"Nic":8456,"Navn":8457,"gjennomførte":8458,"mert":8459,"lis":8460,"hær":8461,"Terje":8462,"ingredi":8463,"1983":8464,"ykt":8465,"spilles":8466,"78":8467,"1982":8468,"satser":8469,"etablering":8470,"sna":8471,"bursdag":8472,"flytter":8473,"ssende":8474,"kompen":8475,"fremmed":8476,"ideen":8477,"HR":8478,"Grøn":8479,"skrives":8480,"kurran":8481,"elektriske":8482,"jam":8483,"ytelse":8484,"makten":8485,"byggj":8486,"1975":8487,"angst":8488,"smerter":8489,"nysgjer":8490,"blok":8491,"helsetjenesten":8492,"TIL":8493,"elektrisk":8494,"kombinert":8495,"Godt":8496,"semi":8497,"størrelsen":8498,"formidle":8499,"egging":8500,"klikke":8501,"opplæringen":8502,"distriktet":8503,"Ei":8504,"verker":8505,"høyest":8506,"gjengen":8507,"tolv":8508,"deltatt":8509,"anen":8510,"hjernen":8511,"Allerede":8512,"Microsoft":8513,"harde":8514,"kunn":8515,"definitivt":8516,"Video":8517,"gay":8518,"avdelinger":8519,"Anton":8520,"1981":8521,"Mex":8522,"dru":8523,".”":8524,"fing":8525,"arige":8526,"presentasjon":8527,"Full":8528,"denes":8529,"kkende":8530,"tilbehør":8531,"Formalet":8532,"relatert":8533,"BM":8534,"ankom":8535,"spri":8536,"møteplass":8537,"Fordi":8538,"lærte":8539,"motoren":8540,"ule":8541,"sofa":8542,"Gunnar":8543,"Forfatter":8544,"Ze":8545,"Real":8546,"sykler":8547,"Saken":8548,"hell":8549,"ota":8550,"identifisere":8551,"ekon":8552,"sentre":8553,"sone":8554,"1976":8555,"straks":8556,"lagets":8557,"oppdatere":8558,"ssiv":8559,"turist":8560,"bosatt":8561,"Innov":8562,"hul":8563,"Boken":8564,"UD":8565,"Hakon":8566,"Lillehammer":8567,"beman":8568,"offent":8569,"Sikker":8570,"øverst":8571,"Lev":8572,"peke":8573,"universitetet":8574,"biller":8575,"sakte":8576,"skolens":8577,"Cu":8578,"ary":8579,"antene":8580,"etasje":8581,"stortings":8582,"hoppe":8583,"sjafør":8584,"Hordaland":8585,"basen":8586,"1973":8587,"arbeidstaker":8588,"posisjoner":8589,"FC":8590,"Viagra":8591,"drives":8592,"eu":8593,"bir":8594,"nyere":8595,"eventuell":8596,"essen":8597,"betingelser":8598,"box":8599,"ferdige":8600,"tret":8601,"oth":8602,"gulvet":8603,"utstillingen":8604,"TS":8605,"1978":8606,"escorte":8607,"glemme":8608,"ations":8609,"hjerne":8610,"myr":8611,"søkonom":8612,"Sha":8613,"enorme":8614,"Luft":8615,"potensielle":8616,"sterett":8617,"tenaring":8618,"aviser":8619,"kule":8620,"Tyrkia":8621,"UL":8622,"Tønsberg":8623,"Romsdal":8624,"medføre":8625,"liber":8626,"elighet":8627,"samarbeids":8628,"trist":8629,"hendene":8630,"lederen":8631,"anset":8632,"ekspedi":8633,"Haug":8634,"Jakob":8635,"agg":8636,"shopp":8637,"elv":8638,"alem":8639,"funksjonshem":8640,"Date":8641,"ah":8642,"Siste":8643,"Musikk":8644,"Buskerud":8645,"cirka":8646,"dynam":8647,"individuelle":8648,"treffer":8649,"evaluering":8650,"ikre":8651,"oppgjøret":8652,"that":8653,"Wi":8654,"Hell":8655,"landbruk":8656,"Lever":8657,"Stats":8658,"Fikk":8659,"forebygge":8660,"krise":8661,"ales":8662,"Kra":8663,"dokument":8664,"Pak":8665,"kirur":8666,"organisasjonene":8667,"medarbeider":8668,"matikk":8669,"bevege":8670,"kikk":8671,"Velkommen":8672,"junior":8673,"strikke":8674,"regelverk":8675,"tankene":8676,"board":8677,"rengjøring":8678,"pafølgende":8679,"traff":8680,"neppe":8681,"sposi":8682,"fremtid":8683,"regelverket":8684,"formidling":8685,"noksa":8686,"Marit":8687,"understreker":8688,"linjen":8689,"Ali":8690,"smus":8691,"følges":8692,"dømme":8693,"Navnet":8694,"Aftenposten":8695,"oppleves":8696,"element":8697,"kking":8698,"kommunisere":8699,"pool":8700,"inntak":8701,"oppfylle":8702,"kontrollen":8703,"kilo":8704,"synd":8705,"enden":8706,"kunstnere":8707,"Deres":8708,"hom":8709,"alistiske":8710,"Kontroll":8711,"sivt":8712,"700":8713,"fondet":8714,"IA":8715,"Sun":8716,"ila":8717,"manedene":8718,"stykker":8719,"pedia":8720,"hon":8721,"landskapet":8722,"flyplassen":8723,"friidrett":8724,"hapentligvis":8725,"County":8726,"fremste":8727,"kalte":8728,"Blo":8729,"sees":8730,"danmark":8731,"blokker":8732,"arhundre":8733,"revolusjonen":8734,"1974":8735,"Høgskolen":8736,"chester":8737,"regelmessig":8738,"cia":8739,"tjener":8740,"problemene":8741,"ografisk":8742,"underholdning":8743,"Tem":8744,"1700":8745,"George":8746,"delstaten":8747,"ulykker":8748,"frat":8749,"rehabilitering":8750,"plattform":8751,"celle":8752,"sso":8753,"Wo":8754,"runder":8755,"forutsetninger":8756,"kriti":8757,"nedsatt":8758,"sjokola":8759,"forutsetning":8760,"formet":8761,"lytte":8762,"Heg":8763,"Middel":8764,"forlate":8765,"USAs":8766,"klem":8767,"fisering":8768,"hester":8769,"hypp":8770,"ego":8771,"zy":8772,"Prin":8773,"iditet":8774,"elat":8775,"sort":8776,"trond":8777,"anpix":8778,"fremfor":8779,"kore":8780,"forsvinner":8781,"Syria":8782,"songen":8783,"trakt":8784,"veget":8785,"Bestille":8786,"kunnskaper":8787,"Møre":8788,"kkede":8789,"teknologien":8790,"idae":8791,"rødt":8792,"oppfylt":8793,"forsvant":8794,"aldt":8795,"pte":8796,"konsep":8797,"Ales":8798,"Master":8799,"Norden":8800,"sorg":8801,"betales":8802,"sammenligne":8803,"vitenskapelig":8804,"»)":8805,"beveger":8806,"forlot":8807,"otika":8808,"personlighet":8809,"jevnlig":8810,"Pan":8811,"kalling":8812,"samlede":8813,"forstatt":8814,"organer":8815,"forbudt":8816,"politiker":8817,"oppdrags":8818,"passasjer":8819,"erstatte":8820,"sting":8821,"Los":8822,"sdepartementet":8823,"stilbud":8824,"present":8825,"bene":8826,"brøt":8827,"lagre":8828,"Hil":8829,"Arbeidet":8830,"tabel":8831,"endel":8832,"Stra":8833,"eksempelvis":8834,"Egypt":8835,"Rune":8836,"kjedelig":8837,"utredning":8838,"mulere":8839,"Kv":8840,"minoritet":8841,"ders":8842,"1969":8843,"barnets":8844,"isted":8845,"metoden":8846,"partier":8847,"Vurder":8848,"Cre":8849,"behø":8850,"Gri":8851,"DR":8852,"jekt":8853,"stas":8854,"morsomme":8855,"oppdrett":8856,"derne":8857,"forvente":8858,"spanske":8859,"FNs":8860,"seinare":8861,"Af":8862,"havner":8863,"Fylke":8864,"ison":8865,"globale":8866,"plater":8867,"alifor":8868,"nyeste":8869,"una":8870,"fakultet":8871,"Nu":8872,"moden":8873,"Lav":8874,"Bry":8875,"endrer":8876,"syre":8877,"rapportering":8878,"afrik":8879,"fløy":8880,"kosthold":8881,"destin":8882,"anere":8883,"dyb":8884,"Fle":8885,"tasjoner":8886,"Hvert":8887,"sjeld":8888,"isjon":8889,"utenriks":8890,"1964":8891,"forelsket":8892,"Registr":8893,"sve":8894,"kninger":8895,"prinsippet":8896,"BE":8897,"nevner":8898,"**":8899,"samarbeider":8900,"bidro":8901,"sittende":8902,"desse":8903,"anke":8904,"skor":8905,"døg":8906,"sunt":8907,"top":8908,"relasjon":8909,"perman":8910,"bevegelser":8911,"sprosjekter":8912,"varianter":8913,"Sl":8914,"teri":8915,"studerte":8916,"Vet":8917,"disip":8918,"gjelde":8919,"Escort":8920,"brede":8921,"edal":8922,"mektig":8923,"ferds":8924,"ordentlig":8925,"gammelt":8926,"opprinnelse":8927,"Rob":8928,"saledes":8929,"fisker":8930,"forhindre":8931,"beteg":8932,"oppvekst":8933,"rein":8934,"forventes":8935,"katolske":8936,"kjendiser":8937,"Elisa":8938,"lærings":8939,"Tror":8940,"banker":8941,"1977":8942,"Møt":8943,"seter":8944,"1967":8945,"flok":8946,"filter":8947,"Europe":8948,"kollektiv":8949,"Verdens":8950,"apps":8951,"prakti":8952,"haugen":8953,"slø":8954,"trondheim":8955,"mennesket":8956,"variere":8957,"Jern":8958,"reisende":8959,"langrenn":8960,"stk":8961,"Sæ":8962,"rasjons":8963,"Alesund":8964,"diskrimin":8965,"oppsta":8966,"Hens":8967,"apnes":8968,"gjem":8969,"leilighet":8970,"formalet":8971,"Dis":8972,"dor":8973,"syssel":8974,"mnd":8975,"kostnadene":8976,"alternative":8977,"spent":8978,"fangst":8979,"lesbisk":8980,"kontakte":8981,"kaldt":8982,"tradisjoner":8983,"styrets":8984,"latin":8985,"Ukra":8986,"innbyggerne":8987,"Enkelte":8988,"hool":8989,"inviterer":8990,"89":8991,"Chat":8992,"protein":8993,"kjønnsle":8994,"brem":8995,"gjød":8996,"Helge":8997,"verksted":8998,"omsetning":8999,"Korea":9000,"August":9001,"morgenen":9002,"Kart":9003,"Amer":9004,"laveste":9005,"avgjørelse":9006,"Antar":9007,"øvre":9008,"kommunal":9009,"Mak":9010,"oil":9011,"ipp":9012,"helga":9013,"kafe":9014,"Politi":9015,"Emil":9016,"mas":9017,"konstruksjon":9018,"atch":9019,"lering":9020,"Dam":9021,"sly":9022,"klipp":9023,"Hellas":9024,"isiner":9025,"dører":9026,"sms":9027,"mage":9028,"ington":9029,"evner":9030,"sørget":9031,"antag":9032,"gjennomsiktig":9033,"kontakter":9034,"settet":9035,"førings":9036,"anga":9037,"brevet":9038,"arsak":9039,"import":9040,"investering":9041,"korrekt":9042,"Hør":9043,"imponerende":9044,"avgjøre":9045,"Menne":9046,"vaksin":9047,"Motor":9048,"liden":9049,"seieren":9050,"leggingen":9051,"DF":9052,"revet":9053,"aton":9054,"Doku":9055,"konkurranser":9056,"ggen":9057,"Arbeiderpartiet":9058,"Gjer":9059,"menes":9060,"ingers":9061,"innspil":9062,"Analy":9063,"midlene":9064,"urin":9065,"høring":9066,"guttene":9067,"forberedt":9068,"Ivar":9069,"elsk":9070,"Tir":9071,"døy":9072,"veileder":9073,"innsatsen":9074,"enke":9075,"gjaldt":9076,"flinke":9077,"sovjet":9078,"kjøpes":9079,"arbeidstakere":9080,"nat":9081,"palit":9082,"Ara":9083,"farlige":9084,"verv":9085,"danne":9086,"bour":9087,"mobile":9088,"search":9089,"haha":9090,"Kjære":9091,"alminn":9092,"Høye":9093,"cre":9094,"ekspert":9095,"vendt":9096,"bringer":9097,"møbler":9098,"gleden":9099,"stue":9100,"medvirkning":9101,"reper":9102,"overskudd":9103,"uvanlig":9104,"innføre":9105,"melk":9106,"Max":9107,"angri":9108,"kjeller":9109,"Wh":9110,"etre":9111,"studien":9112,"styrket":9113,"variasjon":9114,"itz":9115,"vedrørende":9116,"tain":9117,"bundet":9118,"balan":9119,"tvunget":9120,"ping":9121,"Gren":9122,"konferanse":9123,"Sma":9124,"arrangeres":9125,"ness":9126,"Gamle":9127,"strømmen":9128,"fantes":9129,"alifornia":9130,"Topp":9131,"integrert":9132,"das":9133,"76":9134,"forfattere":9135,"Casino":9136,"foreninger":9137,"Op":9138,"konferansen":9139,"gisk":9140,"kjenning":9141,"plant":9142,"Hard":9143,"arbeides":9144,"Wa":9145,"bakke":9146,"veiene":9147,"tidspunktet":9148,"løser":9149,"tju":9150,"uttak":9151,"japansk":9152,"offisielt":9153,"sperioden":9154,"lengst":9155,"timen":9156,"omfang":9157,"glemt":9158,"primært":9159,"kandidater":9160,"BS":9161,"heile":9162,"Skolen":9163,"laks":9164,"styres":9165,"strategier":9166,"Twitter":9167,"senest":9168,"akutt":9169,"forbruket":9170,"hape":9171,"King":9172,"eler":9173,"arsmøtet":9174,"slit":9175,"FA":9176,"løft":9177,"mentere":9178,"bratt":9179,"win":9180,"istikken":9181,"ministeren":9182,"koblet":9183,"Rundt":9184,"baner":9185,"ønnet":9186,"omgivelser":9187,"renter":9188,"Forslag":9189,"ekn":9190,"likter":9191,"vri":9192,"livsstil":9193,"garantert":9194,"evnen":9195,"eksemplar":9196,"dratt":9197,"regnskaps":9198,"vara":9199,"82":9200,"hvorvidt":9201,"intervjuet":9202,"gde":9203,"uther":9204,"medisiner":9205,"iven":9206,"vegger":9207,"produksjons":9208,"vald":9209,"hensiktsmessig":9210,"høgskole":9211,"1971":9212,"størrelser":9213,"spons":9214,"noveller":9215,"himmelen":9216,"https":9217,"innslag":9218,"tørre":9219,"helsepersonell":9220,"blu":9221,"planene":9222,"fiber":9223,"Haugesund":9224,"trives":9225,"skla":9226,"ansvarlige":9227,"kate":9228,"79":9229,"sdatter":9230,"gaten":9231,"fattige":9232,"virkelige":9233,"fikasjoner":9234,"jorda":9235,"xt":9236,"forklaring":9237,"olympiske":9238,"varte":9239,"SM":9240,"musli":9241,"passende":9242,"firmaet":9243,"solen":9244,"Fem":9245,"pag":9246,"oppskrift":9247,"kalde":9248,"stider":9249,"begrense":9250,"71":9251,"gards":9252,"singler":9253,"fungerte":9254,"skan":9255,"stimuler":9256,"ref":9257,"kø":9258,"Hennes":9259,"bruddet":9260,"Einar":9261,"Lørdag":9262,"eringen":9263,"varslet":9264,"poker":9265,"smartt":9266,"impon":9267,"mad":9268,"Mexico":9269,"rest":9270,"Stø":9271,"operasjoner":9272,"munnen":9273,"Valer":9274,"Pas":9275,"ssitu":9276,"mørk":9277,"tto":9278,"namnet":9279,"italienske":9280,"asje":9281,"Lek":9282,"Rec":9283,"stoler":9284,"hann":9285,"psborg":9286,"slov":9287,"Refer":9288,"bestaende":9289,"toal":9290,"bussen":9291,"Mannen":9292,"naturligvis":9293,"gutten":9294,"oppgir":9295,"forbedring":9296,"ikipedia":9297,"ftes":9298,"Dagen":9299,"arsmøte":9300,"tilsvarer":9301,"roll":9302,"ats":9303,"stadion":9304,"administrasjonen":9305,"1948":9306,"katastro":9307,"fester":9308,"Merk":9309,"besøkt":9310,"forholdsvis":9311,"reduserer":9312,"døgnet":9313,"forøvrig":9314,"86":9315,"harmon":9316,"vev":9317,"faring":9318,"rov":9319,"komplett":9320,"kanal":9321,"ual":9322,"igen":9323,"sikter":9324,"dek":9325,"Nilsen":9326,"sammenhenger":9327,"beliggen":9328,"delsene":9329,"sau":9330,"tari":9331,"hob":9332,"handverk":9333,"tilbys":9334,"Samme":9335,"Osc":9336,"ettertid":9337,"vedtok":9338,"iligheten":9339,"FR":9340,"stralende":9341,"ely":9342,"skur":9343,"regnskapet":9344,"Kim":9345,"evig":9346,"helseforetak":9347,"helm":9348,"premier":9349,"betydningen":9350,"Vok":9351,"onde":9352,"mari":9353,"fisket":9354,"skontor":9355,"tilnærming":9356,"greske":9357,"1965":9358,"sjakk":9359,"innbyggj":9360,"karbon":9361,"teoret":9362,"planet":9363,"prat":9364,"Lands":9365,"FK":9366,"valuta":9367,"cus":9368,"Tall":9369,"1600":9370,"Moss":9371,"takke":9372,"role":9373,"sekund":9374,"kunnskapen":9375,"trett":9376,"prom":9377,"konkurrer":9378,"74":9379,"Tiden":9380,"spansk":9381,"automater":9382,"oppdraget":9383,"flater":9384,"stemmig":9385,"behagelig":9386,"forsvars":9387,"meister":9388,"referanse":9389,"forsamling":9390,"forplik":9391,"anskaff":9392,"bakgrunnen":9393,"Sur":9394,"cor":9395,"interesserte":9396,"dyktig":9397,"foten":9398,"Innhold":9399,"skudds":9400,"æl":9401,"North":9402,"intet":9403,"sprøy":9404,"interne":9405,"personene":9406,"helhetlig":9407,"utveksling":9408,"hæren":9409,"skep":9410,"mannlige":9411,"ross":9412,"reduseres":9413,"svanger":9414,"svinger":9415,"aff":9416,"velges":9417,"kvad":9418,"Daniel":9419,"fremtidige":9420,"overnatting":9421,"Kal":9422,"servert":9423,"oftere":9424,"149":9425,"restauranter":9426,"tillater":9427,"elag":9428,"samhandling":9429,"regiss":9430,"Bol":9431,"bedriftene":9432,"nordlige":9433,"blin":9434,"73":9435,"orgrad":9436,"symbo":9437,"tube":9438,"cha":9439,"oppvarming":9440,"Eldre":9441,"TR":9442,"hang":9443,"skala":9444,"Lind":9445,"ilige":9446,"konserter":9447,"dobbel":9448,"svømme":9449,"Atlan":9450,"Hvilke":9451,"Not":9452,"Art":9453,"storm":9454,"grønt":9455,"elatende":9456,"spiste":9457,"avtalt":9458,"vanligste":9459,"kreative":9460,"standarder":9461,"havne":9462,"inngang":9463,"menyen":9464,"forebyggende":9465,"Hammer":9466,"HMS":9467,"kommunestyret":9468,"utgangen":9469,"selges":9470,"sistnevnte":9471,"Utbredelse":9472,"cle":9473,"egler":9474,"ødvendig":9475,"søkes":9476,"keeper":9477,"One":9478,"arrester":9479,"ava":9480,"landslaget":9481,"Sandefjord":9482,"sinstitu":9483,"sjanger":9484,"Lam":9485,"bekrefter":9486,"Big":9487,"tilpas":9488,"-/":9489,"gyldig":9490,"anty":9491,"sult":9492,"list":9493,"diff":9494,"slappe":9495,"passasj":9496,"Særlig":9497,"debuterte":9498,"innendørs":9499,"rabatt":9500,"salget":9501,"berømte":9502,"opplysning":9503,"Album":9504,"demonstr":9505,"trekkes":9506,"psykolog":9507,"skjønnhet":9508,"die":9509,"Ettersom":9510,"alisme":9511,"kin":9512,"registeret":9513,"utleie":9514,"fysi":9515,"tradisjonelt":9516,"Arendal":9517,"arke":9518,"handen":9519,"apital":9520,"svøm":9521,"spania":9522,"Boka":9523,"kandidat":9524,"varsler":9525,"ønte":9526,"mannskapet":9527,"vul":9528,"husk":9529,"synlige":9530,"arrangementet":9531,"vakkert":9532,"mom":9533,"rydde":9534,"Jord":9535,"artister":9536,"Hem":9537,"eth":9538,"KL":9539,"Ekte":9540,"forvaltnings":9541,"sivile":9542,"pasientene":9543,"kjøpet":9544,"farget":9545,"diplom":9546,"Cialis":9547,"Blog":9548,"sensi":9549,"Are":9550,"ado":9551,"BU":9552,"erfarne":9553,"Følg":9554,"Gjen":9555,"tilfredsstillende":9556,"medan":9557,"bilene":9558,"mannskap":9559,"kors":9560,"sørlige":9561,"skips":9562,"aliserte":9563,"Lyn":9564,"betydelige":9565,"undersøkt":9566,"skvalitet":9567,"personal":9568,"gla":9569,"Lil":9570,"96":9571,"NL":9572,"obbing":9573,"funda":9574,"forpliktelser":9575,"stolte":9576,"stafett":9577,"vers":9578,"versjoner":9579,"klaget":9580,"diam":9581,"yte":9582,"Hur":9583,"scener":9584,"motorer":9585,"Sof":9586,"vurderingen":9587,"1966":9588,"scor":9589,"spissen":9590,"Omradet":9591,"ellig":9592,"this":9593,"ukjente":9594,"eds":9595,"terende":9596,"sammenlik":9597,"kategorien":9598,"new":9599,"administrative":9600,"pig":9601,"stab":9602,"samarbeidspartnere":9603,"svake":9604,"venninne":9605,"ulem":9606,"sykepleier":9607,"bard":9608,"jordbær":9609,"National":9610,"døden":9611,"mørket":9612,"field":9613,"belastning":9614,"knulle":9615,"Sovjetunionen":9616,"sikkerheten":9617,"sjokolade":9618,"Os":9619,"lesing":9620,"fortjener":9621,"artist":9622,"ativitet":9623,"Møteplassen":9624,"CC":9625,"tilgjengelighet":9626,"Dal":9627,"rase":9628,"kaster":9629,"Ten":9630,"Jonas":9631,"Bek":9632,"atten":9633,"its":9634,"Mitt":9635,"zon":9636,"PL":9637,"gs":9638,"turneringen":9639,"Iran":9640,"retninger":9641,"dimensjon":9642,"hyggelige":9643,"tennene":9644,"California":9645,"kende":9646,"oppnadd":9647,"prosjektleder":9648,"iPhone":9649,"Tok":9650,"Lof":9651,"But":9652,"stensen":9653,"hindrer":9654,"Lud":9655,"Camp":9656,"kven":9657,"mangfol":9658,"Statoil":9659,"sære":9660,"kommunikasjons":9661,"foretrekker":9662,"atører":9663,"oppdager":9664,"potensi":9665,"postad":9666,"fekt":9667,"onering":9668,"elenor":9669,"Rock":9670,"Følgende":9671,"hellige":9672,"brid":9673,"aktiviteten":9674,"regning":9675,"datteren":9676,"raden":9677,"smør":9678,"shopping":9679,"omfattet":9680,".:":9681,"anbefalt":9682,"signal":9683,"elektroniske":9684,"sprogrammet":9685,"meninger":9686,"Stol":9687,"slitt":9688,"antikk":9689,"prinsipper":9690,"grensene":9691,"punktene":9692,"tendens":9693,"kulturen":9694,"italiensk":9695,"antar":9696,"zza":9697,"Lat":9698,"Fred":9699,"Lau":9700,"dic":9701,"brakte":9702,"margin":9703,"gitte":9704,"skapen":9705,"menneskelige":9706,"tilsier":9707,"bekreft":9708,"ux":9709,"Sten":9710,"!)":9711,"have":9712,"sending":9713,"sola":9714,"transa":9715,"ikop":9716,"stuen":9717,"\").":9718,"dokumentert":9719,"gjenstar":9720,"gjennomfører":9721,"kartlegging":9722,"Larvik":9723,"garde":9724,"filosofi":9725,"sjanser":9726,"dekkes":9727,"bestemmelsene":9728,"etterkant":9729,"ruten":9730,"intellig":9731,"stykket":9732,"dispensasjon":9733,"orientert":9734,"vogn":9735,"Elisabeth":9736,"1963":9737,"dug":9738,"paske":9739,"oppfyller":9740,"generasjoner":9741,"effektivitet":9742,"fronten":9743,"mv":9744,"ical":9745,"eiendoms":9746,"samboer":9747,"uch":9748,"Nik":9749,"Eir":9750,"pot":9751,"stjenesten":9752,"ange":9753,"designer":9754,"ødelegge":9755,"LES":9756,"giske":9757,"Prøv":9758,"edyr":9759,"avhenger":9760,"stendige":9761,"Sval":9762,"spist":9763,"filmene":9764,"halvar":9765,"variert":9766,"arig":9767,"vane":9768,"Kirke":9769,"sonen":9770,"fremmet":9771,"elske":9772,"ston":9773,"Live":9774,"hjalp":9775,"chelor":9776,"Dri":9777,"UM":9778,"sykehjem":9779,"Juli":9780,"cum":9781,"midlertid":9782,"Gjø":9783,"Kil":9784,"hellig":9785,"Gull":9786,"voksende":9787,"Kraft":9788,"smin":9789,"lf":9790,"VI":9791,"drap":9792,"behandlings":9793,");":9794,"Line":9795,"Rød":9796,"organis":9797,"støtten":9798,"klubbens":9799,"negativ":9800,"tømmer":9801,"atorisk":9802,"immun":9803,"Tema":9804,"iti":9805,"Green":9806,"ksjonene":9807,"forhandlinger":9808,"Standard":9809,"temperaturen":9810,"bestand":9811,"Skulle":9812,"luften":9813,"well":9814,"uttalelse":9815,"samles":9816,"sanne":9817,"tabelt":9818,"batteri":9819,"hende":9820,"appe":9821,"onger":9822,"Irland":9823,"Brun":9824,"bakk":9825,"hd":9826,"damp":9827,"lykkelig":9828,"ekteskapet":9829,"kanaler":9830,"Irak":9831,"tilsynelatende":9832,"eksterne":9833,"antatt":9834,"toget":9835,"halvt":9836,"stjeneste":9837,"kva":9838,"personvern":9839,"send":9840,"Gode":9841,"integ":9842,"spinn":9843,"anerkjente":9844,"Gol":9845,"Fredag":9846,"Kristus":9847,"kyl":9848,"Tour":9849,"ukra":9850,"ance":9851,"83":9852,"terri":9853,"handelen":9854,"Down":9855,"partiene":9856,"bibel":9857,"uller":9858,"Jose":9859,"rektor":9860,"nordvest":9861,"spy":9862,"argumenter":9863,"kjøttet":9864,"dokt":9865,"motstander":9866,"kameraet":9867,"fokuserer":9868,"original":9869,"Beskri":9870,"aktørene":9871,"Aur":9872,"Pasi":9873,"slekten":9874,"Vo":9875,"utløp":9876,"Hensikten":9877,"bbe":9878,"spraklige":9879,"kaker":9880,"farten":9881,"kriterier":9882,"ulykke":9883,"tøffe":9884,"92":9885,"loj":9886,"link":9887,"lagde":9888,"tiltakene":9889,"lagret":9890,"aksje":9891,"skjære":9892,"bevart":9893,"seren":9894,"emner":9895,"høytt":9896,"strenge":9897,"1956":9898,"Liver":9899,"ME":9900,"ordinær":9901,"pakker":9902,"viet":9903,"Tabell":9904,"Telenor":9905,"Alexander":9906,"Røde":9907,"utformet":9908,"Kval":9909,"skriving":9910,"load":9911,"84":9912,"orke":9913,"Nø":9914,"passord":9915,"Prem":9916,"Besøk":9917,"Utseende":9918,"Alta":9919,"Halvor":9920,"kjemper":9921,"servic":9922,"lukket":9923,"borgere":9924,"Harry":9925,"Finans":9926,"tone":9927,"ther":9928,"truet":9929,"AND":9930,"instrumenter":9931,"døra":9932,"avanserte":9933,"Richard":9934,"Bjer":9935,"asiatiske":9936,"Sentral":9937,"vinduet":9938,"steng":9939,"ordnede":9940,"jødiske":9941,"Dahl":9942,"dagers":9943,"ius":9944,"smiddel":9945,"kryp":9946,"Sum":9947,"Ett":9948,"negativt":9949,"vennene":9950,"core":9951,"pset":9952,"installert":9953,"skytter":9954,"betenn":9955,"Tilbake":9956,"gym":9957,"kartet":9958,"mestring":9959,"introduksjon":9960,"formuler":9961,"ulerer":9962,"tradte":9963,"relaterte":9964,"fyll":9965,"epost":9966,"avgjort":9967,"tent":9968,"unntatt":9969,"look":9970,"yp":9971,"labor":9972,"900":9973,"teren":9974,"los":9975,"tabell":9976,"kos":9977,"Mosk":9978,"Bilder":9979,"drøy":9980,"riere":9981,"fisken":9982,"Imidlertid":9983,"invest":9984,"deltaker":9985,"kritiske":9986,"overflaten":9987,"oppmun":9988,"konflikter":9989,"journalister":9990,"middagen":9991,"konsept":9992,"feller":9993,"sas":9994,"vedt":9995,"ikkel":9996,"forutsig":9997,"teknikker":9998,"svoll":9999,"\":":10000,"graviditet":10001,"dringen":10002,"ssik":10003,"skontroll":10004,"skot":10005,"lovet":10006,"Syste":10007,"apeut":10008,"aften":10009,"undervisningen":10010,"motsatte":10011,"plukket":10012,"eide":10013,"enny":10014,"ranger":10015,"økonomien":10016,"iler":10017,"graden":10018,"svi":10019,"montert":10020,"romerske":10021,"hunde":10022,"overalt":10023,"premie":10024,"billige":10025,"nabol":10026,"quiz":10027,"nokre":10028,"nark":10029,"bodd":10030,"ctic":10031,"middels":10032,"Sau":10033,"fantasi":10034,"tilleggs":10035,"Skar":10036,"innvandring":10037,"ml":10038,"forvaltningen":10039,"distan":10040,"kald":10041,"protokoll":10042,"unødvendig":10043,"bely":10044,"datoen":10045,"skir":10046,"depresjon":10047,"halvdel":10048,"Oscar":10049,"mir":10050,"foster":10051,"eksisterer":10052,"dokumentar":10053,"snes":10054,"sørvest":10055,"Strand":10056,"hendelsen":10057,"tidene":10058,"legemidler":10059,"kanalen":10060,"Østerrike":10061,"Manchester":10062,"pøl":10063,"profilen":10064,"mobilen":10065,"modern":10066,"berget":10067,"lement":10068,"Idretts":10069,"stilsynet":10070,"skel":10071,"pakket":10072,"bekken":10073,"Gruppen":10074,"yngste":10075,"ates":10076,"sammensla":10077,"muslimske":10078,"sprodu":10079,"dildo":10080,"rednings":10081,"lidelser":10082,"arbeidsliv":10083,"regelen":10084,"spunkter":10085,"eleven":10086,"jøder":10087,"cru":10088,"Endelig":10089,"særskilt":10090,"Tube":10091,"gjennomgatt":10092,"vision":10093,"hovedstad":10094,"forvir":10095,"pavirkning":10096,"utal":10097,"VA":10098,"fanger":10099,"prestasjon":10100,"110":10101,"næringen":10102,"entreprenør":10103,"lyden":10104,"tapet":10105,"æringen":10106,"NING":10107,"teamet":10108,"dyrene":10109,"forutsetter":10110,"avslutning":10111,"blandet":10112,"endt":10113,"OD":10114,"regjeringens":10115,"menneskelig":10116,"kvarter":10117,"flytting":10118,"japanske":10119,"1962":10120,"sliten":10121,"nysgjerrig":10122,"opposi":10123,"bivirkninger":10124,"Bei":10125,"fylkeskommune":10126,"fullføre":10127,"anny":10128,"Innovasjon":10129,"oline":10130,"Try":10131,"arrangerer":10132,"cing":10133,"spelte":10134,"tenner":10135,"beskyttet":10136,"Hov":10137,"low":10138,"play":10139,"flom":10140,"levet":10141,"leiligheten":10142,"stev":10143,"heilt":10144,"holt":10145,"rekruttering":10146,"øster":10147,"Oppland":10148,"løses":10149,"slette":10150,"offen":10151,"nas":10152,"internt":10153,"fjellene":10154,"making":10155,"Liverpool":10156,"enighet":10157,"marka":10158,"nytta":10159,"assen":10160,"System":10161,"uttalte":10162,"skjeb":10163,"utarbeide":10164,"statens":10165,"slene":10166,"palestin":10167,"enstemmig":10168,"dusj":10169,"informere":10170,"fasil":10171,"94":10172,"instituttet":10173,"eksport":10174,"usikkerhet":10175,"Vig":10176,"ista":10177,"Bibelen":10178,"gig":10179,"flam":10180,"kult":10181,"Smith":10182,"innrømme":10183,"turne":10184,"BL":10185,"forhapentligvis":10186,"skuffet":10187,"leverte":10188,"Sara":10189,"Regn":10190,"ytr":10191,"digheten":10192,"oma":10193,"bønn":10194,"angitt":10195,"bevissthet":10196,"innvandrer":10197,"styrkene":10198,"oppholdet":10199,"tilrettelegging":10200,"laga":10201,"skilsm":10202,"fremstar":10203,"kjend":10204,"gifter":10205,"utdannings":10206,"NATO":10207,"teriene":10208,"utelukkende":10209,"avslapp":10210,"styrings":10211,"austral":10212,"Skott":10213,"Sund":10214,"utvidelse":10215,"BR":10216,"grensa":10217,"SSB":10218,"frigjør":10219,"fargene":10220,"Simon":10221,"golf":10222,"Thailand":10223,"drivstoff":10224,"hittil":10225,"Sarpsborg":10226,"87":10227,"Sukker":10228,"Kors":10229,"iteter":10230,"behøver":10231,"regulert":10232,"vinduer":10233,"plager":10234,"rakk":10235,"investor":10236,"drende":10237,"skjønne":10238,"stemningen":10239,"røtter":10240,"ssyn":10241,"sselskap":10242,"speriode":10243,"ience":10244,"skaffet":10245,"vansker":10246,"styrken":10247,"anerkjent":10248,"And":10249,"hog":10250,"span":10251,"krem":10252,"Utvalg":10253,"Afghan":10254,"Bang":10255,"kona":10256,"pressen":10257,"Forsvaret":10258,"Pap":10259,"forlag":10260,"May":10261,"lages":10262,"Instagram":10263,"Ansvar":10264,"girls":10265,"smitt":10266,"bryr":10267,"sjetter":10268,"kriminalitet":10269,"sengen":10270,"oversatt":10271,"arten":10272,"arrestert":10273,"stiger":10274,"nyttige":10275,"billigere":10276,"styrte":10277,"Hagen":10278,"strene":10279,"disp":10280,"kraften":10281,"europeisk":10282,"flø":10283,"komfort":10284,"iss":10285,"uri":10286,"MEN":10287,"Næring":10288,"gjentatte":10289,"villige":10290,"vekten":10291,"cas":10292,"nominert":10293,"omhandler":10294,"falske":10295,"Jul":10296,"grave":10297,"forbindelser":10298,"pir":10299,"skene":10300,"oppkobling":10301,"bekymret":10302,"trover":10303,"helikop":10304,"elsket":10305,"forberede":10306,"sikk":10307,"beliggenhet":10308,"sluppet":10309,"bund":10310,"horn":10311,"æring":10312,"godkjente":10313,"Fak":10314,"plassere":10315,"cover":10316,"Group":10317,"fremgar":10318,"1946":10319,"forandret":10320,"utlen":10321,"rening":10322,"kjole":10323,"sjette":10324,"Saks":10325,"Nat":10326,"kjærester":10327,"problemstillinger":10328,"81":10329,"Spare":10330,"gule":10331,"kvalifisert":10332,"hundrevis":10333,"lon":10334,"ligner":10335,"pkt":10336,"dian":10337,"toler":10338,"reflekter":10339,"stilen":10340,"antas":10341,"lovens":10342,"sporten":10343,"oppskrifter":10344,"ordinært":10345,"leier":10346,"frigj":10347,"Que":10348,"KO":10349,"mobbing":10350,"univers":10351,"ix":10352,"forskrifter":10353,"blader":10354,"cell":10355,"stabilitet":10356,"innsjø":10357,"arealer":10358,"atret":10359,"tidens":10360,"senga":10361,"henter":10362,"Dek":10363,"Lik":10364,"nedre":10365,"Øvre":10366,"øvelsen":10367,"dokumentere":10368,"syd":10369,"Altern":10370,"Song":10371,"geland":10372,"verdiene":10373,"palagt":10374,"spredt":10375,"Model":10376,"tariff":10377,"eid":10378,"It":10379,"forsvare":10380,"formelt":10381,"ont":10382,"rar":10383,"isol":10384,"gjeste":10385,"statlig":10386,"renner":10387,"Adam":10388,"jubile":10389,"ican":10390,"treningen":10391,"posisjonen":10392,"anbefalinger":10393,"93":10394,"Ting":10395,"flyr":10396,"Spill":10397,"Kin":10398,"Utvikling":10399,"1958":10400,"Mandag":10401,"permanent":10402,"Dok":10403,"tidlige":10404,"forskerne":10405,"værelse":10406,"flytende":10407,"selvmord":10408,"anvende":10409,"Champi":10410,"gjenger":10411,"beslutninger":10412,"avslutter":10413,"samleie":10414,"TA":10415,"sterkeste":10416,"iret":10417,"love":10418,"trykker":10419,"passasjerer":10420,"Club":10421,"tjen":10422,"forsamlingen":10423,"bestilt":10424,"pakken":10425,"usa":10426,"fullmakt":10427,"ligaen":10428,"make":10429,"finst":10430,"Spr":10431,"lure":10432,"FL":10433,"østlige":10434,"nettbrett":10435,"butikkene":10436,"forekommer":10437,"prøv":10438,"slak":10439,"terings":10440,"klass":10441,"levd":10442,"hilsen":10443,"tegninger":10444,"festen":10445,"hust":10446,"skuff":10447,"Hold":10448,"tillat":10449,"oppdateringer":10450,"deilige":10451,"1952":10452,"Sv":10453,"sprang":10454,"salen":10455,"etak":10456,"medaljer":10457,"kompetansen":10458,"endelige":10459,"møl":10460,"Tiltak":10461,"drømme":10462,"seriøst":10463,"1917":10464,"irektoratet":10465,"originale":10466,"oppløsning":10467,"ordenen":10468,"avgifter":10469,"dok":10470,"jernbane":10471,"snud":10472,"riktignok":10473,"fabrikken":10474,"konstant":10475,"Rio":10476,"seriøse":10477,"kirker":10478,"jevne":10479,"formu":10480,"avsnitt":10481,"møttes":10482,"kniv":10483,"budene":10484,"Espen":10485,"Freder":10486,"Virk":10487,"Flor":10488,"skjøt":10489,"varene":10490,"tabellen":10491,"lukt":10492,"avnet":10493,"flyplass":10494,"Im":10495,"kasino":10496,"bonde":10497,"søm":10498,"krysset":10499,"atoren":10500,"pilot":10501,"egger":10502,"skjulte":10503,"akseptere":10504,"sløp":10505,"søsken":10506,"1944":10507,"strategisk":10508,"arbeidsplass":10509,"gjennomsnittet":10510,"hjemmelaget":10511,"Sep":10512,"ogner":10513,"Yo":10514,"SMS":10515,"nordover":10516,"oget":10517,"forresten":10518,"sias":10519,"sjekker":10520,"Ah":10521,"sammenhengen":10522,"turister":10523,"spredning":10524,"allierte":10525,"1961":10526,"Student":10527,"Søndag":10528,"verktøyet":10529,"forhands":10530,"utstillinger":10531,"EP":10532,"fores":10533,"hite":10534,"timers":10535,"fic":10536,"utmerk":10537,"strekning":10538,"grei":10539,"bryllup":10540,"Ukraina":10541,"Kvalitet":10542,"bredden":10543,"alg":10544,"Skjer":10545,"allere":10546,"eriet":10547,"SL":10548,"hekte":10549,"ateri":10550,"dahl":10551,"ungen":10552,"strasjoner":10553,"resep":10554,"HA":10555,"utgiftene":10556,"Svært":10557,"innsamling":10558,"bevilg":10559,"91":10560,"mentering":10561,"distribusjon":10562,"kredi":10563,"ots":10564,"Mur":10565,"løftet":10566,"tele":10567,"sagn":10568,"Museum":10569,"overflate":10570,"landsbyen":10571,"ssikker":10572,"stendighet":10573,"merkelig":10574,"avisa":10575,"arts":10576,"grid":10577,"Sor":10578,"ørret":10579,"apenhet":10580,"Sexy":10581,"cou":10582,"bygnings":10583,"landslag":10584,"vitner":10585,"vaner":10586,"Fore":10587,"billed":10588,"virkemidler":10589,"Grunnen":10590,"ath":10591,"EUs":10592,"strik":10593,"brua":10594,"grafikk":10595,"smarkedet":10596,"omer":10597,"røyk":10598,"oppkalt":10599,"lidenskap":10600,"NY":10601,"HER":10602,"stikker":10603,"Inger":10604,"Test":10605,"menighet":10606,"diskusjoner":10607,"Wash":10608,"fuktighet":10609,"1947":10610,"Angeles":10611,"esti":10612,"rikt":10613,"Fast":10614,"interessen":10615,"Dar":10616,"Skien":10617,"demokratiske":10618,"deriblant":10619,"juridisk":10620,"virkelighet":10621,"ambisjoner":10622,"Elevene":10623,"forfer":10624,"Holm":10625,"netto":10626,"stikke":10627,"vatn":10628,"Eirik":10629,"komplisert":10630,"derfra":10631,"ønning":10632,"Departementet":10633,"triv":10634,"arrangere":10635,"vinden":10636,"bydel":10637,"strengt":10638,"head":10639,"omgivelsene":10640,"varia":10641,"fortløpende":10642,"peri":10643,"here":10644,"ønskelig":10645,"Beskrivelse":10646,"snill":10647,"dial":10648,"Victoria":10649,"utvalgets":10650,"KK":10651,"begrensninger":10652,"slatte":10653,"impor":10654,"light":10655,"Torsdag":10656,"Ungarn":10657,"tyrk":10658,"antagelig":10659,"gjeve":10660,"cho":10661,"snummer":10662,"ordane":10663,"vegvesen":10664,"enorm":10665,"domstol":10666,"erings":10667,"feire":10668,"tape":10669,"skapende":10670,"innbyggjarar":10671,"korrig":10672,"Shar":10673,"disiplin":10674,"reformen":10675,"bestod":10676,"Bul":10677,"Juni":10678,"besto":10679,"lesbiske":10680,"Love":10681,"tykk":10682,"stram":10683,",\"":10684,"Ide":10685,"atori":10686,"fyrste":10687,"innbygger":10688,"Deltak":10689,"smaker":10690,"Ken":10691,"innblikk":10692,"ambul":10693,"mane":10694,"skjell":10695,"hverken":10696,"Media":10697,"Svalbard":10698,"Kongsberg":10699,"kolleger":10700,"zer":10701,"tiltaket":10702,"ote":10703,"college":10704,"bønder":10705,"ombord":10706,"Sag":10707,"bebygg":10708,"Skandinav":10709,"teføl":10710,"blogge":10711,"figurer":10712,"ili":10713,"brakt":10714,"3D":10715,"bis":10716,"gjennomføringen":10717,"visninger":10718,"bod":10719,"Radio":10720,"oppbevaring":10721,"imøte":10722,"konsesjon":10723,"funksjonene":10724,"reagerer":10725,"konsekvensene":10726,"runden":10727,"dav":10728,"cis":10729,"seminar":10730,"suver":10731,"faktiske":10732,"Problemet":10733,"gong":10734,"fit":10735,"works":10736,"prinse":10737,"bedring":10738,"az":10739,"teller":10740,"reflek":10741,"Avi":10742,"formelle":10743,"stranden":10744,"ng":10745,"territor":10746,"barnas":10747,"Stift":10748,"broren":10749,"valuer":10750,"oping":10751,"ive":10752,"hert":10753,"1939":10754,"varmen":10755,"hjerter":10756,"jernban":10757,"Klubben":10758,"avslutte":10759,"sjeldne":10760,"smitte":10761,"produk":10762,"forpliktet":10763,"utgjorde":10764,"ulere":10765,"konvensjon":10766,"Spa":10767,"oppførsel":10768,"splaner":10769,"ents":10770,"MER":10771,"sklub":10772,"betegnelsen":10773,"oppskriften":10774,"sjekking":10775,"lund":10776,"utsted":10777,"stiv":10778,"sistens":10779,"oversett":10780,"vatnet":10781,"unger":10782,"produserte":10783,"cess":10784,"uset":10785,"poly":10786,"BA":10787,"].":10788,"Tech":10789,"filen":10790,"brand":10791,"grø":10792,"solo":10793,"skjønte":10794,"olusjon":10795,"terapi":10796,"Skottland":10797,"yout":10798,"datamaskiner":10799,"oksy":10800,"Power":10801,"ors":10802,"revisor":10803,"hals":10804,"besøket":10805,"detaljert":10806,"Pra":10807,"Nesten":10808,"Romer":10809,"Grim":10810,"individer":10811,"adop":10812,"gjenstand":10813,"betalte":10814,"fagene":10815,"Fru":10816,"eksperter":10817,"beskytter":10818,"3000":10819,"ressursene":10820,"mob":10821,"talent":10822,"baga":10823,"forstyrr":10824,"abo":10825,"dokumentet":10826,"plak":10827,"lyder":10828,"Afghanistan":10829,"Grav":10830,"NH":10831,"cht":10832,"dataene":10833,"ines":10834,"diskutert":10835,"kjekt":10836,"Tim":10837,"ym":10838,"Viking":10839,"reddet":10840,"Foss":10841,"observert":10842,"Selve":10843,"Viktig":10844,"uttrykket":10845,"kaptein":10846,"ype":10847,"klubbene":10848,"bredere":10849,"stemte":10850,"vitamin":10851,"sinst":10852,"1200":10853,"Dre":10854,"stere":10855,"inntektene":10856,"Pop":10857,"stole":10858,"knytte":10859,"General":10860,"installasjon":10861,"down":10862,"Drift":10863,"scu":10864,"stero":10865,"arabiske":10866,"Anbef":10867,"Moskva":10868,"\"),":10869,"DV":10870,"kutte":10871,"Generelt":10872,"work":10873,"flyktning":10874,"minnet":10875,"atoriske":10876,"Gal":10877,"vera":10878,"dramatisk":10879,"forbedret":10880,"kontrollert":10881,"apet":10882,"Barcel":10883,"Øystein":10884,"1942":10885,"spelar":10886,"avkast":10887,"Sco":10888,"lywood":10889,"krevde":10890,"hak":10891,"begiven":10892,"Bildet":10893,"trenere":10894,"regional":10895,"atmosfære":10896,"glatt":10897,"oppdragsgiver":10898,"1957":10899,"begj":10900,"Kenn":10901,"barnevernet":10902,"naz":10903,"skule":10904,"Samfunn":10905,"konserv":10906,"pedagogisk":10907,"camping":10908,"flukt":10909,"open":10910,"terra":10911,"søppel":10912,"arbeidstid":10913,"sannsynlighet":10914,"abonne":10915,"forsøket":10916,"skjult":10917,"Ford":10918,"Forbruker":10919,"støtt":10920,"sprosjektet":10921,"løpere":10922,"episode":10923,"romanen":10924,"avansert":10925,"Out":10926,"Leve":10927,"ns":10928,"sons":10929,"husene":10930,"praksi":10931,"bag":10932,"idrettslag":10933,"KR":10934,"happ":10935,"konkurrerer":10936,"kulturer":10937,"eselskap":10938,"myke":10939,"flag":10940,"mobiltelefoner":10941,"konsern":10942,"betes":10943,"maks":10944,"budskap":10945,"Utvalget":10946,"sselskapet":10947,"jordbruk":10948,"uavhengige":10949,"lenker":10950,"1936":10951,"virus":10952,"lagres":10953,"definisjon":10954,"sannheten":10955,"tørke":10956,"opplyst":10957,"Finan":10958,"Bill":10959,"assosi":10960,"instrument":10961,"anledninger":10962,"rog":10963,"forestillinger":10964,"troen":10965,"konsulent":10966,"muslimer":10967,"overgangen":10968,"skat":10969,"samiske":10970,"130":10971,"pose":10972,"snivaet":10973,"snøen":10974,"katalog":10975,"strø":10976,"Albumet":10977,"drepe":10978,"flaske":10979,"Dyr":10980,"muntlig":10981,"barndom":10982,"Eva":10983,"Eksempel":10984,"odden":10985,"markert":10986,"klinisk":10987,"Mai":10988,"psykiat":10989,"ritu":10990,"stun":10991,"begravet":10992,"Veien":10993,"edr":10994,"helsen":10995,"skort":10996,"lev":10997,"hire":10998,"dyna":10999,"organisere":11000,"anonym":11001,"spørselen":11002,"farts":11003,"etid":11004,"Storting":11005,"juridiske":11006,"fasa":11007,"beskrives":11008,"stimulere":11009,"budsjetter":11010,"1941":11011,"Kunne":11012,"Rolf":11013,"Fanta":11014,"halsen":11015,"okkupa":11016,"objekter":11017,"Sat":11018,"væp":11019,"dyrt":11020,"kartlegge":11021,"[[":11022,"møtene":11023,"høyskole":11024,"sveg":11025,"sløy":11026,"prester":11027,"NVE":11028,"samtalen":11029,"oppfattet":11030,"arhun":11031,"Donald":11032,"permisjon":11033,"semester":11034,"spolit":11035,"statistikken":11036,"fortrinn":11037,"standene":11038,"skostnader":11039,"nakenbilder":11040,"skatter":11041,"nærhet":11042,"ødelegg":11043,"romantisk":11044,"tildeling":11045,"forhandler":11046,"sykkelen":11047,"Arn":11048,"anleggs":11049,"trapp":11050,"kombinere":11051,"kontrakten":11052,"Lie":11053,"embet":11054,"Lønn":11055,"vassdrag":11056,"mødre":11057,"saktiviteter":11058,"utfordringen":11059,"aktisk":11060,"JON":11061,"Vanlig":11062,"alumini":11063,"kunsten":11064,"eled":11065,"diesel":11066,"løfter":11067,"1959":11068,"Eriksen":11069,"Cap":11070,"Rapporten":11071,"undervisnings":11072,"serne":11073,"balla":11074,"faktura":11075,"hehe":11076,"opptrer":11077,"nederst":11078,"begren":11079,"EC":11080,"fremmer":11081,"medi":11082,"vikt":11083,"videreutvikle":11084,"partiets":11085,"unikt":11086,"haver":11087,"sæ":11088,"avklar":11089,"elin":11090,"dronning":11091,"settingen":11092,"Vedlegg":11093,"verds":11094,"arden":11095,"forskjellene":11096,"skamp":11097,"1949":11098,"rt":11099,"Profe":11100,"lisens":11101,"pepper":11102,"NG":11103,"smid":11104,"offiser":11105,"bestemmelse":11106,"prioritere":11107,"oppa":11108,"savnet":11109,"lens":11110,"urett":11111,"engde":11112,"Premier":11113,"belys":11114,"middelalderen":11115,"Programmet":11116,"fødselen":11117,"inngrep":11118,"alternativet":11119,"sey":11120,"fotballspiller":11121,"tredjepart":11122,"Ang":11123,"iseres":11124,"bombe":11125,"attraktive":11126,"redningen":11127,"uttalt":11128,"operasjonen":11129,"Ball":11130,"KOM":11131,"Arsaken":11132,"revisjonen":11133,"support":11134,"psyko":11135,"kommersielle":11136,"føde":11137,"Hill":11138,"gebyr":11139,"Portug":11140,"utgjøre":11141,"sykt":11142,"statene":11143,"veggene":11144,"sørover":11145,"Cle":11146,"sium":11147,"Charles":11148,"masser":11149,"beregning":11150,"selige":11151,"tropp":11152,"vendte":11153,"Bergens":11154,"eierne":11155,"gger":11156,"kalender":11157,"glipp":11158,"Marian":11159,"diskriminering":11160,"modig":11161,"MD":11162,"Open":11163,"radik":11164,"frakt":11165,"fallende":11166,"Royal":11167,"tales":11168,"Rein":11169,"Ori":11170,"Tinder":11171,"godkjennes":11172,"testen":11173,"popular":11174,"Øyvind":11175,"Last":11176,"marine":11177,"disposi":11178,"greier":11179,"Music":11180,"sprosesser":11181,"pur":11182,"spartiet":11183,"truffet":11184,"innsiden":11185,"istedenfor":11186,"Vak":11187,"kopp":11188,"Arten":11189,"bind":11190,"væske":11191,"kjendis":11192,"eie":11193,"smyndighet":11194,"Trafikk":11195,"Washington":11196,"produsenten":11197,"tiviser":11198,"Svart":11199,"dresse":11200,"ader":11201,"individuell":11202,"setningene":11203,"bakover":11204,"prioritert":11205,"Resultatene":11206,"sver":11207,"ledige":11208,"Enten":11209,"Kjer":11210,"Klar":11211,"Prisen":11212,"kreativitet":11213,"cal":11214,"put":11215,"'.":11216,"forestilling":11217,"hinder":11218,"berett":11219,"kontoen":11220,"utsatte":11221,"Halden":11222,"ining":11223,"Teater":11224,"inkludere":11225,"arbeidskraft":11226,"forsyning":11227,"antik":11228,"registrerer":11229,"holden":11230,"radisjon":11231,"trol":11232,"drepte":11233,"hendelse":11234,"tilstanden":11235,"greie":11236,"inspirere":11237,"Home":11238,"table":11239,"klatre":11240,"bekymring":11241,"High":11242,"nedlast":11243,"sofaen":11244,"HT":11245,"tomt":11246,"liga":11247,"some":11248,"resser":11249,"operativ":11250,"normale":11251,"jakten":11252,"eies":11253,"Rol":11254,"Che":11255,"Gil":11256,"arbeidsoppgaver":11257,"investere":11258,"Barcelona":11259,"nærliggende":11260,"hjelpemidler":11261,"kling":11262,"Gab":11263,"Sigur":11264,"samspill":11265,"trau":11266,"Utfor":11267,"pavist":11268,"Spørsmalet":11269,"angre":11270,"gum":11271,"spekt":11272,"forstand":11273,"oversikten":11274,"standarden":11275,"Planen":11276,"Zealand":11277,"inneholdt":11278,"emon":11279,"kammer":11280,"fortjent":11281,"skyting":11282,"etterfulgt":11283,"teknolog":11284,"Gun":11285,"analysere":11286,"vidde":11287,"School":11288,"ekan":11289,"pizza":11290,"DA":11291,"reserv":11292,"økningen":11293,"srud":11294,"knapp":11295,"Champions":11296,"Laget":11297,"Set":11298,"non":11299,"energ":11300,"1918":11301,"dukke":11302,"varige":11303,"Sosi":11304,"landsby":11305,"Band":11306,"tynne":11307,"pc":11308,"heste":11309,"sdagen":11310,"smuligheter":11311,"Fy":11312,"char":11313,"kasse":11314,"objekt":11315,"Bow":11316,"fingrene":11317,"listene":11318,"avgjørelsen":11319,"trang":11320,"tarn":11321,"innkalling":11322,"belte":11323,"Kost":11324,"usalem":11325,"Olje":11326,"holmen":11327,"Syd":11328,"beholder":11329,"artig":11330,"lengste":11331,"møre":11332,"modi":11333,"tros":11334,"Edvard":11335,"Jesu":11336,"ansed":11337,"ee":11338,"returner":11339,"Høyesterett":11340,"strakt":11341,"karrieren":11342,"melke":11343,"Gjøvik":11344,"kontakten":11345,"elet":11346,"py":11347,"arbeidene":11348,"trenge":11349,"key":11350,"serende":11351,"webcam":11352,"Ran":11353,"utny":11354,"dder":11355,"spring":11356,"strekningen":11357,"nerve":11358,"Jean":11359,"overføres":11360,"kolli":11361,"EG":11362,"damene":11363,"fritids":11364,"lans":11365,"Onsdag":11366,"doktorgrad":11367,"robu":11368,"funksjonalitet":11369,"Administ":11370,"utnyttelse":11371,"bestemmelsen":11372,"servering":11373,"styreleder":11374,"forandring":11375,"modne":11376,"sirkul":11377,"slok":11378,"bølge":11379,"pek":11380,"Verdi":11381,"gaven":11382,"menings":11383,"tunnel":11384,"has":11385,"brent":11386,"foretas":11387,"tillitsvalgte":11388,"Ingrid":11389,"økologisk":11390,"plata":11391,"verdenen":11392,"Ida":11393,"Time":11394,"shop":11395,"teringen":11396,"engasjerte":11397,"1954":11398,"astr":11399,"avdekket":11400,"levelse":11401,"fattigdom":11402,"kjemiske":11403,"Salt":11404,"emne":11405,"tasje":11406,"føder":11407,"180":11408,"Ske":11409,"botn":11410,"Kommer":11411,"Belgia":11412,"Spillet":11413,"klærne":11414,"Inne":11415,"natta":11416,"ksus":11417,"koke":11418,"EK":11419,"gods":11420,"logg":11421,"Lillestrøm":11422,"Aktivitet":11423,"VER":11424,"breen":11425,"Book":11426,"basseng":11427,"deira":11428,"innvendig":11429,"nedlagt":11430,"bring":11431,"hytter":11432,"big":11433,"lederne":11434,"radgivning":11435,"ferske":11436,"Press":11437,"stiftelsen":11438,"sexleketøy":11439,"elite":11440,"skis":11441,"Vag":11442,"drakt":11443,"primær":11444,"Vek":11445,"møteplassen":11446,"overordnede":11447,"hesten":11448,"hobby":11449,"dress":11450,"kvitt":11451,"IKKE":11452,"Vei":11453,"overføre":11454,"Para":11455,"tynn":11456,"Fjordane":11457,"stjernen":11458,"Rand":11459,"Herren":11460,"Matt":11461,"smann":11462,"Kurset":11463,"friluftsliv":11464,"urik":11465,"NHO":11466,"apenbar":11467,"Styre":11468,"bekk":11469,"ards":11470,"skomiteen":11471,"rukket":11472,"She":11473,"kvinners":11474,"tilsku":11475,"administrerende":11476,"ory":11477,"kjennes":11478,"bytter":11479,"orienterte":11480,"Forsknings":11481,"Jerusalem":11482,"malte":11483,"will":11484,"organisasjons":11485,"Ib":11486,"stell":11487,"oppsett":11488,"ulykken":11489,"kopier":11490,"sparti":11491,"forhandlingene":11492,"cupen":11493,"søknads":11494,"brenner":11495,"ady":11496,"lunge":11497,"SC":11498,"tilrettelagt":11499,"opptreden":11500,"Plat":11501,"snur":11502,"Spesi":11503,"HP":11504,"Gret":11505,"cur":11506,"Pil":11507,"Klok":11508,"plukke":11509,"attende":11510,"vinneren":11511,"smarttelefoner":11512,"forløp":11513,"nasjoner":11514,"mellomrom":11515,"fysikk":11516,"engasjere":11517,"stillatelse":11518,"eieren":11519,"kadem":11520,"bass":11521,"forandringer":11522,"polske":11523,"kvalifiserte":11524,"Napo":11525,"sos":11526,"dypere":11527,"Flott":11528,"1955":11529,"innsyn":11530,"enormt":11531,"klet":11532,"skjønt":11533,"Andro":11534,"Grønn":11535,"legemiddel":11536,"tum":11537,"dybde":11538,"Gje":11539,"EA":11540,"ikar":11541,"forbrukere":11542,"imponert":11543,"matchmaking":11544,"tydeligvis":11545,"Utt":11546,"oppsig":11547,"BK":11548,"selvtillit":11549,"ønskede":11550,"kjede":11551,"avgjørelser":11552,"diagnose":11553,"Tirsdag":11554,"magnet":11555,"Fø":11556,"cket":11557,"fjernes":11558,"Hitler":11559,"hundene":11560,"komne":11561,"Cal":11562,"koden":11563,"Altsa":11564,"skuespillere":11565,"testa":11566,"Lab":11567,"øring":11568,"Frode":11569,"timene":11570,"klinikk":11571,"ged":11572,"inngangen":11573,"Kamp":11574,"prosjektering":11575,"skandinav":11576,"innover":11577,"verdiskap":11578,"Mes":11579,"leiligheter":11580,"forespørsel":11581,"Stad":11582,"tlige":11583,"fornuftig":11584,"sinformasjon":11585,"hygi":11586,"sid":11587,"hyppig":11588,"Kilde":11589,"Løs":11590,"spilleautomater":11591,"klø":11592,"melodi":11593,"yter":11594,"studiene":11595,"oppgi":11596,"indiske":11597,"dirig":11598,"betalings":11599,"stok":11600,"ML":11601,"inær":11602,"Europas":11603,"blind":11604,"berettig":11605,"departe":11606,"barber":11607,"nyhet":11608,"malinger":11609,"odds":11610,"saret":11611,"øres":11612,"lomme":11613,"Single":11614,"enser":11615,"Pass":11616,"….":11617,"1943":11618,"vandring":11619,"knall":11620,"1938":11621,"etaten":11622,"House":11623,"ekstrem":11624,"æv":11625,"Kristiania":11626,"ombudet":11627,"matvarer":11628,"bensin":11629,"nestleder":11630,"plasseres":11631,"SF":11632,"Leon":11633,"material":11634,"tradisjonen":11635,"smake":11636,"pasta":11637,"file":11638,"%)":11639,"spris":11640,"høyst":11641,"palegg":11642,"skredder":11643,"DNA":11644,"kvadrat":11645,"ela":11646,"kyrkje":11647,"ober":11648,"Tone":11649,"Send":11650,"sche":11651,"sjeldent":11652,"grus":11653,"Roger":11654,"Røy":11655,"svindel":11656,"fagfolk":11657,"sveit":11658,"definere":11659,"seinere":11660,"yren":11661,"Folket":11662,"inv":11663,"chatte":11664,"Skriv":11665,"presenteres":11666,"coun":11667,"Perfekt":11668,"venne":11669,"uttrykke":11670,"fortid":11671,"konseptet":11672,"Illu":11673,"etterretning":11674,"feiret":11675,"Even":11676,"Vedtak":11677,"gravide":11678,"forpliktende":11679,"ategori":11680,"]]":11681,"avgrens":11682,"forarsaket":11683,"nydelige":11684,"tette":11685,"Harstad":11686,"Cer":11687,"fortelling":11688,"aliserer":11689,"ellingen":11690,"rapportert":11691,"Isa":11692,"anmeldelser":11693,"1910":11694,"universiteter":11695,"vas":11696,"overordnet":11697,"anbud":11698,"eliv":11699,"daværende":11700,"omsorgs":11701,"kampanje":11702,"etting":11703,"global":11704,"5000":11705,"informert":11706,"Mine":11707,"meny":11708,"stien":11709,"Bob":11710,"Nasjonalt":11711,"skilsmisse":11712,"ordne":11713,"sjet":11714,"Job":11715,"manager":11716,"logo":11717,"plassene":11718,"There":11719,"konven":11720,"intervjuer":11721,"overleve":11722,"førere":11723,"sever":11724,"stian":11725,"elektri":11726,"fortellinger":11727,"nekter":11728,"veder":11729,"betegn":11730,"Georg":11731,"SU":11732,"Psyk":11733,"bik":11734,"1912":11735,"dsen":11736,"?)":11737,"valuering":11738,"resulterte":11739,"Ton":11740,"hjørnet":11741,"Innen":11742,"rekor":11743,"presidenten":11744,"350":11745,"Fest":11746,"refleksjon":11747,"mørkt":11748,"innan":11749,"spreng":11750,"julen":11751,"nøytr":11752,"vor":11753,"eden":11754,"mestre":11755,"gat":11756,"æra":11757,"kak":11758,"Street":11759,"sinstitusjoner":11760,"mediene":11761,"rytter":11762,"klim":11763,"Journ":11764,"ekstreme":11765,"Tun":11766,"1953":11767,"flør":11768,"logistikk":11769,"tilbudt":11770,"elder":11771,"fleksibilitet":11772,"Dame":11773,"cast":11774,"konkurrere":11775,"datamaskinen":11776,"Bad":11777,"turnering":11778,"partneren":11779,"komponenter":11780,"union":11781,"bista":11782,"ektefelle":11783,"ussen":11784,"Smart":11785,"kjøres":11786,"Tol":11787,"stiske":11788,"musikere":11789,"markeder":11790,"Budsjett":11791,"øpe":11792,"friheten":11793,"ryddet":11794,"omtaler":11795,"Høsten":11796,"ktører":11797,"hørings":11798,"mesteparten":11799,"forkyn":11800,"teringer":11801,"Kjetil":11802,"Beijing":11803,"avgiften":11804,"apparatet":11805,"ern":11806,"happy":11807,"jog":11808,"bekjent":11809,"konger":11810,"signaler":11811,"Unge":11812,"ratt":11813,"magasinet":11814,"Portugal":11815,"iket":11816,"Android":11817,"kredittkort":11818,"1919":11819,"Beat":11820,"inert":11821,"Sverre":11822,"finansielle":11823,"foregikk":11824,"dater":11825,"Ses":11826,"introdusert":11827,"pagrepet":11828,"utsettes":11829,"arbeidsplassen":11830,"Lise":11831,"hormon":11832,"handlings":11833,"kledd":11834,"foresatte":11835,"leid":11836,"row":11837,"Nærings":11838,"nyttar":11839,"steiner":11840,"folks":11841,"levetid":11842,"Sir":11843,"aktuell":11844,"Ordet":11845,"skurs":11846,"brønn":11847,"sammenligning":11848,"Billig":11849,"betennelse":11850,"plag":11851,"Garder":11852,"Lit":11853,"erke":11854,"Rapport":11855,"kylling":11856,"Flat":11857,"pakt":11858,"uss":11859,"jøp":11860,"pse":11861,"insk":11862,"fellesskapet":11863,"omfatte":11864,"kontaktet":11865,"personalet":11866,"assi":11867,"porteføl":11868,"finansiert":11869,"action":11870,"mentert":11871,"infeksjon":11872,"Oversikt":11873,"elektro":11874,"bly":11875,"orgas":11876,"kabel":11877,"eien":11878,"mera":11879,"planlagte":11880,"statsborger":11881,"balansen":11882,"israelske":11883,"aps":11884,"vibr":11885,"Skatte":11886,"uttale":11887,"Ama":11888,"brenne":11889,"chan":11890,"Sin":11891,"Kyst":11892,"Mini":11893,"hoppet":11894,"somheten":11895,"miss":11896,"lapp":11897,"bekjempe":11898,"radene":11899,"Arild":11900,"petrole":11901,"sprosess":11902,"fremmede":11903,"prins":11904,"gater":11905,"kuler":11906,"1928":11907,"PI":11908,"Bygge":11909,"formene":11910,"hertug":11911,"poser":11912,"fjær":11913,"økes":11914,"avslag":11915,"ligget":11916,"liknende":11917,"high":11918,"kelen":11919,"stro":11920,"Glob":11921,"langvarig":11922,"forsink":11923,"stakk":11924,"visningen":11925,"arkivet":11926,"Saint":11927,"voldte":11928,"SAS":11929,"lagd":11930,"Tidlig":11931,"oksygen":11932,"Jim":11933,"utsette":11934,"ssystemer":11935,"rem":11936,"herlige":11937,"oppi":11938,"ssenteret":11939,"orgen":11940,"laser":11941,"gjensidig":11942,"avvist":11943,"ulikt":11944,"Meto":11945,"plagg":11946,"forurensning":11947,"Nedre":11948,"Avtalen":11949,"maltid":11950,"ami":11951,"Grat":11952,"Tex":11953,"beskrivelser":11954,"pende":11955,"sproblemer":11956,"drom":11957,"ssekret":11958,"konstruksjoner":11959,"kanter":11960,"arabisk":11961,"variant":11962,"baserer":11963,"indikerer":11964,"nynorsk":11965,"vanleg":11966,"begrunnelse":11967,"stipend":11968,"komfortabel":11969,"bakterier":11970,"Ret":11971,"aman":11972,"veld":11973,"bokser":11974,"rekrut":11975,"Skre":11976,"NIF":11977,"attraksjoner":11978,"vesentlige":11979,"oppsto":11980,"formell":11981,"trusler":11982,"pleiere":11983,"Mis":11984,"Fla":11985,"kjær":11986,"Center":11987,"rekkefølge":11988,"Indre":11989,"frekvens":11990,"itten":11991,"oc":11992,"gunstig":11993,"HS":11994,"strukturen":11995,"akseptert":11996,"pynt":11997,"fans":11998,"Point":11999,"tydelige":12000,"heimen":12001,"bestiller":12002,"friidretts":12003,"regimet":12004,"linken":12005,"jfr":12006,"prestasjoner":12007,"Apr":12008,"angs":12009,"diabetes":12010,"Ari":12011,"veie":12012,"Disk":12013,"velferds":12014,"særdeles":12015,"kvalitetssik":12016,"ivind":12017,"varierende":12018,"olin":12019,"olj":12020,"Blom":12021,"overvaking":12022,"Nordic":12023,"strikket":12024,"Siri":12025,"ivaretatt":12026,"gatene":12027,"testing":12028,"Eksempler":12029,"maraton":12030,"hustru":12031,"oke":12032,"AU":12033,"arn":12034,"pany":12035,"Vestlandet":12036,"slettet":12037,"hengere":12038,"evangel":12039,"</":12040,"grunder":12041,"hjelpen":12042,"konsernet":12043,"Elite":12044,"edom":12045,"alisten":12046,"domen":12047,"dimensjoner":12048,"besta":12049,"pumpe":12050,"ypper":12051,"forebygging":12052,"Økt":12053,"Alf":12054,"Enk":12055,"bue":12056,"regul":12057,"falsk":12058,"Sigurd":12059,"representere":12060,"muskler":12061,"dage":12062,"kanon":12063,"begei":12064,"Nov":12065,"halvøya":12066,"Lofoten":12067,"sakk":12068,"skremmende":12069,"produseres":12070,"Award":12071,"parlamentet":12072,"right":12073,"hemmelige":12074,"Artikk":12075,"brennende":12076,"vete":12077,"underlag":12078,"Hilde":12079,"ogne":12080,"retningslinjene":12081,"talls":12082,"hou":12083,"gjenspeil":12084,"Administr":12085,"nyt":12086,"kno":12087,"oppmerksomheten":12088,"aktige":12089,"samvitt":12090,"drikker":12091,"seksualitet":12092,"andreplass":12093,"seksuelt":12094,"innvilget":12095,"orget":12096,"Tips":12097,"hosp":12098,"varierte":12099,"fasiliteter":12100,"skry":12101,"Narvik":12102,"GE":12103,"avdøde":12104,"montering":12105,"held":12106,"skriftet":12107,"dørene":12108,"agement":12109,"Mest":12110,"lufta":12111,"legget":12112,"score":12113,"Elekt":12114,"140":12115,"etterspørsel":12116,"videok":12117,"Funksjon":12118,"stemmerett":12119,"vanns":12120,"potensial":12121,"Anti":12122,"NC":12123,"reell":12124,"innlem":12125,"trussel":12126,"yrker":12127,"dir":12128,"søra":12129,"presenterte":12130,"briller":12131,"Utdannings":12132,"biologiske":12133,"Henry":12134,"formidler":12135,"justere":12136,"ativet":12137,"ktivet":12138,"?»":12139,"amo":12140,"skrekk":12141,"setet":12142,"synge":12143,"avi":12144,"politidistrikt":12145,"Aleks":12146,"krone":12147,"stabilt":12148,"puter":12149,"leiren":12150,"Krig":12151,"teppe":12152,"fokuset":12153,"Levevis":12154,"takle":12155,"helikopter":12156,"%,":12157,"Borg":12158,"abel":12159,"reen":12160,"kontorer":12161,"revidert":12162,"foreslas":12163,"nordøst":12164,"tilrettelegge":12165,"velle":12166,"tz":12167,"1914":12168,"dugnad":12169,"strategiske":12170,"lærerne":12171,"detaljerte":12172,"blodet":12173,"Sem":12174,"aku":12175,"manu":12176,"gne":12177,"toll":12178,"1905":12179,"yoga":12180,"Faktisk":12181,"mit":12182,"adressen":12183,"hevde":12184,"onia":12185,"1924":12186,"skilde":12187,"uheldig":12188,"advok":12189,"Tal":12190,"Johnsen":12191,"pert":12192,"livets":12193,"opplegget":12194,"tenberg":12195,"ade":12196,"gjødsel":12197,"Records":12198,"TT":12199,"skjem":12200,"lend":12201,"ograf":12202,"Amund":12203,"ones":12204,"effektiviser":12205,"tegning":12206,"Wilhelm":12207,"Mary":12208,"Sus":12209,"hs":12210,"trakas":12211,"restauranten":12212,"prosedyrer":12213,"elleve":12214,"pamelding":12215,"slite":12216,"Nob":12217,"arrangerte":12218,"Kristoffer":12219,"øper":12220,"lastet":12221,"regioner":12222,"Sver":12223,"come":12224,"asylsøkere":12225,"ringte":12226,"kommunest":12227,"desto":12228,"amet":12229,"drivende":12230,"okse":12231,"ogni":12232,"DER":12233,"Innledning":12234,"Nordre":12235,"say":12236,"skulp":12237,"kostet":12238,"signert":12239,"boy":12240,"langsiktige":12241,"ence":12242,"Olavs":12243,"Lys":12244,"lengden":12245,"sekken":12246,"fornybar":12247,"skarp":12248,"OP":12249,"ingar":12250,"stevne":12251,"Stjør":12252,"bisped":12253,"American":12254,"Rasmus":12255,"sminke":12256,"kjeder":12257,"lytter":12258,"forumet":12259,"ssive":12260,"bachelor":12261,"elli":12262,"sekter":12263,"baser":12264,"omfanget":12265,"hverdags":12266,"skapets":12267,"Kompetanse":12268,"begynn":12269,"flekker":12270,"tilbak":12271,"batene":12272,"reelle":12273,"dose":12274,"ledig":12275,"girl":12276,"apoteket":12277,"uttalelser":12278,"bosted":12279,"starta":12280,"Pam":12281,"dominerende":12282,"Hanne":12283,"høyder":12284,"sidige":12285,"pressemelding":12286,"see":12287,"160":12288,"Strateg":12289,"innene":12290,"LED":12291,"respons":12292,"seringen":12293,"arealet":12294,"Undersøkelsen":12295,"Handling":12296,"bas":12297,"1951":12298,"sjansene":12299,"æk":12300,"ito":12301,"Møtested":12302,"lekka":12303,"Ray":12304,"rutine":12305,"Spor":12306,"strek":12307,"IST":12308,"swingers":12309,"samband":12310,"hopper":12311,"polar":12312,"innstillinger":12313,"lyser":12314,"fordelene":12315,"oppfordret":12316,"nese":12317,"mul":12318,"trivsel":12319,"NP":12320,"Syl":12321,"oppstod":12322,"ads":12323,"Eidsvoll":12324,"brannen":12325,"observasjoner":12326,"indirekte":12327,"konsentrasjon":12328,"1933":12329,"Otto":12330,"forlatt":12331,"elver":12332,"oppføring":12333,"Kirken":12334,"individuelt":12335,"Valerenga":12336,"ASA":12337,"spelt":12338,"ubehag":12339,"MR":12340,"taus":12341,"installasjoner":12342,"eksklusive":12343,"aling":12344,"Digital":12345,"henvendelser":12346,"oppnar":12347,"Prak":12348,"FrP":12349,"Ulle":12350,"ssykehus":12351,"Bern":12352,"stier":12353,"politikerne":12354,"sykle":12355,"ssyk":12356,"Forum":12357,"skit":12358,"overta":12359,"stemt":12360,"kjemi":12361,"Brand":12362,"Up":12363,"Lis":12364,"engen":12365,"Louis":12366,"karbo":12367,"innimellom":12368,"skelse":12369,"vulkan":12370,"Gust":12371,"fylles":12372,"folkene":12373,"splitt":12374,"inspirerende":12375,"Skan":12376,"stern":12377,"funksjonshemmede":12378,"Bakgrunnen":12379,"bob":12380,"blatt":12381,"sykefravær":12382,"lidelse":12383,"svakt":12384,"Jun":12385,"logge":12386,"bere":12387,"tilbringe":12388,".....":12389,"teknologiske":12390,"opera":12391,"oppdaterte":12392,"''":12393,"apchat":12394,"avl":12395,"utallige":12396,"livssyn":12397,"olympisk":12398,"lisen":12399,"marsj":12400,"Ask":12401,"dedik":12402,"smarte":12403,"brune":12404,"ов":12405,"Francis":12406,"redaksjon":12407,"lider":12408,"distanse":12409,"typiske":12410,"Valle":12411,"begreper":12412,"vester":12413,"konserten":12414,"fos":12415,"nemnda":12416,"hentes":12417,"gjennomga":12418,"eierskap":12419,"ivrig":12420,"Opplys":12421,"retningen":12422,"modellene":12423,"dtr":12424,"Michel":12425,"Rev":12426,"nordisk":12427,"pun":12428,"selva":12429,"boende":12430,"Marius":12431,"kommentere":12432,"Hjer":12433,"premiere":12434,"Elver":12435,"pine":12436,"forandre":12437,"kapp":12438,"Familie":12439,"overtatt":12440,"ktoren":12441,"emosjon":12442,"was":12443,"oppslag":12444,"bydelen":12445,"regissør":12446,"sammensetning":12447,"Nettdating":12448,"Business":12449,"Resten":12450,"Viet":12451,"Mobil":12452,"Cru":12453,"ror":12454,"gjev":12455,"rettighetene":12456,"Cra":12457,"ekort":12458,"Teknisk":12459,"ios":12460,"antak":12461,"malrettet":12462,"smøter":12463,"Marianne":12464,"hyper":12465,"South":12466,"smetoder":12467,"nettsidene":12468,"FoU":12469,"Word":12470,"TV2":12471,"narkotika":12472,"spiss":12473,"sammenhengende":12474,"Top":12475,"Cec":12476,"oversettelse":12477,"ae":12478,"sno":12479,"ankomst":12480,"informat":12481,"Ragn":12482,"telt":12483,"Dog":12484,"Argent":12485,"ofre":12486,"knu":12487,"fjerning":12488,"Kvinn":12489,"desper":12490,"tions":12491,"Kristiansen":12492,"Oli":12493,"manus":12494,"Fær":12495,"Østlandet":12496,"Vene":12497,"ravarer":12498,"oppgradering":12499,"variasjoner":12500,"invitere":12501,"anvendelse":12502,"Hag":12503,"terne":12504,"intensitet":12505,"apparat":12506,"rie":12507,"Vg":12508,"merking":12509,"forutsatt":12510,"tilhørighet":12511,"Chic":12512,"krysser":12513,"beretning":12514,"installere":12515,"straling":12516,"konkurs":12517,"oppfattes":12518,"livskvalitet":12519,"Step":12520,"Rosenborg":12521,"sparer":12522,"skaret":12523,"rose":12524,"eksjon":12525,"ids":12526,"biologisk":12527,"prøven":12528,"maker":12529,"sjarmer":12530,"lokalisert":12531,"brettet":12532,"aggres":12533,"anerkjennelse":12534,"Ars":12535,"giv":12536,"kosm":12537,"Iver":12538,"Handels":12539,"Bell":12540,"Egil":12541,"institusjonen":12542,"Troll":12543,"beholdt":12544,"KF":12545,"overraskelse":12546,"regjerings":12547,"konkurransed":12548,"isasjon":12549,"forfall":12550,"styremedlem":12551,"lurte":12552,"avsluttes":12553,"maet":12554,"tjent":12555,"tting":12556,"sammensatt":12557,"seffek":12558,"fugle":12559,"utviklere":12560,"pagaende":12561,"vede":12562,"statsbudsjettet":12563,"ftt":12564,"Utrolig":12565,"shemale":12566,"musik":12567,"Tele":12568,"reparasjon":12569,"mentale":12570,"villa":12571,"Synes":12572,"Vurdering":12573,"strer":12574,"angaende":12575,"Verden":12576,"brenning":12577,"akterer":12578,"PDF":12579,"skrigen":12580,"ologer":12581,"Clo":12582,"savner":12583,"hjulpet":12584,"kostnads":12585,"Eier":12586,"brukernavn":12587,"nik":12588,"konflikten":12589,"itch":12590,"messe":12591,"sident":12592,"betalinger":12593,"Hum":12594,"deltagere":12595,"kkere":12596,"korrup":12597,"føttene":12598,"uti":12599,"Ster":12600,"Blue":12601,"litterære":12602,"etts":12603,"ilsynet":12604,"varighet":12605,"ey":12606,"flertallet":12607,"endet":12608,"cellene":12609,"omfru":12610,"viktigheten":12611,"sedirektoratet":12612,"Long":12613,"skisk":12614,"notat":12615,"Møl":12616,"sgrunn":12617,"anledningen":12618,"Flo":12619,"Samarbeid":12620,"dynasti":12621,"miljøvennlig":12622,"Match":12623,"Hydro":12624,"Tryg":12625,"kriminelle":12626,"allergi":12627,"Aa":12628,"Ludvig":12629,"utten":12630,"finsk":12631,"Nina":12632,"ulv":12633,"ektor":12634,"Venner":12635,"Livet":12636,"lufthavn":12637,"songar":12638,"Varen":12639,"Naken":12640,"Pale":12641,"Ep":12642,"belysning":12643,"toalett":12644,"itære":12645,"sproduksjon":12646,"profet":12647,"egenskapene":12648,"blokk":12649,"eti":12650,"organiserte":12651,"Rel":12652,"Sop":12653,"GPS":12654,"elementene":12655,"føtter":12656,"foreslo":12657,"Karen":12658,"Od":12659,"Mør":12660,"ace":12661,"luksus":12662,"White":12663,"asiatisk":12664,"modus":12665,"database":12666,"Lykke":12667,"bølger":12668,"utførelse":12669,"Oly":12670,"DN":12671,"College":12672,"Wood":12673,"skli":12674,"opererer":12675,"eksemplarer":12676,"Stoltenberg":12677,"dus":12678,"skreddersy":12679,"aluminium":12680,"feltene":12681,"kvinnelig":12682,"Bjar":12683,"omtales":12684,"kreativ":12685,"Office":12686,"roms":12687,"Hjelp":12688,"stemmel":12689,"Mr":12690,"investerings":12691,"slott":12692,"1937":12693,"endringen":12694,"MW":12695,"gale":12696,"Stadi":12697,"herred":12698,"bryster":12699,"ENT":12700,"fungerende":12701,"samliv":12702,"høgskolen":12703,"hunn":12704,"ental":12705,"Albert":12706,"ture":12707,"aksel":12708,"itasjon":12709,"middelalder":12710,"oran":12711,"spensjon":12712,"sviger":12713,"eiendommer":12714,"fokusert":12715,"mentasjon":12716,"treet":12717,"kum":12718,"rive":12719,"ekstern":12720,"lelse":12721,"Stortingets":12722,"ritt":12723,"tenaringer":12724,"Prix":12725,"atnet":12726,"skatten":12727,"BO":12728,"cken":12729,"valt":12730,"skyldig":12731,"Meld":12732,"trodd":12733,"Trav":12734,"kampanjen":12735,"yper":12736,"frister":12737,"humør":12738,"wan":12739,"puste":12740,"medhold":12741,"stasjonene":12742,"digitalt":12743,"orgasme":12744,"Sea":12745,"bestatt":12746,"rønt":12747,"Ant":12748,"bød":12749,"Read":12750,"skjø":12751,"borett":12752,"Kristen":12753,"utslippene":12754,"tyskerne":12755,"inndeling":12756,"dødsfall":12757,"Publisert":12758,"issen":12759,"rafikk":12760,"poenget":12761,"skall":12762,"kundeservice":12763,"tilpasses":12764,"sløsninger":12765,"restrik":12766,"avgang":12767,"stens":12768,"foreles":12769,"Bilde":12770,"ungdommene":12771,"onser":12772,"anerne":12773,"vaknet":12774,"knytter":12775,"massiv":12776,"take":12777,"num":12778,"steknologi":12779,"uli":12780,"Bort":12781,"Total":12782,"CV":12783,"bena":12784,"sønner":12785,"skran":12786,"realistisk":12787,"Møtet":12788,"smakt":12789,"pekt":12790,"sykling":12791,"pak":12792,"house":12793,"benken":12794,"ppar":12795,"inkl":12796,"very":12797,"arbeidelse":12798,"budskapet":12799,"mottaker":12800,"sape":12801,"abort":12802,"beite":12803,"fiserte":12804,"etableres":12805,"popularitet":12806,"manglet":12807,"coach":12808,"glø":12809,"kjærlighets":12810,"Sid":12811,"Mattilsynet":12812,"rekna":12813,"steget":12814,"Hon":12815,"skjeden":12816,"Kristine":12817,"folker":12818,"Festival":12819,"sut":12820,"sitater":12821,"DET":12822,"prinsipp":12823,"kenes":12824,"bekreftelse":12825,"tørket":12826,"tilfredsstille":12827,"teorien":12828,"Resultater":12829,"Wer":12830,"host":12831,"fineste":12832,"Holmen":12833,"kutt":12834,"Konklu":12835,"Riktig":12836,"virtu":12837,"klasses":12838,"sørøst":12839,"egenk":12840,"brasil":12841,"svurder":12842,"sjokk":12843,"Gjennomsnitt":12844,"skifter":12845,"dun":12846,"elg":12847,"angrer":12848,"Hollywood":12849,"utgaver":12850,"sammenlagt":12851,"Egen":12852,"svikt":12853,"Camil":12854,"ferden":12855,"vurderte":12856,"ssikkerhet":12857,"arrangør":12858,"Viser":12859,"lingene":12860,"sburg":12861,"fjerner":12862,"ua":12863,"maksimal":12864,"jakke":12865,"drømmen":12866,"vake":12867,"operatør":12868,"Cecil":12869,"stegj":12870,"males":12871,"ject":12872,"samlivs":12873,"valgene":12874,"progno":12875,"hindret":12876,"samferdsel":12877,"mønstre":12878,"kvalifisering":12879,"Konkurran":12880,"Baby":12881,"LA":12882,"Høst":12883,"palitelig":12884,"universitets":12885,"protest":12886,"korps":12887,"1913":12888,"ters":12889,"GR":12890,"gripe":12891,"bber":12892,"titler":12893,"Josep":12894,"kommisjonen":12895,"hjert":12896,"Venez":12897,"Familien":12898,"YouTube":12899,"forvand":12900,"fremtidig":12901,"Privat":12902,"Shi":12903,"inna":12904,"jenestene":12905,"tverrfaglig":12906,"musikalske":12907,"Kristiansund":12908,"prakt":12909,"feber":12910,"Erling":12911,"læreren":12912,"grensesnitt":12913,"skjule":12914,"anima":12915,"idt":12916,"Stok":12917,"hjørne":12918,"oppfatter":12919,"ople":12920,"selgere":12921,"rd":12922,"OPP":12923,"tyngre":12924,"stinget":12925,"hrine":12926,"frustr":12927,"komplekse":12928,"aria":12929,"Magne":12930,"Wikipedia":12931,"fs":12932,"Turen":12933,"saga":12934,"influ":12935,"bukta":12936,"Stiftelsen":12937,"1935":12938,"skadelig":12939,"Bedre":12940,"Foretak":12941,"komplek":12942,"IO":12943,"mandat":12944,"lyktes":12945,"Mjø":12946,"rommene":12947,"nettleseren":12948,"Grun":12949,"pave":12950,"koder":12951,"borti":12952,"misbruk":12953,"innse":12954,"minutters":12955,"holdende":12956,"keland":12957,"Aar":12958,"ating":12959,"bekrefte":12960,"ology":12961,"opol":12962,"armene":12963,"tøft":12964,"dent":12965,"aktiver":12966,"ated":12967,"utsiden":12968,"prate":12969,"snavn":12970,"postadresse":12971,"seriøs":12972,"ørken":12973,"ungdomsskole":12974,"ingredienser":12975,"spore":12976,"idretten":12977,"passerer":12978,"frykter":12979,"stranda":12980,"kjøringen":12981,"uriktige":12982,"tegnede":12983,"ial":12984,"byraet":12985,"Igjen":12986,"innovative":12987,"----":12988,"grill":12989,"Aud":12990,"kilden":12991,"Vidar":12992,"minus":12993,"Lyng":12994,"smøn":12995,"stillingene":12996,"df":12997,"Kampen":12998,"vokal":12999,"ugi":13000,"tilnærmet":13001,"religiøs":13002,"Bj":13003,"utenlandsk":13004,"edato":13005,"Christiania":13006,"rap":13007,"elevenes":13008,"maksimalt":13009,"Kron":13010,"meters":13011,"utførte":13012,"berørt":13013,"Bran":13014,"heving":13015,"grunne":13016,"Veil":13017,"skadd":13018,"voldtekt":13019,"Dor":13020,"Nordisk":13021,"spesifikt":13022,"fascinerende":13023,"leik":13024,"gevinst":13025,"skrip":13026,"konkurrent":13027,"war":13028,"jæv":13029,"Day":13030,"dekkende":13031,"terrenget":13032,"tilhørte":13033,"rekk":13034,"1934":13035,"1929":13036,"framfor":13037,"aliteter":13038,"utfyl":13039,"Øya":13040,"avdekke":13041,"elaget":13042,"sinne":13043,"holdere":13044,"æs":13045,"enslige":13046,"Sprak":13047,"1932":13048,"beregninger":13049,"Young":13050,"vinkel":13051,"kompati":13052,"1908":13053,"return":13054,"shore":13055,"unngar":13056,"intim":13057,"gjennomgaende":13058,"mannlig":13059,"Senior":13060,"diskusjonen":13061,"skapasitet":13062,"sannhet":13063,"oppstatt":13064,"realisere":13065,"instruktør":13066,"ethvert":13067,"mers":13068,"berørte":13069,"folkehelse":13070,"detaljene":13071,"oppsikt":13072,"varsling":13073,"analysen":13074,"følelsene":13075,"skygge":13076,"!»":13077,"ISO":13078,"vingene":13079,"1814":13080,"Sli":13081,"ending":13082,"personale":13083,"kontrakter":13084,"NN":13085,"Statistisk":13086,"Brei":13087,"elast":13088,"kontant":13089,"polen":13090,"summen":13091,"utroskap":13092,"Madrid":13093,"refusjon":13094,"viking":13095,"alam":13096,"Olymp":13097,"godtgjørelse":13098,"globalt":13099,"xy":13100,"fradrag":13101,"separat":13102,"systemene":13103,"løypa":13104,"arbeidsled":13105,"baren":13106,"melen":13107,"fossen":13108,"Godkjenning":13109,"aksepterer":13110,"inviterte":13111,"SD":13112,"Kommentar":13113,"Gustav":13114,"tenkning":13115,"island":13116,"baker":13117,"mut":13118,"flatt":13119,"Pakistan":13120,"gol":13121,"avkastning":13122,"Stal":13123,"produsentene":13124,"utfordre":13125,"løste":13126,"Slekten":13127,"CH":13128,"massen":13129,"matikken":13130,"konkurransedykt":13131,"isten":13132,"jødene":13133,"strategien":13134,"vey":13135,"Mathi":13136,"megler":13137,"stoffene":13138,"arme":13139,"Haugen":13140,"feiring":13141,"nettbutikken":13142,"dretter":13143,"indi":13144,"platen":13145,"mobiltelefon":13146,"CR":13147,"koll":13148,"menigheten":13149,"Vietnam":13150,"linjene":13151,"Søl":13152,"Old":13153,"bonuser":13154,"makter":13155,"sio":13156,"institusjonene":13157,"traden":13158,"spesifikk":13159,"Johanne":13160,"skand":13161,"Erna":13162,"reng":13163,"prefer":13164,"tørt":13165,"emnet":13166,"integrering":13167,"mattet":13168,"stres":13169,"aktivitetene":13170,"BT":13171,"anker":13172,"did":13173,"Scott":13174,"ruppen":13175,"tish":13176,"Town":13177,"reflektere":13178,"youtube":13179,"Sports":13180,"messen":13181,"norwegian":13182,"ologen":13183,"tennis":13184,"strekke":13185,"hval":13186,"topper":13187,"mum":13188,"utenlands":13189,"evaluer":13190,"satel":13191,"utgivelser":13192,"Human":13193,"Gyl":13194,"akse":13195,"Ville":13196,"svekk":13197,"krysse":13198,"tekstene":13199,"domstolen":13200,"sparken":13201,"karakterer":13202,"itær":13203,"tryggere":13204,"arenaer":13205,"Utover":13206,"stabile":13207,"publisering":13208,"Snø":13209,"musiker":13210,"finansiere":13211,"Stig":13212,"cent":13213,"Skandinavia":13214,"Selvfølgelig":13215,"givelse":13216,"gjeven":13217,"menneskerettigheter":13218,"fylkene":13219,"cking":13220,"skjermer":13221,"særleg":13222,"lakse":13223,"provo":13224,"tilkobling":13225,"tilhenger":13226,"maj":13227,"Hotellet":13228,"sele":13229,"Pic":13230,"skjørt":13231,"ruset":13232,"trøn":13233,"brystet":13234,"vidare":13235,"obligatorisk":13236,"ties":13237,"1921":13238,"Vester":13239,"Mars":13240,"dyrere":13241,"stans":13242,"publiserte":13243,"1890":13244,"ray":13245,"1922":13246,"misly":13247,"møt":13248,"arsakene":13249,"navnene":13250,"vervet":13251,"fraktet":13252,"syrer":13253,"fuglene":13254,"finske":13255,"tilfellene":13256,"døydde":13257,"observasjon":13258,"sovjetiske":13259,"kyrkja":13260,"særlige":13261,"lanserte":13262,"datoer":13263,"kjernen":13264,"Joseph":13265,"Fokus":13266,"Halv":13267,"innstilt":13268,"Bandet":13269,"overbevist":13270,"markere":13271,"pos":13272,"hoff":13273,"Forlagets":13274,"solide":13275,"kjønnslepper":13276,"allag":13277,"forklart":13278,"fiskeri":13279,"Brønn":13280,"Las":13281,"involverte":13282,"Elverum":13283,"formiddag":13284,"journal":13285,"spesialisert":13286,"Trygg":13287,"sprint":13288,"forbedringer":13289,"Amat":13290,"horison":13291,"standardi":13292,"mistanke":13293,"kliniske":13294,"utsikten":13295,"Fug":13296,"knyttes":13297,"sesonger":13298,"IKK":13299,"Opprinn":13300,"utøv":13301,"skjæring":13302,"ubehagelig":13303,"Knud":13304,"Eit":13305,"kles":13306,"lagmanns":13307,"koloni":13308,"Historien":13309,"Vestre":13310,"rocke":13311,"Rana":13312,"førsteklasses":13313,"uan":13314,"hever":13315,"Begyn":13316,"Lor":13317,"kkelt":13318,"turene":13319,"unst":13320,"AA":13321,"fylker":13322,"Kjønn":13323,"beslag":13324,"Life":13325,"reduserte":13326,"RHF":13327,"forbudet":13328,"MIN":13329,"utvendig":13330,"nyter":13331,"Kombin":13332,"Etab":13333,"piano":13334,"uavhengighet":13335,"skreiv":13336,"spraklig":13337,"lags":13338,"alismen":13339,"MED":13340,"brødrene":13341,"samfunnets":13342,"unnskyl":13343,"elimin":13344,"isolasjon":13345,"sho":13346,"suger":13347,"medaljen":13348,"veig":13349,"millimeter":13350,"Leif":13351,"Sent":13352,"Lier":13353,"edager":13354,"fisere":13355,"vender":13356,"protester":13357,"tilhengere":13358,"alfa":13359,"rammene":13360,"gjenta":13361,"1911":13362,"Ungdoms":13363,"Dø":13364,"ksen":13365,"Kry":13366,"stigning":13367,"saft":13368,"times":13369,"kjapt":13370,"bitt":13371,"News":13372,"Cha":13373,"HV":13374,"sløse":13375,"ump":13376,"BBC":13377,"dise":13378,"asser":13379,"soner":13380,"strinn":13381,"tredj":13382,"utkikk":13383,"plattformen":13384,"guvern":13385,"allefall":13386,"moderat":13387,"Times":13388,"bai":13389,"Stjørdal":13390,"spolitikken":13391,"filtr":13392,"inae":13393,"pulver":13394,"kroppens":13395,";-)":13396,"episoder":13397,"forblir":13398,"Evaluering":13399,"agte":13400,"skoene":13401,"figuren":13402,"strukturer":13403,"Imp":13404,"forstyrrelser":13405,"ETT":13406,"Show":13407,"infeksjoner":13408,"Annet":13409,"minnes":13410,"Helgeland":13411,"bomull":13412,"Entre":13413,"foreningens":13414,"prise":13415,"strømmer":13416,"bero":13417,"Ellen":13418,"Gabri":13419,"videos":13420,"løn":13421,"koser":13422,"Jacobsen":13423,"tabl":13424,"oppnadde":13425,"beskrivelsen":13426,"E6":13427,"Chi":13428,"skjold":13429,"dommere":13430,"Stem":13431,"ideelle":13432,"flyttes":13433,"Golf":13434,"virkemiddel":13435,"Abra":13436,"mektige":13437,"ihvertfall":13438,"leses":13439,"Gardermoen":13440,"kvan":13441,"dannes":13442,"1916":13443,"List":13444,"Forbund":13445,"tredjeplass":13446,"kretsen":13447,"busser":13448,"CE":13449,"gevinster":13450,"attest":13451,"Erfar":13452,"stemmene":13453,"politiets":13454,"papirer":13455,"alminnelig":13456,"statsrad":13457,"kampanjer":13458,"Mona":13459,"nærme":13460,"tjue":13461,"publikken":13462,"skjev":13463,"demokratisk":13464,"prostitu":13465,"setnings":13466,"ventilasjon":13467,"Rud":13468,"vorte":13469,"Ler":13470,"piller":13471,"AFP":13472,"1927":13473,"stanse":13474,"Forslaget":13475,"grunnskolen":13476,"amper":13477,"synte":13478,"kontaktannonse":13479,"Kare":13480,"bestillinger":13481,"ingens":13482,"hersker":13483,"Mette":13484,"atia":13485,"scanpix":13486,"forklarte":13487,"angar":13488,"skret":13489,"misk":13490,"inngikk":13491,"oppretter":13492,"legene":13493,"Age":13494,"Apen":13495,"iklene":13496,"skop":13497,"1925":13498,"bankene":13499,"grunnskole":13500,"fell":13501,"Vat":13502,"Kongen":13503,"Cy":13504,"ishockey":13505,"visende":13506,"maleri":13507,"forferdelig":13508,"husdyr":13509,"itteratur":13510,"uføre":13511,"drøyt":13512,"Rid":13513,"teen":13514,"Scanpix":13515,"Daglig":13516,"forsket":13517,"skolel":13518,"pagar":13519,"kristi":13520,"sprin":13521,"innredning":13522,"report":13523,"ernæring":13524,"saus":13525,"geografisk":13526,"seire":13527,"smaken":13528,"uklart":13529,"omstilling":13530,"vang":13531,"Antark":13532,"skinner":13533,"elding":13534,"beregne":13535,"individ":13536,"resterende":13537,"ktorat":13538,"Huset":13539,"normer":13540,"vint":13541,"Matte":13542,"belt":13543,"»).":13544,"kommunestyre":13545,"verst":13546,"Trans":13547,"sponsor":13548,"angir":13549,"bærekraft":13550,"dødelig":13551,"dyrket":13552,"natte":13553,"kloster":13554,"scupen":13555,"?\"":13556,"sliste":13557,"tingen":13558,"gangene":13559,"bian":13560,"løsningene":13561,"Akadem":13562,"tilbudene":13563,"utgivelse":13564,"!\"":13565,"sekretari":13566,"Hotell":13567,"cc":13568,"kjende":13569,"pers":13570,"risikerer":13571,".).":13572,"world":13573,"dannelse":13574,"Siv":13575,"intelle":13576,"strening":13577,"kontrast":13578,"svekket":13579,"Avdeling":13580,"kland":13581,"Ner":13582,"ikes":13583,"bekymringer":13584,"lednings":13585,"kombinasjonen":13586,"Ditt":13587,"revisjons":13588,"Jakten":13589,"SI":13590,"klimag":13591,"viter":13592,"kjeden":13593,"GG":13594,"forstaelsen":13595,"Defin":13596,"landbruks":13597,"departementets":13598,"Materi":13599,"bygningene":13600,"behandlinger":13601,"applikasjoner":13602,"sammenslaing":13603,"symboler":13604,"rykte":13605,"ferdighet":13606,"skompetanse":13607,"Cl":13608,"OB":13609,"Jor":13610,"__":13611,"KJ":13612,"Bull":13613,"на":13614,"foregaende":13615,"Link":13616,"Santa":13617,"inc":13618,"oljen":13619,"flytta":13620,"Tør":13621,"steinen":13622,"deltagelse":13623,"stream":13624,"River":13625,"Deg":13626,"1923":13627,"kommando":13628,"Lom":13629,"halve":13630,"europa":13631,"isolert":13632,"Instit":13633,"temperaturer":13634,"krang":13635,"Levanger":13636,"problematisk":13637,"klæring":13638,"Fon":13639,"fullførte":13640,"saksbehandling":13641,"Hjemme":13642,"slovens":13643,"psykologi":13644,"overens":13645,"helsetil":13646,"jes":13647,"ena":13648,"differen":13649,"enkeltpersoner":13650,"fordøy":13651,"pens":13652,"Nr":13653,"Midtø":13654,"Midtøsten":13655,"bing":13656,"reiseliv":13657,"smodell":13658,"Lunde":13659,"Christop":13660,"verkene":13661,"fas":13662,"bling":13663,"kosty":13664,"krydder":13665,"Heidi":13666,"utnyttet":13667,"opprykk":13668,"Mester":13669,"ytrings":13670,"Cook":13671,"bransjer":13672,"Ringer":13673,"kulturminner":13674,"tilpasning":13675,"kursen":13676,"Cast":13677,"tn":13678,"Teamet":13679,"monu":13680,"Wien":13681,"Sav":13682,"nederlandske":13683,"kortene":13684,"baller":13685,"dyret":13686,"avslørt":13687,"kommunes":13688,"Lokal":13689,"GB":13690,"lekker":13691,"grove":13692,"andra":13693,"Sistnevnte":13694,"henting":13695,"snor":13696,"Leverand":13697,"Ala":13698,"korrespon":13699,"bs":13700,"air":13701,"Lee":13702,"impul":13703,"opposisjon":13704,"Bl":13705,"iører":13706,"][":13707,"formula":13708,"semifinalen":13709,"Stian":13710,"Klasse":13711,"svømming":13712,"gjere":13713,"ortod":13714,"fortvil":13715,"usikre":13716,"kontrover":13717,"smale":13718,"fors":13719,"utre":13720,"forlater":13721,"lignet":13722,"hie":13723,"forestillingen":13724,"scorer":13725,"hypo":13726,"Personlig":13727,"forbehold":13728,"anony":13729,"insekter":13730,"antrekk":13731,"1100":13732,"kjøpere":13733,"funksjons":13734,"Athen":13735,"360":13736,"bokstaver":13737,"sarbeid":13738,"VAR":13739,"pikk":13740,"grunnlegger":13741,"energien":13742,"ALL":13743,"alternativene":13744,"DEL":13745,"flyktet":13746,"cruise":13747,"foruten":13748,"innebære":13749,"Hardanger":13750,"sarbare":13751,"blande":13752,"rand":13753,"føreren":13754,"innvirkning":13755,"HE":13756,"konklusjon":13757,"Steinar":13758,"følelses":13759,"Cli":13760,"kretser":13761,"universet":13762,"pels":13763,"kulturell":13764,"vies":13765,"kassen":13766,"innledet":13767,"nerv":13768,"etappe":13769,"mete":13770,"smykker":13771,"Vinner":13772,"oppdateres":13773,"respektive":13774,"flasker":13775,"ungar":13776,"ulære":13777,"Trenger":13778,"merverdi":13779,"Dist":13780,"ksu":13781,"1931":13782,"ligste":13783,"bidragsy":13784,"Forrige":13785,"Hvit":13786,"offisiell":13787,"begrunnet":13788,"elege":13789,"Vanligvis":13790,"leiet":13791,"bestilte":13792,"øvelsene":13793,"Rau":13794,"troller":13795,"sensor":13796,"Klima":13797,"katter":13798,"Robin":13799,"mingen":13800,"leken":13801,"klippe":13802,"SFO":13803,"ст":13804,"verda":13805,"Arena":13806,"verter":13807,"etnisk":13808,"kunstig":13809,"Logg":13810,"Røros":13811,"Phot":13812,"Vit":13813,"tort":13814,"sjene":13815,"fengslet":13816,"Endre":13817,"pedagogiske":13818,"asfalt":13819,"rettslig":13820,"wal":13821,"Trine":13822,"mond":13823,"nyhetsbrev":13824,"takker":13825,"fjorarets":13826,"rettslige":13827,"blet":13828,"elektrisitet":13829,"redskap":13830,"Heller":13831,"betegnelse":13832,"utviklingshem":13833,"ytelser":13834,"Est":13835,"kvele":13836,"dømes":13837,"utbyggingen":13838,"1400":13839,"flinkere":13840,"medførte":13841,"fryktelig":13842,"utbygg":13843,"FOTO":13844,"aspekter":13845,"forega":13846,"orth":13847,"beboere":13848,"Bedri":13849,"Personer":13850,"tilstander":13851,"observer":13852,"Okt":13853,"kvaliteter":13854,"ovnen":13855,"metal":13856,"forsking":13857,"volley":13858,"æres":13859,"aldre":13860,"dringene":13861,"Arbeidsgiver":13862,"ignor":13863,"sittet":13864,"cra":13865,"sles":13866,"frekven":13867,"undersøkelsene":13868,"alia":13869,"Bot":13870,"lønner":13871,"pist":13872,"she":13873,"bestanden":13874,"fastsettes":13875,"sjubile":13876,"beregnes":13877,"forsikre":13878,"Rot":13879,"rollene":13880,"spur":13881,"regionalt":13882,"Seksjon":13883,"inal":13884,"fikasjon":13885,"skapes":13886,"avgjøres":13887,"økter":13888,"tat":13889,"utslag":13890,"administrasjons":13891,"Hare":13892,"dul":13893,"Tit":13894,"potensielt":13895,"sprodukter":13896,"Pettersen":13897,"ethe":13898,"mellomtiden":13899,"ampen":13900,"1926":13901,"alarm":13902,"enhetene":13903,"dry":13904,"kronisk":13905,"Sønn":13906,"pli":13907,"max":13908,"byrakr":13909,"asy":13910,"utbetaling":13911,"sjo":13912,"geografiske":13913,"Forskj":13914,"Nielsen":13915,"aldrende":13916,"attraktiv":13917,"tlf":13918,"trøtt":13919,"svarene":13920,"farg":13921,"adder":13922,"festning":13923,"Ax":13924,"Forsvarets":13925,"oro":13926,"porter":13927,"bevisste":13928,"Lyd":13929,"Forskrift":13930,"statur":13931,"Road":13932,"komponist":13933,"maneders":13934,"faser":13935,"konstruert":13936,"studium":13937,"Grønland":13938,"vinger":13939,"ettermiddagen":13940,"Bonde":13941,"Minne":13942,"herrer":13943,"PRO":13944,"elve":13945,"Sørlandet":13946,"Mennesker":13947,"yting":13948,"dramatiske":13949,"manske":13950,"ssekretær":13951,"latte":13952,"overkant":13953,"terapeut":13954,"kosten":13955,"tantra":13956,"beun":13957,"kjemikal":13958,"Kommunikasjon":13959,"Myr":13960,"1300":13961,"folketryg":13962,"Effek":13963,"ivaretar":13964,"skulder":13965,"registreres":13966,"splay":13967,"dumt":13968,"andet":13969,"kalk":13970,"tekstil":13971,"Behandling":13972,"Lake":13973,"studert":13974,"beskrev":13975,"forsinket":13976,"snarere":13977,"Isak":13978,"savidt":13979,"misjons":13980,"spraksis":13981,"basket":13982,"foretar":13983,"1907":13984,"Gleder":13985,"adet":13986,"dump":13987,"definerer":13988,"glemmer":13989,"tokoll":13990,"flørte":13991,"Enkelt":13992,"tildeles":13993,"Argentina":13994,"sorti":13995,"Helsedirektoratet":13996,"tilbrakte":13997,"graver":13998,"budd":13999,"tilsendt":14000,"kombinasjoner":14001,"lid":14002,"forsikrings":14003,"kondi":14004,"Isra":14005,"prepar":14006,"Silje":14007,"naboer":14008,"had":14009,"HEL":14010,"evaku":14011,"presten":14012,"framtid":14013,"Helene":14014,"tromsø":14015,"diagnosen":14016,"assistent":14017,"Kyr":14018,"gaste":14019,"overhodet":14020,"anlagt":14021,"seiret":14022,"shall":14023,"doping":14024,"Kommunestyret":14025,"hastig":14026,"skipene":14027,"Astrid":14028,"Yr":14029,"Foreldre":14030,"1880":14031,"markerte":14032,"Bard":14033,"innhente":14034,"intellekt":14035,"høyskolen":14036,"konged":14037,"gd":14038,"Romania":14039,"Aas":14040,"leseren":14041,"romantiske":14042,"pedagogikk":14043,"egges":14044,"leverandøren":14045,"Download":14046,"stemmen":14047,"pdf":14048,"diktet":14049,"Hvilken":14050,"ovn":14051,"Justin":14052,"Research":14053,"orkester":14054,"oljer":14055,"Chris":14056,"identifisert":14057,"kopiere":14058,"Games":14059,"indisk":14060,"hylle":14061,"ew":14062,"utvil":14063,"kus":14064,":-":14065,"oppgra":14066,"power":14067,"singelen":14068,"stemp":14069,"strender":14070,"anleggene":14071,"funksjonsevne":14072,"massevis":14073,"programmene":14074,"dotter":14075,"spøk":14076,"temaene":14077,"sint":14078,"radets":14079,"oks":14080,"mønsteret":14081,"senke":14082,"myt":14083,"belegg":14084,"avklart":14085,"salderen":14086,"Meg":14087,"flybilletter":14088,"stokk":14089,"DU":14090,"utgivelsen":14091,"pornofilmer":14092,"merte":14093,"RS":14094,"novelle":14095,"fins":14096,"Fortsatt":14097,"porten":14098,"ruppe":14099,"formula_":14100,"tingrett":14101,"Berit":14102,"tics":14103,"Oslos":14104,"soverom":14105,"landbruket":14106,"Garden":14107,"risme":14108,"synspunkter":14109,"kommunalt":14110,"omfattes":14111,"Margr":14112,"fitt":14113,"kongelige":14114,"teoretisk":14115,"1915":14116,"nøkkelen":14117,"afrikanske":14118,"Xxx":14119,"brosj":14120,"familiens":14121,"eiendeler":14122,"coin":14123,"fornuft":14124,"fysioter":14125,"Fry":14126,"innsjøen":14127,"handlingene":14128,"Ker":14129,"egyp":14130,"kering":14131,"125":14132,"1904":14133,"avsløre":14134,"pinne":14135,"Your":14136,"Camilla":14137,"forbryt":14138,"temmelig":14139,"1906":14140,"poteter":14141,"fjella":14142,"any":14143,"andeler":14144,"Oppdrag":14145,"hvitløk":14146,"erklæring":14147,"elly":14148,"Stord":14149,"drapet":14150,"utfordrer":14151,"Porsgrunn":14152,"Være":14153,"otum":14154,"Formannskapet":14155,"ira":14156,"vandre":14157,"ular":14158,"DC":14159,"adel":14160,"skaden":14161,"løype":14162,"trend":14163,"bebyggelse":14164,"fantasier":14165,"redigere":14166,"forstaelig":14167,"Linda":14168,"presentant":14169,"tettere":14170,"Konser":14171,"INN":14172,"Radmannen":14173,"Texas":14174,"forme":14175,"Edward":14176,"rettede":14177,"esi":14178,"smelding":14179,"foretaket":14180,"simp":14181,"universell":14182,"ttak":14183,"Water":14184,"gid":14185,"forman":14186,"ullet":14187,"...]":14188,"oppfinn":14189,"inspek":14190,"Helen":14191,"urch":14192,"tunnelen":14193,"sklasse":14194,"enkleste":14195,",-.":14196,"Bit":14197,"tang":14198,"Herman":14199,"hjemmek":14200,"Beach":14201,"visstnok":14202,"rival":14203,"realiteten":14204,"vedtekt":14205,"krim":14206,"sprer":14207,"synger":14208,"Serien":14209,"Krog":14210,"tarnet":14211,"Bid":14212,"utvinning":14213,"uld":14214,"FT":14215,"tilfredshet":14216,"​​":14217,"main":14218,"romersk":14219,"abonnement":14220,"avisene":14221,"beret":14222,"fødd":14223,"stang":14224,"rit":14225,"egenkapital":14226,"Sola":14227,"undersøker":14228,"Faren":14229,"arbeidsgivere":14230,"komfortabelt":14231,"ova":14232,"ssist":14233,"ansettelse":14234,"Ash":14235,"medika":14236,"harete":14237,"oppfører":14238,"skøyter":14239,"diameter":14240,"sertifisert":14241,"Arkite":14242,"Stille":14243,"skriftlige":14244,"sjarmerende":14245,"symptomene":14246,"kristians":14247,"aven":14248,"m2":14249,"ftene":14250,"milliard":14251,"mog":14252,"samvær":14253,"sirkel":14254,"tolke":14255,"NSB":14256,"medium":14257,"Pier":14258,"skulen":14259,"amor":14260,"krevd":14261,"taper":14262,"DVD":14263,"Clin":14264,"Fs":14265,"ÆR":14266,"ekso":14267,"Market":14268,"ladi":14269,"drikk":14270,"emp":14271,"aliseringen":14272,"Rak":14273,"SIN":14274,"FS":14275,"erobret":14276,"velkjente":14277,"amt":14278,"MØ":14279,"iseringen":14280,"baksiden":14281,"ktive":14282,"anbefalte":14283,"spesialister":14284,"styremøte":14285,"rettferdighet":14286,"øko":14287,"referanser":14288,"stegn":14289,"forvalter":14290,"hakk":14291,"More":14292,"retnings":14293,"Brown":14294,"kirkens":14295,"spersoner":14296,"Ross":14297,"likasjoner":14298,"prioritet":14299,"Aldri":14300,"Gutt":14301,"ole":14302,"Gau":14303,"enestaende":14304,"kid":14305,"optimalisering":14306,"utkast":14307,"Tommy":14308,"Stab":14309,"Fjord":14310,"Bedrift":14311,"Snak":14312,"vasket":14313,"arsverk":14314,"utøve":14315,"avhør":14316,"portugi":14317,"MP":14318,"strom":14319,"konservative":14320,"innrømmer":14321,"Natt":14322,"jury":14323,"MI":14324,"Nakne":14325,"tredende":14326,"fiender":14327,"etta":14328,"Foreningen":14329,":.":14330,"Malt":14331,"tonen":14332,"mineral":14333,"room":14334,"rupper":14335,"etableringen":14336,"Halvorsen":14337,"amme":14338,"somradene":14339,"antikken":14340,"Antarktis":14341,"greide":14342,"nasjonalpark":14343,"LP":14344,"talende":14345,"Ulike":14346,"avstanden":14347,"escorts":14348,"binde":14349,"utland":14350,"kogni":14351,"tidvis":14352,"Ok":14353,"Voss":14354,"psene":14355,"fedre":14356,"Company":14357,"Lene":14358,"anbefaling":14359,"fordelingen":14360,"fiskere":14361,"Felle":14362,"trender":14363,"Lig":14364,"Ye":14365,"løping":14366,"reagere":14367,"profesjonelt":14368,"Israels":14369,"emarked":14370,"hager":14371,"Cel":14372,"absor":14373,"cat":14374,"komment":14375,"arbeiderne":14376,"innledende":14377,"innfri":14378,"skrik":14379,"tiltrekke":14380,"søkemotor":14381,"krenk":14382,"retor":14383,"etasjer":14384,"diagnost":14385,"panne":14386,"aksjene":14387,"tolkning":14388,"kelige":14389,"iro":14390,"Skol":14391,"bøndene":14392,"Barnet":14393,"innpa":14394,"oppsøke":14395,"tarm":14396,"fjernsyn":14397,"innførte":14398,"ous":14399,"Foreløpig":14400,"selvstendige":14401,"UiO":14402,"Mik":14403,"oppgang":14404,"utøverne":14405,"etniske":14406,"alls":14407,"ansvars":14408,"lokalene":14409,"mild":14410,"rapportere":14411,"radgivere":14412,"tjente":14413,"Gard":14414,"Eksp":14415,"Bag":14416,"Presen":14417,"ffekt":14418,"tw":14419,"rustet":14420,"omstendig":14421,"splikten":14422,"kuk":14423,"samvittighet":14424,"hensikten":14425,"Chicago":14426,"ib":14427,"ommun":14428,"kirurgi":14429,"prinsesse":14430,"inerer":14431,"ORT":14432,"Sosial":14433,"sunne":14434,"promo":14435,"sprø":14436,"email":14437,"avholdes":14438,"kunstnerisk":14439,"telle":14440,"egnes":14441,"HET":14442,"matlag":14443,"Sentr":14444,"atmosfæren":14445,"svenn":14446,"onsult":14447,"russer":14448,"etterkommer":14449,"nærmet":14450,"omi":14451,"glans":14452,"aksjek":14453,"overvel":14454,"Maten":14455,"grovt":14456,"tenkelige":14457,"tante":14458,"faktur":14459,"topps":14460,"overnattings":14461,"Union":14462,"klikker":14463,"patri":14464,"attraktivt":14465,"geby":14466,"omtalte":14467,"Resultat":14468,"ikter":14469,"bedrifts":14470,"spilling":14471,"Munch":14472,"seksjonen":14473,"konfron":14474,"ambulanse":14475,"rapporterer":14476,"traly":14477,"Gli":14478,"hjemmesiden":14479,"resjon":14480,"bassenget":14481,"Mos":14482,"tidenes":14483,"Colum":14484,"tech":14485,"foreldr":14486,"nekte":14487,"meta":14488,"oppførte":14489,"Fager":14490,"høyttal":14491,"about":14492,"hengt":14493,"Maskin":14494,"bloggere":14495,"vister":14496,"skjeg":14497,"Nation":14498,"utbetalt":14499,"rekkevidde":14500,"Polar":14501,"egget":14502,"femin":14503,"midlertidige":14504,"Chelse":14505,"østerrik":14506,"vingen":14507,"Nikola":14508,"ingrediens":14509,"Sort":14510,"matem":14511,"betinget":14512,"prinsippene":14513,"Cro":14514,"Abraham":14515,"fritak":14516,"Pay":14517,"onotum":14518,"hekk":14519,"pynte":14520,"Forvalt":14521,"publisere":14522,"Markeds":14523,"standere":14524,"fylkesvei":14525,"salat":14526,"Slett":14527,"lerte":14528,"mynt":14529,"lokk":14530,"Filipp":14531,"Sofie":14532,"eksponering":14533,"Kapittel":14534,"igt":14535,"Organisasjonen":14536,"sertifik":14537,"viktigst":14538,"Ago":14539,"svarende":14540,"balansert":14541,"Eu":14542,"følgje":14543,",»":14544,"kvote":14545,"byrja":14546,"This":14547,"portal":14548,"Sikkerhet":14549,"pok":14550,"rikelig":14551,"Idag":14552,"justert":14553,"Handball":14554,"skjebne":14555,"Professor":14556,"betjent":14557,"Bom":14558,"komprom":14559,"svekst":14560,"orn":14561,"kobber":14562,"Kate":14563,"lukke":14564,"netter":14565,"ambisi":14566,"varende":14567,"Barents":14568,"Klubb":14569,"Mas":14570,"generalsekretær":14571,"Wen":14572,"MT":14573,"romaner":14574,"kompis":14575,"dern":14576,"nyheten":14577,"ovennevnte":14578,"teorier":14579,"Befolk":14580,"Mulig":14581,"raket":14582,"alando":14583,"Mangler":14584,"trenden":14585,"screen":14586,"plattformer":14587,"antakelig":14588,"støn":14589,"agenda":14590,"oppdretter":14591,"ween":14592,"Enter":14593,"renten":14594,"sev":14595,"dispon":14596,"aden":14597,"hjemmebane":14598,"fabrikker":14599,"holdenhet":14600,"Grimstad":14601,"DI":14602,"Lett":14603,"his":14604,"Ove":14605,"ungdommen":14606,"helsetjenester":14607,"gjenopprette":14608,"omstendigheter":14609,"foresla":14610,"iPad":14611,"umiddelbar":14612,"Orden":14613,"oppnas":14614,"presti":14615,"cin":14616,"klient":14617,"bukker":14618,"Størr":14619,"auten":14620,"eksperiment":14621,"inkluderende":14622,"vinnere":14623,"reform":14624,"rekla":14625,"hørsel":14626,"Junior":14627,"kuttet":14628,"rol":14629,"brus":14630,"nøtter":14631,"brødre":14632,"sakkyn":14633,"body":14634,"visi":14635,"nade":14636,"gjenværende":14637,"Put":14638,"dering":14639,"Tekst":14640,"drøft":14641,"Obama":14642,"disposisjon":14643,"Watch":14644,"zar":14645,"Staten":14646,"utbrudd":14647,"paragra":14648,"feransen":14649,"samtid":14650,"ily":14651,"broen":14652,"Kop":14653,"1909":14654,"talene":14655,"sjømat":14656,"forsterket":14657,"oral":14658,"unne":14659,"slovak":14660,"fargerike":14661,"utvilsomt":14662,"Fli":14663,"katedr":14664,"hugg":14665,"etterforskning":14666,"ра":14667,"sannsynligheten":14668,"smug":14669,"betraktelig":14670,"sløpet":14671,"rare":14672,"Restaur":14673,"tegner":14674,"tomme":14675,"Hauge":14676,"merkes":14677,"Gram":14678,"egister":14679,"dad":14680,"heder":14681,"utfordret":14682,"bridge":14683,"rekruttere":14684,"emi":14685,"Poker":14686,"elegant":14687,"hygiene":14688,"søkeren":14689,"spenningen":14690,"dritt":14691,"Jones":14692,"Stan":14693,"Hom":14694,"svakere":14695,"anvendes":14696,"sjangeren":14697,"kollegaer":14698,"dition":14699,"Wales":14700,"cli":14701,"Paulus":14702,"Haha":14703,"musklene":14704,"slottet":14705,"varmere":14706,"kapell":14707,
[...]
