[PAD]
[unused0]
[unused1]
[unused2]
[unused3]
[unused4]
[unused5]
[unused6]
[unused7]
[unused8]
[unused9]
[unused10]
[unused11]
[unused12]
[unused13]
[unused14]
[unused15]
[unused16]
[unused17]
[unused18]
[unused19]
[unused20]
[unused21]
[unused22]
[unused23]
[unused24]
[unused25]
[unused26]
[unused27]
[unused28]
[unused29]
[unused30]
[unused31]
[unused32]
[unused33]
[unused34]
[unused35]
[unused36]
[unused37]
[unused38]
[unused39]
[unused40]
[unused41]
[unused42]
[unused43]
[unused44]
[unused45]
[unused46]
[unused47]
[unused48]
[unused49]
[unused50]
[unused51]
[unused52]
[unused53]
[unused54]
[unused55]
[unused56]
[unused57]
[unused58]
[unused59]
[unused60]
[unused61]
[unused62]
[unused63]
[unused64]
[unused65]
[unused66]
[unused67]
[unused68]
[unused69]
[unused70]
[unused71]
[unused72]
[unused73]
[unused74]
[unused75]
[unused76]
[unused77]
[unused78]
[unused79]
[unused80]
[unused81]
[unused82]
[unused83]
[unused84]
[unused85]
[unused86]
[unused87]
[unused88]
[unused89]
[unused90]
[unused91]
[unused92]
[unused93]
[unused94]
[unused95]
[unused96]
[unused97]
[unused98]
[unused99]
[UNK]
[CLS]
[SEP]
[MASK]
##!
##"
###
##$
##%
##&
##'
##(
##)
##*
##+
##,
##-
##.
##/
##0
##1
##2
##3
##4
##5
##6
##7
##8
##9
##:
##;
##=
##?
##@
##A
##B
##C
##D
##E
##F
##G
##H
##I
##J
##K
##L
##M
##N
##O
##P
##Q
##R
##S
##T
##U
##V
##W
##X
##Y
##Z
##[
##\
##]
##^
##_
##`
##a
##b
##c
##d
##e
##f
##g
##h
##i
##j
##k
##l
##m
##n
##o
##p
##q
##r
##s
##t
##u
##v
##w
##x
##y
##z
##{
##|
##}
##~
##¡
##£
##§
##¨
##«
##¬
##­
##®
##¯
##°
##±
##²
##³
##´
##µ
##·
##¹
##º
##»
##¼
##½
##¾
##Æ
##Ð
##×
##Ø
##Þ
##ß
##æ
##ð
##÷
##ø
##þ
##Đ
##đ
##Ħ
##ħ
##ı
##Ł
##ł
##ŋ
##Œ
##œ
##Ə
##ɐ
##ɑ
##ɒ
##ɔ
##ɕ
##ə
##ɛ
##ɡ
##ɨ
##ɪ
##ɾ
##ʀ
##ʁ
##ʃ
##ʊ
##ʌ
##ʒ
##ʔ
##ʰ
##ʲ
##ʹ
##ʻ
##ʼ
##ʾ
##ʿ
##ˈ
##ˌ
##ː
##˚
##Α
##Β
##Γ
##Δ
##Ε
##Ζ
##Η
##Θ
##Ι
##Κ
##Λ
##Μ
##Ν
##Ο
##Π
##Ρ
##Σ
##Τ
##Υ
##Φ
##Χ
##Ψ
##Ω
##α
##β
##γ
##δ
##ε
##ζ
##η
##θ
##ι
##κ
##λ
##μ
##ν
##ξ
##ο
##π
##ρ
##ς
##σ
##τ
##υ
##φ
##χ
##ψ
##ω
##І
##Ј
##А
##Б
##В
##Г
##Д
##Е
##Ж
##З
##И
##К
##Л
##М
##Н
##О
##П
##Р
##С
##Т
##У
##Ф
##Х
##Ц
##Ч
##Ш
##Э
##Ю
##Я
##а
##б
##в
##г
##д
##е
##ж
##з
##и
##к
##л
##м
##н
##о
##п
##р
##с
##т
##у
##ф
##х
##ц
##ч
##ш
##щ
##ъ
##ы
##ь
##э
##ю
##я
##і
##ј
##љ
##њ
##ћ
##џ
##қ
##ү
##ә
##ө
##Ա
##Լ
##Հ
##Մ
##Ս
##ա
##բ
##գ
##դ
##ե
##զ
##թ
##ի
##լ
##կ
##ղ
##մ
##յ
##ն
##շ
##ո
##ռ
##ս
##վ
##տ
##ր
##ւ
##ք
##א
##ב
##ג
##ד
##ה
##ו
##ז
##ח
##ט
##י
##כ
##ל
##ם
##מ
##ן
##נ
##ס
##ע
##ף
##פ
##צ
##ק
##ר
##ש
##ת
##ء
##ا
##ب
##ة
##ت
##ث
##ج
##ح
##خ
##د
##ذ
##ر
##ز
##س
##ش
##ص
##ض
##ط
##ظ
##ع
##غ
##ـ
##ف
##ق
##ك
##ل
##م
##ن
##ه
##و
##ى
##ي
##پ
##چ
##ژ
##ک
##گ
##ھ
##ہ
##ۆ
##ی
##ێ
##ە
##ܐ
##ܘ
##ܝ
##ܪ
##अ
##क
##ग
##च
##ज
##ट
##ड
##ण
##त
##द
##ध
##न
##प
##ब
##भ
##म
##य
##र
##ल
##व
##श
##ष
##स
##ह
##॥
##ক
##জ
##ত
##দ
##ন
##ব
##ম
##য
##র
##ল
##ਅ
##ਆ
##ਕ
##ਖ
##ਗ
##ਜ
##ਣ
##ਤ
##ਦ
##ਨ
##ਪ
##ਮ
##ਰ
##ਲ
##ਵ
##ਸ
##ਹ
##க
##ச
##ட
##த
##ன
##ப
##ம
##ர
##வ
##ల
##ก
##ค
##ง
##จ
##ช
##ด
##ต
##ท
##น
##บ
##ป
##พ
##ม
##ย
##ร
##ล
##ว
##ส
##ห
##อ
##ะ
##า
##เ
##་
##།
##ཀ
##ག
##ང
##ཆ
##ད
##ན
##པ
##བ
##མ
##འ
##ར
##ལ
##ས
##ა
##ბ
##გ
##დ
##ე
##ვ
##ზ
##თ
##ი
##კ
##ლ
##მ
##ნ
##ო
##პ
##რ
##ს
##ტ
##უ
##ფ
##ქ
##ყ
##შ
##ც
##ძ
##წ
##ხ
##ᄀ
##ᄂ
##ᄃ
##ᄅ
##ᄆ
##ᄇ
##ᄉ
##ᄋ
##ᄌ
##ᄎ
##ᄏ
##ᄐ
##ᄑ
##ᄒ
##ᅡ
##ᅢ
##ᅣ
##ᅥ
##ᅦ
##ᅧ
##ᅨ
##ᅩ
##ᅪ
##ᅬ
##ᅭ
##ᅮ
##ᅯ
##ᅱ
##ᅲ
##ᅳ
##ᅴ
##ᅵ
##ᆨ
##ᆫ
##ᆯ
##ᆷ
##ᆸ
##ᆺ
##ᆼ
##ᚢ
##ᚦ
##ᚱ
##ᚴ
##ᚾ
##ᛁ
##ᛅ
##ᛋ
##ᛏ
##᛫
##រ
##​
##‌
##‎
##‐
##‑
##–
##—
##‘
##’
##“
##”
##„
##†
##•
##…
##‰
##′
##″
##€
##℃
##ℓ
##№
##™
##⅓
##→
##∂
##∇
##∈
##−
##√
##∞
##≈
##≤
##≥
##⋅
##─
##│
##└
##├
##●
##★
##♠
##♥
##♭
##♯
##⟨
##⟩
##い
##う
##か
##き
##し
##た
##と
##の
##り
##ん
##ア
##イ
##ウ
##カ
##キ
##ク
##コ
##サ
##シ
##ス
##タ
##ッ
##テ
##ト
##ハ
##ヒ
##フ
##ホ
##マ
##ラ
##リ
##ル
##レ
##ロ
##ン
##・
##ー
##一
##丁
##七
##万
##三
##上
##下
##世
##东
##中
##丰
##临
##主
##义
##之
##乌
##乐
##九
##乡
##二
##云
##五
##井
##京
##人
##仁
##仙
##代
##伊
##会
##佛
##依
##保
##信
##元
##光
##克
##八
##公
##六
##兰
##关
##兴
##内
##军
##农
##凤
##刘
##利
##前
##劉
##力
##加
##勒
##化
##北
##区
##十
##千
##华
##南
##博
##卡
##原
##县
##双
##口
##古
##台
##司
##合
##吉
##同
##后
##吴
##周
##和
##哈
##唐
##嘉
##嘎
##四
##回
##团
##园
##国
##图
##國
##土
##地
##场
##址
##坊
##坑
##坝
##坡
##坪
##城
##堂
##堡
##塔
##塘
##士
##夏
##多
##大
##天
##太
##头
##女
##如
##子
##字
##孝
##学
##學
##宁
##安
##宋
##宗
##官
##定
##宝
##家
##富
##寨
##寺
##小
##尔
##尖
##尼
##居
##屯
##山
##屿
##岗
##岛
##岩
##岭
##峰
##島
##川
##州
##工
##巴
##市
##布
##帝
##干
##平
##年
##广
##庄
##庆
##库
##店
##庙
##府
##康
##建
##式
##张
##張
##彦
##徐
##德
##心
##成
##所
##扎
##拉
##政
##教
##文
##斯
##新
##方
##族
##旗
##日
##昌
##明
##星
##春
##普
##景
##曲
##會
##月
##朝
##木
##本
##朱
##机
##李
##村
##来
##杨
##東
##松
##林
##果
##查
##柳
##树
##株
##根
##格
##桃
##桑
##桥
##梁
##梅
##楼
##横
##正
##武
##毛
##民
##水
##永
##汉
##江
##池
##沙
##沟
##河
##治
##泉
##法
##波
##洋
##洛
##洞
##津
##洪
##洲
##流
##浦
##海
##清
##渡
##港
##湖
##湾
##源
##溪
##满
##滩
##漢
##潭
##灣
##热
##牛
##物
##特
##玉
##王
##玛
##珠
##理
##瓦
##生
##田
##甲
##界
##白
##百
##皇
##真
##石
##社
##神
##福
##秀
##秦
##空
##立
##章
##竹
##經
##红
##纳
##罗
##羅
##羊
##美
##群
##義
##老
##胜
##胡
##自
##良
##花
##苏
##苗
##英
##茶
##草
##華
##营
##藏
##虎
##行
##街
##西
##角
##谷
##赵
##路
##车
##达
##连
##通
##道
##遗
##那
##郎
##部
##郭
##都
##里
##野
##金
##铁
##铺
##错
##镇
##長
##长
##門
##门
##阳
##阿
##陈
##院
##陵
##隆
##雄
##雅
##集
##雪
##青
##音
##顶
##风
##香
##馬
##马
##高
##鲁
##麻
##黄
##黑
##龙
##en
##er
##ar
##an
##et
##st
##or
##in
##de
##om
##at
##li
##ed
##al
##il
##sk
##ra
##av
##den
##on
##og
##un
##re
##ch
##ing
##el
##och
##for
##kt
##am
##te
##le
##la
##med
##and
##som
##der
##lig
##ri
##ste
##ter
##var
##ol
##til
##it
##del
##pa
##ov
##ur
##ord
##sta
##ig
##va
##be
##19
##per
##is
##eter
##se
##ut
##Den
##det
##da
##att
##man
##na
##op
##land
##sa
##gen
##ning
##es
##ik
##us
##ma
##id
##ger
##ud
##me
##eder
##ot
##ck
##isk
##inn
##sn
##sen
##men
##kten
##ber
##sp
##ran
##are
##art
##ler
##bord
##han
##ederbord
##itt
##od
##ta
##ne
##ver
##20
##over
##of
##mm
##ru
##ion
##tem
##ga
##under
##meter
##ke
##ett
##ble
##har
##pr
##ska
##sam
##ul
##run
##fe
##atur
##till
##rakten
##hu
##as
##ør
##jen
##ster
##ad
##km
##temper
##ia
##all
##iv
##ade
##ge
##sy
##kom
##medel
##aturen
##aden
##temperaturen
##ingar
##medeltemperaturen
##sla
##In
##vud
##huvud
##fra
##snitt
##Ar
##manaden
##ligger
##van
##omsnitt
##hav
##nederbord
##os
##em
##reg
##lan
##rev
##af
##ok
##pp
##stor
##ari
##finn
##ser
##18
##tr
##ue
##des
##by
##sj
##trakten
##fam
##finns
##kan
##kil
##mat
##tor
##fol
##ktet
##jan
##um
##ir
##Det
##Li
##ometer
##ost
##skrev
##kilometer
##kal
##opp
##dr
##nar
##famil
##mar
##si
##runt
##arter
##familjen
##delen
##het
##maste
##gan
##landet
##ens
##kon
##atal
##slaktet
##Han
##beskrev
##ic
##ag
##havet
##ust
##ene
##beskrevs
##lista
##underarter
##Life
##atalog
##ve
##Catalog
##Catalogue
##staden
##Inga
##ug
##listade
##00
##ær
##mer
##mil
##kalla
##son
##ind
##sl
##ka
##iga
##bru
##ske
##nord
##eller
##huvudstaden
##ju
##ba
##ist
##br
##sin
##folk
##ort
##he
##200
##mun
##ere
##fl
##kva
##regn
##ock
##fter
##ha
##tal
##ann
##Gen
##invan
##ien
##milli
##blev
##tid
##ell
##invanare
##janu
##je
##ven
##vast
##lag
##yr
##Ars
##Arsmedeltemperaturen
##varmaste
##kallaste
##syd
##drat
##yt
##kvadrat
##ten
##igaste
##kvadratkilometer
##millimeter
##raste
##genomsnitt
##før
##omsnittlig
##sak
##arsn
##torraste
##Genomsnittlig
##arsnederbord
##regnigaste
##arna
##limat
##nor
##vax
##ande
##fran
##ro
##januari
##An
##vid
##ala
##bor
##lit
##bet
##La
##gar
##hol
##juli
##pl
##ling
##ation
##201
##ker
##befolk
##iske
##St
##kr
##giv
##ved
##dt
##unt
##ft
##sig
##kl
##vil
##mot
##eg
##kommun
##ub
##ang
##vis
##iska
##ovin
##upp
##hi
##hog
##hal
##byg
##ende
##skap
##ent
##ks
##berg
##).
##ember
##heten
##net
##ket
##De
##di
##199
##ant
##ss
##rader
##ken
##ugust
##ab
##fø
##ak
##get
##huvudsak
##ier
##sjon
##pun
##ds
##Al
##yn
##provin
##par
##vi
##bar
##august
##efter
##Trakten
##oder
##ob
##gs
##fi
##min
##les
##rangen
##Ch
##gra
##lige
##uni
##En
##provinsen
##val
##ti
##kun
##jer
##ce
##tet
##198
##stat
##star
##dra
##narheten
##mal
##red
##17
##ningen
##".
##to
##jon
##kri
##etter
##ingen
##jar
##klimat
##far
##spel
##gi
##hogsta
##tra
##ek
##ogsa
##ner
##197
##),
##",
##fa
##Ter
##yl
##amp
##ill
##Runt
##skri
##im
##ionen
##augusti
##ap
##her
##punkten
##ikk
##befolkat
##ater
##dar
##ny
##ie
##sten
##ty
##ou
##gr
##bli
##ina
##oc
##ningarna
##gj
##196
##hel
##Un
##radet
##kar
##ana
##tre
##pre
##Terrangen
##ry
##ikke
##mel
##grun
##po
##gt
##oster
##cen
##mark
##øy
##febru
##givningarna
##talet
##skog
##slut
##ige
##vatt
##hen
##Nor
##ale
##und
##io
##ogra
##ligt
##rit
##Jo
##bo
##alt
##juni
##Pa
##las
##nam
##str
##ein
##For
##gel
##16
##bland
##Le
##Nar
##sydost
##bil
##15
##sep
##fram
##tva
##ku
##ans
##fin
##Ma
##hans
##vor
##seg
##hus
##ly
##sø
##hor
##fil
##ex
##iet
##okt
##194
##ober
##195
##nes
##uk
##fler
##tat
##my
##mo
##led
##ja
##sel
##Mar
##nordvast
##dom
##had
##vaster
##dec
##sart
##kor
##ca
##forst
##aven
##februari
##ligen
##norr
##ard
##oll
##stad
##alb
##nov
##193
##ben
##ulle
##ham
##oppen
##vaxt
##storre
##hon
##ades
##vatten
##ane
##oli
##nordost
##lat
##Fran
##december
##hadde
##vart
##tember
##andre
##september
##hand
##indre
##første
##plat
##rin
##Ne
##centr
##Et
##ali
##bestar
##sti
##ow
##spil
##liga
##ung
##ansk
##vær
##verk
##soder
##10
##rade
##sydvast
##sitt
##inte
##fod
##ong
##november
##mus
##ei
##inne
##ningsom
##hade
##akt
##dø
##res
##lar
##fors
##ets
##bl
##fri
##ida
##stra
##else
##ton
##amer
##wa
##dig
##leg
##Ku
##lang
##ts
##ili
##nu
##kuper
##gru
##sven
##uc
##ata
##Lake
##ron
##hvor
##sit
##mars
##andra
##mindre
##samt
##rikt
##bel
##iser
##kuperad
##mann
##ære
##oktober
##halle
##fer
##jord
##kra
##hj
##samhalle
##est
##hov
##iskt
##kring
##lik
##fatt
##tur
##rik
##vik
##drag
##olog
##ganska
##Narmaste
##vand
##kte
##ski
##Om
##kel
##pen
##ara
##inter
##Sver
##ott
##tes
##hun
##gang
##bi
##Ber
##Be
##regionen
##form
##rom
##rem
##lø
##ho
##bu
##192
##centrala
##mp
##Sp
##apr
##14
##alen
##ele
##maj
##yd
##lin
##Re
##gles
##au
##æn
##lem
##prod
##april
##tog
##siden
##dag
##mi
##dre
##nara
##co
##arbe
##glesbefolkat
##aren
##født
##øn
##allet
##no
##Toppen
##namn
##omgivningarna
##lad
##vaxer
##190
##gor
##Mo
##mon
##The
##12
##omradet
##jande
##Par
##Sa
##ret
##13
##nings
##forb
##nog
##lands
##fly
##arl
##Kuh
##forsta
##skulle
##Me
##ings
##fick
##platt
##stil
##off
##beg
##ine
##amerik
##fodd
##met
##ban
##fta
##kk
##len
##Ba
##bygg
##san
##liv
##band
##tar
##sat
##rad
##ert
##gav
##ningar
##delstat
##don
##rak
##ned
##tv
##ris
##Sk
##satt
##erne
##foljande
##hem
##rat
##Sch
##ys
##ella
##vattendrag
##fjar
##histor
##ull
##part
##dis
##ich
##stand
##old
##holm
##genom
##ren
##ac
##ellom
##ns
##erna
##omkring
##")
##plan
##tatbefolkat
##bred
##edan
##kv
##gjor
##Sverige
##cket
##polit
##nav
##onen
##ars
##Stor
##000
##Under
##dens
##up
##person
##hall
##Her
##mmer
##stru
##ci
##Dan
##sammen
##pla
##lov
##huvudsakligen
##dem
##189
##Bo
##("
##nen
##tidig
##fun
##forsk
##ef
##SA
##skil
##sjo
##kke
##mentet
##El
##dan
##ki
##gjen
##sv
##brit
##vaxtart
##mellom
##ae
##inge
##vilket
##fot
##alle
##skapet
##mu
##arbet
##føl
##Man
##fjaril
##kn
##ede
##mor
##grupp
##Da
##mycket
##yp
##frem
##Co
##lia
##jor
##kter
##rinningsom
##Nord
##hed
##sted
##skland
##syfta
##hø
##kommer
##Ot
##San
##sing
##Ha
##gjorde
##iker
##ister
##sklimat
##dri
##ff
##Gu
##kommunen
##kjen
##nom
##befolkad
##Ge
##Tr
##gu
##set
##elle
##atter
##vat
##bas
##flere
##stør
##bra
##ess
##delse
##tok
##pe
##mest
##Se
##storsta
##styr
##dist
##odra
##vaxter
##dod
##cer
##ocksa
##fore
##188
##qu
##riktning
##vel
##USA
##versit
##idae
##inga
##pro
##anada
##Ut
##samling
##Or
##mod
##blir
##flyt
##kj
##kyr
##Bar
##Bra
##dte
##11
##borg
##ole
##ya
##Te
##rel
##obefolkad
##mellan
##denne
##album
##grund
##ligere
##gam
##bade
##lien
##ye
##jordbru
##Som
##jur
##Efter
##Hel
##kall
##vit
##rid
##lighet
##delstaten
##30
##ola
##vest
##æl
##organ
##nas
##Wil
##Stock
##stall
##New
##hn
##bur
##svar
##pub
##stu
##svensk
##mid
##Omgivningarna
##rett
##sty
##Ro
##fik
##elsen
##natur
##ats
##vin
##bore
##..
##Sam
##syn
##ment
##pri
##Is
##lant
##klar
##Pr
##samman
##sedan
##nad
##ica
##kul
##Eur
##skol
##let
##Col
##uss
##zonen
##nation
##lis
##Stockholm
##ive
##Fin
##inger
##gre
##ommun
##enn
##dette
##Mon
##Har
##sydostra
##kraft
##konom
##ula
##lam
##platser
##boreala
##klimatzonen
##mange
##oss
##fikk
##dei
##elt
##Hen
##187
##igt
##eit
##stem
##fle
##II
##186
##dal
##hoved
##være
##mens
##fjarilsart
##laget
##lav
##klub
##bok
##hold
##Hon
##ian
##jordbruks
##ast
##asjon
##grunn
##ip
##lu
##int
##presen
##avann
##slag
##ct
##Kanada
##50
##stod
##Hans
##annat
##iner
##tvav
##atte
##musik
##egen
##Art
##heter
##byen
##vir
##opiskt
##yg
##lo
##veck
##do
##store
##hos
##Der
##spe
##lagt
##vet
##ninger
##Ty
##Kon
##ko
##Per
##jordbruksmark
##Hi
##dels
##havde
##pet
##utan
##sodra
##norra
##cker
##bla
##sch
##ile
##film
##sid
##Hun
##sar
##tvavinge
##tvavingeart
##alla
##rist
##mis
##selv
##Cer
##Lac
##pt
##rum
##ogram
##kur
##Th
##Otta
##try
##kort
##Ottawa
##pel
##sma
##kunne
##ide
##mand
##oph
##Ta
##hver
##Norge
##ges
##kir
##fem
##død
##omgiv
##vann
##Ett
##stan
##kat
##sør
##Cre
##dess
##ora
##tidligere
##skal
##the
##ses
##god
##ukt
##spiller
##senere
##anske
##djur
##kes
##inom
##samma
##utbred
##annet
##ensis
##øst
##gras
##ium
##ph
##aller
##25
##uten
##avrinningsom
##ote
##ins
##du
##He
##kamp
##sine
##begyn
##eri
##mmet
##oly
##medlem
##ni
##era
##Frankri
##gte
##start
##Ra
##ratt
##litt
##Ka
##Johan
##oppet
##nær
##ville
##lite
##marker
##Ste
##gener
##minist
##Med
##opa
##parte
##iden
##sal
##Aust
##lok
##stam
##tallet
##kand
##like
##kop
##forts
##basen
##engel
##vært
##aret
##ire
##riks
##2010
##tiden
##vag
##anvand
##vikt
##ioner
##inse
##rich
##represen
##disse
##trad
##John
##itet
##lade
##ostra
##Fra
##ald
##sc
##At
##Av
##fisk
##øt
##che
##ivis
##fyl
##foren
##Kommun
##departe
##prof
##vara
##ktor
##risti
##samme
##Ad
##za
##oma
##Ko
##Va
##Bred
##famili
##ød
##norsk
##go
##ator
##ceae
##pper
##Creek
##gjennom
##Hol
##jo
##ander
##gende
##vastra
##Lon
##ring
##sson
##slo
##pra
##sol
##ick
##Etter
##fan
##rek
##24
##Klimat
##fort
##2008
##vok
##gren
##flera
##bed
##andet
##Con
##Dette
##2007
##Po
##bak
##omgivande
##tu
##fast
##von
##ate
##dene
##skar
##ball
##2006
##stud
##gere
##øl
##blant
##komp
##nyt
##sprak
##terrangen
##gick
##Bu
##varl
##peri
##fj
##sina
##2000
##hy
##versitet
##Bredden
##tag
##ofte
##departementet
##enligt
##tan
##hemi
##dere
##tilba
##fall
##senare
##Finland
##barn
##oner
##ps
##kol
##21
##Sy
##olika
##ish
##sker
##kommune
##utveck
##hemiboreala
##Mal
##Sc
##perio
##Tor
##Eng
##Kar
##nag
##Su
##bergig
##end
##185
##dock
##gift
##ius
##2011
##ena
##anska
##tred
##Que
##Histor
##vaxtlighet
##ningsomrade
##unn
##pas
##kin
##æt
##ført
##Danmark
##23
##ea
##Mor
##Ed
##lingen
##konst
##nat
##alder
##mit
##publi
##Carl
##gens
##deres
##Geor
##bia
##pop
##ura
##eld
##Frankrike
##2009
##Ja
##Car
##dy
##Artens
##Ver
##detta
##London
##lever
##Men
##utbredningsomrade
##184
##ografi
##Tropiskt
##oppr
##dire
##Sta
##22
##blandskog
##kla
##nye
##flug
##Mel
##Medel
##burg
##Karl
##tidigare
##bin
##tran
##oper
##ationen
##rer
##bre
##strom
##Tyskland
##stort
##».
##2005
##nem
##Ph
##Kr
##amerikansk
##Del
##OL
##moder
##2012
##Ri
##Arten
##cia
##innan
##oken
##gall
##januar
##aler
##nt
##Uni
##one
##Gr
##28
##songen
##Austra
##jet
##Br
##arten
##igen
##navn
##Are
##26
##albag
##ider
##skalbag
##kjent
##høy
##Cerro
##Bi
##nasjon
##kam
##27
##tysk
##klas
##Ju
##eng
##Ser
##minister
##ota
##sammans
##foret
##Ho
##Klimatet
##forsamling
##mester
##spor
##Europa
##ologi
##flugor
##dae
##bruk
##Mex
##organis
##sett
##natt
##VM
##Ca
##fte
##ions
##britann
##halv
##vant
##kvinn
##dansk
##Lu
##sem
##TV
##tillhor
##Storbritann
##hur
##ama
##ity
##alv
##svenska
##blom
##fire
##Cor
##enda
##arta
##Jak
##borj
##gran
##sle
##ofta
##con
##ucer
##2004
##Savann
##Savannklimat
##antalet
##full
##ope
##plass
##største
##ivt
##ristian
##Bor
##rundt
##insekt
##uden
##exem
##So
##ey
##administ
##Helsing
##cher
##fal
##esi
##Char
##blitt
##gard
##nade
##Dar
##aten
##skj
##ym
##ful
##milit
##verden
##por
##list
##ico
##2016
##utom
##distri
##namnet
##fag
##kultur
##gul
##tredje
##gsart
##stre
##ice
##Kina
##Ind
##Ny
##divis
##Gra
##elser
##29
##yra
##ley
##grav
##karri
##Land
##erat
##Ale
##igh
##Ham
##representer
##cent
##lede
##ktur
##grasmarker
##profess
##ytter
##ppklimat
##lor
##søn
##skole
##indel
##ekonom
##fred
##kallt
##Fil
##Gun
##rig
##skalbaggsart
##sport
##kvar
##2014
##plats
##Vid
##insektsart
##slaget
##arbej
##tot
##sub
##Je
##manga
##Di
##England
##mang
##ons
##øm
##gent
##ona
##Fr
##ori
##Na
##bilda
##serien
##100
##gangen
##40
##gjort
##gruppen
##helt
##inde
##gje
##cir
##bety
##Fri
##Brasi
##1990
##Mu
##sjonen
##2013
##kap
##medal
##sun
##ationer
##fatter
##ror
##ze
##but
##ika
##delt
##omrade
##ition
##hallen
##førte
##Er
##sert
##gitt
##hør
##gikk
##Hu
##tillsammans
##olf
##2015
##ila
##vig
##1970
##kket
##bild
##Reg
##studer
##kunst
##omfatt
##muse
##pers
##bare
##gallande
##To
##Fol
##huset
##Arean
##ops
##rag
##Peter
##Am
##Com
##infor
##sær
##stappklimat
##lege
##væ
##su
##otter
##denna
##anden
##filmen
##stit
##1980
##slakte
##Oslo
##dog
##As
##lades
##alli
##Ol
##buskland
##Sel
##busklandskap
##spr
##stora
##port
##unge
##konkur
##Rom
##Sven
##sydlig
##personer
##hele
##borjade
##Iran
##forsvar
##Andre
##leder
##legg
##gene
##hennes
##popul
##ira
##gl
##landsk
##kite
##utvik
##navnet
##60
##Ben
##exempel
##pil
##stads
##kulle
##Ita
##bro
##tit
##februar
##Antalet
##elen
##Ru
##olen
##spelare
##bara
##cu
##mellem
##norske
##skab
##reger
##først
##illa
##ani
##Wal
##bandet
##2003
##sydvastra
##Ved
##via
##albumet
##motor
##Pe
##unta
##sock
##vo
##pav
##Willi
##menne
##2002
##Hav
##tatt
##ork
##vastlig
##havn
##Helsingfors
##Indon
##universitet
##bane
##ustri
##medle
##jø
##Rio
##eur
##etab
##næ
##1960
##nordostra
##dor
##forfatt
##»,
##arran
##okenklimat
##holdt
##bb
##ots
##Indones
##flyg
##oni
##partiet
##fann
##noen
##døde
##hoj
##fest
##alp
##Vi
##183
##skade
##Si
##2001
##Kommunen
##arbeid
##Sen
##distriktet
##tro
##sor
##gron
##kines
##hl
##landsklimat
##Lag
##jorden
##Bro
##mas
##2018
##atus
##præ
##forbun
##ino
##jarn
##stracker
##vers
##noe
##lovskog
##blad
##resul
##krit
##roll
##sident
##ellt
##Des
##tyske
##tav
##Jam
##spar
##William
##syste
##Indonesien
##litter
##ften
##ise
##sil
##vert
##oci
##etabler
##enskap
##back
##2017
##tekn
##City
##ky
##grad
##menter
##fel
##sang
##ighet
##hjem
##sag
##iz
##ganger
##rol
##isse
##fart
##perioden
##Syd
##stein
##Ve
##side
##heran
##dare
##pat
##Mad
##tede
##naturlig
##producer
##allt
##samhallen
##raden
##Mag
##ash
##nis
##sjalv
##sex
##idet
##ua
##stri
##læ
##anda
##enkel
##1999
##Jakarta
##nok
##stekel
##servat
##hr
##Dav
##ener
##Mari
##Var
##amerikanske
##skriv
##Teheran
##bid
##ftet
##dessa
##Ander
##ille
##følge
##flo
##steklar
##Mount
##ep
##kker
##Val
##Cha
##rike
##area
##yer
##ux
##eta
##olymp
##plas
##boll
##mask
##its
##Oster
##ovjet
##Kor
##stekelart
##Inter
##nummer
##illet
##ita
##lev
##itali
##handling
##iva
##nya
##nordvastra
##gas
##We
##cirka
##Paris
##mosa
##klubben
##Mart
##persiska
##ros
##isjon
##lande
##Af
##Ga
##øya
##sjø
##cy
##Kø
##sna
##mere
##bert
##omy
##80
##bon
##ellige
##sent
##Bur
##chen
##Pri
##rukt
##øre
##uth
##udd
##Kir
##shuvudstaden
##træ
##spelade
##Paul
##Span
##gat
##jern
##bran
##støt
##ova
##istan
##kontr
##if
##Medelhav
##ekonomiska
##pol
##sens
##djursart
##bal
##sku
##verksam
##Lin
##ric
##Mus
##Gar
##Sal
##større
##landskapet
##pan
##atta
##familien
##70
##arkite
##innen
##jerne
##cis
##Ex
##stats
##Medelhavsklimat
##Sør
##we
##iel
##myn
##dyr
##industri
##Go
##tru
##hot
##system
##180
##tilbake
##siste
##ford
##inkl
##kateg
##ji
##zz
##eln
##kirke
##jene
##31
##langt
##mes
##mai
##varier
##tak
##ava
##fyra
##nytt
##erte
##1998
##varit
##vist
##bygget
##kunde
##øv
##ides
##Fa
##period
##Inlandsklimat
##medan
##semp
##ark
##region
##bus
##bror
##finalen
##slik
##2019
##elekt
##Str
##als
##fjell
##hin
##Mich
##ii
##honom
##lingar
##sprun
##Denne
##teg
##delar
##Qu
##By
##Sant
##1992
##Australien
##ers
##tek
##bergs
##bag
##pos
##Jon
##bot
##vanlig
##videre
##Ac
##lub
##1994
##gelse
##kre
##fen
##borjan
##kant
##Fred
##Køben
##Bla
##kron
##Christian
##Klad
##vol
##professor
##mosaik
##una
##deltok
##tempererat
##Mc
##rinningsomradet
##Avrinningsomradet
##avrinningsomrade
##bat
##lj
##litet
##flytta
##sket
##Thom
##krig
##1996
##erede
##dagen
##Upp
##ligg
##staende
##mø
##ovri
##fon
##Island
##hund
##Kladogram
##My
##administrat
##langs
##viktig
##hela
##offent
##ogn
##uri
##stadse
##jap
##brun
##Lo
##betyd
##matte
##1900
##satte
##anger
##esh
##ras
##ting
##Hy
##fransk
##Ti
##Amer
##iti
##Tid
##stadsegron
##forekommer
##nev
##aktiv
##Storbritannien
##garden
##lot
##rede
##stilling
##uler
##beste
##Befolk
##prakt
##yo
##fyr
##urt
##Gote
##radi
##Nam
##danske
##eret
##engelsk
##ktar
##instru
##York
##ktiv
##stedet
##Lou
##model
##1997
##mitt
##fanns
##antal
##savann
##Chile
##publik
##Brit
##Ab
##vande
##aria
##lær
##grupper
##gennem
##dam
##sprung
##kategor
##vare
##gamle
##offic
##nagra
##Ul
##arene
##1991
##sok
##1995
##Mer
##syk
##orden
##ræ
##90
##meget
##Til
##iko
##kalt
##riket
##høj
##menn
##lange
##."
##iken
##Detta
##Mot
##smal
##utveckling
##naden
##heim
##Alex
##distrikt
##Mil
##produkt
##count
##tri
##kta
##rar
##italien
##1993
##roman
##mt
##slapp
##socken
##forsø
##igur
##verdens
##th
##No
##totalt
##stitut
##innebar
##1950
##uel
##ktion
##ksom
##øver
##Kun
##Nation
##samtidig
##Bel
##kning
##sik
##ult
##mag
##derfor
##Dom
##ass
##Gunung
##Pal
##inen
##los
##punkt
##fang
##deltog
##igjen
##spelar
##erade
##Sjon
##myr
##pris
##krigen
##que
##aldri
##foretag
##rot
##forfatter
##program
##eksemp
##okrat
##Fer
##Rober
##formen
##kong
##bisk
##inner
##forbin
##ette
##iss
##folj
##ini
##ore
##Ag
##general
##proble
##Air
##Tan
##aust
##sidan
##oku
##uder
##helm
##monsun
##bort
##1988
##sist
##Alger
##været
##cus
##skrevet
##Hal
##lt
##angre
##luft
##skra
##økonom
##vs
##fab
##ppe
##knyt
##vad
##Don
##regnskog
##kanton
##Tra
##Tur
##orki
##monsunklimat
##post
##Vest
##ikkje
##fotball
##vapen
##%.
##Freder
##klass
##materi
##hopp
##sad
##uter
##Kat
##1800
##ure
##svamp
##holl
##ansvar
##UC
##ite
##tol
##Van
##Till
##arranger
##ograf
##1989
##ves
##lertid
##relig
##sida
##orkide
##Sommer
##turner
##beslut
##serie
##konge
##ont
##ursprung
##skolan
##Gran
##osof
##spindel
##hett
##fleste
##bos
##Pro
##sember
##historie
##verket
##chef
##Sar
##tillegg
##langd
##ox
##grev
##desember
##national
##stav
##jam
##bron
##bri
##ockey
##seks
##bit
##Dra
##Can
##delta
##forn
##bø
##1971
##proc
##Mid
##com
##rekke
##Provin
##gande
##65
##dotter
##Count
##brukt
##finnes
##Met
##1984
##amen
##fug
##Du
##1920
##gruppe
##anvands
##Hand
##hop
##meh
##lek
##ood
##Hor
##ney
##usen
##Gre
##mos
##tex
##fli
##onia
##henne
##sene
##tale
##president
##Maria
##adi
##effe
##bec
##Eg
##teret
##Sol
##Kn
##trakt
##Universit
##Pre
##vide
##liten
##Mat
##have
##mare
##hvert
##ces
##pass
##regnskogsklimat
##norrut
##ped
##iges
##bol
##kantonen
##parti
##seud
##sommar
##yll
##sek
##els
##kyrk
##Berlin
##").
##Kal
##iro
##countyt
##fordes
##skul
##1987
##forening
##arts
##guver
##1986
##nagon
##George
##sjuk
##bør
##1940
##soderut
##Cen
##arbeidet
##russ
##brev
##skrift
##Lar
##can
##vilken
##lagg
##seende
##pal
##fortsatte
##Gam
##heder
##Tri
##SM
##sand
##teater
##tjan
##1930
##vard
##studen
##vinter
##eksempel
##ampar
##Mexico
##mulig
##Ger
##Wa
##Bre
##arab
##Saint
##Mun
##bod
##bom
##kli
##former
##Nav
##lys
##Dist
##35
##holder
##ruktbar
##"),
##ogen
##livet
##lif
##1972
##forma
##uer
##nagot
##Jer
##Eu
##orten
##1985
##filosof
##Sha
##Chesh
##følgende
##mannen
##County
##sommer
##slatt
##ungdom
##forbindelse
##ike
##typ
##bud
##hamn
##adem
##sm
##Cheshmeh
##direkt
##fører
##øde
##tac
##Bak
##handel
##eks
##makt
##spir
##Ry
##skon
##deras
##hektar
##Lan
##500
##Ban
##musikk
##Min
##utgor
##Brasilien
##fotboll
##git
##1968
##1974
##Robert
##64
##byggere
##Los
##]]
##spekt
##onom
##spilte
##valg
##1945
##ghan
##Sveriges
##moj
##[[
##bad
##Ke
##politiker
##jør
##kret
##IUC
##ppen
##saker
##IUCN
##spun
##Gi
##sæt
##ove
##Ni
##Sim
##Jac
##besk
##ofruktbar
##kyrkan
##tids
##eget
##1979
##placer
##miss
##Pol
##Eli
##IF
##speci
##sentr
##progra
##alet
##takt
##Mac
##Tom
##karakt
##amot
##virke
##Sh
##resultat
##test
##opter
##trod
##taget
##osa
##Rich
##Før
##Thomas
##1982
##borgs
##2020
##AB
##usjon
##stig
##Res
##din
##Quebec
##blevet
##Spanien
##styrel
##viser
##kas
##inden
##atet
##FC
##idrett
##romer
##endast
##Far
##jekt
##1976
##Sand
##Jap
##Bl
##hjart
##1983
##ward
##skilt
##svart
##On
##kendt
##179
##forhold
##regjer
##Mas
##Pet
##København
##samband
##sjoner
##song
##cken
##doku
##blandt
##inat
##Do
##sh
##aldre
##darefter
##Colom
##1973
##Pas
##ettet
##føre
##hang
##vei
##fukt
##kjø
##klubb
##ordning
##Tim
##cha
##David
##sasongen
##utgav
##1981
##dermed
##ria
##Op
##inkluder
##datter
##lil
##ations
##figur
##varande
##grunda
##staf
##lie
##framst
##givet
##skrig
##ktis
##osterut
##so
##atten
##Kab
##bold
##franske
##uta
##begge
##vasterut
##rod
##Schw
##Ons
##gjør
##orter
##disk
##bum
##risk
##bun
##Bir
##fordi
##Port
##æng
##produs
##kategoriser
##1964
##itz
##tropiskt
##Enligt
##Bon
##Erik
##Jan
##enga
##orna
##bart
##haf
##delig
##ato
##1975
##glob
##Nu
##forskj
##strand
##bry
##delsen
##studier
##()
##fjorden
##ryg
##1978
##espil
##fær
##mak
##Rad
##ving
##orth
##ulike
##1969
##heng
##imid
##vent
##All
##slutet
##1967
##avrinningsomradet
##Havet
##Ir
##rock
##hører
##num
##Ly
##tida
##utt
##spesi
##internation
##1977
##eren
##sju
##sav
##hær
##imidlertid
##iks
##Lud
##cka
##tilbage
##museum
##sto
##gaende
##krigs
##ht
##Cal
##biskop
##gik
##Jean
##klassen
##guld
##banen
##ies
##dann
##Region
##anal
##hit
##ero
##trop
##britiske
##nast
##begynte
##Bul
##ario
##sym
##University
##folket
##aland
##Filmen
##skriver
##konstru
##soci
##Afri
##45
##Bru
##kjem
##neder
##job
##malt
##Vil
##West
##demokrat
##Stockholms
##prin
##75
##Sten
##Mont
##ati
##forbundet
##1952
##nadde
##rop
##privat
##lament
##vill
##Christ
##Lang
##sikt
##deler
##Afghan
##sold
##kontor
##chi
##Ken
##sky
##urna
##mast
##Historie
##hjel
##Nil
##terna
##stift
##Ant
##sked
##Colum
##cm
##1965
##cho
##Em
##gade
##zi
##skola
##sista
##eftersom
##Georg
##Pi
##flod
##Pan
##isen
##III
##gelsen
##alis
##lander
##Gru
##blei
##ativ
##mene
##Distri
##1962
##Ont
##Mexiko
##delas
##stopp
##valgt
##representerte
##avslut
##nande
##stero
##Las
##Liv
##indiv
##spillet
##.,
##bliver
##forande
##unionen
##ute
##ordet
##skapa
##espiller
##sas
##agen
##Son
##Afghanistan
##terade
##Ze
##falt
##svampar
##systemet
##EM
##ppa
##Pla
##Berg
##kategoriserar
##fron
##samfun
##ito
##Ek
##eneste
##Charles
##nede
##Mi
##derna
##dret
##isi
##bygd
##forde
##Stat
##delstatshuvudstaden
##omrader
##kyrka
##Gud
##tas
##ikken
##Vol
##ledde
##sanger
##løpet
##divisionen
##Ven
##vej
##Italien
##Martin
##fir
##deling
##mur
##Mounta
##1966
##Cla
##udi
##Koh
##Svenska
##haller
##rang
##ovrigt
##rost
##James
##arbejde
##Over
##Vic
##bladig
##mannisk
##vidare
##kallas
##fjer
##kare
##hard
##lans
##Dei
##Biografi
##benyt
##Sj
##Cu
##Norr
##August
##kø
##idag
##isa
##opsis
##River
##fru
##Byg
##Bog
##178
##fys
##funger
##Dag
##varld
##liser
##mmar
##Norra
##Tre
##hora
##anna
##latin
##læg
##kene
##orl
##forskning
##emat
##cel
##ild
##paras
##vende
##Kom
##Bal
##tyska
##skot
##draget
##tere
##hv
##Bergen
##Ap
##erer
##vari
##litteratur
##Fe
##gull
##kast
##Goteborg
##National
##middel
##europe
##Hall
##bygger
##bildades
##Il
##Kri
##regis
##ano
##horn
##osi
##skriget
##Sovjet
##Kra
##ering
##fjarilar
##ral
##Norges
##hvilket
##ogs
##nelsen
##spindelart
##arbete
##ague
##lius
##oven
##flyn
##ligare
##Antar
##eksp
##South
##myndig
##Wilhelm
##Bland
##skolen
##British
##godt
##Inn
##zo
##Ram
##byt
##bul
##mesta
##Hill
##Angel
##1948
##Fre
##marks
##svært
##Sil
##Henrik
##mær
##oth
##regel
##War
##redan
##debu
##spind
##skaper
##debut
##Japan
##minst
##Indien
##ordningen
##"-
##viste
##car
##horningar
##folke
##1963
##parlament
##Lind
##beteg
##joner
##udvik
##nattflyn
##aut
##Lars
##aner
##topp
##cep
##Lund
##vise
##1956
##sala
##gemen
##republi
##vagen
##.-
##avvatt
##meste
##Dal
##col
##dende
##kvinnor
##skyl
##Bay
##bada
##matare
##Rab
##tig
##verdenskrig
##Vaster
##1939
##internasjon
##kropp
##ach
##defin
##utgitt
##last
##tom
##landets
##karriere
##hatt
##række
##administrativ
##drev
##Kust
##Fal
##særlig
##formula
##vandt
##medlemmer
##søl
##das
##jung
##veg
##formula_
##ards
##forskellige
##forfattare
##Jar
##ame
##hou
##yrk
##britt
##nus
##barr
##iteten
##fo
##Cy
##innare
##400
##Disse
##sesongen
##ugh
##ytan
##spindlar
##arnas
##Gust
##rondisse
##Argent
##mennesker
##Es
##skuespiller
##Mic
##isert
##skip
##Mol
##hjalp
##styre
##borger
##redakt
##Befolknings
##Hov
##1961
##Fo
##Sun
##hjartbladig
##vattnet
##master
##fre
##gora
##slot
##OS
##Brasilia
##startet
##Universitet
##periode
##hvis
##Grand
##Madrid
##utanfor
##koping
##Ein
##33
##revol
##periodiskt
##stroms
##Byen
##stid
##Aven
##dannet
##mye
##Russ
##ign
##Jes
##Plat
##arrondisse
##ael
##latt
##teck
##regi
##Uppsala
##allman
##saga
##virksom
##Park
##ath
##Fried
##millioner
##Chi
##annan
##sæ
##1958
##gammel
##1944
##bliote
##støtte
##edon
##skyd
##stal
##reproducer
##ledet
##bestod
##ela
##amerikanska
##svampart
##gud
##Josep
##rolle
##kallar
##Cap
##areal
##1912
##Colombia
##filmer
##moderne
##sølv
##tillverk
##scen
##lokal
##Tu
##aledes
##Kabul
##League
##ssel
##steder
##festiv
##aldrig
##spra
##Soder
##lyck
##sags
##Kam
##vissa
##Camp
##uttry
##parasit
##ple
##mith
##Gustav
##Bill
##kost
##icus
##ktes
##boken
##mana
##got
##1936
##Kan
##istallet
##Jose
##ight
##øj
##Columbia
##1941
##Wien
##Kong
##Befolkningsutveckling
##skt
##tjene
##nene
##krav
##Part
##cord
##produk
##kommen
##Alexander
##fla
##Marie
##Pat
##1938
##fuktigt
##elva
##Joseph
##Bou
##Anton
##byggdes
##station
##subtropiskt
##own
##gamla
##1918
##kallad
##byggnad
##heden
##eiz
##Og
##ritor
##bis
##barrskog
##liggende
##findes
##ding
##Johannes
##%,
##fabrik
##Louis
##1910
##Øst
##Cam
##ix
##relat
##skiv
##arrondissementet
##svenske
##vind
##interes
##odi
##vas
##reproducerande
##kommand
##arkitekt
##34
##way
##kung
##ypt
##rollen
##36
##dalen
##offici
##staur
##yng
##staten
##varje
##terte
##1957
##Kustklimat
##Santa
##myg
##pres
##fekk
##ith
##oka
##historia
##pes
##Argentina
##felt
##sli
##politisk
##kej
##omyia
##uli
##ordforande
##titt
##wan
##skraft
##slags
##slutten
##Kol
##وه
##37
##Pra
##nett
##iger
##ordan
##sluttar
##jarvi
##bevar
##Provincia
##Ontario
##journa
##behov
##opro
##Neder
##oren
##globalt
##anvan
##1959
##darfor
##annen
##allerede
##1946
##Mountain
##niva
##inspir
##passa
##artik
##ev
##Henry
##egent
##hire
##avax
##Por
##Gri
##cks
##1947
##park
##fr
##1914
##177
##mestadels
##karriar
##sjons
##valget
##Sav
##hojden
##holde
##Ou
##Tall
##HI
##sister
##Pseud
##Che
##format
##fas
##baka
##rapp
##Band
##sønn
##NA
##sej
##ram
##arbetade
##Francis
##Bri
##ec
##tradis
##Got
##gir
##lika
##midt
##motstand
##Tron
##følger
##Friedrich
##begre
##finner
##trafik
##vald
##Ur
##kanda
##Sara
##1942
##blivit
##næv
##32
##stol
##Ep
##xi
##eck
##flyttade
##Fredrik
##1928
##behand
##Vis
##asjonen
##ony
##bill
##aris
##hast
##39
##dagens
##Denna
##Fi
##300
##Ele
##landska
##kandid
##38
##Bag
##rige
##valet
##1908
##Leon
##1955
##premi
##1949
##sess
##1924
##olit
##Afrika
##bygge
##nere
##vilka
##kinesiska
##krist
##Album
##Bosn
##bestem
##rael
##ledning
##forbund
##lere
##1943
##regering
##gifte
##iago
##byggna
##blod
##flyttet
##Anna
##familie
##alter
##spinnare
##1954
##Herc
##ogon
##orig
##igheter
##Victor
##veien
##Ak
##kallade
##48
##slutt
##Pen
##Gor
##ytor
##urg
##fic
##SS
##1919
##langhorningar
##struktur
##Rock
##Loma
##ete
##1917
##pot
##spelen
##Sedan
##bock
##haft
##vux
##enkelt
##fylke
##høg
##Smith
##skom
##gatt
##spilt
##ocko
##Tam
##savannskog
##dige
##xa
##vetenskap
##ologisk
##dikt
##jud
##vun
##55
##astr
##stadig
##konstnar
##log
##brukes
##katol
##dokt
##dagar
##Santiago
##%).
##framfor
##Ud
##rov
##sut
##pte
##oversatt
##fodbold
##spillede
##befolkningen
##kontrakt
##bog
##ago
##Dor
##elli
##fores
##militær
##Unit
##mord
##cul
##engelska
##1953
##1933
##gin
##prov
##ias
##forest
##vek
##ome
##tage
##valt
##tillbaka
##kjente
##politiske
##dav
##isten
##programmet
##Richard
##udde
##ansi
##Michael
##talt
##vice
##fleire
##linje
##saledes
##betra
##fjord
##stant
##Ali
##ungefar
##tral
##Mur
##ledamot
##statt
##1937
##ington
##ovina
##Roy
##stes
##bes
##orld
##Muse
##1913
##kran
##ital
##kart
##stallning
##Jack
##Bran
##forklar
##strit
##istisk
##erad
##handels
##tett
##1932
##skrifter
##lon
##innbyggere
##verksamhet
##1911
##ej
##utgiv
##varlden
##gon
##holdet
##landske
##aliforn
##zar
##dat
##Hus
##fortsatt
##Ran
##institut
##bebyg
##giver
##tradisjon
##sko
##hitt
##utbild
##dele
##kriget
##varierad
##ffe
##bygning
##1935
##Herceg
##Handling
##Plan
##sovjet
##Stra
##spela
##brada
##sul
##Vast
##dju
##1700
##sende
##dron
##Kul
##nogle
##undervis
##deretter
##tert
##Red
##opprinne
##spille
##resten
##1934
##kontroll
##press
##drar
##orien
##loss
##1951
##studerade
##kors
##rott
##uppstroms
##stritar
##Fly
##Krist
##lager
##delser
##nit
##wood
##Cast
##tidleg
##ovan
##levde
##gla
##1929
##cht
##intre
##Sodra
##restaur
##ljus
##ører
##Malmo
##Rud
##beratt
##tradition
##cor
##Jawa
##kvalif
##Quebrada
##franska
##United
##stasjon
##dia
##Lam
##66
##SMHI
##Tar
##sade
##zon
##gri
##Historia
##sasom
##spunkt
##Hein
##anven
##Marocko
##kunna
##jag
##jarnen
##Bas
##Punta
##foran
##Trond
##Bosnien
##origin
##tidlig
##Tran
##delavrinningsomrade
##Skan
##kampen
##Dem
##1921
##hojd
##Storbritannia
##Ara
##Rabat
##læn
##Polit
##blomm
##Hercegovina
##47
##engelske
##mera
##Delavrinningsomrade
##sland
##ender
##kry
##yngre
##tvahjartbladig
##Bat
##varlds
##foreningen
##fæl
##græn
##retning
##sattes
##istiske
##Prin
##oden
##friidrett
##vattenytor
##Sve
##laten
##arhund
##rester
##kroppen
##1906
##øk
##holds
##gør
##Luc
##omraden
##oprocent
##pag
##forbunds
##sjoprocent
##myggor
##gangs
##besø
##skan
##1927
##Klub
##150
##Gro
##Jab
##marts
##publicer
##varg
##bibliote
##slekt
##forskjellige
##Polen
##aver
##verkade
##zer
##mir
##1925
##gym
##rej
##oller
##1926
##Fili
##digt
##skva
##doktor
##lett
##Sovjetunionen
##wn
##ellen
##Medelhojden
##isering
##Vir
##basta
##skabet
##iver
##gatan
##amo
##1922
##forel
##okus
##deles
##jel
##Record
##chus
##Mes
##oft
##jorn
##vene
##sendt
##Yo
##Omradet
##ppet
##dags
##kirken
##oret
##tall
##status
##Ron
##brott
##dets
##sur
##sats
##slapptes
##offentlig
##kompon
##eden
##varldskriget
##Brun
##ilis
##leng
##klart
##oa
##relse
##ytterligare
##plasser
##Jacob
##Beg
##1916
##Bil
##oppda
##buk
##Italia
##World
##vars
##1907
##sidste
##nuvarande
##1905
##Black
##skall
##direkte
##North
##konkurran
##knyttet
##ryska
##Dess
##osten
##upptac
##Anders
##odes
##170
##1909
##win
##Kristian
##jektet
##forhall
##arer
##fur
##Ox
##ms
##posit
##bredelse
##soldater
##1931
##lac
##kanal
##ump
##bær
##stj
##ikker
##Os
##æg
##lic
##omen
##blive
##Australia
##løs
##drift
##iaceae
##rekord
##Lit
##mitten
##Bern
##eds
##uts
##major
##basert
##miljoner
##komme
##Dessa
##kolon
##bach
##effekt
##Ain
##delige
##livs
##løp
##lus
##Cat
##tradde
##Est
##kna
##lod
##hets
##leve
##Gol
##sein
##ologiske
##fiskart
##Fam
##Sig
##hallet
##offer
##farande
##produ
##tjanst
##gal
##arme
##rien
##kysten
##Oper
##Gil
##Bogota
##open
##flesta
##68
##lut
##Nag
##anus
##kongen
##sons
##Ras
##oen
##Ker
##steg
##stader
##mør
##talen
##1923
##mastare
##arrangert
##komst
##Tel
##Selv
##tele
##175
##Kung
##oul
##Super
##floden
##rog
##kont
##ppar
##bjer
##reser
##gards
##ytt
##prefe
##fader
##49
##gjerne
##hili
##etten
##togs
##Kro
##stern
##District
##regist
##karakter
##innes
##orkideer
##Utseende
##mande
##1915
##sjøen
##vestlige
##snart
##Dis
##Dy
##delvis
##Osc
##field
##Algeriet
##ishockey
##vall
##armen
##batt
##ands
##کوه
##Alle
##tab
##edi
##liste
##hovud
##Thor
##67
##Max
##kraftdjursart
##yta
##Hot
##feren
##alderen
##avrinningsomraden
##uti
##pros
##AS
##inna
##olympiska
##inus
##Au
##Rog
##befolkning
##anser
##Ten
##fat
##ellet
##brok
##faren
##gitar
##konser
##Canada
##introd
##inget
##ibland
##unds
##Sur
##Namnet
##miljø
##rus
##varen
##nr
##fiske
##1904
##linjen
##ølv
##brot
##dub
##ismen
##Gustaf
##kommuner
##strøm
##deri
##relativt
##ode
##orts
##Pier
##Brook
##asjoner
##slutade
##44
##Cup
##byer
##heller
##insk
##beve
##Gul
##semi
##energi
##Flor
##Antarktis
##urs
##senter
##uen
##Desa
##grøn
##ack
##rika
##maler
##provinshuvudstaden
##japansk
##cupen
##orer
##ænd
##egne
##Nat
##Nik
##Opp
##lei
##oprin
##Otto
##lamnade
##utfor
##derne
##respekt
##begyndte
##Kap
##bodde
##ay
##bergstopp
##botten
##arke
##skaps
##1600
##International
##byr
##kopp
##lille
##varmt
##loppet
##samlingen
##betyder
##bevis
##undersø
##alltid
##Mange
##problem
##krets
##final
##Rod
##dad
##medalje
##beskriv
##matcher
##beth
##arv
##lim
##fokus
##bolag
##Bol
##ress
##hjul
##darmed
##atom
##fortfarande
##russisk
##innehaller
##utter
##Hem
##orke
##sann
##Siden
##galler
##avheng
##69
##oj
##skrive
##langre
##tio
##saman
##museet
##kje
##Vin
##mans
##ires
##lokale
##unga
##oarna
##Dam
##Delhi
##samtidigt
##Hog
##spill
##biflo
##visar
##Grun
##stammer
##medic
##varav
##oker
##skatt
##okte
##regler
##lagen
##sangen
##isme
##dans
##nant
##Hø
##ose
##brug
##olia
##Schweiz
##chy
##prisen
##orkideart
##sarskilt
##Records
##alist
##Frank
##nades
##1500
##Sw
##kore
##matemat
##skapen
##iens
##politik
##Ama
##Jen
##cc
##flodar
##centrum
##Skar
##avvattnar
##journalist
##roller
##ierna
##suk
##sne
##ors
##liknande
##territor
##medlemmar
##studio
##gjordes
##bolaget
##Daniel
##jas
##Tek
##Ji
##Airport
##korea
##Albumet
##Mark
##IV
##radio
##talte
##lings
##hustru
##tjeneste
##icola
##tidigt
##nordlige
##sien
##synlig
##anse
##prefektur
##poang
##yder
##ania
##Bet
##ales
##halla
##skadespelare
##desordning
##biflodesordning
##reh
##gave
##anses
##menneske
##sall
##odor
##aliser
##direktør
##Amerika
##enkelte
##Kh
##dominer
##valgte
##anvandes
##singel
##Jabal
##God
##praktfjarilar
##Norsk
##livskraft
##Hennes
##nig
##bronse
##tera
##Nederland
##gange
##grundades
##slakt
##bank
##ah
##1902
##syl
##avdel
##tren
##asi
##Song
##Fort
##osia
##Run
##oides
##prote
##laga
##spør
##kvart
##Noreg
##Nya
##mede
##guverne
##Russland
##nevnt
##wig
##trent
##Sid
##tunn
##Arro
##ink
##republiken
##konfli
##mad
##Arbe
##Lat
##1901
##kande
##motsvar
##fjerde
##Edward
##Adolf
##az
##indtil
##nest
##midten
##1903
##ledare
##sikker
##nende
##Rob
##lopp
##sjef
##42
##aget
##Wales
##skill
##værende
##sey
##idu
##abri
##mund
##forand
##spelades
##kraftig
##behandling
##Lep
##endte
##bildade
##mass
##fant
##eral
##fakt
##ferdig
##æs
##US
##ordin
##styrker
##procent
##platsen
##version
##strid
##uppr
##vingar
##data
##Kyr
##1890
##italiensk
##psyk
##Tour
##ksjon
##offisi
##HL
##femte
##hev
##gifter
##ogne
##reservat
##eland
##Barn
##Ki
##byggnaden
##Hoved
##Osterrike
##Magnus
##jev
##Sing
##ansen
##Fram
##oga
##Frederik
##Sogn
##Rid
##Has
##gro
##sim
##85
##Buen
##Tot
##Johann
##pul
##tart
##kere
##You
##Gl
##stallet
##ffer
##pi
##kontakt
##passer
##fus
##fagel
##dvarg
##profession
##Senere
##cens
##malet
##Ax
##Lapp
##astronom
##unda
##formel
##livskraftig
##somradet
##regeringen
##sva
##ilus
##kloster
##irk
##gavs
##ston
##Israel
##rul
##dring
##komma
##spelet
##Albert
##ovo
##dater
##paver
##arbeider
##King
##46
##anstall
##typer
##student
##use
##Angeles
##skaber
##østlige
##anne
##gaard
##sprog
##intres
##belagen
##rør
##Aren
##cke
##gjer
##utviklet
##musiker
##atan
##grader
##portr
##ssland
##brud
##kansk
##iets
##sign
##kinesisk
##EU
##zen
##kombin
##Shan
##parasitsteklar
##Rh
##æk
##modern
##brokparasitsteklar
##tj
##kvinner
##pu
##straff
##finansi
##trom
##sman
##brand
##nesten
##Mala
##kandidat
##kust
##lidae
##She
##alternat
##mekan
##Ple
##gjøre
##160
##tidlegare
##egna
##nik
##standard
##kommit
##nød
##eksister
##biller
##CD
##Sankt
##produksjon
##betydning
##allen
##Hit
##historisk
##Skott
##tus
##olin
##Liban
##Kin
##rest
##runde
##vigt
##Para
##plom
##match
##Kirke
##Foren
##ude
##dit
##Irland
##uan
##kh
##ool
##vore
##ophila
##starten
##bidrag
##Gron
##Les
##gy
##langa
##ovis
##ush
##rys
##ønder
##ima
##Tet
##cin
##vinn
##civ
##Hj
##Hed
##Fu
##arar
##situ
##organisation
##forlor
##funnet
##spis
##huvudort
##slog
##styret
##Film
##But
##Phil
##sosi
##Rosen
##høye
##universitetet
##manu
##hjemme
##ave
##konservat
##iller
##populær
##Clar
##plassen
##sider
##hjelp
##slott
##samlet
##oftast
##ior
##minne
##isseau
##viss
##sken
##refer
##ado
##fulgte
##manniskor
##rettet
##ager
##dd
##Ghar
##uppe
##ution
##sjal
##skov
##produktion
##Litt
##russiske
##Fl
##tant
##fotbolls
##Buk
##Underarter
##opprettet
##jørn
##makedon
##keiser
##ary
##numera
##sakal
##sonen
##Ruisseau
##Phili
##Administ
##800
##silver
##Hom
##stede
##obser
##bøl
##hom
##IK
##ism
##Trondheim
##tilhører
##rust
##omfatter
##fund
##myt
##mob
##nte
##wer
##historien
##1898
##dade
##frit
##backen
##1897
##omfattar
##nan
##Finn
##rym
##herr
##Nap
##Øster
##riske
##splan
##Ky
##køb
##Moskva
##gerne
##Peak
##internasjonale
##sled
##Dje
##inder
##planet
##bestam
##skriven
##skiftet
##dager
##familj
##ganske
##gelser
##æv
##astero
##tion
##Oscar
##Sof
##kompos
##tering
##kolle
##dium
##41
##ærende
##vuxna
##garen
##delades
##riksdelen
##exempelvis
##ktioner
##43
##holdsvis
##jing
##fordel
##religi
##Cle
##rack
##gede
##hert
##etta
##versjon
##trots
##grevskapet
##kristen
##95
##kraftverk
##Mul
##Divis
##pap
##tiller
##makten
##terne
##ckor
##Gal
##omtrent
##elektron
##urus
##tel
##forvalt
##gode
##andin
##suc
##Matt
##Tex
##ursprungligen
##premiar
##kanske
##byn
##lærer
##bryt
##normalt
##diam
##dro
##lund
##etablert
##andt
##barne
##varme
##pha
##1899
##1896
##ids
##unde
##sund
##spesielt
##division
##pus
##amn
##ond
##Tro
##kers
##skulp
##insekter
##gasin
##sekret
##stran
##bedri
##Champ
##begrav
##1880
##divisjon
##harad
##dde
##mente
##ulus
##Universitetet
##-,
##Dare
##Mak
##tildelt
##bs
##.)
##strat
##erades
##foretaget
##vanligt
##bruker
##Utbredelse
##uppgick
##kval
##rød
##Eup
##gjekk
##nastan
##Sor
##kende
##øse
##63
##liber
##bedre
##Skottland
##kæ
##rø
##kunstner
##arabiska
##ament
##Stre
##pin
##lighed
##Danmarks
##oende
##spraket
##selskapet
##tekst
##Stan
##same
##anta
##bese
##Mos
##Trom
##forbundslandet
##flock
##social
##jevo
##opus
##1895
##urner
##Eri
##obbel
##Az
##Andra
##listen
##Kj
##gammal
##Point
##Djebel
##ingo
##styrelsen
##toppen
##isjonen
##hes
##transport
##99
##organiser
##symbol
##bour
##sberg
##spred
##politiska
##ytte
##Aires
##Jane
##dent
##bygningen
##IS
##separ
##bladet
##ape
##sjukdom
##eksped
##hovedsa
##Buenos
##landeart
##befal
##artvaxter
##sadan
##hip
##byggjar
##cet
##hendes
##jes
##øs
##titel
##mate
##Karri
##bocker
##ovriga
##verkar
##apnet
##utvikling
##innenfor
##vekt
##bir
##fiskar
##Kur
##historiske
##Boli
##delag
##Ore
##Heinrich
##flertal
##88
##Grek
##broder
##skick
##parken
##mik
##Alfred
##central
##stille
##forslag
##djup
##Cham
##atis
##Chan
##ruz
##Dre
##direktor
##guvernementet
##Miss
##Fj
##Spr
##serna
##rup
##Stora
##vitt
##made
##maskart
##dommen
##ical
##Teater
##drog
##berre
##nasjonal
##edd
##Befolkningen
##edet
##jakt
##fien
##Sle
##iter
##spart
##lop
##vitenskap
##hvordan
##lister
##spro
##uren
##handler
##sere
##Pu
##62
##ungdoms
##møt
##600
##tack
##line
##udgivet
##Ros
##Ost
##Royal
##ilt
##britisk
##sje
##pian
##informat
##Indi
##handlar
##57
##Not
##Anne
##styrke
##popular
##Geografi
##andinav
##².
##opera
##Nan
##hjæl
##beteck
##eda
##1870
##Belg
##inst
##lats
##1000
##enten
##nasi
##seier
##ernas
##somrade
##initi
##Central
##likt
##mentar
##Goteborgs
##jeg
##lene
##super
##Stav
##Laguna
##herre
##kommunal
##Rak
##Cas
##bedste
##manus
##respektive
##Gora
##standen
##farg
##Kommune
##ower
##Monte
##igheten
##Darreh
##vanliga
##ekte
##Lor
##Ang
##utenfor
##fragor
##anen
##olympiske
##tilsvar
##nst
##turneringen
##jun
##Bry
##Ren
##bilder
##seinare
##Long
##Little
##skor
##publikken
##Ana
##saken
##stiftet
##valdes
##58
##rater
##uppfordes
##Star
##Rap
##Navnet
##avsnitt
##Seoul
##best
##kamper
##likevel
##slandor
##arie
##Sab
##serier
##tør
##nelse
##Nils
##kvinne
##lyckades
##bestaende
##artist
##atum
##tills
##not
##stjarn
##slandeart
##arah
##Musik
##CA
##glas
##1893
##Europe
##marken
##bolig
##Dia
##temperatur
##funktion
##Poly
##sack
##kalles
##Adam
##klock
##agg
##landslaget
##Pot
##just
##gern
##kopings
##ologiska
##militar
##betal
##hug
##baggar
##vanske
##hørte
##Olav
##maneder
##etts
##neste
##Dol
##emal
##salt
##maet
##Ari
##77
##snabb
##vere
##1889
##plads
##innbyggjar
##varandra
##1892
##Ryssland
##his
##Koud
##bind
##anten
##værk
##diplom
##eres
##Sydney
##tider
##elever
##Tem
##europ
##Sarajevo
##landskommun
##Tal
##olympisk
##medaljer
##Aar
##Lappland
##lingarna
##ridge
##Sem
##Simon
##parten
##Mary
##nads
##.»
##banan
##Riks
##otus
##angrep
##1894
##bjerg
##give
##nytta
##nordvest
##Libanon
##sette
##otte
##bevæ
##inea
##ال
##61
##ank
##startade
##øyene
##cal
##ques
##skat
##Pierre
##Vinter
##grens
##øret
##regnes
##bøker
##produc
##artvaxtart
##kken
##Ob
##planer
##sentrum
##Cra
##ømme
##Kl
##amerika
##ømmer
##FA
##utbildning
##opprinnelig
##enhet
##ollar
##1862
##grek
##arean
##tillhorde
##desig
##kritik
##Lille
##naede
##Tha
##annu
##brack
##Ludvig
##Stefan
##rei
##atisk
##brukar
##viden
##Feder
##Hansen
##tradte
##ansprak
##festivalen
##Prod
##stral
##NR
##kelig
##istiska
##Ifølge
##Bad
##gad
##dvargstritar
##vakt
##material
##troll
##Arroyo
##Jakob
##strek
##pad
##valde
##lanet
##Ober
##elses
##ance
##Za
##Tanjung
##vul
##vite
##top
##biart
##rick
##mesterskapet
##Wash
##Dyn
##gresk
##cta
##(«
##metal
##eh
##ason
##orkester
##Radio
##slutningen
##æld
##Timur
##pade
##mul
##poli
##hogre
##eldre
##1891
##Agu
##benyttet
##iteter
##romerske
##arhundrede
##Ah
##Roma
##især
##hertug
##Villa
##Sin
##liksom
##berget
##hind
##loven
##jd
##Bade
##Division
##iere
##MS
##brittiska
##detal
##union
##hat
##taler
##illust
##inae
##iket
##live
##Sul
##ylla
##dommer
##Ala
##antar
##Henri
##felles
##Elisa
##78
##avstand
##sigt
##bjorn
##tron
##Tol
##1888
##jeck
##sommeren
##jt
##die
##gn
##sburg
##statsminister
##cell
##esia
##jazz
##120
##1885
##illo
##regjering
##hjal
##klær
##ami
##tolv
##betydelse
##type
##klok
##inratt
##lea
##Fyl
##Shi
##kommunik
##Bang
##avled
##stendig
##Spe
##Ce
##Atlan
##Eric
##kampe
##militære
##video
##jak
##ift
##meister
##satta
##sjølv
##kallades
##vanligvis
##venstre
##turne
##kyst
##Trich
##dramat
##ulerade
##Blan
##forlag
##dobbel
##Soc
##mac
##ringen
##spelte
##rapporter
##forsvars
##Whi
##Tak
##selskap
##bana
##board
##fjellet
##modell
##faktor
##sager
##lyst
##Grekland
##gangar
##demon
##traff
##gransen
##Kron
##Rus
##Grande
##kro
##Carol
##Green
##skold
##turel
##Walker
##dorf
##Peder
##esel
##havns
##meir
##Bygg
##Bjor
##Shu
##kg
##sasong
##tagit
##lage
##visade
##Hyp
##motiv
##lignende
##larare
##Sydkorea
##varian
##tinget
##Bot
##normal
##moss
##well
##ows
##1860
##noget
##Washington
##ørs
##Kle
##bytte
##bracksteklar
##klasse
##Len
##omra
##kerne
##eldste
##omet
##gle
##pavir
##fanter
##Folke
##Californ
##kok
##gara
##uro
##stiden
##Vastra
##...
##Museum
##Music
##Lee
##kos
##medverkade
##Love
##dekor
##spansk
##konkurrer
##brukte
##Ludwig
##ischer
##ligheten
##Fir
##Egyp
##blot
##fora
##forkort
##ligheter
##spolit
##lyd
##Kultur
##rikes
##kede
##How
##Big
##spelat
##College
##wi
##org
##Staden
##foddes
##ingick
##Ped
##Grøn
##Bob
##Cent
##%)
##kræ
##Queens
##skjer
##latar
##Jør
##Mellan
##king
##Ernst
##anti
##sattning
##Folket
##sommarspelen
##olis
##foral
##Stil
##Tang
##moh
##Genom
##Bis
##59
##Mit
##enbart
##poeng
##serne
##utnamn
##slav
##ringar
##uma
##stjer
##inkludert
##ambas
##sede
##øen
##otball
##typisk
##besok
##holms
##Just
##sige
##Oly
##dringer
##matt
##invig
##solgt
##sve
##historiker
##arig
##titeln
##Lil
##uppdrag
##byens
##diameter
##Lom
##Bow
##jul
##zhou
##opphav
##ckel
##Sammen
##setning
##Sang
##Pon
##Hil
##yi
##mangd
##syv
##dæ
##manader
##elv
##anvanda
##pastor
##reformen
##mission
##ters
##Ray
##pon
##repræ
##starkt
##representant
##span
##nominer
##utbredt
##ocar
##maskin
##sagt
##flag
##forut
##soma
##ventu
##skipet
##inva
##ctic
##miljo
##kanalen
##pens
##1887
##Reser
##samhallet
##Utover
##internationella
##uch
##52
##zy
##see
##tittelen
##ulata
##yang
##Fest
##Aten
##SC
##Mars
##prest
##arbetar
##utdan
##formet
##italienske
##Sud
##vu
##prins
##holmen
##æst
##anvandas
##betydelig
##duk
##uppmark
##stoff
##grunnlagt
##Jesus
##stær
##inske
##School
##brons
##Nas
##forhallanden
##1884
##forekom
##ory
##98
##svan
##gate
##Lis
##økonomiske
##Cro
##meng
##viet
##ktene
##sum
##sjalva
##misjon
##erar
##entet
##slutning
##ican
##flockblomm
##utstall
##skrivit
##sekretær
##kontroller
##Dub
##prot
##leker
##hag
##skij
##Victoria
##dubbel
##øren
##Wind
##hjer
##It
##kendte
##oslav
##hidae
##klare
##arkitektur
##kjend
##Harry
##fjarde
##Bei
##fartyg
##strateg
##lers
##Champions
##Idr
##vinner
##une
##amar
##begynnelsen
##Kungliga
##pave
##Administrat
##East
##72
##tving
##bast
##vold
##Munchen
##dry
##Ogsa
##Hei
##ollen
##Bod
##Syn
##olje
##desuden
##Arthur
##dessutom
##hof
##1886
##NM
##Ole
##problemer
##avaxter
##historik
##fu
##Kroat
##sekr
##høje
##stillingen
##sommaren
##vokat
##bakken
##Kopen
##1878
##bosatt
##ophyll
##byggnader
##blomster
##lex
##dela
##mist
##konsert
##stæn
##Pop
##tilf
##løb
##midler
##Bart
##utnevnt
##spelaren
##systemat
##dennes
##Moder
##Tru
##kyrko
##Hau
##landskap
##168
##Ass
##Kil
##funn
##skifte
##yan
##vap
##arbeten
##itionen
##Organ
##strup
##akadem
##elev
##Valle
##Kre
##Portug
##Olof
##lagde
##oe
##orm
##landsby
##slin
##ackum
##kommet
##inten
##Axel
##jurid
##Alto
##linger
##urn
##plar
##inled
##1882
##rund
##hæn
##uther
##idrott
##Holm
##Abo
##innbyggjarar
##tif
##skel
##ois
##bygninger
##ungar
##FN
##viken
##Egypten
##war
##base
##samarbeid
##magasin
##betyr
##Amp
##Lov
##DR
##bakom
##Margar
##luk
##fylkes
##lagd
##Ring
##Noen
##79
##avan
##forbindel
##individu
##deligt
##lita
##børn
##ib
##formann
##esen
##altsa
##Klubben
##german
##omfattande
##ugu
##obel
##India
##ador
##mond
##perman
##chsen
##lovak
##examen
##officer
##klassi
##initiativ
##modeller
##vendte
##stilt
##skilda
##Eurovis
##High
##nødven
##SV
##Andreas
##kulturel
##Spel
##vede
##komite
##forsok
##utvi
##Irak
##voksne
##forhand
##71
##iri
##iserte
##1863
##Ing
##naz
##fallet
##Spania
##ido
##gdom
##Harald
##islam
##Gunnar
##ilia
##odon
##alvor
##1879
##issi
##Sao
##Store
##ledende
##frukt
##Københavns
##kaldt
##Forsvar
##bryg
##spillere
##White
##RA
##redaktør
##56
##avaxtart
##Olymp
##debuterade
##Dic
##Rol
##Vit
##diale
##lære
##skriften
##54
##hæng
##lid
##dynast
##skjed
##Gav
##yen
##gsel
##yah
##visa
##sterkt
##Eurovision
##løbet
##Jag
##Chic
##orn
##Frankrig
##Bell
##Wer
##osus
##fotbollsspelare
##1864
##verd
##fuld
##ackumulerade
##hæren
##tegnet
##løst
##Cry
##Barat
##pseud
##arane
##tun
##Brasil
##Aret
##hogskolan
##rent
##vaxte
##Rag
##studerte
##Tok
##almin
##Kunst
##1881
##Bayer
##Høy
##pur
##stræ
##Alla
##bruges
##Leve
##entiteten
##Knut
##drama
##1883
##Tit
##delade
##France
##kontra
##Ukra
##Scot
##250
##anvander
##NRK
##Stud
##prop
##raknas
##stater
##sendte
##finne
##siv
##51
##parall
##VD
##yx
##Institut
##framsta
##artiller
##dop
##freds
##katolske
##Vo
##kvarter
##historiska
##hvil
##alene
##has
##Vilhelm
##stø
##Emil
##ristians
##Prix
##eli
##fyrste
##Gruppen
##bong
##bek
##hack
##giftet
##mala
##Wood
##aceae
##Francisco
##kristne
##still
##mmel
##Nov
##gers
##ines
##tillrack
##Kas
##forsamlingen
##parlamentet
##hum
##Skane
##hara
##legen
##ledelse
##Liber
##jol
##seri
##inspel
##Kim
##grasart
##ifølge
##dator
##etn
##stedt
##eten
##700
##iret
##Vas
##fald
##antall
##bered
##skaff
##Vik
##romersk
##skulptur
##økonomisk
##BC
##biner
##beskriver
##beliggende
##planter
##foss
##»)
##invol
##Ferdin
##erstatt
##agde
##tryck
##filosofi
##registrer
##saari
##projekt
##jød
##varer
##befinner
##emot
##Sund
##gjel
##Norske
##Isa
##Club
##produsert
##løse
##foljd
##Tab
##Off
##eras
##130
##tyd
##vingene
##Bus
##day
##gis
##vur
##Lands
##kle
##klin
##kammer
##ان
##uavheng
##Scott
##Cr
##Gon
##rh
##trykk
##arande
##holls
##tand
##76
##gane
##mig
##1875
##Jens
##ønn
##1865
##sentral
##analy
##arbetet
##ordenen
##talets
##skript
##ouse
##føring
##erobr
##horde
##ligaen
##amt
##Franco
##geli
##adel
##terede
##søster
##Sø
##rute
##در
##studie
##naturreservat
##wards
##vanligen
##General
##aldsta
##53
##spanske
##vejen
##soner
##bestemt
##Tysk
##nationella
##Das
##Hard
##ihop
##psy
##linjer
##dell
##Nova
##listan
##pans
##sjalvstand
##produkter
##beck
##stationen
##design
##erstattet
##Kos
##sterna
##hei
##1850
##Manga
##ktig
##Arn
##VI
##fandt
##DS
##bruke
##overfor
##lanser
##chester
##lenger
##Ann
##slottet
##inneholder
##garn
##flygplan
##1877
##ums
##Pod
##Serien
##our
##imod
##plad
##bergspass
##inklus
##anthus
##jus
##forlorade
##malar
##arist
##kanten
##other
##kapa
##Statens
##erb
##1200
##domen
##olo
##Tele
##cos
##Ferdinand
##sjek
##bury
##hia
##syster
##dari
##media
##Stavanger
##Bolivia
##vre
##ophyllum
##indbyggere
##umet
##havs
##Fag
##ello
##taxa
##Die
##noko
##væk
##Juan
##74
##sentrale
##oro
##verdi
##Sn
##desse
##mænd
##begran
##Nikola
##cup
##øndelag
##usten
##suksess
##universit
##gaver
##reakt
##Ned
##slet
##teori
##bibliotek
##sprin
##skilde
##kreis
##igenom
##fold
##formal
##arbets
##Gard
##Im
##ente
##gymnasi
##omfattende
##Dun
##ics
##primær
##Herr
##bidra
##text
##Utbred
##organisasjon
##Andersson
##finst
##tager
##landslag
##eus
##upptacktes
##sili
##atervande
##sena
##Gir
##klarte
##tunnel
##undersok
##amask
##ingenjor
##Bandet
##faglar
##fallande
##fullt
##brann
##dokumentar
##Gott
##Folk
##Hab
##Fle
##Varm
##belag
##hotad
##europeiske
##vika
##Chri
##sekreter
##Darefter
##Trøndelag
##fars
##anga
##Pasir
##betet
##Natur
##Kot
##kans
##liggande
##epis
##dvs
##1874
##ival
##formand
##utgjorde
##fulgt
##Nic
##tusen
##Charlot
##mane
##cip
##infl
##korre
##alls
##rac
##sterne
##danska
##blok
##Filipp
##73
##Dansk
##kov
##dannelse
##agua
##""
##Had
##Pic
##Step
##davarande
##brugt
##arbejder
##songer
##drene
##1866
##dals
##Levevis
##sjoarna
##ident
##Kha
##Tekn
##lenge
##viktigaste
##arden
##puter
##offentlige
##ugo
##rita
##bredt
##Kamp
##non
##reb
##kade
##traf
##værker
##Will
##Shar
##wald
##EP
##Frem
##Glac
##Pter
##Top
##svarte
##1876
##Queensland
##individer
##American
##140
##krimin
##rask
##konkurransen
##kroner
##perioder
##skud
##enes
##undervisning
##skre
##ønske
##icke
##ladi
##1871
##esp
##Chu
##idi
##Glacier
##ligan
##høyde
##viktigste
##instrument
##Contest
##bygde
##camp
##nordøst
##sche
##dollar
##iler
##Zag
##Nielsen
##bygga
##lave
##Bun
##Bukit
##sitter
##qvist
##oar
##avis
##relsen
##studenter
##vens
##syke
##fog
##atar
##ivet
##vic
##Teg
##centi
##Hermann
##inska
##prom
##klassisk
##essen
##hovedsakelig
##gelig
##yet
##hai
##fugl
##Janeiro
##hyl
##Asp
##Norden
##angreb
##iør
##Johans
##kapit
##)"
##preg
##allra
##interesse
##stadion
##gruppa
##Khan
##Lie
##out
##lass
##Franz
##rea
##Blom
##Fru
##Frederiks
##cur
##ophora
##forsy
##omer
##daga
##framgangs
##jente
##verka
##Dur
##ates
##oblast
##japanske
##Santo
##sutøver
##App
##Py
##skrigen
##chs
##Antonio
##kunn
##vita
##Bris
##tross
##oca
##Pala
##tros
##romanen
##mont
##ingart
##1848
##Turner
##Rei
##senteret
##halls
##Viet
##Republi
##”.
##stadens
##ademien
##kens
##tillgang
##Brown
##Pap
##Massa
##Hart
##bott
##Blant
##juvel
##annon
##Mega
##sørvest
##js
##negat
##Kopenhamn
##hva
##California
##Heter
##hverandre
##pest
##varde
##korte
##forvar
##driv
##emon
##konkurren
##skedde
##Jørgen
##Sag
##igare
##Hag
##observat
##vigtig
##uttal
##dage
##Smal
##1868
##tema
##wadi
##Ford
##koloni
##ici
##berøm
##tidspunkt
##tryk
##religion
##grunden
##inert
##Jebel
##rene
##priset
##nasjonale
##organisationen
##Barcel
##later
##Dyntaxa
##rekl
##ældre
##borjar
##1872
##vags
##umen
##døy
##gelige
##vester
##Engel
##arm
##Kateg
##amat
##ylland
##dokumenter
##dekk
##sno
##harkran
##kontin
##skabe
##Flere
##oto
##narmaste
##lian
##Pil
##overtog
##assist
##imm
##mmy
##flykt
##MW
##ming
##Lø
##stjerne
##oppna
##Asia
##lykke
##May
##bærer
##mansk
##frivil
##Nort
##bjornspinnare
##saval
##stallde
##harkrankar
##angri
##Abra
##skriva
##stens
##Pere
##bili
##app
##1869
##antik
##aux
##Union
##ration
##Domin
##turnering
##artene
##kanon
##86
##metall
##brittisk
##gress
##1867
##stas
##partier
##nader
##";
##trans
##ønsket
##Soci
##lakare
##venn
##Ivan
##Rudolf
##Hos
##modellen
##hende
##nogen
##okar
##Tjeck
##110
##zan
##driver
##Att
##FF
##uddann
##Chal
##Djur
##revolusjon
##Stein
##Let
##hoff
##96
##long
##iae
##Bes
##inflyt
##1873
##iana
##Blu
##kinesiske
##stren
##autom
##Sangen
##slar
##føres
##lare
##Napole
##skild
##fraga
##rette
##Pin
##ikanska
##Ribe
##priser
##Ingen
##diri
##raskt
##konsul
##kungen
##lengre
##arets
##Bakgrunn
##betrakt
##Strand
##ægte
##hoga
##samle
##Guy
##Kall
##reiste
##kronor
##Mellom
##front
##Gym
##fry
##given
##Pel
##ømm
##tz
##herunder
##1861
##orsak
##alko
##mart
##ax
##snar
##alltsa
##gol
##etenskap
##Stortinget
##afri
##lera
##fos
##okrater
##reise
##akten
##vern
##berak
##97
##Rey
##Sir
##plante
##hir
##stang
##forbud
##infanter
##rygg
##NT
##Ola
##Teng
##elven
##artister
##slekten
##regnet
##ange
##Senare
##92
##medis
##ui
##brø
##Historik
##stillinger
##snabbt
##inklusive
##villa
##Utloppet
##nod
##metoder
##Portugal
##dsel
##ones
##Chil
##strack
##ada
##aring
##Chicago
##Ye
##Sat
##Abu
##Sula
##stemmer
##tyder
##Jones
##esjon
##bt
##mangfot
##elin
##gjeve
##ettersom
##Tas
##cover
##skillnad
##iland
##kamer
##regjeringen
##rigt
##bens
##myndigheter
##varldens
##fotballspiller
##Famili
##hals
##hovedstad
##Kategori
##stjar
##deltag
##ders
##fjern
##levende
##flav
##losa
##Texas
##tillrackligt
##advokat
##bruks
##deb
##skepp
##medaljen
##ellers
##ursprungliga
##lej
##ktionen
##Dessutom
##cra
##debuterte
##Administrativ
##Rein
##hoe
##Law
##Riv
##hil
##mani
##Dr
##Od
##sekreterare
##chia
##yth
##troligen
##landsbyen
##Kroatien
##Jensen
##Samuel
##foljde
##Cir
##farger
##gods
##danner
##plate
##Gronland
##jernbane
##lix
##ugoslav
##kammar
##Station
##sekun
##erstat
##posten
##byra
##forsknings
##norska
##undan
##ов
##utgang
##Amt
##junior
##Glav
##Lad
##trekk
##Trots
##Mann
##riska
##møn
##ussen
##gøre
##ægt
##erov
##lesvig
##kejser
##Tenga
##wick
##oda
##vunnet
##solen
##fav
##Sveits
##solo
##betegnelsen
##endnu
##Wolf
##marevaxter
##chin
##legge
##overtok
##Pula
##stykke
##oi
##kred
##tidningen
##strof
##ressen
##Slaget
##skib
##Mens
##unger
##mossart
##rorelsen
##kob
##Phou
##bys
##fundet
##blan
##ekstra
##fodboldspiller
##Sla
##Vel
##samen
##osc
##Stal
##skogs
##ogrammet
##bai
##sporter
##Compan
##Tengah
##center
##torn
##redus
##fritt
##syns
##sluttet
##hardt
##Gabri
##otta
##prø
##mind
##anlagg
##rande
##delte
##Alban
##gotland
##plassert
##sesong
##Cop
##sja
##styrelse
##Kort
##stipen
##information
##fabri
##anter
##finsk
##Forsamlingen
##arrester
##inntil
##strax
##gementet
##grundade
##tapte
##avn
##orda
##Nes
##bladmossart
##desh
##typen
##kvalitet
##flora
##offiser
##flate
##tata
##hastighet
##mater
##sporsack
##eksem
##udiat
##fera
##protest
##hart
##jekter
##pennis
##beroende
##Jamt
##Barcelona
##symp
##arbeta
##Hamp
##egnet
##Lyn
##næsten
##vinde
##angel
##sporsacksvampar
##musikal
##varia
##ikon
##utstyr
##timer
##Sri
##legger
##Koudiat
##Serra
##Ordet
##legget
##avrinningsomradena
##spring
##Raknas
##stade
##drom
##beskrevet
##"(
##celler
##mener
##guvernor
##93
##Bom
##deren
##Coll
##stop
##Hvis
##eventu
##cephal
##strids
##drept
##NS
##forsøk
##Utbredning
##gemente
##kav
##populære
##belg
##mykje
##vie
##char
##ylus
##Castle
##tilsvarende
##jader
##tals
##kaldes
##CO
##Elisabeth
##ckte
##derefter
##Suc
##Brisbane
##spen
##cas
##anvande
##verds
##spon
##IA
##portug
##uly
##diskuter
##retten
##inia
##asteroid
##isol
##forret
##ordfører
##ningene
##interv
##ij
##Western
##materiale
##kropps
##jordbruk
##unnit
##zak
##Alber
##masse
##nevnte
##krev
##Kongo
##Beir
##Beat
##Prem
##Virgin
##hosten
##bund
##atre
##partiets
##bere
##prost
##angen
##stafett
##ungen
##idea
##zu
##1858
##ømmet
##hockey
##nøy
##Orebro
##Samtidig
##Konstant
##Bab
##grade
##integr
##nø
##skinn
##hundra
##Prag
##bly
##1859
##Luft
##samfunn
##længere
##Ostra
##bestemte
##framgang
##Fær
##nationale
##Lim
##argu
##Fylkes
##Pha
##Arne
##NHL
##Wat
##sed
##personen
##atem
##minutter
##ernes
##komponist
##ighed
##icol
##variant
##verksamheten
##sikre
##Vor
##tilknyt
##zia
##greve
##Center
##skott
##teknik
##Petter
##icum
##rego
##Ton
##Ei
##forste
##sørlige
##prefekturen
##uto
##levande
##SK
##Bjørn
##Inom
##Williams
##syr
##Beirut
##Bent
##natten
##battre
##onde
##samarbete
##yu
##rigs
##sovjetiske
##One
##ansatte
##klipp
##begra
##hra
##tein
##million
##Mir
##selve
##stolen
##velser
##dera
##ison
##vass
##soc
##uelle
##Inge
##sset
##Lew
##reguler
##Cur
##permanent
##øyer
##Gren
##Edvard
##præsident
##møtte
##vunnit
##kvinde
##Oden
##stalldes
##94
##ungs
##otum
##informa
##fotograf
##graden
##cykel
##slagen
##Hir
##vav
##drott
##igan
##handlinger
##Johnson
##opført
##frihet
##delarna
##fordelt
##cit
##skop
##introducer
##Ach
##TA
##ningens
##Julius
##marevaxtart
##bygging
##møte
##økonomi
##resultatet
##orum
##oftest
##erefter
##kalender
##praks
##Brdo
##Mali
##minnes
##Brom
##tala
##kardin
##benam
##ljud
##prast
##ods
##tap
##ues
##solgte
##tennis
##grense
##aton
##Kaliforn
##Mand
##bell
##medvir
##hvad
##sekunder
##høyeste
##flest
##hul
##Kalmar
##nio
##mea
##Tun
##tidens
##box
##Pradesh
##utover
##feil
##fattig
##Tillsammans
##fanta
##Aa
##nærings
##rium
##iku
##gata
##sort
##fored
##1840
##Pulau
##aktig
##tanter
##Jackson
##koncer
##Pom
##øvrige
##diver
##Open
##Hur
##tæt
##flyttades
##Kalifornien
##attra
##henhold
##zirk
##kem
##Sus
##itu
##optera
##sterk
##chn
##Organis
##cess
##And
##deira
##Gali
##82
##Hop
##Slekten
##Ungarn
##Egypt
##sitet
##ierra
##atiske
##mic
##ringmaskart
##stin
##Huvud
##total
##Sofia
##900
##1857
##skrevs
##itioner
##adens
##BA
##Oli
##Dahl
##Lago
##McC
##foll
##Jor
##sier
##adskil
##rie
##rert
##held
##vattendraget
##kommersi
##myror
##oppdaget
##Myr
##Ungern
##begyndelsen
##1830
##Nagra
##kilder
##provins
##malare
##oleander
##Melol
##Pak
##succes
##lium
##ylor
##gast
##egg
##Myn
##administra
##Vene
##Alt
##forfattaren
##hundre
##mangfotingart
##jent
##ellertid
##maten
##programmer
##91
##Famil
##tror
##haer
##mandat
##obi
##instrueret
##medeltida
##kaldet
##ction
##zig
##utnamndes
##erklær
##handlingen
##fardig
##ninga
##vak
##Laten
##him
##juvelvingar
##Water
##stasjonen
##ovre
##Gjen
##Yu
##eti
##oten
##føder
##ierne
##Eti
##finska
##NE
##1300
##manns
##dos
##zuel
##tales
##Wilson
##sætning
##Leuc
##Ball
##hie
##aro
##bergsked
##flaten
##tyn
##rets
##vokste
##stilte
##pool
##hemma
##olax
##samtliga
##Mod
##utgors
##idan
##soli
##Rik
##spelt
##serte
##aman
##Aleks
##ience
##terades
##Europ
##stjarna
##yne
##rona
##skyt
##supp
##leks
##Strom
##Award
##oriet
##lagre
##seger
##invigdes
##Cruz
##vetenskapliga
##tilldelades
##orus
##stabil
##kull
##Stad
##romant
##svenskan
##paret
##position
##Costa
##kraftigt
##forsvaret
##tavlingen
##kyrkje
##ial
##kkede
##Tidigare
##inc
##ray
##inrattades
##navne
##skogen
##nuværende
##kone
##bring
##orgel
##Sop
##urch
##skoler
##Wol
##rep
##Vietnam
##1400
##element
##utsags
##punkter
##avvattnas
##stemme
##poly
##landshold
##skibe
##oppført
##hurtig
##sjer
##Mik
##Corrego
##Company
##konger
##84
##buss
##grans
##skydd
##minor
##Andersen
##Middel
##Jacques
##Arets
##sklub
##ogle
##brasili
##hurt
##raff
##tidlige
##klubber
##vaben
##sidenten
##Aarhus
##uell
##wal
##hjælp
##akul
##Young
##heile
##greske
##tilfæl
##gjeven
##kommande
##amper
##republik
##arina
##ellersta
##likhet
##breen
##teor
##Syrien
##farty
##Tai
##benyttes
##ønt
##eien
##fyll
##Greg
##forbed
##Hum
##Ross
##ocha
##elly
##ografer
##itter
##rektor
##Depart
##":
##Brad
##Sad
##lokala
##viktige
##ctus
##myndighet
##kvens
##Eriks
##Rub
##grenser
##glans
##utred
##دره
##elektrisk
##doda
##Ecu
##Landkreis
##Gyl
##kritiker
##prosent
##ardo
##mojligt
##uppskatt
##alternativ
##kvalific
##dede
##landene
##ags
##profesjon
##asan
##Holly
##ensiv
##Etiop
##Bengt
##sangare
##Aqu
##Group
##forutom
##Beijing
##Hockey
##afhæng
##vinna
##dokument
##berom
##grekiska
##isch
##størrelse
##fødte
##enden
##radik
##Typ
##tvan
##vinne
##nordvastlig
##kanskje
##Eftersom
##Stand
##samlingar
##lane
##planen
##Vasa
##demokrater
##arbejdet
##delingen
##posisjon
##spørsmal
##private
##alem
##klima
##brudd
##osp
##ogel
##albu
##garde
##Josef
##1856
##maskiner
##Skop
##pig
##Stift
##lovfallande
##derimot
##detaljer
##MA
##satser
##vurder
##hertig
##ads
##baserad
##aktivitet
##bete
##apen
##kulturen
##usa
##passager
##forstor
##trener
##Melolont
##vundet
##tegn
##matchen
##arbetare
##dræ
##Lem
##lust
##henholdsvis
##turist
##Korea
##fy
##tagen
##Pav
##magnet
##endret
##installer
##helst
##dobbelt
##kot
##omradene
##Ash
##feld
##sjel
##mitte
##oz
##mastar
##Psy
##Isla
##telefon
##Ig
##alj
##Konst
##gjø
##lier
##figurer
##egentlig
##stensen
##Social
##Billboard
##høyere
##borde
##Ska
##Konstantin
##1855
##Verk
##sakalte
##synes
##Første
##udvikling
##Nun
##kins
##alum
##tillstand
##mers
##flade
##fremst
##alam
##motorer
##sessen
##Walter
##Vill
##mex
##jobbet
##festival
##Fore
##olle
##Salt
##idia
##Finlands
##sprod
##spri
##vanskelig
##imper
##roda
##Syste
##banken
##Spar
##skamp
##døds
##Post
##hovedstaden
##1852
##ansett
##bokstav
##identif
##atret
##ube
##praksis
##Lanka
##starta
##ellig
##varm
##portugis
##forar
##leis
##Evan
##oki
##Rasmus
##ærer
##more
##opprør
##slike
##terror
##nets
##darpa
##Foreningen
##veks
##malm
##fjader
##seil
##83
##Pyr
##sly
##vagar
##obe
##røde
##middelalderen
##Estland
##Ci
##fyn
##avvik
##flott
##Melolonthidae
##Francois
##tina
##snit
##Kent
##worth
##cap
##Napoleon
##Peru
##tis
##idium
##koncentr
##Sachsen
##Hitler
##aga
##kæmp
##hæ
##fange
##okal
##iah
##tropper
##cop
##sydlige
##lengde
##snes
##tidiga
##Borg
##Societ
##ritz
##ranger
##Nilsson
##intervju
##1100
##ografisk
##regissor
##erob
##agog
##ledningen
##mennene
##Qa
##ukra
##byggd
##iosa
##feltet
##spunktet
##ifran
##eira
##scenen
##Tenggara
##stammar
##89
##offisielle
##ratten
##Ris
##oy
##Mong
##forbi
##utgjør
##ouri
##87
##male
##redaktor
##kapell
##udnæv
##damer
##handen
##hode
##generelt
##europeiska
##samhet
##resa
##trolig
##anes
##basis
##Filippin
##varianter
##Tav
##brut
##Niel
##bundet
##81
##rix
##Street
##atemala
##Pert
##Win
##Johansson
##Møl
##egypt
##Foljande
##partik
##grensen
##Forsta
##Lenn
##drik
##Anti
##uppfatt
##Guang
##publikum
##vogn
##kompl
##personlig
##Guinea
##skjedde
##italienska
##kvax
##ologen
##Hell
##Distriktet
##Idag
##bridge
##stadt
##darlig
##1849
##kalk
##Morro
##korn
##imot
##ussel
##daværende
##Guatemala
##cam
##ademi
##indian
##Holland
##Manchester
##Florida
##bonde
##anledning
##Zealand
##othe
##kne
##vog
##iella
##dagg
##organisationer
##ørte
##mmes
##vidt
##ws
##politi
##drevet
##Neg
##antha
##atmos
##revet
##Augu
##øb
##Hay
##moderna
##Doug
##omycet
##forskare
##græ
##ansvaret
##guvern
##hant
##Wen
##karen
##Skopje
##vanleg
##skala
##Savolax
##helse
##konflikt
##arch
##States
##bebyggelse
##melig
##Bayern
##ares
##erus
##Eliza
##arlig
##faste
##renn
##angs
##oppkalt
##hone
##ingene
##drer
##Nusa
##fortæl
##Fur
##atiska
##1851
##Sønder
##Theodor
##bourne
##Jordan
##semifinalen
##sters
##hastig
##right
##væl
##hk
##gaven
##sterke
##bilen
##finans
##forsokte
##funksjon
##egenskaper
##Athen
##Bos
##invester
##Associ
##riar
##ialist
##larna
##pis
##objekt
##tyrk
##exemplar
##myrten
##phia
##arbejdede
##Ecuador
##Aker
##starka
##høyt
##vannet
##oppos
##ophor
##Fon
##sæson
##tjarnen
##Lunds
##Tva
##Horn
##hud
##Play
##uppgifter
##givare
##Venstre
##Slot
##fej
##1854
##lock
##rings
##ringer
##Laur
##dyn
##Sport
##Schle
##arabisk
##Neu
##hvite
##original
##arien
##bruket
##domstol
##bulgar
##agus
##kontinen
##omtalt
##sekven
##Aller
##jal
##akk
##Linne
##tain
##ople
##arius
##mol
##omus
##usalem
##farge
##bard
##uppratt
##ocent
##nokre
##ledes
##dighet
##finder
##Cri
##eier
##Fiji
##saka
##lidt
##Zu
##yla
##Roger
##ckt
##torel
##modstand
##dronning
##magt
##tilgjen
##universitets
##cept
##forord
##rattigheter
##garna
##sandes
##ocera
##elles
##Karriere
##tempel
##funk
##romaner
##gong
##Kvar
##taket
##tavlade
##Juni
##aktive
##vokal
##wesi
##arbeide
##flagg
##Rou
##riksdagen
##sammenlig
##brett
##cand
##civil
##Begge
##lip
##avik
##folkrak
##Bank
##accep
##stationer
##rekk
##Tjeckien
##Foret
##parker
##nedlagt
##harmon
##bæk
##faller
##budd
##Larsen
##uke
##langr
##punktet
##ersattes
##Herman
##fronten
##foljer
##trupper
##opprinnelige
##Arbeider
##pert
##allmanna
##emellertid
##systemer
##melod
##flygplats
##Robin
##etablerte
##Kristians
##sasonger
##kombiner
##utkom
##vinteren
##ansag
##kallat
##mini
##Tw
##cast
##bakter
##Hellas
##løper
##polis
##enheter
##kata
##produsent
##Range
##leir
##fragan
##Blue
##agt
##hagen
##visse
##dømt
##Sock
##gaste
##tanke
##intresse
##House
##IL
##Ukraina
##udover
##eftertrad
##lokalt
##songar
##polsk
##lata
##Fun
##Belgien
##kurs
##udgav
##huvudstad
##Ski
##1853
##Adri
##Dig
##Vig
##Donald
##IT
##Madaga
##japanska
##Olsen
##pred
##ked
##eth
##storm
##Jerusalem
##omgang
##makedonien
##nattslandeart
##ultat
##hydr
##Bost
##Back
##ansatt
##aktivt
##Dhar
##engager
##dik
##agare
##skatte
##bandets
##Domingo
##bergskedja
##iidae
##musikken
##Flyg
##multi
##okade
##Nordmakedonien
##komponer
##Lid
##):
##fælles
##hua
##Samma
##Saf
##skommun
##hindre
##Eugen
##renover
##Filip
##omycetes
##Lik
##ule
##yc
##kapten
##skalbaggar
##Motor
##Pir
##yret
##medalj
##Taylor
##pam
##penge
##vinkel
##eig
##ego
##døydde
##Brand
##rut
##biograf
##skiljer
##cea
##heds
##orks
##komed
##Mauri
##Prot
##Best
##rug
##reformer
##Fire
##PA
##telse
##alo
##utsatt
##Buda
##dafri
##Syl
##vey
##regisser
##ingeniør
##batal
##Old
##Lux
##dning
##Real
##Bulu
##erholl
##medlemm
##Kla
##støttet
##korta
##erke
##bestand
##Boken
##etti
##lara
##nej
##arker
##religiøse
##opna
##Skol
##slov
##baseret
##daglig
##Nederlanderna
##Sulawesi
##innflyt
##delbart
##Hert
##vards
##nominat
##vanster
##Wei
##dahl
##vera
##døm
##øverste
##spesia
##bets
##ingarna
##firma
##atak
##grand
##fallen
##sjtina
##Kristiania
##synligvis
##skapade
##snamn
##kvalster
##spindeldjursart
##mut
##Flo
##Yt
##lamna
##Ria
##omor
##borgar
##herred
##Koudyet
##Smaland
##Danske
##ao
##sling
##saks
##viks
##geren
##stilen
##senaste
##damp
##varte
##onym
##utionen
##gass
##sjoar
##sic
##veget
##arbeids
##kantus
##Nou
##attende
##signer
##Zar
##bilden
##underarten
##primært
##saldes
##jtnant
##Tysklands
##sterdam
##nare
##nødvendig
##,"
##lah
##utdanning
##reste
##centimeter
##arder
##jk
##stadi
##Jugoslav
##how
##rey
##metod
##Tidligere
##Jern
##akantus
##manuskript
##Like
##konkurrerer
##forestil
##varden
##oversikt
##hoger
##kilde
##ortod
##trakk
##Vax
##minuter
##tagelse
##tene
##byggt
##kvinder
##ængde
##sir
##brede
##somme
##Nør
##startede
##Arch
##Skandinav
##ktør
##vatn
##anien
##Chrys
##spanska
##Jonas
##Knud
##Sl
##Gord
##muslim
##effektiv
##Penn
##Amsterdam
##Khor
##huse
##styl
##namns
##Midt
##Rig
##affar
##Sau
##ار
##oter
##Fem
##naturen
##aktiviteter
##Mem
##Qar
##Seg
##Bull
##kus
##fullmakt
##teknisk
##tam
##nens
##sports
##amento
##Varl
##Rose
##samlede
##aft
##svenskt
##'.
##venner
##Shah
##dern
##maned
##ligesom
##arrange
##Nom
##arena
##projektet
##sosial
##Sierra
##rades
##Orten
##malv
##PC
##ansags
##Scotia
##trykket
##pale
##stitusjon
##hje
##Bok
##Totalt
##vagnar
##Zagreb
##Madagaskar
##uca
##grensa
##Mig
##skolor
##splat
##show
##ittel
##statist
##forhallandena
##ctor
##ornis
##Svart
##poet
##Flera
##Manito
##Tyrk
##emi
##utdannet
##anvendes
##1814
##Tokyo
##tavling
##iseringen
##Ges
##kryp
##alven
##FL
##hette
##ikan
##avdeling
##rekna
##kommende
##Cord
##vitenskape
##oba
##BK
##poner
##tvil
##nia
##Sr
##alkohol
##ls
##samfund
##pengar
##Orden
##forhallande
##merket
##tronen
##bba
##Beach
##anth
##nederlandsk
##Ever
##Resultat
##dol
##Pam
##øye
##zin
##Person
##hvorav
##otyp
##omo
##konta
##Darah
##Virginia
##Vad
##bilar
##omgivningen
##officiella
##empel
##Bam
##innsjø
##tidige
##para
##Heli
##inledde
##vanlige
##kopte
##Christop
##End
##utvecklades
##Mis
##itar
##humor
##Deut
##emark
##cla
##Arkite
##Kairo
##bein
##uella
##mara
##arbetat
##avlade
##Jun
##flytt
##vulkan
##Islands
##inosa
##Jarn
##nie
##qi
##beh
##Fjord
##Mans
##bildar
##forbindelser
##Ungdom
##forfattar
##Gabriel
##bergen
##mørke
##Svan
##Damask
##grundlag
##maleri
##Great
##Sein
##professionell
##atene
##Mall
##skrip
##virksomhet
##Indian
##visning
##ners
##mistet
##overført
##sjæl
##erfar
##illi
##Hamburg
##Cab
##kkes
##Manitoba
##forsalj
##Deretter
##faet
##sprid
##periment
##samisk
##lagene
##stag
##flyttede
##tittel
##europæ
##sektor
##tjanstgjorde
##Damaskus
##ratts
##patraff
##bourg
##masterskapet
##raf
##medicin
##doms
##Mah
##udgave
##teksten
##Ori
##Søn
##uppgift
##utseende
##fugler
##Carolina
##Odense
##DA
##itor
##politikk
##løy
##kyrkor
##alfa
##mottok
##Raf
##Yang
##specia
##Bap
##Lept
##Team
##høsten
##Søren
##tillkom
##arhundre
##extra
##hosp
##Hong
##reau
##trebuk
##Redan
##grundlagt
##Niels
##antingen
##pson
##kommunist
##Mats
##Cyr
##isere
##stark
##biler
##hjør
##trar
##put
##snack
##betydande
##fulla
##Budapest
##utøver
##Warren
##affe
##nos
##Tromsø
##Studen
##cial
##Liver
##Ribeira
##slappte
##Kyrk
##merke
##slan
##fjall
##foto
##producent
##tilknyttet
##Gold
##vekst
##testam
##skrit
##termin
##geri
##eledes
##Finnmark
##austra
##sea
##kampan
##Kirken
##søra
##untry
##ikkel
##Dublin
##Eva
##Ther
##visades
##dessuten
##furt
##enor
##cephalus
##Øy
##Ør
##Suva
##slutligen
##Lewis
##Hammar
##stak
##marked
##svarta
##Net
##Først
##gyl
##stof
##vinger
##hotell
##Nue
##oko
##Roms
##hab
##inas
##1847
##kanna
##indeholder
##opt
##mia
##aker
##valkrets
##regioner
##Sason
##tung
##icul
##trag
##karrieren
##hein
##Lord
##Turk
##fulle
##Wik
##konserter
##zel
##byggnads
##essa
##amnen
##forholdsvis
##Samme
##andel
##Montene
##Omkring
##rane
##Puer
##anni
##Mill
##produktionen
##ologien
##Color
##efterfølgende
##Wang
##cidae
##otis
##stock
##ferd
##opprett
##Wh
##dun
##fastlandet
##preget
##skogar
##botan
##syfte
##Lau
##halvøya
##avse
##kvarteret
##midlertid
##Departamento
##stund
##Kyrkan
##finale
##seder
##vades
##Sak
##daribland
##Alf
##retts
##lavere
##Huset
##motsvarar
##høyre
##Fab
##Trin
##lio
##nard
##Aal
##ankom
##sprang
##onien
##baner
##eles
##Jeg
##versionen
##cyl
##foremal
##ellus
##amnet
##stycken
##Tip
##vægt
##udgiv
##medlems
##skada
##spelas
##modtog
##haga
##grod
##veckor
##Garden
##yin
##gaet
##tilknytning
##imus
##domin
##ligste
##studioalbum
##blads
##onis
##konver
##ryggen
##Spring
##nominatformen
##eksempl
##kvinna
##parasitflugor
##austral
##Dendr
##1842
##juk
##Pad
##fysik
##Lilla
##arige
##feldt
##sele
##Antarctic
##gruppens
##Led
##Preussen
##lokaler
##klubbens
##smaharkrankar
##møl
##endelig
##rere
##Exempel
##signal
##rustning
##Kenya
##ogi
##Association
##yrer
##filosofie
##geograf
##prøv
##Alp
##Ib
##assistent
##nier
##kjøpte
##oshi
##stortings
##Sucre
##marknads
##Prof
##tade
##fremdeles
##Kli
##nel
##maskar
##won
##1846
##billed
##Davis
##drygt
##viv
##Litau
##umid
##qa
##human
##hurtigt
##Wall
##janst
##barnet
##utviklingen
##løn
##Pass
##hana
##riksdag
##regemente
##row
##Church
##Stu
##skreiv
##Ida
##bidrog
##key
##Joe
##klad
##blomflugor
##refle
##Derfor
##Asien
##lader
##Bulg
##indust
##koreanska
##arkitekten
##bevegelsen
##overva
##mesterskap
##Moore
##vatnet
##Out
##torp
##kontrover
##Tub
##portratt
##Hollywood
##Egent
##myrart
##inkluderer
##artikler
##konstit
##atorer
##Jef
##Wu
##Sma
##kongelige
##beskrivs
##kryd
##ferenser
##Gavle
##Umea
##forfatteren
##slyck
##Rot
##Ske
##avisen
##chel
##anlæg
##særleg
##fengsel
##opel
##Fisk
##Forutom
##Astero
##bragte
##gariket
##hvilken
##astronomen
##kelser
##Samtidigt
##kejs
##rysk
##fing
##Forsk
##kraftige
##tekster
##Time
##syre
##ligaste
##Stone
##kirker
##versjonen
##DNA
##ryt
##stjene
##bostad
##Philip
##Montre
##prem
##aterupp
##kejsar
##skrona
##utz
##verne
##stjarnor
##ældste
##flu
##Sher
##finlandsk
##Louise
##bien
##batter
##placering
##aly
##manien
##sjette
##øster
##Baker
##Liverpool
##Lig
##Rem
##samfunnet
##nedre
##schef
##bøger
##akter
##1838
##berømte
##dea
##1845
##Perth
##Jord
##borator
##obius
##ladimir
##brød
##konged
##Georgia
##evan
##Guer
##ative
##hammer
##Skov
##Dermed
##Bjer
##omfattade
##ios
##Show
##Nordland
##Pub
##gium
##Live
##tvingades
##Rhin
##dekket
##yle
##informasjon
##passet
##slogs
##monu
##Kors
##Ov
##stro
##Haw
##Muller
##lun
##Wadi
##ært
##velsen
##fordon
##Dominikanska
##ilton
##oche
##løber
##debatt
##AC
##Och
##adels
##ødelagt
##',
##Svensk
##baten
##borr
##sidst
##mata
##bakgrunn
##Premier
##wich
##Brian
##Østerrike
##jut
##osman
##stalla
##onoma
##Nordamerika
##igennem
##Kie
##iene
##hogt
##sønnen
##Lill
##raket
##fatte
##fugle
##ofon
##server
##yrkes
##Kuba
##1844
##øyane
##symbo
##byggde
##fylumet
##Danne
##Ribeirao
##bilde
##rens
##industrien
##teoret
##nyere
##forteller
##SVT
##Elizabeth
##eor
##Arg
##denburg
##finde
##kvinnliga
##offisielt
##sekund
##arida
##oprindelige
##løsning
##Day
##Tiz
##konfer
##favor
##ledd
##gram
##reta
##Bed
##oge
##IC
##bebyggt
##bajd
##mangden
##lagan
##starter
##Aph
##ankla
##Ble
##dru
##Piz
##utrikes
##Selskapet
##avtal
##pedagog
##leva
##Vladimir
##patien
##optræ
##uppkallad
##ukas
##vandring
##Nis
##scor
##wen
##kvalsterart
##tende
##Beskriv
##Bibel
##beord
##tranare
##ljung
##utvidet
##gett
##Gene
##forestall
##Din
##kampene
##Num
##jødiske
##Mr
##Chen
##preste
##fortell
##UK
##gø
##genet
##ulen
##iran
##stalt
##virksomhed
##Montenegro
##danne
##Mam
##ørt
##lilla
##garder
##forlot
##kritiser
##cri
##forny
##trea
##misslyck
##Ela
##bibel
##missionen
##vokser
##officiellt
##oria
##Michel
##Championship
##Bø
##verkat
##massa
##hort
##begravet
##ruppen
##ønsker
##feder
##stændig
##betegnelse
##hoglandsklimat
##Igar
##landa
##Hob
##holdes
##Aut
##Nicola
##Alan
##revs
##delene
##sørøst
##Dalarna
##LP
##Lav
##lagga
##beror
##kanoner
##Ler
##Bour
##Mang
##friidrettsutøver
##allierte
##kningen
##Begre
##Shuiku
##atra
##dong
##plata
##egentligen
##eo
##edal
##anders
##antallet
##ivan
##sluttede
##eau
##bisped
##snackart
##ensam
##arth
##sloven
##rand
##Federationen
##Tyr
##hoven
##helik
##Stig
##NO
##oua
##Hakon
##drive
##blo
##golf
##Nab
##separat
##Sm
##arki
##varierer
##Rand
##bildning
##hyp
##dren
##formis
##steater
##idar
##føde
##organisasjonen
##TO
##sande
##amin
##Slesvig
##ocker
##middelalder
##bosatte
##fril
##baltet
##brom
##Kinas
##skin
##1839
##event
##hvit
##eler
##namnda
##Act
##Songen
##ough
##fangelse
##papir
##Gull
##mytologi
##ovi
##Pl
##muligt
##Vissa
##ideer
##Brother
##sakerhet
##flockblommiga
##rykket
##skyld
##Bjorn
##sagen
##Kari
##vania
##faktisk
##DVD
##itis
##boka
##schw
##DC
##sjukhus
##forholdet
##gardar
##bler
##arkiv
##gil
##aldern
##Handels
##Night
##embed
##cio
##vade
##hasa
##Ord
##Steve
##tah
##fack
##Industri
##Desuden
##Vall
##karaktar
##ular
##yderligere
##tilhørte
##blik
##uld
##ophilus
##lamp
##Lev
##mening
##uz
##inflytande
##Town
##kullar
##ombord
##spin
##Good
##vorte
##plo
##Sasongen
##Igarape
##dikter
##motta
##Rusland
##Christopher
##formede
##uddannelse
##Cec
##qui
##mote
##Sub
##avnet
##alit
##hundr
##skyr
##Ay
##pto
##styrkene
##psal
##Nel
##revolution
##kastet
##lake
##ftar
##makedonska
##Verdens
##stylt
##klasser
##bjørn
##rok
##cou
##fikt
##involver
##Melbourne
##byrja
##Nich
##Ret
##jarnvags
##Road
##BBC
##Wars
##Spa
##naværende
##viktiga
##ells
##Status
##ekspedisjonen
##gula
##æres
##olph
##Vatten
##ministeriet
##spre
##split
##bei
##tacker
##messig
##samlings
##Wis
##pum
##funnits
##Akers
##middels
##fet
##ckerla
##Melan
##skapades
##forblev
##Football
##Blo
##alitet
##Pun
##vision
##studiet
##Mog
##Valen
##anmel
##hausen
##Grev
##System
##1837
##Boh
##hevdet
##Malm
##jiang
##interesser
##rekor
##ansat
##upphorde
##PS
##oversattning
##gli
##skjold
##monster
##tatbebyggt
##Etiopien
##lisk
##meddelade
##kackerla
##AT
##skje
##ophagus
##sif
##Nieder
##Vag
##Seba
##Dry
##renner
##Wag
##Anten
##smy
##terer
##prog
##Pek
##anlagt
##hogskola
##Windows
##artikel
##Mach
##basket
##dømes
##iar
##møter
##Sic
##dyre
##Allerede
##Jim
##udkom
##Hugo
##autor
##spektiv
##Try
##Kop
##Cyc
##oke
##jn
##stick
##Howard
##nederlag
##kommando
##sadana
##forsøkte
##magi
##sorg
##snø
##krater
##osh
##Riviere
##akultet
##della
##omyza
##Jiang
##rejse
##avsluttet
##svaxtart
##parish
##lavart
##Glen
##Arena
##webb
##fenben
##Poli
##Jamtland
##skader
##phus
##tater
##iget
##anvants
##indiske
##pec
##Pale
##gun
##Kasti
##kated
##jøder
##utført
##Centre
##kontrol
##ersatt
##slam
##rison
##kjende
##special
##”,
##Melodi
##Jbel
##Pur
##Kraft
##Rene
##medier
##manad
##mæs
##hamns
##digit
##dekker
##grashopp
##salg
##stades
##ckar
##profil
##Society
##Bron
##menar
##øp
##Fair
##hensyn
##næst
##Bezirk
##Guld
##Dock
##late
##Cos
##varierar
##varfor
##politiet
##hastar
##tekniska
##Luxem
##wang
##forretnings
##kjær
##Fox
##ledande
##Thi
##utslatt
##vegen
##sprogram
##haus
##Asteroiden
##matisk
##Micro
##inre
##wall
##arabiske
##Vat
##innført
##Stanley
##Roth
##demokratiske
##formaga
##Hamilton
##tackt
##kott
##Main
##hodet
##erhver
##salde
##Douglas
##ranun
##uret
##andreplass
##kristna
##stoffer
##Zeeland
##Karriar
##ogae
##drakt
##oo
##sedermera
##Seri
##itets
##skips
##albummet
##Trad
##chan
##hinanden
##Mike
##planlagt
##sarbar
##Sigur
##nordiske
##ppeh
##plikt
##tilhør
##schen
##nordisk
##nut
##vingen
##omkom
##Bjør
##regerings
##lens
##jurist
##omi
##underfamilien
##oppe
##splats
##katastrof
##ytre
##Karls
##titlen
##innet
##hs
##hyn
##grenset
##flyet
##fløy
##reservo
##simp
##Wi
##plet
##skam
##krys
##Guds
##tecken
##oppdrag
##lende
##Kastilien
##anum
##absol
##oprettet
##kjøpt
##Partiet
##plassering
##Privat
##BS
##xon
##frie
##relater
##utgavs
##Bug
##ytterligere
##ventet
##ophylla
##riksdags
##Rac
##stone
##kyrkja
##Larsson
##Kongs
##cky
##aneh
##distan
##bottens
##Chris
##indfly
##spira
##Tappeh
##ische
##asjons
##hau
##fæn
##hak
##klassiske
##ifolia
##overgick
##ally
##marin
##Egentliga
##Rav
##skjut
##færdig
##Up
##jav
##Hydr
##yngste
##single
##ppi
##Corne
##osterrik
##akta
##oprindeligt
##kanadens
##EC
##valdigt
##artar
##sterskapet
##Frederick
##Pres
##levede
##givning
##grashoppor
##publicerades
##pladsen
##block
##ER
##Bada
##Charlotte
##chal
##senior
##head
##Leip
##Chang
##stab
##Puerto
##rorelse
##lykkedes
##Sum
##tarn
##marknaden
##ordre
##konkurranse
##Fen
##aw
##mangel
##Abraham
##semin
##Enter
##Dagens
##piano
##Chlor
##minska
##mam
##miljon
##tillat
##Boston
##repar
##laste
##presidenten
##okk
##Poul
##edere
##nedan
##aterfinns
##mental
##allvar
##anstallda
##Mika
##Gang
##markedet
##Deres
##trebukker
##ikere
##Mau
##aktiva
##deltagare
##bataljon
##dør
##gjelder
##guvernør
##fenomen
##Dick
##Ey
##stillede
##representerade
##opol
##Armen
##grunnen
##fria
##sidor
##hentet
##friidrott
##rytter
##halvdel
##infe
##Piper
##Tors
##meg
##send
##aksjon
##Bulgarien
##Dri
##Hul
##shire
##konvent
##skir
##kjøp
##sau
##edia
##Fron
##Skolen
##slakten
##350
##rymd
##alpa
##odia
##lavet
##ighets
##andrades
##uttrykk
##Reykj
##drottning
##foregar
##urval
##fulde
##gom
##sesse
##administrer
##angrepet
##gus
##inal
##plast
##nemlig
##polske
##foraldrar
##uppmarksamma
##macul
##1815
##Nick
##publicerade
##Hondu
##prag
##resultater
##fx
##Ytter
##Wes
##Zap
##ssatt
##Bagdad
##Fro
##pere
##entre
##pta
##værel
##Viborg
##forman
##Ort
##quist
##Jr
##Harris
##Laget
##Rat
##lyse
##militara
##værdi
##Nær
##representerad
##demokratisk
##alia
##Bør
##sia
##Pron
##fysisk
##ocke
##1841
##stjerner
##Rolf
##chis
##skiftede
##svaxter
##utvecklade
##erobret
##æren
##cle
##arktis
##israel
##Ster
##sønner
##His
##Guyana
##trods
##turen
##ilo
##upplagan
##unionens
##Xi
##gne
##hvem
##bou
##minut
##Jersey
##tilfælde
##State
##karet
##lassen
##elementer
##Viktor
##populært
##bandy
##ongen
##etas
##Hes
##finske
##Honduras
##gjeld
##representanter
##stadsdelen
##motiver
##sankm
##reform
##saknar
##beholdt
##uksjon
##mork
##bygda
##"«
##ML
##flytte
##antas
##Agder
##Gamla
##riga
##--
##altid
##Normand
##Skog
##mmen
##uning
##fili
##1843
##Oz
##spur
##nærmere
##reist
##infordes
##Larvene
##urser
##Symp
##Fot
##lerne
##antarktis
##Grad
##fard
##internationale
##skyldes
##Gjennom
##sogne
##hvoraf
##nominert
##with
##stemm
##diverse
##somt
##kelse
##Kru
##gala
##klara
##traffade
##eksamen
##forvand
##teolog
##Ophi
##Cel
##havnen
##bydel
##kaptein
##hony
##Grupp
##paven
##1820
##øje
##kontoret
##Pedro
##Cacho
##overens
##fæ
##Squ
##dialekt
##biblioteket
##mong
##Vasteras
##Andrew
##skivan
##hegy
##flot
##Aalborg
##forsker
##Milit
##segr
##byte
##konkurs
##Nasjon
##nederlandske
##storlek
##jatte
##Sydafri
##princi
##Dog
##kub
##papper
##styrkor
##Aland
##stel
##Instit
##meters
##volley
##Festival
##blanding
##);
##Telemark
##gitarr
##forval
##scoret
##forsøg
##luften
##utnytt
##Cher
##forlang
##2021
##knapp
##kardinal
##nassel
##Reykjavik
##gjev
##Gut
##Khar
##skaffe
##frag
##indflydelse
##eksemplarer
##tillfal
##Vej
##beskytt
##iende
##fylkesvei
##Nobel
##vida
##holdene
##sankmarker
##ktige
##skape
##anlegg
##Zam
##korps
##oberst
##samarbejde
##house
##bebo
##personal
##singeln
##formid
##ambassa
##indenfor
##intresser
##Muham
##fødd
##Siah
##fanger
##Litauen
##uker
##Klimatforhallandena
##Uru
##Pros
##kyrkog
##gæ
##lyn
##rummet
##Mora
##Rost
##politiskt
##øerne
##verkan
##stenen
##ordinarie
##Set
##Ug
##revolutionen
##byggingen
##osialist
##drab
##buddh
##Ivar
##Low
##spons
##Stats
##oppdaga
##SP
##kanska
##fremste
##satsen
##misk
##konomi
##Fla
##Osterbotten
##dersom
##Rica
##fordra
##Montreal
##grov
##neut
##genomfordes
##Dato
##Dire
##leda
##Golden
##Shang
##nasta
##Thailand
##Anderson
##Hotel
##Awards
##kongens
##gransar
##kommunerna
##sange
##nedbør
##tvun
##time
##Akt
##Alli
##Romer
##avslo
##team
##representerer
##Vester
##Valde
##ww
##upphov
##Now
##reis
##Spor
##Oued
##Lot
##amerikan
##vanns
##Ljung
##huvudbaltet
##Kjell
##edom
##oman
##verker
##ione
##Committe
##introdus
##demonstr
##flockblommig
##Ful
##mastaren
##NK
##aks
##omon
##sete
##Sommar
##Pia
##definier
##vata
##Gab
##Sval
##sociala
##Blandt
##lagte
##Care
##skapte
##brist
##underlagt
##Bret
##Emp
##Stephen
##Tony
##bbe
##menta
##klost
##Tob
##vesen
##Khorasan
##Rapids
##skottet
##egel
##Log
##innte
##Centr
##Tsjek
##spek
##amb
##innelse
##Beet
##invas
##daremot
##forlaget
##Jin
##gaden
##skand
##dynastiet
##ments
##lagger
##canad
##havare
##Nogle
##chewan
##svav
##yk
##skadespel
##forskere
##Innan
##cist
##vanner
##Cru
##Tig
##irus
##liaceae
##brune
##hellige
##byggda
##Natura
##aff
##jod
##Ces
##bræn
##quin
##upplo
##heilt
##versioner
##Dji
##Phyll
##!"
##perspektiv
##stry
##jede
##ætter
##utvecklingen
##komot
##Scha
##Hud
##utstallning
##ckan
##bevart
##Vrh
##Committee
##phala
##Saskat
##reng
##fjella
##vanligtvis
##tvunget
##foni
##Rum
##Bruce
##manager
##uktion
##cum
##verda
##bent
##Pant
##flor
##blommiga
##liknar
##nærheten
##haw
##ovic
##belon
##Skal
##Sym
##UE
##ан
##fortsatta
##Parc
##range
##ialis
##singelen
##tradisjonelle
##stet
##katolsk
##Saskatchewan
##phy
##Sunds
##nævnes
##ethe
##Allen
##pinyin
##pska
##hogst
##Europeiska
##Buttu
##observer
##bildas
##Byr
##Skip
##teknologi
##tunge
##bruger
##parad
##unna
##Gilbert
##flam
##begynner
##ryd
##Elfenben
##spekter
##Kongelige
##lju
##lefte
##produksjonen
##Beatles
##Ner
##nover
##Territor
##itch
##Moham
##litteraturen
##Dha
##GA
##oks
##personlige
##Forest
##kad
##1835
##kusten
##eringen
##sving
##Queen
##Say
##foreg
##reder
##mikro
##ech
##nærmest
##Morten
##ST
##stene
##Disney
##utform
##satel
##familier
##1836
##Leipzig
##ummer
##lansert
##Luis
##gifta
##itten
##protester
##medeltiden
##brog
##konstant
##jinga
##opda
##ugg
##uttryck
##ocen
##fint
##assi
##byene
##dods
##Kungs
##følgje
##iki
##trafikk
##katoli
##Major
##liter
##tilla
##metoden
##Petersburg
##Univer
##bomb
##avratt
##verkt
##vigtigste
##vaku
##Troll
##utdannelse
##wart
##Kali
##gramm
##Pahar
##arn
##ulu
##bouti
##Baby
##Cachoeira
##yon
##mojlighet
##baijan
##Ostant
##Foretaget
##anord
##usik
##sting
##tilbud
##Ostantarktis
##fotballspelar
##spartiet
##Lof
##statens
##verdensmester
##jobb
##fungerer
##ellan
##Beck
##Roskilde
##holdning
##asy
##trær
##IFK
##avi
##internasjonal
##Troms
##vækst
##bombe
##skid
##Abe
##ai
##slev
##Prince
##Minnes
##nordiska
##revis
##formelt
##fts
##populara
##koptes
##exped
##etterhvert
##potatis
##FK
##trett
##motsetning
##speciellt
##sledamot
##Fabri
##stykker
##Hali
##Wild
##igang
##oppnade
##kallor
##gradvis
##process
##medlemmarna
##argent
##kjer
##komiteen
##prøve
##liens
##optaget
##betydligt
##firmaet
##skiva
##konstruktion
##inidae
##Sz
##Nem
##industrin
##utforde
##attle
##unntak
##trukket
##tæn
##Institute
##veis
##kompan
##edo
##sæsonen
##Mine
##undantag
##styrka
##masterskapen
##1834
##arez
##morgen
##tegel
##SE
##Navy
##Lun
##Olsson
##regissert
##stret
##Born
##Dron
##autonoma
##dirigent
##Eit
##visst
##øvre
##talje
##Krit
##følg
##Meg
##knott
##motsvarande
##erende
##Fall
##oce
##Djibouti
##Tap
##udviklet
##zarbaijan
##exister
##mode
##Belgia
##Colorado
##regementet
##ansvarlig
##Mellersta
##punc
##Colonia
##materialet
##stekn
##avgor
##verr
##Broad
##ingham
##ithe
##Sty
##uppen
##forsoker
##Hammer
##kompet
##okku
##kunstnere
##udvi
##Kungariket
##stiller
##sakaldte
##Varmland
##Valley
##precis
##stazarbaijan
##chang
##Soderman
##Fotball
##deleg
##gymnast
##overgang
##Pakistan
##Agua
##Bapti
##Estero
##rella
##anvandning
##jamfor
##træk
##Hills
##veter
##drabb
##Carlos
##uropa
##Haug
##Barra
##varig
##pak
##inleddes
##Flam
##utgave
##strakt
##bella
##America
##reich
##fried
##nabo
##habit
##oco
##Leop
##trodde
##Cambridge
##grac
##Svend
##kretsen
##miral
##Fame
##Gur
##Bud
##Kum
##flat
##Lakes
##Deras
##brad
##protestant
##medaljor
##ence
##melodi
##Line
##mix
##Stads
##teatern
##1829
##batar
##Cyper
##tilstand
##højde
##Eksemp
##kalte
##fylket
##kritisk
##hval
##berattar
##prosjektet
##narmare
##Cot
##Stri
##اب
##1833
##inspirert
##tyskland
##Lincol
##tjen
##saf
##skrivna
##Rosa
##Boy
##bogen
##gæl
##jule
##kyrkans
##strandlinjen
##Politischer
##regul
##anfall
##videregaende
##Rø
##Phyt
##Maz
##administrativt
##Giov
##aksep
##forband
##riere
##iveau
##avslutade
##skudd
##fare
##Colombo
##kjempet
##oer
##fangst
##schweiz
##kapital
##Fast
##fullstendig
##lossum
##Psych
##intet
##anner
##artiklar
##brik
##latskri
##bedst
##henger
##hamnade
##eton
##trer
##korall
##Republika
##Srpska
##radgiver
##skusten
##proces
##terar
##koret
##talar
##presse
##nabb
##Alta
##savel
##relser
##Paulo
##Leg
##handlingar
##uki
##Europas
##svampdjursart
##uafhæng
##lagar
##antyder
##sammanhang
##Idrett
##SF
##malningar
##skriftet
##syssel
##kortare
##Massachus
##Pand
##nytte
##penger
##Kamar
##skøy
##vem
##debutalbum
##bøn
##funktioner
##aben
##musli
##Stille
##zawa
##europeisk
##handball
##NU
##Frans
##behover
##Massachusetts
##boende
##inndeling
##play
##tradande
##konkl
##mineral
##1809
##skontrakt
##Disk
##handbold
##myst
##Sebasti
##bren
##neser
##Glas
##samla
##Tibet
##Marcus
##fullmaktige
##Gordon
##icia
##inngar
##klæ
##from
##turi
##pals
##iao
##Addis
##skule
##haug
##gule
##Taiwan
##Amazon
##Laurent
##etc
##sakademien
##bue
##spilles
##freden
##fjernet
##Xant
##floder
##Katarina
##ysia
##domet
##teologi
##grunnleg
##avholdt
##Graham
##vartbit
##teras
##arium
##Grønland
##Christensen
##karn
##uda
##ubile
##pli
##»).
##institusjon
##tilsyn
##bukta
##originale
##Pennsyl
##filmat
##Riacho
##prosjekt
##Imidlertid
##havne
##longi
##musiken
##medlemmene
##linge
##Varje
##Clark
##;/
##anges
##namnas
##vartbitare
##hio
##Edu
##ffa
##Jama
##falla
##Lok
##heldt
##inslag
##Astra
##levert
##stillet
##ovit
##jarnvag
##højeste
##reklam
##hias
##innsats
##Vastergotland
##uge
##beskri
##USAs
##Leonard
##scener
##grønne
##Bert
##Sunn
##ume
##rah
##sii
##Museet
##positiv
##Junior
##offentliga
##ridder
##rapport
##Skel
##keram
##dyp
##Linkoping
##Tau
##Hjal
##Meyer
##ridae
##palli
##inneholl
##1832
##leik
##hæv
##pist
##bildad
##offensiv
##ness
##Eriksson
##Pont
##hage
##betraktas
##Helsingborg
##anstalld
##anset
##pir
##abad
##kule
##tydelig
##spets
##næste
##sannoli
##eksempelvis
##karna
##skede
##trade
##aterigen
##brøt
##Hugh
##lektor
##Kurt
##cat
##Hof
##modif
##Fars
##ipes
##tings
##rell
##fs
##Studi
##Cet
##paborj
##otrich
##forandringar
##ng
##mouth
##Leo
##mindst
##Ric
##ilen
##emer
##aktenskap
##karriaren
##Tizi
##iers
##uavhengig
##klan
##Bau
##gut
##orium
##timmar
##Jesu
##BM
##Breuning
##ous
##avhengig
##opret
##naturlige
##prim
##frø
##hvilke
##avancer
##svømm
##Nico
##make
##slaet
##Dicran
##host
##ID
##sprint
##tea
##rine
##bist
##foli
##tilfeller
##ск
##internationellt
##ekonomi
##Burg
##aville
##avtale
##fortsat
##Guad
##tegninger
##margin
##sejr
##ligeledes
##ping
##magnit
##oser
##broen
##igheder
##gades
##Pedersen
##tekniske
##Arts
##elegan
##fonster
##VII
##Zi
##rotter
##sped
##Folkere
##styrt
##Platy
##Ayn
##denes
##verks
##dato
##heste
##ografen
##biografi
##virkelig
##Pitt
##Hver
##Reserve
##falle
##anthes
##sius
##eu
##premiere
##Sou
##narna
##Baptiste
##Tou
##Bureau
##Gad
##republikken
##aliska
##Kristiansand
##²,
##veier
##kaste
##LA
##Tag
##fakultet
##idrot
##rovflugor
##hvorefter
##tredjeplass
##edra
##alog
##finna
##Alberta
##Mario
##Vie
##utgrav
##synner
##administrativa
##strav
##stærkt
##kod
##amal
##geomet
##ambassad
##mog
##gratis
##studera
##hern
##fangen
##bands
##Kiel
##peppar
##ssan
##Pos
##bostads
##noksa
##pressen
##tone
##Programmet
##api
##sades
##omfattning
##enhjartbladig
##fanget
##xen
##Einar
##220
##virkede
##sering
##Adela
##Bohus
##Vær
##halvon
##cius
##Brazz
##Gas
##Uttar
##Johnny
##generalmajor
##Ener
##pavirket
##occus
##dus
##gæn
##Chamber
##Cl
##Slut
##fjerne
##skans
##olas
##IP
##Sala
##slos
##antis
##prinsi
##Micros
##Kva
##Infor
##Christiania
##aki
##dannede
##tyskerne
##lob
##ologer
##danna
##almindelig
##Ves
##overrask
##leftea
##ardi
##Skara
##gjenn
##Aur
##besto
##stiftelsen
##forstar
##ely
##observatoriet
##Spen
##hm
##Camer
##moral
##træner
##dørs
##veldig
##edyr
##Tir
##Oxford
##Grund
##vning
##forvaltning
##ophy
##Esc
##Ceram
##obium
##Qal
##Roll
##Bach
##biskopen
##Maja
##ual
##tim
##predik
##pjas
##centrale
##antrop
##nea
##Wo
##Dru
##praktisk
##rads
##rud
##nell
##fargen
##utstallningar
##sov
##svara
##ingom
##1818
##Reger
##Drag
##graf
##Dou
##anvendt
##romerska
##Dash
##Formel
##adskillige
##Jur
##tum
##Ting
##territoriet
##deltagelse
##sosiale
##Mou
##role
##tonn
##Chry
##manuel
##fartyget
##gtede
##texten
##vandet
##forfattere
##opnaede
##afholdt
##samlar
##1810
##oppnades
##vapnet
##Glavica
##3000
##partner
##Pennsylvania
##Sydafrika
##markeds
##lette
##Skole
##Morne
##Ernest
##etableret
##placerade
##manen
##spi
##Nelson
##slægt
##belaget
##burgh
##marine
##rence
##aran
##ligner
##Gener
##Abd
##Ses
##innspil
##Luther
##ulin
##etus
##varefter
##Nedre
##nasti
##Free
##skildra
##bevarade
##AG
##sattningen
##Phila
##bredde
##mossor
##familjer
##Filippinerna
##igi
##vinder
##Brazzaville
##operativ
##utmark
##arve
##hendelser
##skete
##katolska
##mina
##forsak
##Giovanni
##lity
##oty
##scene
##jin
##Fyn
##service
##iola
##See
##billene
##kons
##bop
##Model
##Miguel
##order
##avskaff
##robot
##øyt
##texter
##ovac
##lich
##Head
##AIK
##bildet
##monark
##røy
##Opera
##trak
##utgiven
##buset
##ledere
##hid
##viking
##rim
##brost
##eventyr
##say
##bass
##uddannet
##IX
##Kara
##hjelpe
##rosophila
##yton
##betale
##Master
##sporet
##lyder
##grep
##grænse
##nars
##lufthavn
##cto
##færen
##Silver
##medverkat
##strekk
##forare
##Kel
##spora
##partil
##Kjel
##dyg
##Skargards
##Vetenskap
##deltak
##Sey
##søen
##Miller
##ekst
##grat
##ور
##framgangar
##borgen
##viol
##Bara
##Dres
##satter
##lifik
##tila
##blues
##hovudsak
##Hoff
##rommet
##smaningom
##syftar
##ejen
##mobil
##pid
##varna
##Baden
##publisert
##glest
##dle
##witz
##CC
##Mort
##originalt
##innflytelse
##Elekt
##driften
##nordover
##vack
##rana
##Høj
##stykket
##pagne
##Herred
##dete
##mennesk
##Pereval
##minner
##trommes
##boede
##omvand
##beskyt
##Ulf
##Elva
##Cape
##magasinet
##organisert
##ianus
##jarne
##innehall
##Nordkorea
##samlade
##otillrackligt
##siva
##ophia
##kka
##Hoch
##1828
##Antennene
##ranunkel
##Anth
##bio
##ettere
##Nordisk
##samhall
##Bolag
##popularitet
##ønskede
##Sophie
##Milano
##utgivet
##ody
##Familie
##ross
##Gamle
##utgangspunkt
##flottan
##Folkerepublikken
##на
##skur
##bunden
##rof
##pek
##fartøy
##starte
##pansar
##cre
##ologin
##XX
##onne
##born
##Atlanta
##fremme
##resor
##ekspedisjon
##Skil
##smel
##utvikla
##Balt
##arterna
##dyb
##Kristus
##Orien
##emoni
##miner
##fjellene
##europæiske
##hemme
##forlod
##Lucas
##metode
##beskyttelse
##huvu
##Cross
##Fritz
##amus
##gjenopp
##næring
##bruddet
##økt
##isar
##vagn
##nemn
##oversett
##oppar
##grunnla
##kryss
##forran
##1824
##sattningar
##faltet
##Herrarnas
##Bundes
##Akershus
##Lange
##mordet
##itel
##Mynnar
##kemi
##Falk
##styltflugor
##Patrick
##pande
##Elfenbenskusten
##mine
##internasjonalt
##Auguste
##Nok
##repor
##kjøn
##Syds
##Felix
##Tyrkia
##Anto
##kontroversi
##fortr
##menade
##gart
##etablere
##eftertraddes
##foregaende
##fond
##nordaust
##ruten
##selvstendig
##rollerna
##landskamper
##ateri
##fungerar
##Dod
##Jonsson
##was
##Stru
##ocer
##fjadermyggor
##usikker
##studerad
##Albu
##kler
##Øya
##inrikt
##baserade
##bah
##pic
##avent
##Ovan
##oun
##Pronotum
##Stappklimat
##Zan
##talis
##internationell
##zuela
##manna
##Times
##minstone
##premier
##Clin
##landerna
##nagonsin
##olus
##illon
##vd
##byar
##inium
##itus
##quad
##Havanna
##berga
##Blek
##lion
##skibet
##regissør
##Adelaide
##ejer
##Sundsvall
##betong
##grunnlag
##Parad
##Gotland
##eina
##Referenser
##Loire
##indr
##prøver
##foreningar
##tuber
##Ec
##muren
##bryter
##sundet
##argumenter
##ukkende
##sykehus
##Hub
##torget
##vendt
##Maurice
##Benjam
##latinske
##mynt
##øtter
##skotske
##Gy
##Norman
##Sot
##Frankfurt
##skred
##ður
##neden
##studere
##heri
##trumm
##skiller
##halvt
##1812
##aea
##goda
##agar
##mulighed
##auktor
##flan
##Petersen
##budet
##urneringen
##Gunt
##utel
##autonom
##fæst
##McCart
##sporten
##Rogaland
##Game
##Niger
##skapar
##soldat
##Ceramby
##Andr
##videnskabe
##Adel
##Mira
##Naz
##skandinav
##teckning
##Ohio
##grundlæg
##Beethoven
##folia
##hek
##Serge
##okse
##halften
##sniva
##miljar
##avtalen
##misstan
##strekker
##katal
##somraden
##tillfallen
##panser
##itze
##Dekk
##Byggnaden
##Northern
##varet
##burn
##Jung
##komsten
##illy
##Hig
##مه
##Cote
##sver
##hindra
##skoldloss
##Euc
##Odd
##medvet
##skapt
##faldt
##etes
##Bakgrund
##cola
##edig
##skær
##osum
##sammenlagt
##1831
##Party
##jarl
##folketell
##Ouadi
##Walt
##tnant
##sovjetisk
##folja
##siger
##domdes
##Dow
##slalam
##finaler
##hea
##Tøn
##liska
##uh
##omgangen
##gur
##rant
##plin
##skad
##Pul
##saret
##khan
##Margr
##vuxen
##bebyggelsen
##ogaster
##pom
##Holstein
##riktig
##odendron
##LC
##ocal
##210
##bedom
##regent
##Sap
##search
##Illin
##Persson
##azat
##okkuper
##innsjøen
##kjel
##Sidi
##Tipula
##1821
##Sebastian
##diplomat
##Jud
##Samt
##højere
##Alice
##teorier
##Chap
##yat
##holt
##begreppet
##biske
##vileg
##Media
##sparken
##lapp
##symptom
##Ian
##hera
##hald
##Ile
##overs
##styres
##hafazat
##stjart
##opptil
##beton
##smannen
##hale
##kontrollen
##besluttet
##docent
##kommunikation
##Margaret
##zjan
##culus
##framleis
##Norrkoping
##Cit
##maske
##borte
##Ath
##Sjæl
##forstaelse
##ktiske
##Dich
##sølvmedalje
##stog
##ocarpus
##regiment
##narvarande
##okkupa
##Aga
##Oppr
##kombination
##Eksterne
##Pit
##unc
##iso
##forvan
##abnede
##Alter
##Opsjtina
##Keit
##bruge
##Draa
##tagelig
##tryg
##stammen
##Chah
##læge
##begravd
##skotsk
##xia
##alders
##ksomhet
##Nuuk
##opht
##unden
##invader
##bilitet
##tjanste
##radar
##kts
##jordens
##karlek
##05
##skador
##leden
##icornis
##sørover
##brugte
##klot
##territorium
##selskab
##115
##gott
##blatt
##sprakiga
##Maxim
##kunder
##spris
##tattingar
##Halm
##skisk
##Taung
##fabrikken
##fadern
##alisering
##hunde
##fasci
##icip
##disci
##høre
##bakgrund
##Arvid
##ademy
##Force
##allmant
##meldte
##Skargardshavet
##engasj
##bjør
##UEFA
##sokte
##himm
##real
##voksede
##oppmer
##Fyr
##tof
##tverr
##1816
##1808
##citet
##mari
##sleder
##frek
##klassiska
##light
##figuren
##princip
##forbatt
##deg
##Serie
##tvang
##udel
##Onth
##sentra
##føringen
##motte
##Aer
##Dong
##lamningar
##administrative
##bestemm
##systematik
##idrotts
##pastorat
##Lisa
##tilgjengelig
##kane
##1825
##stum
##produserte
##fremmet
##finger
##premiarminister
##ando
##gjennomført
##Minas
##befri
##kala
##Tetra
##extre
##placeret
##Rhod
##tyng
##kritikk
##elektriske
##bygden
##skikk
##Karelen
##fans
##fasa
##Loren
##hah
##turk
##tons
##fton
##uppet
##synt
##HC
##hovedsak
##Svens
##Oh
##Buck
##Your
##fotografer
##Lys
##opogon
##baserat
##hebra
##jevn
##identitet
##oneura
##aterna
##Academy
##guden
##relation
##Fredriks
##cion
##forslaget
##mem
##Bebyg
##Romsdal
##Høg
##zona
##Benjamin
##liteter
##tian
##agne
##foreningens
##utstallningen
##spørgs
##marskal
##polar
##skytter
##1819
##redig
##ptus
##Beau
##kalbum
##flode
##fekt
##Mikael
##Emer
##Rick
##arus
##grus
##mynnar
##Elias
##1826
##240
##sallan
##Mitt
##kollektiv
##hong
##Mohafazat
##Antwer
##skytte
##ataceae
##foreldre
##ights
##Halsing
##nejli
##Illinois
##klaver
##besegrade
##litterære
##utok
##laggning
##aka
##Corpor
##Polyp
##kvadratmeter
##totale
##forklaring
##kanaler
##billeder
##Taf
##beslutade
##lovakia
##spa
##verken
##Helena
##apote
##strackning
##Wor
##HF
##styrken
##ense
##staderna
##mant
##Aud
##begav
##zburg
##vilkar
##uppstod
##virkning
##sinstitut
##Eid
##synet
##Sound
##matematik
##dale
##intill
##Schmidt
##Qing
##cock
##stim
##historier
##yrus
##iera
##Møre
##Normandie
##Tat
##point
##besæt
##Litter
##larver
##Philadel
##Cens
##kær
##masterskap
##lof
##oav
##invi
##Kloster
##borja
##pote
##Sigurd
##opprinnelse
##ants
##parlaments
##Kaf
##jylland
##stranden
##indi
##Rolling
##profesjonell
##Vidare
##ango
##Alpes
##miljøet
##helikopter
##ostoma
##mern
##patraffats
##gio
##udnævnt
##Oliver
##Sloven
##Atlanter
##blommor
##Cand
##IM
##rekkje
##atervand
##mønster
##lug
##Did
##Gla
##artilleri
##Dream
##Halle
##honan
##Rail
##Onthophagus
##Dekkvingene
##instrumenter
##Hipp
##umiddelbart
##genop
##Braun
##nært
##ikeren
##polska
##utmar
##kkelig
##blem
##sie
##Sande
##designet
##tømmer
##odrom
##vinst
##court
##traditionella
##kanner
##kommunhuvudort
##oleandervaxter
##framforallt
##Bodø
##konflikten
##østerrik
##Leopold
##cium
##borgare
##leiar
##Gall
##roster
##angul
##medførte
##handboll
##Vestfold
##ademiet
##besej
##manden
##emig
##lekyl
##mum
##framat
##Allsvenskan
##Fac
##fisker
##avdelning
##Lyng
##Rek
##ativa
##demokratiska
##mørk
##medie
##stifta
##Edwards
##automat
##tillhorande
##amne
##Arhus
##Doli
##08
##atminstone
##ussou
##skadet
##Mongoli
##Fischer
##adgang
##Brandenburg
##plos
##hers
##Strauss
##Koch
##geme
##كوه
##skift
##230
##Anat
##Dak
##fed
##organisasjoner
##befordra
##icolor
##Pow
##Hampson
##Ast
##chell
##umar
##menes
##bevil
##Ej
##bakke
##Karin
##trafiker
##flok
##sax
##yttre
##fine
##generation
##kelsen
##busk
##sammenheng
##osv
##Curt
##ining
##uez
##agnade
##erbju
##Kem
##patri
##Boris
##Forst
##opkaldt
##rarna
##Mona
##utbildade
##visat
##representert
##grænser
##ortsvaxter
##Galler
##mjol
##apost
##kortere
##ер
##Drott
##Gly
##pip
##bydelen
##godset
##obal
##Sea
##jy
##framgangsrika
##Podgor
##kapp
##mangler
##AR
##Lasi
##alus
##atel
##garnis
##Program
##striden
##soni
##Valer
##evne
##Internationella
##rill
##stallen
##Østrig
##faktorer
##Claude
##Esp
##ritningar
##altar
##Arm
##bay
##Schu
##rier
##urnering
##kammaren
##Byn
##GP
##narmast
##Lei
##lankar
##sammanlagt
##Gotaland
##byggerne
##Kef
##Rød
##jernban
##avsnittet
##Xen
##førsel
##domstolen
##stalld
##Pyong
##staller
##bidro
##glanssteklar
##Finska
##beting
##Mountains
##forlust
##oland
##ante
##Marshall
##cata
##fell
##Cerat
##Rena
##forenings
##Apoll
##onto
##usch
##kiat
##Service
##anslutning
##tillverkades
##Anthony
##Odon
##Veien
##pension
##Lagoa
##læring
##formation
##edder
##produceret
##Nørre
##max
##olja
##ches
##sender
##1827
##dannes
##Kreis
##hjerte
##kjerne
##begrepet
##vanligaste
##Egen
##smakten
##spesialiser
##konsekven
##stenar
##upplostes
##ørken
##Levu
##09
##Maj
##milliarder
##toget
##højt
##Margareta
##Fis
##Agr
##Cten
##Adams
##vektor
##gie
##nævnte
##Shet
##halt
##vilje
##lider
##vatet
##west
##løv
##infra
##edalen
##assister
##Vaxjo
##volution
##Medan
##1813
##Prov
##sogn
##haver
##chter
##framstaende
##mulighet
##horax
##vises
##Hat
##Bernard
##landskamp
##ulf
##foretrad
##Thu
##kalde
##Pris
##virket
##skjel
##magnitud
##spredt
##jektiv
##forsik
##yeh
##dsels
##kyrkoher
##begrepp
##pund
##ocy
##ferie
##Frances
##Konig
##Nak
##økte
##ев
##tilhørende
##kannet
##BU
##igalpa
##bøkene
##oxid
##senator
##science
##ekstrem
##ordnet
##meteor
##socknen
##semifinal
##LO
##slø
##arens
##skivor
##lax
##energ
##grunnet
##Gom
##byttet
##pades
##dokumentarfilm
##Peking
##Alexand
##ference
##kvinnelige
##oste
##inborde
##Ide
##issa
##univers
##formuler
##laborator
##Thunder
##Podgorica
##Indre
##kreft
##nodvand
##Asker
##marmor
##strafik
##Hord
##bronze
##revolusjonen
##hyt
##EF
##poj
##Arnold
##rans
##Møller
##Antwerpen
##sidens
##hersk
##folkrakningen
##ritt
##Emma
##Liga
##Nye
##storp
##stemning
##Tekniska
##demokraterna
##okon
##samarbeidet
##adres
##blandning
##tning
##rosa
##ffel
##reservoar
##Fod
##poesi
##kespe
##utlandet
##zj
##kninger
##Studios
##tilsku
##landhockey
##demokrati
##Philadelphia
##rata
##tanker
##tidskriften
##arsj
##rio
##begiven
##Roman
##ucigalpa
##ingens
##kirkes
##1801
##slæg
##Tegucigalpa
##Hamar
##spesial
##arbejd
##ekteskap
##Morgan
##pset
##ruter
##Lager
##Mana
##Moz
##Sich
##oprør
##Frederiksberg
##analyser
##Akra
##Sjø
##fjen
##dømmet
##væsent
##sygdom
##stander
##gardens
##vive
##omtales
##begrenset
##underjord
##ware
##sump
##avveck
##stamme
##naturligt
##klosteret
##Rasmussen
##skivbolaget
##overste
##oppretta
##husets
##cert
##ætte
##regionale
##Skri
##stasjoner
##gruva
##brant
##1790
##ology
##perimenter
##ophorus
##UN
##borgere
##Bulb
##avy
##medvirket
##Put
##water
##stande
##bringe
##møde
##repræsenter
##psalm
##riget
##foreslog
##Brat
##aviser
##reiser
##Cours
##Loch
##trekke
##Nash
##værket
##black
##Fas
##virus
##arbejds
##Call
##vedtatt
##yeong
##Gan
##iten
##udgør
##Andal
##Wy
##fortalte
##Billy
##Sæ
##jat
##raka
##Erich
##Tul
##Mey
##søraust
##kunga
##Petit
##klassific
##1823
##Pyongyang
##virker
##tagne
##trus
##tarnet
##damm
##sjukdomar
##low
##tapt
##Alm
##oberoende
##gallmyggor
##Juli
##langrenn
##Shakespe
##alisert
##Cant
##folkm
##standigt
##125
##konstnaren
##onica
##gensis
##Nepal
##betydninger
##illus
##Sex
##straks
##Lod
##eftertradde
##kulturelle
##Spelet
##Kallor
##dur
##sjatte
##Namn
##HD
##Rau
##studerede
##Vastman
##brigade
##nevnes
##egn
##enti
##administrasjons
##Venezuela
##lisert
##ET
##ladesh
##Krim
##lak
##krafta
##borough
##stallande
##ryss
##knu
##søkte
##Cli
##Hid
##utvid
##Skot
##elsene
##egentlige
##neum
##habitat
##Eskil
##Gle
##skis
##Census
##ambet
##musikkalbum
##samfunns
##songane
##Atlant
##barna
##cerede
##endringer
##Krigs
##barndom
##deltatt
##tilfø
##kai
##utbredning
##officielle
##Goran
##honor
##inda
##finlandska
##tegneser
##Minor
##tyrkiske
##new
##Roda
##teik
##Fel
##Folketinget
##enhver
##fasta
##Indiv
##tillverkning
##hvorfor
##kategori
##antagelig
##kraften
##porten
##medisin
##evangeli
##alistisk
##brasiliansk
##Wel
##Alv
##barnen
##ffen
##NFL
##Yorks
##kunskap
##konflikter
##tagande
##rap
##Arsen
##Stadion
##paa
##Flat
##Cheng
##arrestert
##svans
##eksempler
##Ya
##rakt
##Sky
##intelle
##religiosa
##1822
##cien
##imba
##eksisterer
##særligt
##øvrig
##Jup
##Studio
##svag
##tvaa
##omfattet
##udviklede
##valen
##Theatre
##pensjon
##Warszawa
##Ask
##tilgang
##DDR
##samtida
##jah
##Stur
##Abeba
##ouz
##Aleksand
##klor
##country
##kommunreformen
##moren
##fiction
##varo
##bredden
##utskottet
##Zard
##fynd
##Resultatet
##Nuevo
##forud
##graver
##Cav
##skabs
##kommunale
##historiskt
##unnga
##Moritz
##eigen
##bruck
##prinsesse
##Yamo
##bortsett
##betød
##kjenner
##Fed
##slor
##oler
##malade
##Schwar
##sannsynligvis
##Viking
##Corporation
##Satur
##døden
##arbei
##Fern
##]],
##Varlds
##varv
##Urugu
##Cob
##litz
##Butler
##kriminal
##Rhone
##Dresden
##kara
##dot
##manniskan
##frat
##losning
##Lut
##Phyl
##teres
##Operation
##Moss
##fødsel
##forskningen
##utvikle
##kamera
##Franska
##inet
##Holsten
##gg
##aften
##kvist
##European
##latta
##Mim
##molekyl
##spilleren
##Drammen
##vation
##ways
##sætte
##kommentar
##Angerman
##husen
##Tommy
##.).
##Khal
##omataceae
##folkes
##talas
##strads
##rikets
##titler
##fina
##1807
##450
##Names
##gaz
##Tow
##Minnesota
##Yamoussou
##uppmarksamhet
##frekven
##Yamoussoukro
##="
##sse
##Hawa
##Peters
##ledelsen
##Rundt
##Mek
##kia
##otal
##Christina
##Werner
##Row
##jab
##himmel
##unnelen
##couver
##Panama
##Iron
##entin
##juridisk
##regionhuvudstaden
##Cau
##transpor
##Kenned
##bow
##Fug
##Sham
##bene
##lom
##Khu
##biska
##Grant
##utgava
##fysiske
##Pse
##gogae
##familje
##Power
##obia
##sæl
##cklen
##spele
##etisk
##haven
##hing
##Gross
##tvavingar
##nejlikvax
##Laos
##hui
##Turkiet
##alisme
##Bygningen
##Angola
##redusert
##rift
##aminer
##højre
##handa
##grann
##mio
##spet
##klus
##Bangladesh
##smitt
##sikkerhet
##voly
##falz
##mologi
##begræn
##gors
##Mick
##omfatte
##trada
##løste
##Down
##univer
##Schiz
##effekten
##mojlig
##besta
##forsor
##Dø
##Sydamerika
##Bebyggelsen
##provis
##blind
##koppar
##ensi
##bladhorningar
##osper
##Strøm
##staben
##bater
##ikern
##terat
##konse
##Hooker
##kanter
##Research
##indisk
##frid
##sykdom
##malerier
##Mest
##Paret
##ianske
##Emili
##sus
##jorda
##einaste
##uper
##»),
##Glo
##Tomas
##Kav
##butik
##Um
##fand
##Wright
##kontinuer
##Mongoliet
##flad
##Base
##glad
##anlegget
##Metrop
##hitta
##360
##byggede
##opstod
##trommer
##Cari
##اد
##SO
##ional
##heh
##sadant
##Mant
##datert
##fysi
##innspel
##Frankrikes
##Stør
##Gray
##Sentral
##Cano
##Nad
##sagde
##Helge
##breid
##Sef
##debuterede
##Vr
##skyg
##statliga
##længe
##indiker
##prosess
##Michigan
##zakstan
##Cypern
##Derudover
##utveckla
##Dylan
##specialiser
##Calli
##Enkel
##Doc
##Sie
##svær
##Lulea
##Landet
##Tiden
##kriter
##betydelige
##halvparten
##Socknen
##Desse
##ralen
##forstyr
##viktigt
##tin
##Ere
##irske
##bruken
##musikere
##slaver
##Shin
##nektet
##arsjubile
##Ake
##sammanslag
##sunds
##registrert
##Reservatet
##feng
##forhandling
##fantes
##alpin
##Profess
##ppel
##1817
##forsøgte
##forandring
##brødre
##vitenskapelige
##Gunther
##individuelle
##Vide
##Patri
##hyr
##Urban
##konservative
##olding
##Karen
##etik
##tropp
##fattar
##stannade
##oleandervaxtart
##mmi
##balla
##givende
##Dum
##HK
##Vent
##festet
##Asa
##yrke
##vatmarker
##lost
##ор
##veje
##Stationen
##Bernhard
##Røde
##Ilha
##forbered
##1803
##Ridge
##forholdene
##skadespelaren
##utru
##Rin
##vinden
##Stewart
##brak
##etning
##erfaren
##broren
##Avis
##iris
##utga
##Dac
##onus
##sentralt
##Karlsson
##bie
##eid
##bles
##Heart
##Kit
##forsvann
##Lawrence
##Lady
##overvin
##zerbajd
##Charlie
##avhandling
##osse
##inneheld
##avsked
##Tidlig
##situation
##Varen
##inta
##varn
##skrives
##aktie
##drede
##intellekt
##tific
##diesel
##Rain
##Videre
##homo
##kyl
##klassif
##phis
##foretog
##skyldig
##besokte
##ortsvaxtart
##Albanien
##volleyball
##Rhein
##Whit
##truleg
##ningsomradet
##stur
##derved
##umi
##rab
##melse
##1806
##stallningar
##skarp
##lagstift
##hersker
##owa
##diskuss
##gau
##plater
##owski
##sukker
##tillbring
##Blekinge
##forfat
##dominerende
##groddjursart
##tril
##Medal
##kunnskap
##Vancouver
##olla
##estan
##Thy
##Toronto
##betrag
##imet
##lærte
##framtradande
##settes
##tillhorigheten
##sikten
##Quito
##Cuba
##Ostergotland
##hvide
##wana
##tax
##kendes
##PR
##irs
##halde
##inspiration
##zerbajdzjan
##Thel
##fangar
##allmanhet
##undi
##There
##1789
##turis
##Gardaneh
##Lillehammer
##Hordaland
##handelen
##Wester
##overlevde
##ariga
##sparris
##چش
##ree
##grænsen
##aud
##bede
##Semi
##Nasjonal
##Coch
##styrte
##jernbanen
##bønder
##Prins
##Hjalmar
##dringar
##benytter
##meddel
##Steen
##Nyland
##Orle
##Clas
##slappt
##farten
##helhet
##returner
##snarare
##Bæ
##Dip
##rero
##Coc
##milj
##samlinger
##tankt
##overgangen
##sidene
##ønne
##gruppene
##boliger
##polisen
##Transport
##rejste
##idens
##fortsette
##sallskap
##Blues
##rose
##sexamen
##egenskap
##ern
##tratt
##korrespon
##Test
##bære
##apne
##tecknare
##Gregor
##Ral
##Sok
##hull
##pafølgende
##Brachy
##æft
##mert
##Carlo
##ultater
##Tara
##hest
##minste
##korset
##produsen
##sev
##impor
##Augustus
##analyse
##magister
##utrustning
##gry
##sveits
##terad
##Elit
##islav
##hammar
##høgaste
##kari
##oblig
##privata
##Bold
##katalog
##Murray
##uger
##leken
##oppstod
##cklenburg
##Mei
##Games
##teri
##pladser
##Sv
##installert
##Jimmy
##Asi
##ckning
##gemensamma
##mom
##artsrike
##stell
##tavlingar
##huvudet
##04
##overfordes
##Cep
##Ety
##Ich
##kreds
##Lincoln
##Eduard
##kravde
##sovjetiska
##hren
##Gast
##bjor
##ydde
##Konstantinopel
##lysninger
##Bren
##amor
##hima
##computer
##tidning
##trupp
##Bond
##Bala
##bostader
##anny
##krigstiden
##aska
##ич
##rosvaxter
##Gha
##skru
##Jonkopings
##VIII
##untu
##Gerhard
##miljarder
##atu
##itte
##Marc
##Fjell
##beskytte
##Øvre
##rica
##irsk
##Karlskrona
##visas
##glaci
##Robinson
##چشمه
##maling
##blade
##lung
##hallit
##Bid
##arbeidde
##Kvinn
##Sas
##statlig
##itions
##tifik
##fortæller
##hovudsakleg
##Middelhavet
##fett
##Honor
##Gera
##hap
##Tore
##eksisterende
##hunder
##trol
##svid
##Cole
##jade
##veckan
##bryst
##Alaska
##bele
##startades
##kled
##arlige
##strukturen
##Musikk
##myrtenvaxter
##risiko
##kopier
##Kanal
##come
##torelvaxter
##forbinder
##almindelige
##Klas
##Jupiter
##bug
##stans
##berger
##georg
##stigning
##Dronning
##omfang
##gult
##kompani
##Sti
##akut
##Card
##edy
##oppgaver
##helgen
##foten
##tegne
##Thur
##arg
##frekvens
##niveau
##skabt
##øne
##AM
##Sjo
##Eugene
##foljare
##Via
##ningsvis
##Ling
##bukt
##elo
##paren
##appar
##fost
##skr
##operation
##halvgras
##specifik
##voll
##Stam
##grekisk
##06
##Cook
##Mellem
##Made
##Pointe
##pianist
##utspelar
##Xyl
##melan
##Herbert
##Entertain
##fløj
##anmar
##tors
##fords
##øverst
##hovding
##filmene
##trapp
##komponen
##østen
##naturliga
##Inde
##representerar
##Oce
##Fageln
##tjock
##hennar
##Tog
##otria
##Donau
##selskabet
##hypp
##asteroide
##umu
##drives
##villkor
##hle
##utbrot
##Cul
##Leif
##kolla
##neur
##Oxy
##jian
##Survey
##forhindre
##flen
##ienne
##Tes
##main
##1811
##vardera
##utenriks
##tillverkade
##utgaven
##Darfor
##forvaltnings
##modsætning
##grunnlaget
##punk
##Chia
##hodes
##Dead
##oux
##Hosp
##Dasy
##Tin
##arligen
##Ani
##Ales
##skning
##Externa
##nationalpark
##pression
##muslimer
##Bush
##cephala
##Series
##regne
##troende
##hoppspindlar
##Birger
##fabriken
##Orleans
##idion
##berattelser
##jning
##pok
##talent
##hann
##uru
##Dagh
##Microsoft
##utu
##Crypt
##atti
##tolkning
##befolknings
##vokalist
##07
##Ikke
##namligen
##brakte
##ktions
##bysant
##lind
##musikalske
##Stadium
##formod
##Kok
##ores
##forven
##syge
##udtryk
##utsmy
##tabte
##oti
##underhall
##storstad
##Britt
##cancer
##delning
##organer
##studioalbumet
##beseiret
##anslut
##tingslag
##Sidan
##tradisjonelt
##trask
##sop
##variabel
##Oskar
##RT
##skomite
##belgiske
##Sall
##zal
##utse
##flottil
##Uten
##præget
##ruin
##Johansen
##Jazz
##straling
##upe
##Nikolaj
##bereg
##Svalbard
##Golf
##Tj
##smak
##utifran
##Fylkesveg
##tydligt
##Nicholas
##Nicolas
##Arist
##sanka
##Demokrat
##frivillig
##evaku
##gjord
##Bourg
##sykkel
##drikke
##Vari
##Hanna
##Doro
##work
##kongressen
##opprøret
##velle
##sphaer
##stere
##akvar
##Darwin
##Chaet
##millionar
##harstammar
##endelige
##organismer
##sikret
##Astr
##syra
##efterhanden
##insatser
##spann
##Get
##problemet
##beteckning
##bladiga
##Fan
##delberg
##Vand
##admiral
##Conne
##Pue
##gning
##narings
##Stol
##zzo
##ersatte
##opptak
##domme
##Homer
##imponer
##hellig
##internet
##klubbar
##Molde
##Light
##marke
##indo
##henrettet
##spid
##karbon
##Svar
##itas
##kaldte
##Wagner
##kapellet
##kombinert
##mengder
##Dir
##tad
##Haj
##bevegelse
##1805
##sistens
##tandspinnare
##Hyl
##uf
##web
##involvert
##Karn
##hederne
##1793
##ekonomisk
##antatt
##sate
##koordin
##Tallinn
##illustrer
##designer
##monument
##Kamen
##Pea
##utstilling
##dah
##iceps
##Føl
##Adrar
##sot
##vampar
##deriblant
##Katal
##Anom
##flertall
##brid
##yya
##jarv
##Bac
##cera
##Bonde
##hild
##leuc
##grona
##arskontrakt
##gement
##løjtnant
##sjelden
##producerade
##113
##Gota
##tatort
##itaine
##innend
##ffror
##VG
##iculata
##Cow
##Lepto
##vinge
##snyl
##parlamentar
##reaktion
##Gala
##icta
##found
##Tennes
##akust
##Republikken
##fragorna
##benytte
##uppror
##1802
##lamnat
##mult
##ар
##Barbara
##Andrea
##enskilda
##kton
##kopa
##flack
##Bryg
##forretning
##ninge
##musk
##kjempe
##Ix
##kommunalforbundet
##roit
##hier
##belte
##majoritet
##Amazonas
##(),
##Allan
##Ninten
##førelse
##iserade
##Snor
##mation
##reda
##positivt
##Cetoni
##sagor
##ez
##braken
##grønn
##sivile
##Kand
##mming
##farts
##institutet
##Commun
##Manuel
##Tanz
##First
##Konda
##alpus
##skydds
##Brig
##nærmeste
##aser
##Damer
##Nathan
##valla
##kolonier
##naut
##Sumat
##urer
##genomforde
##Bare
##nivaer
##klockan
##skaret
##kommunens
##Tasmanien
##efternamn
##Linux
##Scap
##hynchus
##tades
##konstat
##Holmen
##euro
##diagn
##okan
##Valdemar
##Occ
##utmer
##væg
##Venedig
##skatter
##ammun
##programledare
##vintern
##uensis
##down
##arier
##distribu
##væsen
##varor
##Linde
##liggen
##register
##tecknade
##Familien
##Zen
##trium
##Riga
##nettet
##dighed
##Glava
##BI
##Ow
##brua
##gravid
##lighets
##Henning
##Middels
##myrtenvaxtart
##nedenfor
##anlades
##banker
##hander
##tilsynel
##entlig
##Marin
##fabrikk
##SD
##ansvarig
##vietnam
##omrada
##Cum
##yar
##forble
##beregnet
##teckningar
##//
##poster
##view
##bronsemedalje
##Dannebrog
##olet
##blandet
##fattet
##hjalpa
##Randers
##runden
##Iz
##Sard
##drum
##Theod
##jødisk
##deltar
##tornet
##skontor
##enke
##oura
##grave
##kjør
##ampton
##Dagen
##korrekt
##enkle
##smed
##ол
##vane
##Bibliote
##eleg
##Arag
##NG
##skolans
##Jamaica
##Amerik
##officielt
##utlandska
##1792
##cula
##varvid
##fullførte
##ique
##Army
##bragt
##NATO
##dast
##Raymond
##fungerte
##segel
##marinen
##forstand
##Canal
##Kennedy
##edonien
##billede
##kraver
##Kosovo
##Home
##lemmet
##genombrott
##Kazakstan
##Kamer
##sarskild
##totala
##Svea
##ako
##SI
##teleg
##veit
##Campbell
##malvavaxter
##fodda
##transporter
##alvorlig
##tsjek
##anor
##Kins
##uppdraget
##kommunest
##elleve
##Chel
##behovet
##Vastantarktis
##rast
##mek
##flick
##lines
##spark
##herefter
##dræbt
##wo
##privileg
##Valencia
##rykte
##botn
##Høyre
##Entertainment
##Asc
##Oak
##ularia
##partis
##individ
##Hessen
##Ok
##Zurich
##Phy
##Turneringen
##symboliser
##Oct
##rav
##garia
##1775
##hyper
##yrami
##Rute
##hattan
##Klubb
##Grunn
##Gau
##propag
##lettere
##arra
##dringen
##glass
##producerades
##Jugoslavien
##anslot
##invand
##butikker
##kvalifik
##sorte
##Linda
##selia
##svetenskap
##Bowl
##Amm
##Kansas
##reager
##trollslandeart
##svidknott
##innendørs
##Gramm
##pren
##Aquitaine
##Orn
##mossdjursart
##Evans
##amfi
##Konge
##endet
##kult
##bød
##slas
##bulgariska
##Psychotria
##ikar
##krafter
##brødrene
##aventyr
##viter
##kjøret
##fyrst
##Tong
##instruktør
##beromda
##hnum
##langtunge
##samfundet
##orange
##atidens
##ifer
##opptred
##Bergs
##sangaren
##iseret
##Bulbophyllum
##elege
##inkluderar
##opphavleg
##wit
##opez
##Rune
##Television
##absolut
##prosessen
##egentliga
##otrop
##langtungebin
##Data
##Swe
##Acant
##kapacitet
##resulterade
##Keith
##rekt
##jae
##book
##Dagbladet
##Kala
##forkortet
##Kash
##cki
##1804
##begravning
##departement
##Sip
##Hodet
##Leeds
##øtt
##levet
##akte
##Ofta
##allige
##Middelsstore
##Cong
##shi
##Pampa
##ikum
##marknad
##torelvaxtart
##Olympiska
##Prout
##Svensson
##celle
##lyktes
##socialist
##fersk
##intens
##leia
##harde
##vecka
##Diam
##Brann
##klokken
##ocarpa
##krat
##ettix
##oppstar
##skipa
##Haiti
##Dipl
##trader
##Halsingland
##Jorden
##stina
##mors
##svømmer
##tenu
##renes
##tanken
##pilot
##big
##spesielle
##umin
##valja
##Daghi
##republikan
##HMS
##Jav
##Mecklenburg
##Ljus
##riva
##tajn
##Macro
##prøvde
##talende
##anstalldes
##stjarnan
##utøvere
##Sna
##brots
##imo
##hertu
##Vincent
##Hongkong
##nal
##ен
##omia
##digital
##beskæft
##nadd
##effekter
##jr
##danse
##Vind
##besluttede
##provinser
##sjakk
##Politisk
##tilby
##borjat
##Guadal
##saknas
##øyne
##Ellen
##vinterspelen
##Arendal
##utov
##opr
##spissen
##iness
##utvalg
##Edin
##01
##avdøde
##bredere
##esti
##opet
##daler
##indelning
##Who
##XII
##wil
##opti
##rettigheter
##mojligheter
##rasjon
##araba
##maraton
##TC
##avgjordes
##samtlige
##Resultater
##Etymologi
##avsl
##ongs
##borgmester
##bestamde
##langden
##aldt
##Detroit
##eide
##Boys
##børne
##Delta
##bekre
##ieri
##graven
##Georges
##joki
##katt
##antogs
##halvgrasart
##motoren
##dannelsen
##smaort
##Yan
##uppfor
##elektri
##steins
##ctylus
##Dals
##foring
##finnas
##Box
##særs
##tibet
##truet
##fandtes
##Fjordane
##eitt
##Ahl
##akantusvaxter
##preuss
##omyces
##Tubu
##dena
##forældre
##friidrottare
##Gand
##kut
##passasjer
##kabin
##forskjell
##synnerhet
##antag
##Marx
##gjøres
##Ghana
##sys
##elektronisk
##lasa
##etapp
##Jules
##listene
##foda
##Tennessee
##Sog
##Phnum
##Jacobsen
##varvades
##gjorts
##Bridge
##scher
##itime
##jaren
##ritu
##Provinsen
##Volvo
##Eritrea
##beraknas
##længde
##?"
##Tum
##Singap
##delad
##negativ
##jaure
##skille
##garan
##kortfilm
##Claus
##.),
##afvik
##lekene
##bomber
##rekorden
##motet
##reducer
##Myanmar
##infanteri
##yns
##hinder
##ος
##Sovjetunionens
##paborjades
##EA
##Kuk
##skilte
##Trafik
##gjorda
##signerte
##Hobart
##pit
##«"
##speg
##Cour
##Kirk
##Kotal
##age
##bille
##Dolich
##Sali
##anatom
##Dahr
##Magdalen
##introducerades
##xis
##osterreich
##korpor
##Harold
##Moon
##definert
##bladloss
##sultan
##Ponta
##ventil
##Sodertalje
##Koln
##klet
##innehade
##bruna
##Hyper
##Sær
##opsy
##grunns
##fungerade
##Zhang
##oppgave
##Book
##paverka
##allmanheten
##genre
##Prote
##rits
##Foss
##trav
##Puc
##dimens
##tviv
##vokst
##amoter
##illes
##Inc
##antog
##Shanghai
##Cho
##manglende
##tabellen
##Lans
##kommunene
##260
##Zo
##rena
##forestand
##fjernsyn
##hvid
##skjær
##Ragnar
##Ae
##Hang
##maksi
##nære
##mottatt
##koreansk
##ref
##Of
##rius
##statsrad
##(,
##eksil
##professionel
##enia
##Hendes
##ellidae
##forster
##Fart
##landslags
##Side
##Velik
##Fager
##avgick
##sning
##hamnen
##kommenter
##begynt
##svavflugor
##flyr
##baggrund
##innanfor
##liteten
##ukjent
##formellt
##Hagen
##skribent
##egendom
##utvikler
##stiger
##Lasse
##udført
##tidae
##hovet
##kogel
##Nordre
##Unge
##Philipp
##Fry
##Ofte
##slutte
##Fors
##budget
##lopare
##prinsen
##lanserades
##avgorande
##kopf
##Radi
##Tad
##fylt
##doden
##ligtvis
##Mind
##Uran
##geligt
##brevet
##acruz
##præst
##Pho
##chu
##organist
##høgskole
##herrer
##placeras
##galus
##Litteratur
##Syria
##tilstede
##That
##bant
##Lennart
##Cameron
##bey
##Key
##radda
##radande
##rorelser
##minde
##protok
##kak
##stilles
##Baku
##ojtnant
##spirasjon
##Drottning
##Mile
##Chung
##Uruguay
##Xin
##lias
##mole
##processen
##oris
##syrsor
##Rut
##itiv
##opptatt
##Pachy
##høve
##atør
##svarer
##esisk
##WW
##county
##Wolfgang
##Winter
##Kristina
##Cad
##kongelig
##Negro
##fase
##operan
##institutioner
##Anlegget
##Heidelberg
##tyr
##inclu
##Ronald
##Mississi
##tvangs
##obsc
##størst
##traktaten
##skulpturer
##brem
##idaceae
##faktum
##sklubb
##burde
##Astragalus
##perne
##chefen
##licer
##violin
##omfru
##tatus
##lysning
##lese
##foreninger
##Human
##splatsen
##lagets
##latarna
##jøen
##gemensamt
##Missouri
##osmanske
##ogat
##lord
##Shel
##Internet
##Sjølv
##Kub
##bius
##Bahia
##kompositor
##Stephan
##verdig
##angi
##bevægelse
##kabel
##upplaga
##Techn
##Kings
##Bohmen
##indiska
##ture
##kopinghuvudort
##frilu
##kid
##drivs
##kyn
##invaldes
##emin
##fix
##Harrison
##materialer
##Upper
##pod
##salis
##Sis
##Wurt
##upptradde
##unnel
##Gylden
##hackar
##erovrade
##nigri
##spredte
##grasvaxtart
##ithecia
##iano
##skars
##diff
##Mester
##hona
##styrer
##Fredrikstad
##staven
##selvmord
##rocke
##effektivt
##Kjelder
##ringe
##Ev
##jde
##kiri
##satts
##Kid
##1780
##Lob
##Veracruz
##foresp
##forbudt
##Fylkesvei
##Tred
##tagelser
##istik
##bars
##hovedrollen
##verdskrigen
##dynam
##phil
##Cerambycidae
##.&
##rosvaxtart
##ruf
##Østfold
##kollega
##utro
##Kongens
##manuskrip
##ishockeyspelare
##Parken
##Lett
##udbredt
##ossa
##kirkens
##forklarade
##Brothers
##term
##Hannover
##singlar
##lukket
##mju
##gallde
##Tønsberg
##nerne
##Jason
##Kalle
##Newfound
##enkla
##ulov
##ulium
##aluminium
##experiment
##politikken
##Copa
##fortsatter
##IO
##stun
##torg
##inbordeskriget
##baron
##onkel
##lae
##merte
##øyen
##1795
##gemensam
##tillige
##bygges
##kvarts
##Varmlands
##israelske
##Lum
##reli
##jonen
##kulturer
##cina
##regional
##heders
##inella
##BN
##strakte
##Buff
##stipendi
##foster
##tje
##Boras
##forbundets
##fatal
##leiken
##mangder
##legging
##mødte
##Jans
##Was
##ularis
##gitarist
##Grim
##Kinshasa
##Ark
##Skj
##lisering
##Abel
##Brach
##Hut
##Hast
##Province
##jubil
##slinjer
##yste
##etia
##usia
##Kongen
##slotts
##herrar
##høgd
##avlingarna
##Elvis
##Englands
##320
##atset
##schild
##270
##Stillehavet
##TV4
##Sed
##Dave
##Llo
##Potter
##decen
##opon
##eser
##talade
##linga
##Kevin
##fiender
##UNE
##coides
##Ranger
##Anvand
##athan
##Angermanland
##forbere
##overta
##gonger
##australske
##yds
##oversæt
##Shen
##betjen
##Drosophila
##ylon
##Space
##rele
##kredi
##turister
##Haf
##stadsdel
##neo
##bromsar
##forlen
##riv
##Nigeria
##fattige
##belagna
##Sku
##اه
##Eupithecia
##avdelningen
##detalj
##befordrades
##Six
##stigende
##asia
##litterara
##hlen
##Banks
##Latin
##dum
##نگ
##imb
##penn
##Spi
##kjennet
##yes
##snittet
##publiken
##tillbringade
##Diego
##Heg
##RS
##attacker
##Hunt
##Pico
##Nouvelle
##cole
##Langs
##psykologi
##yllis
##luc
##flekker
##koden
##user
##uppgar
##Russell
##Mande
##idene
##Bentham
##eksk
##brador
##Halv
##medborgare
##neby
##angust
##klader
##Sichuan
##inred
##temberg
##høyrer
##Flens
##Sho
##ury
##husflugor
##kravs
##Hele
##menten
##obil
##1770
##grundare
##lyckas
##akantusvaxtart
##112
##Kani
##ient
##møtet
##%),
##reformat
##Bagh
##avlag
##osta
##tilfreds
##brod
##beslutet
##angaende
##Trans
##øyn
##AF
##chten
##brakenvaxtart
##sjunde
##caceae
##stoppet
##sjok
##Bjork
##misjonen
##Ingrid
##plyn
##Grav
##omys
##bodd
##jesu
##myndighetene
##GT
##mose
##ændret
##Julia
##include
##elver
##Sec
##aer
##uka
##okl
##utstyrt
##siffror
##flukt
##farve
##population
##Kant
##Volks
##huvudorten
##skiold
##Verde
##Kerman
##krevde
##Gjer
##malvavaxtart
##ather
##ffet
##lederen
##kanadensisk
##5000
##beteckningen
##ril
##Sep
##orientering
##arbeidere
##Dersom
##Vattendraget
##Place
##dekkvingene
##ulykke
##RE
##omdø
##texamen
##erklærte
##skarab
##sagn
##opteryx
##opphold
##jara
##gjaldt
##mands
##grenar
##ørdag
##sannolikt
##Bærum
##mengde
##tilfelle
##idus
##livstid
##Caroline
##episoder
##formes
##fotingar
##tidvis
##Dark
##DM
##Tower
##overty
##1794
##Nintendo
##bemær
##sakra
##neumon
##agh
##bidraget
##ivi
##formade
##sonder
##købte
##verb
##juris
##legat
##Albre
##Gosta
##Esper
##lussteklar
##foljdes
##Newfoundland
##Ostazarbaijan
##tann
##kunsten
##oxa
##kommunikasjon
##teorien
##Hymen
##prosa
##hovedkvarter
##sei
##Id
##you
##only
##opul
##etterfulgt
##jamfort
##isterna
##Nomos
##Geneve
##Gerais
##kis
##oh
##rundet
##bryll
##missil
##brytning
##ilum
##tillverkar
##kobber
##Topp
##oslovak
##1798
##drabbades
##odle
##komedie
##overen
##Balkan
##Boe
##kraftdjur
##Kej
##skydda
##pent
##geng
##bøy
##pron
##skulptor
##blas
##sjonene
##kungliga
##gyn
##jury
##Bergens
##kategorier
##bølge
##ulatus
##Bibli
##Paso
##fro
##eto
##ovanligt
##valuta
##Cien
##uria
##mmets
##kniv
##Colle
##rare
##religiøs
##Schlechter
##ckta
##Paz
##selvom
##tens
##assa
##vogne
##iserede
##førelsen
##platesel
##larover
##motstands
##bakterier
##korallart
##rema
##heid
##narkot
##Utan
##spej
##harads
##Kanda
##æd
##seren
##boy
##Scaraba
##lengste
##Agri
##hevder
##Tenn
##Storm
##Cooper
##Ibland
##Peg
##anerne
##gaster
##automatisk
##neri
##Nair
##Christians
##Lena
##lojtnant
##uco
##ija
##liberal
##agent
##daren
##muslimske
##fladen
##Jørgensen
##stations
##ovich
##sikkert
##Arizona
##rollene
##oppnadde
##suver
##Tidningen
##Amar
##rina
##ogh
##Franklin
##medi
##hjemmebane
##Civ
##varder
##støtter
##lagare
##betalt
##cost
##hemmet
##Thompson
##]].
##espillet
##rera
##Falls
##ological
##setningen
##strider
##gørende
##solens
##Aleksander
##Carter
##Hvor
##arspindlar
##Filmografi
##stipendium
##Crist
##gangare
##genren
##broderna
##besøk
##stjarnbilden
##Beskrivning
##forlæn
##afsnit
##bedrev
##byggas
##Shir
##Hassel
##planeten
##strategi
##værelse
##Kommunal
##Modern
##kyrkliga
##filmerna
##kretsar
##Suk
##itanien
##overlev
##Ace
##opin
##aster
##kaffe
##wat
##omma
##ivo
##Gent
##1799
##Wahl
##spørgsmal
##Mut
##hedder
##cz
##gymnasiet
##wh
##trykt
##ал
##alais
##torped
##Barrage
##Sefid
##dak
##verv
##Eleon
##kode
##ideen
##Tres
##landskaps
##More
##Rør
##Us
##Forfatter
##andras
##museer
##1758
##segrar
##Won
##tilnær
##Hakan
##dømme
##gow
##sakt
##konen
##borta
##forsoka
##pend
##forvaltningen
##Clo
##pton
##ovs
##distin
##psykiat
##igma
##Innen
##ordent
##McCartney
##Galli
##Oliv
##race
##mega
##paminner
##Meta
##løyt
##Harvard
##sidder
##afrikanske
##lover
##Edgar
##Cyp
##Mitchell
##stjeneste
##sjanger
##jana
##krok
##kandidater
##tradisjonell
##besitt
##blomstr
##membran
##brei
##attack
##rødt
##xamen
##hittades
##Hod
##mae
##lasser
##besøkte
##skarabider
##Viken
##eni
##kommissionen
##datteren
##offentliggjort
##quia
##voksende
##kanneteck
##geland
##Olavs
##Lopez
##iber
##enheder
##achim
##ortodokse
##Fjorden
##kW
##Jylland
##RC
##arhun
##ilon
##undersokningar
##Stiftelsen
##angive
##Sene
##Pfalz
##hjarn
##iscus
##Liu
##oppmerksomhet
##icana
##utvecklas
##Claud
##jæv
##klat
##oppfat
##town
##Trop
##Halland
##vogner
##ellia
##dykare
##framgangsrik
##mæng
##virksomheder
##Azerbajdzjan
##datidens
##pga
##potensi
##ukrainsk
##etablerade
##SL
##stok
##vader
##Norrbotten
##beskrives
##Linkopings
##ambassadør
##kjønns
##Ted
##rion
##arsus
##handelser
##Brev
##icer
##immun
##deh
##rafik
##Frey
##manskliga
##Bisk
##esund
##Neil
##Hale
##Ratt
##fara
##pioner
##offentligt
##utrym
##Paulus
##ime
##stump
##maa
##Liste
##iderna
##Umm
##may
##løpe
##videnskab
##avs
##konsep
##114
##stjan
##rekr
##eidae
##Ovre
##bunds
##rulle
##gig
##Lub
##Lju
##Nac
##uttalte
##othy
##unnan
##Found
##endring
##artisten
##midlertidig
##Skelleftea
##stoppe
##Koudiet
##arin
##stallda
##Suz
##Uppland
##Montana
##Liksom
##eno
##avgjør
##besvar
##kapasitet
##لا
##Oc
##efteraret
##selvstændig
##øjer
##storfer
##Leh
##ognat
##inneholdt
##Comte
##tynne
##bekrafta
##yers
##skyddat
##ramme
##spat
##emner
##serer
##tilltradde
##Frei
##Kak
##Auster
##Palm
##rival
##underart
##Meli
##titlar
##tju
##kommandoen
##Joachim
##litau
##forsaljning
##Præ
##bedrifter
##mæn
##tillag
##opio
##bros
##Akademi
##Tanzania
##tvungen
##istene
##Cou
##tjente
##edonia
##skran
##Melast
##teh
##tolk
##Sjælland
##Kv
##dingen
##anhang
##rammet
##filmens
##sangene
##Capit
##flyktet
##Sever
##Auver
##velly
##velge
##ordens
##Anis
##uston
##bevaret
##pant
##olie
##Verden
##utvecklat
##ansa
##Norte
##selskaper
##tonsatt
##jobber
##noveller
##banor
##borrflugor
##kompleks
##fredet
##bryta
##udstyr
##sji
##Spencer
##orp
##landor
##bau
##ratte
##Kampen
##Prom
##Inden
##market
##Lennon
##Atlanterhavet
##sis
##laser
##befalhavare
##Glad
##signaler
##lakemedel
##enay
##Tana
##vekk
##sivil
##aguay
##klostret
##jungfru
##konstnarer
##sydvest
##krisen
##bildat
##skilja
##orsbladloss
##langrorsbladloss
##Orig
##lint
##smalt
##varianten
##FO
##rinner
##karl
##møder
##kirimoj
##rish
##Ferr
##elit
##Stutt
##Jarl
##relle
##Vejle
##Relig
##1776
##eiendom
##Metropolit
##fysikk
##Arbeiderpartiet
##skøyter
##color
##Drew
##Inte
##betala
##passasj
##fasc
##Auvergne
##hstorfer
##attslandor
##givit
##studentexamen
##Ridder
##leri
##rats
##vistas
##stilla
##slen
##ynes
##Romanen
##skabte
##Channel
##foder
##vild
##redde
##AP
##dou
##strackan
##minskade
##alism
##episode
##Apple
##FM
##kelt
##mojligen
##undersokning
##Kart
##280
##borgerliga
##forekommande
##nats
##roch
##stisk
##elve
##brutt
##forbindelsen
##verkstallande
##doktorgrad
##ccion
##stadiet
##vasen
##kerna
##Ovriga
##Enkelte
##Last
##etniske
##Romania
##750
##stev
##moen
##skildrar
##ariidae
##heat
##konstmuseum
##Malet
##Brøn
##ægteskab
##EN
##Georgien
##betydningen
##omradena
##Bois
##alismen
##Rhyn
##Vu
##Medlem
##jarnvagen
##erfaring
##dott
##overbe
##Chin
##korde
##bonus
##strukturer
##kuler
##Rothschild
##bage
##progress
##Kis
##distribut
##landern
##Simulium
##republikk
##cktes
##mah
##sakalt
##giftede
##Familjen
##okat
##rekonstru
##Dec
##beskrivelse
##æle
##Avrinningsomradets
##Vasterbotten
##bber
##jou
##kackerlackor
##lenker
##Japans
##ovanfor
##Tanger
##kru
##temot
##formula_1
##Cort
##Mesa
##markerte
##Phan
##tilpas
##Hawaii
##jorde
##nadssatt
##weg
##chon
##syntes
##Feli
##rende
##Stuart
##attent
##schaft
##Gis
##spise
##Basta
##nedgang
##baks
##berømt
##Kau
##avgjort
##isera
##mulige
##Lock
##flydde
##vagg
##sjong
##kunnat
##neth
##jem
##forlov
##iton
##kejsaren
##forvir
##Golo
##Medle
##Imp
##øer
##utflode
##Mississippi
##orf
##cter
##vender
##Catal
##Kval
##Antoine
##byran
##nerv
##bockerna
##Dalt
##plus
##ioides
##ipedia
##tagare
##symfon
##hyll
##straffe
##radhus
##konven
##kungens
##ilian
##bispedømme
##biot
##uktionen
##bria
##1797
##Habit
##hns
##ravin
##konvention
##Rug
##odont
##Rhy
##stræk
##Aca
##patt
##distans
##angrebet
##trafikken
##tettsted
##invald
##arsskiftet
##tidsskriftet
##halsen
##Lloyd
##greg
##eksplos
##Tis
##optradte
##116
##alsk
##oglossum
##hospit
##antikken
##driva
##halvan
##felle
##flyve
##navig
##eff
##Nicar
##gymnastik
##allierede
##kontakter
##Well
##ckers
##1788
##Edinburgh
##flit
##chora
##odleart
##Belle
##ils
##polo
##Four
##Jesper
##kompletter
##utsikt
##Euphor
##erstatning
##cili
##ка
##ratta
##Senter
##Lyon
##tjenester
##hoffet
##HS
##zzi
##Lamp
##køre
##landss
##vaningar
##skarriar
##Lant
##elden
##synte
##bredd
##betydnings
##Wurttemberg
##Melastomataceae
##Arsenal
##undvika
##lengst
##svin
##Science
##anas
##Amand
##Malta
##Verket
##1796
##gaten
##330
##Kelly
##ifra
##nun
##sval
##ase
##News
##laggningen
##Cac
##Him
##Haute
##Wie
##sner
##reserv
##relativ
##aric
##Minsk
##judar
##spolitik
##byl
##begynder
##analys
##luther
##reklame
##mongol
##Sørensen
##Hz
##eksport
##lokaliser
##bagge
##placerades
##Magdalena
##Hier
##polen
##ftede
##krone
##fangenskap
##Eag
##opgave
##snab
##medicine
##Fabricius
##GS
##Utara
##fiskeri
##stige
##laus
##spæn
##vilja
##pho
##Racing
##visninger
##Loi
##coc
##nyare
##Bulgaria
##Falken
##Tren
##kommunistiske
##Neo
##Nationalmuseum
##Bard
##folkrakning
##Istallet
##medarbetare
##kaptajn
##Dit
##tha
##hebre
##patron
##erkebiskop
##Egenskaper
##inriktning
##artikkel
##jevit
##amatør
##pare
##praktiken
##traffar
##Parana
##beløn
##espill
##Andalus
##sarskilda
##cao
##Saudi
##Singapore
##arbejdere
##Piet
##økende
##hebraisk
##stoffet
##frede
##urnal
##staet
##kald
##roe
##hira
##Way
##Qarah
##busser
##Schaus
##smor
##Kroppen
##pseudony
##DJ
##stjanst
##hekk
##kakt
##annes
##pensioner
##Neva
##institution
##maktene
##Alvs
##mennesket
##racer
##ettan
##sone
##Ericsson
##Dale
##larde
##øke
##agu
##Conrad
##regeringens
##Autom
##løytnant
##Kad
##minnet
##substant
##amba
##Isra
##fangats
##hittills
##Bruns
##Hospital
##foraret
##sydøst
##giften
##mærksom
##begrep
##mende
##aggress
##baserte
##legendar
##MP
##vertik
##vapenet
##Matthe
##skyting
##fejl
##personliga
##Corn
##muligens
##maculata
##)".
##handeln
##Bird
##finansminister
##Wallen
##Sainte
##UNESC
##jods
##insjoar
##følte
##Coast
##forstordes
##Diskografi
##Walla
##scorede
##edag
##opptrer
##Salzburg
##græsk
##mektig
##hamna
##tidligste
##Nept
##sproces
##ssen
##Ambly
##trafiken
##ograd
##overenskom
##etterfølger
##radsomradet
##Sagu
##Lop
##tjeck
##studi
##Karlstad
##Gaz
##protein
##salja
##passerer
##tillfalle
##agnet
##slok
##Andy
##Stones
##eksperimenter
##kretser
##haugen
##Kristi
##søgte
##repræsent
##sog
##kjenne
##ualitet
##verdenscupen
##kartlagd
##institutt
##købing
##illustrat
##forber
##iley
##Dz
##Tod
##huvudrollen
##sjar
##lokomot
##cirkel
##gravit
##staterna
##kæmpe
##symmet
##gymnasium
##Carlsson
##parter
##hao
##bne
##angar
##alon
##Elli
##Souss
##bidrar
##kommandør
##Lepid
##alfabetet
##maskinen
##tidningar
##halsa
##Beina
##frivillige
##stik
##gelses
##regner
##namngjeven
##markant
##cid
##Forsvars
##dengang
##halvdelen
##alistiske
##pastoratet
##egyptiske
##Gros
##derfra
##konson
##vejs
##allierade
##avslutades
##bensin
##Nob
##uppre
##toner
##lagkonkurransen
##massigt
##Ghow
##Bremen
##Elisabet
##Fruhstorfer
##Hansson
##Gotlands
##introdusert
##lamnar
##cras
##anka
##slutar
##similis
##Systematisk
##tofs
##tunga
##Design
##malning
##sociale
##Bryssel
##Jos
##gator
##strø
##Pes
##Laura
##ljungvaxter
##nordostlig
##ifoli
##primit
##portugisisk
##stuna
##utvecklats
##Arkitekt
##utstrackning
##udgang
##105
##abne
##bestyrelsen
##Historien
##situationen
##Stuttgart
##sper
##XIV
##fia
##tius
##tator
##bladsvaxter
##Llan
##Mom
##Spir
##steds
##Morris
##Ding
##Dim
##overfl
##fasen
##intellig
##Dc
##bedrift
##Alesund
##Islam
##atgarder
##Australian
##nasjoner
##opmærksom
##parat
##ashi
##enting
##Folkeparti
##nica
##residens
##vante
##Skandinavien
##elsker
##itim
##Oreg
##betes
##undt
##runa
##Sted
##hastigheten
##Trig
##legges
##Regional
##skipene
##utfar
##Cocker
##Pab
##omorpha
##lii
##keiseren
##sklubben
##Chir
##kategorin
##komposition
##kommission
##behandlas
##paborjade
##bakk
##nomin
##annars
##Tand
##indire
##cout
##belgisk
##Nunatak
##Kiev
##Oa
##tilhen
##forsvare
##marx
##1660
##Akadem
##forkortning
##02
##bic
##spion
##zeh
##Sudan
##Girl
##opsyche
##skinnbaggar
##tyrkisk
##Bali
##herine
##somrader
##Burma
##skulen
##fodelse
##1791
##kristendom
##gjennomsnitt
##formo
##asu
##soka
##Prog
##Thomson
##artikeln
##motstandare
##reserve
##Megaselia
##rons
##knytt
##vitenskapelig
##Cara
##hormon
##etableringen
##Face
##udviklingen
##Sarah
##dominerande
##Dance
##stemte
##edikt
##drap
##osty
##dok
##deltagit
##religions
##stiftelse
##samtidige
##Magall
##debatten
##snavn
##htt
##uteslut
##hell
##arvet
##planerade
##Grammy
##distrikter
##icollis
##Dio
##ningerne
##iren
##beslot
##rettigheder
##Vestre
##yre
##endra
##animer
##atnet
##voks
##Krak
##dukket
##gae
##benamn
##messige
##underviste
##tropiske
##Kou
##anza
##kendelse
##fritids
##Sei
##lora
##heli
##mistede
##analyt
##Tobias
##strang
##sica
##tidene
##skadespeler
##chidae
##escens
##Stedet
##tern
##administration
##castle
##Chiapas
##anhangare
##foredrag
##utman
##nordvestlige
##Venus
##erin
##iserer
##onso
##bevisst
##teke
##usse
##fiber
##Coen
##wah
##Aleksandr
##lay
##gentian
##jasen
##Græ
##Male
##enter
##høyr
##amaryllis
##erande
##natura
##undervisnings
##hvile
##kongress
##tradt
##Otte
##særlige
##læng
##tapet
##nordøstlige
##koncentration
##skutt
##ligge
##bygnings
##Labrador
##jøde
##seneste
##1772
##Hjem
##Skipet
##Bourgogne
##Cetoniidae
##tettstedet
##Trump
##Magallanes
##mull
##malvakt
##brygger
##formodligen
##islandsk
##03
##yana
##tavla
##overlever
##Map
##bang
##huden
##ophthal
##Eumen
##gotlands
##ogna
##trin
##zio
##tiltak
##igo
##enson
##1750
##Kay
##utgivelser
##Hammarby
##Ozero
##Bort
##yia
##rekommen
##Scop
##Souther
##Chate
##Spin
##ups
##Exped
##kammare
##rodlistan
##')
##President
##leid
##tackvav
##Occitanien
##hundar
##burger
##heterna
##lagda
##tidspunktet
##begransad
##murer
##livsmedel
##kyrkoherde
##Broadway
##nærliggende
##blokker
##DF
##odyn
##luf
##seriens
##sjan
##ledte
##inomhus
##festning
##Cun
##provfiske
##ols
##juster
##sangerska
##betegner
##fusion
##jager
##stærke
##ukket
##hasten
##keren
##://
##versjoner
##retninger
##fjarden
##quer
##phop
##getown
##høv
##litets
##action
##Jay
##snackor
##yst
##stallt
##fuglar
##Kapp
##Serbien
##HB
##oldt
##selva
##Two
##ciden
##Indiana
##Deutsche
##Yng
##thys
##Ursprung
##pter
##pasien
##grepet
##symboler
##folketellingen
##Meyrick
##skun
##rice
##naderna
##tredjedel
##Luxembourg
##vador
##græs
##pekt
##Bek
##Hex
##harda
##Sax
##kontrast
##olds
##Tredje
##Opr
##afrika
##kalendern
##hjemmes
##tackvavarspindlar
##Yam
##produktions
##innov
##trof
##Vista
##sistnamnda
##socker
##hunden
##alternativt
##tvilling
##pion
##usi
##Inger
##geografisk
##bob
##hvorfra
##jos
##bevare
##oppløst
##kommanderende
##Huang
##igar
##hotellet
##Wit
##ambassador
##stallningen
##tidsskrift
##Kyrko
##racing
##cl
##forhandlinger
##terreng
##Venezia
##Albummet
##Cali
##enna
##wak
##medlemskap
##regjerings
##Gottfried
##anlaggning
##erobre
##urin
##Stilla
##dygn
##politiken
##Jas
##agna
##synonym
##nasjonalpark
##utnyt
##etty
##umer
##Kenneth
##torv
##seieren
##iserings
##omar
##panel
##sistnevnte
##hjælpe
##1787
##Trondhjem
##ulik
##Standard
##ader
##Haa
##Artene
##tank
##tavlar
##etiske
##spitze
##tillhort
##minal
##forestandare
##onlyinclude
##Pis
##fester
##kantet
##sjalvstandighet
##iseres
##Parker
##specielt
##Libyen
##lattare
##steuropa
##cture
##inspireret
##urgi
##love
##ype
##Ekologi
##hti
##heraf
##Ettersom
##tekstil
##tev
##valv
##kina
##undet
##elm
##kommitte
##Kob
##oran
##nogens
##Nordiska
##Ryan
##igu
##Jonkoping
##Field
##Saledes
##blog
##Kai
##krefter
##behovde
##blodet
##pistol
##mellersta
##vannkraftverk
##kansler
##Eksempler
##ockup
##yting
##mour
##trommeslager
##delinger
##Andor
##plattform
##Erling
##Lista
##mesterskab
##Rafael
##anto
##absor
##kjønn
##Rutelidae
##retur
##streck
##Rah
##Menne
##træn
##atskil
##Merce
##bekym
##yama
##Knight
##tatorten
##langst
##oldater
##recens
##utfordes
##kyrkobyggnad
##lejon
##skildring
##koord
##Johanna
##stumpbaggar
##amarant
##isra
##Forum
##bytt
##ese
##besegra
##Watson
##videnskabelige
##perto
##monopol
##Jerry
##ungarske
##domare
##hvori
##Sports
##idretts
##Vegen
##onotus
##Maud
##anbefal
##ærke
##ococcus
##international
##dottern
##Dana
##Faren
##Sork
##eie
##aph
##Gira
##larvene
##elektrom
##Eskilstuna
##algo
##avlingen
##Folkmangden
##jum
##ophold
##svæ
##vigtige
##Collins
##atern
##ifraga
##Mov
##opod
##lana
##minutt
##Chelse
##hypote
##SR
##rank
##stengt
##Beskrivelse
##forkn
##feber
##norrøne
##Augusta
##Holger
##dynasti
##massak
##Tsjekkos
##Vul
##Claes
##Warner
##asen
##farget
##oppsto
##ukke
##puckel
##foraldr
##Sina
##hangar
##tilskuere
##debutalbumet
##rasen
##sanddyn
##metalli
##mængde
##baker
##Selve
##Yorkshire
##nogensinde
##entz
##Jonathan
##tungt
##core
##Press
##broll
##katedral
##Roberts
##grundlaggande
##teknikk
##uavhengighet
##hevet
##infrastruktur
##Nicaragua
##este
##retter
##desto
##utenlandske
##telef
##malte
##standet
##Aften
##Eumenidae
##Dot
##rosen
##borgerkrigen
##forestillinger
##innhold
##fyller
##Bibelen
##Vien
##oversatte
##:"
##jagar
##parallell
##kmal
##tagna
##sjukhuset
##produserer
##godkan
##retor
##nasjonalt
##moleky
##Skien
##Slottet
##krop
##knut
##strar
##græske
##Connectic
##ин
##lakt
##tai
##oso
##Gel
##alban
##Kurdistan
##Even
##ced
##myrdet
##veksling
##erkan
##marna
##uelt
##acan
##upptackte
##satellit
##primære
##cru
##lagi
##hvorved
##Visby
##kling
##sjof
##Norrbottens
##Aq
##arum
##udt
##borre
##Iso
##sammenlignet
##Hak
##Guangdong
##takket
##vang
##prefekturet
##kupp
##vier
##komposisjon
##slinje
##chet
##nominerades
##enhed
##veta
##evner
##Historisk
##Airlines
##produsere
##Roland
##kly
##daligt
##affin
##Austin
##Hardy
##Forn
##undervisningen
##okad
##Hede
##hyg
##sjost
##godkjent
##geografiske
##edic
##plex
##skyrkan
##Budd
##ologiskt
##Regjer
##Ungdoms
##gazine
##spillerne
##betyda
##senast
##ikkens
##vinrute
##fullført
##FIF
##Gymnasi
##cti
##afdeling
##torr
##angan
##ocerus
##avancerade
##This
##Kang
##inspekt
##frisk
##koncernen
##juri
##veland
##stalls
##generall
##kvinnen
##striper
##asso
##Saguenay
##Ced
##Eut
##tjanster
##Falun
##korsblommiga
##Lombar
##Kep
##Nurn
##ostom
##apel
##snyltrots
##illeg
##vagrade
##Lip
##sannsynlig
##Buntu
##Helsingborgs
##Kunt
##jov
##unik
##proff
##Boule
##Nairobi
##uran
##lagret
##gutt
##æder
##Sjal
##"".
##formed
##dialog
##Edmund
##journalisten
##revider
##rykk
##fremstilling
##Bowie
##puterade
##raske
##klatt
##relationer
##svit
##Southern
##traditionen
##skoter
##Prisen
##kackerlack
##sned
##Ryd
##tillhorighet
##Alexandria
##granser
##bust
##def
##ulon
##kelen
##kvarn
##anvant
##seng
##overtatt
##symfoni
##Sju
##kine
##grupperna
##Agnes
##Ghowr
##astad
##elite
##kula
##traditionellt
##succe
##opposition
##kreps
##isiana
##derimod
##rip
##lend
##ichi
##standarden
##jamte
##German
##motorn
##virksomheten
##udvidet
##sledare
##karr
##Georgetown
##magten
##konsentra
##paris
##fuldt
##kidna
##belast
##katedralen
##Erem
##Gara
##Lane
##Hauts
##Buc
##jot
##kora
##utgangspunktet
##kongedømmet
##komedi
##Handel
##visste
##skyte
##RO
##drepte
##familieg
##utbildnings
##DE
##kristendommen
##Isaac
##kackerlacksart
##Heller
##oron
##nylig
##genomgick
##lægge
##sosialist
##orelsen
##otiske
##givelse
##halso
##nattslandor
##Harj
##forskjellig
##tradisjonen
##varpa
##uppstar
##roma
##spektor
##GB
##Zhe
##Sigis
##Sit
##isp
##spinn
##biologi
##Haag
##publiserte
##hrus
##Dendrobium
##ungdomar
##tropisk
##imel
##historikere
##affars
##Pleur
##heta
##aktiver
##Rudolph
##brunt
##framtida
##producen
##Ingeborg
##ridi
##Gyllen
##uber
##ensem
##bordet
##myndigheten
##Dys
##rou
##Schon
##glaciar
##forelas
##hane
##havdade
##Yaz
##kali
##jong
##mingham
##Bit
##Heim
##konsekvenser
##Dhaka
##Astrid
##Ice
##iang
##hospital
##forbryt
##kroppens
##Adrian
##Kna
##Nett
##alu
##odden
##ordfør
##behandlet
##ljungvaxtart
##nordlege
##grenen
##Slag
##hrer
##erkl
##utlan
##overflaten
##tempo
##gammelt
##Produc
##søke
##fristaende
##sørlege
##barns
##Joy
##alth
##situasjonen
##Potosi
##Mercedes
##lest
##oger
##ytterst
##passerar
##tørre
##hindu
##arligt
##udfor
##isto
##kvall
##Antart
##Hedvig
##eventuelt
##Lek
##forr
##eksisterte
##motsatt
##hamnar
##Parlament
##Elmer
##Tere
##sai
##Schles
##bæl
##borgmastare
##fredag
##Kore
##abi
##jia
##Fy
##Hin
##raine
##banden
##Nim
##Nina
##avhandlingen
##resol
##lish
##representere
##Muhammed
##ofil
##netop
##aterkommande
##svagt
##basketball
##kirurg
##pher
##Dallas
##Emile
##Stalin
##avgjørende
##cad
##Federation
##strekningen
##Flandern
##hre
##vationer
##Fransk
##farver
##1781
##Eun
##fotografi
##portræt
##esis
##prinse
##ulp
##presset
##gracilis
##lanssteklar
##smart
##Gjø
##Hou
##lyset
##butikk
##finglanssteklar
##samhalls
##boda
##flytande
##sæde
##Groß
##Deh
##chard
##restaurang
##Botten
##statistik
##ksjonen
##Nie
##backa
##Vinn
##ksjoner
##stabilitet
##Birmingham
##Schwarz
##inb
##Regeringen
##kaktus
##Women
##depor
##legaste
##slap
##vestover
##Chart
##Shand
##ingenting
##pali
##quet
##dramafilm
##forra
##andro
##konsten
##Silke
##resterende
##turneen
##dialekter
##»-
##lies
##fungere
##Christoph
##Malaysia
##ledar
##forfattade
##blommig
##elus
##varar
##villig
##Sverre
##DP
##fossen
##aur
##ded
##Year
##Dion
##Helle
##IN
##kommere
##kome
##elor
##sakert
##østover
##landsbyer
##Christine
##mekanisk
##kompag
##inds
##behandlar
##Slaktet
##hae
##isbre
##Alg
##bben
##stierna
##Becker
##vamp
##stalle
##any
##strad
##natverk
##arrangeres
##GM
##enz
##Aboland
##patienter
##Tje
##ilien
##temperaturer
##influen
##okand
##komplex
##trække
##Jok
##svoll
##Clara
##datamask
##komponenter
##Sale
##møre
##Garcia
##Kamerun
##ativt
##forsamlingar
##konsentr
##musikalbum
##begynne
##knappt
##Ech
##staka
##rupper
##sylla
##Dolok
##anlaggningen
##straf
##Julie
##Cin
##køn
##mestre
##landbrug
##Marse
##eies
##databasen
##Brist
##ensel
##obla
##kortvingar
##judiska
##bats
##handelse
##aftale
##opplæring
##skeppet
##Push
##sjøl
##skapat
##mira
##Loe
##kostnad
##medverkar
##bygds
##Glasgow
##Damp
##befatt
##lips
##sidig
##trycket
##Napoli
##Kentu
##liberale
##forlate
##verdensmesterskapet
##Chilena
##What
##mud
##teatret
##beskyttet
##henvise
##svampmyggor
##Qor
##Scen
##avgift
##inngikk
##sian
##1760
##Dil
##Phylla
##sexuella
##andi
##ovans
##Ahmad
##Pie
##fusjon
##Bergman
##observa
##forføl
##behalla
##Ane
##Boll
##haret
##vaningen
##Deep
##sendes
##tendens
##moten
##Chelsea
##eksperiment
##nautiske
##MTV
##smar
##hiz
##Privatliv
##plade
##Aber
##kha
##segern
##tasjon
##moske
##komplek
##Culi
##tomt
##kusin
##kyrkogard
##frukter
##skara
##sjun
##Spani
##koreanske
##Lindberg
##Gabon
##snabba
##Gary
##Lilje
##Osl
##Antartica
##arhundra
##patent
##æger
##ypha
##Kaj
##orial
##pattedyr
##illen
##utomlands
##australsk
##ockuper
##Julian
##Elect
##prosjekter
##strømmen
##livsmiljo
##Daremot
##hebreiska
##elvene
##hornet
##tillverkas
##Tammer
##Metal
##definition
##Nicolai
##elset
##elling
##Medic
##Munch
##340
##hill
##nyhet
##Param
##avdelingen
##bratt
##kjennelse
##høyden
##jeneste
##pronotum
##Bin
##Bertil
##guit
##tjenestegjorde
##mølle
##tillatelse
##tilbyr
##stifter
##Spil
##Latlista
##Eke
##seriet
##bogstav
##beteende
##gend
##Styr
##kund
##vagbin
##Graf
##ecken
##udvalg
##syndrom
##leton
##Ryg
##Territory
##utø
##farlig
##svarende
##Ming
##bye
##Esbjerg
##Natt
##fortsetter
##Richards
##varade
##Franche
##Bates
##Foundation
##Andalusien
##enede
##qua
##('
##rorande
##areh
##ject
##krysset
##Halmstad
##jades
##komiker
##gravlagt
##formasjonen
##gælder
##Dob
##beina
##kilden
##quel
##slosa
##musikalsk
##Rangers
##Sug
##vy
##ław
##indgik
##tide
##foreslatt
##Melodifestivalen
##sammanslagning
##Sture
##hore
##Cephal
##fordshire
##motsatte
##frihed
##Inns
##Cart
##opoda
##Gammel
##rake
##inndelt
##rekker
##Canad
##omedelbart
##Sodermanland
##Instru
##velt
##Steven
##Borger
##kombinasjon
##Hapl
##Brow
##kontinental
##minder
##ouan
##rykkede
##dygt
##phan
##steori
##verkande
##roc
##bokser
##Sandnes
##Bonnier
##Kost
##skibs
##manliga
##Forel
##hverken
##programleder
##Hvert
##ockeyt
##manniske
##traditioner
##Clarke
##Hyd
##tvær
##utbildningen
##omnamns
##bunn
##wel
##Dennis
##hushall
##saknade
##imum
##strøk
##Petrov
##kommersiell
##hits
##marskalk
##1783
##patrul
##Diet
##setter
##grønt
##Sik
##sjeld
##koalit
##talande
##fiolin
##ianum
##Johanne
##formad
##konferens
##kør
##fødsels
##stapel
##beholl
##boet
##refererer
##engagerad
##minskar
##hium
##101
##vete
##Cienaga
##mop
##speciella
##krigens
##operasjon
##Dalton
##otisk
##flyfoto
##Ragn
##belonades
##icz
##spelarna
##Ralph
##skots
##sviger
##utredning
##oon
##erklære
##EG
##Death
##fungerede
##Plut
##stærk
##canadisk
##Shaw
##bladsvaxtart
##hanen
##verna
##Parti
##hittas
##Kristine
##forklare
##Munster
##tilsvarer
##Sommaren
##asyl
##brugs
##grunnlegger
##Vard
##amas
##rone
##trening
##inspelningar
##Vegas
##maker
##bura
##identifier
##dras
##Marcel
##Hidalgo
##Pent
##diktet
##Tammerfors
##Fitz
##elos
##folkets
##dækker
##umat
##stakade
##menneskelige
##Carex
##leie
##slager
##flyttat
##Vega
##Svein
##utfora
##Bohuslan
##Margrethe
##olig
##ombildades
##kilo
##horison
##idad
##nick
##puckelflugor
##fortet
##trussel
##Form
##Hey
##anerkjent
##tillfalligt
##gna
##bef
##konkret
##nederlandska
##administrasjon
##ophus
##døgn
##riktigt
##Kaukas
##omfatta
##().
##daglige
##journalister
##Miner
##ypy
##Micha
##Demografi
##Vita
##Zab
##kjøre
##byggnaderna
##Forsvarets
##Swan
##frakt
##heit
##huvudsakliga
##Edmond
##Milan
##TH
##Whe
##andamal
##virtu
##positive
##skaffet
##SU
##uga
##uno
##imple
##Kuopio
##Still
##anar
##skes
##embeds
##Euphorbia
##forhin
##kona
##cali
##juridik
##Student
##Israels
##Mud
##vardet
##opot
##Alfa
##morka
##Veliki
##pps
##overtogs
##Hela
##cond
##gennemsnit
##askadare
##KF
##XI
##behandlingen
##Connecticut
##650
##Lise
##Chong
##Jugoslavia
##gins
##Cona
##Færøerne
##sinn
##udelukkende
##inum
##harina
##karp
##Mose
##cut
##tepec
##sommerfugler
##Jul
##assy
##grundet
##formogen
##svarade
##granit
##ømt
##bearbet
##mannens
##nationell
##Sli
##Kast
##førende
##akademi
##framført
##hvitt
##rase
##leger
##innførte
##prøy
##kapel
##betraktet
##Unter
##Orche
##Berlins
##ritade
##diriger
##udstilling
##Kring
##sidae
##Saga
##sikkerhed
##ambetsman
##Gn
##Them
##yards
##skanal
##paverkar
##Snorre
##td
##innvand
##friherre
##idendrum
##partiled
##obligator
##afgørende
##nynorsk
##deltager
##returnerte
##Derefter
##Wir
##roten
##utgivelsen
##Vitt
##beslakt
##Herre
##vegne
##1778
##Chapman
##Viden
##lement
##geografi
##brotts
##Zhejiang
##opis
##ledamoter
##Tsjekkoslovakia
##darlige
##steatern
##Tac
##konserten
##dekke
##mesterskaber
##hopper
##hannen
##exp
##dades
##Poec
##Eddie
##argument
##HA
##Mindre
##osoma
##Epidendrum
##vila
##Lia
##nationer
##Nur
##populart
##gjennomførte
##rela
##Hedmark
##amatcher
##romantisk
##From
##artade
##storharkrankar
##Nurnberg
##pupp
##verte
##økonomien
##1782
##vanlegvis
##lads
##krever
##ritades
##Gill
##Fries
##Pettersson
##Lol
##sac
##branschen
##skuespilleren
##Dasht
##nemnd
##Helen
##tagits
##sportsutøver
##fantasi
##Ove
##tiderna
##grunnlagd
##riksvei
##samlarbin
##vackte
##opy
##naren
##turer
##spesiell
##anvendelse
##farfar
##consin
##døtre
##Indtil
##sandsynligvis
##kjøl
##Bobby
##Sut
##spiser
##spektral
##1773
##Fut
##Zhu
##samtid
##ellow
##idaw
##buksamlarbin
##beordret
##Stars
##kvalificerade
##vedlike
##ege
##chich
##riger
##Papua
##Jeff
##centralt
##P3
##ospor
##tilsammen
##Oscars
##Teksten
##Athlet
##Sac
##forbattra
##psyko
##Amund
##Observat
##fahan
##framforde
##Perry
##Tripoli
##Skolan
##Samtliga
##kaster
##lash
##Svenskt
##KP
##opgaver
##Country
##djurart
##Bromma
##imbab
##1785
##Blanco
##Katalonien
##Vog
##arken
##inkorpor
##gah
##emir
##slutter
##)",
##balt
##forum
##ktisk
##Arke
##Ostergotlands
##hjemmet
##innlemmet
##Houston
##Boeing
##Aug
##tilpasset
##entris
##uu
##anstallning
##forlu
##vedtok
##nyttar
##latskrivare
##Brunswick
##سر
##restaurering
##Palestina
##Kentucky
##utex
##stom
##administr
##Damernas
##skyn
##olde
##bers
##Handlingen
##kavaller
##Likevel
##sterett
##Wisconsin
##Front
##Roche
##grundat
##arvs
##ossen
##byta
##Bretagne
##Fren
##Barry
##tidskrift
##Selvom
##Arbet
##aksjonen
##ffekt
##Wad
##varu
##ingane
##medvirkede
##iensis
##ст
##slett
##Marius
##textil
##nivaet
##gongen
##middag
##Louisiana
##opterus
##kjøpe
##Antio
##aterkom
##løsningen
##div
##نه
##statene
##undga
##albank
##generelle
##Agat
##manska
##søndag
##Idi
##etablerede
##arkitekter
##sangerskan
##Snow
##atmosfæren
##Zah
##ocken
##rosterna
##presenterades
##tiende
##emblik
##oppfor
##oval
##produktioner
##Cockerell
##Smed
##nyckel
##sammenhen
##Special
##Numera
##gali
##kjører
##meisterskapen
##alfabet
##skritt
##Universitets
##Benn
##some
##tenn
##Valg
##okko
##Guangzhou
##Pink
##dack
##ulosa
##heavy
##moter
##resund
##østrig
##ии
##Ibsen
##enheten
##derier
##sparet
##fremmed
##Constant
##optræder
##konsu
##modtaget
##Salvador
##atervanda
##kravet
##Glor
##Raven
##Forlag
##jøl
##sagas
##kallats
##ljusar
##bevægelsen
##skoldlussteklar
##tret
##sakh
##Ung
##Burundi
##Final
##opprette
##Thal
##forrad
##ims
##foregangare
##amir
##finan
##enige
##Luxemburg
##stabili
##Vagen
##Drae
##invasion
##Buch
##uncil
##Gale
##bark
##skrid
##trenger
##datering
##alvorlige
##valda
##Seinare
##arit
##ladt
##Kiruna
##hovedsageligt
##Sper
##xter
##byggts
##verktyg
##forfremmet
##afro
##diet
##balsam
##Antioquia
##Schul
##eftertradare
##Rie
##sesonger
##ystemet
##Aw
##statsborger
##Porte
##portugisiske
##Ping
##samler
##Gennem
##Order
##imperiet
##sekel
##ysse
##forskel
##amia
##tillam
##frey
##Deutsch
##UFC
##life
##indgar
##basid
##regjeringa
##ulation
##europame
##engasjert
##avgran
##stendige
##Proven
##-"
##sokt
##flyttar
##Merrill
##diagnost
##Krig
##Tett
##kvant
##stot
##icau
##Otter
##guitar
##fuglene
##konkurrence
##skrog
##Voss
##wing
##alger
##Forbund
##IR
##matning
##slots
##intern
##navnene
##konservativ
##slinjen
##prester
##Pach
##Newcastle
##Here
##tiar
##Bruk
##Elec
##verkstad
##aktion
##sark
##universiteter
##anlande
##sjunger
##bac
##forskar
##nævnt
##Thun
##budde
##etnisk
##chem
##kanen
##1774
##uppman
##cot
##roy
##touch
##konferen
##indik
##givna
##tau
##Stras
##mota
##1777
##fjerdeplass
##sare
##etz
##utspring
##faderns
##Hudson
##befann
##berry
##cific
##tyngre
##Denis
##korg
##mærke
##listor
##forme
##grunds
##rejser
##Parap
##flickor
##rach
##leddes
##militært
##Cic
##foruten
##landsting
##ulidae
##Rana
##omhandler
##husene
##aktuelle
##kvinnan
##Tabanus
##viteruss
##foresprak
##Gutta
##Zheng
##udgjorde
##teoretisk
##Kate
##muskel
##Naypy
##biologisk
##Bjorne
##kærlighed
##apolis
##daggflugor
##Tbili
##sjen
##ingue
##Paraguay
##nagare
##fremstillet
##skug
##Arbej
##Java
##falen
##uv
##voksen
##missions
##angayer
##grammat
##Naypyidaw
##licenti
##rij
##afsl
##saki
##abnet
##anea
##ianska
##550
##Boul
##Gib
##guvernement
##inhem
##okant
##skolle
##betydelsen
##Embrik
##anstalt
##roer
##Court
##alar
##qing
##kond
##yuan
##æra
##hani
##Hohen
##steinen
##Mez
##1763
##unntatt
##dramatisk
##syvende
##talbum
##Allt
##verkets
##kapitel
##utexaminer
##Rumanien
##budsj
##fabrikker
##craft
##administrerende
##riddar
##Witt
##xe
##attonde
##kopt
##ylum
##apent
##branden
##Palmer
##punctata
##arsjubileum
##Ville
##lokalisert
##Summer
##stundes
##danser
##tekniker
##Birgitt
##hovedet
##Lorraine
##stjarnen
##væske
##udad
##kjærlighet
##osterrikiska
##sørget
##spraken
##testamente
##oprettede
##erbjuder
##Vart
##skrivet
##nius
##Norrland
##issima
##strækning
##Larvik
##Bruno
##fængsel
##pakt
##ption
##Achille
##regisserad
##phar
##erings
##avser
##pagick
##gjere
##Stevens
##utbrott
##Torn
##1786
##pavirkning
##ersatta
##orlogs
##Isabella
##Phyllachora
##gno
##lica
##lein
##fiktiv
##lyde
##Vasterbottens
##forbedret
##hue
##emonien
##Bots
##udden
##tyg
##fisken
##oprindelig
##Koudia
##Tell
##havnet
##eine
##lyste
##Gua
##Pare
##sikte
##cosa
##Cros
##Hjel
##pause
##beskrive
##Nice
##Vann
##bte
##tidligt
##Kambod
##darifran
##Emanuel
##Iver
##flyter
##Wikipedia
##bidae
##avfall
##olata
##hollandske
##Fav
##vakte
##opteris
##Cordoba
##Aden
##vich
##nærheden
##Bend
##Levi
##Fjellet
##Folkets
##Tbilisi
##ekonomiskt
##forsyning
##namnen
##sjalvmord
##NC
##Darmed
##Gotalands
##dottrar
##Gum
##afrikanska
##erstatte
##selen
##elektro
##Guerrero
##Mina
##Daw
##Tids
##organiserade
##Vac
##galan
##Muhammad
##expedition
##tang
##Taka
##mesterskabet
##skickade
##gemeinde
##Orchestra
##beun
##kinestrads
##handlet
##Strat
##that
##ilin
##bezirk
##marsj
##Skivan
##Sche
##vaxande
##mottog
##ABC
##aristokrat
##Hær
##Wan
##esenteret
##BMW
##tavlings
##kolonien
##rytt
##lava
##borgerkrig
##arte
##orin
##utgivna
##Olig
##edda
##stemningen
##vidde
##arkæ
##styremedlem
##slave
##atoren
##ochaeta
##Aster
##Tart
##cub
##personlighet
##Finalen
##kriterier
##breda
##turneringer
##atlet
##teken
##fungera
##Alab
##MC
##sløs
##Mauret
##stemmene
##mannia
##strekkjer
##Sigismund
##fortel
##Guilla
##palatset
##Wayne
##Selatan
##færd
##frugt
##forrige
##Dw
##wagen
##Tidleg
##Akademien
##historikeren
##uds
##helgon
##reservatet
##www
##380
##chau
##turbin
##Konger
##kopi
##Hydra
##1784
##ligheder
##esiske
##serbisk
##merk
##Strang
##Paus
##beskyl
##Gonz
##ukter
##kee
##flyplass
##Provincial
##xaca
##stinget
##omgangar
##berattelse
##Jamtlands
##saktiv
##betaling
##Bli
##Pite
##insats
##Baron
##hørt
##vering
##huv
##covery
##tvar
##uba
##ofys
##ird
##tycks
##Lovisa
##Bolagh
##objekter
##selvstæn
##rundmaskart
##lisme
##strategisk
##Vet
##vedkommende
##setninger
##sakerhets
##drevs
##misslyckades
##markert
##bunnen
##Kashmir
##raea
##forsam
##import
##nettverk
##Klein
##stimuler
##licentiat
##AD
##uns
##norges
##krom
##særdeles
##Sarps
##Flag
##Kola
##hail
##resurser
##syntet
##skrivits
##konsekvens
##ankomst
##alom
##hantverk
##Ltd
##Roose
##ademin
##Joao
##lejlighed
##omslaget
##Globe
##alliansen
##krans
##ammen
##oksy
##Holl
##cheng
##spiss
##regionala
##matematikk
##norrønt
##Advis
##deltagande
##engang
##sprogrammet
##fundamen
##freg
##jok
##رد
##indhold
##gros
##Forbunds
##fære
##skett
##ambetet
##romerne
##ceremoni
##Kenora
##grunnleggende
##Edwin
##pyr
##Elsa
##Martins
##strukt
##inspelning
##Uganda
##Xia
##dver
##sisten
##Birkal
##Pus
##liden
##aktige
##slipp
##øynene
##117
##cs
##arrangementer
##ministeren
##Astana
##stafri
##berne
##merker
##Reka
##Saw
##bransle
##skolens
##Inloppet
##imi
##nandez
##avla
##kapitali
##tsjekk
##cari
##elong
##hipp
##filmm
##Clad
##zie
##lins
##middelsstor
##agi
##livets
##niska
##dyrket
##Kongsberg
##NASA
##Slo
##belt
##sera
##karakteristiske
##ospora
##ovansidan
##elig
##socialt
##koncerter
##Okla
##Solen
##sedi
##lavede
##kvartfinalen
##Tunis
##Schleswig
##Yong
##kug
##civila
##Non
##utbredelse
##hemm
##moderat
##insula
##Nyheter
##utokades
##Rel
##alge
##tilgæn
##desmus
##blandade
##bukten
##Westfalen
##Wed
##samheten
##Olaf
##Staff
##besokare
##steget
##Nunav
##svømming
##Age
##Cub
##øyet
##Resten
##djupt
##Wur
##Ostersund
##fortalt
##Orgel
##Kosa
##studerende
##dorff
##aktenskapet
##Cran
##inspirasjon
##ubat
##lova
##vatmark
##processer
##produsenten
##Fat
##تل
##stred
##perna
##hiphop
##familiens
##anklaget
##NTNU
##hensikt
##Eugenia
##face
##Obsjtina
##Kolding
##elds
##stodde
##Soul
##Yukon
##Nip
##Shad
##termen
##Dah
##Olle
##opptradte
##Georgi
##gotisk
##islandske
##Orth
##færre
##tempor
##byttes
##identisk
##renessan
##kend
##bomull
##galleri
##Amphi
##Lidingo
##sies
##Solna
##sættes
##Kanalen
##Flora
##Chem
##Neph
##kongres
##betegnet
##gos
##Moderne
##øvrigt
##muligheter
##interessert
##rese
##følelse
##Carpen
##Cyn
##atlan
##arealet
##Devil
##helg
##kvit
##Bilen
##hansyn
##kender
##blikket
##inar
##ryck
##verdien
##ady
##iermark
##tyckte
##planeter
##allsvenskan
##mula
##Pang
##homa
##etiska
##ophaga
##trummor
##Cres
##Viti
##arenan
##immig
##flygel
##Isid
##stamning
##Madsen
##Slik
##Slovak
##sant
##steret
##storps
##vokset
##Marianne
##soker
##majoriteten
##repræsen
##funksjoner
##Churchill
##boks
##kronprins
##Kus
##thi
##stikk
##skatten
##prise
##Oaxaca
##statsk
##Northwest
##.”
##Leks
##beslutning
##Makedonien
##asset
##series
##metery
##turn
##ændringer
##Pargas
##medicinsk
##originaltitel
##Aktiv
##Sek
##ftes
##amerikanskt
##Innsbruck
##Hund
##angare
##param
##manniska
##levelse
##Eleonora
##destin
##koncert
##agdes
##halva
##1740
##lednings
##cheong
##elegans
##omac
##atts
##baa
##traditionelle
##oprindelse
##gader
##pping
##kordes
##Schne
##tydlig
##muligvis
##Olympia
##rikken
##Sent
##ionde
##regimet
##gorod
##Council
##tettstaden
##keyboard
##Næ
##touren
##Berger
##Brø
##Andorra
##pera
##overtaget
##smas
##Fotboll
##Mob
##forsin
##albi
##belys
##konsulent
##Mell
##slekter
##canadiske
##repræsenterede
##lavt
##Cemetery
##Pommern
##Alternat
##onna
##elø
##Alb
##Torino
##alistiska
##prøyss
##phe
##tekne
##Ryss
##samiska
##Reichen
##stundom
##reflekter
##Magazine
##hems
##proses
##Huidu
##Titan
##lørdag
##arsak
##Presley
##revy
##vivlar
##pyrami
##festivaler
##Sist
##Tina
##uil
##dsson
##1720
##fargade
##Ekman
##Krono
##Seine
##Ytterligare
##Ocean
##Nunavut
##olycka
##utgaver
##betegnes
##lopps
##Rosenborg
##avisa
##leby
##juridiske
##iset
##minus
##resan
##Guana
##Isle
##mesteparten
##Armenien
##eige
##hut
##avling
##skrivs
##Dakota
##Laf
##fornu
##iron
##innehav
##grundad
##vandre
##sjonar
##bakre
##uppfattning
##cere
##Busker
##renovering
##krateret
##fris
##skirken
##Regi
##fotografier
##Public
##odde
##svard
##købt
##betalte
##Soli
##wei
##havdar
##isteden
##lossa
##Echin
##komprom
##omradets
##samtal
##bombar
##Clinton
##koll
##ombud
##hiza
##mals
##enorme
##Zer
##ocephalus
##vaxel
##Monaco
##290
##regelbundet
##success
##lægger
##fursten
##skida
##festen
##penden
##135
##øvelse
##søk
##ifrons
##forlorat
##rein
##habili
##ydning
##Baba
##cylind
##Fø
##domsaga
##bonder
##NKP
##passasjerer
##chez
##operationer
##Simpson
##Weimar
##palest
##forhindra
##less
##besle
##Newton
##Francesco
##Tian
##sae
##hura
##Munt
##selde
##funne
##weig
##yas
##øvelser
##Spillet
##fremført
##fortol
##Lhasa
##Our
##oud
##ografiska
##Total
##oversettelse
##Gat
##overgangs
##indbygger
##scens
##odiidae
##kvalifiserte
##Gem
##Institutt
##fordraget
##Start
##lieb
##menneskerett
##Electric
##indviet
##Miami
##arrangement
##Phoen
##ovenfor
##Foster
##rips
##Forbundet
##goras
##bitradande
##krypare
##TS
##underlag
##krona
##comeback
##kontrakten
##indført
##boli
##distansen
##soloalbum
##Fernando
##Dussel
##uellt
##spraklige
##1779
##310
##vokse
##Begrepet
##Lorenzo
##forsikring
##kow
##kører
##platen
##Ess
##liters
##tillater
##slægten
##Følgende
##indt
##Saab
##hemmelig
##baser
##quen
##butiker
##hina
##torra
##sluppet
##Bem
##Gret
##oversv
##cies
##iona
##drepe
##priori
##Dios
##hovudstaden
##Fagel
##Shakespeare
##tages
##gives
##ße
##ordnede
##Salomon
##Business
##Kjø
##rida
##Aran
##gum
##opplevde
##naturvards
##dukker
##uvanlig
##afsked
##fanga
##landhockeyspiller
##alligevel
##egu
##radets
##Toy
##Asmara
##ittelen
##leds
##Monica
##museets
##mæssige
##spetsen
##Shela
##1771
##iya
##jed
##salen
##danden
##Lost
##yna
##riksdagsledamot
##ranunkelvaxter
##reperto
##delningen
##strong
##profesjonelle
##Maximilian
##gravar
##Raz
##Frog
##alltmer
##intresserad
##Sibi
##vinges
##Rok
##hente
##Personer
##Brod
##verdenen
##Slav
##Google
##Maryland
##Shandong
##Jy
##raser
##seled
##Slike
##hens
##heliga
##Operasjon
##mobili
##Aby
##burgs
##ungerska
##Nig
##Carly
##spunkter
##formula_2
##stickmyggor
##teringen
##delæg
##Phys
##østerrikske
##ikt
##fods
##sammensla
##trang
##Landskrona
##stravbladiga
##Horsens
##Vetenskapsakademien
##Rha
##uller
##minsta
##stena
##Adolph
##Lubeck
##Cecilia
##icipal
##Gry
##Mør
##rostning
##Oppland
##alymp
##Kreta
##Pick
##لی
##vente
##sallsynt
##organiserte
##Zetter
##uppfora
##resulterte
##Esfahan
##pulch
##flagget
##ingrad
##innvalgt
##undersidan
##nokon
##Crypto
##Mold
##drup
##splass
##generalsekretær
##isot
##kaller
##Serbia
##Falster
##Flem
##skaffa
##agon
##Sce
##Tali
##Stjarn
##ampen
##forsvant
##Sparta
##Kommunik
##sæd
##nasseldjursart
##Theater
##Caes
##ED
##ledaren
##hænger
##Advisory
##Isak
##odling
##munn
##ISO
##Beni
##Ame
##gestalt
##Chat
##boe
##konservativa
##lønn
##Bona
##avsatt
##femin
##kkende
##Savo
##dynastin
##røtter
##harsk
##stadsplan
##veggen
##hya
##Plata
##slide
##kontinentet
##Sarpsborg
##avgang
##geist
##seln
##oversattare
##kvalifiseringen
##bokstaver
##Knudsen
##spyd
##bassist
##skjol
##veksten
##Jel
##konkluder
##vager
##vaning
##kommunala
##seat
##Internationale
##enstaka
##Sevilla
##strekning
##Hardanger
##Familj
##pung
##Riddar
##osterrikisk
##ætt
##karakteristisk
##bull
##skadade
##ynt
##Forster
##jala
##rimin
##innledende
##vernet
##March
##Istan
##Boz
##delat
##huvudkontor
##divisioner
##numre
##restaurant
##Basel
##Landsbyen
##Hertug
##Zimbab
##marka
##Lyd
##enorm
##librett
##Porto
##Aja
##EL
##niende
##Sprak
##Capp
##Sesongen
##overstel
##restling
##Boldklub
##Wid
##ivalen
##Lagoon
##uar
##Bros
##nitz
##sluter
##prinsessan
##Shelah
##kommitten
##grafik
##Storbritanniens
##bekreftet
##evig
##oftware
##debatter
##Chungcheong
##støv
##overra
##genomfora
##utendørs
##okkupasjon
##dammen
##hundratal
##Geoff
##inforli
##ischen
##lingvist
##hide
##kyrkbyn
##nødt
##medforde
##Regionen
##foljt
##hjalpte
##virksomheden
##upptackt
##Ceder
##nøk
##droj
##Endast
##spridning
##strakter
##Rapides
##Bock
##etterpa
##Harnos
##dodades
##Wallace
##Syr
##Arme
##missær
##omfattede
##mjuk
##vikten
##reddet
##iserades
##Seattle
##dero
##skjønt
##Kieffer
##vr
##hej
##kalle
##murar
##kæmpede
##shan
##skarriere
##latinska
##sponsor
##Abdul
##Culicoides
##cod
##fakta
##handlade
##Konkur
##Nilsen
##Istanbul
##intraffade
##rann
##verkliga
##sanskrit
##card
##xt
##anled
##assos
##dømte
##Mab
##gano
##minster
##vitskap
##Ata
##Cay
##kronan
##Fisher
##Kare
##tillverkare
##elag
##tilbragte
##urope
##bruka
##hii
##illar
##bosn
##fjær
##foretradare
##roa
##Schi
##Academ
##Systemet
##Div
##Christoffer
##Ait
##Osaka
##omoj
##trykker
##Planet
##traktor
##størstedelen
##ند
##utforda
##konstitution
##jordbruket
##Karel
##Pieter
##Mission
##tofsspinnare
##cing
##overlevende
##jang
##inkluderte
##kompositioner
##fienden
##konkurrerte
##levere
##Gh
##unculus
##markt
##bergia
##Alam
##minton
##Ostersjon
##Tyska
##stuga
##forsen
##varierande
##trinn
##morgon
##SSR
##Reich
##Organisationen
##langvarig
##standig
##kurser
##Columbus
##mjolk
##Ege
##Mare
##utbygging
##ikanske
##yllands
##Motala
##arkitekton
##Alabama
##VA
##tilbød
##mott
##forstær
##korsblommig
##ljusare
##cant
##grodor
##Cornelius
##Lige
##afa
##metaller
##Strind
##splatser
##etninger
##atri
##videon
##sallskapet
##verdier
##Mohammad
##Pena
##bam
##jobben
##cinia
##myndigheterna
##UM
##tull
##1766
##neset
##Kommunens
##skillnader
##Makedonia
##Brome
##skommunen
##ryn
##reaksjon
##Three
##wyn
##Gesner
##Qe
##arliga
##natet
##byggeri
##Udover
##Eud
##issen
##Palindi
##kasse
##intressen
##camatan
##Hatt
##indspillet
##darigenom
##pola
##Handball
##annex
##falsk
##manniskans
##Guadalupe
##Dmit
##pasta
##ikkelen
##forkortat
##Kvarn
##bryllup
##gruv
##favorit
##kompaniet
##FIFA
##gh
##arias
##skolds
##udgangspunkt
##Fanta
##farens
##lykkes
##Amat
##søy
##foras
##huvudrollerna
##Montagne
##sjalvstandig
##kvindelige
##Mao
##Dyr
##demo
##adjun
##Dessuten
##matematisk
##Buskerud
##Kut
##Gesta
##forne
##Velika
##Oland
##andrade
##fonden
##fysiker
##slikt
##arkebiskop
##gestal
##klund
##flertalet
##Bast
##Manhattan
##Harri
##tradgard
##forknip
##hytte
##listar
##sektion
##nationellt
##garnison
##FI
##overflate
##udenfor
##spros
##grovt
##Østre
##Lima
##Oran
##erst
##baby
##Never
##sommerfugl
##Silva
##inkomst
##skapets
##Karolin
##muligheder
##kommandant
##Magnusson
##Vald
##rall
##vilt
##Reed
##soldaterna
##britene
##omtale
##ligga
##utstillingen
##irer
##Lyngby
##ра
##varken
##nyhets
##vention
##Ater
##skæ
##nei
##istri
##Peri
##vassdraget
##framfordes
##Common
##bestemmer
##densis
##dannar
##bladene
##inforde
##undersøkelser
##Sumatera
##utexaminerades
##Steiermark
##Versa
##ødelæg
##lært
##aen
##ypter
##lamnades
##hovedkontor
##etappen
##radiopr
##pach
##organisk
##Race
##Express
##forson
##ellata
##Journal
##Oklahoma
##byane
##1767
##endvidere
##Pittsburg
##km2
##forbju
##gitarri
##Oriental
##Conakry
##bicolor
##lach
##giet
##kejsare
##ير
##champ
##bahn
##Mercur
##fastighet
##firman
##Pelle
##lyckats
##binder
##Kecamatan
##Blanca
##jevitj
##imellem
##Bristol
##utførte
##fargad
##gjenstander
##Hilde
##størrelsen
##hertugen
##Kaw
##Graub
##Dusseldorf
##delsene
##upplag
##skillnaden
##ungarsk
##steiner
##miljoer
##Lak
##virkelige
##Tetouan
##Gli
##she
##Narvik
##yrmex
##trasket
##monumen
##fylte
##Frost
##baden
##tegl
##arrangerades
##folketings
##edderkopp
##hjerne
##vala
##Inne
##kemiska
##rekorder
##radgivare
##hallare
##sammenhæng
##synlige
##bryte
##latinsk
##officerare
##optræden
##Nokre
##moment
##Matte
##Zyg
##olor
##itra
##spal
##ocrat
##manni
##Hovud
##jke
##nedover
##medium
##generasjon
##persisk
##iert
##fladder
##blande
##gentemot
##1680
##quart
##stromer
##ES
##dil
##jeva
##Campo
##lef
##Tirana
##Bornholm
##Chamberlin
##Agen
##oridae
##skøn
##imp
##mpe
##stoppa
##CR
##Hara
##beman
##herrgard
##producera
##music
##sjuka
##sug
##forvax
##bevid
##givande
##Mato
##intress
##utrikesminister
##OB
##indsats
##ieres
##Marine
##Barne
##lute
##vesentlig
##arkeologiske
##Læ
##gjeste
##regeringstid
##Organisasjonen
##basidies
##mper
##»"
##Pau
##Haga
##forment
##opfatt
##formell
##Know
##Rocky
##skomiteen
##omstri
##slund
##spels
##nyheter
##nødvendige
##Hare
##Lokal
##tykke
##brodern
##Modellen
##Dame
##ingsliv
##Hallands
##mojligheten
##politikere
##skrivning
##religioner
##Mauric
##Kana
##ll
##makta
##anteles
##hunnen
##Rhe
##Tala
##uniform
##skulder
##Sony
##Fujian
##systematisk
##Renault
##gja
##leddet
##Ulrik
##kvalifisering
##noll
##inis
##esch
##kansli
##skrack
##divisjonen
##Command
##Roch
##adopter
##Mack
##projekter
##Siyah
##sætter
##mændene
##Afton
##peru
##byggandet
##Polar
##370
##Slam
##yak
##opha
##Kaz
##lukkede
##Scopula
##Stok
##Acanth
##Begreppet
##Manu
##distrikts
##fiende
##hjørnet
##Levnadssatt
##Ferrari
##unions
##tii
##tredende
##legenden
##føderale
##alg
##æreste
##Herefter
##odinidae
##mottes
##syklist
##igjennom
##beskrivning
##Jenny
##dækket
##eria
##Staten
##Strax
##Amager
##Haugesund
##molekyler
##muligheten
##Living
##ellene
##Lagen
##rykning
##Stasjonen
##Mauretanien
##Ruth
##nobel
##stach
##iringen
##deltage
##impul
##enze
##besid
##represent
##Diamond
##gengæld
##rakech
##thon
##ornam
##tropiska
##hittar
##provisor
##ла
##skytt
##innbyggerne
##vidd
##situasjon
##Pip
##tillit
##glom
##propaganda
##indelat
##urnalist
##veksel
##HT
##sha
##asca
##krise
##speil
##brigaden
##deltakere
##Sandefjord
##bav
##beslag
##ssons
##gitte
##Californien
##high
##Morgen
##Lasioglossum
##atidae
##naturvardsunionen
##Aure
##jeh
##undersøkelse
##Sodermanlands
##ين
##inos
##inensis
##Middle
##engage
##galleriet
##Perez
##basidiesvampar
##Pius
##Intel
##ledon
##Hero
##ættelse
##Hunter
##Miljø
##toler
##Hangzhou
##seid
##Marrakech
##arrangør
##skickades
##enklare
##opia
##drogs
##exakt
##Puebla
##vaga
##Albin
##Nora
##aure
##fiskals
##Virksom
##Klaus
##olan
##obas
##Sphaer
##iph
##Norrkopings
##medicinska
##avdelinger
##invasjonen
##familiegruppen
##opplag
##Enri
##trupperna
##kafe
##bringer
##hallas
##foreslo
##asteroidgruppen
##Cornelis
##kommunane
##hjemlandet
##Skanska
##Høsten
##oq
##mage
##Gruppe
##offisiell
##plig
##presten
##lyden
##ovel
##sasjon
##Discovery
##undersøgelser
##pall
##ansikt
##china
##Anop
##digter
##Holt
##utvecklings
##matematiker
##ongo
##brudt
##rumen
##college
##Champagne
##nøyaktig
##Eksempel
##forsking
##Bolog
##Vang
##innslag
##mill
##Cath
##eb
##efterfølger
##funktionen
##Petrus
##Swed
##Oregon
##minn
##sjop
##hama
##Seh
##Sundby
##ivag
##atro
##Rapp
##Rodrig
##inje
##kraftiga
##Palme
##paverkan
##Fig
##Wimb
##gilt
##Europaparlamentet
##Palace
##angelsaks
##mma
##endre
##Organisation
##Kyst
##normale
##Xian
##hari
##grunde
##Songs
##komponisten
##opprettelsen
##ringa
##makter
##Eury
##operas
##anlaggningar
##Posten
##orerna
##Mai
##innebærer
##dame
##Politik
##besejrede
##Gue
##turkiska
##clav
##fororen
##mannlige
##skyrka
##inrikes
##sachsen
##sistor
##Challen
##datorer
##belteasteroide
##Wick
##tillverka
##lærere
##Hitlers
##Kitt
##skapasitet
##OR
##Maine
##gregor
##grunder
##forsvara
##Byens
##utvand
##hjort
##kritiske
##vanligste
##heriblandt
##Joak
##caster
##ogramma
##anpassa
##feminist
##kasta
##fjort
##dramatiker
##Rett
##fordeling
##klo
##disi
##Markus
##nomineret
##germanske
##peratur
##rednings
##miste
##meta
##kvarandre
##onomus
##gøres
##begrænset
##ksel
##Rev
##liffe
##Vastmanland
##Nami
##nettopp
##furst
##Aphodiidae
##personar
##Peninsula
##Zach
##varige
##følelser
##traditionell
##Kaukasus
##Botswana
##ininga
##betjent
##Page
##arrangeret
##Ada
##kou
##spott
##vilar
##kampar
##væp
##Noregs
##vigtigt
##staty
##svir
##Justin
##morgenen
##Professor
##komponert
##Secret
##Svarte
##vaxten
##personell
##rundan
##munningen
##larar
##Turn
##Simp
##ordene
##disputerade
##ansiktet
##offentliggjorde
##road
##autonome
##Kyrkobyggnaden
##سی
##inan
##likheter
##produktiv
##Gruppens
##Anden
##Firenze
##anlita
##Minister
##angripe
##ogo
##Willem
##bachelor
##strenge
##Dju
##knings
##kromo
##bokstaven
##manusforfattare
##senat
##rubri
##konsum
##sæsoner
##Elite
##dnings
##sending
##Holmes
##hemmelige
##elektromagnet
##forgjen
##sluta
##sitte
##Konrad
##antenner
##forsvarsminister
##glem
##kjernen
##Kry
##vt
##fallende
##tacka
##ply
##stralning
##dybde
##giz
##huru
##nummeret
##Square
##Zel
##lufta
##landssven
##singler
##Jemen
##mojliga
##kemisk
##Graubunden
##ofre
##innefattar
##landsoarna
##herredømme
##Grat
##kit
##vana
##igede
##dansflugor
##Classic
##atskilliga
##yget
##rada
##ranunkelvaxtart
##Lug
##beholde
##lægning
##fattigdom
##tuberkul
##Fish
##Mein
##Schult
##Ornskolds
##Olat
##ochilus
##monia
##afstand
##ierungs
##uksjonen
##planten
##himlen
##spic
##bibli
##pressa
##formelle
##inspelningen
##tillgangliga
##Wimbledon
##Bath
##ikos
##framtiden
##Nymp
##influ
##betingelser
##Crot
##Fou
##mora
##seksuelle
##Utvik
##nationen
##Græken
##city
##ᅩᆼ
##haj
##hend
##presenterade
##Mozart
##Gos
##Arabia
##konservatoriet
##Hampshire
##Memorial
##marg
##kriger
##pojk
##uavhengige
##hult
##lada
##1769
##spilus
##hornstritar
##handlare
##Anomala
##aspekter
##Web
##Britann
##negativt
##Matthew
##verdige
##tole
##Toro
##kategorien
##Leng
##Lower
##ovice
##sides
##seksamen
##vetenskaplig
##teleskop
##frigjør
##fasciata
##motsats
##psykisk
##102
##tradgards
##trengte
##kum
##onger
##bestammer
##tillforord
##1650
##Tax
##Hals
##ик
##hollandsk
##latskriver
##ragende
##maur
##hay
##kontorer
##Elitserien
##gitarrist
##tilhengere
##bost
##cte
##chilen
##pagaende
##utbildad
##Carpenter
##Rush
##klang
##inspirerad
##skjønn
##smek
##ikansk
##Martha
##global
##gørelse
##Energi
##oppover
##Harvey
##positioner
##Nanjing
##negative
##Job
##Lunde
##urban
##adisk
##lington
##Office
##chok
##embets
##aristen
##People
##brannen
##avlange
##Norde
##moz
##Leslie
##etningen
##Universal
##4000
##Boca
##pige
##professionelle
##Brønd
##tilsynelat
##Nidar
##utus
##skivbolag
##leggs
##rikk
##proport
##hallandet
##Krok
##Kristianstad
##teorin
##Powell
##narliggande
##sagare
##AL
##ejet
##respon
##Brahe
##festningen
##radie
##konstruksjon
##darav
##bildandet
##Zimbabwe
##py
##Syzy
##Samman
##Quin
##skuespillere
##FNs
##kulturella
##yenne
##3D
##Gig
##øget
##steen
##Brandt
##glatt
##commun
##hja
##skove
##medborgar
##herreg
##holi
##forestilling
##Rhinen
##fremmede
##vestsida
##Finale
##sensor
##Bolivar
##dinosa
##Giuse
##othea
##sec
##farbror
##flyv
##Vera
##bilete
##jast
##djuren
##Metro
##Pittsburgh
##rhein
##uppford
##hero
##nyligen
##Weber
##tunnelen
##Than
##Yr
##klø
##Manus
##tørr
##offiserer
##Pyrene
##Syzygium
##1768
##ocam
##fastigheter
##forsøker
##passagerare
##feste
##tsch
##flygt
##Martine
##rangert
##opar
##storhet
##tidskrifter
##Skovde
##gale
##illas
##terings
##runda
##reduc
##verksem
##Isabel
##rektangul
##coe
##nedslag
##faldet
##Grey
##konstruert
##Kirkegard
##sveitsiske
##Lith
##tillvaxt
##kallavaxter
##mesteren
##dyrene
##Ea
##Fus
##lum
##Joel
##ologier
##Henriks
##Lyman
##plots
##kjørte
##svarmare
##Selskabet
##Porter
##cyr
##risen
##kros
##indeholdt
##ografiske
##Tord
##yde
##stue
##vervet
##Kristoffer
##Linn
##cellen
##bekræ
##beskriva
##nadene
##krabb
##ambul
##Dala
##Levan
##individuella
##kromosom
##fica
##møttes
##slutta
##slutspelet
##vestre
##samiske
##benamns
##Tham
##aa
##iche
##bronsal
##mengden
##Gradina
##Chengdu
##onaut
##curi
##Baggrund
##naken
##uttrykket
##ATP
##Fv
##bergstrakter
##Marokko
##plattmaskart
##Somer
##culi
##Udde
##professionella
##slovak
##kompetanse
##Bass
##Jenn
##ام
##tilstre
##adiske
##framover
##stycke
##lismen
##minerar
##gammalt
##Rov
##Toul
##rash
##Fergus
##Gibr
##dagene
##uppsattning
##forsyninger
##Provence
##1730
##Haus
##fagels
##pala
##tinen
##korru
##stream
##flackar
##Nederlandene
##Birgitta
##Aser
##blikk
##hemman
##ulykken
##slanke
##Idaea
##antisem
##avsikt
##rekry
##nema
##kroppslangd
##Ket
##slem
##ily
##Seven
##With
##hob
##enk
##pryd
##Casey
##fuglen
##tjugo
##vali
##vinning
##flygplanet
##delstatens
##Phillips
##snarere
##Gesneriaceae
##Oph
##ppo
##forbedre
##modifier
##Yunnan
##bier
##spare
##henviser
##østsiden
##falder
##folkmangd
##borne
##Nagu
##artistar
##Sicilien
##iskan
##aridae
##munner
##differ
##berattelsen
##finansiering
##orier
##dalig
##Anker
##cyc
##brottet
##udlandet
##musikaliska
##Rest
##internett
##begyndt
##tankar
##patriar
##jamforelse
##Wehr
##færø
##Dens
##formene
##stjernen
##tegneserie
##Baj
##sessor
##proteiner
##fantasy
##Network
##Druce
##Atlanten
##hospitalet
##sekul
##ationerna
##fattiga
##Nordic
##Orke
##støttede
##dug
##foruden
##menings
##diskusjon
##Gottlieb
##Svin
##Utah
##gare
##avtalet
##memo
##senest
##Coqu
##Iowa
##ask
##gummi
##Full
##install
##rax
##stumfilm
##antikke
##pels
##IB
##ruiner
##rull
##Sorkh
##producenten
##overstelojtnant
##Hosten
##Wald
##komplicer
##Glob
##forhandlingar
##mader
##utomhus
##tegner
##Mata
##befast
##ceps
##rekordet
##Marta
##Rotter
##kord
##walis
##online
##amator
##ariet
##samfunds
##Catherine
##marck
##104
##volusjon
##Auto
##Hope
##kommunistiska
##trollslandor
##alm
##munt
##Marco
##stednavne
##benyttede
##melodier
##seter
##nac
##korpset
##konkurranser
##Ursprungligen
##Silkeborg
##hax
##Dramat
##Lucia
##Brooklyn
##barok
##stanna
##stamma
##kyrkogarden
##Taza
##orsakade
##erstatta
##iba
##Kunstak
##klokke
##sjalvstandigt
##avviklet
##forestallningar
##(=
##Dokt
##fak
##nelser
##naturskyddat
##blader
##studerat
##amentet
##Lande
##artz
##adan
##vattenfall
##frons
##udvikle
##grensar
##Giuseppe
##blomsvaxter
##Luk
##ential
##fiol
##bistand
##Cauca
##arving
##førtes
##skjul
##smale
##skode
##frilufts
##Figh
##Wig
##utgar
##landbruks
##Pacific
##astronomi
##svak
##1719
##ylen
##Schaf
##politikar
##nødvendigvis
##terapi
##tilstræ
##Terry
##stridig
##arkivet
##intresserade
##erats
##statlige
##indikerer
##Psil
##Von
##leys
##sank
##Ull
##Ulla
##doptes
##Beng
##ystem
##redskap
##blick
##biologiske
##dagligt
##kraftverket
##benamningen
##favoritt
##ariat
##Klubbens
##ladius
##tillganglig
##hundreder
##fremtræ
##Nueva
##gnagare
##strum
##Mikhail
##tjener
##drøm
##innelig
##stracka
##okkuperte
##jyske
##hare
##syskon
##minskat
##Joan
##Steel
##perfekt
##maxi
##abborre
##loper
##Kaiser
##Santos
##Halden
##Rheinland
##Lion
##frost
##videoen
##Asplen
##HO
##radde
##rapporten
##Twin
##etto
##melding
##fyldt
##kirkelige
##Jura
##cham
##dac
##ekn
##cafe
##tei
##perter
##bayer
##skuespill
##repræsenteret
##zuelo
##vingespenn
##Rico
##nordsiden
##wai
##buch
##Take
##NBA
##latte
##faget
##Jeffer
##Earth
##trum
##ikh
##framtid
##noens
##interner
##Beste
##formar
##varede
##expans
##deltagere
##lagervaxter
##Lambert
##radikale
##Hughes
##fjad
##Larry
##Cleveland
##gymnasie
##stravbladig
##puppglanssteklar
##Kjer
##Selskab
##almindeligt
##uo
##Rim
##omtalte
##skept
##jordlopare
##vander
##slaktingar
##Joakim
##Yi
##ther
##Sahara
##school
##Carmen
##skyldtes
##enta
##forna
##forbruk
##ismens
##grensene
##massen
##Søndre
##Oil
##flyger
##praktiske
##bølger
##tagning
##utsett
##dragen
##novell
##benen
##silke
##RAF
##Vatikan
##ramt
##torer
##Spesi
##Village
##issier
##Zor
##ussa
##Lex
##hovedrolle
##afrikansk
##Yazd
##Koppar
##maleren
##forsvinner
##Casa
##Buffalo
##Econ
##Prist
##squ
##Helsingør
##sistent
##bygningene
##alan
##Konstru
##backhopp
##Hold
##qq
##plock
##blivande
##Abbey
##tillverkad
##Hjort
##grafiker
##Oro
##Sci
##herren
##kommentarer
##agaren
##vestsiden
##iregemente
##Babylon
##Bundesliga
##Qol
##tenner
##skildringar
##Historikk
##brunn
##positiva
##Gustafsson
##Teatern
##fortid
##pafagels
##ensive
##besøg
##vanskelige
##Grosso
##zir
##Inre
##SCB
##emus
##Konservat
##Forsvarsmakten
##udstyret
##Mathias
##sumpmark
##ffield
##utbyte
##digheten
##Kritik
##thr
##udtalte
##persiske
##WC
##init
##tenes
##løfte
##kkene
##sekundar
##quez
##portrett
##irak
##andelen
##Miles
##civile
##veker
##tavlingarna
##etappe
##Nassau
##erhverv
##implementer
##Oue
##emy
##filosofiske
##Xanthop
##ents
##myster
##atia
##tenkt
##hopping
##CO2
##resande
##Mariehamn
##sjukdomen
##Filippinene
##pepparvaxter
##øker
##komplett
##Gow
##Rang
##utstillinger
##landbruk
##Hack
##alternative
##eik
##Alma
##melser
##Walk
##typiske
##himmelen
##utføre
##noter
##Forenade
##Jiangxi
##bega
##vev
##gruppespillet
##foretagets
##betragtes
##skull
##forveks
##presentant
##sidorna
##Malcol
##Tos
##hhv
##nuk
##sakalla
##fremtidige
##ideal
##Aragonien
##riter
##poeten
##Rodriguez
##IBM
##Hasan
##kampanj
##kannetecknas
##pafagelsspinnare
##Trelle
##handle
##Rox
##stodja
##vinnaren
##fasaden
##pligt
##forstad
##oteles
##egenskaber
##Rase
##redusere
##Jarnvag
##Skotland
##UCI
##Epis
##Charlotten
##oplus
##pole
##forekommit
##materiel
##forsamlings
##kommunistpartiet
##pepparvaxtart
##Adi
##UD
##misten
##nack
##kommentator
##forluster
##pani
##licens
##medisinsk
##Individerna
##ismer
##ombi
##heil
##morg
##Polyg
##Lyck
##levetid
##Oua
##uy
##oline
##Colin
##maleriet
##pac
##allmenn
##benet
##særskilt
##reporter
##krøn
##1765
##guder
##Wiener
##Tarn
##operaen
##sjælland
##skansler
##Roosevelt
##Brin
##verkene
##tsar
##centra
##Gift
##pollen
##Chahar
##kvalifisert
##uck
##klarer
##Alexandra
##entrepren
##huang
##fremragende
##massiv
##Klock
##Niederosterreich
##Eisen
##128
##levelser
##utmed
##redovis
##trykte
##gardene
##stider
##Helene
##Kropp
##sprojekt
##Idrettslag
##Dul
##filer
##generationer
##History
##nejlikvaxter
##skort
##koncept
##yros
##byrjinga
##sedda
##yard
##ochrom
##garh
##flygning
##berattade
##ægtede
##kredit
##AA
##spraklig
##Sieg
##atiens
##Kalla
##mpet
##generalen
##antikvar
##sytan
##centret
##stands
##Bujum
##Have
##avsedd
##Gjøvik
##alisk
##romia
##Ranunculus
##Atlantic
##Eich
##tøj
##starkare
##Burn
##evene
##parallelt
##Ip
##Mae
##styrkan
##grundlagde
##vestkysten
##salme
##forente
##utsedd
##kjede
##Opius
##armeen
##vivevaxter
##selskaber
##Cox
##Bujumbura
##fodboldklub
##mamma
##afviklet
##Technology
##ikom
##riddare
##Romeo
##Horse
##soundt
##Ward
##idis
##kirchen
##assoc
##Alvsborgs
##rora
##munk
##Must
##listisk
##ighetene
##kredsen
##aldr
##Fli
##Nott
##opfor
##turbiner
##Railway
##avagen
##vindu
##1759
##ejendom
##gans
##vendig
##valjer
##Mazar
##varierende
##Sommeren
##Philippe
##Ringer
##ikor
##statue
##Egil
##Ts
##gjenværende
##distanse
##backslandeart
##noensinne
##Deb
##aksjoner
##ledt
##synta
##lott
##pasi
##korleis
##Bolaget
##Chateau
##sjølve
##ating
##servation
##eksistens
##mannskap
##lærar
##benamning
##Blood
##CP
##domar
##ændrede
##kallen
##bundna
##ekstremt
##Bologna
##Eds
##oppgrader
##plen
##bestemme
##parkering
##Bromeliaceae
##Dos
##Chor
##vaggar
##springer
##Ror
##sab
##Ent
##horst
##Lagun
##Carlyle
##Samling
##funksjonen
##hyppig
##Wein
##grot
##Willy
##argentinsk
##armens
##konspir
##Lecan
##hym
##inflytelser
##kalenderen
##reformationen
##Bjar
##imer
##bekan
##tets
##tradanden
##synge
##massan
##cophaga
##cav
##kallavaxtart
##militart
##upproret
##Flensborg
##imen
##pæ
##ricus
##lærde
##styrelseled
##Microp
##Habitatet
##Ng
##indones
##industrielle
##institusjoner
##soldatene
##tjug
##Hull
##Jal
##kvi
##irland
##hybrid
##Duck
##Forskning
##Cost
##Thecla
##variere
##lagervaxtart
##konkurrencen
##emellan
##pengene
##klubbene
##alskar
##leddjur
##mandag
##Belarus
##erklært
##besatt
##arian
##backs
##htis
##nodvandigt
##tima
##riktade
##skridt
##gross
##religionen
##komposit
##Rigs
##Bamako
##dif
##jubile
##Tiger
##intryck
##huser
##hvorpa
##iserad
##Pard
##ophan
##overgav
##konfron
##sammenhæn
##Tort
##spett
##efterfoljande
##ophis
##Palma
##Balti
##egyptisk
##Nog
##cic
##framtradde
##koppling
##ging
##gomer
##likte
##beva
##Dean
##carus
##Lepanthes
##ович
##fortellinger
##injen
##derson
##posisjonen
##Limn
##skiskyting
##Armstrong
##iste
##Johns
##fritid
##Restaur
##trykke
##komponister
##Yun
##sias
##erhvervs
##medverka
##Hunan
##olleh
##Zak
##datab
##forarsa
##tonsattare
##مر
##Forening
##Floyd
##Niedersachsen
##Bald
##oppa
##flotta
##Mancha
##gler
##dome
##Berry
##demningen
##Haouz
##fisket
##utgora
##dk
##overflade
##Helicon
##pjaser
##adresse
##Austerrike
##Cron
##inata
##gruve
##komponent
##Djurgarden
##fyllda
##skjoldet
##cana
##ruta
##skaja
##betydde
##imago
##onu
##getingar
##trads
##Spare
##Skandinavia
##chile
##innviet
##kemon
##trog
##brat
##synth
##mossa
##Ahmed
##avledet
##snamnet
##prok
##sift
##Taoun
##Hua
##Bale
##Kale
##Qi
##nordsida
##stedene
##praster
##tabt
##Hval
##ursprun
##zzia
##Vestlandet
##Zeit
##æde
##stadium
##meinte
##Forcip
##Kommand
##redaktion
##Pushtah
##tiane
##hotade
##speciell
##Sweden
##motivet
##Fund
##Loph
##tvers
##otti
##nederlaget
##inspektor
##bevarte
##kompen
##ferdsel
##primar
##Mads
##alltfor
##placerad
##kunstneriske
##digitale
##Karolinska
##Qua
##hoppet
##forventet
##1762
##offensiven
##Qatar
##tillamp
##ivrig
##akkur
##hovratt
##Opprinnelig
##krabbspindlar
##emne
##badet
##anah
##bedriften
##parentes
##Mia
##Qolleh
##tildeles
##Lucien
##akademisk
##ittiske
##yren
##Lauren
##stemt
##cykl
##Nr
##naring
##Helt
##leverand
##irkus
##Kunstner
##enighet
##ellum
##Marne
##grunnlov
##Torre
##Benz
##avsett
##visor
##funnit
##iesel
##fossil
##foregik
##arp
##Canter
##orlunda
##China
##karleks
##keley
##Coel
##sammanhan
##soren
##kartlagt
##menneskelig
##Mercury
##fjor
##109
##Torsten
##ceptet
##fuhrer
##Blad
##avseende
##vesten
##aktigt
##wait
##forstas
##Polens
##erbjud
##drabbade
##iventris
##varldscupen
##Thorvald
##kavaler
##dic
##kørte
##ators
##Hoce
##diskrimin
##Stern
##Flu
##forbry
##Volkswagen
##paten
##vate
##ricitet
##hydrogen
##Batt
##dek
##oms
##maken
##ulum
##potenti
##Lorestan
##Bum
##Adler
##officiell
##sjældent
##mæssigt
##Grækenland
##Equ
##innledet
##tillkanna
##istiskt
##annorlunda
##synger
##observatorium
##ierungsbezirk
##otiska
##Christi
##instrumental
##smala
##Tsjekkia
##Dicranomyia
##flottilj
##kvelden
##observationer
##varende
##bera
##onii
##ilding
##adelen
##zas
##rantz
##kana
##Chand
##hydra
##Nahr
##fjellkj
##Miconia
##Branch
##Boc
##ural
##itta
##uansett
##ouard
##kjøtt
##medvirkende
##forfatning
##slop
##grove
##filtr
##Luigi
##fangsla
##knytning
##Mason
##formatet
##rørende
##Taounate
##morfol
##sanda
##langsta
##Hjer
##otes
##utor
##hester
##femton
##næs
##begrebet
##Winn
##orak
##utgjer
##udp
##meks
##Spiller
##Nuvarande
##Pave
##berett
##Rubus
##Vientiane
##Mauricie
##Uden
##Conference
##Cæ
##Gong
##Oy
##Vapen
##gorit
##Story
##velger
##kontinuerlig
##Dus
##jama
##lakar
##ishi
##tillfang
##seremoni
##vestlig
##Crow
##discipl
##Bella
##Klima
##Hoceima
##enig
##radiost
##klipper
##stopper
##Systemat
##Bibliografi
##OK
##hri
##skoven
##matidae
##riktiga
##Skogs
##Scler
##liberala
##Rip
##Defin
##velde
##atn
##streng
##olophia
##utlandsk
##Cyat
##privilegier
##uteslutande
##sees
##Cory
##Grieg
##episoden
##AHL
##Orange
##fjellt
##studert
##reserver
##undersøgelse
##roleum
##Gou
##ون
##teat
##Malloch
##protokoll
##Klok
##nitt
##atlant
##Magasin
##codes
##fjarils
##nevø
##bosatta
##sion
##forlade
##framgar
##risken
##hittats
##territoriets
##Jernbane
##manip
##samarbetet
##Schro
##formentlig
##tillforordnad
##hust
##folketel
##ressurser
##quadri
##Kommunalreformen
##Gei
##null
##indien
##Norfolk
##stida
##Lagos
##Sørøst
##sselskap
##Tensift
##Sønderborg
##snabbare
##Aub
##Bott
##Fog
##blotta
##foredra
##pjasen
##tech
##Heat
##kunstneren
##fogderier
##Dad
##Nau
##seilte
##Aristoteles
##Rea
##flytende
##overraskende
##Anvandning
##SJ
##universitetets
##ekspert
##uis
##Benedic
##ел
##undersiden
##fremover
##ingaende
##bildningen
##producerat
##gjut
##kronologisk
##opposisjon
##vivevaxtart
##livan
##mejer
##rany
##akkurat
##enea
##nordligste
##apper
##sni
##heime
##narkotika
##Birkaland
##rammer
##yllus
##Arter
##1764
##rundede
##Hole
##dii
##1755
##helmina
##kopper
##Kristianstads
##omas
##opper
##sason
##Westminster
##hertugdømmet
##kaval
##leiren
##Kvalif
##Muss
##Marka
##Teleg
##Curtis
##jugoslav
##Lahtis
##dimen
##Gymnasium
##Ene
##licen
##anthe
##toppar
##tillverkningen
##Emmy
##sorts
##gem
##Træ
##utgivelse
##Gibson
##blandad
##kvarvarande
##Davies
##hoppade
##Riodinidae
##indelad
##Proble
##stangdes
##emigrer
##Nin
##vider
##backslandor
##religios
##Institutet
##engagemang
##fristil
##Euro
##Lær
##singlen
##Trent
##Himm
##formasjon
##djupa
##Moderna
##Færøyene
##Alliance
##bakover
##diagno
##Abb
##Crom
##lagun
##Lox
##pulver
##Kroatia
##Viv
##oplan
##oplysninger
##1761
##strene
##1640
##søv
##Hager
##militæret
##Fyra
##pack
##tidpunkt
##Valent
##kjennes
##rettelsen
##laroverk
##Nidaros
##Wells
##omgitt
##kah
##Bernt
##Willis
##tionde
##kammeret
##eksemplar
##Rita
##galla
##oue
##108
##ckeri
##Bonn
##foresla
##Aceh
##lyser
##Smil
##skargard
##gennemført
##skas
##bladbiller
##drakten
##Nordens
##svarigheter
##Nancy
##Christen
##hjørne
##givningen
##ceret
##Hypo
##spolitikk
##Hue
##afghan
##ugn
##barhet
##langfilm
##dalens
##hastighed
##Skaraborgs
##blag
##stres
##fortroende
##udvide
##sylin
##Boissier
##regelmessig
##Eux
##Fos
##Skr
##phora
##sola
##berland
##Kristen
##inf
##beris
##dratt
##Bear
##elektriska
##regissoren
##batteri
##zone
##ingred
##Ishockey
##generell
##operasjoner
##Kjente
##betre
##1710
##grunner
##skifter
##Boden
##Operan
##1756
##Fler
##tykk
##kulturell
##Acacia
##udan
##redning
##kurd
##begravdes
##hjernen
##spørsmalet
##Torshavn
##visuell
##turnerade
##anvendte
##Craig
##blomst
##observert
##flagga
##turisme
##Eile
##Mikk
##oton
##Austral
##fastigheten
##triumf
##Phoenix
##forlan
##pastod
##bords
##vikens
##Round
##cykli
##elimin
##aq
##vakten
##framstallning
##jarnaldern
##sselskab
##Girault
##Lus
##Tiv
##meningen
##foreta
##blomsvaxtart
##Montgomer
##behovs
##heimen
##Fleire
##Ciudad
##hidtil
##konden
##helea
##sittande
##Scandinav
##CBS
##anark
##bevap
##asiatiske
##hjemmeside
##Pitea
##Malcolm
##Wul
##rogen
##retningen
##mandater
##uppna
##vals
##flicka
##Cyrt
##Nevada
##ograph
##horus
##Volcan
##daggdjur
##Arkitektur
##Jansson
##traning
##Grace
##uridae
##Lindgren
##اغ
##slat
##ythr
##Moe
##ibn
##borna
##nox
##goring
##skandinaviske
##trades
##Lec
##rækker
##nedanfor
##huvuden
##annexforsamling
##stic
##ofer
##Arc
##Tech
##faglig
##Alek
##Forcipomyia
##420
##Pag
##kendet
##skjult
##Frø
##Sofla
##prosti
##stakademien
##Kraftverket
##Ely
##minnen
##sos
##gana
##farer
##udenlandske
##sockenhuvudort
##kunstnerisk
##Territories
##disciplin
##inven
##reen
##beliggen
##oderma
##Tox
##Pig
##Nacional
##pionjar
##pagar
##jenter
##1658
##auka
##Sanchez
##Monroe
##engasje
##1757
##kottflugor
##sklas
##Sto
##Chrom
##debuten
##Expedition
##ceus
##Pete
##Slovenien
##hvel
##stikker
##avirus
##quil
##English
##stadsfullmaktige
##invasjon
##oksygen
##DN
##Pich
##varda
##handverk
##Bladene
##Amal
##Uul
##landskab
##byerne
##indspil
##obus
##Bror
##massor
##udgivelse
##recensioner
##ista
##distribus
##Vasttyskland
##uente
##Portezuelo
##Mø
##tions
##arsaker
##103
##jagt
##opmærksomhed
##Most
##urinsektsart
##Kypros
##illustr
##Nashville
##Strangnas
##Eta
##gets
##driven
##Derby
##Honda
##Hovedstaden
##varumar
##brænd
##Eriksen
##vinneren
##Theodore
##komplekse
##Dort
##Yes
##Masters
##flyplassen
##Loew
##Reichenbach
##Audi
##Lal
##dominert
##utelukkende
##Frit
##cd
##radene
##ettertid
##banes
##snakker
##Half
##chefredaktor
##styrelseledamot
##lete
##træer
##hundrede
##yllene
##geliet
##Alberto
##udgivelsen
##signatur
##herald
##krysser
##artet
##Trinidad
##Guillaume
##Fau
##Gj
##rehabili
##formue
##vurdert
##Ged
##mort
##anerna
##boa
##loppor
##Celt
##fiendt
##Bild
##Hok
##geolog
##lyft
##mynning
##kollekt
##Justicia
##Pim
##benhavn
##likna
##Albrecht
##schweig
##Melod
##Ili
##1648
##Juarez
##lages
##gjennomføre
##Highland
##styrkorna
##mængder
##Cue
##Dragon
##tjansteman
##Ave
##AFC
##MT
##delats
##vasent
##undergrunns
##Pay
##filmin
##Bea
##møtt
##artilleriet
##sini
##export
##Piedra
##Catarina
##utmarkelser
##Honan
##Johnston
##Rotterdam
##tia
##apan
##boj
##standiga
##billedhug
##konsentrasjon
##Cut
##ykh
##dest
##Finans
##Ignat
##snummer
##tenden
##Stord
##dagog
##blanke
##trafikeras
##USS
##ideologi
##fyret
##tettstad
##gnet
##alister
##Nordafrika
##Prop
##Dani
##velop
##Somme
##Rogers
##Gye
##drock
##ydre
##Rund
##runder
##omdiskuter
##høgre
##Megachile
##Bord
##romansk
##SPD
##phal
##omdannet
##utskott
##rocer
##partiene
##Munk
##Fang
##Oco
##onium
##lasar
##allianse
##produksjonskapasitet
##Waters
##opdaget
##Atac
##106
##Atlet
##definisjon
##Sheffield
##lunde
##oprette
##kunskaper
##ikki
##løve
##knapt
##spesialiserer
##thriller
##390
##snavnet
##Luanda
##Projektet
##kvaliteten
##uppenbar
##uve
##urens
##rymmer
##Anthu
##Snart
##Eus
##lags
##145
##femten
##flitigt
##algebra
##kampa
##sykling
##Pai
##hurst
##Oprinde
##utryd
##viri
##eko
##fremtiden
##Sibir
##situationer
##komponerade
##Fakt
##Kard
##Sari
##horighet
##tyskt
##sunget
##Noter
##uppehall
##If
##Luke
##ulv
##baret
##nasjonals
##alpint
##Kanarie
##skampen
##otypen
##kjøring
##fabriks
##Mix
##Ptole
##regemen
##seremonien
##Leice
##elvane
##vagt
##komster
##simm
##minimum
##tiotal
##Parat
##ødeleg
##minoritet
##له
##sali
##upt
##zza
##Project
##oidea
##skost
##gjennombrudd
##Carr
##demonstra
##repræsentant
##skjell
##Santander
##partikler
##opptreden
##"&
##Bratt
##Thorn
##udmær
##samre
##Koz
##Godar
##Halvor
##inspelad
##esor
##finlandssven
##Eryth
##Come
##Pseudo
##serar
##drage
##mellomalderen
##skapad
##Jere
##Pine
##Sitt
##__
##snur
##spenn
##Rancho
##fritflugor
##stjarne
##ploea
##avrattades
##geometri
##erklærede
##voir
##referanse
##sjalvstandiga
##anpass
##syner
##henvisninger
##belej
##middagen
##foreldrene
##sklassen
##heus
##styring
##||
##Borga
##instrumentet
##rugby
##traged
##nejlikvaxtart
##Brittiska
##minerarflugor
##Hvid
##hala
##samlades
##merna
##akch
##trekker
##Sodermalm
##spekuler
##Ue
##ries
##Battle
##Hudd
##talrige
##Ans
##værd
##Blake
##Lami
##kronet
##definieras
##usta
##domsagor
##albuma
##regerande
##Oswald
##knap
##Reichs
##Sind
##Herz
##Aguada
##http
##bevidst
##BR
##ipennis
##psi
##zes
##traden
##107
##Mekan
##kulmin
##Nationale
##vegg
##Lettland
##Font
##endemisk
##Utveck
##besøgte
##paverk
##referere
##bestyrelse
##kandidatexamen
##Høgskolen
##sparrisvaxter
##Avi
##KO
##Tryg
##hla
##parret
##Musta
##jamn
##skadades
##Bing
##hellen
##mania
##stakademi
##bata
##ntes
##Hippar
##kampade
##strej
##Olga
##PP
##fit
##enus
##Alexandre
##Kjær
##],
##Beli
##flyene
##Lyca
##østerriksk
##otom
##jødene
##internationalt
##Bryn
##forsikt
##Sudbury
##niger
##styck
##Juvent
##kræfter
##Kannet
##etet
##deut
##flog
##rakning
##territorier
##fragment
##Zem
##oversat
##Braunschweig
##Danny
##kert
##Aedes
##utrymme
##Pablo
##Haakon
##udinger
##underratt
##kritisert
##sportsutøvere
##amien
##reso
##høst
##loja
##direktiv
##Euploea
##spidsen
##etere
##assan
##havner
##korsar
##iseras
##vejr
##Dab
##Nex
##zek
##forklara
##templet
##Priser
##varldskrigets
##uris
##charter
##storslalam
##interi
##Syftet
##kræver
##Amy
##Amor
##Mund
##midae
##igny
##byter
##carpa
##ortodoxa
##volleyballspiller
##utenriksminister
##paket
##ordnade
##framja
##Scien
##inntekt
##hittade
##laveste
##atelje
##spesialiserte
##dinger
##siana
##alez
##bevegelser
##oponnes
##itan
##Storre
##riksdagens
##landeveis
##Oversiden
##radikal
##øjen
##arre
##oporus
##raknades
##SAS
##Flyet
##fartygen
##kontrollere
##israeli
##"/
##rian
##udvalget
##slutspel
##medisinske
##hunger
##Benny
##bevarad
##arkitekturen
##jare
##verts
##asje
##Terje
##loo
##Eck
##Ecole
##Annet
##uppat
##industrier
##tydliga
##erobrede
##inhemska
##Næst
##spoli
##ellemann
##hastarna
##keramik
##Five
##itsch
##geologi
##ftende
##fangelset
##spurt
##soul
##jesuitt
##Olika
##Landslag
##Apanteles
##sjevik
##Emery
##kansla
##herad
##felttog
##culata
##schweizisk
##syne
##Vastazarbaijan
##numer
##kampanjen
##Oslof
##karta
##slagene
##kanslor
##grott
##kvallen
##anonym
##flyvning
##musikalen
##Kirgiz
##reisende
##Dhabi
##karpfiskar
##Mist
##Tric
##osis
##arrangerade
##forarsak
##Lup
##Menn
##æiske
##Upplands
##Craw
##osphaer
##Tyrolen
##Higgins
##udse
##Antallet
##kets
##kungs
##Germain
##hule
##obot
##Sullivan
##Novgorod
##vejende
##eoidea
##Særlig
##landmal
##rupp
##tretti
##bedriver
##Nouakch
##uppmarksammade
##inspektør
##Nouakchott
##1741
##Formalet
##kortet
##djuret
##Diana
##filosofisk
##Griff
##Brid
##uit
##nevner
##skjerm
##innehalla
##løsninger
##inntekter
##søge
##Vilnius
##DK
##othorax
##republikansk
##Andrena
##vistades
##Percy
##besokt
##utgangen
##udsat
##protestantiske
##ffin
##Manen
##Ridley
##Phae
##ints
##forteckning
##tring
##hesten
##hius
##badminton
##kostnader
##118
##Tull
##Mask
##hors
##montert
##personligheter
##stugan
##brukere
##diktatur
##Empire
##logs
##opo
##upphoj
##flygplatsen
##Christmas
##diskussion
##Tennis
##artium
##tifran
##høgt
##Suf
##Brug
##Charlotta
##Kanarieoarna
##tures
##gly
##Berkeley
##jobbe
##Factor
##ety
##seint
##namnd
##beskytter
##Gymn
##double
##seire
##Panzer
##frank
##inalis
##myter
##Geological
##snakket
##fysiska
##høvding
##apnings
##retnings
##effer
##adende
##vanlege
##hojer
##Edouard
##Øystein
##tander
##onsk
##storst
##Myco
##ukrainska
##Matsum
##overlag
##Henderson
##presidentvalet
##palats
##sproduksjon
##overn
##Mara
##sandel
##Mathil
##spenning
##bekken
##beri
##Kinn
##Sne
##varns
##istrikt
##ubi
##platina
##svømme
##annekter
##ukendt
##flyttas
##Schlesien
##prinsippet
##morgonen
##Cler
##Feng
##Patt
##rummer
##forstod
##mannskapet
##duo
##Fraser
##motorvag
##Midtj
##Fiske
##aterforen
##buskar
##høge
##Studenter
[...]
