[PAD]
[unused0]
[unused1]
[unused2]
[unused3]
[unused4]
[unused5]
[unused6]
[unused7]
[unused8]
[unused9]
[unused10]
[unused11]
[unused12]
[unused13]
[unused14]
[unused15]
[unused16]
[unused17]
[unused18]
[unused19]
[unused20]
[unused21]
[unused22]
[unused23]
[unused24]
[unused25]
[unused26]
[unused27]
[unused28]
[unused29]
[unused30]
[unused31]
[unused32]
[unused33]
[unused34]
[unused35]
[unused36]
[unused37]
[unused38]
[unused39]
[unused40]
[unused41]
[unused42]
[unused43]
[unused44]
[unused45]
[unused46]
[unused47]
[unused48]
[unused49]
[unused50]
[unused51]
[unused52]
[unused53]
[unused54]
[unused55]
[unused56]
[unused57]
[unused58]
[unused59]
[unused60]
[unused61]
[unused62]
[unused63]
[unused64]
[unused65]
[unused66]
[unused67]
[unused68]
[unused69]
[unused70]
[unused71]
[unused72]
[unused73]
[unused74]
[unused75]
[unused76]
[unused77]
[unused78]
[unused79]
[unused80]
[unused81]
[unused82]
[unused83]
[unused84]
[unused85]
[unused86]
[unused87]
[unused88]
[unused89]
[unused90]
[unused91]
[unused92]
[unused93]
[unused94]
[unused95]
[unused96]
[unused97]
[unused98]
[unused99]
[UNK]
[CLS]
[SEP]
[MASK]
##!
##"
###
##$
##%
##&
##'
##(
##)
##*
##+
##,
##-
##.
##/
##0
##1
##2
##3
##4
##5
##6
##7
##8
##9
##:
##;
##=
##?
##@
##A
##B
##C
##D
##E
##F
##G
##H
##I
##J
##K
##L
##M
##N
##O
##P
##Q
##R
##S
##T
##U
##V
##W
##X
##Y
##Z
##[
##\
##]
##^
##_
##`
##a
##b
##c
##d
##e
##f
##g
##h
##i
##j
##k
##l
##m
##n
##o
##p
##q
##r
##s
##t
##u
##v
##w
##x
##y
##z
##{
##|
##}
##~
##
##¡
##¢
##£
##¤
##¥
##§
##¨
##©
##ª
##«
##¬
##­
##®
##¯
##°
##±
##²
##³
##´
##µ
##·
##¹
##º
##»
##¼
##½
##¾
##¿
##Æ
##Ð
##×
##Ø
##Þ
##ß
##æ
##ð
##÷
##ø
##þ
##Đ
##đ
##ħ
##ı
##Ĳ
##Ł
##ł
##ŋ
##Œ
##œ
##ɐ
##ɑ
##ɒ
##ɓ
##ɔ
##ɕ
##ə
##ɛ
##ɡ
##ɣ
##ɦ
##ɨ
##ɪ
##ɫ
##ɲ
##ɾ
##ʀ
##ʁ
##ʂ
##ʃ
##ʊ
##ʋ
##ʌ
##ʎ
##ʏ
##ʒ
##ʔ
##ʰ
##ʲ
##ʹ
##ʻ
##ʼ
##ʾ
##ʿ
##ˀ
##ˈ
##ˌ
##ː
##˚
##ˠ
##ˢ
##Α
##Β
##Γ
##Δ
##Ε
##Ζ
##Η
##Θ
##Ι
##Κ
##Λ
##Μ
##Ν
##Ξ
##Ο
##Π
##Ρ
##Σ
##Τ
##Υ
##Φ
##Χ
##Ψ
##Ω
##α
##β
##γ
##δ
##ε
##ζ
##η
##θ
##ι
##κ
##λ
##μ
##ν
##ξ
##ο
##π
##ρ
##ς
##σ
##τ
##υ
##φ
##χ
##ψ
##ω
##І
##Ј
##А
##Б
##В
##Г
##Д
##Е
##Ж
##З
##И
##К
##Л
##М
##Н
##О
##П
##Р
##С
##Т
##У
##Ф
##Х
##Ц
##Ч
##Ш
##Э
##Ю
##Я
##а
##б
##в
##г
##д
##е
##ж
##з
##и
##к
##л
##м
##н
##о
##п
##р
##с
##т
##у
##ф
##х
##ц
##ч
##ш
##щ
##ъ
##ы
##ь
##э
##ю
##я
##і
##ј
##љ
##ћ
##ү
##ө
##Ա
##Հ
##Ս
##Ֆ
##ա
##բ
##դ
##ե
##ի
##լ
##կ
##մ
##յ
##ն
##շ
##ո
##ս
##վ
##տ
##ր
##ց
##ւ
##׃
##א
##ב
##ג
##ד
##ה
##ו
##ז
##ח
##ט
##י
##כ
##ל
##ם
##מ
##ן
##נ
##ס
##ע
##פ
##ץ
##צ
##ק
##ר
##ש
##ת
##ء
##ا
##ب
##ة
##ت
##ث
##ج
##ح
##خ
##د
##ذ
##ر
##ز
##س
##ش
##ص
##ض
##ط
##ظ
##ع
##غ
##ف
##ق
##ك
##ل
##م
##ن
##ه
##و
##ى
##ي
##پ
##چ
##ک
##گ
##ھ
##ہ
##ۇ
##ی
##ە
##ܐ
##अ
##क
##ग
##च
##ज
##ट
##ड
##ण
##त
##द
##ध
##न
##प
##ब
##भ
##म
##य
##र
##ल
##व
##श
##स
##ह
##ন
##ব
##ম
##র
##ল
##க
##ச
##த
##ன
##ப
##ம
##ர
##ல
##வ
##క
##జ
##ద
##ప
##ర
##ల
##ก
##ค
##ง
##จ
##ช
##ญ
##ณ
##ด
##ต
##ท
##ธ
##น
##บ
##ป
##พ
##ภ
##ม
##ย
##ร
##ล
##ว
##ศ
##ส
##ห
##อ
##ะ
##า
##เ
##แ
##โ
##ไ
##་
##ག
##ང
##ད
##ན
##བ
##མ
##འ
##ར
##ལ
##ས
##ა
##ბ
##გ
##დ
##ე
##ვ
##ზ
##თ
##ი
##კ
##ლ
##მ
##ნ
##ო
##რ
##ს
##ტ
##უ
##ფ
##ქ
##შ
##ძ
##ხ
##ᄀ
##ᄂ
##ᄃ
##ᄅ
##ᄆ
##ᄇ
##ᄉ
##ᄋ
##ᄌ
##ᄎ
##ᄏ
##ᄐ
##ᄑ
##ᄒ
##ᅡ
##ᅢ
##ᅣ
##ᅥ
##ᅦ
##ᅧ
##ᅩ
##ᅪ
##ᅬ
##ᅭ
##ᅮ
##ᅯ
##ᅲ
##ᅳ
##ᅴ
##ᅵ
##ᆨ
##ᆫ
##ᆯ
##ᆷ
##ᆸ
##ᆼ
##ን
##አ
##រ
##ស
##ᴧ
##​
##‌
##‏
##‐
##‑
##–
##—
##‗
##‘
##’
##“
##”
##„
##†
##‡
##•
##…
##‰
##′
##″
##⁄
##₁
##₂
##₃
##₤
##€
##ℓ
##№
##™
##⅓
##⅔
##←
##↑
##→
##↔
##⇒
##⇔
##∀
##∃
##∇
##∈
##−
##∙
##√
##∞
##∪
##≈
##≡
##≤
##≥
##⊆
##⋅
##─
##│
##└
##├
##═
##║
##╔
##╗
##╚
##╝
##●
##◡
##◦
##☆
##♠
##♣
##♥
##♦
##♪
##♭
##♯
##⟨
##⟩
##ⴕ
##ⴰ
##あ
##い
##う
##お
##か
##き
##く
##け
##こ
##さ
##し
##す
##た
##ち
##っ
##て
##と
##な
##に
##の
##は
##ひ
##ふ
##ほ
##ま
##み
##ゆ
##ょ
##ら
##り
##る
##れ
##ん
##ァ
##ア
##ィ
##イ
##ウ
##エ
##オ
##カ
##キ
##ク
##ケ
##コ
##サ
##シ
##ス
##セ
##ソ
##タ
##チ
##ッ
##ツ
##テ
##ト
##ナ
##ニ
##ノ
##ハ
##ヒ
##フ
##ヘ
##ホ
##マ
##ミ
##ム
##メ
##モ
##ャ
##ュ
##ョ
##ラ
##リ
##ル
##レ
##ロ
##ン
##・
##ー
##一
##三
##上
##下
##东
##中
##丸
##丹
##丽
##九
##事
##二
##五
##井
##交
##京
##人
##仁
##仙
##代
##份
##伊
##会
##体
##作
##保
##信
##元
##光
##克
##八
##公
##六
##共
##刀
##分
##剣
##劉
##力
##加
##動
##化
##北
##区
##十
##千
##华
##南
##博
##历
##原
##县
##双
##口
##古
##台
##号
##司
##合
##名
##周
##和
##哈
##唐
##嘉
##四
##团
##国
##國
##土
##地
##城
##域
##場
##士
##夏
##外
##大
##天
##太
##夫
##女
##姫
##威
##子
##字
##学
##孫
##學
##宁
##安
##宗
##定
##宮
##家
##富
##寺
##小
##尔
##居
##山
##岛
##岡
##岭
##島
##崎
##川
##州
##工
##市
##帝
##平
##年
##广
##庆
##店
##府
##廣
##式
##张
##張
##後
##徐
##御
##徳
##德
##心
##愛
##慶
##成
##战
##戦
##戰
##所
##手
##拉
##拳
##政
##文
##斯
##新
##方
##族
##旗
##日
##昌
##明
##易
##星
##春
##曆
##會
##月
##有
##朝
##木
##本
##李
##東
##松
##林
##柔
##株
##梅
##條
##業
##樂
##橋
##機
##正
##武
##民
##気
##氣
##水
##汉
##江
##汽
##沙
##河
##油
##治
##泉
##法
##洋
##津
##流
##海
##清
##港
##湖
##漢
##灣
##無
##爾
##玉
##王
##球
##理
##甘
##生
##産
##田
##町
##界
##白
##百
##皇
##盟
##直
##相
##省
##県
##真
##眼
##石
##社
##神
##福
##秋
##秦
##空
##節
##精
##約
##紅
##級
##縣
##红
##羅
##美
##群
##義
##者
##聖
##股
##育
##自
##臺
##花
##英
##茶
##草
##華
##葉
##蒙
##藏
##藤
##虎
##行
##術
##西
##記
##貴
##路
##車
##軍
##輪
##通
##道
##郎
##郡
##部
##都
##酒
##里
##重
##野
##金
##鈴
##鉄
##銀
##長
##长
##門
##間
##门
##阳
##阿
##限
##院
##陳
##陵
##陽
##隊
##際
##集
##青
##韓
##音
##風
##飯
##香
##馬
##马
##高
##魂
##麗
##黄
##龍
##龙
##ﬁ
##ﬂ
##（
##）
##：
##￼
##er
##en
##de
##an
##st
##or
##et
##in
##ar
##og
##ti
##sk
##le
##ed
##om
##ig
##el
##af
##at
##al
##on
##for
##der
##den
##re
##ing
##un
##te
##til
##ra
##il
##ne
##ol
##ter
##and
##am
##det
##se
##ik
##ag
##pa
##som
##med
##lig
##ere
##lev
##var
##ør
##av
##be
##ud
##ver
##blev
##19
##is
##ske
##op
##ri
##ste
##men
##ær
##ke
##si
##sp
##han
##ge
##sen
##ning
##del
##od
##ur
##ler
##20
##ve
##fra
##ru
##tion
##ind
##ul
##sa
##ende
##ræ
##me
##erne
##dt
##ved
##la
##har
##ab
##vi
##es
##li
##land
##hav
##us
##ang
##fter
##by
##hv
##sam
##it
##ro
##gen
##før
##18
##ser
##ber
##lige
##ch
##over
##ger
##kom
##ist
##hol
##ad
##man
##kt
##kr
##hed
##sig
##ation
##kon
##efter
##ens
##fø
##æn
##und
##sl
##fl
##gi
##Han
##mer
##ma
##dan
##des
##00
##of
##ir
##hvor
##um
##sy
##tid
##sin
##tet
##under
##vær
##tr
##ord
##ikke
##ven
##je
##ken
##ot
##spil
##per
##Den
##kan
##æl
##mar
##as
##ret
##pr
##ut
##else
##he
##di
##mod
##200
##lem
##ok
##ort
##Det
##id
##ster
##sø
##ogsa
##lan
##let
##eller
##ker
##ling
##havde
##bet
##ak
##ien
##iske
##kun
##væ
##get
##mel
##ic
##ene
##br
##skab
##gt
##St
##kl
##isk
##ho
##ie
##dte
##net
##ede
##201
##sel
##ent
##inde
##to
##ige
##vis
##ek
##gr
##ty
##ale
##tal
##bru
##jer
##ner
##tag
##byg
##pe
##ny
##ket
##yn
##ød
##rem
##eret
##øb
##De
##org
##vet
##erede
##ille
##red
##ce
##yr
##øj
##sten
##ub
##met
##).
##Dan
##første
##ten
##son
##17
##da
##",
##),
##ug
##ran
##dag
##her
##val
##sæ
##par
##ov
##hold
##stor
##fin
##ade
##øn
##kke
##old
##tede
##fa
##beg
##mal
##fe
##ust
##ap
##sat
##rig
##bej
##".
##min
##199
##fik
##lag
##An
##En
##gar
##mark
##bl
##arbej
##mber
##frem
##os
##pro
##ci
##uden
##ban
##mun
##hans
##end
##ingen
##gel
##ningen
##nem
##amp
##ly
##gang
##æg
##ft
##mand
##ob
##mellem
##fil
##elt
##res
##bli
##ligt
##im
##rup
##tog
##eg
##kal
##føl
##vand
##delse
##født
##sammen
##næ
##Al
##nav
##16
##In
##ck
##sti
##Ch
##lø
##erik
##bag
##yt
##ds
##præ
##dig
##far
##ier
##ski
##siden
##na
##mo
##hun
##stil
##ion
##sted
##les
##stat
##yl
##elig
##nu
##ts
##træ
##skri
##æng
##iti
##198
##pla
##ga
##havn
##grund
##nog
##Mar
##ligere
##vir
##197
##Danmark
##gte
##borg
##Un
##star
##istor
##Der
##15
##flere
##rede
##lede
##hand
##ninger
##For
##deres
##vin
##sæt
##andre
##forsk
##sion
##ned
##stør
##yd
##alt
##fat
##off
##rik
##uk
##ater
##dansk
##ham
##være
##gav
##tra
##krig
##elsen
##forb
##fol
##gende
##mu
##omra
##yk
##Ar
##nord
##io
##spiller
##pol
##ia
##vil
##ligger
##nes
##alle
##mp
##hus
##selv
##10
##len
##anden
##gennem
##høj
##slut
##hoved
##kunne
##jor
##dens
##lands
##sta
##vej
##pen
##Re
##vik
##196
##form
##tre
##tur
##ue
##kar
##dø
##mere
##ben
##set
##uc
##Jo
##sag
##stem
##Pa
##mange
##lin
##landt
##andet
##hen
##194
##str
##anske
##bar
##styr
##bo
##senere
##dom
##sit
##tig
##Efter
##Sk
##mus
##iet
##dog
##sid
##ring
##været
##dre
##ant
##tidligere
##begyn
##au
##øben
##ks
##Her
##skul
##øbenhavn
##ræn
##ange
##kring
##elle
##ard
##mil
##up
##hver
##fly
##kor
##samt
##dem
##vig
##po
##tes
##olog
##bed
##lang
##vest
##lo
##12
##mens
##uni
##gra
##død
##dere
##skre
##have
##grup
##København
##stru
##medlem
##14
##amerik
##Ro
##denne
##ine
##atur
##000
##no
##histor
##blevet
##mi
##ren
##tilbag
##Le
##ansk
##inter
##ca
##kommun
##nation
##ba
##omkring
##blandt
##kendt
##samme
##ire
##ful
##svar
##forskel
##all
##13
##skulle
##ron
##isse
##hvil
##øst
##syd
##store
##ænd
##195
##meget
##The
##est
##film
##bold
##prod
##minist
##byen
##tilbage
##fort
##politi
##plan
##inden
##ram
##ære
##ry
##las
##ment
##193
##danske
##derne
##endes
##ole
##kir
##eter
##ald
##læg
##tiv
##raf
##reg
##øm
##gik
##stad
##bliver
##rog
##mest
##undet
##arbejde
##tiske
##ark
##lighed
##klub
##lav
##nings
##Fran
##ges
##slag
##cen
##mag
##skal
##mind
##Chri
##fod
##jem
##række
##musik
##jæl
##stand
##ta
##udvik
##ses
##sine
##hel
##navn
##virk
##ha
##uar
##vandt
##bade
##person
##jul
##dende
##Hun
##ofte
##hal
##forskellige
##ej
##Kom
##kamp
##ac
##fri
##ings
##tik
##Fred
##søn
##dette
##vel
##Da
##inger
##Ne
##Kon
##ets
##bum
##Hol
##øl
##taget
##lagt
##km
##hjem
##jan
##cer
##Sch
##art
##tek
##ugust
##ledes
##igen
##ført
##givet
##US
##ober
##ka
##Nor
##opr
##nor
##findes
##sep
##næv
##mester
##Th
##sang
##ton
##nye
##landet
##lu
##rom
##folk
##bri
##hvilket
##stilling
##ay
##tisk
##okt
##verden
##bi
##rum
##ff
##mær
##mat
##so
##che
##190
##god
##ung
##satte
##syn
##ville
##amil
##gener
##sej
##eren
##gør
##11
##maj
##ans
##192
##januar
##Hans
##nær
##hør
##atter
##("
##heder
##fodbold
##berg
##30
##fær
##stod
##Par
##gam
##sker
##skil
##spillede
##største
##brug
##kul
##kam
##juni
##alen
##bør
##versi
##tember
##mid
##Be
##Nord
##sik
##rej
##bu
##spillet
##tor
##kri
##fatter
##sol
##ko
##")
##vok
##teg
##mon
##pri
##Ber
##nogle
##nede
##ou
##rad
##tallet
##hos
##album
##pril
##fran
##disse
##hele
##perio
##USA
##yder
##fæl
##følge
##kunst
##eder
##aret
##uro
##189
##holdt
##forbin
##august
##ograf
##Ty
##rol
##oktober
##april
##ernes
##september
##øje
##fire
##marts
##oner
##Car
##bog
##aft
##Sam
##ni
##kel
##nar
##hund
##Se
##Ved
##stø
##Kommun
##unkt
##juli
##lade
##Sp
##Kir
##Man
##sidste
##ogn
##25
##tan
##bur
##By
##jorde
##vember
##nyt
##eres
##læ
##bor
##blive
##Ma
##ces
##hu
##ina
##Kar
##ktør
##følgende
##liv
##em
##organ
##aler
##november
##parti
##186
##menne
##teret
##ars
##188
##cember
##run
##kur
##ow
##ele
##alder
##va
##skabet
##Mo
##december
##mø
##stian
##are
##begyndte
##Stor
##Som
##gjorde
##pp
##terne
##tyske
##side
##famil
##skole
##ich
##først
##reb
##kort
##jern
##Frederik
##mor
##erer
##sær
##heden
##187
##instru
##æk
##sc
##spe
##sprog
##mindre
##reger
##førte
##mis
##døde
##the
##eneste
##Ge
##50
##hvis
##bruar
##forhold
##sor
##jen
##besk
##sn
##delsen
##sty
##iden
##øre
##ationer
##tit
##navnet
##februar
##dels
##iel
##udgav
##cent
##itet
##tysk
##riere
##Fra
##pas
##ationen
##bjer
##terede
##vid
##semp
##dy
##Med
##sh
##læng
##skrevet
##sv
##dele
##indtil
##gu
##ris
##egen
##kommer
##siske
##ktion
##minister
##tter
##Li
##elser
##derfor
##klas
##tive
##hn
##Dette
##ital
##olen
##ræk
##gange
##our
##bred
##ite
##komp
##engel
##bro
##bil
##fes
##større
##uddan
##ond
##sæson
##omradet
##minde
##Kr
##jet
##kil
##foren
##natur
##bel
##ins
##Ud
##stedet
##ate
##konom
##dire
##bygget
##Tysk
##fal
##Et
##vision
##værk
##dene
##opret
##versitet
##nævn
##kv
##otor
##Under
##Men
##præsen
##tv
##2007
##dra
##He
##ian
##tige
##tidig
##age
##lok
##Christian
##skrev
##øv
##Land
##lande
##græn
##rige
##arhund
##lere
##videre
##Te
##forsø
##fem
##Uni
##bane
##ast
##Wil
##oprinde
##21
##24
##tigt
##Hen
##Euro
##forbindelse
##jord
##eksemp
##nelse
##led
##produc
##meter
##amerikanske
##cial
##burg
##stan
##ator
##telse
##stam
##kæ
##tage
##offic
##flyt
##bol
##ip
##tiden
##vist
##int
##hæ
##New
##vol
##ders
##stær
##Me
##El
##bygg
##hæng
##organis
##rus
##lod
##kol
##Am
##Har
##sven
##holm
##spor
##hendes
##ide
##Ho
##tere
##fand
##handling
##sport
##fle
##regi
##delt
##bra
##fast
##sm
##virksom
##halv
##gard
##tryk
##aben
##udgivet
##2010
##ky
##løb
##lær
##lov
##184
##Histor
##plads
##national
##gruppe
##stadig
##van
##Sel
##ult
##Peter
##ium
##2008
##hur
##stra
##hjæl
##forfatter
##23
##bedste
##uktion
##æs
##profes
##we
##ves
##Fil
##lille
##stre
##Co
##samling
##Bo
##Or
##køb
##Sa
##tale
##kat
##sens
##lej
##omrade
##dyr
##kirke
##datter
##jø
##skaber
##Ste
##mann
##saledes
##økonom
##2006
##fore
##Eng
##skrig
##naede
##So
##Af
##22
##historie
##børn
##yde
##Tyskland
##2009
##kultur
##lik
##Gr
##dri
##tte
##skif
##eks
##ill
##gamle
##Is
##Mu
##helt
##prog
##arhundrede
##offent
##karriere
##æld
##stille
##holder
##uld
##pris
##28
##nen
##ers
##co
##giv
##urop
##fic
##Kommune
##fred
##uder
##rer
##Hel
##jort
##midt
##Johan
##La
##2011
##tu
##185
##gift
##vide
##Syd
##26
##skue
##lad
##II
##Sver
##sket
##27
##."
##holdet
##bille
##bestar
##sing
##kampe
##især
##giver
##betyd
##viden
##noget
##matte
##værende
##ager
##valg
##Fol
##vinder
##tab
##kaldt
##Frankrig
##Om
##oper
##one
##Kirke
##udvikling
##bevæ
##kap
##hær
##rø
##spunkt
##num
##milit
##2012
##stit
##slutningen
##kede
##væk
##2005
##kendte
##repræsen
##kræ
##port
##rag
##seret
##tred
##lam
##lat
##ong
##pub
##løbet
##forsvar
##pop
##ologi
##desuden
##viser
##akter
##Til
##fund
##verdens
##seks
##Denne
##John
##tin
##høje
##vor
##gre
##ations
##sal
##Europa
##Ad
##beteg
##milli
##amerikansk
##Norge
##gede
##29
##motor
##etab
##sisk
##ska
##bjerg
##indbygg
##leder
##VM
##benyt
##40
##deltog
##eri
##Ba
##menter
##ution
##ighed
##ell
##kred
##omrader
##stud
##nationale
##æt
##bruges
##ener
##fuld
##kte
##Po
##gjort
##skov
##Ha
##bygning
##ja
##ration
##æst
##banen
##tager
##alminde
##stort
##ering
##ze
##]]
##Bar
##gelse
##befolk
##skib
##fundet
##[[
##jorden
##vede
##lertid
##San
##2000
##dermed
##sommer
##2013
##sma
##go
##agt
##eligt
##kør
##eksp
##Mon
##Pro
##allerede
##delser
##vs
##fun
##sch
##2014
##program
##At
##fandt
##Fri
##Vi
##ister
##oden
##posi
##Øst
##indbyggere
##sede
##general
##fordi
##tredje
##dition
##England
##medlemmer
##anven
##angreb
##..
##bas
##fleste
##band
##mænd
##formand
##orn
##kende
##Per
##Sogn
##Historie
##Fin
##brugt
##hy
##igt
##ønder
##onen
##muse
##digt
##Sverige
##ustri
##du
##100
##imod
##dræ
##bre
##øen
##arbejder
##isme
##aner
##tj
##igh
##iz
##værker
##division
##sident
##rang
##Danmarks
##tro
##Lu
##græ
##serne
##brud
##1970
##ægt
##kaldte
##2004
##model
##bø
##belig
##krigen
##Kri
##jap
##fab
##begge
##iner
##luft
##Ni
##dets
##sluttede
##trol
##lys
##Ver
##stede
##stæn
##ovjet
##2015
##ods
##Ind
##vigtig
##stats
##ktor
##produktion
##rid
##konkur
##von
##hin
##nien
##publik
##OL
##Sy
##plad
##ografi
##2016
##gøre
##ford
##valgt
##sla
##bestem
##bert
##60
##svær
##sand
##Rus
##sætning
##læn
##turner
##elige
##lever
##konge
##viste
##snit
##FC
##ktur
##aff
##ondon
##videnskab
##top
##eksempel
##Rom
##mennesker
##my
##steder
##filmen
##rolle
##give
##Hand
##ældre
##nogen
##Con
##Før
##London
##lub
##Andre
##istiske
##deb
##ori
##rel
##fang
##unge
##Ed
##dage
##Københavns
##180
##ral
##Su
##ble
##fyl
##pt
##regering
##grad
##holde
##ys
##aen
##stræk
##skuespiller
##vestlige
##middel
##su
##fodboldspiller
##gaard
##We
##spille
##endnu
##ju
##nal
##interes
##kong
##Ka
##periode
##kval
##gade
##franske
##kommune
##Pol
##uropæ
##san
##Ny
##made
##th
##sende
##popul
##otte
##Des
##mede
##tekn
##oven
##næsten
##via
##fir
##trop
##enk
##suc
##beliggende
##kaldes
##delen
##inge
##klar
##ensen
##system
##derefter
##jerne
##samtidig
##agen
##valget
##ition
##landshold
##183
##fører
##længere
##Vest
##hjemme
##Pr
##tagelse
##Er
##orden
##mulighed
##fon
##føre
##perioden
##smal
##personer
##ork
##byer
##elekt
##Inter
##omp
##nummer
##administ
##præsident
##rigs
##tivt
##hjælp
##Sen
##dede
##hæn
##hende
##knyt
##Kun
##syste
##idet
##fer
##imid
##2001
##ringer
##erefter
##sil
##Col
##tradition
##havet
##hard
##oku
##Universitet
##kkede
##2017
##Aar
##ep
##bla
##Mel
##stop
##succes
##ore
##imidlertid
##stal
##1990
##opført
##kvinde
##station
##fabrik
##vejen
##engelsk
##bevar
##godt
##serien
##begyndelsen
##industri
##jør
##leret
##Ital
##hvad
##qu
##instrueret
##Byen
##Br
##lerne
##kaldet
##Bro
##vat
##klubben
##akti
##deren
##fransk
##mission
##Val
##Carl
##foret
##Char
##skibe
##æssig
##landske
##Paris
##skyl
##Sc
##fald
##2003
##yg
##guld
##nuværende
##litter
##ym
##dist
##medal
##centr
##træk
##Ra
##sek
##væsen
##afhæng
##tilfæl
##huset
##verdenskrig
##speci
##ev
##trakt
##chef
##bud
##2018
##løs
##gruppen
##ius
##ogne
##aut
##80
##arbejdet
##stig
##manu
##heds
##pl
##ligvis
##tis
##jser
##fug
##nød
##mas
##Gu
##deling
##ula
##dat
##tids
##familie
##arter
##hører
##nordlige
##opgav
##jek
##flade
##mater
##karakter
##2002
##rest
##hil
##vende
##Frederiks
##æv
##alli
##disk
##fyr
##fel
##Op
##kra
##Nation
##langt
##ern
##fy
##31
##døm
##Vil
##kø
##ftet
##folke
##undersø
##herunder
##Mal
##offici
##sjæl
##radet
##skolen
##grøn
##tende
##brød
##britiske
##vaben
##ity
##cel
##adskil
##dighed
##fjer
##øver
##ceret
##ægte
##italien
##Ol
##pres
##skud
##tar
##Dansk
##retning
##valgte
##dæk
##fisk
##mang
##kli
##maler
##lagde
##fla
##lidt
##vise
##Mich
##grupper
##fælles
##studer
##position
##stillet
##70
##arbejdede
##millioner
##Ben
##Ri
##kerne
##komme
##strup
##politiske
##ley
##fortæl
##omfat
##doku
##Bi
##aldrig
##slægt
##enkelt
##tlig
##rets
##malt
##væl
##ros
##staende
##bygger
##kejser
##støtte
##kvar
##sendt
##relig
##tug
##tidspunkt
##tran
##sym
##udnævn
##fag
##magt
##179
##hi
##koncer
##Can
##udover
##union
##prin
##gdom
##bestyr
##Aarhus
##Bra
##beskri
##.,
##vundet
##finder
##dr
##Ham
##olf
##vægt
##blot
##tradte
##1980
##gelige
##Og
##Disse
##cir
##result
##hvert
##eksi
##version
##jekt
##ometer
##betydning
##besø
##kompon
##rak
##britan
##ame
##ps
##baseret
##lar
##haft
##radi
##Selv
##følger
##Storbritan
##provin
##beskyt
##lykke
##ons
##Di
##Lo
##rich
##moderne
##kongen
##alis
##kontrol
##laget
##Henrik
##samfund
##fortsatte
##Mad
##As
##soci
##sadan
##sydlige
##Mag
##ustral
##virksomhed
##iv
##ligesom
##Rad
##mes
##Italien
##forening
##sætte
##Karl
##direktør
##rundt
##Ja
##militær
##iens
##Ser
##uddannelse
##Nav
##sper
##Mi
##gammel
##Siden
##landsk
##arkite
##bror
##floden
##Bla
##stammer
##talte
##serie
##klæ
##inget
##lesvig
##finalen
##betyde
##enten
##faet
##eng
##engelske
##europæ
##unden
##Thom
##udgave
##samlet
##vitet
##professor
##antal
##dal
##kilometer
##bin
##skol
##betyder
##borger
##fej
##direkte
##tæt
##vinde
##startede
##bær
##To
##ith
##lot
##Tor
##svenske
##1998
##TV
##Pri
##erstat
##1999
##anlæg
##Amt
##sikker
##bal
##grundlagt
##okra
##Bor
##Ve
##York
##hørte
##indeholder
##flyttede
##Je
##ude
##former
##Ale
##stik
##bus
##1960
##efterfølgende
##National
##selskab
##kraft
##navne
##istisk
##bræn
##nat
##langs
##krat
##enkel
##lit
##modtog
##skede
##bom
##kvinder
##Handling
##strøm
##gelsen
##udkom
##2019
##Bu
##staten
##ya
##Gre
##nelsen
##mask
##Storbritannien
##ael
##hurtigt
##roman
##profession
##chen
##fan
##dannet
##yng
##Dav
##Ven
##nok
##Kat
##skrift
##barn
##materi
##desig
##Ek
##igur
##vendte
##lerede
##styrker
##meste
##bygningen
##ylland
##typ
##rebet
##Hav
##areal
##gene
##enter
##bestod
##Hoved
##nis
##østlige
##ældste
##Met
##Str
##ise
##ologiske
##kens
##mærk
##sterne
##Jør
##ander
##punkt
##universitet
##sidst
##Go
##Nog
##vendes
##garden
##igennem
##bøger
##afik
##Kn
##Ti
##svensk
##konkurren
##oprindelige
##fru
##Ric
##how
##sættelse
##albummet
##linje
##Sønder
##kvali
##finde
##yp
##"),
##dige
##opdag
##hit
##ting
##Senere
##Bri
##folket
##rejse
##mper
##værdi
##løber
##arig
##lege
##begra
##optræ
##titel
##Nar
##spør
##manuskri
##ld
##kirken
##huse
##ai
##slaget
##udtryk
##90
##Sal
##insp
##stof
##Vej
##serv
##lærer
##ock
##anvendes
##social
##muligt
##metal
##helm
##").
##Mat
##handler
##hinanden
##søl
##Desuden
##Stat
##Mil
##1996
##atet
##yderligere
##Wor
##stoff
##kraf
##bandet
##dør
##1997
##cyk
##spillere
##mæng
##Rusland
##aktion
##funktion
##Hansen
##kre
##talt
##urner
##sien
##Pal
##dis
##grav
##bid
##nende
##Tid
##pat
##merne
##dagen
##arv
##familien
##formal
##formen
##Alle
##svis
##ryg
##kolon
##sager
##sund
##Mor
##Over
##inkl
##titlen
##øjt
##Jac
##unde
##Jap
##500
##ali
##indre
##bygge
##medvir
##krigs
##forsøg
##erhver
##slav
##itar
##kommand
##Ul
##1994
##næst
##iddel
##eget
##Bel
##fulgte
##bt
##enkelte
##hertug
##blom
##bøl
##sic
##oder
##Jørgen
##primær
##rene
##Fa
##undt
##pan
##øde
##stav
##Muse
##rat
##neder
##Regi
##politik
##oprettet
##oprindeligt
##1992
##indfly
##filos
##sav
##bare
##Lou
##rale
##ns
##vind
##levede
##mentar
##sold
##mæssig
##adem
##isen
##35
##Oden
##pal
##Berlin
##stillede
##Nør
##178
##lykkedes
##ødel
##jel
##Sven
##Erik
##siv
##kn
##Jan
##Jam
##kontrakt
##sølv
##styrke
##hr
##kammer
##særlig
##lave
##Paul
##gelser
##debut
##unk
##Nielsen
##skiftede
##bygninger
##overtog
##sko
##tilfælde
##Ak
##bruger
##hl
##ild
##trods
##liste
##kron
##offentlig
##ati
##rød
##1995
##anal
##Sør
##lavet
##lokale
##177
##latin
##por
##iger
##kunstner
##sæsonen
##Kunst
##uth
##endom
##fulde
##aget
##usik
##hvoraf
##Filmen
##dam
##fx
##kampen
##lange
##cip
##befolkning
##ftede
##romer
##samlede
##starten
##landets
##ymna
##oen
##taler
##Fl
##alderen
##mende
##samarbejde
##indflydelse
##sommeren
##Ban
##indenfor
##Odense
##ræt
##Geor
##nævnes
##egne
##Grøn
##syv
##Cup
##gaet
##byens
##pladsen
##sange
##1993
##kret
##tru
##slet
##fart
##Kor
##DR
##livet
##ansat
##anti
##bad
##spar
##bedre
##skibet
##Fe
##sanger
##tjeneste
##slog
##sar
##formula
##formula_
##politisk
##Com
##internationale
##mur
##Blandt
##ph
##za
##øerne
##Ifølge
##fæ
##blio
##Min
##log
##tør
##fjorden
##bron
##hæv
##handen
##scor
##dtes
##uel
##nr
##1991
##sigt
##deles
##sene
##ure
##Thomas
##Nogle
##tri
##Gar
##Willi
##Amer
##øg
##45
##firma
##Danske
##kes
##handel
##fæng
##ick
##post
##Gen
##altid
##dar
##blik
##maneder
##visning
##Gra
##udvi
##1945
##vækst
##bisk
##prote
##veau
##vigtigste
##omfatter
##cher
##ball
##eth
##IF
##ague
##tæn
##spørg
##norske
##fte
##rika
##steret
##typisk
##Mc
##optaget
##arene
##nere
##Ca
##skær
##urt
##Jensen
##ple
##bæk
##Hal
##ance
##Bag
##elses
##bak
##endte
##obb
##Michael
##dæ
##1950
##knyttet
##rek
##udviklet
##volution
##Ander
##støt
##midten
##sakaldte
##ana
##1900
##ott
##færdig
##struktur
##1920
##Tr
##ib
##prem
##bedst
##Bru
##ppe
##berøm
##Ta
##Sovjet
##pet
##slutning
##marked
##højde
##filosof
##Aal
##gæl
##zz
##normalt
##ash
##ronning
##Bl
##figur
##sætter
##"-
##Hvis
##fot
##utter
##sagen
##terer
##dik
##uafhæng
##foran
##artik
##historiske
##ada
##Span
##2020
##blemer
##orien
##Folket
##Alex
##omin
##boede
##Møl
##bragte
##sider
##League
##1989
##alter
##trafik
##William
##handbold
##EM
##demokra
##Ga
##runde
##vold
##fron
##primært
##do
##sygdom
##bredt
##City
##afsk
##ansvar
##højeste
##fløj
##Don
##stitution
##sangen
##Sh
##herre
##penge
##mindst
##næste
##Hor
##stri
##bon
##ungdom
##skel
##cep
##ight
##sejr
##Klub
##stillinger
##non
##vice
##Hus
##manuskript
##ligeledes
##jede
##irk
##stival
##resten
##størr
##styre
##lt
##andid
##Ger
##Tra
##hvorefter
##Øster
##stærkt
##bry
##Austral
##psy
##Aalborg
##1800
##con
##Sti
##Indi
##tidens
##søen
##øjtn
##ften
##hust
##leve
##manden
##løse
##arkitekt
##uer
##Air
##tropper
##ile
##kyst
##NA
##jeg
##Fær
##begræn
##kæmp
##Mange
##opnaede
##iser
##jal
##176
##afholdt
##henhold
##oft
##guitar
##given
##etableret
##wa
##hvordan
##brugte
##skat
##Jacob
##Vol
##nævnte
##ledelse
##ode
##forsy
##Cor
##World
##distrik
##tak
##Sil
##stændig
##litteratur
##øs
##takt
##uddannet
##Lin
##ach
##bind
##1988
##Lands
##øse
##Lar
##fortsat
##telsen
##Mun
##itz
##Bay
##riske
##ologisk
##bere
##ierne
##lokal
##brog
##trak
##bogen
##iker
##Fo
##Bur
##cerede
##moder
##Lud
##36
##Ras
##cm
##øvrige
##stab
##adskillige
##Jon
##europæiske
##try
##fæst
##forlod
##centrum
##Jul
##iels
##ender
##energi
##Kong
##Port
##Kina
##Politi
##felt
##øjtnant
##Peder
##weiz
##Lang
##hof
##regel
##midler
##vinter
##1940
##skete
##gode
##Far
##udgiv
##indle
##gangen
##velse
##obbelt
##yer
##niveau
##gl
##centrale
##ligste
##Mik
##jylland
##ifølge
##Sø
##ykker
##jo
##els
##ena
##grundlæg
##gerne
##skabe
##Cla
##besej
##nødven
##Gi
##Mer
##udsen
##Ke
##ryt
##Phil
##vari
##ino
##Slesvig
##Byg
##løst
##Gud
##jour
##Store
##partiet
##Sovjetunion
##mentet
##solgt
##ejer
##klo
##Herred
##stærk
##rock
##svarende
##leg
##Pla
##1930
##Tour
##Es
##biskop
##okus
##radio
##rør
##faldt
##Beg
##abnede
##sovjet
##modstand
##systemet
##region
##lignende
##skar
##russiske
##mente
##1986
##Bal
##voksede
##mm
##miljø
##sasom
##tz
##itter
##affe
##vogn
##studen
##Super
##ejendom
##projekt
##ki
##prisen
##møl
##begravet
##Japan
##Si
##stoffer
##Martin
##problemer
##konstru
##1984
##placeret
##højere
##can
##uri
##cirka
##hustru
##bruge
##center
##aktivitet
##gas
##bund
##Station
##Fal
##bort
##war
##Stock
##tegn
##liggende
##arrang
##com
##way
##behandling
##altsa
##defin
##forskning
##Marie
##fordel
##stet
##japanske
##velser
##læge
##slaet
##uter
##udnævnt
##debu
##Thor
##sandsyn
##Coun
##cke
##opfat
##tyr
##dvs
##spørgsmal
##Sol
##Eg
##175
##økonomiske
##kær
##Gam
##skriver
##kry
##ney
##cy
##museum
##Bre
##journal
##75
##ood
##skrifter
##indsat
##arbejd
##Danne
##arbejds
##møde
##venstre
##fre
##vidt
##Niels
##klubber
##Østrig
##parlam
##une
##styret
##grænse
##sist
##forbund
##Robert
##sydø
##Høj
##opkaldt
##edition
##lek
##Spanien
##nel
##icin
##brand
##tel
##opna
##1987
##sad
##fu
##præst
##fjerde
##dav
##type
##produceret
##32
##politiker
##oprør
##David
##tele
##ffe
##alvor
##Rasmus
##krop
##skilde
##Ko
##Sim
##Rig
##ola
##male
##myn
##iør
##staur
##fler
##organisation
##34
##soldater
##bronze
##slot
##spid
##fokus
##Universi
##1985
##itler
##sydøst
##ledning
##ønskede
##proces
##dor
##japansk
##erob
##dobbelt
##melse
##dokumentar
##stillingen
##Folke
##teater
##Slot
##1979
##Na
##Pe
##mad
##bok
##prø
##afgør
##Gro
##1972
##gæn
##væg
##lende
##Nic
##norsk
##Navnet
##Do
##Jes
##møn
##udgør
##standen
##rettet
##mund
##dsel
##angen
##1982
##Kal
##ct
##Mod
##feren
##ærende
##kommunen
##opstod
##ica
##studerede
##klasse
##taj
##spital
##krist
##ministeriet
##kop
##tilla
##48
##sæl
##hovedsag
##afsnit
##skrive
##Jack
##somra
##veje
##mennesk
##lejlighed
##udviklede
##FA
##Union
##offentlige
##Jens
##stande
##kommuner
##Var
##særligt
##føres
##ero
##forud
##grænser
##mir
##levende
##ampe
##Musik
##ryk
##aktør
##delstat
##Champ
##privat
##comp
##kontor
##maned
##højre
##officielle
##37
##mør
##University
##foreningen
##ande
##use
##yal
##din
##mesterskab
##1973
##1978
##No
##hovedstad
##300
##landbrug
##højt
##varer
##gud
##populær
##kine
##inder
##cykel
##placer
##landsby
##stræ
##risk
##sige
##forsta
##indi
##handlinger
##krav
##oma
##daværende
##rejste
##que
##atom
##forsøgte
##komponist
##ømme
##Viborg
##August
##ies
##West
##spek
##maske
##Derudover
##finan
##anvendt
##Ran
##ismen
##inspir
##hab
##deltagelse
##forbundet
##debuterede
##oduc
##ika
##Island
##vandet
##handels
##Ot
##gent
##længe
##mate
##James
##38
##1944
##ura
##kommende
##1968
##turneringen
##katol
##Bir
##vært
##ningerne
##udel
##veret
##medalje
##1974
##tegnet
##iller
##reformen
##fugle
##kandid
##otel
##Stockholm
##lingen
##Lau
##byggede
##skom
##solgte
##stitut
##omfattende
##Bog
##gul
##ara
##sive
##Tom
##diske
##Ab
##delte
##stykke
##ficeret
##luk
##intr
##grænsen
##Kul
##hul
##1971
##kendes
##vie
##ands
##garde
##sagde
##foreg
##major
##situ
##fung
##single
##pladser
##Tri
##ymnasi
##dren
##regeringen
##drift
##hvide
##stein
##EU
##italienske
##rapp
##1976
##Album
##billeder
##bestemt
##gæ
##oph
##rollen
##smand
##rael
##cis
##symbol
##its
##fortæller
##gaende
##biblio
##temper
##mig
##ward
##ona
##snart
##legi
##mmel
##viet
##1975
##forbed
##Sankt
##gelig
##skabt
##Sammen
##spro
##søster
##Samtidig
##rigt
##lyst
##fader
##sikre
##iblandt
##modsætning
##1983
##aktiv
##turnering
##skade
##ony
##Pre
##ht
##historisk
##eff
##Ly
##ines
##interesse
##selskabet
##virkelig
##uen
##restaur
##tidlige
##almindelige
##baggrund
##39
##Teater
##kritik
##genop
##virke
##Mis
##Mellem
##Maria
##værket
##1981
##tol
##syge
##studie
##præget
##sekret
##Roskilde
##mit
##blem
##bart
##komst
##Plan
##even
##museet
##efterhanden
##revolution
##orke
##Sovjetunionen
##bebo
##beret
##tegne
##Jer
##onom
##danner
##Museum
##Gener
##sluttet
##bevægelse
##Ex
##Vic
##iseret
##dannede
##vo
##æf
##medicin
##staden
##line
##Finland
##kreds
##befolkningen
##mio
##uelle
##spred
##betra
##liga
##own
##Dannebrog
##stensen
##ider
##orig
##blad
##lære
##stid
##timer
##1969
##savel
##park
##religi
##1918
##orth
##ding
##Andersen
##Fer
##Ring
##Ogsa
##Poul
##George
##tabte
##bat
##træner
##militære
##kost
##Region
##vem
##ish
##tus
##forh
##ama
##55
##vare
##Ir
##gro
##republik
##officielt
##Champion
##1977
##skøn
##1967
##kommet
##skiftet
##kryd
##xic
##inen
##alene
##hvilken
##dræbt
##forven
##blod
##Tran
##religion
##sia
##herefter
##transport
##tom
##spring
##flod
##Park
##tajn
##scen
##opera
##""
##Rosen
##bolig
##heim
##gri
##alitet
##sne
##pper
##gten
##inva
##størrelse
##arab
##minutter
##menneske
##1943
##arti
##oftest
##løjtnant
##sak
##33
##Præ
##iserede
##øge
##sort
##170
##jernban
##oly
##Del
##henholdsvis
##betød
##mpe
##stant
##resultat
##beskæf
##økonomisk
##besluttede
##kombin
##fors
##point
##Ju
##lim
##400
##sky
##oliti
##aftale
##aten
##Tre
##fandtes
##Holland
##special
##angri
##47
##føde
##tighed
##afvik
##gal
##fulgt
##længde
##Ac
##elev
##Kol
##formation
##ægtede
##nab
##lyd
##1964
##Skov
##Johannes
##ævn
##børne
##ales
##Bet
##origin
##malet
##150
##stiftet
##visse
##ords
##Sand
##kas
##kant
##brig
##professionel
##tildelt
##slags
##adgang
##flik
##col
##Stift
##kket
##Gal
##amerika
##sterende
##War
##sub
##slo
##programmet
##Res
##show
##udført
##Ze
##vansk
##planter
##Hendes
##pra
##Frem
##mødte
##iere
##tekst
##Ter
##Kan
##virksomheder
##Oper
##ganske
##iget
##fanter
##pil
##Frederiksberg
##øjer
##borgmester
##overfor
##olie
##dent
##identi
##SA
##Social
##Lars
##stol
##Nu
##loven
##Lund
##butik
##deltag
##enheder
##afdeling
##drama
##Holsten
##Hu
##begiven
##historien
##Grup
##hurtig
##Du
##kore
##udbredt
##funger
##konger
##Bern
##1965
##Richard
##Fly
##ligaen
##blade
##gens
##mak
##journalist
##stationen
##1966
##Cat
##hjer
##ls
##Lø
##sports
##Canada
##46
##aften
##selve
##søgte
##Anders
##International
##ægteskab
##pede
##ited
##Lige
##prins
##almindelig
##nomin
##tillige
##hvid
##samen
##dannelse
##freds
##sættes
##Polen
##materiale
##alerne
##stemme
##trom
##vider
##Derfor
##DS
##øres
##vogne
##farve
##pati
##Qu
##fjen
##Nat
##elektron
##mener
##tot
##1941
##embed
##instruktør
##ms
##ændret
##ix
##Sjæl
##akadem
##County
##nemlig
##anger
##Svend
##spej
##entet
##kysten
##Skole
##jy
##ringen
##reser
##lel
##Ken
##sogne
##fak
##dyb
##Vester
##vur
##1948
##Wien
##vate
##anset
##dest
##forældre
##bens
##bes
##tlige
##købte
##Vin
##matema
##selvom
##CO
##Vilhelm
##stærke
##cil
##central
##benyttes
##ente
##forsamling
##regionen
##officer
##staet
##typer
##produk
##Ski
##dvan
##spr
##Ele
##Pet
##ats
##opfør
##Ludvig
##prak
##sendte
##jar
##ellers
##Frank
##hov
##vejs
##fladen
##Sor
##arige
##status
##skoler
##cht
##Bør
##perne
##hedder
##kem
##studier
##romerske
##angi
##flyttet
##Spe
##stemmer
##Pen
##bach
##uger
##steg
##formel
##ekstra
##sidder
##hid
##trække
##1942
##ye
##abnet
##Cali
##44
##Pat
##listen
##.)
##abeth
##hens
##forfat
##herred
##SS
##pir
##tilfø
##træn
##hjælpe
##kob
##kreis
##efteraret
##gennemsnit
##derved
##udstyr
##serva
##havnen
##Geografi
##kæmpe
##anmel
##hat
##kilder
##sæde
##somhed
##regist
##Vær
##last
##møder
##udeluk
##olymp
##pag
##Schweiz
##Midt
##jon
##tjen
##asin
##Bold
##bevaret
##mæn
##skabs
##test
##ophold
##utr
##fo
##enhed
##rab
##oplys
##ric
##Sommer
##forel
##udgang
##Cen
##urneringen
##sul
##Dom
##vag
##digheder
##168
##ekspedition
##ligevel
##1939
##masse
##65
##Pan
##skabte
##kristne
##tiet
##ordin
##effek
##Louis
##Middel
##gæld
##økonomi
##ugh
##Fre
##Tek
##dronning
##administration
##forret
##video
##kateg
##Lit
##tidige
##ikker
##plante
##tales
##49
##stjerne
##ube
##angrebet
##pul
##Skan
##Albummet
##skon
##Rid
##konflik
##kvalifik
##ror
##nerne
##Luft
##varme
##kning
##tiver
##Natur
##Stil
##Anna
##live
##Liv
##finansi
##Let
##My
##mist
##sekretær
##sammenhæng
##Mol
##giftede
##allierede
##optradte
##spoliti
##flag
##oss
##1962
##kaptajn
##arsag
##mands
##sovjetiske
##Inden
##Sm
##juri
##hjul
##jur
##tic
##Ru
##kken
##hor
##arbejdere
##andin
##bladet
##opgave
##Bol
##Rec
##42
##pens
##gren
##køre
##alreformen
##United
##Georg
##bærer
##begynder
##berømte
##Film
##stens
##1963
##fejl
##Art
##III
##drev
##artikler
##siger
##ativ
##Slaget
##unget
##Califor
##britisk
##nationalt
##Oslo
##fores
##fange
##tages
##premier
##bour
##arki
##Eli
##somt
##start
##grader
##1946
##Cam
##private
##provinsen
##græsk
##Randers
##forklar
##ras
##inkluder
##Bon
##bereg
##ano
##græs
##foraret
##opmærk
##uge
##ritor
##holdes
##fængsel
##sør
##1919
##sli
##billed
##Bul
##spanske
##tigheder
##Kap
##flyve
##Gust
##repræsent
##Allerede
##bestyrelsen
##Karriere
##Kamp
##eta
##Royal
##betegnelse
##farver
##ffekt
##cere
##institution
##tioner
##sesse
##Australien
##bot
##angel
##sum
##-,
##Arhus
##flu
##anta
##stj
##mesterskabet
##abne
##systemer
##prim
##ingeniør
##kontakt
##back
##oberst
##andinav
##gin
##kone
##ice
##vad
##scorede
##betal
##udviklingen
##modstan
##løsning
##Dag
##car
##Mens
##esel
##kendelse
##Prin
##Larsen
##bord
##ata
##blok
##gien
##røde
##Il
##ij
##retten
##Stad
##klassen
##mistede
##Red
##invol
##arme
##administra
##sku
##ington
##eksemplar
##problem
##ool
##placering
##introduc
##Jern
##bank
##Foren
##Hver
##lie
##Em
##1912
##kilde
##temperatur
##Nik
##antallet
##serer
##hvem
##udgi
##Helsing
##Anne
##videnskabelige
##fen
##sammenlig
##forblev
##1917
##hug
##grundlag
##Mosk
##Knud
##1958
##billede
##sociale
##venner
##Grand
##Tar
##tiller
##jekter
##bestaende
##magten
##øer
##Mort
##sson
##1947
##landsbyen
##regnes
##foregar
##vigtige
##specielt
##Græ
##inspireret
##fjern
##parken
##Wal
##ose
##lader
##nogens
##virkning
##ora
##Jak
##pavir
##salg
##autor
##punk
##Nap
##lægge
##1961
##Tyr
##festival
##iteter
##Lig
##russisk
##grunden
##ukker
##Deres
##dyn
##Centr
##Lille
##østrig
##Ole
##anerne
##Møller
##nogensinde
##regn
##tedes
##mængde
##1956
##41
##bede
##spon
##ægter
##sler
##kandidat
##ksis
##ield
##splan
##domin
##ører
##super
##Først
##vile
##køn
##Omkring
##tider
##tæ
##nordøst
##Freder
##skyldes
##aver
##græske
##parlament
##Mark
##Van
##iets
##Fried
##1864
##trans
##heraf
##psyk
##omgang
##ungdoms
##fest
##populære
##fuldt
##udpe
##mærke
##afdel
##1908
##Jeg
##Dy
##otland
##udvalg
##standard
##vning
##danne
##see
##hast
##ckey
##()
##visninger
##hospital
##baner
##1936
##vern
##udvidet
##sere
##undervisning
##Kultur
##Fyn
##Arbej
##forslag
##oten
##sydvest
##Dis
##afrika
##derimod
##yngre
##Bjer
##Music
##mager
##Folketinget
##Va
##Osc
##nov
##havne
##nik
##tun
##Radio
##computer
##bis
##.-
##Otto
##afsl
##endelig
##real
##1914
##kelse
##Bil
##bered
##1938
##kærlighed
##udnyt
##føder
##netop
##tyde
##forbud
##gan
##1949
##Kongelige
##1935
##nordvest
##Charles
##ago
##ath
##ydning
##Wilhelm
##ankom
##lads
##Brøn
##wer
##uren
##nedlagt
##sikkerhed
##99
##italiensk
##You
##Mas
##range
##pel
##infanter
##middelalderen
##1952
##viv
##analy
##wood
##ida
##...
##sdag
##sborg
##Flere
##fjord
##betegnelsen
##Vir
##43
##Fort
##1955
##rute
##klen
##kristen
##1910
##kroner
##Mexic
##bogstav
##him
##kongelige
##gran
##Vor
##hove
##Rum
##rul
##bragt
##omen
##rykkede
##student
##rent
##indgik
##58
##Første
##lens
##anne
##Christ
##Carol
##hensyn
##discip
##gælder
##afgørende
##att
##Vejle
##anlagt
##hvorved
##ari
##hvorfor
##biograf
##randen
##Rol
##semi
##tvær
##klart
##dyg
##Ag
##kunstnere
##fotograf
##kommunik
##erstattet
##ita
##middelalder
##sning
##parte
##hørende
##fungerede
##talen
##skende
##resul
##1924
##Dal
##betydninger
##cker
##tilknyttet
##King
##hardt
##":
##isten
##Atlan
##dækker
##kvarter
##heller
##zo
##vers
##beskrevet
##praksis
##ficerede
##erfar
##blomster
##plade
##forval
##1921
##holdene
##66
##mekan
##reder
##1959
##svøm
##programmer
##opgaver
##ior
##pre
##stians
##udelukkende
##brev
##Rasmussen
##Søren
##indhold
##redaktør
##stigende
##oprin
##Lind
##1953
##varet
##Gran
##Black
##1957
##inten
##Færøerne
##stjer
##konkurrence
##ani
##ston
##Derefter
##Klubben
##frihed
##drog
##Dam
##ped
##stykker
##sandsynligvis
##Indtil
##160
##benyttet
##kontin
##Marg
##mord
##1937
##flyg
##nø
##tning
##territor
##hvilke
##1916
##Josep
##fas
##design
##dengang
##dennes
##finale
##formet
##Tidligere
##ette
##hvori
##generelt
##odi
##stater
##1906
##zen
##1700
##epis
##1933
##base
##Selvom
##sas
##betydelig
##tyn
##planer
##udstilling
##lægger
##medvirkede
##korn
##trent
##aga
##seende
##kirker
##End
##etablerede
##portræt
##grev
##yo
##udgangspunkt
##1954
##low
##eksemplarer
##reform
##chsen
##optræder
##linger
##modtaget
##Harry
##accep
##95
##temp
##North
##ku
##rien
##Samme
##nederlag
##undga
##oplev
##hovedsageligt
##ordet
##rette
##somme
##følel
##enede
##gyl
##giske
##umiddel
##intet
##partier
##betragte
##biler
##beskyttelse
##Victor
##Kil
##mærket
##olding
##skæ
##rejser
##Gennem
##Bus
##Sangen
##fødsel
##reduc
##turi
##sionen
##General
##Moskva
##Bill
##sup
##elever
##international
##Oscar
##livs
##Kron
##udgjorde
##Dra
##Die
##Comp
##nævnt
##data
##bul
##riget
##Rock
##Motor
##egentlig
##Los
##kere
##mos
##bland
##ox
##leje
##frugt
##seneste
##Indien
##Hitler
##døb
##indgar
##skifte
##bæl
##Sig
##klær
##vit
##oprettede
##kelig
##sogn
##Tur
##Jor
##part
##Fru
##ela
##hovedet
##fris
##aktive
##strate
##dokumentarfilm
##atret
##færd
##Adam
##nærheden
##Landkreis
##hjør
##fødte
##trin
##sur
##frivil
##1928
##tilsvarende
##On
##korps
##magasin
##ingerne
##arkæ
##bevægelsen
##dommer
##ters
##linjer
##døds
##Ungar
##Fir
##koncerter
##Joseph
##oprindelig
##æger
##knap
##Alexander
##fr
##vek
##Open
##inte
##ensborg
##ukt
##fremstillet
##ussen
##Famil
##cand
##fordelt
##ognet
##drevet
##Dog
##AB
##hvorfra
##ship
##Wh
##effekt
##1932
##ane
##byr
##strand
##1890
##800
##slægten
##kiet
##henvise
##85
##stift
##klima
##view
##skoven
##skibs
##tions
##sberg
##nettet
##God
##pga
##dommen
##hemmel
##Max
##broen
##Stud
##Ram
##fi
##lavede
##avis
##lic
##konstruktion
##virksomheden
##papir
##løste
##sorte
##600
##uther
##Petersen
##tilgæn
##CD
##hum
##iro
##orkester
##rytter
##tøj
##amt
##procent
##Jean
##Dar
##aland
##vendt
##servator
##særlige
##1870
##Gun
##brigade
##Born
##publikum
##eksperi
##Omradet
##teori
##1911
##skift
##1913
##koncert
##ugo
##1934
##klare
##1909
##skild
##Got
##Soph
##Anton
##øvrigt
##Kre
##initi
##kast
##demar
##heste
##ændringer
##jørn
##Grønland
##Lyng
##ativt
##hk
##167
##Kort
##Jakob
##ladt
##naz
##repræsenterede
##øjeblik
##South
##traditionelle
##spekt
##somrade
##hyl
##Sund
##kryds
##debat
##Opr
##pæ
##Christensen
##tidligt
##oprindelse
##delstaten
##Mac
##modeller
##mik
##spænd
##Nørre
##rettigheder
##opol
##samfundet
##vokset
##gods
##apo
##købt
##64
##jær
##1905
##All
##1925
##1929
##halvdel
##produktionen
##vurder
##Ry
##Bayern
##ah
##behand
##morgen
##ial
##forsvars
##indviet
##svarer
##studerende
##ankl
##okal
##ikere
##indført
##jernbane
##front
##Kirken
##vard
##Ten
##reaktion
##femte
##beskriver
##Star
##alligevel
##eksempelvis
##ming
##ansatte
##stæ
##kører
##aende
##slen
##kvin
##afsked
##98
##tema
##Hall
##asse
##Brasil
##Neder
##forbindelser
##løn
##ads
##synes
##formede
##liber
##steds
##agne
##nyere
##1901
##komposition
##karri
##teor
##begrænset
##Emil
##Lis
##hockey
##gn
##abel
##panser
##rekord
##67
##Division
##muligheder
##hænger
##Margret
##guvern
##pension
##produkter
##muligvis
##Stre
##regler
##ink
##AT
##ave
##glas
##Verden
##Europ
##betrag
##marker
##mul
##omtrent
##kæmpede
##Reg
##fysik
##anses
##stationer
##Begge
##Gyl
##korte
##afstem
##Vik
##udenfor
##stronom
##Hill
##omo
##omfattede
##uropa
##væsentlig
##aktiviteter
##Gri
##førelse
##Friedrich
##1951
##simp
##Venstre
##disciplin
##istan
##stiller
##firmaet
##besejrede
##Mur
##1915
##1904
##Len
##indbygger
##wn
##Wind
##ledet
##filosofi
##mæssige
##indspillet
##prop
##Udover
##gøres
##Records
##organisationer
##Sha
##reret
##nordiske
##1922
##skilt
##tiker
##skyt
##otter
##Dor
##gere
##vention
##FN
##Sing
##als
##linjen
##tain
##IV
##Republik
##alog
##mændene
##1880
##raft
##resultater
##marke
##besæt
##stjerner
##ji
##rere
##endvidere
##virkede
##rev
##hang
##ordenen
##AC
##68
##skamp
##ødelæg
##ringe
##Sid
##Elis
##IS
##klok
##fanger
##kvindelige
##indsats
##Bang
##sons
##bredde
##artiller
##Israel
##ugle
##krateret
##roller
##pige
##Lee
##strækning
##bevid
##Central
##smu
##religiøse
##dækket
##alterna
##chi
##mesterskaber
##lund
##elementer
##kender
##tarn
##optræden
##islam
##demon
##97
##øverste
##overtaget
##niske
##spi
##miner
##ejet
##Smith
##Herefter
##slev
##afstand
##arder
##deltage
##gengæld
##omer
##ninge
##ini
##frit
##Dre
##medførte
##passag
##jarv
##selvstændig
##ypten
##Californien
##57
##Albert
##hastighed
##slov
##slottet
##Song
##lyse
##Belgien
##Mexico
##offen
##Center
##besid
##Tro
##byder
##styrelsen
##dipl
##afrik
##Esbjerg
##digter
##dalen
##sønner
##ligheden
##Sport
##hyd
##Result
##strid
##Ange
##Olsen
##mob
##vigtigt
##Kra
##ex
##isering
##1500
##heriblandt
##kanon
##nomineret
##cks
##Cal
##øget
##sæsoner
##draget
##frig
##fusion
##bringe
##AS
##demo
##Afrika
##teres
##inklu
##kraftig
##lægning
##Mul
##Simon
##isterne
##greve
##1923
##88
##grønne
##arrangeret
##1907
##Pedersen
##katolske
##Kommunen
##anledning
##MS
##priser
##personlige
##hæren
##bunden
##tekster
##servative
##Mary
##bring
##jævn
##Stationen
##Græken
##tilsyn
##Rod
##dorf
##Che
##cus
##bran
##efterfølger
##Ku
##Boldklub
##Ungarn
##fungerer
##1848
##civil
##IC
##fæn
##korre
##musikal
##Munchen
##Sten
##Baggrund
##udbrud
##Wash
##besøg
##lette
##Os
##missionen
##Ali
##Hein
##Rud
##1903
##selskaber
##cia
##56
##ledende
##atlet
##mene
##klassiske
##ffer
##Henry
##uble
##Krist
##gaden
##Ridder
##posten
##Hvor
##landene
##indeholdt
##uler
##bekræ
##landskab
##guvernør
##WW
##serier
##ramt
##trup
##behov
##dol
##1926
##kinesiske
##faktor
##bestemte
##erhvervs
##Blom
##feld
##Mit
##tilhører
##Gl
##ES
##job
##ordre
##zer
##Fab
##professionelle
##vsti
##ppet
##jøder
##feldt
##Top
##Saint
##lukket
##era
##Sjælland
##forlæn
##udlandet
##Institut
##undersøgelser
##malerier
##ærer
##begyndt
##indt
##wards
##midlertid
##bibliote
##lagte
##anter
##ødelagt
##enes
##School
##nærmest
##Ari
##stednavne
##sagt
##96
##foruden
##maleri
##ønsker
##IK
##ademi
##brudt
##oduktion
##annon
##Ark
##undtag
##deltager
##Washington
##Angeles
##lene
##skin
##risik
##gymnasi
##egentlige
##fyldt
##Tal
##illa
##minder
##undersøgelse
##Gustav
##Que
##straks
##Dr
##falder
##udvikle
##52
##tvang
##kloster
##forekommer
##imellem
##forand
##repræsenteret
##Tan
##færø
##Grund
##fremtræ
##ux
##spæn
##Kristian
##Ky
##hovedstaden
##1000
##rappor
##ias
##fodboldklub
##canad
##kg
##Bade
##almindeligt
##omfang
##dne
##slin
##olin
##don
##varm
##varede
##Kim
##Bun
##udstyret
##æren
##graf
##Christians
##overvej
##virkende
##bidrag
##markedet
##if
##flertal
##Kro
##udtalte
##1927
##scene
##optag
##spansk
##kortet
##She
##xel
##ykket
##musiker
##klubbens
##jazz
##adel
##nam
##producer
##betragtes
##hop
##forment
##Pas
##Pris
##Valdemar
##kredsen
##Club
##Vo
##myt
##departe
##holdning
##Off
##sburg
##UE
##kvad
##kongens
##brun
##ærke
##medaljer
##skove
##eden
##revet
##relativt
##samle
##1600
##Ør
##mæg
##selvstæn
##Harald
##Mont
##dømt
##Cent
##1902
##fjerne
##austral
##kors
##titler
##hollandske
##1931
##Gruppen
##faste
##Jørgensen
##fry
##værelse
##grundlagde
##Skotland
##kvens
##afviklet
##provins
##120
##Tru
##eksamen
##tjene
##arligt
##Kolding
##Sophie
##zar
##avn
##ændrede
##akt
##betjen
##etisk
##fj
##dyre
##konkurrencen
##kommando
##ova
##Strand
##Son
##Bornholm
##overflade
##svært
##universitetet
##olympiske
##Eksemp
##,"
##rand
##kanal
##telser
##ware
##Andreas
##Vig
##døbt
##Alt
##lavere
##enhver
##Lan
##begrebet
##93
##Jose
##Klo
##jagt
##dørs
##frø
##tron
##1896
##kørte
##faktisk
##metode
##pac
##ikken
##krimin
##skred
##mine
##premiere
##kro
##sed
##stu
##tering
##kanoner
##straf
##benyttede
##ledere
##etiske
##out
##mølle
##Festival
##rummer
##beskæfti
##foregik
##kelige
##øy
##arkitektur
##karrieren
##1860
##sjældent
##Grækenland
##damp
##levet
##beting
##Silke
##toppen
##sex
##chester
##klaver
##faldet
##die
##mulig
##søge
##kanalen
##54
##ønske
##smæssig
##individ
##Ober
##ards
##kiske
##umiddelbart
##projektet
##stød
##miral
##Norges
##1898
##rings
##stadion
##rende
##Vand
##erhverv
##Horsens
##Championship
##indspil
##Berg
##hail
##opford
##dagog
##skille
##kapel
##numre
##fos
##dømmet
##DM
##una
##Bis
##tav
##tyskerne
##egenskaber
##Ce
##gisk
##modellen
##detal
##1850
##aledes
##lovgiv
##Lor
##anvendelse
##opgør
##legen
##nelser
##borgere
##1899
##tanter
##Kirkegard
##Flo
##Elisabeth
##Had
##Rød
##ota
##gennemført
##oplysninger
##sistent
##skot
##eredes
##familier
##tabt
##jyske
##87
##Ur
##any
##held
##chan
##jub
##stren
##perioder
##Sæ
##erklæ
##udvide
##skor
##Arets
##tvunget
##59
##Sta
##ktar
##Sw
##Cap
##asti
##planlagt
##Portug
##Leon
##Irland
##splad
##signal
##brede
##AF
##mængder
##mæssigt
##rod
##støttede
##udenlandske
##produkt
##designet
##generation
##sioner
##bir
##dannes
##naturlige
##hidtil
##tilhørte
##begreb
##tegninger
##overra
##sind
##Flensborg
##Tjek
##bryg
##udgivelsen
##Kin
##vejr
##udgivelse
##menes
##Cast
##kraftigt
##opmærksomhed
##Has
##tons
##broder
##";
##celler
##sis
##byerne
##skj
##prøve
##formu
##tilstræk
##generalmajor
##turne
##vokser
##ref
##finalerne
##skridt
##spur
##coun
##studiet
##nøj
##udford
##forløb
##lers
##700
##besøgte
##Tit
##stog
##ome
##rekl
##musikken
##High
##UN
##oversat
##slutter
##Lyngby
##time
##1897
##Spar
##tilpas
##bombe
##primære
##forholdet
##opdaget
##stiden
##osv
##Oprinde
##tidlig
##dags
##rækker
##Ron
##tilbud
##kompag
##prinsesse
##dk
##Kam
##Angel
##spidsen
##usa
##regerings
##Virk
##Wa
##stitu
##repræsentant
##77
##deler
##Verdens
##jule
##hø
##erklærede
##vises
##kalk
##Napole
##blanding
##arrange
##tradt
##træer
##belej
##bevidst
##udsat
##færge
##UEFA
##talrige
##bredelse
##formentlig
##ign
##gennembrud
##fremstilling
##sikrede
##dir
##flugt
##1863
##evne
##Søn
##tilknyt
##terror
##tiseret
##internationalt
##Francis
##syl
##Ern
##France
##kræver
##leveret
##Bas
##nus
##atør
##sproget
##Guld
##beholdt
##ktioner
##illust
##mestre
##Mog
##Brasilien
##kræfter
##offentliggjort
##sey
##sem
##Asien
##eten
##250
##62
##Røde
##natten
##53
##Rob
##varier
##fremme
##1888
##Mid
##stifter
##ference
##skir
##love
##Organ
##Philip
##ptur
##Ki
##manniske
##Ej
##Rog
##ømmer
##organisationen
##”.
##1885
##ages
##betale
##1894
##spilles
##forhand
##geren
##1895
##Uden
##cu
##Bud
##zin
##Nan
##sken
##motorer
##princip
##brødre
##bestyrelse
##Saledes
##vent
##Dem
##Ingen
##situation
##Tok
##dder
##69
##hotel
##ukendt
##hon
##amin
##CI
##horn
##information
##ouse
##Silkeborg
##anten
##desel
##fremstille
##frie
##Privat
##foretog
##Sørensen
##);
##hundrede
##fodboldlandshold
##overbe
##1884
##rammer
##symfon
##stret
##myr
##Est
##svin
##verne
##observ
##interview
##verse
##ydre
##AG
##arm
##medier
##Louise
##Fon
##mader
##Dermed
##Fi
##sakaldt
##obel
##Parti
##starter
##æres
##vak
##essen
##jødiske
##anerkendt
##byggelse
##Love
##udvalget
##Johann
##distrikt
##yll
##Tron
##dekor
##1892
##Flor
##fiskeri
##vanskelig
##denes
##Vis
##indvand
##mærker
##anen
##Kommunalreformen
##isol
##Jesus
##finske
##Ungdom
##bassa
##Arthur
##51
##Ant
##Virgin
##bands
##indledende
##opfattelse
##Green
##TA
##Tele
##gor
##Mester
##vokal
##erklær
##bebyg
##gej
##kommerci
##forma
##Bandet
##rummet
##folketings
##førende
##satel
##krævede
##ase
##geograf
##slam
##parret
##ike
##1889
##politiet
##Provsti
##Bille
##1866
##Adolf
##Bank
##engang
##Falster
##delig
##haver
##vinteren
##Pl
##arets
##iteten
##sæn
##komed
##metoder
##just
##stabil
##bte
##kup
##Alli
##Krig
##opdelt
##skader
##anere
##vokat
##Sav
##bøn
##figurer
##lukkede
##Idræ
##anda
##skudt
##Ernst
##alet
##dokt
##forlade
##ummer
##dynasti
##plat
##vic
##romersk
##ynd
##Americ
##ante
##ændre
##udenrigs
##1879
##eksempler
##Hart
##fattig
##Just
##Spil
##Fel
##BC
##presse
##ios
##nas
##River
##61
##Hjem
##greb
##digte
##kinesisk
##Ret
##daglig
##Turneringen
##begivenheder
##bidra
##vul
##ary
##formid
##bød
##ritu
##søg
##Konge
##hverken
##Person
##Egypten
##Brand
##formo
##skyld
##oli
##artikel
##fiske
##Real
##Helsingør
##voksende
##vester
##forholdsvis
##tilstand
##stoppe
##oc
##markeds
##mander
##myndigheder
##Net
##anbe
##yllands
##sour
##Jorden
##iges
##nega
##Spor
##mørke
##konsul
##kohol
##Gram
##sønnen
##myndighed
##Hotel
##open
##Yo
##hypp
##mangel
##Engel
##Nordamerika
##1893
##emner
##Ordet
##field
##stern
##grunde
##halvøen
##skik
##Morten
##Internationale
##ejede
##yen
##tikken
##stations
##well
##derslev
##klin
##1882
##lip
##melser
##Statens
##oppe
##ovre
##foreninger
##henvisninger
##kapit
##mindste
##bia
##board
##elserne
##efterfulgt
##Daniel
##købe
##tilladelse
##befinder
##1883
##Team
##forskere
##kvart
##forfattere
##Bed
##foretaget
##Bes
##rac
##vands
##agere
##kab
##stoppede
##vivl
##(,
##win
##holt
##1872
##maskin
##svig
##kapital
##ommer
##Street
##92
##kommunal
##Luc
##strækker
##Bad
##øret
##basis
##63
##Sognet
##plader
##sejre
##grundlæggende
##ungs
##læse
##Stats
##involveret
##øbing
##1891
##Dronning
##skatte
##kend
##sædvan
##forsøger
##fjel
##aller
##endda
##Stru
##forretnings
##eringen
##ært
##Biografi
##Mari
##',
##fremtrædende
##Brønd
##enor
##sus
##omtales
##Awards
##Amager
##kog
##Ren
##fanget
##Rigs
##tilfreds
##fjernet
##1871
##vender
##grundet
##tekniske
##rund
##øk
##salt
##Lad
##fronten
##neutr
##Award
##forbi
##fortsætte
##samlingen
##tromme
##nødvendig
##gives
##teknisk
##Gymnasi
##opnaet
##angiv
##neden
##omtalt
##somradet
##urnering
##nabo
##Kur
##oth
##stedt
##restling
##stum
##ambassa
##polske
##planen
##mikro
##Brun
##nie
##grene
##virker
##Eksterne
##forretning
##beskrev
##1875
##Model
##uafhængighed
##Nicol
##originale
##bekendt
##1862
##anvendte
##overgang
##Moun
##Prem
##Win
##hektar
##Jar
##aftalen
##kalder
##versioner
##Feder
##talent
##regiment
##premierminister
##Lie
##ræner
##fortol
##størstedelen
##fylke
##vælge
##Næst
##flok
##trukket
##forp
##rit
##mini
##forsker
##telefon
##Sun
##az
##aterne
##rejst
##ordning
##otball
##Step
##køret
##Bygningen
##American
##ative
##TO
##vilkar
##Bergen
##eksist
##Lol
##sent
##syre
##perman
##smag
##klassisk
##kkes
##kW
##sj
##søer
##etablere
##spir
##cover
##Verdenskrig
##keligt
##ologien
##Sar
##deltaget
##vilje
##passager
##It
##Ford
##Chic
##Serien
##hjerte
##Stan
##fremmest
##130
##bjergene
##Sachsen
##Foreningen
##sløb
##ramme
##Jim
##flg
##separ
##sterer
##ows
##Group
##Frederic
##besættelse
##etape
##dirig
##tilbragte
##kers
##inspi
##tligt
##Holm
##hoff
##yllup
##nøg
##ison
##Amal
##Akadem
##pi
##alkohol
##Anden
##bibliotek
##spræn
##inddelt
##siges
##tyder
##manglende
##forsik
##avisen
##tæl
##lægges
##nene
##ssel
##luf
##butikker
##Bod
##1865
##ture
##hau
##abent
##trykt
##ament
##inspiration
##laet
##fortsætter
##but
##tarnet
##nordøstlige
##hjemmebane
##Blo
##bit
##1887
##stigning
##86
##Aret
##indledte
##vene
##Pres
##Ribe
##ors
##fortr
##stral
##ændige
##Selskabet
##Soci
##industrien
##forhind
##Jylland
##Kle
##arve
##arsager
##sidstnævnte
##halvdelen
##glob
##row
##forskellig
##College
##passagerer
##uret
##eksisterende
##rødder
##anke
##solo
##brænd
##german
##stamme
##Stra
##tone
##ction
##drag
##samlinger
##Christop
##inkluderer
##pædagog
##Oly
##ader
##cal
##paa
##harmon
##1867
##erobrede
##adels
##argu
##Chan
##Gor
##skak
##endelige
##prædik
##undervis
##kene
##demokratiske
##beskytte
##pladesel
##Gol
##Les
##fold
##bruget
##bandets
##flytte
##sejl
##Stille
##Bob
##bod
##inske
##ower
##)"
##grave
##jernbanest
##Pic
##rerede
##udi
##hej
##antz
##human
##kok
##cean
##kære
##1881
##sjælland
##sadanne
##etabler
##teknik
##vedtaget
##Bogen
##ilæ
##]],
##haven
##invasion
##wald
##skrives
##Ukra
##stændige
##SF
##1840
##Olymp
##nordvestlige
##Madsen
##Tyrkiet
##flygtede
##rens
##eli
##afe
##fabrikken
##hjel
##krater
##ridder
##maskiner
##mobil
##smel
##udførte
##spo
##paralle
##fuldstændig
##medvirket
##zon
##kolle
##flygt
##Kreis
##BU
##resulterede
##app
##spektør
##Jesper
##Operation
##kirkens
##flest
##æssan
##studenter
##undtagelse
##anvende
##tanke
##1886
##Medlem
##udpeget
##Show
##Ker
##skulptur
##1861
##klassi
##diam
##Lim
##ipp
##bønder
##Pop
##fek
##opdagede
##tilhørende
##pak
##1873
##Jen
##arlig
##ykning
##nærings
##aer
##flo
##onien
##lings
##projekter
##funktioner
##Heinrich
##kvalificerede
##punkter
##inerende
##1878
##uropæiske
##App
##fed
##Nikola
##fikation
##virkeligheden
##zy
##Forsvar
##Wales
##kla
##1849
##Hvid
##producerede
##Ox
##ae
##Biblio
##yngste
##slutte
##udgaver
##Kej
##kav
##førelsen
##sterdam
##Holly
##midlertidig
##Napoleon
##Nov
##mose
##lis
##regul
##1868
##bourg
##udsel
##ross
##forny
##tist
##1874
##million
##Aa
##parker
##hhv
##ishockey
##statsminister
##historiker
##ligner
##1876
##Sønderborg
##billedet
##betydeligt
##MA
##imp
##skij
##flyet
##rejsende
##bevarede
##72
##Fjord
##Amsterdam
##eland
##Ferdin
##uelt
##Hammer
##sperio
##forhindre
##musikere
##stantin
##Europe
##splads
##vores
##bun
##skad
##eftersom
##Næstved
##tish
##overfladen
##henviser
##East
##sagn
##Kateg
##drup
##tivitet
##Prins
##Preussen
##Imidlertid
##ones
##forfatteren
##venskab
##netværk
##beskrives
##May
##bræt
##ideer
##Charl
##Portugal
##skæl
##konvention
##Dist
##nordisk
##kroppen
##indbyggertal
##kanten
##imper
##mental
##oversættelse
##pset
##koncent
##Gott
##Mes
##somheden
##140
##kommandoen
##Syds
##storm
##Selskab
##Margrethe
##Filip
##officerer
##koloni
##sydøstlige
##pavirket
##Big
##itets
##civile
##gruppens
##handværk
##Nyk
##karet
##White
##usalem
##univer
##Magnus
##linge
##Nordisk
##voksne
##hunde
##optagelse
##bortset
##94
##ændring
##Arn
##navnlig
##eladende
##frede
##prøver
##ugoslav
##omet
##ugis
##hænge
##arlige
##admiral
##udsendt
##megen
##Manchester
##1877
##astro
##Skolen
##modtager
##78
##put
##):
##Fire
##Glo
##agner
##indiske
##Administ
##pin
##”,
##københavn
##hjemmeside
##Litau
##sydvestlige
##sejlede
##DSB
##fortalte
##Gent
##floder
##assistent
##betegner
##ww
##svarede
##Ros
##indspillede
##bebyggelse
##Slag
##och
##ryd
##meddelte
##smænd
##Edvard
##1200
##Tot
##bryde
##boliger
##sloven
##Alfred
##initiativ
##skrivelse
##sving
##afgjort
##borgerkrig
##Vel
##instrumenter
##hagen
##nødvendigt
##Sad
##Camp
##stran
##banken
##Tim
##operation
##spredt
##oke
##arrække
##villa
##faderen
##kampene
##elin
##delingen
##Kiel
##Lov
##stenen
##sammesteds
##Sveriges
##bonde
##medarbejdere
##Tex
##materialer
##genstande
##².
##struktør
##gem
##Finn
##stadt
##dannelsen
##busser
##Høje
##Prog
##Cy
##Jackson
##overført
##betydelige
##tilknytning
##Dub
##østrigske
##ungar
##beord
##rykket
##batal
##enke
##bredte
##preus
##lid
##Borger
##astronom
##ted
##beck
##Edward
##sikkert
##fredet
##Virginia
##tens
##'.
##Stadion
##Hær
##hag
##diale
##lejr
##repræsenterer
##Pier
##delvist
##administrative
##Ferdinand
##bryder
##VI
##Ye
##toget
##Herning
##institutioner
##Kejser
##ala
##Folkeparti
##afløst
##skyde
##forarsag
##givelser
##1869
##kratere
##Ikke
##zi
##service
##stas
##ruk
##usæ
##ellerup
##Theod
##portugis
##sholm
##adres
##84
##ægtet
##One
##rin
##Kategori
##atre
##brasil
##styrmand
##jette
##mærkelse
##Horn
##tier
##mulige
##Henning
##studiealbum
##komite
##muslim
##akademiet
##formelt
##Bundes
##ther
##minar
##personlighed
##Jerusalem
##Ob
##Las
##mond
##gram
##91
##sektor
##ophørte
##hævdede
##evner
##forstaelse
##cin
##hørt
##Mic
##reau
##resterende
##deltagere
##liter
##dræbte
##scenen
##støttet
##vedkommende
##poten
##bydel
##Henri
##angribe
##ace
##sætninger
##tunnel
##opstar
##konservator
##rammet
##hellige
##Bent
##nisk
##medie
##israel
##Stør
##vere
##avan
##Jones
##indlem
##Bak
##senest
##handboldspiller
##Fu
##kommander
##Associ
##rift
##ots
##arabiske
##Isa
##berømt
##koncentration
##nul
##Colum
##Kla
##overvejende
##%.
##tennis
##stue
##Reger
##fællesskab
##etc
##Kas
##kortfilm
##benytter
##høre
##etter
##delvis
##kulturelle
##dning
##resund
##udnævntes
##wig
##ykke
##Lab
##prom
##døden
##vas
##fisker
##nia
##uba
##Konger
##Bab
##Dig
##søger
##landsholdet
##dominerende
##rot
##offer
##cens
##diag
##schweiz
##nærmere
##skrigen
##autoriserede
##hverv
##gne
##usædvan
##batter
##gennemførte
##betegnes
##bidrog
##tjente
##Mand
##usen
##grun
##Hamborg
##samfunds
##sætningen
##EP
##skan
##itte
##Skandinav
##støtter
##IT
##Køge
##Lil
##key
##lerup
##Brøndby
##OS
##tvivl
##gældende
##rapport
##infanteri
##Him
##hjal
##skaffe
##luften
##ianter
##Champions
##tilsyneladende
##meldte
##Scott
##øverst
##Gylden
##vulkan
##bek
##play
##transpor
##pludsel
##ugen
##europæisk
##kobber
##Landshold
##tilsku
##organiseret
##bryllup
##Lauri
##kvalifikation
##arten
##konstant
##komplek
##producere
##populært
##bue
##sukker
##korea
##ira
##beklæ
##førtes
##hævet
##Madrid
##verdensmester
##kørsel
##omatisk
##forsknings
##kapac
##partiets
##Skane
##Wolf
##wan
##71
##interesser
##pes
##sekund
##tolv
##nægtede
##zig
##Forbund
##fyldte
##Charlotte
##Wo
##berne
##Trond
##skriftet
##Mølle
##angriber
##Fæl
##overens
##hovedkvarter
##ikale
##fængslet
##cit
##Hy
##hind
##advokat
##monu
##atorer
##Kloster
##disku
##Gul
##brid
##mia
##forbrug
##fysisk
##tets
##afdelinger
##Premier
##sjette
##zone
##dernes
##vedrør
##sporet
##kongres
##befri
##dæm
##dybt
##veks
##elektrisk
##kommen
##medlemmerne
##opløsning
##dans
##lager
##landsbyer
##Post
##Hog
##aritet
##ladi
##Organis
##veksl
##110
##82
##Viden
##Hede
##matisk
##inform
##ordnede
##eventu
##ramte
##opper
##særdeles
##hjælper
##Jacobsen
##Aut
##inerne
##melod
##Hertug
##Jane
##hjalp
##mæl
##ficere
##sekven
##skæn
##skyg
##spolitik
##ues
##modi
##Sher
##lse
##mødtes
##Steen
##modsatte
##breve
##Svendborg
##iter
##Industri
##jak
##unst
##definition
##Hø
##andel
##Uddannelse
##høv
##mening
##fur
##forkortet
##afhængig
##fysiske
##parten
##introduceret
##Best
##able
##Deut
##Wer
##ctor
##frat
##kæl
##forsvandt
##kørt
##fyrste
##maksi
##Rumæn
##Au
##Hil
##Argent
##jubilæ
##pu
##ømmet
##lærte
##sto
##naet
##barne
##tyskland
##HF
##edrag
##bakter
##slæ
##mandlige
##Gil
##reserve
##drives
##afstemning
##bne
##ghan
##pian
##bevægelser
##litterære
##akiet
##ET
##æd
##koncentr
##skuespil
##beslutning
##Ing
##ererer
##--
##kugle
##normal
##bestyrelses
##Oli
##danmark
##hjemsted
##900
##atmos
##oprette
##stel
##øjet
##derpa
##vedlige
##gers
##kommission
##Lange
##Sat
##øjne
##renæssan
##bundet
##bergs
##bjerget
##Barcel
##lets
##teknologi
##ledt
##omraderne
##kommunikation
##forlænget
##Claus
##Spr
##fare
##1830
##Huset
##Røn
##komo
##landede
##1859
##forsvaret
##spris
##senior
##eksisterer
##serede
##urch
##historier
##multi
##beskrivelse
##magnet
##eksplo
##House
##Mus
##dømme
##Sir
##nummeret
##Argentina
##blan
##Kj
##kisk
##tivet
##Bred
##BA
##leds
##ience
##parlamentet
##Gymnasium
##Ala
##skibene
##saret
##pave
##gule
##Athen
##Gold
##meret
##siddende
##ekst
##forfatning
##distri
##føring
##1855
##Night
##rads
##værdier
##Hør
##fugl
##jev
##Norden
##snar
##østen
##stok
##afsluttet
##strakte
##Bryg
##løv
##Cle
##præg
##now
##DK
##oter
##svæ
##indrettet
##kin
##char
##gy
##kredse
##sejer
##Liber
##afslutning
##ioner
##Oprindeligt
##81
##Holger
##1857
##Patri
##brasili
##tilstede
##opløst
##bølge
##Long
##Sv
##kontro
##brugen
##romaner
##stjeneste
##optradt
##knu
##igheden
##assi
##kæmper
##næs
##oprettelsen
##milliarder
##konflikt
##Band
##retninger
##darligt
##musikalske
##piger
##kalde
##sekunder
##Sof
##marken
##straff
##fans
##Bat
##okse
##samlings
##Fyr
##radighed
##tigede
##1852
##fæstning
##1856
##tronen
##sygdomme
##kelsen
##web
##ami
##rætter
##højskole
##Eurovision
##modstands
##march
##repræsentanter
##Museet
##Tysklands
##kød
##How
##afholdes
##driver
##forbry
##naturen
##vælger
##cyl
##leks
##resultatet
##besejret
##Mak
##jernbanen
##fase
##EC
##Lyn
##somrader
##Cre
##tle
##partik
##Midtjylland
##76
##besluttet
##diverse
##sættelser
##foræld
##kvalitet
##fænomen
##betydnings
##barndom
##Karen
##Sl
##wo
##skjul
##Mads
##afrikanske
##nærliggende
##Cro
##Ægte
##udbredelse
##rust
##svag
##ques
##Føl
##jernen
##udføre
##74
##omat
##othe
##okol
##mødes
##Ci
##Fod
##Prix
##Ray
##arre
##ønt
##brændte
##sløs
##Stal
##stiftede
##polsk
##Joe
##Wit
##maet
##underlagt
##Kel
##aven
##finsk
##kemiske
##syssel
##finans
##Wol
##umu
##missil
##aly
##talende
##ymnastik
##tionen
##bygnings
##Gab
##selvstændige
##strækningen
##1814
##forbinder
##Bran
##nit
##Lolland
##medvirkende
##samtlige
##lufthavn
##ils
##vald
##egn
##agtige
##udtale
##Beskrivelse
##koordin
##astrup
##Konstantin
##Company
##blandet
##Sønderjylland
##Barcelona
##besat
##hou
##renover
##trommeslag
##Kongens
##drenge
##marine
##aka
##79
##dron
##gennemføre
##strakt
##Hot
##trus
##begynde
##dato
##institut
##83
##Avis
##Ein
##potenti
##Out
##Wat
##hovedsagelig
##matematik
##offentligt
##tunge
##drage
##geriet
##rigtig
##ope
##rigtige
##FF
##oto
##placerede
##Hospital
##trækker
##romanen
##udløb
##følte
##hai
##mærkede
##begivenhed
##Jour
##Nieder
##opførte
##fortrins
##midtbane
##Vejen
##Nykøbing
##sters
##detaljer
##dertil
##udseende
##indførte
##anerkendte
##byggeri
##Sara
##skræn
##mptom
##integr
##Bjørn
##aktivt
##forstyr
##Arkite
##oy
##eventyr
##forsv
##beton
##guitarist
##Sin
##span
##sangskriver
##instrument
##Bos
##stalt
##skræ
##udsm
##ruten
##kategor
##Hei
##Sydafrika
##anerkendelse
##Hum
##mole
##Sprog
##forhandlinger
##opstillet
##henblik
##halvt
##1854
##Sus
##ropol
##Lux
##Nederlandene
##Fac
##dh
##krone
##DA
##invi
##regne
##oni
##Løbet
##Amerika
##forstær
##Tokyo
##RA
##oplevede
##varierer
##hale
##æle
##erende
##Haw
##Por
##artilleri
##Greg
##Pi
##bio
##Thy
##Viet
##lunde
##facil
##kongelig
##sælge
##modstander
##Ned
##Sej
##lettere
##flek
##73
##jun
##Stein
##studere
##rester
##1853
##poly
##runden
##maskine
##Chicago
##Ah
##spær
##skra
##konkl
##ansvarlig
##Victoria
##hailand
##Texas
##Hau
##Sud
##Lam
##wis
##ceremon
##skjold
##omgivet
##tilbyder
##hest
##Juni
##bære
##hollandsk
##konservative
##Bart
##tilhæng
##knæ
##aks
##midter
##regioner
##soft
##Øen
##ressour
##kræft
##rost
##1851
##nets
##Franz
##ato
##reformer
##drikke
##landbrugs
##frivillige
##SC
##foredrag
##laver
##mans
##Ukraine
##elektriske
##tilskuere
##sions
##dreng
##Leg
##alisme
##Julius
##analyse
##teksten
##Yder
##xe
##1842
##kammerherre
##bilen
##naturligt
##angiveligt
##pool
##bevare
##Gammel
##Hos
##gratis
##krydser
##Nas
##sklub
##langsomt
##producent
##kni
##derede
##katastro
##skop
##værd
##forholdene
##ilt
##prof
##ledede
##moral
##udgivelser
##profil
##nærmeste
##tanker
##drive
##Axel
##malede
##hvorpa
##Inge
##motiver
##regnet
##fanta
##stads
##baserede
##Kli
##bringer
##Nye
##urn
##89
##fyn
##violin
##gards
##singlen
##anvender
##Zealand
##Sie
##Tu
##Kore
##Sab
##Hjør
##starte
##Gren
##Pon
##opholdt
##Law
##lejren
##Eliz
##NS
##ledelsen
##DC
##Forsk
##kontinent
##kommunerne
##kvarteret
##Football
##Litauen
##stæv
##kalender
##Manen
##]].
##ledte
##Mart
##erobret
##betragtet
##sproces
##Hollywood
##Association
##Ang
##kastede
##ekstrem
##rektor
##1858
##benytte
##nødt
##kavaler
##udgiver
##Landet
##Parlam
##foreslog
##lyset
##iværk
##Titler
##Cour
##Foruden
##arabisk
##ments
##tagne
##traditionelt
##fond
##forhandling
##sværd
##race
##udt
##Efterfølgende
##skur
##Ib
##Irak
##Line
##afhandling
##kampvogne
##divisioner
##Gamle
##Tol
##ømt
##ødelag
##satellit
##holdelse
##Fisk
##harde
##landevej
##Skibet
##eksisterede
##besl
##ners
##oplag
##Endelig
##træning
##albums
##kolde
##mødet
##specielle
##rekor
##melig
##pleje
##kritisk
##overtage
##ums
##diesel
##søj
##eksport
##erstatning
##dty
##Haderslev
##latinske
##orer
##konver
##lejet
##Enter
##kommunalreformen
##DNA
##operationer
##Kl
##tiser
##komsten
##elsker
##Fis
##instal
##frygt
##Lat
##ingle
##Od
##amatør
##Old
##chs
##sign
##Contest
##leverede
##teborg
##agtig
##benzin
##Oh
##perron
##himmel
##præsiden
##ert
##slutr
##købing
##manuskrip
##Mogens
##forladt
##fremgang
##forbudt
##kvadrat
##absol
##hval
##Rich
##WC
##And
##hovedsæde
##mennesket
##ombygget
##ministeren
##Trods
##ua
##music
##artier
##protest
##Elizabeth
##Hard
##Økonom
##bevis
##Main
##køkken
##aliseret
##pok
##ikeren
##vali
##bytte
##1400
##troede
##ical
##drejer
##Skive
##ikop
##verdenen
##tilbaget
##Menne
##1847
##mytologi
##Nis
##aet
##omfru
##lejligheder
##tværs
##sche
##ateret
##geme
##samarbejdet
##Amerik
##ordnet
##ampen
##celli
##Cir
##tjek
##pabegyndte
##letter
##ics
##geligt
##Univer
##vakte
##ugu
##iana
##fylde
##gæster
##udenrigsminister
##Vinter
##distriktet
##kæmpet
##Idræts
##Fredericia
##IA
##fav
##udstillinger
##flam
##Alter
##moh
##børnene
##BS
##Dun
##deri
##personen
##gørelse
##dybe
##ray
##Johanne
##Trom
##ologer
##adskiller
##Ofte
##ety
##botan
##spilleren
##kurren
##DF
##fine
##finaler
##amtmand
##afgang
##løbende
##Rio
##portrætter
##cklen
##havs
##Beat
##besætning
##ois
##rettede
##normale
##sejren
##ids
##hellig
##kaste
##udsendte
##Iran
##cken
##1845
##Drag
##kontra
##daglige
##Sur
##fortrinsvis
##!"
##hentet
##diskus
##Hab
##darlig
##spredte
##Endvidere
##indtryk
##lister
##betj
##bjerge
##Rhin
##statens
##agement
##forgæn
##falde
##Windows
##Næ
##chel
##Caroline
##icil
##fremmede
##lænderne
##Fr
##pig
##sekvens
##givelse
##afløste
##varende
##grand
##løbe
##kortere
##Virksomheden
##cippet
##aux
##Ocean
##afslutningen
##uta
##skrip
##overensstem
##fog
##Bow
##cor
##Ligesom
##British
##Læ
##Cl
##ked
##gart
##cha
##befolknings
##Christopher
##opposition
##Frederiksborg
##Jugoslav
##givende
##muligheden
##Træ
##told
##ytter
##anlægget
##Ph
##oler
##overlevede
##slaver
##udvidelse
##mærkelsesvær
##Stations
##øvre
##sender
##aku
##producerer
##bydelen
##præste
##selvmord
##original
##veget
##belgiske
##produktions
##dygtig
##Eb
##Road
##1100
##Garden
##gentin
##ansvaret
##gter
##cast
##beregnet
##Gir
##identitet
##avy
##tror
##yderst
##ktionen
##Hiller
##het
##beskæftiger
##indga
##roer
##bugten
##provinser
##stumfilm
##fælle
##cept
##folketæl
##not
##skaff
##ische
##drej
##moleky
##Borg
##anim
##udtalt
##steuropa
##fattige
##Traf
##Islands
##jernbanestation
##Rumænien
##onym
##Golf
##mangler
##Letland
##permanent
##kemi
##Anti
##Kommand
##skolens
##ommern
##fant
##værks
##Blue
##Williams
##skandinav
##rerende
##stæder
##distribu
##æne
##pad
##efterlod
##cklenburg
##fungere
##praktisk
##australske
##Fla
##fornem
##liberale
##Clar
##lokomo
##Schmidt
##rebro
##Fy
##fjendt
##noteret
##Holste
##anderledes
##udsigt
##See
##traktaten
##øder
##Død
##Pil
##ancen
##forlag
##split
##rov
##Alexand
##Nær
##rival
##mane
##besked
##igheder
##kæreste
##kæde
##motoren
##Hele
##Pak
##indtog
##1300
##Wood
##beskyl
##opstaet
##sikkerheds
##McC
##afskaff
##seri
##eksk
##BM
##Ev
##sse
##stykket
##guldmedalje
##Sorø
##kommanderende
##invester
##genstand
##menighed
##fremhæ
##Brian
##blomstr
##bøj
##Chris
##Great
##Disney
##inet
##Church
##briterne
##Sul
##redes
##indgaet
##skyldtes
##distrikter
##menneskelige
##hjørne
##Jag
##gæst
##shavn
##amo
##registreret
##slar
##vagt
##ress
##startet
##formaede
##komedie
##furt
##isere
##ferencer
##farts
##øjeblikket
##gol
##sau
##malmand
##ega
##Chi
##Forfatter
##klasser
##Dol
##beslut
##Not
##Rap
##glem
##selvstændigt
##ged
##vinkel
##kym
##PS
##bende
##spunk
##præcis
##rykning
##toner
##Plat
##ape
##kastet
##termin
##uss
##itteratur
##afgræn
##Holbæk
##forestillinger
##fartøjer
##Færø
##py
##dække
##scener
##spræ
##ejes
##Lord
##tung
##sundhed
##demonstra
##kos
##uddannelsen
##brem
##ligge
##oversvøm
##hvortil
##more
##Romer
##Journal
##patri
##dybde
##celle
##absolut
##FL
##varianter
##udøv
##betæn
##Leop
##godkendt
##Frederikshavn
##Pin
##ørken
##Vind
##vog
##CA
##element
##1844
##1815
##fars
##ideen
##Laur
##fabrikker
##budget
##kraftige
##ogen
##Hon
##Ide
##Walter
##Cra
##brugs
##navngivet
##usikker
##regionale
##Estland
##interesseret
##jysk
##Kampen
##demokrat
##Mr
##Wars
##Flem
##baron
##Lufthavn
##Branden
##Dens
##derfra
##respek
##ukra
##vedrørende
##deraf
##udgrav
##hospitalet
##tydeligt
##oer
##forfrem
##ikon
##hm
##vens
##dokumenter
##eskad
##armen
##forsin
##vides
##Force
##sjældne
##protestan
##nødvendige
##Øresund
##Stav
##oblast
##vild
##godset
##singler
##Rail
##afdelingen
##Jud
##maling
##Arena
##dræbe
##System
##Hur
##Mau
##gle
##lon
##flydende
##Play
##||
##spise
##indkomst
##Stand
##digit
##omdannet
##spørgsmalet
##juridisk
##smukke
##teatret
##tillæg
##Handels
##bestand
##offentligheden
##alternativ
##server
##vilde
##hallen
##straffe
##sidde
##udvikler
##mængden
##hævder
##uafhængigt
##forsynet
##minut
##demokrati
##ER
##endt
##inspektør
##afslut
##gave
##Army
##flygte
##justits
##snarere
##ancer
##forlæng
##tilhængere
##olle
##gifte
##helikop
##Udvik
##jag
##kunder
##edig
##itch
##væsenet
##opførelsen
##modsat
##mellemtiden
##afsluttede
##Ep
##islandske
##typen
##videnskabelig
##Sæson
##BN
##PA
##udbredte
##tidligste
##minstruktør
##egyp
##Folk
##ulykke
##markant
##dages
##canadiske
##Olav
##Sær
##TS
##radgiver
##1846
##turen
##motiv
##Brig
##Byens
##fyrst
##offensiv
##rap
##sponsor
##Dur
##popularitet
##demokratisk
##møller
##vang
##omdøbt
##rie
##endeligt
##værkt
##Skib
##kulturen
##Bø
##ording
##strategi
##down
##udstillingen
##NATO
##saf
##uten
##Robin
##cat
##modtag
##deriblandt
##ræts
##forsvare
##øens
##lander
##bury
##ump
##imb
##personlig
##bredden
##Nikolaj
##afspej
##Jesu
##kopi
##færøske
##Luxem
##forinden
##længste
##publi
##bakke
##Hvad
##undersøge
##Santa
##afviste
##samler
##manuel
##torped
##Corn
##smer
##landskampe
##Ligeledes
##bosatte
##Rose
##Copen
##bygges
##gæste
##departementet
##Ris
##Water
##ansa
##dateret
##læser
##besøgende
##Cru
##tegnede
##Poulsen
##sitet
##Befolk
##had
##derudover
##idræts
##Selve
##forlængelse
##jager
##sendes
##uga
##genre
##ældende
##døtre
##Leip
##manns
##driften
##godsejer
##slesvig
##episode
##Republikken
##Time
##rader
##bemærkelsesvær
##underskrev
##Vietnam
##ulov
##styrede
##sundheds
##Begrebet
##orgel
##Arab
##diff
##trafikken
##Alban
##Prag
##sati
##Dyr
##forskelle
##kritiseret
##fac
##myrdet
##UCI
##redaktion
##baden
##lyn
##øya
##Parret
##offentliggjorde
##betaling
##Hjørring
##omkost
##uddannelser
##1839
##færdige
##ttere
##kredit
##gs
##enden
##træde
##alisering
##supp
##WWE
##tiltag
##lederen
##Handbold
##Roger
##landskabet
##centret
##Plads
##Hob
##turneringer
##team
##beskyttet
##Tun
##sach
##redde
##tænkt
##uafhængige
##mode
##Guds
##vindere
##kode
##kapacitet
##stranden
##borgen
##angiver
##bekym
##hovedrollen
##Glas
##ili
##ado
##Ann
##forbedre
##Francisco
##Live
##Cri
##svej
##zan
##raket
##foreslaet
##cul
##etten
##passer
##hænder
##tilladt
##Blu
##sgade
##Pierre
##pse
##Syrien
##fæste
##billedhug
##ced
##symptom
##krigens
##Østersøen
##modstandere
##partner
##filminstruktør
##gader
##ella
##skifter
##Mecklenburg
##seksuelle
##tilfældet
##erobre
##Forening
##Im
##glæ
##jæger
##flygtninge
##Sydslesvig
##Sang
##Wes
##kvindelig
##erstattede
##kombination
##turist
##arn
##omkom
##Nort
##overgik
##øjen
##kortvar
##kæden
##Young
##arresteret
##Hann
##utz
##Herman
##Life
##Wrestling
##forføl
##besatte
##krige
##irske
##spark
##situationen
##Kongeriget
##Tønder
##begyndelse
##mejer
##hjemmet
##byrdes
##tand
##indian
##betegnet
##festivalen
##Svan
##øgede
##skraft
##strom
##Liver
##diameter
##(=
##.'
##aden
##møb
##2021
##herrer
##sangerinde
##inklusive
##byt
##Aage
##Kent
##ragende
##hein
##materiel
##Hillerød
##hammer
##bibel
##Profes
##Charlot
##kunsten
##hausen
##Mars
##hertil
##Forenede
##sognepræst
##teen
##skap
##optog
##kredsløb
##næstformand
##tyrkiske
##Penn
##Holstebro
##aftenen
##Eksempler
##spladser
##Copenhagen
##avnet
##syvende
##Baden
##næststørste
##ambassadør
##tese
##værre
##Transport
##Carolina
##DDR
##Wel
##pligt
##uan
##tide
##Japans
##defineret
##spids
##Wi
##iki
##undertiden
##Test
##iss
##samtidige
##væb
##stemte
##Will
##1841
##købmand
##Goteborg
##stjene
##besiddelse
##gia
##danse
##Europas
##Superligaen
##Helle
##paf
##andt
##ukas
##Johnson
##kategori
##oberstløjtnant
##Fælles
##brugere
##kamera
##intel
##ferie
##spunkter
##Bour
##Gade
##ule
##helst
##Hvert
##granit
##skotske
##fedt
##kund
##virkninger
##krise
##1843
##Sydamerika
##Mette
##mødt
##uafhængig
##speriode
##Grundt
##mindes
##Schw
##Sec
##handlede
##nationer
##helbred
##bureau
##eksil
##Ludwig
##online
##Provin
##foregaende
##Jugoslavien
##115
##lars
##aviser
##efterkom
##ternes
##havende
##Prinsesse
##bridge
##Partiet
##Bron
##UFC
##quar
##alition
##modtage
##Arne
##Franco
##Skandinavien
##Ori
##indbyrdes
##monark
##drab
##skønt
##akse
##lyde
##flyv
##flyvning
##finger
##levere
##bevil
##vedtog
##overlevende
##hersker
##arealer
##Zo
##stro
##kelser
##tiserede
##kristendommen
##straling
##Vag
##appar
##tegl
##tilføj
##Bulgar
##AGF
##Adel
##kanaler
##ness
##erind
##røg
##forstan
##forstærk
##dagens
##planet
##jødisk
##Resultater
##uset
##manager
##oks
##danskere
##shire
##anbef
##kran
##amester
##bombar
##patienter
##københavnske
##Abra
##stisk
##kommandør
##hurtigere
##Get
##Jord
##adskille
##skuespillerinde
##Juel
##ory
##Holdet
##Afghan
##Liga
##ila
##entre
##kollek
##evangel
##Gentofte
##ates
##isted
##tegner
##optagelser
##arden
##Reich
##arhundreder
##humor
##medarbejder
##deløb
##meters
##fødselsdag
##reduceret
##muslimske
##agede
##udtaget
##dagligt
##sivt
##Molt
##dirigent
##rea
##olph
##nære
##boldt
##Prisen
##Krog
##Teg
##camp
##ardo
##Dire
##forbered
##handelen
##førsel
##kvæ
##Monte
##sylvan
##Chile
##betragt
##tætte
##bedet
##hertu
##hire
##banens
##Sea
##hvile
##ruter
##bakken
##Atlanter
##Federation
##bataljon
##sekvenser
##Leopold
##gerning
##match
##prøvede
##tedyr
##stiger
##gterne
##stige
##dokument
##byggeriet
##erklæret
##ultet
##osmanniske
##forventes
##styrken
##showet
##Pra
##bien
##hjemlandet
##brødrene
##Tayl
##Spa
##Vit
##bjørn
##Sydkorea
##anmeldelser
##hvidt
##arch
##filma
##henrettet
##væsentligt
##fyrsten
##forsyning
##hangar
##1837
##Ful
##cle
##lærere
##iness
##udgaven
##stoffet
##dvær
##søskende
##vinden
##software
##.),
##BK
##geri
##konkurs
##Leipzig
##stic
##delserne
##Frankrigs
##traditionel
##="
##Kurt
##lokalt
##officiel
##1836
##Universitetet
##reklame
##SE
##Tel
##1820
##Parken
##vinderen
##færøsk
##SK
##tius
##pon
##wrest
##Liverpool
##adfærd
##grundlaget
##tilgængelige
##igan
##rykke
##DV
##værts
##ottende
##forstand
##nom
##stemmerne
##samtidigt
##jektet
##Europæiske
##kins
##xi
##indvi
##kommis
##forsøgt
##lektor
##rey
##repar
##længst
##Mike
##risiko
##Litteratur
##foretage
##skreds
##Ivan
##nap
##illede
##vejer
##indik
##Lake
##arrangementer
##intellig
##Mør
##igang
##rug
##Slagelse
##Søl
##indgang
##cho
##hede
##Fore
##Wagner
##adal
##vendelse
##ESCO
##Korea
##omhandler
##agg
##1808
##fortælling
##udspring
##rødt
##ving
##vidste
##Produktion
##Bibliotek
##Nordsjælland
##pagældende
##faciliteter
##Day
##blomst
##udgangen
##bosat
##tilføjet
##antik
##konføder
##shi
##vokse
##rollerne
##dækkede
##køretøjer
##ytte
##hals
##kaldtes
##formue
##Sydney
##Fox
##trykke
##betingelser
##Florida
##etik
##Nyborg
##Seri
##lært
##centralt
##Bladene
##EF
##Sag
##søgt
##fremmed
##musli
##Amts
##modernis
##arkæologiske
##Møn
##Familie
##Way
##eor
##udstillet
##Bell
##gymnastik
##jæv
##fremragende
##herredømme
##parallel
##Hessen
##borgerskab
##ont
##forbindelsen
##specifik
##debutalbum
##pludselig
##los
##kommunistiske
##beordrede
##pause
##byde
##1807
##Bom
##gru
##hud
##ss
##zu
##beløn
##beboet
##Bry
##Jun
##forkort
##syg
##bygningerne
##Hul
##eje
##kond
##Andrew
##kolonier
##pum
##abning
##Sidst
##roy
##1810
##filmene
##Nak
##nutidens
##forbere
##sølvmedalje
##Ap
##Steve
##beboere
##kyn
##amer
##indstillet
##historikere
##kus
##Navy
##trommer
##UNESCO
##OR
##daler
##lænd
##zant
##cykelrytter
##levetid
##Nab
##jyllands
##main
##moderen
##Aust
##værn
##ortod
##færen
##score
##alvorligt
##Middelhavet
##polar
##karakteristiske
##cykl
##lom
##ulyk
##Stone
##Demo
##højst
##følelser
##mægtig
##Bou
##nævner
##alvorlige
##WCW
##350
##irsk
##poster
##Kongen
##vælges
##Hannover
##Hi
##værdig
##Stati
##koslov
##Videnskab
##Grundtvig
##gjor
##hs
##pot
##labor
##tyk
##læste
##rut
##hæm
##dyrkede
##freden
##tusind
##elektronisk
##Ener
##skran
##opføre
##Abraham
##tilsammen
##pavirkning
##forekom
##demokratiet
##Nobel
##SP
##forvand
##new
##galler
##Regeringen
##testam
##kirur
##spillefilm
##1838
##Bibel
##olympisk
##nedsat
##1835
##tidsskrift
##trommeslager
##Skt
##gehej
##Joach
##Færøernes
##Rige
##yst
##skærm
##bryst
##kontroversi
##dorff
##faderens
##turister
##AaB
##Cit
##Ever
##Skal
##internet
##passerer
##flad
##kampagne
##processen
##brændstof
##seg
##urer
##mix
##buddh
##bokser
##Cur
##onde
##mont
##uki
##skala
##jubilæum
##frastruktur
##driv
##Theodor
##burde
##Vesttyskland
##territorium
##.).
##melige
##staterne
##alløjtnant
##teorier
##Zu
##træder
##autonom
##Venedig
##meddele
##forenings
##Orden
##1801
##jura
##Muham
##plynd
##indlemmet
##"(
##Dres
##Hem
##terræn
##Efterhanden
##Grønlands
##tilstrækkelig
##fryg
##Neu
##munder
##komponeret
##engag
##gif
##Stillehavet
##ressourcer
##Mos
##ambi
##akademi
##format
##evt
##bomber
##forsyninger
##voksen
##iks
##ofre
##vande
##Wei
##total
##Følgende
##oxid
##magasinet
##tilbød
##1803
##klippe
##viderus
##Muller
##orf
##holsten
##sammenhænge
##Joachim
##skes
##umin
##dimen
##Doug
##administrativt
##Frø
##Pub
##udvidede
##Gene
##Jr
##Oster
##ost
##bez
##Universitets
##frag
##matiske
##radar
##kejseren
##udfor
##ess
##sættelsen
##1809
##medaljerne
##Minister
##Eksempel
##Taylor
##atletik
##stati
##skuespilleren
##dokumen
##optræde
##Fodbold
##tap
##genhed
##zburg
##barok
##reguler
##færre
##beløb
##stammen
##administr
##tørre
##Mellemøsten
##Hadsund
##oge
##Inde
##Syn
##Udt
##enige
##omon
##ico
##konged
##darlige
##religiøs
##trad
##Jernbane
##Eric
##medens
##betalt
##redig
##hovedrolle
##Sky
##HK
##skru
##uddannelses
##Airport
##fjender
##Margar
##morgenen
##ava
##urol
##itan
##Dahl
##beskrive
##Volks
##preussiske
##afbrudt
##truede
##efterkommere
##Sicil
##aba
##hastig
##Ler
##orks
##udgive
##Lem
##Thomsen
##Metropol
##indtægter
##fære
##inst
##day
##Wilson
##Point
##foreningens
##fætter
##restaurant
##revolutionen
##selvstændighed
##etage
##huller
##racer
##Stephen
##spræng
##Klas
##Kjær
##gæng
##fektur
##Friis
##Lewis
##kontrollen
##vildt
##Bot
##Ton
##Thailand
##insk
##sløj
##ovl
##brændt
##Tak
##bist
##with
##springer
##Petersborg
##stilles
##Donald
##fremtiden
##cky
##domstol
##ffen
##Nørrebro
##Josef
##Luther
##Tai
##nan
##konstat
##Tech
##forfremmet
##Bli
##vikinget
##politikere
##Kroati
##Charlotten
##Fle
##Rand
##matik
##Indre
##fyret
##Hof
##hot
##udstrækning
##Især
##Arkitekt
##sun
##utal
##pendi
##1828
##undervejs
##sammensat
##mistæn
##cell
##arl
##utt
##Slæ
##Tw
##fremtidige
##givning
##America
##Up
##Beij
##Villa
##?"
##PC
##Town
##retter
##Berling
##Spillet
##agent
##Scha
##Elvis
##positiv
##Thorvald
##hoffet
##isch
##naturlig
##guddom
##sby
##overalt
##handboldlandshold
##Jonas
##faktorer
##Dublin
##Trondheim
##Lot
##hip
##datidens
##herfra
##fremgar
##book
##Normand
##Havn
##ærkebiskop
##Cha
##lavt
##hundreder
##variant
##wich
##opbygget
##Historisk
##Politisk
##Golden
##foruren
##dernæst
##rejsen
##atten
##abningen
##nært
##bevæger
##felter
##Led
##1813
##introducerede
##følelse
##tønder
##mers
##næppe
##ballet
##Kanal
##Lincol
##diagno
##forstander
##1829
##aya
##kostede
##Temp
##Rosenkr
##mistet
##refer
##korpset
##ministerium
##sælges
##ße
##lines
##opp
##1812
##Seba
##glat
##sorg
##etniske
##markeder
##Sorte
##bourne
##medfører
##præsenteret
##komponister
##jæ
##pokal
##eds
##efterfulgte
##1834
##grundlægger
##kendskab
##opfin
##provis
##automatisk
##forvaltning
##dollars
##IN
##Rub
##Tam
##mut
##slægter
##underviste
##Johnny
##dynastiet
##BBC
##munke
##pladen
##hits
##overdraget
##Gabri
##atte
##Stefan
##klokken
##smæssige
##Institu
##burgh
##Times
##double
##Bald
##Fem
##seminar
##udform
##vilegi
##nedslag
##skuespillere
##Broad
##Hir
##olde
##hyg
##fremstilles
##homo
##køl
##konkret
##torp
##faldende
##tilgængelig
##Luxembourg
##Kru
##sie
##hvæl
##house
##stiske
##km2
##litau
##Have
##WWF
##Valle
##afledt
##operaer
##individuelle
##Stig
##elite
##oply
##biografi
##biblioteket
##Hold
##skam
##obbel
##mindret
##Hamburg
##Hed
##veter
##dahl
##Dertil
##værksted
##drøm
##processer
##konflikter
##Fro
##agnen
##ason
##Frankfurt
##adj
##mordet
##egenskab
##forsøge
##kunstneriske
##Micros
##overensstemmelse
##LP
##banker
##uddannede
##udtrykket
##ejendomme
##Beijing
##schef
##lejre
##sjælden
##favor
##feltet
##skæbne
##hjerne
##Danish
##ardin
##Kors
##annoncerede
##Fun
##Kos
##skød
##udø
##iregi
##støv
##bop
##Anth
##kow
##Good
##Dit
##afbil
##pabegyndt
##monteret
##spladsen
##Cas
##lør
##bage
##Afghanistan
##opfundet
##opgive
##Thisted
##sarede
##parlaments
##brasiliansk
##strej
##ingets
##iserer
##lovede
##adskilt
##beredne
##Clas
##ademy
##Als
##ligheder
##sejle
##korrekt
##kollega
##Brandenburg
##aud
##stolen
##tillod
##Alminde
##Tang
##deret
##passende
##stoppet
##karakteriseret
##mønster
##tæller
##pianist
##dame
##beviser
##cio
##Floden
##bebyggelser
##srige
##ariske
##huser
##lovgivning
##sangene
##Serie
##Familien
##DBU
##afvist
##abil
##hek
##Historien
##alvorlig
##Moltke
##kunde
##emne
##familiens
##Politiken
##ødelagde
##befal
##vente
##egnen
##Fug
##tilgang
##holdende
##traditioner
##Society
##Rosenkrantz
##Bret
##gær
##tjener
##etableringen
##Kær
##undborg
##Musikkonservator
##Cher
##Sigur
##uft
##Rej
##erfaring
##uanset
##bassin
##Donau
##individer
##genren
##Palæst
##Academy
##arts
##omatiske
##refererer
##asien
##box
##auf
##Entertain
##Kvali
##alfab
##berør
##Studen
##Jep
##Shar
##rigets
##succesfulde
##Kinas
##geografiske
##tendens
##Jordens
##Administra
##kvæg
##²,
##besvær
##api
##Dream
##spedition
##ordningen
##præm
##alliance
##medvirker
##afsløret
##pladeselskab
##etager
##teologi
##benæv
##givne
##fortælle
##nedenfor
##Az
##sunget
##skilte
##vidde
##forker
##teorien
##medstifter
##lide
##munition
##kulturer
##Mikkel
##Hvide
##gentagne
##skiold
##Arten
##Trin
##Bremen
##cd
##hom
##nev
##kali
##museer
##Oluf
##ici
##elighed
##personligt
##Billboard
##iler
##princippet
##tvil
##Castle
##Pu
##cet
##sius
##perspek
##bredere
##Johansen
##sketball
##forsvarede
##soldat
##ekspeditionen
##inn
##slund
##tagelsen
##Christoffer
##Nicolai
##Glad
##argentin
##marskal
##gravid
##eksperimenter
##Tred
##skatter
##1831
##frigi
##Gas
##amik
##Ulrik
##betalte
##svære
##opvokset
##vidner
##1832
##Tidlige
##mmelig
##//
##Hong
##planten
##beskad
##Brad
##spin
##vegne
##head
##murer
##slippe
##European
##misk
##skr
##lægningen
##bøgerne
##Knudsen
##foto
##gros
##sigtet
##søe
##gravet
##junior
##Mesterskabet
##pist
##reber
##olet
##roen
##husene
##kvalifikations
##Ost
##jeneste
##forenede
##løser
##højder
##Rolling
##Grant
##gejst
##Carlsberg
##universiteter
##førstehold
##koalition
##Tyske
##Fan
##Vend
##ulation
##danser
##fonden
##plejer
##juridiske
##Isabel
##Sak
##wi
##overskud
##gammelt
##legat
##forsamlingen
##Oxford
##1826
##generalløjtnant
##Ringkøbing
##henseende
##Karakter
##Ross
##positive
##nogenlunde
##trium
##kunnet
##organiserede
##lærde
##skibets
##statistik
##Shan
##Vladi
##gjal
##avi
##Meyer
##Elekt
##Christine
##Amalie
##Gods
##overordnede
##synge
##vanskeligt
##Total
##Tony
##sammensætning
##Bugt
##Tjekkiet
##uleret
##antrop
##tim
##gifter
##færdigt
##Landsbyen
##episoder
##Stort
##korset
##Parlamentet
##gjaldt
##UK
##ligget
##sikret
##Little
##Koncer
##lokaler
##tegnefilm
##udgifter
##kompagni
##afdøde
##ftræner
##filmens
##lint
##virkelige
##trykker
##Akademi
##Kred
##FIF
##omgange
##peri
##1806
##speciel
##oplevelser
##ury
##113
##ail
##ough
##opbevar
##handle
##divisionen
##fæstningen
##Gunnar
##Resultatet
##Run
##pund
##Christen
##centre
##slap
##skommun
##regerede
##Columbia
##pseud
##IM
##1816
##kurs
##sprogede
##ryttere
##legiet
##velsen
##embede
##motorvejen
##suver
##universitets
##skirken
##betjent
##AM
##maskinge
##branchen
##%,
##vinger
##yre
##temmelig
##digital
##Herre
##avancerede
##Cong
##plig
##onkel
##grundlov
##Boy
##ofon
##busk
##truet
##Trans
##angivet
##fordeling
##Davis
##Rag
##internettet
##guder
##Charlie
##arkitekten
##israelske
##ID
##Kunstakademiet
##Pul
##tømmer
##konsekvens
##medaljen
##dikt
##intern
##Schle
##retssag
##østrigsk
##avik
##farvet
##lukke
##broer
##Hag
##pans
##fabrikant
##Natura
##Lincoln
##.&
##regent
##tiltradte
##Konservative
##bevæb
##gum
##his
##ume
##hei
##idømt
##løsla
##Design
##praktiske
##principper
##Malt
##forklaring
##søgning
##Kommandør
##Nyt
##vre
##1818
##oba
##veksling
##sylvania
##aton
##lyder
##States
##Elec
##enz
##vandring
##tekstil
##Teatret
##volde
##Ord
##universet
##Køb
##edral
##fakt
##Formalet
##Harris
##klosteret
##from
##Helsin
##pression
##filosofiske
##Skander
##blandede
##omvendt
##synet
##tykke
##centi
##stammede
##aber
##skrivning
##Birg
##spænding
##indholdet
##gennemgik
##søndag
##udviklings
##administrerende
##afgørelse
##dater
##oker
##signaler
##ellen
##rapper
##ador
##udenrig
##Arts
##arth
##Valg
##kombineret
##betydningsfulde
##08
##ental
##cius
##udendørs
##vandløb
##kritiske
##Mose
##kommercielle
##Djur
##Sma
##dentlig
##Højde
##Ji
##tningen
##vst
##wal
##kirkelige
##ATP
##Cross
##pigen
##understøt
##datteren
##eksistens
##situationer
##undervisnings
##Entertainment
##Kvinde
##arer
##hart
##boet
##synger
##ovan
##opdager
##kiat
##Hellerup
##cafe
##indr
##gern
##mandater
##løfte
##bolden
##forsvarende
##Brug
##name
##skyn
##dækkende
##Tennes
##Dø
##kig
##Forskel
##Brown
##Bruun
##trussel
##Derimod
##ateau
##brecht
##Service
##mønter
##renæssance
##.:
##Ash
##raa
##sigter
##nyheds
##Wis
##ventet
##fremtid
##præsten
##skriften
##kvalificeret
##Sas
##Vas
##1824
##amerikanere
##Torshavn
##Tids
##undtagen
##Sovjetunionens
##sædvanligvis
##udføres
##opsta
##haus
##organismer
##menneskets
##forretninger
##Eti
##hent
##phil
##hara
##nedbør
##benævn
##tegning
##dragelse
##Bjar
##stej
##traf
##objekter
##Samuel
##arkitek
##buk
##dale
##Stones
##blo
##Banen
##klokke
##kug
##medlems
##Tog
##Upp
##sipp
##vitj
##1833
##ryggen
##Demokra
##Lauritz
##Of
##best
##hurtige
##Sax
##enorm
##Douglas
##koret
##jøde
##Brid
##wen
##søerne
##oprykning
##Nordafrika
##Kirsten
##DJ
##ute
##utere
##opgivet
##bly
##kritiker
##takket
##county
##sev
##landbruget
##dømte
##stærkere
##landsbyerne
##Nel
##defen
##hæve
##regeringens
##Warsza
##adop
##ordfører
##Russiske
##semifinalen
##Cer
##Cel
##underskrevet
##søkonom
##barnet
##Moz
##svagt
##betydningen
##firer
##konkurrencer
##Apol
##EN
##luther
##endog
##lovet
##sønder
##fundament
##cykler
##sammenlagt
##svage
##slave
##Kalundborg
##Trafik
##Berlingske
##ulf
##ventede
##jordens
##smalle
##sammenlignet
##Pav
##agu
##ulu
##obser
##reglen
##Fog
##Us
##skør
##Roy
##regner
##Bach
##dukkede
##stændigt
##Riga
##besættelsen
##Atlanterhavet
##flader
##afhandlinger
##virus
##konserva
##Cham
##itiv
##Landst
##løsningen
##oprøret
##ansigt
##pape
##Nordjylland
##forsvarer
##manglede
##udnævnte
##1790
##urs
##itær
##ønsket
##instruktion
##skarp
##Arch
##punktet
##reservat
##afsat
##ilde
##blæ
##valgtes
##Halv
##eksklu
##lser
##stres
##terende
##værdige
##garnis
##domme
##forestilling
##frekvens
##Højskole
##Tekniske
##musikalsk
##forlig
##hvorvidt
##Corpor
##vn
##vinge
##skaret
##lanceret
##statslige
##fangst
##tighederne
##nødvendigvis
##ient
##minim
##kemisk
##Pad
##1819
##Jersey
##indkøb
##hards
##1825
##indbyggerne
##nøje
##arvede
##forar
##ungen
##maleren
##syntes
##eselskab
##antages
##pilot
##kongeriget
##Bulgarien
##sner
##ammunition
##befandt
##indfødte
##henret
##forenet
##trængte
##light
##ief
##Bjerg
##Ges
##asia
##grus
##idi
##besta
##solen
##Østerbro
##Jordan
##P3
##ouble
##udryd
##Boston
##AN
##ovo
##egnet
##præster
##Ringsted
##Ball
##spa
##klam
##lagdes
##hemmelige
##Microsoft
##Tennessee
##Raf
##hvorimod
##rækken
##stallet
##Matt
##sammenhængende
##Mot
##begreber
##hovedkrateret
##styring
##muslimer
##Fen
##cist
##øbet
##brune
##andene
##tilbageven
##strømmen
##Kristus
##sviger
##reich
##forsanger
##rumæn
##generelle
##møllen
##AR
##kum
##cheftræner
##vanskeligheder
##bug
##mot
##liden
##Braun
##konsulent
##mani
##Vestre
##ægteskabet
##1811
##mouth
##Boe
##1805
##strenge
##infek
##konference
##associ
##illes
##tir
##Malmø
##patrul
##But
##foged
##laborator
##Tob
##opel
##sekter
##Tivol
##Missis
##skytte
##Sn
##Sne
##antag
##ansættelse
##Formel
##ejere
##roll
##Julie
##09
##ikal
##islandsk
##markeret
##Slov
##TC
##udvalgt
##alth
##"".
##Islam
##wick
##oga
##blød
##mønt
##Rh
##Za
##umb
##kald
##Hermann
##porten
##Hovedstaden
##stændigheder
##dukker
##sala
##inklusiv
##Sicilien
##Tab
##zek
##relev
##stes
##geomet
##ions
##Tjekkoslov
##Rend
##arup
##forlaget
##udvalgte
##ulær
##byzant
##stream
##begrænsede
##Julian
##Jyllands
##stole
##forvir
##værne
##romansk
##vinduer
##domineret
##bakterier
##Mir
##iale
##almen
##fordele
##reag
##lufthavnen
##fylder
##golf
##enburg
##Storm
##nationalpark
##skiftende
##Queen
##Flemming
##jes
##ferens
##tusinde
##Hvidovre
##ido
##yderste
##Major
##fartøj
##Antark
##bezirk
##Institute
##05
##Ove
##Antallet
##romerne
##opfattes
##kategorien
##udnytte
##Yderligere
##lah
##overhovedet
##kirkegard
##rukne
##Kroatien
##ihjel
##flyver
##Sche
##kunstnerisk
##Dannebrogsmand
##Bedste
##enorme
##Mississipp
##Walt
##Østre
##amts
##1804
##Poly
##Produc
##brænde
##forbedret
##Fabrik
##Fag
##Maler
##udfol
##henvisning
##ledige
##regeringstid
##sklas
##togene
##tidsskriftet
##Rhinen
##veri
##spilletid
##Englands
##edia
##omtale
##højskolen
##Wild
##Metal
##begravelse
##Sene
##aftaler
##ology
##helhed
##burger
##Olden
##finansielle
##indføre
##løses
##ria
##indendørs
##væsentlige
##tillader
##Mount
##Flam
##nens
##holmen
##begav
##hypo
##1802
##cirkel
##eksisteret
##enighed
##læder
##relation
##fysi
##lykkes
##miljøet
##akker
##markerede
##canadisk
##forhandlingerne
##Nam
##Psy
##reelt
##rive
##sinstitution
##hente
##ologen
##ways
##Jy
##dad
##halt
##erungs
##afhænger
##koncep
##forbunds
##;/
##Ida
##melodi
##selskabets
##køns
##Skanderborg
##xen
##størst
##kendetegnet
##etats
##indtradte
##sation
##vedvarende
##liters
##Lubeck
##svenskerne
##reformationen
##kommunist
##besiddelser
##Pennsylvania
##Eu
##udarbejdet
##vering
##fuldstændigt
##Australian
##frik
##fint
##shows
##Normandiet
##ique
##arrest
##tie
##kommentar
##svømme
##industrielle
##desto
##glæde
##velt
##gotisk
##opgaven
##Benj
##palæ
##Frugterne
##sygdommen
##formodentlig
##Grammy
##sgaard
##worth
##respekt
##regerende
##tros
##Milano
##vognen
##konstrueret
##embedsmænd
##ødelægge
##Deutsch
##Rør
##1821
##istik
##cion
##ladet
##Michel
##Serbien
##Gruppe
##Frej
##forman
##ffel
##Sym
##kandidater
##Rudolf
##Skar
##vade
##elius
##hovedparten
##arkiv
##fortællinger
##omstændigheder
##opsat
##kejserlige
##Vide
##øger
##læger
##sælger
##behandlet
##Singap
##Hugo
##Lag
##Rene
##beskæftigede
##Helsinki
##State
##oplysning
##øster
##stone
##fornu
##bestil
##1817
##præfektur
##planlægning
##produceres
##vore
##klip
##Dresden
##iregiment
##Pit
##Alligevel
##kompli
##dyrket
##embedsmand
##symfoni
##anse
##overvag
##orienterede
##Beteg
##simpelt
##besætningen
##Bond
##aa
##ingsvalget
##Fritz
##Solen
##menterne
##farten
##Opera
##dru
##æder
##stak
##gaver
##nordligste
##XX
##bent
##tilvækst
##fremstillede
##Rein
##oprettedes
##Atlet
##Kenned
##korrespon
##DVD
##ence
##forveks
##holdninger
##spillerne
##Blomsterne
##Programmet
##Spring
##bæn
##sninger
##elli
##bronzemedalje
##platin
##forløber
##lak
##streng
##scyk
##afor
##certi
##højest
##tidsskrifter
##nederste
##voldsomme
##Ungdoms
##OB
##begrun
##1795
##Sebastian
##wh
##privilegi
##kommandant
##accepterede
##Viktor
##folketællingen
##maskingevær
##freg
##ote
##eti
##sachsen
##Holstein
##1789
##Arbejds
##kapitel
##aggres
##Ske
##kaffe
##forme
##Skj
##firmaer
##Disk
##Gord
##euro
##wall
##prægede
##Arhundreder
##opretholde
##cou
##forest
##Barbar
##voldsomt
##fjeld
##Domin
##Mere
##reflek
##parter
##fekt
##objekt
##amerikanerne
##Bladet
##foreløb
##Fron
##indskræn
##konsol
##tyve
##Frans
##Hell
##borgerlige
##sovjetisk
##ungarske
##work
##uddelt
##kommissionen
##Artier
##bladene
##katolsk
##Dyb
##klædt
##jeld
##dialekt
##slutrunden
##Game
##1770
##Børne
##kompagn
##Palæstina
##Ting
##tang
##langvar
##hertugdømmet
##muren
##ferencen
##Alice
##floderne
##digitale
##1827
##1660
##Back
##Pap
##Shi
##bræ
##infrastruktur
##fortalt
##ligak
##synd
##elektric
##bekræftet
##Distri
##ordingborg
##etatsrad
##omtalte
##krigstiden
##designer
##schweiziske
##Varde
##erobring
##stræde
##kasse
##bogstaver
##Mississippi
##Aqu
##Fur
##gender
##komponerede
##scorer
##computere
##Største
##Benjamin
##Adri
##anser
##opbygning
##lant
##Marx
##strukturer
##Alliance
##Lav
##Vordingborg
##HMS
##dobbel
##Æl
##Burg
##Bull
##Modellen
##www
##Ohio
##Sum
##udskiftet
##ventil
##Beck
##112
##Løg
##sell
##ampton
##lyk
##Vendsyssel
##oversigt
##omkringliggende
##reglerne
##Sound
##1793
##beslægtet
##hukom
##halvø
##gradvist
##Antonio
##Krag
##forgæ
##slutspillet
##Kilde
##anbefal
##LO
##Rena
##UC
##museets
##hitliste
##myndighederne
##forplig
##illi
##deleg
##adresse
##symptomer
##forgæves
##opvarm
##sløse
##nedre
##rone
##fredede
##FIFA
##arvs
##mexic
##tanken
##Christiania
##Orle
##seriens
##gaards
##købstad
##Syge
##skuff
##Corporation
##Wall
##ift
##antog
##sekond
##intelle
##pattedyr
##Klaus
##skandinaviske
##Cuba
##Fame
##ður
##danskerne
##skikkelse
##kategorier
##rice
##There
##fjenden
##Cli
##bye
##right
##musikvideo
##tredjedel
##Privatliv
##bjør
##shøj
##rigsdaler
##adskilte
##premierløjtnant
##Massach
##Fak
##smed
##genrer
##magter
##billet
##udøver
##kulmin
##Erhver
##drengen
##Boli
##dialek
##Kit
##ødt
##say
##holdnings
##tokol
##semifinalerne
##aria
##tillid
##rami
##udstillede
##Moder
##bevæge
##beskæftiget
##Fischer
##Latin
##450
##sale
##tos
##Arsen
##boende
##mongol
##økonomien
##kræve
##1799
##Juan
##fjernsyn
##Viggo
##Series
##omsætning
##fastlandet
##uch
##kansler
##værdien
##repræsentation
##bos
##maden
##hvormed
##oko
##beliggenhed
##Orleans
##Wurt
##Yn
##tia
##kont
##grebet
##bestemmelser
##suveræn
##Kh
##Rot
##master
##hovedrollerne
##laves
##naturligvis
##wee
##midlertidigt
##astr
##fing
##beholde
##Skjern
##ministre
##Fredrik
##strækninger
##interesserede
##konflikten
##Niedersachsen
##værktøj
##Hom
##Jel
##indebar
##storff
##stemning
##Skue
##felttog
##Socialdemokratiet
##bønderne
##Højesteret
##deløbende
##Salt
##mme
##skampe
##Alber
##færgen
##rækning
##belast
##falsk
##almindeligvis
##Guy
##Richards
##spændende
##usetts
##lage
##placere
##svampe
##arving
##htt
##hjørnet
##Lod
##”"
##stekn
##Carsten
##forsikrings
##Massachusetts
##sned
##indien
##Relig
##Øl
##afvig
##sigts
##stipendi
##rune
##Ruslands
##Grev
##Mikkelsen
##Antarktis
##rigtigt
##sangeren
##licens
##lød
##anfører
##Kirk
##Hjort
##flit
##forvejen
##residen
##dimit
##Marok
##bugt
##radikale
##drager
##repræsentere
##koreanske
##xelles
##Tv
##uhel
##oblig
##vandre
##sporten
##motorvej
##Andrea
##militæret
##erstatte
##totale
##simple
##skotsk
##Organisationen
##fikke
##antyder
##rier
##nock
##misbrug
##videoen
##psyko
##germanske
##intellekt
##Hay
##OC
##frek
##rix
##forskelligt
##franskmændene
##trækning
##ais
##ous
##beh
##icap
##statsk
##saga
##resterne
##Canad
##cirkul
##cylind
##DP
##foden
##bety
##rednings
##klubplan
##kampagnen
##falz
##flytter
##sforhold
##omgivelser
##forskningen
##korstog
##Conrad
##medicinske
##Endnu
##bombarde
##%)
##uz
##bestræ
##artus
##mesteren
##skygge
##erungsbezirk
##Hjer
##sans
##stim
##tisme
##klæde
##1788
##umuligt
##Volksw
##Sort
##hoe
##Roose
##vidne
##Morris
##ække
##rente
##Christiansborg
##aktuelle
##forbrydelser
##EG
##Klok
##cup
##konsekvenser
##Ellen
##eksper
##Georgia
##Kevin
##Special
##Adams
##tilstrækkeligt
##Blan
##Pyr
##dret
##1792
##://
##HL
##forlader
##velserne
##gørelsen
##Medal
##ficering
##Hakon
##japanerne
##erhvervede
##Bruxelles
##sørgede
##kgl
##peratur
##Revent
##sejlads
##attle
##SM
##ain
##stag
##arbejderne
##velly
##døren
##krystal
##prøvet
##bombefly
##symfonier
##flyvninger
##tum
##ukendte
##efterladt
##kristendom
##Business
##alternative
##slinjer
##demokraterne
##Alan
##Gret
##forstas
##stemp
##spekter
##Kilder
##Smal
##oller
##ammen
##samles
##husets
##Fransk
##helgen
##navnene
##hrine
##1776
##Light
##Wik
##gate
##skand
##beretning
##Free
##Dagen
##mem
##undne
##trold
##Hertil
##styres
##republikken
##effektivt
##smule
##ires
##miske
##ties
##overhoved
##dommere
##kommunens
##seksuel
##RK
##binde
##ual
##kommunikations
##Antwer
##beslutninger
##benævnt
##esi
##hren
##retur
##holdets
##manuskriptforfatter
##gennemsnitlige
##jurist
##illustration
##skjult
##udbud
##indebærer
##ovs
##Aleks
##palæst
##Potter
##sele
##dia
##adelige
##stasien
##læses
##presset
##tliggende
##forandring
##nøgle
##Buk
##atra
##forklare
##Styr
##masser
##Simp
##medicinsk
##Cambridge
##forandringer
##partikler
##evig
##ints
##indeholde
##minton
##togsæt
##bay
##Manens
##tempel
##eventuelt
##Pakistan
##beund
##aby
##krøn
##idræt
##væske
##handlingen
##1797
##socialistiske
##laveste
##formula_1
##orienteret
##Emma
##centimeter
##Your
##skelse
##lau
##specifikke
##regional
##Billy
##NFL
##holdte
##trone
##sistens
##kompositioner
##præsidenten
##verdensplan
##regeringer
##kontorer
##kavaleri
##dedik
##elen
##udsagn
##Derved
##graden
##fried
##tank
##jordiske
##omfatte
##pulje
##portugisiske
##Down
##ett
##skomp
##Albrecht
##statue
##Rønne
##Erhvervs
##komplet
##relationer
##fæstet
##ortodokse
##omi
##hvornar
##klø
##fiktiv
##Herfra
##haw
##aco
##Clausen
##effektiv
##umen
##tilslutning
##sigende
##interne
##ledon
##1794
##IP
##Nr
##cket
##bys
##1822
##Kristensen
##overraskende
##Margaret
##Wimb
##pavirke
##kante
##sprogram
##knude
##Vladimir
##Tjekkoslovakiet
##ML
##Shang
##krisen
##1780
##appel
##mandat
##Guine
##kammermusik
##slette
##Women
##aren
##udru
##undertryk
##fredag
##lins
##basketball
##voldsom
##Børn
##Mortensen
##ordene
##ilen
##overgangen
##tættere
##Frue
##landskaber
##havets
##branden
##leverand
##bokse
##tegneserie
##Stavanger
##kj
##Schu
##Miljø
##stræner
##Fyns
##sognet
##ulige
##paven
##spart
##indsatte
##Melbourne
##karakteristisk
##Roosevelt
##114
##nævne
##klassik
##ledningen
##Finlands
##rigsministeriet
##tilbudt
##Clo
##opstilling
##vindende
##barhed
##bevægel
##bassist
##Brother
##maleriet
##maneders
##smæssigt
##komplekse
##Avisen
##Jæger
##Kvinder
##høn
##minal
##Kritik
##Torben
##forelæs
##temaer
##annonceret
##aflej
##Syddanmark
##salon
##ktorer
##spurgte
##Aaben
##Log
##Vid
##rerne
##skub
##inddeling
##nemt
##imøde
##Allan
##passet
##Christiansen
##stamning
##Maxim
##melsen
##uka
##mile
##tilbageværende
##løsninger
##kunstneren
##diplom
##Reventlow
##Wimbledon
##Munk
##omend
##tograf
##ylon
##ukket
##biologiske
##kirkegarden
##Olaf
##Klubbens
##Napoli
##stur
##forslaget
##bygden
##Marcus
##planlagte
##nyeste
##forfatterskab
##antikke
##nabol
##Lady
##Testam
##Nag
##Wedel
##ekstraordin
##rekorden
##svæk
##istika
##Anhalt
##langsom
##Hellig
##Jazz
##typiske
##tyrkisk
##anmelder
##Shake
##overgav
##præstation
##beder
##vestlig
##seksamen
##doktorg
##ype
##drop
##erfaringer
##skere
##onne
##bemærket
##grafik
##sydpa
##Cecil
##Krigen
##Arnold
##stæng
##medierne
##oprettelse
##skyldig
##Unionens
##stegn
##Hat
##Sop
##Tag
##oe
##oster
##teren
##assen
##Marian
##auer
##Guadal
##07
##Vog
##indisk
##uto
##klaret
##Andet
##mure
##niens
##protein
##legnet
##forsvundet
##mejeri
##Francois
##tagen
##hensigt
##Norde
##deltagerne
##Sports
##opfordrede
##realitet
##luck
##bestemme
##Gaden
##Abd
##landevejscyk
##Eva
##Mang
##Uru
##tiende
##skrog
##eda
##kronen
##skrevne
##menneskelig
##Side
##Marine
##producenter
##inkluderet
##kriminal
##billedhugger
##sekondløjtnant
##EL
##Kop
##hier
##inus
##udformet
##Anvendelse
##125
##Leo
##born
##jordskæl
##Anderson
##formelle
##tilpasset
##210
##IX
##kler
##opti
##lans
##højet
##Roman
##faglige
##Salomon
##bølger
##jarl
##drevne
##uminium
##Betegnelsen
##Græn
##ørn
##iseres
##lap
##konferens
##Domkirke
##black
##identificere
##Konstantinopel
##fantasi
##Ey
##menterede
##ents
##fremad
##Beau
##dyrkes
##1772
##dygtighed
##arsagen
##nordpa
##rækkefølge
##cering
##Melodi
##militært
##pokalt
##Otte
##prest
##arskrigen
##pastor
##præcist
##blues
##rogen
##Moderne
##ells
##Dorothe
##Sj
##tøm
##temberg
##science
##sorden
##bidraget
##Space
##Udtrykket
##Iron
##forhen
##generationer
##mislykkedes
##evaku
##niveauer
##deltagende
##bachel
##sammenligning
##anklaget
##Kennedy
##kle
##oul
##Kirkens
##spartiet
##alfabet
##Fern
##MG
##indgangen
##facel
##itive
##fredaktør
##Firmaet
##Akademiet
##skaffede
##Das
##markante
##Nordvest
##Typ
##omradets
##symmet
##prinsen
##frugter
##ejendoms
##middelalderlige
##hertugen
##mindretal
##Fris
##Iver
##Lom
##witz
##nordsiden
##færds
##Party
##Antwerpen
##Wen
##rerer
##Peru
##tropiske
##1798
##mursten
##Naz
##opmærksom
##skirke
##Astronom
##steori
##hebra
##immun
##Information
##digtet
##kult
##traktat
##versionen
##Christianshavn
##konkluder
##Churchill
##06
##Gru
##ogi
##alm
##sammenlægning
##Sjællands
##forklarer
##tydelig
##negative
##Patrick
##Aabenraa
##hjernen
##atol
##uez
##Scot
##stikker
##tyng
##bekræftede
##Sub
##Bruce
##ekstremt
##Lej
##beskyttede
##monument
##Gladsa
##Even
##ceres
##europ
##has
##støb
##Skot
##Media
##fasc
##integreret
##Mind
##aster
##nerede
##stock
##oman
##Syste
##ssted
##itære
##meteor
##embedet
##atoren
##1796
##inspirerede
##Singapore
##gis
##Arm
##grønt
##Halle
##Kant
##efternavn
##akke
##hovet
##hermed
##Forlag
##belejring
##geografisk
##Bodil
##pommern
##syrer
##heavy
##navig
##tika
##skadet
##ekspan
##schen
##Roms
##pressen
##phia
##fokuserer
##dygtige
##demonstr
##indtægt
##Syl
##lof
##øren
##uddøde
##1823
##dance
##Valby
##socialt
##annek
##AD
##Hoff
##Tul
##afstamning
##opperne
##opsamlings
##følgen
##trænings
##USS
##Maj
##sande
##hære
##insekter
##edyg
##stier
##Fonden
##hyppig
##KF
##bec
##Anthony
##Cav
##Din
##Ærø
##ophævet
##høvding
##kortvarigt
##Fat
##Sloven
##minor
##erenti
##dragt
##rangliste
##Web
##forventede
##Speci
##temperaturer
##venskabskamp
##Kid
##dinge
##glim
##ualitet
##kolonien
##California
##downlo
##Warszawa
##Gard
##ligning
##oda
##neth
##Flyve
##Volkswagen
##Lut
##tninger
##ophav
##logo
##Fjorden
##anført
##edy
##Forum
##Skagen
##Jacques
##Cuppen
##Statistik
##utilfreds
##fød
##ressen
##døgn
##Kasper
##indledt
##Ligaen
##veksel
##dollar
##dum
##pioner
##uheld
##adset
##begaet
##voldt
##Airlines
##Frederikke
##himlen
##ethvert
##ismens
##samarbejder
##ængde
##kart
##stødte
##affald
##Planten
##discipliner
##forræ
##unt
##styrkerne
##propag
##skydning
##lane
##herskende
##imple
##Nordsøen
##alismen
##kvalifikationen
##strategisk
##brigadegeneral
##diskuteret
##frekven
##Rundt
##pur
##cise
##kommunale
##mønstre
##Stadium
##modificeret
##Hviderus
##enze
##Alperne
##bahn
##helte
##færdsel
##hjemmehørende
##massa
##Cho
##Marsh
##ydningen
##gennemgaende
##læst
##Colom
##unionen
##trænge
##bebyggelsen
##Lande
##RC
##opgrader
##alede
##smit
##Tradition
##kritikere
##temperaturen
##Dark
##iagt
##vier
##nederlandsk
##Korps
##fødevarer
##gymnasiet
##Howard
##dalene
##lovgivende
##globale
##angar
##betinget
##Anlæg
##boe
##væggen
##vurdering
##Kristiania
##Hobro
##Kvar
##cour
##amtet
##rumme
##Beach
##Tennis
##konfødererede
##Rat
##wrestling
##enge
##drejede
##Theatre
##Mitch
##egyptiske
##engageret
##mol
##afgr
##itiske
##Gladsaxe
##Bam
##Graf
##Hval
##lunge
##baret
##klarede
##frygtede
##ive
##isa
##sæder
##Lev
##operaen
##bestemmelse
##Opvækst
##arbejdskraft
##Jeppe
##Nick
##Piet
##uin
##indire
##stilen
##Tibet
##Matthe
##opførelse
##Firenze
##orkesterværker
##Junior
##Rab
##Rets
##Saf
##sidig
##lation
##positioner
##koncernen
##føderale
##Klein
##BO
##NO
##ito
##monopol
##aktioner
##ombord
##vejede
##overgaet
##stationeret
##Buck
##brogade
##ejendommen
##beretninger
##04
##Cab
##ED
##ankommer
##aterede
##liggender
##ulære
##mandskab
##færdighed
##Found
##psykologi
##Bush
##Fall
##Pot
##Satur
##komiker
##fremskridt
##Resten
##regning
##Carlos
##Vene
##Æg
##skland
##atel
##udmærkede
##følgelig
##kadet
##hidtidige
##mælk
##vikingetiden
##canal
##Montre
##ordentlig
##Lokal
##værste
##farven
##onenter
##Tidende
##tænder
##Hjemme
##hyppigt
##VII
##ride
##kommerciel
##leres
##ankomst
##reen
##udgik
##ulerede
##teknikker
##kraften
##udbruddet
##Økonomi
##AP
##glad
##afgift
##uda
##faren
##Mach
##kontrollerede
##fakultet
##australsk
##imperium
##Uppsala
##Marokko
##RO
##gnet
##tilnavnet
##bærende
##Ekstra
##Sidstnævnte
##onerende
##straße
##folkeafstemning
##psykiat
##Rav
##dun
##anbragt
##udan
##nutiden
##Marc
##hovedby
##come
##Urugu
##prestige
##Birk
##Hugh
##ingrad
##hern
##restauranter
##acceptere
##Hund
##inas
##Reyk
##Skul
##kurser
##salget
##kopier
##Studios
##platform
##indirekte
##stk
##isation
##flanke
##forbillede
##svare
##lash
##missions
##Ged
##Mest
##aw
##dv
##yper
##aki
##landsdækkende
##atorisk
##stopper
##nederlandske
##undervisningen
##hyr
##støj
##1750
##midte
##restaureret
##Ec
##Rø
##indo
##endestation
##delses
##tigelse
##indenrigs
##kendetegn
##ovenfor
##missioner
##fædre
##menneskeret
##Wurttemberg
##Dyn
##UM
##chaft
##kernen
##personale
##Morgen
##apel
##Manu
##falds
##spore
##sandsynligt
##symboler
##bisped
##barnebarn
##SV
##vabnet
##lerød
##user
##mellemrum
##følges
##vanding
##sydsiden
##Konkurren
##elektroniske
##midtbanespiller
##inviteret
##CP
##Rie
##komment
##Rev
##velgør
##bevidsthed
##æde
##ettet
##lids
##itat
##sino
##marmor
##fremstar
##kronprins
##Dyre
##forsikring
##Rendsborg
##behøver
##air
##mom
##ches
##underviser
##gardens
##impor
##synspunkt
##Brød
##mangfold
##diplomat
##forstyrr
##afskaffet
##Power
##Tos
##WTA
##lob
##unik
##rifter
##itor
##stridigheder
##Sibi
##destroy
##fornyet
##fjendtlige
##Ok
##befon
##sigten
##keren
##Schwar
##ladsen
##chefen
##problemet
##Bjerre
##Atlanta
##ulykken
##Cou
##Gon
##teologiske
##leveres
##begej
##løve
##børs
##Oliver
##Jomfru
##æra
##Chal
##bringes
##Apple
##lørdag
##understøttelse
##"'
##Niger
##Pant
##varsel
##efterspørg
##nerve
##Franklin
##tyskere
##1787
##Bonde
##observationer
##ceremoni
##Lagt
##Sup
##Ug
##iver
##amter
##understre
##handicap
##strene
##boy
##Master
##behandles
##Stanley
##manuskriptet
##bler
##ræer
##dialog
##metro
##chefredaktør
##Kai
##totalt
##jævnligt
##folketingsvalget
##missiler
##diskussion
##__
##amen
##Inc
##korrup
##arko
##emig
##affy
##opførtes
##forrige
##værnet
##Death
##tenberg
##stilstand
##Revolution
##turisme
##fiction
##Catal
##inkluderede
##Arsenal
##hall
##runder
##oplever
##Sted
##Radikale
##Ældre
##Guadalcanal
##Valen
##klor
##organer
##positivt
##evnen
##panel
##vægge
##fjende
##forhenværende
##Sho
##sidenhen
##hængt
##porte
##Jimmy
##forkortelse
##Arag
##beslutter
##interval
##ognos
##trykket
##fløjen
##hjertet
##Slovakiet
##Mem
##Mong
##ody
##lider
##døre
##epi
##116
##AL
##løg
##broderen
##vægten
##bulgar
##Sogne
##dinger
##ørede
##undersiden
##indehaver
##malinger
##Philadel
##Bernhard
##Pia
##sædet
##Repræsen
##graven
##Copa
##traditionen
##studeret
##formalet
##tennisspiller
##Gyldendal
##Dort
##Kate
##cerne
##stæt
##udbygget
##Arbejder
##peger
##Professor
##adet
##øber
##tech
##steget
##lering
##kantet
##metoden
##kampvogn
##Part
##aluminium
##koncept
##middag
##Sep
##folkeslag
##beskytter
##sælgende
##introduktion
##fungeret
##birolle
##rustning
##Muhammed
##Wy
##zhou
##orator
##levering
##retningen
##koden
##ficeres
##ights
##gymnasium
##Ørsted
##junker
##Venez
##220
##Gang
##Tower
##pit
##derup
##føler
##væv
##redskaber
##fodboldt
##scoret
##sygehus
##skildrer
##øverstkommanderende
##tiderne
##borgerkrigen
##arealet
##Glob
##Dir
##GB
##Tør
##klan
##stang
##stjal
##kanter
##ylle
##nedgang
##Frances
##Galler
##vanskelige
##slinje
##Gis
##tnings
##Rober
##ivrig
##fejlag
##1784
##mesterskaberne
##religions
##udgives
##Ara
##mv
##ank
##spion
##tænke
##Giovan
##trinbræt
##doktor
##Austin
##(;
##medføre
##chok
##brydning
##finansieret
##Eksempelvis
##Palle
##aspekter
##rine
##storhed
##1791
##Margrete
##indspilninger
##udskift
##opleve
##aborg
##tret
##trav
##Bornholms
##forarsaget
##lændinge
##Dorothea
##"”
##HT
##Sant
##Søen
##Von
##walis
##afslog
##nej
##bekæmp
##indførelse
##værelser
##Anker
##planlagde
##Norsk
##kompleks
##dyrke
##videnskabeligt
##Face
##gulvet
##effekter
##negativ
##Stalin
##asiatiske
##Are
##Kry
##fB
##seng
##Stol
##Stri
##grupperne
##dokumentarisk
##cra
##lus
##zoner
##edik
##omring
##udskilt
##fragt
##indførelsen
##højden
##Helge
##kontrakten
##variation
##jernbaner
##forkert
##Dren
##IL
##Jup
##nic
##reste
##sprang
##malere
##hjemland
##fangen
##Stockholms
##Shakespe
##rop
##skit
##Dead
##Balkan
##frivillig
##tilstedeværelse
##smerte
##District
##Testamente
##anatom
##arist
##kancelli
##sejler
##fersk
##Jeff
##Bibelen
##TU
##mologi
##tilskud
##rade
##forbræn
##romanske
##næring
##misly
##News
##Stedet
##Salzburg
##spiration
##forpligt
##Janeiro
##Yorks
##wel
##teket
##indspille
##akust
##ologier
##produktioner
##proteiner
##lokomotiver
##Musikkonservatorium
##tort
##kryp
##næse
##sydligste
##grønlandske
##romantiske
##1771
##virkelighed
##Tredje
##opvarmning
##Abel
##Bjor
##Oprin
##udad
##males
##Allen
##selvstyre
##historikeren
##velhavende
##cock
##protester
##Northern
##Ster
##deci
##skind
##farvede
##tigheds
##medlemskab
##vicepræsident
##skønhed
##fysiker
##Fiat
##tat
##ando
##statist
##frisk
##Parad
##ladning
##tarne
##ground
##Uruguay
##dab
##anlagde
##omtaler
##urg
##overen
##slu
##stemt
##soundt
##opfordring
##uafgjort
##oniske
##progres
##Color
##portugisisk
##Deutsche
##edr
##fortid
##forstod
##udbrød
##immig
##kalen
##bou
##aktier
##bælt
##byrd
##dværg
##bret
##nad
##reddet
##organist
##weig
##klit
##sadant
##legeme
##besejre
##stærkeste
##molekyler
##perspektiv
##tyngde
##Av
##Bram
##biske
##cur
##forstad
##isot
##bard
##dreje
##ændrer
##hævn
##(),
##Galli
##Tune
##aske
##nyheder
##kursus
##sportsgrene
##eksperiment
##bestyrelsesmedlem
##360
##Act
##Hind
##Odin
##krigene
##1775
##administrationen
##imponerende
##drejning
##Khan
##vac
##Stam
##tagelser
##kritiserede
##Frederikssund
##eleverne
##Gustaf
##First
##Flander
##Glen
##artet
##overtagelse
##ordrer
##oldater
##fiktive
##Armen
##kurin
##folkeskole
##Human
##islamiske
##Philadelphia
##Ral
##behandler
##blat
##stringen
##forskellen
##guer
##TV2
##opfattet
##Bernard
##RS
##græk
##bekæmpe
##fremkom
##klassic
##stave
##Laura
##Ideen
##Rantz
##unger
##hovedperson
##invasionen
##tilføjede
##Jay
##Veg
##dninger
##skunst
##essel
##undergrund
##tril
##lyden
##1774
##pavirker
##dannedes
##Christina
##fril
##kommissær
##Almindelig
##Sikker
##jas
##sant
##landes
##farlige
##skribent
##poesi
##Samfund
##englænderne
##Miss
##attent
##usædvanligt
##anna
##uddeles
##rium
##sides
##falske
##matematiker
##skulpturer
##Stationsbygningen
##anstalt
##hovedværk
##Norr
##ografiske
##Goog
##Vesterbro
##Nils
##Wald
##siderne
##Herudover
##fordelingen
##erobr
##Reykj
##Cæs
##gale
##skæg
##udfører
##getøj
##yngle
##fæstede
##integra
##separat
##Ege
##oi
##ree
##ummet
##marin
##andenplads
##kardin
##Karls
##1777
##fattigdom
##udgravninger
##Shu
##’’
##ople
##univers
##borough
##væksten
##værdifulde
##stæderne
##kvartfinalerne
##Bridge
##afstanden
##geark
##retnings
##enestaende
##scher
##kontrollere
##materialet
##1783
##mundingen
##rapporter
##Geneve
##arisk
##reelle
##opnas
##identisk
##smuk
##dækning
##1781
##risikoen
##Kyst
##konferensrad
##Nurn
##leverer
##landings
##egaende
##biflod
##Samt
##ipedia
##stadigvæk
##1773
##Cathrine
##fusionerede
##Maribo
##løsladt
##750
##Fren
##jomfru
##kines
##lum
##inve
##foræl
##olo
##genvalgt
##Undersø
##Toy
##størrelsen
##arkivet
##stiftelsen
##Idræt
##klassificeret
##DI
##HC
##hmen
##jed
##abner
##asser
##Broen
##andidat
##Indenfor
##renoveret
##omkostninger
##Giovanni
##Mob
##bs
##riller
##øgelse
##anker
##Tivoli
##king
##ws
##stuen
##blind
##USAs
##kongerige
##Hitlers
##dronningen
##tene
##agtigt
##accel
##ledninger
##maskinen
##Venstres
##Nabo
##%),
##Audi
##Neden
##jene
##zonen
##fuldmægtig
##relateret
##afhængige
##damer
##1763
##dramatisk
##Centre
##MTV
##Rang
##anholdt
##lignede
##værelsen
##hers
##stifte
##præcise
##Norske
##jøderne
##speciale
##undersøgt
##uregel
##Fjer
##MP
##pus
##loyal
##rammen
##Gabriel
##Isabella
##Pir
##kabel
##behovet
##musk
##styrtede
##Boys
##Kaj
##embeds
##Queens
##Visse
##forlang
##overleve
##Navn
##Folketingets
##Valley
##Rantzau
##Lise
##katalog
##Nationalmuseet
##autoritet
##fortolkning
##Sit
##gear
##træet
##ændres
##Liban
##Folkere
##kroa
##installeret
##Fed
##dos
##maner
##samtale
##reducere
##Hawai
##tisering
##Egern
##Nich
##Pave
##ination
##ellet
##tilhør
##1760
##buske
##smør
##Flyet
##frivilligt
##nevø
##ST
##ydelser
##beman
##undervist
##skriv
##sessor
##løbs
##dyrkning
##spunktet
##Koln
##fungerende
##alistiske
##olution
##meldt
##Unter
##bedt
##Elle
##hængende
##Projektet
##iseringen
##Kelly
##3000
##Bren
##Jur
##kræn
##tam
##søstre
##herskede
##hovedkontor
##rækningen
##hilde
##romantisk
##figuren
##Wiener
##Augu
##MC
##iko
##indtage
##merad
##fremrykning
##That
##godser
##elektrom
##Storbritanniens
##Regierungsbezirk
##Lyon
##forfatningen
##legendar
##pladeselskabet
##elektricitet
##Vold
##gla
##optage
##hem
##basen
##bild
##astisk
##fiskere
##balance
##kronet
##forbedrede
##Rødovre
##Ingeniør
##informationer
##Hin
##pant
##neur
##næb
##strat
##Munch
##gorod
##dingen
##sistor
##tagere
##Enkel
##sammenbrud
##101
##tallets
##bordet
##engagement
##Koch
##Aven
##Hop
##Tas
##ctic
##drik
##atlan
##teri
##search
##overvin
##tobak
##banerne
##baggrunden
##Hogan
##Flandern
##Cu
##Gluck
##Shin
##plik
##wart
##vinding
##telef
##uenighed
##forklarede
##sænket
##differenti
##Etiop
##Home
##sim
##abet
##modangreb
##hentede
##Eftersom
##Bibli
##drømme
##forelsket
##novelle
##hyldest
##varmt
##Ditlev
##Sigurd
##antikken
##underholdning
##entin
##læsning
##alders
##240
##foretages
##besøgt
##Værket
##Administration
##Odder
##Rel
##mail
##pers
##105
##stry
##styrelse
##Else
##arrangement
##kvadratkilometer
##plet
##verede
##enevæl
##protot
##Chelse
##borgerne
##oney
##Haag
##fæstnings
##pels
##fortet
##oping
##urin
##grevskabet
##hemmelighed
##Offic
##Alterna
##Charlottenborg
##knog
##wor
##ædel
##gio
##nylig
##lock
##baser
##indflydelsesrige
##registrer
##parallelt
##Werner
##forstærket
##Kier
##Skønt
##længden
##belgisk
##litz
##Brit
##størrelser
##Ebbe
##betændelse
##card
##delag
##Adolph
##Mikael
##koncentrations
##Esp
##spiser
##final
##styrer
##Thur
##initiati
##Maked
##Reykjavik
##Handel
##godkendte
##Kalmar
##Mission
##Hills
##rapporterede
##Bjør
##Pel
##udgøres
##sisten
##roit
##Hanne
##fester
##ichte
##Bernstorff
##akademiets
##Railway
##Ted
##konferencen
##østsiden
##forsøget
##dyrene
##atomer
##afslørede
##reaktioner
##mineral
##Nobelprisen
##Whit
##beslag
##promin
##læggelse
##passe
##kredi
##krydset
##utallige
##230
##util
##overdrog
##pren
##førstepladsen
##virtu
##bælte
##teoretisk
##Nicolas
##Gregor
##hæl
##sult
##kemon
##inddeles
##rettighederne
##velop
##mørk
##Augusta
##Kenneth
##effektive
##hemmelig
##anklager
##etablering
##Montreal
##ufor
##stere
##elleve
##byomrade
##hvaler
##banden
##moske
##action
##sanlæg
##altertav
##Slottet
##krydsede
##strategiske
##Struen
##Enkelte
##gning
##agnet
##spal
##Stur
##vejret
##Heart
##toppede
##Graham
##Klubkarriere
##akademiske
##sørge
##accepteret
##oplevelse
##Kjeld
##evolution
##omener
##oduk
##iten
##gardene
##anslaet
##læring
##krydse
##Bowl
##formance
##Folkerepublik
##Aud
##Rac
##sove
##trykte
##ficerer
##public
##hændelser
##Italia
##1766
##CC
##Gest
##Jung
##komprom
##ægterne
##Malmo
##skærer
##forgænger
##Nurnberg
##ey
##nale
##kaster
##Mah
##Isra
##besøge
##Vincent
##Kampene
##afstemningen
##konklu
##Pur
##Turner
##reserv
##ekspor
##gavn
##centeret
##Gav
##Snor
##das
##oir
##orlog
##ledig
##hule
##enkle
##Faderen
##Politik
##Erich
##Rune
##opdeles
##sax
##ografisk
##oo
##sw
##beholder
##less
##bosættelse
##Holdene
##Base
##videnskaben
##dømmerne
##Palæ
##isoleret
##forældrene
##Renault
##Ay
##got
##udlejet
##indslag
##servi
##hosp
##protokol
##synlige
##1769
##sultan
##favorit
##Hud
##high
##oversættelser
##osof
##gelserne
##Herlev
##tvinge
##blokke
##territorier
##Shep
##forhindrede
##atmosfære
##Fj
##Set
##stedse
##Leif
##organiske
##Suz
##beskrivelser
##Regiment
##Paulus
##sparti
##ministeriets
##Helsingborg
##SO
##yle
##levard
##vesten
##gie
##kantede
##nedrevet
##vejene
##bow
##passere
##Ingeborg
##Ety
##Jos
##zel
##byradet
##hovedturneringen
##Wee
##Civil
##pyrami
##Zurich
##Hend
##Nationale
##rekognos
##Keith
##Eleon
##Emp
##Ian
##Imper
##Tub
##adelen
##haret
##syntet
##russerne
##brevet
##behandlingen
##NT
##pend
##smar
##bydes
##banegard
##Edin
##spejl
##Slut
##Ner
##guden
##lejer
##radets
##kriter
##hæder
##fyrster
##Malay
##Fair
##sygeplejer
##hormon
##betragtede
##diplomatiske
##grosserer
##Kab
##sop
##Stras
##handtere
##Vild
##skonkurren
##Besæt
##minimum
##Helt
##KB
##cre
##organisk
##badminton
##Common
##Gerhard
##bidrager
##pistol
##ann
##staben
##revision
##cement
##metaller
##Studenter
##Guinea
##Ene
##rækkevidde
##generel
##tabel
##1778
##docent
##oplevet
##Læng
##depu
##krudt
##nette
##Inger
##motion
##astiske
##1782
##Warner
##CO2
##gyldne
##kvinderne
##Tube
##dle
##salen
##athan
##udsted
##faca
##ffet
##Kristen
##Sønderjysk
##forvalter
##stasjon
##Bosnien
##dtyske
##Clark
##holstenske
##Figh
##emp
##erup
##udarbejdede
##udpræget
##tour
##1740
##grundspillet
##folks
##Konig
##niende
##skelne
##Eisen
##Gib
##Mick
##auktion
##sok
##erings
##modtagelse
##ægge
##Holmens
##vistnok
##BI
##Tod
##oro
##tildeles
##Stuar
##Benny
##angives
##midlertidige
##Foundation
##Israels
##Aur
##Lasse
##rønt
##lades
##visende
##German
##brydende
##udsendelser
##rockband
##krops
##Sarah
##Mongol
##Gad
##bydele
##roste
##hoven
##valuta
##landsholds
##1785
##tjenester
##Chelsea
##Morgan
##Tau
##Child
##trænet
##renes
##fulden
##pperne
##generalsekretær
##Matth
##fæd
##Hamil
##esingle
##usta
##nærmede
##tures
##forbedring
##Factor
##Hæren
##perto
##oka
##begik
##sammenslutning
##smab
##Mariager
##hoteller
##Slægten
##Grun
##fig
##you
##oger
##oversætter
##lancerede
##træden
##itis
##fastlagt
##Reser
##matematisk
##vurderet
##fænomener
##kriminalitet
##strengt
##Albanien
##ukasus
##Boeing
##Nil
##bbe
##kningen
##lyr
##obi
##magi
##syntese
##voks
##Distrik
##Beatles
##forstærkninger
##hukommelse
##Aleksand
##hederne
##parad
##fortsættelse
##emnet
##Posten
##elektro
##foretrækker
##Rachel
##Dannebrogordenen
##hydro
##vrede
##streg
##onto
##opløste
##geologiske
##skaberne
##ione
##Nordiske
##uroy
##Indone
##Trump
##betjenes
##pansrede
##Marshall
##HD
##Ana
##Seminar
##Riis
##Hz
##Rhein
##stine
##forblive
##ulykker
##flyder
##synder
##vindu
##stribe
##Gottorp
##RNA
##fet
##lish
##sgard
##reference
##terapi
##ensis
##arktiske
##sporvogn
##Tilbage
##Lykke
##forsvinder
##Organisation
##Loven
##pakke
##beat
##opbak
##sias
##Chr
##komponenter
##Erne
##Illin
##involverede
##vedligeholdelse
##French
##Cop
##phy
##berger
##ista
##færger
##Filipp
##Science
##1682
##Demografi
##helikopter
##forveksles
##EA
##Yam
##opstillede
##sian
##holdtes
##ænder
##rigdom
##stillende
##Arme
##Sever
##Heide
##fløjte
##1768
##matematiske
##Lucas
##Provinsen
##bjæl
##mister
##tibet
##forreste
##skive
##vinderne
##strafik
##givere
##grevinde
##almindelighed
##1786
##forventet
##optrædener
##besættelses
##forfølgelse
##Størstedelen
##antaget
##moders
##vestsiden
##verdensmesterskabet
##Grønne
##arbejdsløs
##01
##Elev
##foder
##skuer
##spyd
##Moon
##Eddie
##afsnittet
##supple
##Ægteskab
##forelæsninger
##Google
##Mill
##kulstof
##kvæl
##præsenterede
##Wester
##distance
##dighederne
##Knut
##bindings
##journalister
##religioner
##Murray
##optagelserne
##vegetation
##tortur
##Ea
##innov
##manøv
##brøn
##feber
##turnerede
##planerne
##sangere
##Bech
##Kristi
##Langs
##Tommy
##Kay
##Slam
##Sardin
##køber
##Malet
##Vorpommern
##bestyrelsesformand
##Sofie
##protestantiske
##Standard
##Broadway
##Illinois
##Wie
##jung
##kninger
##indsigt
##usse
##toer
##vandret
##Meget
##Tarn
##dominerede
##nazistiske
##Year
##Østeuropa
##stien
##udkast
##resingle
##forbød
##kompeten
##Metro
##Gordon
##Shanghai
##Hviderusland
##Lun
##trædelse
##svovl
##klipper
##skarriere
##Games
##komponisten
##videregaende
##hjulpet
##azine
##dimension
##hastigheden
##ulus
##kulturel
##Italiens
##skriftlige
##skarpe
##country
##indvandrere
##arkitekter
##Tir
##edal
##landgang
##samledes
##import
##Kompag
##passede
##stance
##udtrykte
##beboerne
##indspilning
##overbevist
##parkering
##Finnmark
##forgængeren
##03
##aus
##hvir
##jin
##sle
##miste
##Libyen
##Pokemon
##Brock
##hima
##Nationalpark
##Præsident
##Blomstringen
##Henriette
##Hertugdømmet
##FK
##unikke
##teolog
##venter
##placeres
##Nordir
##kollegi
##Finans
##Dagmar
##renovering
##residens
##Listen
##SU
##core
##anliggender
##blog
##præmi
##Herbert
##planeten
##Nordre
##instruerede
##foretrak
##computerspil
##rulle
##produktet
##kernes
##mmer
##væld
##harina
##Kommunes
##plus
##forsynings
##krydsere
##autonome
##Techn
##benævnes
##triumf
##Krab
##Low
##ares
##alistisk
##hvorledes
##ubade
##uston
##Sex
##ydede
##strøms
##mekanisk
##skovene
##respektive
##Cob
##Tes
##ischen
##hob
##neret
##bande
##landskamp
##tynde
##søjler
##musical
##BNP
##udformning
##hartkorn
##Libanon
##Ax
##øjnene
##Barn
##Western
##dateres
##konstruktionen
##hvede
##js
##udkanten
##flaget
##imi
##pengene
##Moore
##tredjeplads
##erhvervet
##fødeby
##spurgt
##gummi
##Jyske
##RAF
##itation
##festen
##generob
##kæder
##press
##præstationer
##opførsel
##-"
##Ach
##Sli
##1730
##nius
##Glostrup
##afspejler
##Cirk
##siven
##indven
##listerne
##farlig
##aktie
##Emmy
##dynam
##Aristo
##kniv
##Nakskov
##Nelson
##.”
##ores
##alia
##onisk
##besidder
##serklær
##Magasin
##Andersens
##fotografier
##fossil
##handværkere
##Ministeriet
##Sibirien
##Dak
##erkendelse
##dagbog
##bange
##moser
##nograf
##Herluf
##stadigt
##variationer
##sandsynlighed
##Løven
##mingham
##Kjøbenhavn
##rekorder
##gehejmerad
##Sagen
##ags
##søs
##Radhus
##dramatiske
##hattan
##Panzer
##sprocessen
##Vad
##kold
##nærede
##bakker
##komiteen
##Gø
##zona
##enzy
##sturneringen
##forløbet
##tilhænger
##saur
##udenlands
##bore
##færdiggjort
##felttoget
##defineres
##tyndt
##Lissa
##Afri
##galt
##Militær
##skarpt
##Nicola
##sekretari
##identificeret
##Forbunds
##gartner
##Egen
##Pow
##objek
##rence
##Birmingham
##Olympiske
##manuskripter
##overenskom
##detek
##riet
##ladte
##135
##anvendtes
##vindue
##sparken
##Misso
##trængt
##infanteridivision
##Mater
##cas
##dur
##artede
##omstri
##slange
##toil
##Buch
##varierende
##Felix
##Romerriget
##650
##udmærket
##mariti
##hoveder
##forekommende
##skolerne
##Grav
##munding
##Jin
##Sve
##aneren
##ulere
##Johans
##Byer
##folkemusik
##Milan
##Bin
##SI
##avl
##indlagt
##overlod
##ends
##aliserede
##legemer
##krigsskibe
##højdepunkt
##conom
##svømning
##elimin
##Universal
##legetøj
##indtaget
##ventar
##marx
##fremført
##lyser
##følgere
##velige
##affel
##fødevare
##episoden
##kongressen
##Alaska
##Balduin
##Dick
##Field
##yin
##sir
##Andy
##fælde
##interessen
##tropperne
##grønlandsk
##pod
##sland
##olden
##saa
##ject
##grundt
##fremstiller
##1658
##ansku
##Soder
##studium
##beboelse
##tvangs
##Bac
##Gla
##unnel
##søvn
##iers
##folkene
##nesbyrd
##Leh
##estolen
##Staten
##bækken
##argumenter
##Videnskabernes
##Ama
##Edu
##KO
##ilm
##oppen
##korpor
##fastholdt
##hærens
##Kaukasus
##væsentligste
##Jason
##pile
##afsta
##bager
##mors
##Elben
##fastholde
##Østrigs
##slægts
##1765
##YouTube
##Court
##UNESCOs
##acceler
##forene
##ops
##værdighed
##instrumental
##mannerne
##Russell
##strømme
##tempo
##Brothers
##ril
##ombygning
##tilskrives
##iken
##undervands
##school
##interessant
##Mathilde
##ABC
##brygger
##smelte
##Hørsholm
##frigivet
##Bjarne
##Tryg
##bitter
##recep
##Carlo
##hundred
##beskydning
##kræves
##Diam
##socialdemokratiske
##1767
##boksning
##Tarnet
##agon
##agter
##vey
##projek
##udsendelse
##invaderede
##Sudan
##hle
##umber
##højen
##Katedral
##forfatnings
##analyser
##Sidste
##Tallin
##pun
##enstem
##ete
##brint
##Forest
##Hohen
##opdagelses
##spejder
##noveller
##frisiske
##afrikansk
##bidrage
##Hit
##Know
##Rek
##Tøn
##vator
##forøget
##agi
##ubad
##systematisk
##faget
##bølle
##timers
##frisisk
##ritualer
##studentereksamen
##Arabien
##Kob
##fli
##utrol
##«,
##værdigheder
##sante
##Miller
##nederlaget
##NASA
##litteraturen
##strædet
##berettigede
##Singlen
##dekoreret
##Globe
##suppleret
##Wikipedia
##Missouri
##Spiller
##Box
##Lauren
##bøde
##Buen
##fængsels
##Kijev
##forurening
##Kings
##Mig
##øvelse
##pilgri
##Robinson
##SL
##VA
##sendtes
##ular
##bronzek
##restaurering
##Ryan
##belejringen
##specifikt
##palæstinen
##craft
##udkommer
##1720
##Ani
##obar
##sammenstød
##habede
##Christiane
##yngler
##funktionen
##gribe
##carbon
##Vaster
##betragter
##hotellet
##playoff
##Wolfgang
##Edinburgh
##MMA
##kof
##xt
##».
##proklam
##radhus
##sværvægt
##Vesteuropa
##Befolkning
##membran
##Hawaii
##Nob
##hes
##høres
##uit
##væn
##remt
##malm
##Ans
##nytte
##hævede
##Kunstner
##regelmæssigt
##Klima
##byttet
##væbnede
##teles
##modning
##Dance
##atoriske
##bestyrer
##rygter
##Stephan
##sklubben
##tilføjelse
##opbakning
##Abu
##Pommern
##høst
##nin
##alo
##trøje
##Reform
##luftvaben
##afhængighed
##afhængigt
##bøll
##Arbejdet
##Kronborg
##Viking
##bemærkelsesværdige
##Ane
##skyder
##opbygge
##Samling
##byggere
##topscorer
##Valget
##iserende
##horison
##spænder
##dialekter
##Løn
##kub
##ksamen
##orum
##aro
##menings
##ussel
##berlin
##træff
##Claud
##kriminelle
##ungarsk
##Ninten
##gød
##mæle
##tilværelse
##rim
##riften
##edede
##Dele
##magterne
##iano
##besøger
##Lost
##Vesten
##Nice
##udpegede
##anime
##samfundets
##litauiske
##Fut
##udtales
##opdragelse
##holz
##Detroit
##Krim
##genopbygget
##Vinderen
##permanente
##Novgorod
##konkrete
##SønderjyskE
##Ager
##Næs
##tilbyde
##viol
##keramik
##Anto
##muskel
##bosættelser
##rigeste
##schweig
##gradvis
##køres
##undersøgte
##Svensk
##Indiske
##etaper
##disciplinen
##justitsrad
##konservativ
##massakr
##02
##Rung
##oren
##opfyldt
##duo
##hitlisten
##mændenes
##sinds
##Samtgeme
##Sek
##aker
##kov
##tov
##Fredensborg
##sperson
##Havne
##Husum
##arrangerede
##Kast
##impul
##litterær
##bæredyg
##Salling
##Faaborg
##Etymologi
##330
##:"
##FM
##Ravn
##udstedt
##stromer
##Baker
##chance
##Ronald
##forarsagede
##tilbagetrækning
##blodet
##dvd
##Bort
##Fest
##Made
##stjernen
##opdeling
##buen
##Afrik
##allieret
##livets
##Blood
##Cyk
##gunst
##opad
##efterretning
##hovedbygning
##Kommissionen
##synspunkter
##Carib
##divisions
##formula_2
##Claude
##Oprindelig
##kvartfinalen
##velopment
##Kof
##NC
##heat
##resolution
##tana
##grænserne
##relaterede
##kontrolleret
##Titlen
##reklamer
##tilbagevendende
##syndrom
##Diet
##ature
##radede
##digvis
##videnskabs
##karakterer
##Magdalene
##minutters
##betalings
##beslægtede
##Folkerepublikken
##Who
##ax
##atører
##Stub
##siddet
##dybere
##foranstalt
##trækkes
##destroyere
##Lær
##Linde
##sektion
##pasta
##sels
##handlende
##vejledning
##loy
##anskaff
##fladt
##Dave
##specialiseret
##usædvanlig
##pine
##besad
##gau
##andenpladsen
##folkelige
##solid
##fastsat
##stabschef
##Agnes
##informations
##From
##uke
##flyene
##læs
##stjenesten
##bestræb
##PET
##landskabs
##bark
##Parker
##.""
##Inddeling
##Merce
##Bilen
##dødsfald
##Birgitte
##Emin
##Fry
##otiske
##agraf
##faser
##Chop
##dsler
##forberede
##Nepal
##skatten
##skildring
##Centrum
##fynske
##indikerer
##http
##Sardinien
##Aristoteles
##Qa
##Rover
##Sed
##kjær
##sje
##olis
##udra
##syriske
##strong
##Moham
##seksualitet
##variere
##teker
##uds
##rose
##ordbog
##benet
##Mania
##statsborgerskab
##Rosenborg
##Værker
##schweizisk
##okolade
##kugler
##cs
##kid
##menigheden
##chts
##Hansens
##Heim
##regimentet
##lillebror
##Unionen
##Lisa
##koncentreret
##gjorte
##kvalifikationsrunde
##Landstinget
##Gy
##Last
##Wrest
##stin
##legene
##onna
##forelig
##Storkreds
##sorter
##kraftværk
##Middelfart
##spolitiske
##digteren
##Sparta
##Sherman
##Jagger
##Braunschweig
##Tiden
##mernes
##ugent
##vingerne
##was
##pastod
##mosa
##polit
##Herz
##sønne
##torvet
##købmænd
##gotiske
##Conne
##aktieselskab
##koncern
##Bolig
##passage
##investeringer
##europamester
##epidem
##Emanuel
##ensch
##Finan
##Aksel
##dobbeltturnering
##pavirkede
##Minde
##æm
##udarbej
##munde
##husdyr
##mærkes
##Pern
##museums
##Preben
##Generelt
##Montene
##Girl
##byzantinske
##edralen
##Mercedes
##Ales
##Bund
##adi
##gry
##nedad
##godkendelse
##Harvard
##datterselskab
##højesteret
##genoptog
##sprin
##Næsten
##Taiwan
##dobbelte
##NG
##Rho
##etnisk
##skære
##olas
##pern
##redning
##øjte
##statholder
##Marcel
##nedlagte
##string
##sidige
##regions
##kammerater
##makker
##registrerede
##spiritu
##originaltitel
##Udvikling
##møbler
##anbefalede
##Etiopien
##fædrel
##Mom
##Sind
##Say
##enterne
##afløser
##indlæg
##lington
##klang
##vestkyst
##halsen
##Heavy
##flytning
##Michigan
##Assens
##Ulti
##resultaterne
##Arizona
##regulære
##mælke
##demonstrationer
##bachelor
##Bio
##Ples
##orange
##avne
##halvkugle
##forestiller
##Ishockey
##eksisten
##kreative
##1759
##simpel
##Congo
##fødslen
##Gog
##kker
##afgøre
##menteret
##gevin
##vidnesbyrd
##Saudi
##kørende
##that
##fæstninger
##telegraf
##spændings
##Lawrence
##quare
##320
##Sony
##cam
##hir
##scenter
##modul
##foretrukne
##Brahe
##ansvarlige
##modern
##andelige
##Hamilton
##Høg
##banest
##observator
##arhundredes
##Minnes
##brydes
##forbedringer
##Elite
##finansminister
##bremse
##privilegier
##Kok
##ppen
##provst
##104
##magister
##sjællandske
##kvinden
##svæve
##Fisker
##bevægelsens
##styk
##udsatte
##udspringer
##nedsatte
##faldne
##opdagelse
##biblioteker
##svækket
##Mitchell
##Bøg
##Swe
##alban
##medi
##bekendte
##oversatte
##song
##farma
##illon
##udkommet
##Katteg
##betjente
##satellitter
##batalj
##forekomster
##gængere
##beskadiget
##fangenskab
##Dame
##Eri
##Mall
##ogra
##udløste
##tenden
##lejes
##kvartet
##Palace
##ansattes
##forsamlings
##sprøjt
##Sundheds
##Hjemsted
##forpag
##kanton
##ynder
##Key
##foredrags
##Bau
##jf
##ping
##umer
##omhyg
##elskede
##afsted
##fremover
##virket
##middagen
##sikring
##fæller
##tabet
##længdekreds
##Stuart
##Nordirland
##Kø
##boerne
##Undervejs
##præsidentvalget
##forstaet
##gulv
##teoretiske
##betragtning
##Lauritzen
##Esper
##Four
##Now
##Seks
##snes
##enne
##roe
##marsk
##udenlandsk
##ipper
##organisere
##Greve
##1755
##Camil
##Gle
##Lok
##tium
##alge
##geografi
##improvis
##standarder
##udgivne
##Slots
##Børge
##behandle
##indvandring
##Lap
##Mær
##forlyst
##tesen
##overnat
##nyoprettede
##gesandt
##Bevæ
##Stewart
##Socialdemokraterne
##vurderede
##atmosfæren
##brasilianske
##Nes
##lor
##riffel
##itus
##Rey
##Rain
##alisere
##Farum
##artiklen
##mineraler
##Bundesliga
##demonstration
##Demokrat
##bistand
##Fav
##Okt
##Plot
##destru
##ely
##absor
##netværket
##fladens
##drifts
##117
##Bres
##nd
##nernes
##sny
##ordens
##Tilsvarende
##Rah
##herregarden
##delstater
##Kanalen
##videoer
##Limfjorden
##danmarks
##aguay
##Via
##druk
##narko
##afgik
##ulti
##reduktion
##regime
##Kristians
##Brook
##Vilnius
##1779
##bibliotekar
##Presley
##indrøm
##Cirkus
##Lys
##knings
##landomrader
##usch
##kriger
##priori
##weight
##cellen
##Jonathan
##afvikles
##Nathan
##administrativ
##Osmanniske
##keyboard
##Evans
##forlangte
##Aja
##Fugle
##Gron
##Iris
##nig
##infla
##ligne
##bekost
##meningen
##indbygget
##angaende
##vine
##nedrykning
##baltiske
##slaviske
##rabte
##Simonsen
##sevne
##gearkasse
##3D
##tiget
##spis
##meligt
##Ath
##næstbedste
##berømmelse
##zzo
##republikanske
##Jule
##koreansk
##pakker
##Himmer
##Mennesk
##jordskælv
##Makedonien
##Hald
##Homer
##ordninger
##rett
##baj
##slagmarken
##Beet
##Casper
##Silver
##Louisiana
##Sofia
##stipendium
##Rik
##Ut
##cig
##maf
##ashi
##villig
##udvikles
##revolutionære
##granater
##Forsvars
##Boulevard
##antagelig
##Guar
##Wu
##ove
##vab
##formanden
##Form
##Manuel
##Manhattan
##autom
##Ulrich
##Bayer
##regelmæssige
##myndig
##ISO
##Channel
##kontrast
##regulering
##opfylde
##underskud
##bestemmer
##hias
##Venus
##albummets
##Ulf
##palide
##Studio
##kælder
##animations
##550
##Cul
##Dia
##Juri
##verds
##ffek
##tuber
##Metropolitan
##Malta
##jens
##kne
##yse
##Dets
##nyligt
##spores
##Edmund
##Luftw
##Walla
##castle
##sløjd
##Clin
##rav
##udkæmpet
##synonym
##elektronik
##Columbus
##Spen
##glet
##rekt
##bemærkede
##indførtes
##samtiden
##holds
##provok
##skiller
##Ekspedition
##patent
##taktik
##Lassen
##forberedelse
##ekspansion
##Føder
##Nie
##urte
##lerer
##føj
##hamn
##Holmen
##Sao
##dukke
##brænder
##maneden
##sproblemer
##fjernes
##Sølv
##cien
##anty
##uran
##valu
##Row
##skabes
##piloter
##Middelalder
##afslører
##effekten
##Kastrup
##Orig
##kod
##alger
##gir
##ranter
##1648
##løfter
##støder
##passerede
##skrigene
##Kunstakademiets
##skyts
##Dic
##genkende
##stenalder
##mage
##ansler
##ækken
##beskat
##forega
##Rodnettet
##batteri
##testamente
##Wrestle
##Tig
##balle
##falen
##tation
##tilsluttede
##filmet
##Arki
##villige
##hovedpersonen
##points
##halve
##sporvogne
##dræber
##Bonn
##Stillehav
##entrepren
##Facebook
##Pokal
##jsen
##mum
##shæren
##købet
##Svenska
##forudsætning
##markerer
##Demokratiske
##Repræsentanter
##Kattegat
##ao
##røn
##indkaldt
##polen
##Holst
##morder
##uddanne
##ideologi
##kammeret
##Cape
##dæmon
##stævne
##Hov
##bie
##opvækst
##overordnet
##nys
##trappe
##estiske
##operationen
##digtning
##omfattet
##truppen
##udfordringer
##argument
##blomstring
##pumpe
##Forskellige
##overvagning
##Barbara
##Indonesien
##Dow
##knock
##rati
##levis
##manen
##Dennis
##Development
##parat
##farvel
##støber
##risen
##belæg
##smotor
##Perry
##silke
##brugeren
##oriental
##1761
##sprojekt
##stitueret
##fantasy
##stejle
##Føde
##Ple
##Vent
##Winter
##anark
##omgivende
##revider
##verer
##overlegen
##Marin
##Unge
##klubberne
##rummede
##synligt
##ekspert
##sank
##hænderne
##massiv
##fotografi
##beskæftigelse
##Boldspil
##sekundær
##Astronomiske
##Systemet
##OK
##Told
##gomer
##oya
##indstilling
##oversættes
##væd
##brik
##guderne
##Head
##Prote
##hertuginde
##paladset
##striber
##Fremad
##Dragon
##erindringer
##oplyste
##aflyst
##regnede
##USD
##Vestindien
##mulighederne
##Hovedbygningen
##filmatiseret
##Fond
##IR
##VIII
##cos
##liget
##uddelingen
##udveksling
##løver
##Arsagen
##opdagelsen
##krigsfanger
##neutral
##katastrofe
##udøvere
##Udviklingen
##odukter
##uration
##attra
##vektor
##samarbejdede
##itt
##bers
##Mario
##selvfølgelig
##belys
##betegnede
##kammerat
##1758
##mægtige
##overraskelse
##nominer
##Stortinget
##Klit
##Mans
##Tat
##leys
##nemmere
##fritid
##frankrig
##hua
##muret
##Prince
##psykisk
##court
##Py
##Sval
##imens
##andels
##illy
##vedblev
##cif
##forekomme
##plateau
##tænker
##fløjet
##Montgomer
##apparat
##cyklus
##gjordes
##Slovenien
##Grunden
##RT
##seere
##uca
##nationen
##lægen
##sproglige
##anlægge
##ejeren
##forhandle
##Baby
##period
##)|
##Ig
##Tage
##Vaben
##birk
##walt
##delinger
##robot
##stiv
##Normalt
##menneskers
##sympati
##orientering
##begrænsninger
##Teknisk
##efterfølgeren
##eksperter
##().
##Abo
##Sz
##skrat
##uli
##undskab
##akut
##fremsat
##Inn
##kyster
##spørger
##Folketingsvalget
##arrangeres
##skønne
##Mountain
##kontakter
##)".
##Hr
##Oe
##Square
##Wint
##»,
##ilden
##udant
##Chap
##traged
##caster
##fældende
##Stev
##fjernede
##Brandt
##flokkurin
##Himmel
##melodier
##Brigade
##Lissabon
##Cry
##Eid
##gon
##oa
##teologisk
##melighed
##træne
##ungerne
##Helene
##hyper
##Syv
##distan
##fortælles
##spredning
##sakh
##Ejendom
##skrater
##Klokken
##Armstrong
##øges
##depression
##stald
##etz
##istid
##retor
##heri
##260
##interessante
##Spaniens
##trykkes
##Dagbladet
##betingelse
##Schack
##Bolivia
##arnet
##bedøm
##128
##Monaco
##kontoret
##sammenlignes
##Alexandra
##;&
##Hjal
##LA
##Lade
##bords
##hut
##nell
##skandidat
##hero
##helium
##bruddet
##Erhverv
##guldmedaljer
##Noget
##tomme
##mekaniske
##Lorent
##transportere
##intelligens
##Eminem
##Ped
##dit
##medført
##gend
##genoptaget
##mandens
##Nordens
##Santi
##Rome
##1754
##Letlands
##forberedte
##bestilt
##Pom
##jæg
##udgøre
##træf
##kilden
##kollis
##fleksi
##kontroversielle
##Kvalifikation
##Ajax
##Kub
##cross
##forstæder
##opererer
##bralt
##træt
##biologisk
##Finalen
##Henriks
##begrænse
##varieret
##rapporteret
##bryggeri
##Witt
##Blues
##Weimar
##legendariske
##bier
##jam
##skis
##ated
##tillade
##laden
##ligesa
##kromo
##hedde
##persiske
##1746
##ression
##1536
##storebror
##koste
##aliseringen
##udtrykker
##arrangør
##Juven
##meddelelse
##Apollo
##mød
##nitz
##forvær
##valgene
##Steven
##krævet
##rangeret
##ekspeditioner
##nøjes
##observeret
##"",
##Eugen
##Gur
##HB
##hing
##afstande
##steins
##veg
##samisk
##overv
##konstitution
##føle
##sætnings
##kvante
##drabet
##nødder
##Tidlig
##separate
##Stevns
##Igennem
##Pfalz
##landing
##hef
##1749
##mosen
##Syddansk
##affære
##ovennævnte
##manga
##biskoppen
##1757
##People
##ødelæggelse
##Basel
##----
##dieselmotor
##jagerfly
##WrestleMania
##118
##Aer
##Lof
##gler
##gow
##smidt
##anken
##regen
##indsamling
##visnings
##Enheds
##gaderne
##poli
##domæne
##planterne
##helmine
##1764
##arbejdspladser
##transfer
##Kammer
##Fordi
##galleri
##Gel
##Pie
##bob
##sekt
##holdenes
##konj
##jorte
##bevægede
##thi
##Ballerup
##tegnelser
##vurdere
##følelses
##Budape
##formodes
##eventuelle
##fyrstendømmet
##jævel
##Venezuel
##AA
##Ecker
##Hiro
##glets
##stall
##ikerne
##itel
##skabelse
##Hellige
##Vibe
##kvindernes
##politikken
##toler
##beretter
##tilgængeligt
##kromosom
##Bug
##FO
##iveau
##overgive
##uku
##huskes
##street
##slægtninge
##stationsbygning
##newze
##Religion
##konkluderede
##Minnesota
##Byr
##Pere
##STS
##huden
##nak
##ambul
##behø
##parterne
##malte
##yton
##reguleret
##likationer
##Scar
##hjelm
##DKK
##Pun
##dram
##arius
##bevog
##landstræner
##isternes
##flot
##lingerne
##benene
##Toronto
##Strøm
##magasiner
##Cafe
##arin
##tromp
##herved
##gavl
##Arve
##Arkæ
##stødende
##Udbredelse
##270
##1756
##Frederick
##Diego
##Sadanne
##')
##forsig
##senator
##Stutt
##Tidligt
##Groß
##Gottingen
##Energi
##deputeret
##WA
##indstillede
##champ
##dansker
##biologi
##Frederiksen
##binding
##arbejdsgiver
##Modtagelse
##gyldigt
##trusler
##Bretagne
##dedikeret
##Matthew
##GT
##Nummer
##atta
##indsa
##lett
##minster
##købes
##fløjten
##niveauet
##definerer
##udnyttede
##impon
##fremhæves
##tusindvis
##lutherske
##kvælstof
##Budapest
##Soft
##mud
##snor
##vamp
##øvelser
##opfandt
##opkøbt
##odz
##vister
##stedfor
##ydmy
##burn
##drivende
##Bahn
##Østjylland
##Nørgaard
##minimal
##Cypern
##catal
##Bronze
##stromerske
##Shel
##fords
##forbliver
##ophør
##saka
##litograf
##ienborg
##herine
##Nielsens
##symboliserer
##hugget
##idae
##Bispe
##eksistere
##strande
##Forskning
##sønnesøn
##Buc
##Hub
##bber
##nade
##rhein
##Rosa
##Norman
##virksomhedens
##tænkning
##luksus
##køretøj
##Liberal
##udstedte
##dus
##fia
##slas
##lederne
##redet
##føringen
##Konrad
##Harold
##Versa
##fordob
##englæn
##filosofisk
##Politikens
##Præste
##varetager
##fiber
##profit
##jævne
##investor
##Nabokommuner
##Nintendo
##))
##Bing
##More
##Nad
##Zap
##arterne
##reperto
##tee
##genudgivet
##overlev
##icien
##overe
##Aller
##interiør
##Freden
##Samsø
##nibal
##Maz
##kulturelt
##hyre
##Luis
##Hovedbyen
##DR1
##koping
##Musikken
##ricket
##skontor
##løvfældende
##Seminarium
##His
##SD
##Tus
##Øre
##orp
##arvet
##bestanden
##opstanden
##gengivet
##krigere
##magiske
##synlig
##Baron
##Bobby
##IAU
##argentinske
##wri
##ytr
##onder
##abnings
##sinspektør
##This
##kurve
##Magazine
##administrationsby
##spises
##dokumenteret
##Oprindelse
##HA
##Put
##Wright
##igede
##atan
##teatre
##oplyst
##may
##proble
##Algeriet
##Marius
##fortjen
##Frie
##Benz
##Personer
##udtalelser
##Einar
##lokomotiv
##garnison
##Skjold
##Cad
##Fas
##bæger
##fus
##ος
##forson
##gernings
##manip
##farvande
##binder
##miljøer
##dødsmetal
##Billed
##stabilitet
##censur
##Heiberg
##Troms
##kompromis
##Buenos
##Hagen
##jus
##vige
##rænet
##cium
##styrtet
##Schi
##Bemærk
##billigere
##værkerne
##lodret
##cirkus
##ypper
##Højre
##konstruktioner
##Yu
##iga
##tildelte
##hedens
##redskab
##1747
##sats
##folker
##Skær
##sikrer
##Semi
##sletten
##Commun
##Westfalen
##Kansas
##ændredes
##dæmning
##Amerikanske
##Wayne
##bajds
##Lub
##Sr
##Ves
##hist
##jab
##mæ
##tt
##ensem
##steen
##link
##fodboldforbund
##lednings
##betegnelser
##fugtig
##Torino
##Bella
##Lufthavnen
##skænket
##begivenhederne
##siddepladser
##Jupiter
##Katedralskole
##Brom
##Tch
##Zag
##gun
##velegnet
##irs
##straler
##Book
##udefra
##tænkte
##Hærens
##greg
##ofter
##anfald
##dell
##delta
##samarbejd
##melde
##Alton
##Skoven
##forbindes
##dys
##kataly
##herregard
##rytme
##Søndre
##kolleger
##Journalist
##hebraisk
##Aires
##Fot
##Krigs
##Pho
##øe
##ов
##oll
##opvar
##spare
##flora
##remix
##1728
##stands
##Schul
##Newcastle
##Mathias
##medvirken
##gribende
##tungt
##faktum
##Fund
##Jere
##omegn
##førde
##slande
##selvej
##"...
##mandag
##nukle
##Sehe
##Willem
##teredes
##Guang
##folkets
##Gibralt
##Trier
##Ill
##Sparek
##Sporvejs
##beklædte
##ukrainske
##konceptet
##Gestapo
##Vall
##arne
##afholde
##opnar
##sica
##sigtede
##uts
##okaler
##1741
##Antal
##kirkelig
##Orch
##280
##debutalbummet
##brigader
##rotation
##McCart
##rh
##Ær
##beth
##talere
##historiens
##Langt
##Bygge
##habitat
##Høeg
##tjekkisk
##jægermester
##Produktionen
##Chang
##Llo
##pyn
##ugift
##overdrev
##munden
##nulevende
##flyvende
##ækket
##sporene
##Romanen
##indbyggertallet
##Raymond
##foreløbig
##comeback
##Econom
##Nations
##indbragte
##overlever
##undgik
##ovn
##egnede
##Amtskreds
##udebane
##Gaza
##bonus
##grundlæggelsen
##skommissionen
##kemiker
##udnyttelse
##beordret
##batterier
##udøvende
##mixed
##arvsliste
##tømrer
##fis
##opmun
##sidi
##serbajds
##oldtiden
##mellemvægt
##smade
##Henriksen
##Miami
##Nuværende
##Engelsk
##overgangs
##slesvigske
##Lemvig
##CBS
##td
##ydet
##rutter
##lia
##styrende
##tax
##middelbart
##knyttede
##Scien
##fuglen
##Korsør
##færdigheder
##Trøn
##1762
##Council
##afskediget
##Clemens
##søkonomi
##intellektuelle
##stængler
##Pernille
##Hæder
##Seg
##Wul
##sfjorden
##rager
##bevisninger
##brat
##Hero
##Heraf
##beskeden
##Network
##adjudant
##kalenderen
##bestræbelser
##Vill
##tica
##leger
##ovina
##huus
##Costa
##generalforsamling
##Sygdom
##kvindefodboldlandshold
##patient
##Priser
##camping
##Haf
##Kæ
##Okla
##Zar
##forside
##udarbejde
##leton
##nordtyske
##svinger
##anvendelsen
##datab
##damesingle
##skjulte
##Getty
##eskor
##gil
##invest
##beryg
##chichte
##bagefter
##hjemby
##generaler
##naturvidenskab
##modellerne
##Toul
##grove
##saksiske
##tjenesten
##sædvanlige
##Nassau
##Lagtinget
##cri
##glø
##ydelse
##overvæl
##mera
##visor
##eksterne
##sættende
##102
##rondisse
##Hunter
##Landbo
##forestillingen
##koncerten
##Georges
##Giro
##Six
##Loren
##ørkenen
##mindesmærke
##Stuttgart
##Zen
##forgren
##sensor
##vival
##Televis
##flyttes
##Admiral
##klæder
##fejre
##behandlede
##Universit
##helikoptere
##Rejse
##pseudony
##Symfon
##kulminerede
##Colombia
##afgrøder
##Vegas
##Egernførde
##heter
##tha
##opsigt
##overlevet
##ændene
##stenene
##velkendte
##professionelt
##protektor
##legne
##Prædik
##Frei
##Maryland
##udsmykning
##Tunesien
##derson
##optager
##indsprøjt
##Stater
##lygter
##monarki
##billetter
##tjent
##kvarterer
##Vancou
##resulterer
##branche
##Public
##fejlagtigt
##Filippinerne
##Samtgemeinde
##NBA
##sov
##deltes
##ølle
##hullet
##ledsaget
##Front
##astron
##Kierke
##Lene
##Leth
##Oran
##PL
##øvede
##referencer
##andres
##angst
##filer
##stadens
##Orke
##Handball
##Susanne
##Næste
##Saxo
##Abdul
##Pod
##rage
##udvand
##udlændinge
##hovedbyen
##Research
##Paci
##koder
##bell
##Boul
##Sydø
##angrebene
##Kaas
##stationerne
##klædte
##dæmp
##Ridge
##festivaler
##Centrale
##Urban
##sektoren
##facade
##1710
##matrik
##Medvirkende
##riddere
##tidsrum
##patron
##Teknik
##propor
##Grenaa
##afgrænset
##Must
##cap
##nobel
##afgive
##hana
##laser
##chin
##grinde
##fiktion
##banet
##buer
##Soul
##grønts
##strømning
##palads
##Shad
##turneringens
##kommunalvalget
##pinyin
##Læge
##publiceret
##betydende
##Malaysia
##5000
##What
##irak
##oz
##orv
##rits
##vidende
##kerner
##endorf
##doms
##Internet
##Senatet
##Eriksen
##Hallen
##skommis
##yeo
##Troels
##Ahle
##aristokra
##orlogs
##hospit
##HO
##Hamp
##Kraft
##Linden
##Ome
##big
##ocean
##ograd
##alds
##venlig
##bygd
##studierne
##orianske
##hjemmekampe
##Middelalderen
##stjenester
##osterreich
##rs
##uck
##opf
##assessor
##entu
##plantet
##anslas
##celæn
##Tromsø
##hiphop
##Oldenburg
##Colorado
##Shepher
##Valer
##bæres
##konvo
##løsel
##folkede
##aldrende
##rebs
##offentlighed
##Lauenburg
##Emilie
##adelsmand
##Sæsonen
##forberedt
##wrestler
##Clev
##Fjern
##Rund
##enheden
##segl
##pastand
##delin
##ruiner
##indust
##chilen
##konfir
##tagerne
##loo
##friheds
##Maske
##dysse
##troen
##specialiserede
##SAS
##Naturpark
##sump
##undtagelser
##storhedstid
##Repræsentanternes
##Tem
##Umiddelbart
##eb
##idan
##Øer
##opdræ
##istand
##1721
##bogs
##købmands
##skæring
##Mikhail
##klostre
##spændinger
##Data
##Æres
##almene
##chokolade
##lettiske
##aksel
##velfærds
##lugt
##borge
##huske
##operas
##skoles
##baseball
##Sundby
##kvinders
##formidling
##konventionen
##erobringen
##DO
##Eur
##Mø
##homa
##skim
##amenter
##udbygning
##eftermiddagen
##Hanna
##Instru
##shær
##bolsje
##Edgar
##uropæisk
##Chart
##Mors
##Struer
##flygtning
##Jensens
##Snart
##Høy
##Kendte
##foss
##skron
##market
##109
##formind
##Lex
##Nordkorea
##direktion
##flertallet
##semifinale
##doktorgrad
##Cæsar
##anstal
##krog
##slang
##rettel
##dagene
##Marse
##husstande
##Dah
##partis
##Hoch
##smisse
##tidspunktet
##striden
##indivi
##Bruno
##Alab
##Sieg
##højderyg
##Bisk
##arena
##leddet
##anerkende
##fangerne
##rigsrad
##uddannelsesinstitution
##aktionen
##stavet
##Horne
##departement
##straffes
##Struktur
##bevilling
##leverandør
##Nina
##forum
##tilstande
##opstand
##pest
##Holberg
##hjemkomst
##Type
##jernalder
##soldaterne
##porter
##regnskab
##Savo
##Glasgow
##)",
##Agri
##Dussel
##Nova
##pud
##elske
##Alfon
##Komite
##Nev
##Problem
##Boris
##formula_3
##Merc
##Zeit
##DE
##PR
##Summer
##cla
##amet
##ishi
##gennemføres
##prise
##ækker
##tiner
##fugtige
##ilding
##revy
##ograph
##Lloyd
##Trøndelag
##Damp
##Fx
##Rolf
##asyl
##mt
##sha
##streger
##forstar
##tilflugt
##raden
##udfald
##gesen
##farer
##handlen
##plantage
##særskilt
##Collins
##Planen
##Fabri
##"&
##Bid
##igo
##saki
##maa
##vindes
##volumen
##Engine
##Grundet
##ladser
##Bah
##Radet
##radioen
##Price
##Ferr
##Linda
##Medlemmer
##splittet
##Vancouver
##Esc
##Meg
##fro
##tten
##yon
##eler
##icks
##tallige
##mild
##sydlig
##cess
##skomite
##Juul
##oxy
##Arabiske
##møbel
##Valencia
##Hust
##PG
##Ringen
##kompa
##okar
##mundt
##sejlet
##skyldige
##kravet
##blomsterne
##Caspar
##strukturen
##kontinuer
##koncentrerede
##gehejme
##elektromagnet
##saxofon
##bronzekampen
##eksistenti
##Klint
##Zulu
##bab
##inventar
##forlovet
##irke
##Forlaget
##owa
##Verwalt
##skelnes
##flyveplads
##psykiske
##Titan
##Særligt
##Freja
##Oklahoma
##atus
##pap
##pausen
##tains
##Spi
##Eller
##habet
##Hartmann
##afsluttende
##Challen
##kvik
##enheds
##veren
##valut
##grundstoffer
##Holme
##indledtes
##nominering
##tilføje
##sedan
##interviews
##ambassade
##tiviteter
##Lære
##Rug
##tilbe
##ilian
##Dernæst
##sete
##udvikledes
##friheden
##Bohr
##Luke
##bøg
##Britiske
##pragt
##gemeins
##Atletik
##facelift
##kommentator
##AK
##Hej
##Qing
##juk
##wing
##afgifter
##tiltrak
##amino
##Adskil
##betydeligste
##Nogen
##Gift
##fjendens
##salgs
##reducerede
##pædagogik
##Krogh
##Nigeria
##Cow
##Lac
##cop
##cub
##inationer
##elov
##beslutningen
##fravær
##komne
##ensartet
##sød
##hviler
##debatter
##automat
##Baggrunden
##Linux
##fokuserede
##Kenya
##SSR
##Teksten
##betjener
##Typisk
##gly
##eto
##samtid
##hesten
##væsner
##brut
##1735
##nedlagde
##Reed
##læggelsen
##Mann
##holms
##Grind
##spekul
##Drama
##midterste
##Clara
##korruption
##Ice
##ifa
##jerede
##sideløbende
##sabot
##utrale
##Schwer
##myter
##massive
##Indian
##opfattede
##nelserne
##forlængede
##indspilningen
##Kassel
##Martha
##Kosovo
##præmie
##Santiago
##Estrup
##Ivar
##tant
##Øerne
##ellip
##fortaler
##udvist
##givelserne
##værge
##hegn
##østlig
##fods
##købstæder
##tinental
##cheroke
##skærme
##gudinde
##kassen
##Bismar
##hindu
##Fast
##ław
##letvægt
##døbefon
##Kirstine
##Underground
##kirkes
##1751
##skytter
##smukt
##offensiven
##kapellet
##illustrationer
##kidnap
##Ryg
##Sla
##Svin
##bey
##state
##billederne
##succesfuld
##Britisk
##kammerjunker
##fokusere
##Bakke
##søjle
##Alexandria
##vellykket
##udrustet
##Lune
##Vast
##øgen
##aris
##sein
##befolket
##flor
##nett
##stilarter
##pensation
##estra
##forholds
##numrene
##Erling
##Palme
##skelet
##skysten
##middelalderens
##liberal
##Reichs
##Armenien
##kardinal
##Montenegro
##nomineringer
##Astrid
##Tin
##toft
##afvanding
##forsiden
##radik
##Livet
##Peters
##tingene
##Langeland
##Rigsdagen
##Karakteristika
##kommentarer
##Ahlefeldt
##Fos
##Stars
##1743
##Angrebet
##nordlig
##Nordland
##dyret
##Metalli
##1752
##nøgen
##Highway
##stationsby
##personligheder
##partikel
##Bek
##Nim
##Two
##ið
##kord
##kva
##venture
##talsmand
##Manch
##ækvator
##direktor
##Bureau
##DR2
##Kapel
##tynd
##dæmningen
##Sophus
##bekæmpelse
##Dusseldorf
##Myn
##omdrejning
##tilbøj
##sigte
##Stok
##neds
##velfærd
##solist
##Suð
##guldvinder
##Østersø
##flerarig
##tronfølger
##tjekkiske
##straffespark
##Befolkningen
##Mozart
##begrundelse
##Television
##bæ
##mentere
##overgreb
##modstanden
##gels
##Forholdet
##sandhed
##Assistens
##guitaristen
##Politiet
##templet
##Kerte
##Epis
##atelier
##bekostning
##Gettysburg
##hospitaler
##Mate
##ovi
##afro
##onerne
##forars
##udkant
##1748
##skilsmisse
##statsborger
##positionen
##Oversiden
##freel
##effektivitet
##ubehag
##modtagere
##Tidsskrift
##Verwaltungs
##Adskillige
##Fitz
##Fæd
##pavil
##margin
##moden
##bifloder
##Kirch
##Heeres
##Selskabs
##fredning
##Polens
##provinserne
##Comedy
##Mini
##forvaltningen
##Novo
##glemt
##absolutte
##Pacific
##Cos
##Pok
##ansøgning
##tilskuer
##kej
##list
##uson
##kets
##herfor
##ægformede
##ionen
##Aren
##svaret
##givelsen
##tusinder
##sørger
##Cornelius
##simpelthen
##opdagelsesrejsende
##NHL
##lsen
##rack
##perfekt
##klat
##Defen
##lyt
##skiftes
##Helena
##betegne
##Carlsen
##slægtning
##universitetets
##medvirke
##Gary
##artister
##Præstø
##Socialistisk
##ulovligt
##diktatur
##mexicanske
##Luftwaffe
##Jub
##fraf
##snæv
##yu
##sile
##lidelser
##serierne
##fødder
##værter
##klager
##klagede
##fremstillingen
##bant
##staternes
##Coast
##hyret
##disput
##tric
##organisationens
##boks
##kærligheds
##infanteriregiment
##Bortset
##Montgomery
##gletsjer
##ege
##forbeholdt
##sættere
##Restaur
##Holmes
##Cooper
##Julia
##forretningen
##mistanke
##horst
##Struensee
##Altona
##Cand
##Hip
##desper
##skjule
##seren
##Alb
##ausen
##verdensom
##ideal
##karakteren
##Indiana
##berettiget
##vurderes
##arkæolog
##Classic
##Ernest
##Krabbe
##oftere
##BR
##Fram
##Tac
##Vang
##vha
##igi
##Andels
##stider
##tah
##messe
##warts
##November
##Akt
##skum
##omegnen
##tilnær
##opholdet
##ekor
##"."
##cki
##Pastor
##gravede
##Australiens
##vietname
##Brønderslev
##kontinentet
##Centralasien
##Justin
##Akademisk
##kølvandet
##integration
##Lukas
##Ruth
##Sier
##cum
##ymo
##øko
##sprede
##abol
##ligefrem
##slø
##fremsatte
##Alp
##mindske
##buch
##ativitet
##Bane
##instituttet
##dtyskland
##Kompagni
##foreligger
##Juventus
##Imp
##Kung
##weg
##Øvre
##Forud
##Sydvest
##Express
##Christmas
##IC4
##kommunalbestyrelsen
##spræsident
##Særlig
##terape
##bevirkede
##gevær
##slyn
##proced
##ængden
##107
##theol
##placeringer
##Jernbanen
##Ingrid
##kongedømme
##world
##Tallinn
##ather
##udtrykke
##landkreis
##enty
##vikinge
##Amtet
##priserne
##vabenhvile
##udnævnelse
##moderat
##Bygning
##Trondhjem
##Auto
##Ask
##DB
##hæk
##anonym
##alsk
##bevise
##ceg
##1650
##hunden
##turb
##smykker
##fællesskabet
##magtfulde
##socialistisk
##æresmedlem
##hangarskibe
##administreres
##Høst
##Mam
##Rotter
##],
##frost
##hne
##jere
##etta
##face
##sator
##plast
##Ree
##kridt
##Lock
##Taastrup
##menneskene
##sproduktion
##spændt
##skænkede
##nedslagskrater
##Bie
##Non
##deut
##ignor
##ols
##opfyl
##vedes
##ruin
##lidelse
##chten
##flød
##stidens
##stidende
##gennemgaet
##Joan
##uppet
##hverdag
##rammerne
##tisere
##faglig
##Jørn
##debatten
##Legat
##forsinket
##opsamlingsalbum
##Mongoliet
##Doku
##Prom
##Wang
##tilløb
##udbytte
##spillene
##reddede
##radgivning
##flyttedes
##konkurrerede
##dramatiker
##eksperimental
##dimensioner
##provisor
##Winther
##Fædrel
##Hyd
##Tet
##doping
##jse
##kru
##ucky
##attrak
##sier
##efterar
##gier
##mare
##utro
##garan
##arbejdes
##Moses
##landevejen
##kys
##Monu
##1753
##gorit
##folketingsmedlem
##satire
##Lon
##Tiger
##Wur
##feder
##staf
##forlænge
##værftet
##persisk
##prosa
##ppede
##katte
##programmerings
##maksimalt
##maskingeværer
##snedker
##efterspørgsel
##gemeinschaft
##Dip
##With
##Zam
##inal
##inskrip
##uru
##ulve
##fluen
##Nordjyllands
##green
##tredjestørste
##drene
##hertugdømmerne
##Quebec
##rapporten
##Ruten
##falt
##ulem
##yang
##1745
##106
##flyselskab
##livstid
##Haus
##iza
##mystiske
##sild
##trækningen
##Philipp
##Navar
##Augustus
##anklag
##global
##prominente
##Alabama
##Gjer
##Shen
##xon
##ethe
##edrift
##tem
##lationer
##værnets
##lettisk
##tsch
##Marco
##teksterne
##cykling
##vindmølle
##gasser
##orkestret
##Warren
##stiftelse
##kalksten
##foredragsholder
##Flight
##Pep
##RE
##hrer
##wild
##overføres
##herresingle
##tesse
##aldo
##Neer
##naturreservat
##strale
##Press
##gregorianske
##Hyl
##Ikast
##Utre
##epo
##fiks
##1670
##fritids
##Hockey
##erslev
##Berlins
##flodens
##Fyens
##bayern
##Gand
##Mou
##duk
##fortrol
##udven
##ism
##tryg
##venlige
##begyndende
##hærs
##seksuelt
##hændelse
##Flora
##Place
##papirer
##betjening
##anseelse
##propaganda
##anernes
##sting
##stans
##edi
##bech
##bemærk
##spen
##1731
##døgnet
##Skol
##kajak
##Henderson
##ultz
##fuglene
##arbejdning
##Nazi
##hurtigste
##embeder
##juris
##Nordeuropa
##Bok
##Cic
##Delt
##Flag
##Hut
##NM
##øgruppen
##stjern
##rain
##udtrykt
##sinde
##retfærdig
##ekstre
##Herceg
##smst
##Helm
##undersøger
##hitlisterne
##Paludan
##hævelse
##Garnis
##teleskop
##1683
##tydelige
##livsstil
##germansk
##Richmond
##undergrunds
##telefoner
##Crom
##hytte
##m2
##byl
##sering
##endo
##estisk
##Order
##kappe
##auten
##knob
##angeliet
##Mountains
##fiskeriet
##Ultimate
##smat
##befolkede
##vert
##pert
##akiske
##1744
##garanti
##kaos
##duoen
##latinsk
##Ligue
##vitation
##kapelmester
##avanceret
##afsluttes
##Orient
##Kvalifik
##Jelling
##HP
##Hvil
##Hest
##depor
##afslutte
##indsætte
##stemperatur
##femten
##Omgivelser
##stænder
##prinses
##Bangkok
##preussisk
##Maurice
##pokalturnering
##Gian
##senge
##samtaler
##handtering
##haller
##Seattle
##snød
##sæsonens
##Tyskerne
##grov
##elektroner
##Aker
##Jagt
##Sis
##raget
##behold
##rids
##lidet
##meridi
##stenborg
##Østtyskland
##ordener
##hævdet
##bispe
##forretningsmand
##Cruz
##Kentucky
##Tegl
##Shakespeare
##Hudson
##Athlet
##orff
##affa
##udbyder
##dioxid
##skabelsen
##town
##handværker
##trace
##Sean
##arvinger
##instruktøren
##Drew
##blomstrede
##stjalet
##Kerteminde
##Pand
##asi
##hler
##indbe
##nyder
##1742
##bega
##bankens
##styrt
##Never
##kunstig
##vaske
##teknologiske
##Knuds
##Europamester
##Nansen
##isolerede
##sposter
##kollektiv
##knogler
##Blek
##Scen
##aq
##kyl
##æsen
##antager
##eliv
##elands
##radte
##varighed
##føreren
##dien
##nude
##forbandt
##skalaen
##billige
##Opel
##selskabs
##designede
##forventninger
##kasser
##lastbil
##mekanisme
##Digital
##patrulje
##Oktober
##selvejende
##CV
##Pink
##Sna
##rasende
##æret
##sium
##indretning
##indtraf
##lius
##overskri
##unds
##103
##kommunes
##bayer
##torv
##ields
##svaben
##pladserne
##Command
##hævde
##patienten
##Dallas
##forvaltnings
##frar
##Dybbøl
##Anlægget
##Tha
##medbragte
##ottir
##Denmark
##bløde
##digtere
##trænede
##slagskibe
##Filmens
##tredjepladsen
##byggedes
##anmeldelse
##arkæologi
##signalet
##knudepunkt
##KFUM
##Coupe
##ovic
##forøge
##inges
##delene
##understøtter
##underjordiske
##filtr
##skultur
##ændringen
##svoger
##billig
##banebrydende
##bredelsen
##Vestjylland
##knytter
##hild
##sociologi
##Katrine
##analys
##gænger
##Løve
##Grande
##universel
##diskussioner
##PlayStation
##forpligtet
##Ward
##reres
##dej
##udo
##opot
##river
##Schon
##partierne
##Sct
##Torv
##Ulfeldt
##gennemsnitlig
##kraftigere
##særdeleshed
##rumænske
##relevante
##forstyrrelser
##September
##%).
##Age
##IB
##anes
##ligestilling
##grundstof
##Skin
##Landbrugs
##Aften
##forudsig
##operativ
##Rugen
##primitive
##Agger
##violinist
##tungere
##SPD
##Fakultet
##Akers
##Lærer
##Oak
##Than
##bøje
##nægter
##pletter
##ætte
##ellerne
##betales
##brikker
##Sto
##Mare
##Artiller
##sejrede
##Ordrup
##orkestre
##dominans
##havneby
##udnyttet
##varetage
##spektrum
##turneen
##observation
##Video
##Global
##fit
##entes
##anus
##amb
##undervise
##Carter
##identiske
##fastland
##Project
##stængel
##sandheden
##Londons
##fejrede
##busserne
##Haven
##Regionen
##Commit
##skærmen
##iesel
##embedseksamen
##summen
##realisme
##Liege
##usikkerhed
##gejstlige
##ekstraordinær
##Marianne
##Guden
##KS
##aide
##oca
##zio
##ondt
##media
##optages
##holden
##grø
##Kommunal
##Landbrug
##Houston
##bjergkæden
##forfattet
##trængende
##afsløre
##svømmer
##racket
##potentiale
##beskyldt
##Camilla
##hindre
##tas
##sterets
##andets
##boder
##antæn
##Herved
##flyets
##virkningen
##Heil
##Hood
##jorten
##tropisk
##Math
##Australia
##stabile
##grundlæggeren
##Kalk
##Kejserrige
##kvalifikationskamp
##eksplosion
##tuberkul
##April
##Sco
##Vul
##slede
##oria
##opstille
##vedt
##keram
##nyhed
##gørende
##Seoul
##banegarden
##fabriks
##grønland
##klimaet
##artilleriet
##marcherede
##??
##Bær
##Ear
##annul
##agens
##okku
##icus
##klog
##Arbe
##domæn
##Spør
##egentligt
##troende
##finansiering
##grafiske
##safremt
##landevejscykling
##foranstaltninger
##belysning
##HS
##Lone
##gult
##hvi
##lut
##oider
##skansler
##udlagt
##ismer
##serbiske
##mering
##holdige
##Infanter
##selvbiografi
##108
##badene
##velstand
##Cook
##vietnam
##Hassel
##moralsk
##infektion
##sklasse
##Rotterdam
##Aug
##Dat
##Felt
##een
##ingred
##aves
##ophavs
##koner
##vandkraft
##Trakt
##Zeus
##Tekn
##usædvanlige
##renæssancen
##datering
##Skuespiller
##Rungsted
##CF
##DN
##fortrin
##udskille
##sibi
##indsamle
##farligt
##Bebyg
##Lidt
##Performance
##lufthavne
##qui
##spolitikken
##Camer
##Atlantic
##besætnings
##grafisk
##Allierede
##Forsvarets
##kælen
##Arkitektur
##Weser
##apparater
##Juliane
##suverænitet
##/&
##Earth
##Fæng
##Kris
##VB
##drø
##iste
##ogien
##afilm
##konstan
##flet
##herkomst
##herskere
##femin
##nedri
##strøg
##Schou
##normanniske
##smug
##milliard
##Rick
##Kunstmuseum
##bindinger
##kraterets
##antenne
##Retten
##Utrecht
##IG
##pøl
##rille
##overførsel
##sattes
##riges
##mindet
##uniform
##halen
##fastslog
##trofæ
##Luci
##Føroya
##hertugdømme
##filosoffer
##Linje
##farverne
##Helsingfors
##Justits
##Piper
##Forsknings
##indianere
##belønnet
##konstateret
##bombardement
##fiasko
##Suðuroy
##Torn
##dyd
##glade
##mie
##smede
##elven
##afgange
##athe
##opland
##opløsningen
##dannelser
##fremstød
##egade
##ckel
##bagsiden
##stattra
##linjerne
##bogtrykker
##Sydlige
##FCK
##Race
##Modsat
##tegneserier
##hjulet
##slinjen
##sedi
##negativt
##gemt
##udsmykket
##Idrætsforening
##Girls
##homoseksuelle
##Eckersberg
##bolsjevik
##Heeresgruppe
##hunder
##anet
##neutrale
##seer
##rukket
##apti
##køle
##Volvo
##spærret
##Eduard
##Fight
##Istan
##Tegne
##skort
##forkyn
##tilrettel
##agan
##sap
##peret
##assist
##sæd
##Franske
##standse
##fodboldhold
##hedenske
##opretholdt
##slægtens
##bomb
##feltmarskal
##katolikker
##Gruppens
##Dylan
##forsvarsminister
##Office
##Mussol
##redigeret
##kompliceret
##vred
##skabende
##blø
##lovens
##elektri
##folketing
##Germain
##Elias
##pensioneret
##Rudolph
##Sadan
##beklædning
##facto
##Citroen
##voldelige
##bjørne
##Ægypten
##SR
##cz
##khan
##vant
##ال
##avls
##inda
##chau
##perfek
##plastik
##stødt
##Symp
##flaske
##logik
##scoringer
##børnehave
##finansiere
##jobbet
##brættet
##Ægteskabet
##Judas
##reagerer
##DL
##Figur
##blande
##ez
##vort
##inær
##tex
##delstats
##indløb
##tagende
##Alfa
##planeter
##verdensrangliste
##Merlin
##Panama
##legenden
##bopæl
##udenrigspolitik
##Sygehus
##Wallace
##Venezuela
##Gibraltar
##ghet
##rater
##rell
##fornøj
##ligevægt
##holdere
##konden
##Danny
##Ref
##affen
##administreret
##problemerne
##vitamin
##hydrogen
##Rodrig
##Festivalen
##Nissen
##bukser
##Scottish
##Istanbul
##Due
##Tina
##ii
##ædagog
##argang
##edom
##fødtes
##venskabs
##1736
##fortjeneste
##sønnerne
##oux
##duft
##aktivist
##tilfældigt
##formula_4
##cykelhold
##territoriet
##døbte
##Instituttet
##Dakota
##Hage
##Like
##Slu
##iderne
##fortiden
##rist
##ensyn
##akvar
##herpa
##ylli
##kornet
##læsere
##..."
##nalet
##restrik
##Westminster
##gylden
##Leonard
##gemme
##giftige
##forræderi
##konjunkt
##Ast
##arken
##edouble
##tillids
##indgreb
##genetiske
##holdelsen
##sling
##akim
##olds
##apen
##Story
##krigsførelse
##skommand
##gardejer
##tavlen
##erklæring
##forhindrer
##soloalbum
##Eleonora
##Bunde
##Fig
##Kem
##Lum
##iak
##smi
##yste
##afviser
##immer
##arhundredeskiftet
##Guitar
##Greif
##Betty
##Brønshøj
##cellerne
##maksimale
##Enhedslisten
##Sehested
##Cleveland
##Eich
##fall
##jugoslav
##detail
##agelse
##pavist
##kløver
##tals
##1737
##fremlagde
##1699
##Maren
##gravsten
##Løkke
##skæb
##opbevares
##observat
##aflejringer
##Dod
##Fyl
##elsk
##udfør
##generations
##wealth
##Saw
##konkurrere
##Kasakh
##maked
##udfordring
##Eastwood
##Bundesligaen
##Laborator
##udsmyk
##Fogh
##knockout
##newzealand
##Gros
##etagen
##ogner
##olit
##sekul
##flotte
##markere
##Schne
##smaler
##Olga
##Jerry
##beregninger
##lieb
##markedsføring
##beklædt
##kvadratmeter
##Rangers
##Bibliografi
##Schwerin
##CE
##NU
##Nid
##jut
##«.
##tiks
##indlands
##kontak
##nordamerikanske
##selvbiograf
##Sko
##aturer
##anvendelser
##fortællingen
##Færge
##football
##CDU
##langvarig
##artusinde
##Marseille
##380
##?)
##Ces
##Cold
##MV
##tøn
##ruder
##giftet
##bruck
##riger
##Neil
##families
##quin
##klædning
##Brygge
##Creek
##veteran
##loftet
##pseudonymet
##Orange
##Toft
##eger
##snæ
##Øv
##forstærke
##forordning
##section
##seedede
##endestillede
##round
##istrat
##Dani
##bagud
##henved
##Seven
##Movie
##scient
##salme
##toppe
##biskopper
##Pearl
##1709
##Boldklubben
##Winston
##moralske
##forvirring
##Maximilian
##Romeo
##Verwaltungsgemeinschaft
##Suc
##Snow
##gli
##hak
##udstationeret
##parap
##stropper
##lava
##lavest
##Paraguay
##jordbrug
##English
##relativ
##Spej
##frataget
##Fugl
##Dj
##Fej
##Hvem
##Roth
##ades
##stram
##fortids
##ikom
##ulv
##itterne
##1732
##indende
##svend
##Souther
##konkurrerer
##plot
##Benedik
##retssagen
##Jama
##korrekte
##sænke
##kabinet
##realiteten
##4000
##Astrup
##Sri
##Tis
##iført
##thailand
##forbruger
##verser
##dier
##aksen
##paragraf
##fasen
##Derby
##tainer
##like
##Barken
##koblet
##skinne
##Secret
##hvælv
##fornuft
##ekstreme
##340
##forfædre
##lier
##Rostock
##velkendt
##franken
##værksteder
##volden
##kvaliteten
##bølgel
##stolt
##arkiver
##flyvepladsen
##Murphy
##change
##Pictures
##Hirsch
##Pedro
##Ero
##Yoko
##dok
##uklart
##depot
##omgivelserne
##uddeling
##skep
##road
##Dean
##cesen
##herr
##Sevilla
##bestemmes
##skuddet
##spørge
##Samtidigt
##ugaard
##parallelle
##Sortehavet
##krønike
##Specielt
##Memori
##palæstinensiske
##Symfoni
##Shepherd
##Gymnastik
##Omar
##Tand
##vagen
##dekret
##orball
##oms
##ombi
##sebær
##opfylder
##bygmester
##imon
##register
##Udstilling
##Aftalen
##sværere
##Borgen
##palagt
##Hals
##involverer
##brylluppet
##cional
##voldtægt
##modersmal
##udrabt
##(-
##Ei
##Squ
##Træner
##cro
##derkop
##teks
##aman
##velsig
##111
##torsdag
##frankiske
##regimet
##regimenter
##kvalificere
##Byggeriet
##groft
##mekanik
##udstillings
##fødsels
##atleter
##Mittel
##Mesterholdenes
##sperioden
##leksikon
##Konkurrencen
##trompet
##eringer
##skvar
##legende
##algorit
##forhøjet
##neys
##agtet
##inddraget
##nerup
##førsteholdet
##jorder
##svamp
##guide
##sjællands
##pressede
##Birker
##artist
##forsør
##journalisten
##realistisk
##Valdemars
##Habsburg
##Djursland
##algebra
##Committee
##"[[
##Avi
##Luk
##Osaka
##Veter
##fad
##beboede
##udbrede
##ulin
##indeholdende
##kommunistisk
##Maine
##Atlas
##Videre
##break
##luftangreb
##Banks
##Munster
##Balti
##kommercielt
##Clinton
##Ejer
##Oven
##Yang
##afson
##forfølge
##indstille
##ofy
##tretten
##munk
##grupp
##normer
##taber
##greven
##Barry
##lokaliteter
##skommission
##kombinerede
##Kancelli
##Walk
##athon
##Gilbert
##terminal
##justitsminister
##bevæbnede
##database
##Føn
##Frost
##uaf
##forarsager
##pastar
##kedel
##indvalgt
##rane
##villigt
##hensigts
##førstnævnte
##organisering
##børns
##bevarings
##centreret
##Egon
##abnedes
##turistattra
##frugtbar
##frugtbare
##bringende
##koge
##auffør
##Brooklyn
##Bit
##Eag
##Sap
##tok
##æb
##delige
##ingo
##udvinding
##lich
##licen
##Stø
##blinde
##farfar
##kunstige
##fuldkommen
##transistor
##Turisme
##McClel
##argentinsk
##værnepligt
##Yngre
##krediteret
##Orchestra
##Blod
##Prest
##Suez
##dnings
##piller
##west
##udland
##serbisk
##hjemmesiden
##Loke
##udvides
##Gaz
##ekspeditions
##biografer
##Roland
##revne
##Stadt
##Brødrene
##Sydøstasien
##skrona
##BT
##cab
##oldet
##meddelt
##byomradet
##oversø
##brø
##1714
##1680
##cert
##godsej
##arsudstilling
##Medicin
##Uddannelsen
##skibsvær
##Kaz
##undersøgelsen
##knust
##mørkt
##Philippe
##skikkelser
##Satel
##profet
##uguay
##Zoo
##Administrativt
##flittig
##Saturn
##Phoen
##Southern
##hlen
##water
##till
##genetisk
##geret
##efterfølgere
##aps
##bedrifter
##Schrø
##Kommunens
##Management
##Mai
##publikationer
##tario
##krates
##Burn
##boksede
##akademisk
##puljer
##forsvarsspiller
##Gyldne
##umulig
##botaniske
##jagten
##dokumentation
##delegation
##jægere
##Hessel
##Lyk
##long
##uventet
##respon
##uller
##gentog
##tidl
##selig
##bagved
##molek
##hunnen
##forbinde
##hovedgard
##religiøst
##reserveret
##lastbiler
##Computer
##stiftamtmand
##Sønnen
##torpedoer
##opgraderet
##hvirvel
##molekyl
##Agen
##Dio
##Vogn
##enæ
##lejede
##udviser
##urter
##genforening
##chers
##Defin
##1719
##fikationer
##Holte
##Masters
##Trade
##definere
##Peuge
##Centret
##hyppige
##pædagogiske
##kontroversiel
##Electric
##lidenskab
##Kog
##Kgl
##Ther
##Tart
##forfær
##overføre
##konfron
##offel
##personal
##Schal
##keltiske
##ips
##Scandinav
##inspek
##Ontario
##Medlemmerne
##kontinentale
##Bryan
##CH
##Hod
##Page
##sandet
##skaf
##aftalt
##opdage
##rick
##senat
##uruguay
##flager
##værft
##herom
##statuer
##formationer
##domstolen
##Hertz
##brændende
##Ulla
##Superliga
##herredouble
##græsning
##komediefilm
##internt
##undertrykkelse
##animationsfilm
##Bolog
##Holding
##Sac
##dykker
##fros
##kyr
##tial
##afholder
##odukt
##maraton
##Dane
##endal
##Alborg
##hunger
##fattede
##Sei
##byggerne
##History
##Johnston
##schaft
##quist
##Buff
##Januar
##Paulo
##Nuuk
##faktiske
##fenben
##Bundesstraße
##melodien
##kompagniet
##Spencer
##Satellit
##Did
##KV
##skerne
##advok
##vandrer
##Sege
##Bros
##kejserens
##urneringer
##trio
##variabel
##kroppens
##Labour
##Profession
##arbejdsløshed
##Technology
##entreprenør
##Hare
##PO
##Pyt
##sho
##tær
##ures
##aros
##ogram
##overblik
##modsta
##tenham
##blæk
##fremryk
##dømmer
##vælgere
##TV3
##inderste
##Cambod
##tankegang
##dybeste
##oversvømmelser
##eskadre
##digitalt
##bekymring
##fragmenter
##defensive
##Rafael
##reagerede
##støbt
##Kristiansand
##850
##Cole
##hytter
##sof
##ischer
##desværre
##1734
##motivet
##trekant
##Them
##Berry
##fredse
##sprodukter
##body
##Heidel
##prestigefyldte
##Stednavnet
##Ralph
##friluft
##tilhørsforhold
##IBM
##Lope
##Nash
##into
##tilfaldt
##radition
##undslippe
##handlingerne
##generalguvernør
##væsener
##Olof
##radiop
##Danneskiold
##symbolsk
##grevskab
##apost
##Offent
##rumænsk
##utilfredshed
##kriterier
##Tj
##cca
##antil
##illu
##havere
##usand
##demien
##bjergar
##metery
##nationalparken
##materielle
##Falk
##apotek
##Wake
##uroligheder
##moment
##Svalbard
##Aga
##Yos
##sdatter
##anmo
##etti
##afholdtes
##overtale
##max
##veninde
##fremherskende
##studiere
##stridende
##Landsret
##Penge
##beregne
##debattør
##Lenin
##Hogwarts
##Breda
##Clement
##verdensomspændende
##Ltd
##ime
##ialer
##jok
##loft
##myl
##sundet
##sernes
##depres
##ania
##udgravet
##return
##1739
##Liste
##systemets
##beregning
##fibre
##jiang
##hydra
##Guldborg
##perroner
##kundskaber
##guddommelige
##Tobias
##ligakampe
##Grevskabet
##repertoire
##('
##DG
##FS
##Java
##MW
##anførte
##afbry
##avant
##lips
##byrad
##kontekst
##kanonen
##tallene
##mellemkrigstiden
##Marien
##prior
##sprogrammer
##direktionen
##jordbund
##udnyttes
##Cemetery
##Klin
##edan
##udleveret
##opfatter
##vei
##overtager
##værns
##cester
##digheden
##Proces
##allieredes
##Brati
##befolkningens
##antisem
##skelner
##Burma
##Jules
##spolitisk
##1672
##buttel
##Christoph
##monumenter
##runesten
##overvintr
##Children
##Phoenix
##DTU
##Sik
##iber
##ikum
##indsamlet
##marsken
##kunstværker
##katedralen
##bygningens
##succesrige
##Borde
##Gert
##Terror
##varetages
##Leningrad
##Plon
##detaljeret
##henrettelse
##associeret
##enstemmig
##Brag
##mler
##udløbet
##rib
##overordentlig
##ofler
##betaler
##provsti
##1690
##hama
##ups
##radgivere
##scan
##kilderne
##Underta
##koldt
##Ishavet
##Haand
##Venner
##hlensch
##ckers
##hemmeligt
##Productions
##Eugene
##overlevelse
##119
##Fød
##Vie
##Vati
##Øver
##medtaget
##slotte
##klage
##1711
##mala
##fremtidig
##franc
##wehr
##Brow
##Jacksons
##college
##hjulstræk
##anklagede
##fornyelse
##udøve
##Kredsen
##forpligtelser
##vampyr
##Aserbajds
##anor
##forfulgt
##sec
##delfin
##konfisk
##Stop
##Lege
##kommunister
##roning
##ronningen
##teknikken
##Broder
##øjtel
##granat
##skildringer
##ISBN
##magnetiske
##rovdyr
##Sierra
##Peugeot
##Vade
##rykker
##etid
##olier
##udviste
##søy
##talenter
##ego
##kirt
##acet
##skolegang
##lysere
##sure
##Trold
##Juli
##Kongressen
##Storebælt
##Bulow
##fusioneret
##reklam
##Bøhmen
##kundskab
##Schwarz
##Commonwealth
##receptor
##Bris
##Lich
##ises
##timen
##tiltrække
##udslet
##opbygningen
##opføres
##opbyggede
##steuropæiske
##indrettede
##kendelsen
##begær
##banan
##127
##persons
##Thomp
##Bergens
##skovbrug
##Radhu
##pande
##truffet
##aktører
##sjov
##befrielsen
##Toyota
##verdslige
##indsprøjtning
##Bona
##Lek
##bust
##bott
##ello
##tilskyn
##optegnelser
##vintre
##Franken
##tabe
##læren
##Code
##foretager
##definerede
##sprojekter
##opotam
##Jons
##dub
##works
##byudvikling
##akkum
##bryn
##China
##kaptaj
##Roma
##brændsel
##boksere
##stemmeret
##Olesen
##demonstran
##adskillelse
##Augustenborg
##Wulff
##Universitat
##Svar
##cad
##ugten
##bevist
##opæ
##betro
##borte
##Break
##manederne
##hulen
##ankomsten
##fosfat
##astronomi
##inviterede
##serklæring
##massakren
##freelance
##AO
##Mænd
##latter
##bestig
##behag
##rider
##menigheder
##byplan
##stenalderen
##1738
##1733
##holdkonkurrencen
##ytten
##virksomheds
##angrebs
##Finale
##skylden
##Jeffer
##Bristol
##socialdemokratisk
##Belgi
##grundlæggelse
##Family
##frigiv
##Campbell
##molekyle
##beskedne
##armenske
##Johansson
##umberland
##Bræn
##Nød
##Suk
##Utah
##kut
##telt
##alteret
##abon
##gerninger
##Formand
##sage
##naturgas
##mannisk
##hofjægermester
##Sideløbende
##Double
##templer
##islamisk
##Napoleons
##forarsage
##Watson
##skriptet
##blomstrende
##torpedo
##indvielsen
##referere
##Harrison
##laboratorium
##weekend
##inflation
##Birkerød
##Emer
##Gotland
##TE
##fut
##kage
##trede
##edler
##omsorg
##forgift
##tilstødende
##simul
##laste
##laug
##vandfald
##Alf
##155
##nedskrevet
##motorerne
##fuldført
##Nyere
##Teaters
##1701
##jernbanelin
##Warri
##1688
##neutralitet
##modstandsbevægelsen
##Spørg
##480
##Lane
##MT
##Mega
##nag
##tiders
##somkost
##bygard
##feud
##vestkysten
##kirchen
##buste
##Cool
##opererede
##frue
##Thorning
##journalistik
##Tolk
##skonkurrence
##Versailles
##Tchad
##440
##Jø
##Kret
##cts
##jagere
##omdannes
##atar
##beren
##eftertiden
##lingvist
##fauna
##Referencer
##milj
##Nept
##røver
##kongerne
##ægtefælle
##bomuld
##Silva
##Absalon
##kasset
##Discover
##territorial
##vurderer
##usikkert
##Senest
##Brest
##MO
##NBC
##Puer
##øve
##onavi
##abnes
##genvandt
##slan
##Debut
##obil
##ruppen
##handlet
##Skel
##abenbar
##Confeder
##skuespillerinden
##udvidelsen
##Take
##fjerdedel
##hatte
##1689
##1676
##Større
##sprisen
##protesterede
##BMW
##wrestlere
##præmier
##introduktionen
##fossiler
##Herlufsholm
##Hercegovina
##Moss
##Owen
##Um
##dyk
##esti
##pto
##ypen
##aftryk
##fordrevet
##istrup
##brande
##imag
##husede
##elefant
##thumb
##ibn
##legium
##lensmand
##potentielle
##Muhammad
##EHF
##Hort
##Hale
##Osl
##Sina
##Tav
##osa
##zur
##stene
##teat
##agde
##skema
##ophøjet
##ræning
##kongeligt
##Sting
##visuelle
##plakat
##viking
##synkron
##Filosof
##ovenstaende
##Terry
##Quin
##udelukket
##Angels
##israelsk
##Svane
##Birgit
##mislykkede
##sygeplejerske
##Aleksandr
##writer
##skommissær
##430
##Blok
##Cord
##Lotte
##forhandler
##replik
##uns
##bei
##rimelig
##grin
##togs
##hunner
##sagfører
##ichi
##kørslen
##rangerede
##buslinjer
##Operaen
##Fortæl
##rullet
##Stadionet
##Diana
##dino
##kis
##pæn
##zj
##ðar
##ligninger
##opdateret
##indtjen
##konges
##vævet
##boyk
##Hollands
##torn
##Boden
##Persien
##sikkerheden
##Faxe
##afvikling
##psykolog
##seedet
##Telefon
##argumenterede
##Landets
##Læsø
##opbevaring
##Forskellen
##!".
##"«
##tilfanget
##opfinder
##landmand
##istrik
##otten
##retfærdighed
##skulder
##tilbagek
##mattet
##Sande
##Perio
##Melch
##ævnet
##erstattes
##Jessen
##psykologisk
##betingelserne
##langvarige
##indenrigsminister
##indskrevet
##ultur
##sers
##konen
##modne
##kly
##1662
##ranglisten
##myster
##kreisen
##brugtes
##Corps
##lukning
##nominerede
##Studier
##skampen
##mobile
##frigør
##bønner
##etableredes
##bureauet
##hastigheder
##Slægt
##motto
##Bismarck
##Grad
##Kha
##Mine
##cc
##omverdenen
##afgav
##tiltrækker
##agers
##indlede
##indblanding
##Anatol
##koral
##Ork
##turnerings
##Østergaard
##forudgaende
##Jernban
##jævnt
##forstærker
##værktøjer
##skommune
##Simpsons
##Gør
##abe
##pct
##opus
##lase
##overgivelse
##trang
##eksam
##ægyp
##egner
##Intel
##Forbundet
##boards
##mons
##Karol
##jetjen
##Rommel
##Edge
##hængen
##kejserinde
##kronblade
##filosofien
##lejligheden
##psykologiske
##Liechten
##betydningsfuld
##seminarium
##Hongkong
##empi
##Cin
##Cai
##Gim
##Num
##Sle
##Søb
##TNA
##uf
##wl
##ants
##opløsel
##essa
##ass
##1630
##ateriale
##bosiddende
##Skæl
##personel
##ceringen
##Thule
##Byrad
##aktierne
##konstruerede
##CIA
##kusine
##Cheroke
##Chopin
##Kot
##Manden
##Vinder
##rend
##pastande
##saks
##kontrak
##iret
##Mao
##mindesten
##direk
##Hovedparten
##Nørresund
##Giu
##colombi
##Catherine
##beregnes
##infanteriet
##bemærkelsesværdig
##bevæbnet
##komplicerede
##loyalitet
##overenskomst
##omstridt
##proportion
##Neergaard
##Fæst
##Here
##rash
##fløje
##124
##standarden
##ffield
##Hey
##statsoverhoved
##folkeskolen
##Asger
##Katharina
##sari
##klostret
##oprørs
##civilingeniør
##tilpasning
##bekendtskab
##DKP
##Adelaide
##ambiti
##Greifs
##Atter
##Kvin
##Korn
##cord
##nist
##pH
##rate
##sod
##ui
##geor
##konfront
##lante
##icum
##lysende
##halvering
##buster
##guverne
##produceren
##radius
##Halland
##restauranten
##butikken
##Petro
##Grim
##fratradte
##koncentrere
##Mørk
##Nytorv
##tekstiler
##Jurgen
##Connectic
##Heden
##Nit
##Povl
##orier
##tiserer
##illo
##sendelse
##ablo
##ugge
##ovne
##bibli
##Afsnit
##budskab
##takkede
##bronzealderen
##spidser
##katolic
##gulds
##menneskeheden
##sprint
##mytologiske
##belejrede
##Kærlighed
##Gallien
##Segeberg
##Gw
##PD
##ftes
##kio
##lord
##skøbing
##medes
##lion
##1716
##parodi
##stederne
##soul
##støbe
##ppes
##bjergr
##katedral
##slava
##porcelæn
##arrangerer
##dominerer
##Amalienborg
##ceremonien
##ulovlig
##bibelske
##adjunkt
##Empire
##Irish
##Kierkegaard
##Mits
##Neg
##æge
##arrondisse
##befæstede
##senatet
##leren
##fraktion
##ush
##roset
##giej
##umi
##1715
##gelighed
##filter
##estim
##Schultz
##Maskin
##Frihed
##Vasa
##realistiske
##Signe
##Gotha
##sjæle
##landevejscykel
##download
##overvældende
##grøntsager
##Apo
##Ble
##Mold
##TF
##ei
##arveret
##ørs
##iranske
##ekstern
##obla
##stierne
##landsbanen
##hvervet
##Lees
##Theater
##hellere
##lux
##skilder
##kamre
##nytar
##Mahon
##Udseende
##halvbror
##køer
##romantik
##taktiske
##arrangere
##Country
##overbevisning
##Simpson
##Roberts
##Yorkshire
##KK
##Rytter
##gitter
##here
##ypt
##almu
##amentet
##udsættes
##ofrene
##sidenten
##statuen
##nutidige
##skulde
##hjemkomsten
##shing
##gruppespillet
##skuespillet
##Monica
##Schar
##Unions
##1707
##fredsaftale
##pladekontrakt
##Multi
##civilisation
##Hvordan
##ambitioner
##certificeret
##Skeel
##Oehlensch
##Melchior
##Cot
##Lunde
##Mæl
##Miner
##Tou
##Væk
##singer
##anmodning
##orca
##afy
##alu
##indblik
##meister
##listet
##illeder
##træerne
##Thes
##owski
##fundne
##relie
##relief
##Graz
##herreds
##tics
##Kaptajn
##detaljerede
##Facil
##DAP
##Ydermere
##Fernando
##registrering
##gødning
##Schrøder
##Tap
##oide
##arina
##rekre
##udbredelsen
##genvinde
##bergen
##macher
##vennen
##1717
##standpunkt
##brow
##lovforslag
##Desværre
##enkeltstart
##patog
##forbundne
##bronzemedaljer
##transporteret
##redigerede
##Greifswald
##Gj
##Hast
##Pent
##Vokse
##Ya
##orlov
##lement
##vifte
##hville
##advarsel
##krom
##parrets
##1640
##itisk
##karros
##cerings
##radgivende
##mindede
##bombet
##bronzemedaljerne
##bæltet
##kuppet
##sposten
##iværksat
##afgrænses
##zania
##skandale
##kartofler
##Dorthe
##Sikkerhed
##tuberkulose
##Edition
##Job
##Pes
##ario
##udstrakt
##ophy
##merer
##1725
##1722
##ities
##Ska
##polem
##sandsten
##verdenskrigs
##Malcol
##ivas
##firmaets
##Munke
##Essen
##vognene
##lægemidler
##cykelløbet
##arkæologisk
##formuleret
##Ragnar
##Francesco
##vacc
##altertavle
##Metallica
##Nørresundby
##Aars
##Łodz
##force
##fornær
##iland
##ophæve
##indsamlede
##overvinde
##Støv
##Stjerne
##nedlægge
##milde
##irektør
##kampens
##Kara
##officers
##smad
##Adal
##vabenhus
##klim
##fejde
##Knight
##murene
##Grace
##forsyne
##Tomas
##Brasiliens
##cylinder
##Nedre
##Schlesien
##eksperimentalfilm
##Gille
##due
##ams
##beføj
##abelt
##konstitueret
##1620
##træffe
##stemningen
##filmskuespiller
##personerne
##massen
##direktøren
##Borne
##true
##1685
##Lilleasien
##naboer
##konventionelle
##Indepen
##opfindelse
##begejstret
##stedfortræder
##Thompson
##Wander
##ef
##sud
##tdr
##erkl
##ird
##ieu
##Anmel
##statu
##skrit
##Rei
##vestpa
##tilbagegang
##Konstru
##Nordic
##tegnes
##præsenterer
##Valent
##Ull
##næstkommanderende
##Porto
##varemærke
##hurtigst
##slip
##panserdivision
##oliven
##redaktionen
##diagnostic
##omringet
##cricket
##uhyre
##agende
##malay
##1664
##126
##østkyst
##vask
##videreført
##Willy
##sporede
##Isle
##Sydfrankrig
##Edda
##faldskærm
##Gode
##bronzealder
##beskyttelses
##Tanzania
##Partiets
##mikroskop
##Autom
##mistænkte
##Kobber
##Nevada
##Bebyggelsen
##Heidelberg
##Rok
##qi
##omac
##ørt
##opsætning
##abbed
##førslen
##slandet
##Artist
##livsvar
##Grey
##maneds
##kemikal
##Hadsten
##tunnelen
##Regering
##alyse
##teenager
##Strasbourg
##Bind
##Jav
##padder
##trylle
##Chand
##gennemgang
##Joakim
##Livs
##klasset
##Weber
##eksistensen
##primærrute
##rekrut
##variable
##udelu
##makro
##destinationer
##gennemsnitligt
##forklares
##Sheffield
##Virksomhed
##adressen
##sturne
##Cecilie
##symmetrisk
##Tuborg
##facaden
##lyrik
##radioprog
##Aserbajdsjan
##Hid
##Ods
##udveks
##rieren
##spel
##Stæng
##oldtidens
##osc
##friske
##hyp
##Knopperne
##udsender
##væggene
##krydder
##Actor
##formidle
##globalt
##indianer
##afbildet
##tvilling
##ugentlige
##Kasakhstan
##Battle
##Jyd
##Kni
##Riks
##Tali
##asy
##djur
##hæld
##kina
##isi
##indtager
##1661
##borgs
##nedstammer
##trag
##Rem
##Undervisnings
##abenbart
##industrier
##Frederiksværk
##slipper
##bull
##iværksatte
##emigrerede
##FI
##FID
##Oc
##Pam
##Pots
##Raven
##bam
##forkor
##testet
##ily
##rius
##efterars
##sindede
##understøtte
##Dengang
##marks
##122
##145
##Leve
##Somalia
##Helen
##kapsler
##Aaron
##anlæggelsen
##Airways
##konstruere
##indsatsen
##substan
##nazisterne
##apoteker
##opfordret
##Staun
##pædagogisk
##Forfatteren
##./
##Født
##Try
##afen
##sidigt
##efterladte
##irri
##ublet
##Argentin
##mphis
##formlen
##links
##politiets
##drages
##Indbygger
##byggerier
##Knuth
##Fader
##varierede
##administrations
##Nikol
##forbuddet
##Jakobsen
##forandret
##Døds
##ukrainsk
##Randy
##Diskografi
##ligaklub
##Burgund
##Canadas
##ferskvand
##Garnisons
##Bologna
##Aber
##Areal
##Hig
##Rut
##Trol
##afgøres
##onia
##ligningen
##hanner
##komster
##Chry
##mentale
##Thunder
##skuespillerne
##udvidelser
##foranledning
##consin
##skontrol
##Stads
##revyen
##stadionet
##Capital
##Guldberg
##diskuterede
##Prædikestolen
##paraply
##Vatikan
##225
##460
##Gly
##Hjel
##ml
##bestilling
##libret
##1718
##storme
##oldnordisk
##1657
##standing
##Beograd
##Nordrhein
##nifer
##Final
##sandt
##Colle
##dals
##kryb
##pirat
##tilpasse
##Gottlieb
##Circle
##distribution
##Botan
##hekse
##Wisconsin
##vellykkede
##Traditionelt
##Potomac
##Hughes
##unnelen
##370
##AI
##Fanta
##Rak
##oterne
##zink
##afsatte
##lign
##udlej
##indskrifter
##lemand
##okia
##metod
##1634
##domkirke
##132
##Stores
##snak
##affyr
##fisken
##sygdoms
##oprørerne
##Svendsen
##Rocky
##hastigheds
##Pitts
##skroget
##Lopez
##Apost
##Rit
##Stet
##gymna
##seller
##udførelse
##genopført
##hovedbygningen
##hovedkvarteret
##Nebel
##folkelig
##koster
##komplette
##forenk
##western
##Saab
##Viby
##Larry
##Ballet
##anmeldere
##foresla
##cussion
##økologiske
##økologisk
##Akademiets
##maksimal
##Nashville
##publicerede
##soundtracket
##Matthias
##Voksested
##Malcolm
##Khal
##MR
##Turi
##lyng
##nægtet
##pos
##uum
##ansigtet
##omløb
##tiltrukket
##seværdigheder
##udlands
##opdraget
##urser
##anga
##sæbe
##træv
##Soc
##enkeltturnering
##balancen
##Works
##Georgien
##kombinerer
##parlamentariske
##anklage
##fjeldet
##Mauri
##Chamber
##implementer
##hundredvis
##bataljoner
##Puerto
##Bast
##Caen
##Datter
##Spo
##uændret
##orkan
##skæv
##omstæn
##atch
##kegle
##usyn
##samtidens
##kton
##sløbet
##Heste
##Board
##Omvendt
##tempererede
##1708
##Lancaster
##Middle
##Gorm
##Second
##hierark
##Caribien
##Connecticut
##420
##Vandet
##afbud
##odor
##harede
##førere
##slik
##1723
##forsket
##Leeds
##spillets
##Spy
##Memphis
##mystisk
##fonds
##guldalder
##anlægs
##fædrene
##logisk
##Train
##omkostningerne
##Igen
##dnere
##insist
##othy
##talerne
##numer
##vikingerne
##Rost
##slagter
##bogens
##Maje
##Karsten
##Haralds
##nederst
##Georgi
##distrikterne
##deltagelsen
##instruktører
##Bjerget
##agaard
##illustreret
##formidler
##Tottenham
##billedhuggeren
##teenage
##antikkens
##Hulk
##geometri
##anatomi
##grækerne
##Avenue
##Toulouse
##erklære
##Batter
##Kau
##Vuelt
##gab
##hog
##enig
##input
##omkr
##Hannibal
##ventes
##1713
##gravene
##østpa
##midnat
##svind
##myte
##Oplys
##Metz
##Bygningerne
##pulver
##Living
##lensgreve
##flygtet
##demokrater
##Machine
##isotoper
##Fighting
##Akershus
##Undertaker
##Kiss
##Oreg
##Ts
##hviderus
##jov
##arde
##affin
##vement
##indsættes
##ræde
##koncil
##citeret
##løft
##Hunde
##kampagner
##syns
##Bertel
##husi
##Newton
##Historiske
##Haa
##støtten
##brystet
##kritikken
##Ronnie
##honning
##harmonika
##sekundære
##Susan
##Memorial
##Bøl
##ISS
##LC
##Wed
##[...
##kager
##afly
##alands
##forbruget
##udmærkelse
##overvejede
##modig
##grundig
##husholdnings
##Leice
##Bever
##Perth
##ization
##statslig
##Davies
##Roll
##flygter
##Truman
##ignan
##source
##kælderen
##Lynge
##Øresunds
##berørt
##bestilte
##Snorre
##TH
##kad
##otisk
##allet
##terras
##kompati
##hvorunder
##mellemste
##Joy
##hverdags
##konkurrent
##fejret
##Britan
##savnede
##ekstraudstyr
##Middelhav
##suppl
##korsfar
##glimrende
##mangfoldighed
##enzymer
##Ærke
##Bordeaux
##Kende
##dres
##mier
##nos
##pind
##elærer
##underholdnings
##orts
##visningen
##Skatte
##Thott
##radhuset
##snig
##hædret
##millimeter
##bjergkæde
##Moritz
##figurerne
##herredømmet
##opleves
##dommeren
##frod
##spændingen
##skinner
##Kjellerup
##Fril
##Cameron
##Crow
##Nol
##Pors
##fægt
##skog
##forban
##liche
##signatur
##spilde
##para
##Andor
##Marstrand
##stasia
##Ley
##opryk
##producenten
##bedstefar
##quet
##foretagen
##Primera
##guitarer
##Planet
##Academ
##subjek
##iji
##Nancy
##pabegyndtes
##maritime
##Ekspeditionen
##behøvede
##Definition
##Call
##piet
##rar
##sjo
##uma
##stress
##forst
##reel
##videns
##byrads
##komtesse
##hunnerne
##sagar
##power
##nærhed
##sproglig
##hygiej
##Dessau
##brænding
##Handlingen
##tørt
##Portland
##regelmæssig
##grundlægge
##Deltagere
##stemmeberettigede
##graderet
##biografen
##overvejelser
##kongedømmet
##kroatisk
##Himmerland
##rektang
##Cub
##EE
##ernærede
##skisk
##afgjorde
##udby
##lisk
##samarbejds
##rough
##konto
##Devil
##1729
##mandskabet
##Steffen
##Guer
##balan
##grundlæggerne
##Isaac
##charter
##raketter
##filmatisering
##langsommere
##Iversen
##Dels
##Iowa
##NE
##uber
##tific
##report
##optiske
##lykken
##ims
##togt
##165
##Hermed
##plantning
##kolla
##stationens
##Bror
##Michaels
##arkitektoniske
##Bygnings
##ødelæggende
##Skibene
##evigt
##muskler
##toilet
##periodiske
##Dumb
##Male
##ecu
##jou
##arerne
##eloven
##seil
##medmindre
##chy
##undlod
##Nysted
##thriller
##hitlister
##tribun
##oprørere
##forstaelsen
##Walker
##Billund
##Smiths
##assistenttræner
##muslimsk
##Humle
##mistænkt
##eksperimenterende
##sekretariat
##ocaust
##Pret
##utiske
##forrad
##rekonstruktion
##efterretnings
##visme
##feminist
##satser
##filologi
##chefer
##kurator
##lodrette
##lovende
##Conference
##Kaiser
##kvindehandboldlandshold
##missionær
##grupperinger
##Miles
##fokuseret
##Lunds
##kobling
##partnere
##dødsstraf
##klinisk
##Klaks
##moderniseret
##Fabrikken
##Modern
##attentat
##bemandet
##vinduet
##Bratislava
##Aben
##MB
##jæt
##loss
##antage
##sturnering
##udflugt
##della
##ruinerne
##genskabe
##servat
##grenede
##ynam
##1727
##Alten
##Samlet
##Cannes
##vægtklassen
##strømninger
##befolkningstæt
##jakke
##monarkiet
##relevant
##belastning
##initiativer
##Foss
##Kis
##Lion
##Pump
##Slang
##ake
##hre
##arest
##tip
##harma
##Denis
##Stade
##136
##brugerne
##kunstmaler
##Cote
##hærgede
##smalet
##stationcar
##alliancen
##borgerlig
##Havnen
##onyme
##Territor
##Huit
##reserver
##foed
##modstanderen
##udnytter
##intensiv
##portrætteret
##diplomatisk
##Brande
##pigerne
##Geschichte
##fornuf
##Pyrenæ
##Lejre
##Eritre
##Leicester
##Abild
##thal
##yers
##forhøj
##forbryder
##terrænet
##paske
##ussia
##konson
##slanger
##trins
##ordne
##søges
##nete
##herren
##ægger
##saget
##tekam
##Nordtyskland
##kulde
##mormon
##salmer
##Proven
##retningslinjer
##Locke
##Vari
##Triple
##blodige
##indspilningerne
##komplekset
##sekvensen
##smerter
##skrue
##heimer
##Grindsted
##jurisdik
##Odysse
##telig
##eddik
##forgyl
##sener
##Deep
##vika
##disses
##cession
##flytningen
##Harbor
##motorcykel
##rigsradet
##onsdag
##trives
##færdiggjorde
##gælde
##Volga
##ledelses
##takke
##ingeniører
##pæle
##dybtgaende
##Sejr
##stævner
##grundlovs
##Espana
##Asp
##AFC
##Høn
##Uffe
##Wonder
##dl
##plaget
##sno
##skikke
##derende
##sektioner
##krans
##Strækningen
##klum
##nerv
##fremdeles
##proje
##Lech
##Nex
##kaj
##kild
##fyrre
##komponere
##skriftsprog
##svenskan
##kiste
##eventy
##frisland
##offensive
##nøjagtig
##menigheds
##tiltagende
##Administrativ
##præfekturet
##guerilla
##Jefferson
##Dum
##Oder
##cl
##srig
##forfald
##bleven
##istiden
##yndet
##1712
##trade
##boer
##cenes
##jernalderen
##svor
##ordentligt
##Guild
##sjældnere
##tørve
##forudsætninger
##galak
##Skovgaard
##jury
##departements
##lovgivningen
##Jennifer
##indianerne
##berørte
##Dri
##Happ
##Mek
##Pers
##Trolle
##Ural
##ærede
##stikke
##hollænderne
##slære
##make
##vække
##breder
##storby
##impression
##træffer
##Arkan
##amerikaneren
##vokaler
##vakt
##Medier
##290
##spidse
##Doctor
##kritikerne
##beredskab
##civilis
##arrangementet
##markedsført
##modernisering
##bassinet
##sordenen
##Dortmund
##tendenser
##Plin
##Seren
##onske
##ingham
##dettes
##avle
##spæd
##uly
##abort
##eslag
##life
##konferencer
##malrettet
##Marts
##fattet
##højhed
##halsh
##Bydelen
##jordisk
##kollegiet
##stitutter
##Haiti
##ovenpa
##agenter
##Malm
##skudar
##ivod
##darligere
##Brugen
##behandlings
##arabere
##vagter
##alogi
##individuelt
##investerings
##kroatiske
##-/
##Nø
##Ville
##Zac
##cing
##stund
##skyer
##omdiskuteret
##pavirkninger
##opkøbte
##host
##Inte
##højtide
##rænsen
##styper
##operatør
##begrænsning
##Slesvigske
##slots
##slid
##Motors
##teoret
##propriet
##bryggeriet
##nedenstaende
##Brandes
##udtalelse
##ødelagte
##ottendedels
##Grundtvigs
##defensiv
##tilbagevenden
##Rhod
##kompetence
##revideret
##Emir
##Kav
##klitter
##agten
##samvit
##underordnede
##grat
##cem
##følsomme
##1675
##ksburg
##lavning
##Daw
##Karup
##Landskabet
##løsnings
##stigninger
##stjæle
##Jarl
##Napoleonskrigene
##glatte
##cylindret
##Uran
##jp
##erkendte
##depo
##arit
##edo
##forlæg
##laks
##apolis
##fremførte
##1645
##styrket
##raffin
##speed
##naturvidenskabelige
##Stevens
##natrium
##næstældste
##Møllen
##arbejdsplads
##kombinationer
##fangede
##forklaringer
##kontakten
##skiftevis
##hjørner
##hylde
##kvindes
##ritmester
##sprængt
##Barthol
##fineste
##eskadron
##Electron
##Bispebjerg
##Flade
##Wing
##Yun
##afbrød
##tilmed
##varig
##landsøerne
##samtykke
##tidspunkter
##other
##okker
##pard
##adede
##blin
##bagside
##1550
##inesen
##lighederne
##Nordøst
##nyttige
##Harmon
##nationalisme
##hym
##fyrsted
##sympa
##Hammel
##messing
##placeringen
##lukker
##trænger
##mænds
##Markus
##muliggjorde
##chancen
##Udenrigsministeriet
##grammatik
##konservatoriet
##Jiang
##flittigt
##Heavyweight
##opdræt
##Fine
##Id
##Mindre
##cana
##bestaet
##enson
##nyde
##minus
##sejendom
##Matil
##videnskabsmand
##europæere
##hrt
##gudstjeneste
##Museums
##blokken
##Vanløse
##Floyd
##Jespersen
##forbrydelse
##forsvundne
##hentyder
##Nicholas
##Zagreb
##Baltimore
##Gut
##GAF
##Jet
##jent
##vundne
##rask
##illen
##meninger
##geologi
##chik
##123
##Konflik
##kostet
##Samsøe
##konkurrenter
##Kunstakademi
##fuglearter
##batten
##indtægterne
##Mogensen
##Strauss
##Manuskriptet
##mislykket
##oxygen
##Athletic
##oid
##uklar
##forøgede
##udmunder
##esøster
##sindet
##Depart
##ugget
##Pati
##Christi
##sangreb
##valgret
##Briterne
##Christie
##ritual
##enormt
##Illust
##Huitfeldt
##Bole
##OG
##aard
##ides
##skus
##reuth
##opstigende
##keley
##spender
##lach
##søens
##eknik
##vink
##regeret
##lejrene
##lændere
##rollespil
##hittet
##sletter
##værkets
##Pete
##1671
##temaet
##abilitet
##sønderjyske
##Catalonien
##Bevægelsen
##[...]
##Hier
##Hou
##Kep
##Ming
##Vem
##Whe
##dottir
##gig
##idt
##peter
##renten
##reagere
##indhe
##søofficer
##lysa
##Forbin
##benes
##hjemmel
##kollap
##benyttedes
##medejer
##unions
##MiG
##Airbus
##Voldem
##commun
##Exchange
##saktiviteter
##1702
##1679
##overbevise
##Falsters
##tiserende
##betydet
##Lombar
##bispedømme
##Gonz
##akustisk
##immigranter
##meridianen
##Discovery
##beføjelser
##Oregon
##cru
##cli
##fjorten
##skræk
##haverne
##overladt
##overherredømme
##værdigt
##skrimin
##treadmiral
##ringerne
##standsede
##fodboldrække
##tante
##Medie
##kata
##verdensarv
##kravene
##Radi
##Trine
##ejerskab
##forbundets
##sdags
##skæres
##Krakow
##kroen
##Thorvaldsen
##kjole
##tibetanske
##gevinst
##Hjalmar
##Aff
##Tham
##uofficielle
##zes
##anlagte
##omhandlede
##site
##indvie
##essay
##roser
##minedrift
##Arte
##huler
##arsdagen
##skifer
##portal
##smalt
##Canal
##Borussia
##stofferne
##Volk
##Søværnets
##højtstaende
##Jerich
##1704
##Myster
##Talent
##Sæby
##Bandets
##stabilt
##Olympic
##diskutere
##fænomenet
##intelligent
##litauisk
##audition
##uheldige
##Aragonien
##Tarnby
##indrømmede
##Beethoven
##hydraul
##Giusep
##revol
##varmere
##senhed
##søde
##redder
##appen
##mellemklasse
##skipper
##elsens
##domstole
##Rousse
##rundede
##Libr
##hns
##arhundred
##Montana
##Polo
##engle
##skærms
##Phillips
##umiddelbar
##ampenborg
##forliget
##anbefaling
##mongolske
##saurus
##Jamaica
##310
##Bier
##Gos
##mb
##oderne
##afjorden
##pais
##indad
##ught
##vikar
##Lever
##industriel
##Priest
##Half
##taktisk
##hustruen
##Tyrol
##Lennon
##Ejder
##Bloch
##Gottfried
##vekslende
##Parlaments
##frekvenser
##reservoir
##Eastern
##Mærsk
##irakiske
##FR
##FBI
##edic
##afa
##giften
##parcel
##Institution
##stive
##sættet
##Herr
##kirkerne
##musikeren
##Holck
##Begiven
##videreudvikling
##gruppespil
##duet
##statsborgere
##formeret
##kroning
##Nacional
##solgtes
##Pension
##Naturstyrelsen
##erfarne
##publikums
##Bangs
##birge
##tidligst
##prædiken
##modificerede
##begejstring
##statistiske
##Mobile
##sopran
##songwriter
##forlystelse
##djurs
##djævel
##knogle
##omme
##forkæmper
##ultra
##adm
##illegale
##kalium
##Marsel
##gennemgribende
##Bert
##Motion
##titulær
##russere
##idealer
##verdensmesterskab
##anerkender
##Edwards
##flasker
##Bengt
##Brabrand
##Come
##Solo
##placerer
##Birger
##gennemsnittet
##Regn
##muliggør
##Leonardo
##Savage
##blomstrer
##pligtige
##itivt
##mexicansk
##stempel
##Herzog
##Mallorca
##Plinius
##Dion
##Homo
##Kjer
##Otter
##enlige
##efterkommer
##Skam
##ffs
##ppelin
##rækkerne
##etableres
##Vilhelmine
##Banken
##Casino
##fotos
##Petter
##hyldet
##flokke
##sjere
##administrator
##Augsburg
##Vuelta
##Aby
##Nig
##Oct
##Slav
##Torden
##flid
##flash
##kh
##Østasien
##ellan
##tilhørt
##indledes
##ulle
##uton
##søm
##klag
##ingsmand
##Karin
##hæders
##Sahara
##Steel
##tabellen
##Poiro
##Santos
##Kaspar
##ægteskaber
##porno
##moderate
##udsendelsen
##behandlinger
##Peace
##lejlighedsvis
##tegnestue
##begivenheden
##eselskabet
##Bjerge
##gyldige
##Gennemsnit
##pakist
##klap
##Fenger
##Adrian
##stryge
##prototype
##Gogur
##Giuseppe
##Ride
##VV
##Xi
##ack
##kiets
##influen
##forv
##forfulgte
##teringen
##spot
##havbunden
##jerg
##rant
##lenes
##rampe
##øller
##Parma
##hæver
##Elli
##hjælpere
##distancer
##hinandens
##acht
##energien
##Søby
##Fremskridt
##Speed
##found
##ubeman
##sammenligne
##hjørnerne
##Gunther
##onesse
##Croix
##benzinmotor
##fordshire
##Myr
##PP
##Ryt
##V6
##Vac
##kind
##oti
##yne
##erens
##stukket
##racen
##ørende
##1697
##skrivere
##riks
##henviste
##bedrift
##plantager
##butiks
##Adler
##juster
##rigsdagen
##Canter
##formula_5
##Garde
##tyrkerne
##temperament
##1703
##foreslar
##lysegrøn
##gæsterne
##væbnet
##Lehmann
##Høegh
##Blekinge
##Mussolini
##AV
##Mia
##uægte
##ilo
##amor
##bebygget
##ophængt
##overtrædelse
##dant
##metropol
##barer
##pping
##bjergt
##lederskab
##thrash
##trækkende
##Madison
##Tove
##Eksp
##Sønderjyllands
##fartøjet
##afskaret
##ansvars
##moderens
##Ports
##udgangspunktet
##Motoren
##Voice
##kapellan
##Forsvaret
##iværksætter
##mainstream
##blæser
##Bukarest
##marketing
##Ahl
##Robb
##aspekt
##bindende
##kha
##zt
##tilbydes
##optisk
##overbygning
##overlæge
##melan
##Stab
##Ellers
##forfatterne
##Control
##Brabant
##skolev
##antibio
##rekrutter
##Dela
##essenti
##fredelig
##bremser
##ulovlige
##kollektive
##Nedenfor
##Antoine
##konfirm
##Blat
##SG
##aar
##pæl
##plag
##befæstning
##odden
##laus
##berry
##1724
##sammenhængen
##ieren
##Reyn
##Herunder
##Kommer
##færdes
##sidespor
##rækkende
##bredder
##kilo
##Etab
##jordoverfladen
##Friheds
##vigtigere
##kongehuset
##opdagelser
##legitim
##tolkning
##kommunikere
##varetægt
##opgøret
##harmoni
##adresser
##atmosfæ
##casting
##kameraer
##campus
##Gry
##pfalz
##yan
##opfører
##gest
##esum
##overla
##sløst
##Initi
##antæne
##Mejer
##Stege
##præsidentvalg
##aktiver
##Madaga
##modstandsmand
##gudinden
##brigaden
##angive
##malerierne
##tilstrækkelige
##Budd
##formodede
##bekendtgjorde
##straktaten
##satellitkratere
##Romsdal
##Coburg
##Kjøbenhavns
##Glee
##insisterede
##Arkansas
##Ecu
##Nur
##cod
##gigan
##æus
##anlagdes
##omsider
##omdanne
##ikation
##urban
##esland
##tykt
##metider
##1726
##oldtids
##Chief
##Arden
##147
##planlægger
##norrønt
##chez
##fodboldspillere
##eleg
##lovligt
##Magle
##socialisme
##Garcia
##Preus
##1684
##mekanismer
##Lindholm
##bælg
##bælts
##fosfor
##Musikkonservatoriet
##Ecole
##initiativet
##Diamond
##Dumbled
##Dru
##Iz
##Sod
##Zah
##baby
##udøde
##gensidig
##December
##1659
##Rex
##hellen
##Sele
##Kommunistiske
##salte
##dringen
##fejres
##Jamie
##Action
##premieren
##Blomster
##wells
##spiral
##Babylon
##Klampenborg
##Notting
##skraninger
##fregatter
##Reserve
##Traktaten
##Mitsub
##Earl
##Mk
##Pale
##hash
##iley
##uti
##tilsluttet
##tilintet
##overfald
##overfla
##konsek
##søsat
##farvest
##formatet
##133
##solop
##Samlingen
##Kirker
##elec
##Bock
##Atom
##kvalitets
##Mali
##spørgsmalstegn
##fuhrer
##splanen
##fascin
##besætninger
##jobs
##uafhængighedskrig
##Mesopotam
##villaer
##Obama
##Amerikansk
##Flair
##Eisenhow
##Nummeret
##forgiftning
##Cherokee
##410
##Amand
##Cut
##Dvs
##Kval
##anno
##etnograf
##alment
##varmen
##bemærkes
##itlen
##rosen
##adlet
##ationerne
##akh
##brutal
##vestligste
##rense
##svagere
##hæfter
##Mala
##bomben
##ligaer
##1705
##Sjællandske
##gennemsnits
##tilstedeværelsen
##Vietnamkrigen
##tirsdag
##faceli
##Skotlands
##____
##Sciences
##wildcard
##Pek
##Yel
##asen
##lun
##oste
##agn
##besætte
##sio
##royal
##unda
##faders
##mandlig
##sammensatte
##1665
##grundigt
##skaller
##Berkeley
##givningen
##operere
##katolik
##biblioteks
##fredelige
##betjene
##Evangel
##forkerte
##strafikken
##farmace
##jutsu
##myldret
##Sut
##Vega
##rator
##ulighed
##afløb
##Hanse
##trik
##icz
##parentes
##henvender
##østligste
##mærkelser
##nytars
##drastisk
##intens
##køler
##tørke
##McMahon
##zzi
##Short
##andez
##Hotellet
##dragter
##mobiltelefon
##Program
##eventuel
##eksploderede
##spanierne
##skrav
##svigersøn
##Faktisk
##Groningen
##Pompe
##Vibeke
##epoke
##Greger
##vangeliet
##ßen
##inje
##omor
##agte
##dten
##abstrakte
##berts
##utvivl
##iele
##Market
##formerne
##Konføder
##instrumentet
##Teen
##Naruto
##Casa
##bakket
##forsyningen
##Studie
##isolation
##rensning
##Yemen
##monumentet
##beskyldte
##vogter
##Energy
##Cykel
##Manchuri
##newzealandske
##Agu
##Dne
##H2
##Kine
##pam
##tilstanden
##tilveje
##medhjælper
##varian
##mast
##irer
##syk
##andens
##henvendte
##inth
##kejserrige
##fordelte
##religionen
##ugers
##nøgne
##forhindret
##gemmer
##Laurids
##svækkede
##Hardy
##udforske
##Klassi
##Archite
##Skulptur
##Biskop
##kejsere
##klassetrin
##Marselis
##Cun
##Klar
##Quar
##ec
##ystem
##arigt
##alie
##raz
##rama
##befæstet
##udgar
##udskudt
##rij
##sengotisk
##eftertrag
##undslap
##rettes
##sets
##bosætte
##raften
##velkommen
##fældet
##krævende
##løshed
##alias
##Abbey
##lovene
##animeret
##buddhistiske
##Tempel
##Mozambi
##Latinamerika
##Kvart
##Animal
##vietnamesiske
##bayerske
##Radhuspladsen
##AU
##Imens
##Pig
##Pus
##Rust
##melses
##zie
##edag
##forlen
##dela
##lies
##overn
##lytte
##Format
##rygte
##vabenskjold
##italienerne
##sangerinden
##Trap
##hofen
##Falken
##baggrunds
##Missions
##øjeblikkelig
##dyreste
##Fælled
##satellitkraterets
##Altertavlen
##plyndrede
##arkitekterne
##hyrde
##Paradis
##Severin
##Sweet
##udvandrede
##Satellitkratere
##Liechtenstein
##Beth
##CB
##Gali
##Mum
##Tik
##fjorde
##tent
##ammon
##Chat
##Schel
##Thi
##Bei
##stødet
##Mask
##Moderen
##pass
##Krø
##belagt
##fastsla
##ættet
##Lucius
##Nibe
##stænderfor
##Colin
##Michelle
##lægemiddel
##Andersson
##slæde
##Mainz
##ApS
##udskiftning
##projektil
##Luneburg
##Gau
##Hug
##Hope
##jat
##orme
##tio
##timerne
##afghan
##ilje
##bespar
##udvæl
##opklar
##spist
##lerende
##landst
##søgen
##adelig
##Chen
##nox
##fastslaet
##kapitler
##sølvmedaljer
##Folkets
##Indiens
##Søværnet
##Absol
##arsagerne
##Dagens
##hastigt
##semifinaler
##Singles
##Albertslund
##Biblioteket
##egyptisk
##bemærkelsesværdigt
##Vagn
##pligter
##Atletico
##generobre
##Delta
##Nin
##Rin
##Work
##kogn
##mave
##term
##chmann
##overleveret
##kta
##immel
##vandrette
##domkirken
##klubhold
##julen
##Scher
##radikal
##Kommuner
##troskab
##serveres
##Koranen
##papiret
##Emily
##astronomiske
##Haute
##Butler
##curling
##røntgen
##kollision
##McClellan
##-)
##Balle
##Fay
##Gn
##Raben
##kim
##lug
##edderkop
##pay
##ørerne
##manøvre
##efterlader
##stilla
##1580
##handskrifter
##forskeren
##tyskernes
##svul
##suspender
##Senior
##Bendt
##Madonna
##Mix
##Meteor
##forstaden
##atomvaben
##regnskabs
##sænkede
##pludseligt
##Mennesker
##Tunnel
##Isol
##Læs
##Sukker
##eatret
##pion
[...]
