{"version":"1.0","truncation":null,"padding":null,"added_tokens":[{"id":0,"special":true,"content":"<unk>","single_word":false,"lstrip":false,"rstrip":false,"normalized":false}],"normalizer":{"type":"Sequence","normalizers":[{"type":"NFD"},{"type":"StripAccents"}]},"pre_tokenizer":{"type":"Whitespace"},"post_processor":null,"decoder":{"type":"Metaspace","replacement":"▁","str_rep":"▁","add_prefix_space":true},"model":{"type":"BPE","dropout":null,"unk_token":null,"continuing_subword_prefix":null,"end_of_word_suffix":null,"fuse_unk":false,"vocab":{"<unk>":0,"!":1,"\"":2,"#":3,"$":4,"%":5,"&":6,"'":7,"(":8,")":9,"*":10,"+":11,",":12,"-":13,".":14,"/":15,"0":16,"1":17,"2":18,"3":19,"4":20,"5":21,"6":22,"7":23,"8":24,"9":25,":":26,";":27,"=":28,"?":29,"@":30,"A":31,"B":32,"C":33,"D":34,"E":35,"F":36,"G":37,"H":38,"I":39,"J":40,"K":41,"L":42,"M":43,"N":44,"O":45,"P":46,"Q":47,"R":48,"S":49,"T":50,"U":51,"V":52,"W":53,"X":54,"Y":55,"Z":56,"[":57,"\\":58,"]":59,"^":60,"_":61,"`":62,"a":63,"b":64,"c":65,"d":66,"e":67,"f":68,"g":69,"h":70,"i":71,"j":72,"k":73,"l":74,"m":75,"n":76,"o":77,"p":78,"q":79,"r":80,"s":81,"t":82,"u":83,"v":84,"w":85,"x":86,"y":87,"z":88,"{":89,"|":90,"}":91,"~":92,"":93,"¡":94,"¢":95,"£":96,"¤":97,"¥":98,"§":99,"¨":100,"©":101,"ª":102,"«":103,"¬":104,"­":105,"®":106,"¯":107,"°":108,"±":109,"²":110,"³":111,"´":112,"µ":113,"·":114,"¹":115,"º":116,"»":117,"¼":118,"½":119,"¾":120,"¿":121,"Æ":122,"Ð":123,"×":124,"Ø":125,"Þ":126,"ß":127,"æ":128,"ð":129,"÷":130,"ø":131,"þ":132,"Đ":133,"đ":134,"ħ":135,"ı":136,"Ĳ":137,"Ł":138,"ł":139,"ŋ":140,"Œ":141,"œ":142,"ɐ":143,"ɑ":144,"ɒ":145,"ɓ":146,"ɔ":147,"ɕ":148,"ə":149,"ɛ":150,"ɡ":151,"ɣ":152,"ɦ":153,"ɨ":154,"ɪ":155,"ɫ":156,"ɲ":157,"ɾ":158,"ʀ":159,"ʁ":160,"ʃ":161,"ʊ":162,"ʋ":163,"ʌ":164,"ʎ":165,"ʏ":166,"ʒ":167,"ʔ":168,"ʰ":169,"ʲ":170,"ʹ":171,"ʻ":172,"ʼ":173,"ʾ":174,"ʿ":175,"ˀ":176,"ˈ":177,"ˌ":178,"ː":179,"˚":180,"ˠ":181,"ˢ":182,"Α":183,"Β":184,"Γ":185,"Δ":186,"Ε":187,"Ζ":188,"Η":189,"Θ":190,"Ι":191,"Κ":192,"Λ":193,"Μ":194,"Ν":195,"Ξ":196,"Ο":197,"Π":198,"Ρ":199,"Σ":200,"Τ":201,"Υ":202,"Φ":203,"Χ":204,"Ψ":205,"Ω":206,"α":207,"β":208,"γ":209,"δ":210,"ε":211,"ζ":212,"η":213,"θ":214,"ι":215,"κ":216,"λ":217,"μ":218,"ν":219,"ξ":220,"ο":221,"π":222,"ρ":223,"ς":224,"σ":225,"τ":226,"υ":227,"φ":228,"χ":229,"ψ":230,"ω":231,"І":232,"Ј":233,"А":234,"Б":235,"В":236,"Г":237,"Д":238,"Е":239,"Ж":240,"З":241,"И":242,"К":243,"Л":244,"М":245,"Н":246,"О":247,"П":248,"Р":249,"С":250,"Т":251,"У":252,"Ф":253,"Х":254,"Ц":255,"Ч":256,"Ш":257,"Э":258,"Ю":259,"Я":260,"а":261,"б":262,"в":263,"г":264,"д":265,"е":266,"ж":267,"з":268,"и":269,"к":270,"л":271,"м":272,"н":273,"о":274,"п":275,"р":276,"с":277,"т":278,"у":279,"ф":280,"х":281,"ц":282,"ч":283,"ш":284,"щ":285,"ъ":286,"ы":287,"ь":288,"э":289,"ю":290,"я":291,"і":292,"ј":293,"љ":294,"ћ":295,"ү":296,"ө":297,"Ա":298,"Հ":299,"Ս":300,"Ֆ":301,"ա":302,"բ":303,"դ":304,"ե":305,"ի":306,"լ":307,"կ":308,"մ":309,"յ":310,"ն":311,"շ":312,"ո":313,"ս":314,"վ":315,"տ":316,"ր":317,"ց":318,"ւ":319,"׃":320,"א":321,"ב":322,"ג":323,"ד":324,"ה":325,"ו":326,"ז":327,"ח":328,"ט":329,"י":330,"כ":331,"ל":332,"ם":333,"מ":334,"ן":335,"נ":336,"ס":337,"ע":338,"פ":339,"ץ":340,"צ":341,"ק":342,"ר":343,"ש":344,"ת":345,"ء":346,"ا":347,"ب":348,"ة":349,"ت":350,"ث":351,"ج":352,"ح":353,"خ":354,"د":355,"ذ":356,"ر":357,"ز":358,"س":359,"ش":360,"ص":361,"ض":362,"ط":363,"ظ":364,"ع":365,"غ":366,"ف":367,"ق":368,"ك":369,"ل":370,"م":371,"ن":372,"ه":373,"و":374,"ى":375,"ي":376,"پ":377,"چ":378,"ک":379,"گ":380,"ھ":381,"ہ":382,"ۇ":383,"ی":384,"ە":385,"ܐ":386,"अ":387,"क":388,"ग":389,"च":390,"ज":391,"ट":392,"ड":393,"ण":394,"त":395,"द":396,"ध":397,"न":398,"प":399,"ब":400,"भ":401,"म":402,"य":403,"र":404,"ल":405,"व":406,"श":407,"स":408,"ह":409,"ন":410,"ব":411,"ম":412,"র":413,"ল":414,"க":415,"ச":416,"த":417,"ன":418,"ப":419,"ம":420,"ர":421,"ல":422,"வ":423,"క":424,"జ":425,"ద":426,"ప":427,"ర":428,"ల":429,"ก":430,"ค":431,"ง":432,"จ":433,"ช":434,"ญ":435,"ณ":436,"ด":437,"ต":438,"ท":439,"ธ":440,"น":441,"บ":442,"ป":443,"พ":444,"ภ":445,"ม":446,"ย":447,"ร":448,"ล":449,"ว":450,"ศ":451,"ส":452,"ห":453,"อ":454,"ะ":455,"า":456,"เ":457,"แ":458,"โ":459,"ไ":460,"་":461,"ག":462,"ང":463,"ད":464,"ན":465,"བ":466,"མ":467,"འ":468,"ར":469,"ལ":470,"ས":471,"ა":472,"ბ":473,"გ":474,"დ":475,"ე":476,"ვ":477,"ზ":478,"თ":479,"ი":480,"კ":481,"ლ":482,"მ":483,"ნ":484,"ო":485,"რ":486,"ს":487,"ტ":488,"უ":489,"ფ":490,"ქ":491,"შ":492,"ძ":493,"ხ":494,"ᄀ":495,"ᄂ":496,"ᄃ":497,"ᄅ":498,"ᄆ":499,"ᄇ":500,"ᄉ":501,"ᄋ":502,"ᄌ":503,"ᄎ":504,"ᄏ":505,"ᄐ":506,"ᄑ":507,"ᄒ":508,"ᅡ":509,"ᅢ":510,"ᅣ":511,"ᅥ":512,"ᅦ":513,"ᅧ":514,"ᅩ":515,"ᅪ":516,"ᅬ":517,"ᅭ":518,"ᅮ":519,"ᅯ":520,"ᅲ":521,"ᅳ":522,"ᅴ":523,"ᅵ":524,"ᆨ":525,"ᆫ":526,"ᆯ":527,"ᆷ":528,"ᆸ":529,"ᆼ":530,"ን":531,"አ":532,"ត":533,"រ":534,"ស":535,"ᴧ":536,"​":537,"‌":538,"‏":539,"‐":540,"‑":541,"–":542,"—":543,"‗":544,"‘":545,"’":546,"“":547,"”":548,"„":549,"†":550,"‡":551,"•":552,"…":553,"‰":554,"′":555,"″":556,"⁄":557,"₁":558,"₂":559,"₃":560,"₤":561,"€":562,"ℓ":563,"№":564,"™":565,"⅓":566,"⅔":567,"←":568,"↑":569,"→":570,"↔":571,"⇒":572,"⇔":573,"∀":574,"∃":575,"∇":576,"∈":577,"−":578,"∙":579,"√":580,"∞":581,"∪":582,"≈":583,"≡":584,"≤":585,"≥":586,"⊆":587,"⋅":588,"─":589,"│":590,"└":591,"├":592,"═":593,"║":594,"╔":595,"╗":596,"╚":597,"╝":598,"●":599,"◡":600,"◦":601,"☆":602,"♠":603,"♣":604,"♥":605,"♦":606,"♪":607,"♭":608,"♯":609,"⟨":610,"⟩":611,"ⴕ":612,"ⴰ":613,"あ":614,"い":615,"う":616,"お":617,"か":618,"き":619,"く":620,"け":621,"こ":622,"さ":623,"し":624,"す":625,"た":626,"ち":627,"っ":628,"て":629,"と":630,"な":631,"に":632,"の":633,"は":634,"ひ":635,"ふ":636,"ほ":637,"ま":638,"み":639,"ゆ":640,"ょ":641,"ら":642,"り":643,"る":644,"れ":645,"ん":646,"ァ":647,"ア":648,"ィ":649,"イ":650,"ウ":651,"エ":652,"オ":653,"カ":654,"キ":655,"ク":656,"ケ":657,"コ":658,"サ":659,"シ":660,"ス":661,"セ":662,"ソ":663,"タ":664,"チ":665,"ッ":666,"ツ":667,"テ":668,"ト":669,"ナ":670,"ニ":671,"ノ":672,"ハ":673,"ヒ":674,"フ":675,"ヘ":676,"ホ":677,"マ":678,"ミ":679,"ム":680,"メ":681,"モ":682,"ャ":683,"ュ":684,"ョ":685,"ラ":686,"リ":687,"ル":688,"レ":689,"ロ":690,"ン":691,"・":692,"ー":693,"一":694,"三":695,"上":696,"下":697,"世":698,"东":699,"中":700,"丸":701,"丹":702,"丽":703,"九":704,"事":705,"二":706,"五":707,"井":708,"交":709,"京":710,"人":711,"仁":712,"仙":713,"代":714,"份":715,"伊":716,"会":717,"伝":718,"体":719,"作":720,"保":721,"信":722,"元":723,"光":724,"克":725,"八":726,"公":727,"六":728,"共":729,"刀":730,"分":731,"剣":732,"劉":733,"力":734,"加":735,"動":736,"化":737,"北":738,"区":739,"十":740,"千":741,"华":742,"南":743,"博":744,"历":745,"原":746,"县":747,"双":748,"口":749,"古":750,"台":751,"号":752,"司":753,"合":754,"名":755,"周":756,"和":757,"哈":758,"唐":759,"嘉":760,"四":761,"团":762,"国":763,"國":764,"土":765,"地":766,"城":767,"域":768,"場":769,"士":770,"夏":771,"外":772,"大":773,"天":774,"太":775,"夫":776,"女":777,"姫":778,"威":779,"子":780,"字":781,"学":782,"孫":783,"學":784,"宁":785,"安":786,"宗":787,"定":788,"宮":789,"家":790,"富":791,"寺":792,"小":793,"尔":794,"居":795,"山":796,"岛":797,"岡":798,"岭":799,"島":800,"川":801,"州":802,"工":803,"市":804,"帝":805,"平":806,"年":807,"广":808,"庆":809,"店":810,"府":811,"廣":812,"式":813,"张":814,"張":815,"後":816,"徐":817,"御":818,"徳":819,"德":820,"心":821,"愛":822,"慶":823,"成":824,"战":825,"戦":826,"戰":827,"所":828,"手":829,"拉":830,"拳":831,"政":832,"文":833,"斯":834,"新":835,"方":836,"族":837,"旗":838,"日":839,"昌":840,"明":841,"易":842,"星":843,"春":844,"曆":845,"會":846,"月":847,"有":848,"朝":849,"木":850,"本":851,"李":852,"東":853,"松":854,"林":855,"柔":856,"株":857,"梅":858,"條":859,"業":860,"樂":861,"橋":862,"機":863,"正":864,"武":865,"民":866,"気":867,"氣":868,"水":869,"汉":870,"江":871,"汽":872,"沙":873,"河":874,"油":875,"治":876,"泉":877,"法":878,"洋":879,"津":880,"流":881,"海":882,"清":883,"港":884,"湖":885,"漢":886,"灣":887,"無":888,"爾":889,"玉":890,"王":891,"球":892,"理":893,"甘":894,"生":895,"産":896,"田":897,"町":898,"界":899,"白":900,"百":901,"皇":902,"盟":903,"直":904,"省":905,"県":906,"真":907,"眼":908,"石":909,"社":910,"神":911,"福":912,"秋":913,"秦":914,"空":915,"節":916,"精":917,"約":918,"紅":919,"級":920,"縣":921,"红":922,"羅":923,"美":924,"群":925,"義":926,"者":927,"聖":928,"股":929,"育":930,"自":931,"臺":932,"花":933,"英":934,"茶":935,"草":936,"華":937,"葉":938,"蒙":939,"藏":940,"藤":941,"虎":942,"行":943,"術":944,"西":945,"記":946,"貴":947,"路":948,"車":949,"軍":950,"輪":951,"通":952,"道":953,"郎":954,"郡":955,"部":956,"都":957,"酒":958,"里":959,"重":960,"野":961,"金":962,"鈴":963,"鉄":964,"銀":965,"長":966,"长":967,"門":968,"間":969,"门":970,"阳":971,"阿":972,"限":973,"院":974,"陳":975,"陵":976,"陽":977,"隊":978,"際":979,"集":980,"青":981,"韓":982,"音":983,"風":984,"飯":985,"香":986,"馬":987,"马":988,"高":989,"魂":990,"麗":991,"黄":992,"龍":993,"龙":994,"ﬁ":995,"ﬂ":996,"（":997,"）":998,"：":999,"￼":1000,"er":1001,"en":1002,"de":1003,"an":1004,"st":1005,"or":1006,"et":1007,"in":1008,"ar":1009,"og":1010,"ti":1011,"sk":1012,"le":1013,"ed":1014,"om":1015,"ig":1016,"el":1017,"af":1018,"at":1019,"al":1020,"on":1021,"for":1022,"der":1023,"den":1024,"re":1025,"ing":1026,"un":1027,"te":1028,"til":1029,"ra":1030,"il":1031,"ne":1032,"ol":1033,"ter":1034,"and":1035,"am":1036,"det":1037,"se":1038,"ik":1039,"ag":1040,"pa":1041,"som":1042,"med":1043,"lig":1044,"ere":1045,"lev":1046,"var":1047,"ør":1048,"av":1049,"be":1050,"ud":1051,"ver":1052,"blev":1053,"19":1054,"is":1055,"ske":1056,"op":1057,"ri":1058,"ste":1059,"men":1060,"ær":1061,"ke":1062,"si":1063,"sp":1064,"han":1065,"ge":1066,"sen":1067,"ning":1068,"del":1069,"od":1070,"ur":1071,"ler":1072,"20":1073,"ve":1074,"fra":1075,"ru":1076,"tion":1077,"ind":1078,"ul":1079,"sa":1080,"ende":1081,"ræ":1082,"me":1083,"erne":1084,"dt":1085,"ved":1086,"la":1087,"har":1088,"ab":1089,"vi":1090,"es":1091,"li":1092,"land":1093,"hav":1094,"us":1095,"ang":1096,"fter":1097,"by":1098,"hv":1099,"sam":1100,"it":1101,"ro":1102,"gen":1103,"før":1104,"18":1105,"ser":1106,"ber":1107,"lige":1108,"ch":1109,"over":1110,"ger":1111,"kom":1112,"ist":1113,"hol":1114,"ad":1115,"man":1116,"kt":1117,"kr":1118,"hed":1119,"sig":1120,"ation":1121,"kon":1122,"efter":1123,"ens":1124,"fø":1125,"æn":1126,"und":1127,"sl":1128,"fl":1129,"gi":1130,"Han":1131,"mer":1132,"ma":1133,"dan":1134,"des":1135,"00":1136,"of":1137,"ir":1138,"hvor":1139,"um":1140,"sy":1141,"tid":1142,"sin":1143,"tet":1144,"under":1145,"vær":1146,"tr":1147,"ord":1148,"ikke":1149,"ven":1150,"je":1151,"ken":1152,"ot":1153,"spil":1154,"per":1155,"Den":1156,"kan":1157,"æl":1158,"mar":1159,"as":1160,"ret":1161,"pr":1162,"ut":1163,"else":1164,"he":1165,"di":1166,"mod":1167,"200":1168,"lem":1169,"ok":1170,"ort":1171,"Det":1172,"id":1173,"ster":1174,"sø":1175,"ogsa":1176,"lan":1177,"let":1178,"eller":1179,"ker":1180,"ling":1181,"havde":1182,"bet":1183,"ak":1184,"ien":1185,"iske":1186,"kun":1187,"væ":1188,"get":1189,"mel":1190,"ic":1191,"ene":1192,"br":1193,"skab":1194,"gt":1195,"St":1196,"kl":1197,"isk":1198,"ho":1199,"ie":1200,"dte":1201,"net":1202,"ede":1203,"201":1204,"sel":1205,"ent":1206,"inde":1207,"to":1208,"ige":1209,"vis":1210,"ek":1211,"gr":1212,"ty":1213,"ale":1214,"tal":1215,"bru":1216,"jer":1217,"ner":1218,"tag":1219,"byg":1220,"pe":1221,"ny":1222,"ket":1223,"yn":1224,"ød":1225,"rem":1226,"eret":1227,"øb":1228,"De":1229,"org":1230,"vet":1231,"erede":1232,"ille":1233,"red":1234,"ce":1235,"yr":1236,"øj":1237,"sten":1238,"ub":1239,"met":1240,").":1241,"Dan":1242,"første":1243,"ten":1244,"son":1245,"17":1246,"da":1247,"\",":1248,"),":1249,"ug":1250,"ran":1251,"dag":1252,"her":1253,"val":1254,"sæ":1255,"par":1256,"ov":1257,"hold":1258,"stor":1259,"fin":1260,"ade":1261,"øn":1262,"kke":1263,"old":1264,"tede":1265,"fa":1266,"beg":1267,"mal":1268,"fe":1269,"ust":1270,"ap":1271,"sat":1272,"rig":1273,"bej":1274,"\".":1275,"min":1276,"199":1277,"fik":1278,"lag":1279,"An":1280,"En":1281,"gar":1282,"mark":1283,"bl":1284,"arbej":1285,"mber":1286,"frem":1287,"os":1288,"pro":1289,"ci":1290,"uden":1291,"ban":1292,"mun":1293,"hans":1294,"end":1295,"ingen":1296,"gel":1297,"ningen":1298,"nem":1299,"amp":1300,"ly":1301,"gang":1302,"æg":1303,"ft":1304,"mand":1305,"ob":1306,"mellem":1307,"fil":1308,"elt":1309,"res":1310,"bli":1311,"ligt":1312,"im":1313,"rup":1314,"tog":1315,"eg":1316,"kal":1317,"føl":1318,"vand":1319,"delse":1320,"født":1321,"sammen":1322,"næ":1323,"Al":1324,"nav":1325,"16":1326,"In":1327,"ck":1328,"sti":1329,"Ch":1330,"lø":1331,"erik":1332,"bag":1333,"yt":1334,"ds":1335,"præ":1336,"dig":1337,"far":1338,"ier":1339,"ski":1340,"siden":1341,"na":1342,"mo":1343,"hun":1344,"stil":1345,"ion":1346,"sted":1347,"les":1348,"stat":1349,"yl":1350,"elig":1351,"nu":1352,"ts":1353,"træ":1354,"skri":1355,"æng":1356,"iti":1357,"198":1358,"pla":1359,"ga":1360,"havn":1361,"grund":1362,"nog":1363,"Mar":1364,"ligere":1365,"vir":1366,"197":1367,"Danmark":1368,"gte":1369,"borg":1370,"Un":1371,"star":1372,"istor":1373,"Der":1374,"15":1375,"flere":1376,"rede":1377,"lede":1378,"hand":1379,"ninger":1380,"For":1381,"deres":1382,"vin":1383,"sæt":1384,"andre":1385,"forsk":1386,"sion":1387,"ned":1388,"stør":1389,"yd":1390,"alt":1391,"fat":1392,"off":1393,"rik":1394,"uk":1395,"ater":1396,"dansk":1397,"ham":1398,"være":1399,"gav":1400,"tra":1401,"krig":1402,"elsen":1403,"forb":1404,"fol":1405,"gende":1406,"mu":1407,"omra":1408,"yk":1409,"Ar":1410,"nord":1411,"io":1412,"spiller":1413,"pol":1414,"ia":1415,"vil":1416,"ligger":1417,"nes":1418,"alle":1419,"mp":1420,"hus":1421,"selv":1422,"10":1423,"len":1424,"anden":1425,"gennem":1426,"høj":1427,"slut":1428,"hoved":1429,"kunne":1430,"jor":1431,"dens":1432,"lands":1433,"sta":1434,"vej":1435,"pen":1436,"Re":1437,"vik":1438,"196":1439,"form":1440,"tre":1441,"tur":1442,"ue":1443,"kar":1444,"dø":1445,"mere":1446,"ben":1447,"set":1448,"uc":1449,"Jo":1450,"sag":1451,"stem":1452,"Pa":1453,"mange":1454,"lin":1455,"landt":1456,"andet":1457,"hen":1458,"194":1459,"str":1460,"anske":1461,"bar":1462,"styr":1463,"bo":1464,"senere":1465,"dom":1466,"sit":1467,"tig":1468,"Efter":1469,"Sk":1470,"mus":1471,"iet":1472,"dog":1473,"sid":1474,"ring":1475,"været":1476,"dre":1477,"ant":1478,"tidligere":1479,"begyn":1480,"au":1481,"øben":1482,"ks":1483,"Her":1484,"skul":1485,"øbenhavn":1486,"ræn":1487,"ange":1488,"kring":1489,"elle":1490,"ard":1491,"mil":1492,"up":1493,"hver":1494,"fly":1495,"kor":1496,"samt":1497,"dem":1498,"vig":1499,"po":1500,"tes":1501,"olog":1502,"bed":1503,"lang":1504,"vest":1505,"lo":1506,"12":1507,"mens":1508,"uni":1509,"gra":1510,"død":1511,"dere":1512,"skre":1513,"have":1514,"grup":1515,"København":1516,"stru":1517,"medlem":1518,"14":1519,"amerik":1520,"Ro":1521,"denne":1522,"ine":1523,"atur":1524,"000":1525,"no":1526,"histor":1527,"blevet":1528,"mi":1529,"ren":1530,"tilbag":1531,"Le":1532,"ansk":1533,"inter":1534,"ca":1535,"kommun":1536,"nation":1537,"ba":1538,"omkring":1539,"blandt":1540,"kendt":1541,"samme":1542,"ire":1543,"ful":1544,"svar":1545,"forskel":1546,"all":1547,"13":1548,"skulle":1549,"ron":1550,"isse":1551,"hvil":1552,"øst":1553,"syd":1554,"store":1555,"ænd":1556,"195":1557,"meget":1558,"The":1559,"est":1560,"film":1561,"bold":1562,"prod":1563,"minist":1564,"byen":1565,"tilbage":1566,"fort":1567,"politi":1568,"plan":1569,"inden":1570,"ram":1571,"ære":1572,"ry":1573,"las":1574,"ment":1575,"193":1576,"danske":1577,"derne":1578,"endes":1579,"ole":1580,"kir":1581,"eter":1582,"ald":1583,"læg":1584,"tiv":1585,"raf":1586,"reg":1587,"øm":1588,"gik":1589,"stad":1590,"bliver":1591,"rog":1592,"mest":1593,"undet":1594,"arbejde":1595,"tiske":1596,"ark":1597,"lighed":1598,"klub":1599,"lav":1600,"nings":1601,"Fran":1602,"ges":1603,"slag":1604,"cen":1605,"mag":1606,"skal":1607,"mind":1608,"Chri":1609,"fod":1610,"jem":1611,"række":1612,"musik":1613,"jæl":1614,"stand":1615,"ta":1616,"udvik":1617,"ses":1618,"sine":1619,"hel":1620,"navn":1621,"virk":1622,"ha":1623,"uar":1624,"vandt":1625,"bade":1626,"person":1627,"jul":1628,"dende":1629,"Hun":1630,"ofte":1631,"hal":1632,"forskellige":1633,"ej":1634,"Kom":1635,"kamp":1636,"ac":1637,"fri":1638,"ings":1639,"tik":1640,"Fred":1641,"søn":1642,"dette":1643,"vel":1644,"Da":1645,"inger":1646,"Ne":1647,"Kon":1648,"ets":1649,"bum":1650,"Hol":1651,"øl":1652,"taget":1653,"lagt":1654,"km":1655,"hjem":1656,"jan":1657,"cer":1658,"Sch":1659,"art":1660,"tek":1661,"ugust":1662,"ledes":1663,"igen":1664,"ført":1665,"givet":1666,"US":1667,"ober":1668,"ka":1669,"Nor":1670,"opr":1671,"nor":1672,"findes":1673,"sep":1674,"næv":1675,"mester":1676,"Th":1677,"sang":1678,"ton":1679,"nye":1680,"landet":1681,"lu":1682,"rom":1683,"folk":1684,"bri":1685,"hvilket":1686,"stilling":1687,"ay":1688,"tisk":1689,"okt":1690,"verden":1691,"bi":1692,"rum":1693,"ff":1694,"mær":1695,"mat":1696,"so":1697,"che":1698,"190":1699,"god":1700,"ung":1701,"satte":1702,"syn":1703,"ville":1704,"amil":1705,"gener":1706,"sej":1707,"eren":1708,"gør":1709,"11":1710,"maj":1711,"ans":1712,"192":1713,"januar":1714,"Hans":1715,"nær":1716,"hør":1717,"atter":1718,"(\"":1719,"heder":1720,"fodbold":1721,"berg":1722,"30":1723,"fær":1724,"stod":1725,"Par":1726,"gam":1727,"sker":1728,"skil":1729,"spillede":1730,"største":1731,"brug":1732,"kul":1733,"kam":1734,"juni":1735,"alen":1736,"bør":1737,"versi":1738,"tember":1739,"mid":1740,"Be":1741,"Nord":1742,"sik":1743,"rej":1744,"bu":1745,"spillet":1746,"tor":1747,"kri":1748,"fatter":1749,"sol":1750,"ko":1751,"\")":1752,"vok":1753,"teg":1754,"mon":1755,"pri":1756,"Ber":1757,"nogle":1758,"nede":1759,"ou":1760,"rad":1761,"tallet":1762,"hos":1763,"album":1764,"pril":1765,"fran":1766,"disse":1767,"hele":1768,"perio":1769,"USA":1770,"yder":1771,"fæl":1772,"følge":1773,"kunst":1774,"eder":1775,"aret":1776,"uro":1777,"189":1778,"holdt":1779,"forbin":1780,"august":1781,"ograf":1782,"Ty":1783,"rol":1784,"oktober":1785,"april":1786,"ernes":1787,"september":1788,"øje":1789,"fire":1790,"marts":1791,"oner":1792,"Car":1793,"bog":1794,"aft":1795,"Sam":1796,"ni":1797,"kel":1798,"nar":1799,"hund":1800,"Se":1801,"Ved":1802,"stø":1803,"Kommun":1804,"unkt":1805,"juli":1806,"lade":1807,"Sp":1808,"Kir":1809,"Man":1810,"sidste":1811,"ogn":1812,"25":1813,"tan":1814,"bur":1815,"By":1816,"jorde":1817,"vember":1818,"nyt":1819,"eres":1820,"læ":1821,"bor":1822,"blive":1823,"Ma":1824,"ces":1825,"hu":1826,"ina":1827,"Kar":1828,"ktør":1829,"følgende":1830,"liv":1831,"em":1832,"organ":1833,"aler":1834,"november":1835,"parti":1836,"186":1837,"menne":1838,"teret":1839,"ars":1840,"188":1841,"cember":1842,"run":1843,"kur":1844,"ow":1845,"ele":1846,"alder":1847,"va":1848,"skabet":1849,"Mo":1850,"december":1851,"mø":1852,"stian":1853,"are":1854,"begyndte":1855,"Stor":1856,"Som":1857,"gjorde":1858,"pp":1859,"terne":1860,"tyske":1861,"side":1862,"famil":1863,"skole":1864,"ich":1865,"først":1866,"reb":1867,"kort":1868,"jern":1869,"Frederik":1870,"mor":1871,"erer":1872,"sær":1873,"heden":1874,"187":1875,"instru":1876,"æk":1877,"sc":1878,"spe":1879,"sprog":1880,"mindre":1881,"reger":1882,"førte":1883,"mis":1884,"døde":1885,"the":1886,"eneste":1887,"Ge":1888,"50":1889,"hvis":1890,"bruar":1891,"forhold":1892,"sor":1893,"jen":1894,"besk":1895,"sn":1896,"delsen":1897,"sty":1898,"iden":1899,"øre":1900,"ationer":1901,"tit":1902,"navnet":1903,"februar":1904,"dels":1905,"iel":1906,"udgav":1907,"cent":1908,"itet":1909,"tysk":1910,"riere":1911,"Fra":1912,"pas":1913,"ationen":1914,"bjer":1915,"terede":1916,"vid":1917,"semp":1918,"dy":1919,"Med":1920,"sh":1921,"læng":1922,"skrevet":1923,"sv":1924,"dele":1925,"indtil":1926,"gu":1927,"ris":1928,"egen":1929,"kommer":1930,"siske":1931,"ktion":1932,"minister":1933,"tter":1934,"Li":1935,"elser":1936,"derfor":1937,"klas":1938,"tive":1939,"hn":1940,"Dette":1941,"ital":1942,"olen":1943,"ræk":1944,"gange":1945,"our":1946,"bred":1947,"ite":1948,"komp":1949,"engel":1950,"bro":1951,"bil":1952,"fes":1953,"større":1954,"uddan":1955,"ond":1956,"sæson":1957,"omradet":1958,"minde":1959,"Kr":1960,"jet":1961,"kil":1962,"foren":1963,"natur":1964,"bel":1965,"ins":1966,"Ud":1967,"stedet":1968,"ate":1969,"konom":1970,"dire":1971,"bygget":1972,"Tysk":1973,"fal":1974,"Et":1975,"vision":1976,"værk":1977,"dene":1978,"opret":1979,"versitet":1980,"nævn":1981,"kv":1982,"otor":1983,"Under":1984,"Men":1985,"præsen":1986,"tv":1987,"2007":1988,"dra":1989,"He":1990,"ian":1991,"tige":1992,"tidig":1993,"age":1994,"lok":1995,"Christian":1996,"skrev":1997,"øv":1998,"Land":1999,"lande":2000,"græn":2001,"rige":2002,"arhund":2003,"lere":2004,"videre":2005,"Te":2006,"forsø":2007,"fem":2008,"Uni":2009,"bane":2010,"ast":2011,"Wil":2012,"oprinde":2013,"21":2014,"24":2015,"tigt":2016,"Hen":2017,"Euro":2018,"forbindelse":2019,"jord":2020,"eksemp":2021,"nelse":2022,"led":2023,"produc":2024,"meter":2025,"amerikanske":2026,"cial":2027,"burg":2028,"stan":2029,"ator":2030,"telse":2031,"stam":2032,"kæ":2033,"tage":2034,"offic":2035,"flyt":2036,"bol":2037,"ip":2038,"tiden":2039,"vist":2040,"int":2041,"hæ":2042,"New":2043,"vol":2044,"ders":2045,"stær":2046,"Me":2047,"El":2048,"bygg":2049,"hæng":2050,"organis":2051,"rus":2052,"lod":2053,"kol":2054,"Am":2055,"Har":2056,"sven":2057,"holm":2058,"spor":2059,"hendes":2060,"ide":2061,"Ho":2062,"tere":2063,"fand":2064,"handling":2065,"sport":2066,"fle":2067,"regi":2068,"delt":2069,"bra":2070,"fast":2071,"sm":2072,"virksom":2073,"halv":2074,"gard":2075,"tryk":2076,"aben":2077,"udgivet":2078,"2010":2079,"ky":2080,"løb":2081,"lær":2082,"lov":2083,"184":2084,"Histor":2085,"plads":2086,"national":2087,"gruppe":2088,"stadig":2089,"van":2090,"Sel":2091,"ult":2092,"Peter":2093,"ium":2094,"2008":2095,"hur":2096,"stra":2097,"hjæl":2098,"forfatter":2099,"23":2100,"bedste":2101,"uktion":2102,"æs":2103,"profes":2104,"we":2105,"ves":2106,"Fil":2107,"lille":2108,"stre":2109,"Co":2110,"samling":2111,"Bo":2112,"Or":2113,"køb":2114,"Sa":2115,"tale":2116,"kat":2117,"sens":2118,"lej":2119,"omrade":2120,"dyr":2121,"kirke":2122,"datter":2123,"jø":2124,"skaber":2125,"Ste":2126,"mann":2127,"saledes":2128,"økonom":2129,"2006":2130,"fore":2131,"Eng":2132,"skrig":2133,"naede":2134,"So":2135,"Af":2136,"22":2137,"historie":2138,"børn":2139,"yde":2140,"Tyskland":2141,"2009":2142,"kultur":2143,"lik":2144,"Gr":2145,"dri":2146,"tte":2147,"skif":2148,"eks":2149,"ill":2150,"gamle":2151,"Is":2152,"Mu":2153,"helt":2154,"prog":2155,"arhundrede":2156,"offent":2157,"karriere":2158,"æld":2159,"stille":2160,"holder":2161,"uld":2162,"pris":2163,"28":2164,"nen":2165,"ers":2166,"co":2167,"giv":2168,"urop":2169,"fic":2170,"Kommune":2171,"fred":2172,"uder":2173,"rer":2174,"Hel":2175,"jort":2176,"midt":2177,"Johan":2178,"La":2179,"2011":2180,"tu":2181,"185":2182,"gift":2183,"vide":2184,"Syd":2185,"26":2186,"skue":2187,"lad":2188,"II":2189,"Sver":2190,"sket":2191,"27":2192,".\"":2193,"holdet":2194,"bille":2195,"bestar":2196,"sing":2197,"kampe":2198,"især":2199,"giver":2200,"betyd":2201,"viden":2202,"noget":2203,"matte":2204,"værende":2205,"ager":2206,"valg":2207,"Fol":2208,"vinder":2209,"tab":2210,"kaldt":2211,"Frankrig":2212,"Om":2213,"oper":2214,"one":2215,"Kirke":2216,"udvikling":2217,"bevæ":2218,"kap":2219,"hær":2220,"rø":2221,"spunkt":2222,"num":2223,"milit":2224,"2012":2225,"stit":2226,"slutningen":2227,"kede":2228,"væk":2229,"2005":2230,"kendte":2231,"repræsen":2232,"kræ":2233,"port":2234,"rag":2235,"seret":2236,"tred":2237,"lam":2238,"lat":2239,"ong":2240,"pub":2241,"løbet":2242,"forsvar":2243,"pop":2244,"ologi":2245,"desuden":2246,"viser":2247,"akter":2248,"Til":2249,"fund":2250,"verdens":2251,"seks":2252,"Denne":2253,"John":2254,"tin":2255,"høje":2256,"vor":2257,"gre":2258,"ations":2259,"sal":2260,"Europa":2261,"Ad":2262,"beteg":2263,"milli":2264,"amerikansk":2265,"Norge":2266,"gede":2267,"29":2268,"motor":2269,"etab":2270,"sisk":2271,"ska":2272,"bjerg":2273,"indbygg":2274,"leder":2275,"VM":2276,"benyt":2277,"40":2278,"deltog":2279,"eri":2280,"Ba":2281,"menter":2282,"ution":2283,"ighed":2284,"ell":2285,"kred":2286,"omrader":2287,"stud":2288,"nationale":2289,"æt":2290,"bruges":2291,"ener":2292,"fuld":2293,"kte":2294,"Po":2295,"gjort":2296,"skov":2297,"Ha":2298,"bygning":2299,"ja":2300,"ration":2301,"æst":2302,"banen":2303,"tager":2304,"alminde":2305,"stort":2306,"ering":2307,"ze":2308,"]]":2309,"Bar":2310,"gelse":2311,"befolk":2312,"skib":2313,"fundet":2314,"[[":2315,"jorden":2316,"vede":2317,"lertid":2318,"San":2319,"2000":2320,"dermed":2321,"sommer":2322,"2013":2323,"sma":2324,"go":2325,"agt":2326,"eligt":2327,"kør":2328,"eksp":2329,"Mon":2330,"Pro":2331,"allerede":2332,"delser":2333,"vs":2334,"fun":2335,"sch":2336,"2014":2337,"program":2338,"At":2339,"fandt":2340,"Fri":2341,"Vi":2342,"ister":2343,"oden":2344,"posi":2345,"Øst":2346,"indbyggere":2347,"sede":2348,"general":2349,"fordi":2350,"tredje":2351,"dition":2352,"England":2353,"medlemmer":2354,"anven":2355,"angreb":2356,"..":2357,"bas":2358,"fleste":2359,"band":2360,"mænd":2361,"formand":2362,"orn":2363,"kende":2364,"Per":2365,"Sogn":2366,"Historie":2367,"Fin":2368,"brugt":2369,"hy":2370,"igt":2371,"ønder":2372,"onen":2373,"muse":2374,"digt":2375,"Sverige":2376,"ustri":2377,"du":2378,"100":2379,"imod":2380,"dræ":2381,"bre":2382,"øen":2383,"arbejder":2384,"isme":2385,"aner":2386,"tj":2387,"igh":2388,"iz":2389,"værker":2390,"division":2391,"sident":2392,"rang":2393,"Danmarks":2394,"tro":2395,"Lu":2396,"græ":2397,"serne":2398,"brud":2399,"1970":2400,"ægt":2401,"kaldte":2402,"2004":2403,"model":2404,"bø":2405,"belig":2406,"krigen":2407,"Kri":2408,"jap":2409,"fab":2410,"begge":2411,"iner":2412,"luft":2413,"Ni":2414,"dets":2415,"sluttede":2416,"trol":2417,"lys":2418,"Ver":2419,"stede":2420,"stæn":2421,"ovjet":2422,"2015":2423,"ods":2424,"Ind":2425,"vigtig":2426,"stats":2427,"ktor":2428,"produktion":2429,"rid":2430,"konkur":2431,"von":2432,"hin":2433,"nien":2434,"publik":2435,"OL":2436,"Sy":2437,"plad":2438,"ografi":2439,"2016":2440,"gøre":2441,"ford":2442,"valgt":2443,"sla":2444,"bestem":2445,"bert":2446,"60":2447,"svær":2448,"sand":2449,"Rus":2450,"sætning":2451,"læn":2452,"turner":2453,"elige":2454,"lever":2455,"konge":2456,"viste":2457,"snit":2458,"FC":2459,"ktur":2460,"aff":2461,"ondon":2462,"videnskab":2463,"top":2464,"eksempel":2465,"Rom":2466,"mennesker":2467,"my":2468,"steder":2469,"filmen":2470,"rolle":2471,"give":2472,"Hand":2473,"ældre":2474,"nogen":2475,"Con":2476,"Før":2477,"London":2478,"lub":2479,"Andre":2480,"istiske":2481,"deb":2482,"ori":2483,"rel":2484,"fang":2485,"unge":2486,"Ed":2487,"dage":2488,"Københavns":2489,"180":2490,"ral":2491,"Su":2492,"ble":2493,"fyl":2494,"pt":2495,"regering":2496,"grad":2497,"holde":2498,"ys":2499,"aen":2500,"stræk":2501,"skuespiller":2502,"vestlige":2503,"middel":2504,"su":2505,"fodboldspiller":2506,"gaard":2507,"We":2508,"spille":2509,"endnu":2510,"ju":2511,"nal":2512,"interes":2513,"kong":2514,"Ka":2515,"periode":2516,"kval":2517,"gade":2518,"franske":2519,"kommune":2520,"Pol":2521,"uropæ":2522,"san":2523,"Ny":2524,"made":2525,"th":2526,"sende":2527,"popul":2528,"otte":2529,"Des":2530,"mede":2531,"tekn":2532,"oven":2533,"næsten":2534,"via":2535,"fir":2536,"trop":2537,"enk":2538,"suc":2539,"beliggende":2540,"kaldes":2541,"delen":2542,"inge":2543,"klar":2544,"ensen":2545,"system":2546,"derefter":2547,"jerne":2548,"samtidig":2549,"agen":2550,"valget":2551,"ition":2552,"landshold":2553,"183":2554,"fører":2555,"længere":2556,"Vest":2557,"hjemme":2558,"Pr":2559,"tagelse":2560,"Er":2561,"orden":2562,"mulighed":2563,"fon":2564,"føre":2565,"perioden":2566,"smal":2567,"personer":2568,"ork":2569,"byer":2570,"elekt":2571,"Inter":2572,"omp":2573,"nummer":2574,"administ":2575,"præsident":2576,"rigs":2577,"tivt":2578,"hjælp":2579,"Sen":2580,"dede":2581,"hæn":2582,"hende":2583,"knyt":2584,"Kun":2585,"syste":2586,"idet":2587,"fer":2588,"imid":2589,"2001":2590,"ringer":2591,"erefter":2592,"sil":2593,"Col":2594,"tradition":2595,"havet":2596,"hard":2597,"oku":2598,"Universitet":2599,"kkede":2600,"2017":2601,"Aar":2602,"ep":2603,"bla":2604,"Mel":2605,"stop":2606,"succes":2607,"ore":2608,"imidlertid":2609,"stal":2610,"1990":2611,"opført":2612,"kvinde":2613,"station":2614,"fabrik":2615,"vejen":2616,"engelsk":2617,"bevar":2618,"godt":2619,"serien":2620,"begyndelsen":2621,"industri":2622,"jør":2623,"leret":2624,"Ital":2625,"hvad":2626,"qu":2627,"instrueret":2628,"Byen":2629,"Br":2630,"lerne":2631,"kaldet":2632,"Bro":2633,"vat":2634,"klubben":2635,"akti":2636,"deren":2637,"fransk":2638,"mission":2639,"Val":2640,"Carl":2641,"foret":2642,"Char":2643,"skibe":2644,"æssig":2645,"landske":2646,"Paris":2647,"skyl":2648,"Sc":2649,"fald":2650,"2003":2651,"yg":2652,"guld":2653,"nuværende":2654,"litter":2655,"ym":2656,"dist":2657,"medal":2658,"centr":2659,"træk":2660,"Ra":2661,"sek":2662,"væsen":2663,"afhæng":2664,"tilfæl":2665,"huset":2666,"verdenskrig":2667,"speci":2668,"ev":2669,"trakt":2670,"chef":2671,"bud":2672,"2018":2673,"løs":2674,"gruppen":2675,"ius":2676,"ogne":2677,"aut":2678,"80":2679,"arbejdet":2680,"stig":2681,"manu":2682,"heds":2683,"pl":2684,"ligvis":2685,"tis":2686,"jser":2687,"fug":2688,"nød":2689,"mas":2690,"Gu":2691,"deling":2692,"ula":2693,"dat":2694,"tids":2695,"familie":2696,"arter":2697,"hører":2698,"nordlige":2699,"opgav":2700,"jek":2701,"flade":2702,"mater":2703,"karakter":2704,"2002":2705,"rest":2706,"hil":2707,"vende":2708,"Frederiks":2709,"æv":2710,"alli":2711,"disk":2712,"fyr":2713,"fel":2714,"Op":2715,"kra":2716,"Nation":2717,"langt":2718,"ern":2719,"fy":2720,"31":2721,"døm":2722,"Vil":2723,"kø":2724,"ftet":2725,"folke":2726,"undersø":2727,"herunder":2728,"Mal":2729,"offici":2730,"sjæl":2731,"radet":2732,"skolen":2733,"grøn":2734,"tende":2735,"brød":2736,"britiske":2737,"vaben":2738,"ity":2739,"cel":2740,"adskil":2741,"dighed":2742,"fjer":2743,"øver":2744,"ceret":2745,"ægte":2746,"italien":2747,"Ol":2748,"pres":2749,"skud":2750,"tar":2751,"Dansk":2752,"retning":2753,"valgte":2754,"dæk":2755,"fisk":2756,"mang":2757,"kli":2758,"maler":2759,"lagde":2760,"fla":2761,"lidt":2762,"vise":2763,"Mich":2764,"grupper":2765,"fælles":2766,"studer":2767,"position":2768,"stillet":2769,"70":2770,"arbejdede":2771,"millioner":2772,"Ben":2773,"Ri":2774,"kerne":2775,"komme":2776,"strup":2777,"politiske":2778,"ley":2779,"fortæl":2780,"omfat":2781,"doku":2782,"Bi":2783,"aldrig":2784,"slægt":2785,"enkelt":2786,"tlig":2787,"rets":2788,"malt":2789,"væl":2790,"ros":2791,"staende":2792,"bygger":2793,"kejser":2794,"støtte":2795,"kvar":2796,"sendt":2797,"relig":2798,"tug":2799,"tidspunkt":2800,"tran":2801,"sym":2802,"udnævn":2803,"fag":2804,"magt":2805,"179":2806,"hi":2807,"koncer":2808,"Can":2809,"udover":2810,"union":2811,"prin":2812,"gdom":2813,"bestyr":2814,"Aarhus":2815,"Bra":2816,"beskri":2817,".,":2818,"vundet":2819,"finder":2820,"dr":2821,"Ham":2822,"olf":2823,"vægt":2824,"blot":2825,"tradte":2826,"1980":2827,"gelige":2828,"Og":2829,"Disse":2830,"cir":2831,"result":2832,"hvert":2833,"eksi":2834,"version":2835,"jekt":2836,"ometer":2837,"betydning":2838,"besø":2839,"kompon":2840,"rak":2841,"britan":2842,"ame":2843,"ps":2844,"baseret":2845,"lar":2846,"haft":2847,"radi":2848,"Selv":2849,"følger":2850,"Storbritan":2851,"provin":2852,"beskyt":2853,"lykke":2854,"ons":2855,"Di":2856,"Lo":2857,"rich":2858,"moderne":2859,"kongen":2860,"alis":2861,"kontrol":2862,"laget":2863,"Henrik":2864,"samfund":2865,"fortsatte":2866,"Mad":2867,"As":2868,"soci":2869,"sadan":2870,"sydlige":2871,"Mag":2872,"ustral":2873,"virksomhed":2874,"iv":2875,"ligesom":2876,"Rad":2877,"mes":2878,"Italien":2879,"forening":2880,"sætte":2881,"Karl":2882,"direktør":2883,"rundt":2884,"Ja":2885,"militær":2886,"iens":2887,"Ser":2888,"uddannelse":2889,"Nav":2890,"sper":2891,"Mi":2892,"gammel":2893,"Siden":2894,"landsk":2895,"arkite":2896,"bror":2897,"floden":2898,"Bla":2899,"stammer":2900,"talte":2901,"serie":2902,"klæ":2903,"inget":2904,"lesvig":2905,"finalen":2906,"betyde":2907,"enten":2908,"faet":2909,"eng":2910,"engelske":2911,"europæ":2912,"unden":2913,"Thom":2914,"udgave":2915,"samlet":2916,"vitet":2917,"professor":2918,"antal":2919,"dal":2920,"kilometer":2921,"bin":2922,"skol":2923,"betyder":2924,"borger":2925,"fej":2926,"direkte":2927,"tæt":2928,"vinde":2929,"startede":2930,"bær":2931,"To":2932,"ith":2933,"lot":2934,"Tor":2935,"svenske":2936,"1998":2937,"TV":2938,"Pri":2939,"erstat":2940,"1999":2941,"anlæg":2942,"Amt":2943,"sikker":2944,"bal":2945,"grundlagt":2946,"okra":2947,"Bor":2948,"Ve":2949,"York":2950,"hørte":2951,"indeholder":2952,"flyttede":2953,"Je":2954,"ude":2955,"former":2956,"Ale":2957,"stik":2958,"bus":2959,"1960":2960,"efterfølgende":2961,"National":2962,"selskab":2963,"kraft":2964,"navne":2965,"istisk":2966,"bræn":2967,"nat":2968,"langs":2969,"krat":2970,"enkel":2971,"lit":2972,"modtog":2973,"skede":2974,"bom":2975,"kvinder":2976,"Handling":2977,"strøm":2978,"gelsen":2979,"udkom":2980,"2019":2981,"Bu":2982,"staten":2983,"ya":2984,"Gre":2985,"nelsen":2986,"mask":2987,"Storbritannien":2988,"ael":2989,"hurtigt":2990,"roman":2991,"profession":2992,"chen":2993,"fan":2994,"dannet":2995,"yng":2996,"Dav":2997,"Ven":2998,"nok":2999,"Kat":3000,"skrift":3001,"barn":3002,"materi":3003,"desig":3004,"Ek":3005,"igur":3006,"vendte":3007,"lerede":3008,"styrker":3009,"meste":3010,"bygningen":3011,"ylland":3012,"typ":3013,"rebet":3014,"Hav":3015,"areal":3016,"gene":3017,"enter":3018,"bestod":3019,"Hoved":3020,"nis":3021,"østlige":3022,"ældste":3023,"Met":3024,"Str":3025,"ise":3026,"ologiske":3027,"kens":3028,"mærk":3029,"sterne":3030,"Jør":3031,"ander":3032,"punkt":3033,"universitet":3034,"sidst":3035,"Go":3036,"Nog":3037,"vendes":3038,"garden":3039,"igennem":3040,"bøger":3041,"afik":3042,"Kn":3043,"Ti":3044,"svensk":3045,"konkurren":3046,"oprindelige":3047,"fru":3048,"Ric":3049,"how":3050,"sættelse":3051,"albummet":3052,"linje":3053,"Sønder":3054,"kvali":3055,"finde":3056,"yp":3057,"\"),":3058,"dige":3059,"opdag":3060,"hit":3061,"ting":3062,"Senere":3063,"Bri":3064,"folket":3065,"rejse":3066,"mper":3067,"værdi":3068,"løber":3069,"arig":3070,"lege":3071,"begra":3072,"optræ":3073,"titel":3074,"Nar":3075,"spør":3076,"manuskri":3077,"ld":3078,"kirken":3079,"huse":3080,"ai":3081,"slaget":3082,"udtryk":3083,"90":3084,"Sal":3085,"insp":3086,"stof":3087,"Vej":3088,"serv":3089,"lærer":3090,"ock":3091,"anvendes":3092,"social":3093,"muligt":3094,"metal":3095,"helm":3096,"\").":3097,"Mat":3098,"handler":3099,"hinanden":3100,"søl":3101,"Desuden":3102,"Stat":3103,"Mil":3104,"1996":3105,"atet":3106,"yderligere":3107,"Wor":3108,"stoff":3109,"kraf":3110,"bandet":3111,"dør":3112,"1997":3113,"cyk":3114,"spillere":3115,"mæng":3116,"Rusland":3117,"aktion":3118,"funktion":3119,"Hansen":3120,"kre":3121,"talt":3122,"urner":3123,"sien":3124,"Pal":3125,"dis":3126,"grav":3127,"bid":3128,"nende":3129,"Tid":3130,"pat":3131,"merne":3132,"dagen":3133,"arv":3134,"familien":3135,"formal":3136,"formen":3137,"Alle":3138,"svis":3139,"ryg":3140,"kolon":3141,"sager":3142,"sund":3143,"Mor":3144,"Over":3145,"inkl":3146,"titlen":3147,"øjt":3148,"Jac":3149,"unde":3150,"Jap":3151,"500":3152,"ali":3153,"indre":3154,"bygge":3155,"medvir":3156,"krigs":3157,"forsøg":3158,"erhver":3159,"slav":3160,"itar":3161,"kommand":3162,"Ul":3163,"1994":3164,"næst":3165,"iddel":3166,"eget":3167,"Bel":3168,"fulgte":3169,"bt":3170,"enkelte":3171,"hertug":3172,"blom":3173,"bøl":3174,"sic":3175,"oder":3176,"Jørgen":3177,"primær":3178,"rene":3179,"Fa":3180,"undt":3181,"pan":3182,"øde":3183,"stav":3184,"Muse":3185,"rat":3186,"neder":3187,"Regi":3188,"politik":3189,"oprettet":3190,"oprindeligt":3191,"1992":3192,"indfly":3193,"filos":3194,"sav":3195,"bare":3196,"Lou":3197,"rale":3198,"ns":3199,"vind":3200,"levede":3201,"mentar":3202,"sold":3203,"mæssig":3204,"adem":3205,"isen":3206,"35":3207,"Oden":3208,"pal":3209,"Berlin":3210,"stillede":3211,"Nør":3212,"178":3213,"lykkedes":3214,"ødel":3215,"jel":3216,"Sven":3217,"Erik":3218,"siv":3219,"kn":3220,"Jan":3221,"Jam":3222,"kontrakt":3223,"sølv":3224,"styrke":3225,"hr":3226,"kammer":3227,"særlig":3228,"lave":3229,"Paul":3230,"gelser":3231,"debut":3232,"unk":3233,"Nielsen":3234,"skiftede":3235,"bygninger":3236,"overtog":3237,"sko":3238,"tilfælde":3239,"Ak":3240,"bruger":3241,"hl":3242,"ild":3243,"trods":3244,"liste":3245,"kron":3246,"offentlig":3247,"ati":3248,"rød":3249,"1995":3250,"anal":3251,"Sør":3252,"lavet":3253,"lokale":3254,"177":3255,"latin":3256,"por":3257,"iger":3258,"kunstner":3259,"sæsonen":3260,"Kunst":3261,"uth":3262,"endom":3263,"fulde":3264,"aget":3265,"usik":3266,"hvoraf":3267,"Filmen":3268,"dam":3269,"fx":3270,"kampen":3271,"lange":3272,"cip":3273,"befolkning":3274,"ftede":3275,"romer":3276,"samlede":3277,"starten":3278,"landets":3279,"ymna":3280,"oen":3281,"taler":3282,"Fl":3283,"alderen":3284,"mende":3285,"samarbejde":3286,"indflydelse":3287,"sommeren":3288,"Ban":3289,"indenfor":3290,"Odense":3291,"ræt":3292,"Geor":3293,"nævnes":3294,"egne":3295,"Grøn":3296,"syv":3297,"Cup":3298,"gaet":3299,"byens":3300,"pladsen":3301,"sange":3302,"1993":3303,"kret":3304,"tru":3305,"slet":3306,"fart":3307,"Kor":3308,"DR":3309,"livet":3310,"ansat":3311,"anti":3312,"bad":3313,"spar":3314,"bedre":3315,"skibet":3316,"Fe":3317,"sanger":3318,"tjeneste":3319,"slog":3320,"sar":3321,"formula":3322,"formula_":3323,"politisk":3324,"Com":3325,"internationale":3326,"mur":3327,"Blandt":3328,"ph":3329,"za":3330,"øerne":3331,"Ifølge":3332,"fæ":3333,"blio":3334,"Min":3335,"log":3336,"tør":3337,"fjorden":3338,"bron":3339,"hæv":3340,"handen":3341,"scor":3342,"dtes":3343,"uel":3344,"nr":3345,"1991":3346,"sigt":3347,"deles":3348,"sene":3349,"ure":3350,"Thomas":3351,"Nogle":3352,"tri":3353,"Gar":3354,"Willi":3355,"Amer":3356,"øg":3357,"45":3358,"firma":3359,"Danske":3360,"kes":3361,"handel":3362,"fæng":3363,"ick":3364,"post":3365,"Gen":3366,"altid":3367,"dar":3368,"blik":3369,"maneder":3370,"visning":3371,"Gra":3372,"udvi":3373,"1945":3374,"vækst":3375,"bisk":3376,"prote":3377,"veau":3378,"vigtigste":3379,"omfatter":3380,"cher":3381,"ball":3382,"eth":3383,"IF":3384,"ague":3385,"tæn":3386,"spørg":3387,"norske":3388,"fte":3389,"rika":3390,"steret":3391,"typisk":3392,"Mc":3393,"optaget":3394,"arene":3395,"nere":3396,"Ca":3397,"skær":3398,"urt":3399,"Jensen":3400,"ple":3401,"bæk":3402,"Hal":3403,"ance":3404,"Bag":3405,"elses":3406,"bak":3407,"endte":3408,"obb":3409,"Michael":3410,"dæ":3411,"1950":3412,"knyttet":3413,"rek":3414,"udviklet":3415,"volution":3416,"Ander":3417,"støt":3418,"midten":3419,"sakaldte":3420,"ana":3421,"1900":3422,"ott":3423,"færdig":3424,"struktur":3425,"1920":3426,"Tr":3427,"ib":3428,"prem":3429,"bedst":3430,"Bru":3431,"ppe":3432,"berøm":3433,"Ta":3434,"Sovjet":3435,"pet":3436,"slutning":3437,"marked":3438,"højde":3439,"filosof":3440,"Aal":3441,"gæl":3442,"zz":3443,"normalt":3444,"ash":3445,"ronning":3446,"Bl":3447,"figur":3448,"sætter":3449,"\"-":3450,"Hvis":3451,"fot":3452,"utter":3453,"sagen":3454,"terer":3455,"dik":3456,"uafhæng":3457,"foran":3458,"artik":3459,"historiske":3460,"ada":3461,"Span":3462,"2020":3463,"blemer":3464,"orien":3465,"Folket":3466,"Alex":3467,"omin":3468,"boede":3469,"Møl":3470,"bragte":3471,"sider":3472,"League":3473,"1989":3474,"alter":3475,"trafik":3476,"William":3477,"handbold":3478,"EM":3479,"demokra":3480,"Ga":3481,"runde":3482,"vold":3483,"fron":3484,"primært":3485,"do":3486,"sygdom":3487,"bredt":3488,"City":3489,"afsk":3490,"ansvar":3491,"højeste":3492,"fløj":3493,"Don":3494,"stitution":3495,"sangen":3496,"Sh":3497,"herre":3498,"penge":3499,"mindst":3500,"næste":3501,"Hor":3502,"stri":3503,"bon":3504,"ungdom":3505,"skel":3506,"cep":3507,"ight":3508,"sejr":3509,"Klub":3510,"stillinger":3511,"non":3512,"vice":3513,"Hus":3514,"manuskript":3515,"ligeledes":3516,"jede":3517,"irk":3518,"stival":3519,"resten":3520,"størr":3521,"styre":3522,"lt":3523,"andid":3524,"Ger":3525,"Tra":3526,"hvorefter":3527,"Øster":3528,"stærkt":3529,"bry":3530,"Austral":3531,"psy":3532,"Aalborg":3533,"1800":3534,"con":3535,"Sti":3536,"Indi":3537,"tidens":3538,"søen":3539,"øjtn":3540,"ften":3541,"hust":3542,"leve":3543,"manden":3544,"løse":3545,"arkitekt":3546,"uer":3547,"Air":3548,"tropper":3549,"ile":3550,"kyst":3551,"NA":3552,"jeg":3553,"Fær":3554,"begræn":3555,"kæmp":3556,"Mange":3557,"opnaede":3558,"iser":3559,"jal":3560,"176":3561,"afholdt":3562,"henhold":3563,"oft":3564,"guitar":3565,"given":3566,"etableret":3567,"wa":3568,"hvordan":3569,"brugte":3570,"skat":3571,"Jacob":3572,"Vol":3573,"nævnte":3574,"ledelse":3575,"ode":3576,"forsy":3577,"Cor":3578,"World":3579,"distrik":3580,"tak":3581,"Sil":3582,"stændig":3583,"litteratur":3584,"øs":3585,"takt":3586,"uddannet":3587,"Lin":3588,"ach":3589,"bind":3590,"1988":3591,"Lands":3592,"øse":3593,"Lar":3594,"fortsat":3595,"telsen":3596,"Mun":3597,"itz":3598,"Bay":3599,"riske":3600,"ologisk":3601,"bere":3602,"ierne":3603,"lokal":3604,"brog":3605,"trak":3606,"bogen":3607,"iker":3608,"Fo":3609,"Bur":3610,"cerede":3611,"moder":3612,"Lud":3613,"36":3614,"Ras":3615,"cm":3616,"øvrige":3617,"stab":3618,"adskillige":3619,"Jon":3620,"europæiske":3621,"try":3622,"fæst":3623,"forlod":3624,"centrum":3625,"Jul":3626,"iels":3627,"ender":3628,"energi":3629,"Kong":3630,"Port":3631,"Kina":3632,"Politi":3633,"felt":3634,"øjtnant":3635,"Peder":3636,"weiz":3637,"Lang":3638,"hof":3639,"regel":3640,"midler":3641,"vinter":3642,"1940":3643,"skete":3644,"gode":3645,"Far":3646,"udgiv":3647,"indle":3648,"gangen":3649,"velse":3650,"obbelt":3651,"yer":3652,"niveau":3653,"gl":3654,"centrale":3655,"ligste":3656,"Mik":3657,"jylland":3658,"ifølge":3659,"Sø":3660,"ykker":3661,"jo":3662,"els":3663,"ena":3664,"grundlæg":3665,"gerne":3666,"skabe":3667,"Cla":3668,"besej":3669,"nødven":3670,"Gi":3671,"Mer":3672,"udsen":3673,"Ke":3674,"ryt":3675,"Phil":3676,"vari":3677,"ino":3678,"Slesvig":3679,"Byg":3680,"løst":3681,"Gud":3682,"jour":3683,"Store":3684,"partiet":3685,"Sovjetunion":3686,"mentet":3687,"solgt":3688,"ejer":3689,"klo":3690,"Herred":3691,"stærk":3692,"rock":3693,"svarende":3694,"leg":3695,"Pla":3696,"1930":3697,"Tour":3698,"Es":3699,"biskop":3700,"okus":3701,"radio":3702,"rør":3703,"faldt":3704,"Beg":3705,"abnede":3706,"sovjet":3707,"modstand":3708,"systemet":3709,"region":3710,"lignende":3711,"skar":3712,"russiske":3713,"mente":3714,"1986":3715,"Bal":3716,"voksede":3717,"mm":3718,"miljø":3719,"sasom":3720,"tz":3721,"itter":3722,"affe":3723,"vogn":3724,"studen":3725,"Super":3726,"ejendom":3727,"projekt":3728,"ki":3729,"prisen":3730,"møl":3731,"begravet":3732,"Japan":3733,"Si":3734,"stoffer":3735,"Martin":3736,"problemer":3737,"konstru":3738,"1984":3739,"placeret":3740,"højere":3741,"can":3742,"uri":3743,"cirka":3744,"hustru":3745,"bruge":3746,"center":3747,"aktivitet":3748,"gas":3749,"bund":3750,"Station":3751,"Fal":3752,"bort":3753,"war":3754,"Stock":3755,"tegn":3756,"liggende":3757,"arrang":3758,"com":3759,"way":3760,"behandling":3761,"altsa":3762,"defin":3763,"forskning":3764,"Marie":3765,"fordel":3766,"stet":3767,"japanske":3768,"velser":3769,"læge":3770,"slaet":3771,"uter":3772,"udnævnt":3773,"debu":3774,"Thor":3775,"sandsyn":3776,"Coun":3777,"cke":3778,"opfat":3779,"tyr":3780,"dvs":3781,"spørgsmal":3782,"Sol":3783,"Eg":3784,"175":3785,"økonomiske":3786,"kær":3787,"Gam":3788,"skriver":3789,"kry":3790,"ney":3791,"cy":3792,"museum":3793,"Bre":3794,"journal":3795,"75":3796,"ood":3797,"skrifter":3798,"indsat":3799,"arbejd":3800,"Danne":3801,"arbejds":3802,"møde":3803,"venstre":3804,"fre":3805,"vidt":3806,"Niels":3807,"klubber":3808,"Østrig":3809,"parlam":3810,"une":3811,"styret":3812,"grænse":3813,"sist":3814,"forbund":3815,"Robert":3816,"sydø":3817,"Høj":3818,"opkaldt":3819,"edition":3820,"lek":3821,"Spanien":3822,"nel":3823,"icin":3824,"brand":3825,"tel":3826,"opna":3827,"1987":3828,"sad":3829,"fu":3830,"præst":3831,"fjerde":3832,"dav":3833,"type":3834,"produceret":3835,"32":3836,"politiker":3837,"oprør":3838,"David":3839,"tele":3840,"ffe":3841,"alvor":3842,"Rasmus":3843,"krop":3844,"skilde":3845,"Ko":3846,"Sim":3847,"Rig":3848,"ola":3849,"male":3850,"myn":3851,"iør":3852,"staur":3853,"fler":3854,"organisation":3855,"34":3856,"soldater":3857,"bronze":3858,"slot":3859,"spid":3860,"fokus":3861,"Universi":3862,"1985":3863,"itler":3864,"sydøst":3865,"ledning":3866,"ønskede":3867,"proces":3868,"dor":3869,"japansk":3870,"erob":3871,"dobbelt":3872,"melse":3873,"dokumentar":3874,"stillingen":3875,"Folke":3876,"teater":3877,"Slot":3878,"1979":3879,"Na":3880,"Pe":3881,"mad":3882,"bok":3883,"prø":3884,"afgør":3885,"Gro":3886,"1972":3887,"gæn":3888,"væg":3889,"lende":3890,"Nic":3891,"norsk":3892,"Navnet":3893,"Do":3894,"Jes":3895,"møn":3896,"udgør":3897,"standen":3898,"rettet":3899,"mund":3900,"dsel":3901,"angen":3902,"1982":3903,"Kal":3904,"ct":3905,"Mod":3906,"feren":3907,"ærende":3908,"kommunen":3909,"opstod":3910,"ica":3911,"studerede":3912,"klasse":3913,"taj":3914,"spital":3915,"krist":3916,"ministeriet":3917,"kop":3918,"tilla":3919,"48":3920,"sæl":3921,"hovedsag":3922,"afsnit":3923,"skrive":3924,"Jack":3925,"somra":3926,"veje":3927,"mennesk":3928,"lejlighed":3929,"udviklede":3930,"FA":3931,"Union":3932,"offentlige":3933,"Jens":3934,"stande":3935,"kommuner":3936,"Var":3937,"særligt":3938,"føres":3939,"ero":3940,"forud":3941,"grænser":3942,"mir":3943,"levende":3944,"ampe":3945,"Musik":3946,"ryk":3947,"aktør":3948,"delstat":3949,"Champ":3950,"privat":3951,"comp":3952,"kontor":3953,"maned":3954,"højre":3955,"officielle":3956,"37":3957,"mør":3958,"University":3959,"foreningen":3960,"ande":3961,"use":3962,"yal":3963,"din":3964,"mesterskab":3965,"1973":3966,"1978":3967,"No":3968,"hovedstad":3969,"300":3970,"landbrug":3971,"højt":3972,"varer":3973,"gud":3974,"populær":3975,"kine":3976,"inder":3977,"cykel":3978,"placer":3979,"landsby":3980,"stræ":3981,"risk":3982,"sige":3983,"forsta":3984,"indi":3985,"handlinger":3986,"krav":3987,"oma":3988,"daværende":3989,"rejste":3990,"que":3991,"atom":3992,"forsøgte":3993,"komponist":3994,"ømme":3995,"Viborg":3996,"August":3997,"ies":3998,"West":3999,"spek":4000,"maske":4001,"Derudover":4002,"finan":4003,"anvendt":4004,"Ran":4005,"ismen":4006,"inspir":4007,"hab":4008,"deltagelse":4009,"forbundet":4010,"debuterede":4011,"oduc":4012,"ika":4013,"Island":4014,"vandet":4015,"handels":4016,"Ot":4017,"gent":4018,"længe":4019,"mate":4020,"James":4021,"38":4022,"1944":4023,"ura":4024,"kommende":4025,"1968":4026,"turneringen":4027,"katol":4028,"Bir":4029,"vært":4030,"ningerne":4031,"udel":4032,"veret":4033,"medalje":4034,"1974":4035,"tegnet":4036,"iller":4037,"reformen":4038,"fugle":4039,"kandid":4040,"otel":4041,"Stockholm":4042,"lingen":4043,"Lau":4044,"byggede":4045,"skom":4046,"solgte":4047,"stitut":4048,"omfattende":4049,"Bog":4050,"gul":4051,"ara":4052,"sive":4053,"Tom":4054,"diske":4055,"Ab":4056,"delte":4057,"stykke":4058,"ficeret":4059,"luk":4060,"intr":4061,"grænsen":4062,"Kul":4063,"hul":4064,"1971":4065,"kendes":4066,"vie":4067,"ands":4068,"garde":4069,"sagde":4070,"foreg":4071,"major":4072,"situ":4073,"fung":4074,"single":4075,"pladser":4076,"Tri":4077,"ymnasi":4078,"dren":4079,"regeringen":4080,"drift":4081,"hvide":4082,"stein":4083,"EU":4084,"italienske":4085,"rapp":4086,"1976":4087,"Album":4088,"billeder":4089,"bestemt":4090,"gæ":4091,"oph":4092,"rollen":4093,"smand":4094,"rael":4095,"cis":4096,"symbol":4097,"its":4098,"fortæller":4099,"gaende":4100,"biblio":4101,"temper":4102,"mig":4103,"ward":4104,"ona":4105,"snart":4106,"legi":4107,"mmel":4108,"viet":4109,"1975":4110,"forbed":4111,"Sankt":4112,"gelig":4113,"skabt":4114,"Sammen":4115,"spro":4116,"søster":4117,"Samtidig":4118,"rigt":4119,"lyst":4120,"fader":4121,"sikre":4122,"iblandt":4123,"modsætning":4124,"1983":4125,"aktiv":4126,"turnering":4127,"skade":4128,"ony":4129,"Pre":4130,"ht":4131,"historisk":4132,"eff":4133,"Ly":4134,"ines":4135,"interesse":4136,"selskabet":4137,"virkelig":4138,"uen":4139,"restaur":4140,"tidlige":4141,"almindelige":4142,"baggrund":4143,"39":4144,"Teater":4145,"kritik":4146,"genop":4147,"virke":4148,"Mis":4149,"Mellem":4150,"Maria":4151,"værket":4152,"1981":4153,"tol":4154,"syge":4155,"studie":4156,"præget":4157,"sekret":4158,"Roskilde":4159,"mit":4160,"blem":4161,"bart":4162,"komst":4163,"Plan":4164,"even":4165,"museet":4166,"efterhanden":4167,"revolution":4168,"orke":4169,"Sovjetunionen":4170,"bebo":4171,"beret":4172,"tegne":4173,"Jer":4174,"onom":4175,"danner":4176,"Museum":4177,"Gener":4178,"sluttet":4179,"bevægelse":4180,"Ex":4181,"Vic":4182,"iseret":4183,"dannede":4184,"vo":4185,"æf":4186,"medicin":4187,"staden":4188,"line":4189,"Finland":4190,"kreds":4191,"befolkningen":4192,"mio":4193,"uelle":4194,"spred":4195,"betra":4196,"liga":4197,"own":4198,"Dannebrog":4199,"stensen":4200,"ider":4201,"orig":4202,"blad":4203,"lære":4204,"stid":4205,"timer":4206,"1969":4207,"savel":4208,"park":4209,"religi":4210,"1918":4211,"orth":4212,"ding":4213,"Andersen":4214,"Fer":4215,"Ring":4216,"Ogsa":4217,"Poul":4218,"George":4219,"tabte":4220,"bat":4221,"træner":4222,"militære":4223,"kost":4224,"Region":4225,"vem":4226,"ish":4227,"tus":4228,"forh":4229,"ama":4230,"55":4231,"vare":4232,"Ir":4233,"gro":4234,"republik":4235,"officielt":4236,"Champion":4237,"1977":4238,"skøn":4239,"1967":4240,"kommet":4241,"skiftet":4242,"kryd":4243,"xic":4244,"inen":4245,"alene":4246,"hvilken":4247,"dræbt":4248,"forven":4249,"blod":4250,"Tran":4251,"religion":4252,"sia":4253,"herefter":4254,"transport":4255,"tom":4256,"spring":4257,"flod":4258,"Park":4259,"tajn":4260,"scen":4261,"opera":4262,"\"\"":4263,"Rosen":4264,"bolig":4265,"heim":4266,"gri":4267,"alitet":4268,"sne":4269,"pper":4270,"gten":4271,"inva":4272,"størrelse":4273,"arab":4274,"minutter":4275,"menneske":4276,"1943":4277,"arti":4278,"oftest":4279,"løjtnant":4280,"sak":4281,"33":4282,"Præ":4283,"iserede":4284,"øge":4285,"sort":4286,"170":4287,"jernban":4288,"oly":4289,"Del":4290,"henholdsvis":4291,"betød":4292,"mpe":4293,"stant":4294,"resultat":4295,"beskæf":4296,"økonomisk":4297,"besluttede":4298,"kombin":4299,"fors":4300,"point":4301,"Ju":4302,"lim":4303,"400":4304,"sky":4305,"oliti":4306,"aftale":4307,"aten":4308,"Tre":4309,"fandtes":4310,"Holland":4311,"special":4312,"angri":4313,"47":4314,"føde":4315,"tighed":4316,"afvik":4317,"gal":4318,"fulgt":4319,"længde":4320,"Ac":4321,"elev":4322,"Kol":4323,"formation":4324,"ægtede":4325,"nab":4326,"lyd":4327,"1964":4328,"Skov":4329,"Johannes":4330,"ævn":4331,"børne":4332,"ales":4333,"Bet":4334,"origin":4335,"malet":4336,"150":4337,"stiftet":4338,"visse":4339,"ords":4340,"Sand":4341,"kas":4342,"kant":4343,"brig":4344,"professionel":4345,"tildelt":4346,"slags":4347,"adgang":4348,"flik":4349,"col":4350,"Stift":4351,"kket":4352,"Gal":4353,"amerika":4354,"sterende":4355,"War":4356,"sub":4357,"slo":4358,"programmet":4359,"Res":4360,"show":4361,"udført":4362,"Ze":4363,"vansk":4364,"planter":4365,"Hendes":4366,"pra":4367,"Frem":4368,"mødte":4369,"iere":4370,"tekst":4371,"Ter":4372,"Kan":4373,"virksomheder":4374,"Oper":4375,"ganske":4376,"iget":4377,"fanter":4378,"pil":4379,"Frederiksberg":4380,"øjer":4381,"borgmester":4382,"overfor":4383,"olie":4384,"dent":4385,"identi":4386,"SA":4387,"Social":4388,"Lars":4389,"stol":4390,"Nu":4391,"loven":4392,"Lund":4393,"butik":4394,"deltag":4395,"enheder":4396,"afdeling":4397,"drama":4398,"Holsten":4399,"Hu":4400,"begiven":4401,"historien":4402,"Grup":4403,"hurtig":4404,"Du":4405,"kore":4406,"udbredt":4407,"funger":4408,"konger":4409,"Bern":4410,"1965":4411,"Richard":4412,"Fly":4413,"ligaen":4414,"blade":4415,"gens":4416,"mak":4417,"journalist":4418,"stationen":4419,"1966":4420,"Cat":4421,"hjer":4422,"ls":4423,"Lø":4424,"sports":4425,"Canada":4426,"46":4427,"aften":4428,"selve":4429,"søgte":4430,"Anders":4431,"International":4432,"ægteskab":4433,"pede":4434,"ited":4435,"Lige":4436,"prins":4437,"almindelig":4438,"nomin":4439,"tillige":4440,"hvid":4441,"samen":4442,"dannelse":4443,"freds":4444,"sættes":4445,"Polen":4446,"materiale":4447,"alerne":4448,"stemme":4449,"trom":4450,"vider":4451,"Derfor":4452,"DS":4453,"øres":4454,"vogne":4455,"farve":4456,"pati":4457,"Qu":4458,"fjen":4459,"Nat":4460,"elektron":4461,"mener":4462,"tot":4463,"1941":4464,"embed":4465,"instruktør":4466,"ms":4467,"ændret":4468,"ix":4469,"Sjæl":4470,"akadem":4471,"County":4472,"nemlig":4473,"anger":4474,"Svend":4475,"spej":4476,"entet":4477,"kysten":4478,"Skole":4479,"jy":4480,"ringen":4481,"reser":4482,"lel":4483,"Ken":4484,"sogne":4485,"fak":4486,"dyb":4487,"Vester":4488,"vur":4489,"1948":4490,"Wien":4491,"vate":4492,"anset":4493,"dest":4494,"forældre":4495,"bens":4496,"bes":4497,"tlige":4498,"købte":4499,"Vin":4500,"matema":4501,"selvom":4502,"CO":4503,"Vilhelm":4504,"stærke":4505,"cil":4506,"central":4507,"benyttes":4508,"ente":4509,"forsamling":4510,"regionen":4511,"officer":4512,"staet":4513,"typer":4514,"produk":4515,"Ski":4516,"dvan":4517,"spr":4518,"Ele":4519,"Pet":4520,"ats":4521,"opfør":4522,"Ludvig":4523,"prak":4524,"sendte":4525,"jar":4526,"ellers":4527,"Frank":4528,"hov":4529,"vejs":4530,"fladen":4531,"Sor":4532,"arige":4533,"status":4534,"skoler":4535,"cht":4536,"Bør":4537,"perne":4538,"hedder":4539,"kem":4540,"studier":4541,"romerske":4542,"angi":4543,"flyttet":4544,"Spe":4545,"stemmer":4546,"Pen":4547,"bach":4548,"uger":4549,"steg":4550,"formel":4551,"ekstra":4552,"sidder":4553,"hid":4554,"trække":4555,"1942":4556,"ye":4557,"abnet":4558,"Cali":4559,"44":4560,"Pat":4561,"listen":4562,".)":4563,"abeth":4564,"hens":4565,"forfat":4566,"herred":4567,"SS":4568,"pir":4569,"tilfø":4570,"træn":4571,"hjælpe":4572,"kob":4573,"kreis":4574,"efteraret":4575,"gennemsnit":4576,"derved":4577,"udstyr":4578,"serva":4579,"havnen":4580,"Geografi":4581,"kæmpe":4582,"anmel":4583,"hat":4584,"kilder":4585,"sæde":4586,"somhed":4587,"regist":4588,"Vær":4589,"last":4590,"møder":4591,"udeluk":4592,"olymp":4593,"pag":4594,"Schweiz":4595,"Midt":4596,"jon":4597,"tjen":4598,"asin":4599,"Bold":4600,"bevaret":4601,"mæn":4602,"skabs":4603,"test":4604,"ophold":4605,"utr":4606,"fo":4607,"enhed":4608,"rab":4609,"oplys":4610,"ric":4611,"Sommer":4612,"forel":4613,"udgang":4614,"Cen":4615,"urneringen":4616,"sul":4617,"Dom":4618,"vag":4619,"digheder":4620,"168":4621,"ekspedition":4622,"ligevel":4623,"1939":4624,"masse":4625,"65":4626,"Pan":4627,"skabte":4628,"kristne":4629,"tiet":4630,"ordin":4631,"effek":4632,"Louis":4633,"Middel":4634,"gæld":4635,"økonomi":4636,"ugh":4637,"Fre":4638,"Tek":4639,"dronning":4640,"administration":4641,"forret":4642,"video":4643,"kateg":4644,"Lit":4645,"tidige":4646,"ikker":4647,"plante":4648,"tales":4649,"49":4650,"stjerne":4651,"ube":4652,"angrebet":4653,"pul":4654,"Skan":4655,"Albummet":4656,"skon":4657,"Rid":4658,"konflik":4659,"kvalifik":4660,"ror":4661,"nerne":4662,"Luft":4663,"varme":4664,"kning":4665,"tiver":4666,"Natur":4667,"Stil":4668,"Anna":4669,"live":4670,"Liv":4671,"finansi":4672,"Let":4673,"My":4674,"mist":4675,"sekretær":4676,"sammenhæng":4677,"Mol":4678,"giftede":4679,"allierede":4680,"optradte":4681,"spoliti":4682,"flag":4683,"oss":4684,"1962":4685,"kaptajn":4686,"arsag":4687,"mands":4688,"sovjetiske":4689,"Inden":4690,"Sm":4691,"juri":4692,"hjul":4693,"jur":4694,"tic":4695,"Ru":4696,"kken":4697,"hor":4698,"arbejdere":4699,"andin":4700,"bladet":4701,"opgave":4702,"Bol":4703,"Rec":4704,"42":4705,"pens":4706,"gren":4707,"køre":4708,"alreformen":4709,"United":4710,"Georg":4711,"bærer":4712,"begynder":4713,"berømte":4714,"Film":4715,"stens":4716,"1963":4717,"fejl":4718,"Art":4719,"III":4720,"drev":4721,"artikler":4722,"siger":4723,"ativ":4724,"Slaget":4725,"unget":4726,"Califor":4727,"britisk":4728,"nationalt":4729,"Oslo":4730,"fores":4731,"fange":4732,"tages":4733,"premier":4734,"bour":4735,"arki":4736,"Eli":4737,"somt":4738,"start":4739,"grader":4740,"1946":4741,"Cam":4742,"private":4743,"provinsen":4744,"græsk":4745,"Randers":4746,"forklar":4747,"ras":4748,"inkluder":4749,"Bon":4750,"bereg":4751,"ano":4752,"græs":4753,"foraret":4754,"opmærk":4755,"uge":4756,"ritor":4757,"holdes":4758,"fængsel":4759,"sør":4760,"1919":4761,"sli":4762,"billed":4763,"Bul":4764,"spanske":4765,"tigheder":4766,"Kap":4767,"flyve":4768,"Gust":4769,"repræsent":4770,"Allerede":4771,"bestyrelsen":4772,"Karriere":4773,"Kamp":4774,"eta":4775,"Royal":4776,"betegnelse":4777,"farver":4778,"ffekt":4779,"cere":4780,"institution":4781,"tioner":4782,"sesse":4783,"Australien":4784,"bot":4785,"angel":4786,"sum":4787,"-,":4788,"Arhus":4789,"flu":4790,"anta":4791,"stj":4792,"mesterskabet":4793,"abne":4794,"systemer":4795,"prim":4796,"ingeniør":4797,"kontakt":4798,"back":4799,"oberst":4800,"andinav":4801,"gin":4802,"kone":4803,"ice":4804,"vad":4805,"scorede":4806,"betal":4807,"udviklingen":4808,"modstan":4809,"løsning":4810,"Dag":4811,"car":4812,"Mens":4813,"esel":4814,"kendelse":4815,"Prin":4816,"Larsen":4817,"bord":4818,"ata":4819,"blok":4820,"gien":4821,"røde":4822,"Il":4823,"ij":4824,"retten":4825,"Stad":4826,"klassen":4827,"mistede":4828,"Red":4829,"invol":4830,"arme":4831,"administra":4832,"sku":4833,"ington":4834,"eksemplar":4835,"problem":4836,"ool":4837,"placering":4838,"introduc":4839,"Jern":4840,"bank":4841,"Foren":4842,"Hver":4843,"lie":4844,"Em":4845,"1912":4846,"kilde":4847,"temperatur":4848,"Nik":4849,"antallet":4850,"serer":4851,"hvem":4852,"udgi":4853,"Helsing":4854,"Anne":4855,"videnskabelige":4856,"fen":4857,"sammenlig":4858,"forblev":4859,"1917":4860,"hug":4861,"grundlag":4862,"Mosk":4863,"Knud":4864,"1958":4865,"billede":4866,"sociale":4867,"venner":4868,"Grand":4869,"Tar":4870,"tiller":4871,"jekter":4872,"bestaende":4873,"magten":4874,"øer":4875,"Mort":4876,"sson":4877,"1947":4878,"landsbyen":4879,"regnes":4880,"foregar":4881,"vigtige":4882,"specielt":4883,"Græ":4884,"inspireret":4885,"fjern":4886,"parken":4887,"Wal":4888,"ose":4889,"lader":4890,"nogens":4891,"virkning":4892,"ora":4893,"Jak":4894,"pavir":4895,"salg":4896,"autor":4897,"punk":4898,"Nap":4899,"lægge":4900,"1961":4901,"Tyr":4902,"festival":4903,"iteter":4904,"Lig":4905,"russisk":4906,"grunden":4907,"ukker":4908,"Deres":4909,"dyn":4910,"Centr":4911,"Lille":4912,"østrig":4913,"Ole":4914,"anerne":4915,"Møller":4916,"nogensinde":4917,"regn":4918,"tedes":4919,"mængde":4920,"1956":4921,"41":4922,"bede":4923,"spon":4924,"ægter":4925,"sler":4926,"kandidat":4927,"ksis":4928,"ield":4929,"splan":4930,"domin":4931,"ører":4932,"super":4933,"Først":4934,"vile":4935,"køn":4936,"Omkring":4937,"tider":4938,"tæ":4939,"nordøst":4940,"Freder":4941,"skyldes":4942,"aver":4943,"græske":4944,"parlament":4945,"Mark":4946,"Van":4947,"iets":4948,"Fried":4949,"1864":4950,"trans":4951,"heraf":4952,"psyk":4953,"omgang":4954,"ungdoms":4955,"fest":4956,"populære":4957,"fuldt":4958,"udpe":4959,"mærke":4960,"afdel":4961,"1908":4962,"Jeg":4963,"Dy":4964,"otland":4965,"udvalg":4966,"standard":4967,"vning":4968,"danne":4969,"see":4970,"hast":4971,"ckey":4972,"()":4973,"visninger":4974,"hospital":4975,"baner":4976,"1936":4977,"vern":4978,"udvidet":4979,"sere":4980,"undervisning":4981,"Kultur":4982,"Fyn":4983,"Arbej":4984,"forslag":4985,"oten":4986,"sydvest":4987,"Dis":4988,"afrika":4989,"derimod":4990,"yngre":4991,"Bjer":4992,"Music":4993,"mager":4994,"Folketinget":4995,"Va":4996,"Osc":4997,"nov":4998,"havne":4999,"nik":5000,"tun":5001,"Radio":5002,"computer":5003,"bis":5004,".-":5005,"Otto":5006,"afsl":5007,"endelig":5008,"real":5009,"1914":5010,"kelse":5011,"Bil":5012,"bered":5013,"1938":5014,"kærlighed":5015,"udnyt":5016,"føder":5017,"netop":5018,"tyde":5019,"forbud":5020,"gan":5021,"1949":5022,"Kongelige":5023,"1935":5024,"nordvest":5025,"Charles":5026,"ago":5027,"ath":5028,"ydning":5029,"Wilhelm":5030,"ankom":5031,"lads":5032,"Brøn":5033,"wer":5034,"uren":5035,"nedlagt":5036,"sikkerhed":5037,"99":5038,"italiensk":5039,"You":5040,"Mas":5041,"range":5042,"pel":5043,"infanter":5044,"middelalderen":5045,"1952":5046,"viv":5047,"analy":5048,"wood":5049,"ida":5050,"...":5051,"sdag":5052,"sborg":5053,"Flere":5054,"fjord":5055,"betegnelsen":5056,"Vir":5057,"43":5058,"Fort":5059,"1955":5060,"rute":5061,"klen":5062,"kristen":5063,"1910":5064,"kroner":5065,"Mexic":5066,"bogstav":5067,"him":5068,"kongelige":5069,"gran":5070,"Vor":5071,"hove":5072,"Rum":5073,"rul":5074,"bragt":5075,"omen":5076,"rykkede":5077,"student":5078,"rent":5079,"indgik":5080,"58":5081,"Første":5082,"lens":5083,"anne":5084,"Christ":5085,"Carol":5086,"hensyn":5087,"discip":5088,"gælder":5089,"afgørende":5090,"att":5091,"Vejle":5092,"anlagt":5093,"hvorved":5094,"ari":5095,"hvorfor":5096,"biograf":5097,"randen":5098,"Rol":5099,"semi":5100,"tvær":5101,"klart":5102,"dyg":5103,"Ag":5104,"kunstnere":5105,"fotograf":5106,"kommunik":5107,"erstattet":5108,"ita":5109,"middelalder":5110,"sning":5111,"parte":5112,"hørende":5113,"fungerede":5114,"talen":5115,"skende":5116,"resul":5117,"1924":5118,"Dal":5119,"betydninger":5120,"cker":5121,"tilknyttet":5122,"King":5123,"hardt":5124,"\":":5125,"isten":5126,"Atlan":5127,"dækker":5128,"kvarter":5129,"heller":5130,"zo":5131,"vers":5132,"beskrevet":5133,"praksis":5134,"ficerede":5135,"erfar":5136,"blomster":5137,"plade":5138,"forval":5139,"1921":5140,"holdene":5141,"66":5142,"mekan":5143,"reder":5144,"1959":5145,"svøm":5146,"programmer":5147,"opgaver":5148,"ior":5149,"pre":5150,"stians":5151,"udelukkende":5152,"brev":5153,"Rasmussen":5154,"Søren":5155,"indhold":5156,"redaktør":5157,"stigende":5158,"oprin":5159,"Lind":5160,"1953":5161,"varet":5162,"Gran":5163,"Black":5164,"1957":5165,"inten":5166,"Færøerne":5167,"stjer":5168,"konkurrence":5169,"ani":5170,"ston":5171,"Derefter":5172,"Klubben":5173,"frihed":5174,"drog":5175,"Dam":5176,"ped":5177,"stykker":5178,"sandsynligvis":5179,"Indtil":5180,"160":5181,"benyttet":5182,"kontin":5183,"Marg":5184,"mord":5185,"1937":5186,"flyg":5187,"nø":5188,"tning":5189,"territor":5190,"hvilke":5191,"1916":5192,"Josep":5193,"fas":5194,"design":5195,"dengang":5196,"dennes":5197,"finale":5198,"formet":5199,"Tidligere":5200,"ette":5201,"hvori":5202,"generelt":5203,"odi":5204,"stater":5205,"1906":5206,"zen":5207,"1700":5208,"epis":5209,"1933":5210,"base":5211,"Selvom":5212,"sas":5213,"betydelig":5214,"tyn":5215,"planer":5216,"udstilling":5217,"lægger":5218,"medvirkede":5219,"korn":5220,"trent":5221,"aga":5222,"seende":5223,"kirker":5224,"End":5225,"etablerede":5226,"portræt":5227,"grev":5228,"yo":5229,"udgangspunkt":5230,"1954":5231,"low":5232,"eksemplarer":5233,"reform":5234,"chsen":5235,"optræder":5236,"linger":5237,"modtaget":5238,"Harry":5239,"accep":5240,"95":5241,"temp":5242,"North":5243,"ku":5244,"rien":5245,"Samme":5246,"nederlag":5247,"undga":5248,"oplev":5249,"hovedsageligt":5250,"ordet":5251,"rette":5252,"somme":5253,"følel":5254,"enede":5255,"gyl":5256,"giske":5257,"umiddel":5258,"intet":5259,"partier":5260,"betragte":5261,"biler":5262,"beskyttelse":5263,"Victor":5264,"Kil":5265,"mærket":5266,"olding":5267,"skæ":5268,"rejser":5269,"Gennem":5270,"Bus":5271,"Sangen":5272,"fødsel":5273,"reduc":5274,"turi":5275,"sionen":5276,"General":5277,"Moskva":5278,"Bill":5279,"sup":5280,"elever":5281,"international":5282,"Oscar":5283,"livs":5284,"Kron":5285,"udgjorde":5286,"Dra":5287,"Die":5288,"Comp":5289,"nævnt":5290,"data":5291,"bul":5292,"riget":5293,"Rock":5294,"Motor":5295,"egentlig":5296,"Los":5297,"kere":5298,"mos":5299,"bland":5300,"ox":5301,"leje":5302,"frugt":5303,"seneste":5304,"Indien":5305,"Hitler":5306,"døb":5307,"indgar":5308,"skifte":5309,"bæl":5310,"Sig":5311,"klær":5312,"vit":5313,"oprettede":5314,"kelig":5315,"sogn":5316,"Tur":5317,"Jor":5318,"part":5319,"Fru":5320,"ela":5321,"hovedet":5322,"fris":5323,"aktive":5324,"strate":5325,"dokumentarfilm":5326,"atret":5327,"færd":5328,"Adam":5329,"nærheden":5330,"Landkreis":5331,"hjør":5332,"fødte":5333,"trin":5334,"sur":5335,"frivil":5336,"1928":5337,"tilsvarende":5338,"On":5339,"korps":5340,"magasin":5341,"ingerne":5342,"arkæ":5343,"bevægelsen":5344,"dommer":5345,"ters":5346,"linjer":5347,"døds":5348,"Ungar":5349,"Fir":5350,"koncerter":5351,"Joseph":5352,"oprindelig":5353,"æger":5354,"knap":5355,"Alexander":5356,"fr":5357,"vek":5358,"Open":5359,"inte":5360,"ensborg":5361,"ukt":5362,"fremstillet":5363,"ussen":5364,"Famil":5365,"cand":5366,"fordelt":5367,"ognet":5368,"drevet":5369,"Dog":5370,"AB":5371,"hvorfra":5372,"ship":5373,"Wh":5374,"effekt":5375,"1932":5376,"ane":5377,"byr":5378,"strand":5379,"1890":5380,"800":5381,"slægten":5382,"kiet":5383,"henvise":5384,"85":5385,"stift":5386,"klima":5387,"view":5388,"skoven":5389,"skibs":5390,"tions":5391,"sberg":5392,"nettet":5393,"God":5394,"pga":5395,"dommen":5396,"hemmel":5397,"Max":5398,"broen":5399,"Stud":5400,"Ram":5401,"fi":5402,"lavede":5403,"avis":5404,"lic":5405,"konstruktion":5406,"virksomheden":5407,"papir":5408,"løste":5409,"sorte":5410,"600":5411,"uther":5412,"Petersen":5413,"tilgæn":5414,"CD":5415,"hum":5416,"iro":5417,"orkester":5418,"rytter":5419,"tøj":5420,"amt":5421,"procent":5422,"Jean":5423,"Dar":5424,"aland":5425,"vendt":5426,"servator":5427,"særlige":5428,"1870":5429,"Gun":5430,"brigade":5431,"Born":5432,"publikum":5433,"eksperi":5434,"Omradet":5435,"teori":5436,"1911":5437,"skift":5438,"1913":5439,"koncert":5440,"ugo":5441,"1934":5442,"klare":5443,"1909":5444,"skild":5445,"Got":5446,"Soph":5447,"Anton":5448,"øvrigt":5449,"Kre":5450,"initi":5451,"kast":5452,"demar":5453,"heste":5454,"ændringer":5455,"jørn":5456,"Grønland":5457,"Lyng":5458,"ativt":5459,"hk":5460,"167":5461,"Kort":5462,"Jakob":5463,"ladt":5464,"naz":5465,"repræsenterede":5466,"øjeblik":5467,"South":5468,"traditionelle":5469,"spekt":5470,"somrade":5471,"hyl":5472,"Sund":5473,"kryds":5474,"debat":5475,"Opr":5476,"pæ":5477,"Christensen":5478,"tidligt":5479,"oprindelse":5480,"delstaten":5481,"Mac":5482,"modeller":5483,"mik":5484,"spænd":5485,"Nørre":5486,"rettigheder":5487,"opol":5488,"samfundet":5489,"vokset":5490,"gods":5491,"apo":5492,"købt":5493,"64":5494,"jær":5495,"1905":5496,"All":5497,"1925":5498,"1929":5499,"halvdel":5500,"produktionen":5501,"vurder":5502,"Ry":5503,"Bayern":5504,"ah":5505,"behand":5506,"morgen":5507,"ial":5508,"forsvars":5509,"indviet":5510,"svarer":5511,"studerende":5512,"ankl":5513,"okal":5514,"ikere":5515,"indført":5516,"jernbane":5517,"front":5518,"Kirken":5519,"vard":5520,"Ten":5521,"reaktion":5522,"femte":5523,"beskriver":5524,"Star":5525,"alligevel":5526,"eksempelvis":5527,"ming":5528,"ansatte":5529,"stæ":5530,"kører":5531,"aende":5532,"slen":5533,"kvin":5534,"afsked":5535,"98":5536,"tema":5537,"Hall":5538,"asse":5539,"Brasil":5540,"Neder":5541,"forbindelser":5542,"løn":5543,"ads":5544,"synes":5545,"formede":5546,"liber":5547,"steds":5548,"agne":5549,"nyere":5550,"1901":5551,"komposition":5552,"karri":5553,"teor":5554,"begrænset":5555,"Emil":5556,"Lis":5557,"hockey":5558,"gn":5559,"abel":5560,"panser":5561,"rekord":5562,"67":5563,"Division":5564,"muligheder":5565,"hænger":5566,"Margret":5567,"guvern":5568,"pension":5569,"produkter":5570,"muligvis":5571,"Stre":5572,"regler":5573,"ink":5574,"AT":5575,"ave":5576,"glas":5577,"Verden":5578,"Europ":5579,"betrag":5580,"marker":5581,"mul":5582,"omtrent":5583,"kæmpede":5584,"Reg":5585,"fysik":5586,"anses":5587,"stationer":5588,"Begge":5589,"Gyl":5590,"korte":5591,"afstem":5592,"Vik":5593,"udenfor":5594,"stronom":5595,"Hill":5596,"omo":5597,"omfattede":5598,"uropa":5599,"væsentlig":5600,"aktiviteter":5601,"Gri":5602,"førelse":5603,"Friedrich":5604,"1951":5605,"simp":5606,"Venstre":5607,"disciplin":5608,"istan":5609,"stiller":5610,"firmaet":5611,"besejrede":5612,"Mur":5613,"1915":5614,"1904":5615,"Len":5616,"indbygger":5617,"wn":5618,"Wind":5619,"ledet":5620,"filosofi":5621,"mæssige":5622,"indspillet":5623,"prop":5624,"Udover":5625,"gøres":5626,"Records":5627,"organisationer":5628,"Sha":5629,"reret":5630,"nordiske":5631,"1922":5632,"skilt":5633,"tiker":5634,"skyt":5635,"otter":5636,"Dor":5637,"gere":5638,"vention":5639,"FN":5640,"Sing":5641,"als":5642,"linjen":5643,"tain":5644,"IV":5645,"Republik":5646,"alog":5647,"mændene":5648,"1880":5649,"raft":5650,"resultater":5651,"marke":5652,"besæt":5653,"stjerner":5654,"ji":5655,"rere":5656,"endvidere":5657,"virkede":5658,"rev":5659,"hang":5660,"ordenen":5661,"AC":5662,"68":5663,"skamp":5664,"ødelæg":5665,"ringe":5666,"Sid":5667,"Elis":5668,"IS":5669,"klok":5670,"fanger":5671,"kvindelige":5672,"indsats":5673,"Bang":5674,"sons":5675,"bredde":5676,"artiller":5677,"Israel":5678,"ugle":5679,"krateret":5680,"roller":5681,"pige":5682,"Lee":5683,"strækning":5684,"bevid":5685,"Central":5686,"smu":5687,"religiøse":5688,"dækket":5689,"alterna":5690,"chi":5691,"mesterskaber":5692,"lund":5693,"elementer":5694,"kender":5695,"tarn":5696,"optræden":5697,"islam":5698,"demon":5699,"97":5700,"øverste":5701,"overtaget":5702,"niske":5703,"spi":5704,"miner":5705,"ejet":5706,"Smith":5707,"Herefter":5708,"slev":5709,"afstand":5710,"arder":5711,"deltage":5712,"gengæld":5713,"omer":5714,"ninge":5715,"ini":5716,"frit":5717,"Dre":5718,"medførte":5719,"passag":5720,"jarv":5721,"selvstændig":5722,"ypten":5723,"Californien":5724,"57":5725,"Albert":5726,"hastighed":5727,"slov":5728,"slottet":5729,"Song":5730,"lyse":5731,"Belgien":5732,"Mexico":5733,"offen":5734,"Center":5735,"besid":5736,"Tro":5737,"byder":5738,"styrelsen":5739,"dipl":5740,"afrik":5741,"Esbjerg":5742,"digter":5743,"dalen":5744,"sønner":5745,"ligheden":5746,"Sport":5747,"hyd":5748,"Result":5749,"strid":5750,"Ange":5751,"Olsen":5752,"mob":5753,"vigtigt":5754,"Kra":5755,"ex":5756,"isering":5757,"1500":5758,"heriblandt":5759,"kanon":5760,"nomineret":5761,"cks":5762,"Cal":5763,"øget":5764,"sæsoner":5765,"draget":5766,"frig":5767,"fusion":5768,"bringe":5769,"AS":5770,"demo":5771,"Afrika":5772,"teres":5773,"inklu":5774,"kraftig":5775,"lægning":5776,"Mul":5777,"Simon":5778,"isterne":5779,"greve":5780,"1923":5781,"88":5782,"grønne":5783,"arrangeret":5784,"1907":5785,"Pedersen":5786,"katolske":5787,"Kommunen":5788,"anledning":5789,"MS":5790,"priser":5791,"personlige":5792,"hæren":5793,"bunden":5794,"tekster":5795,"servative":5796,"Mary":5797,"bring":5798,"jævn":5799,"Stationen":5800,"Græken":5801,"tilsyn":5802,"Rod":5803,"dorf":5804,"Che":5805,"cus":5806,"bran":5807,"efterfølger":5808,"Ku":5809,"Boldklub":5810,"Ungarn":5811,"fungerer":5812,"1848":5813,"civil":5814,"IC":5815,"fæn":5816,"korre":5817,"musikal":5818,"Munchen":5819,"Sten":5820,"Baggrund":5821,"udbrud":5822,"Wash":5823,"besøg":5824,"lette":5825,"Os":5826,"missionen":5827,"Ali":5828,"Hein":5829,"Rud":5830,"1903":5831,"selskaber":5832,"cia":5833,"56":5834,"ledende":5835,"atlet":5836,"mene":5837,"klassiske":5838,"ffer":5839,"Henry":5840,"uble":5841,"Krist":5842,"gaden":5843,"Ridder":5844,"posten":5845,"Hvor":5846,"landene":5847,"indeholdt":5848,"uler":5849,"bekræ":5850,"landskab":5851,"guvernør":5852,"WW":5853,"serier":5854,"ramt":5855,"trup":5856,"behov":5857,"dol":5858,"1926":5859,"kinesiske":5860,"faktor":5861,"bestemte":5862,"erhvervs":5863,"Blom":5864,"feld":5865,"Mit":5866,"tilhører":5867,"Gl":5868,"ES":5869,"job":5870,"ordre":5871,"zer":5872,"Fab":5873,"professionelle":5874,"vsti":5875,"ppet":5876,"jøder":5877,"feldt":5878,"Top":5879,"Saint":5880,"lukket":5881,"era":5882,"Sjælland":5883,"forlæn":5884,"udlandet":5885,"Institut":5886,"undersøgelser":5887,"malerier":5888,"ærer":5889,"begyndt":5890,"indt":5891,"wards":5892,"midlertid":5893,"bibliote":5894,"lagte":5895,"anter":5896,"ødelagt":5897,"enes":5898,"School":5899,"nærmest":5900,"Ari":5901,"stednavne":5902,"sagt":5903,"96":5904,"foruden":5905,"maleri":5906,"ønsker":5907,"IK":5908,"ademi":5909,"brudt":5910,"oduktion":5911,"annon":5912,"Ark":5913,"undtag":5914,"deltager":5915,"Washington":5916,"Angeles":5917,"lene":5918,"skin":5919,"risik":5920,"gymnasi":5921,"egentlige":5922,"fyldt":5923,"Tal":5924,"illa":5925,"minder":5926,"undersøgelse":5927,"Gustav":5928,"Que":5929,"straks":5930,"Dr":5931,"falder":5932,"udvikle":5933,"52":5934,"tvang":5935,"kloster":5936,"forekommer":5937,"imellem":5938,"forand":5939,"repræsenteret":5940,"Tan":5941,"færø":5942,"Grund":5943,"fremtræ":5944,"ux":5945,"spæn":5946,"Kristian":5947,"Ky":5948,"hovedstaden":5949,"1000":5950,"rappor":5951,"ias":5952,"fodboldklub":5953,"canad":5954,"kg":5955,"Bade":5956,"almindeligt":5957,"omfang":5958,"dne":5959,"slin":5960,"olin":5961,"don":5962,"varm":5963,"varede":5964,"Kim":5965,"Bun":5966,"udstyret":5967,"æren":5968,"graf":5969,"Christians":5970,"overvej":5971,"virkende":5972,"bidrag":5973,"markedet":5974,"if":5975,"flertal":5976,"Kro":5977,"udtalte":5978,"1927":5979,"scene":5980,"optag":5981,"spansk":5982,"kortet":5983,"She":5984,"xel":5985,"ykket":5986,"musiker":5987,"klubbens":5988,"jazz":5989,"adel":5990,"nam":5991,"producer":5992,"betragtes":5993,"hop":5994,"forment":5995,"Pas":5996,"Pris":5997,"Valdemar":5998,"kredsen":5999,"Club":6000,"Vo":6001,"myt":6002,"departe":6003,"holdning":6004,"Off":6005,"sburg":6006,"UE":6007,"kvad":6008,"kongens":6009,"brun":6010,"ærke":6011,"medaljer":6012,"skove":6013,"eden":6014,"revet":6015,"relativt":6016,"samle":6017,"1600":6018,"Ør":6019,"mæg":6020,"selvstæn":6021,"Harald":6022,"Mont":6023,"dømt":6024,"Cent":6025,"1902":6026,"fjerne":6027,"austral":6028,"kors":6029,"titler":6030,"hollandske":6031,"1931":6032,"Gruppen":6033,"faste":6034,"Jørgensen":6035,"fry":6036,"værelse":6037,"grundlagde":6038,"Skotland":6039,"kvens":6040,"afviklet":6041,"provins":6042,"120":6043,"Tru":6044,"eksamen":6045,"tjene":6046,"arligt":6047,"Kolding":6048,"Sophie":6049,"zar":6050,"avn":6051,"ændrede":6052,"akt":6053,"betjen":6054,"etisk":6055,"fj":6056,"dyre":6057,"konkurrencen":6058,"kommando":6059,"ova":6060,"Strand":6061,"Son":6062,"Bornholm":6063,"overflade":6064,"svært":6065,"universitetet":6066,"olympiske":6067,"Eksemp":6068,",\"":6069,"rand":6070,"kanal":6071,"telser":6072,"ware":6073,"Andreas":6074,"Vig":6075,"døbt":6076,"Alt":6077,"lavere":6078,"enhver":6079,"Lan":6080,"begrebet":6081,"93":6082,"Jose":6083,"Klo":6084,"jagt":6085,"dørs":6086,"frø":6087,"tron":6088,"1896":6089,"kørte":6090,"faktisk":6091,"metode":6092,"pac":6093,"ikken":6094,"krimin":6095,"skred":6096,"mine":6097,"premiere":6098,"kro":6099,"sed":6100,"stu":6101,"tering":6102,"kanoner":6103,"straf":6104,"benyttede":6105,"ledere":6106,"etiske":6107,"out":6108,"mølle":6109,"Festival":6110,"rummer":6111,"beskæfti":6112,"foregik":6113,"kelige":6114,"øy":6115,"arkitektur":6116,"karrieren":6117,"1860":6118,"sjældent":6119,"Grækenland":6120,"damp":6121,"levet":6122,"beting":6123,"Silke":6124,"toppen":6125,"sex":6126,"chester":6127,"klaver":6128,"faldet":6129,"die":6130,"mulig":6131,"søge":6132,"kanalen":6133,"54":6134,"ønske":6135,"smæssig":6136,"individ":6137,"Ober":6138,"ards":6139,"kiske":6140,"umiddelbart":6141,"projektet":6142,"stød":6143,"miral":6144,"Norges":6145,"1898":6146,"rings":6147,"stadion":6148,"rende":6149,"Vand":6150,"erhverv":6151,"Horsens":6152,"Championship":6153,"indspil":6154,"Berg":6155,"hail":6156,"opford":6157,"dagog":6158,"skille":6159,"kapel":6160,"numre":6161,"fos":6162,"dømmet":6163,"DM":6164,"una":6165,"Bis":6166,"tav":6167,"tyskerne":6168,"egenskaber":6169,"Ce":6170,"gisk":6171,"modellen":6172,"detal":6173,"1850":6174,"aledes":6175,"lovgiv":6176,"Lor":6177,"anvendelse":6178,"opgør":6179,"legen":6180,"nelser":6181,"borgere":6182,"1899":6183,"tanter":6184,"Kirkegard":6185,"Flo":6186,"Elisabeth":6187,"Had":6188,"Rød":6189,"ota":6190,"gennemført":6191,"oplysninger":6192,"sistent":6193,"skot":6194,"eredes":6195,"familier":6196,"tabt":6197,"jyske":6198,"87":6199,"Ur":6200,"any":6201,"held":6202,"chan":6203,"jub":6204,"stren":6205,"perioder":6206,"Sæ":6207,"erklæ":6208,"udvide":6209,"skor":6210,"Arets":6211,"tvunget":6212,"59":6213,"Sta":6214,"ktar":6215,"Sw":6216,"Cap":6217,"asti":6218,"planlagt":6219,"Portug":6220,"Leon":6221,"Irland":6222,"splad":6223,"signal":6224,"brede":6225,"AF":6226,"mængder":6227,"mæssigt":6228,"rod":6229,"støttede":6230,"udenlandske":6231,"produkt":6232,"designet":6233,"generation":6234,"sioner":6235,"bir":6236,"dannes":6237,"naturlige":6238,"hidtil":6239,"tilhørte":6240,"begreb":6241,"tegninger":6242,"overra":6243,"sind":6244,"Flensborg":6245,"Tjek":6246,"bryg":6247,"udgivelsen":6248,"Kin":6249,"vejr":6250,"udgivelse":6251,"menes":6252,"Cast":6253,"kraftigt":6254,"opmærksomhed":6255,"Has":6256,"tons":6257,"broder":6258,"\";":6259,"celler":6260,"sis":6261,"byerne":6262,"skj":6263,"prøve":6264,"formu":6265,"tilstræk":6266,"generalmajor":6267,"turne":6268,"vokser":6269,"ref":6270,"finalerne":6271,"skridt":6272,"spur":6273,"coun":6274,"studiet":6275,"nøj":6276,"udford":6277,"forløb":6278,"lers":6279,"700":6280,"besøgte":6281,"Tit":6282,"stog":6283,"ome":6284,"rekl":6285,"musikken":6286,"High":6287,"UN":6288,"oversat":6289,"slutter":6290,"Lyngby":6291,"time":6292,"1897":6293,"Spar":6294,"tilpas":6295,"bombe":6296,"primære":6297,"forholdet":6298,"opdaget":6299,"stiden":6300,"osv":6301,"Oprinde":6302,"tidlig":6303,"dags":6304,"rækker":6305,"Ron":6306,"tilbud":6307,"kompag":6308,"prinsesse":6309,"dk":6310,"Kam":6311,"Angel":6312,"spidsen":6313,"usa":6314,"regerings":6315,"Virk":6316,"Wa":6317,"stitu":6318,"repræsentant":6319,"77":6320,"deler":6321,"Verdens":6322,"jule":6323,"hø":6324,"erklærede":6325,"vises":6326,"kalk":6327,"Napole":6328,"blanding":6329,"arrange":6330,"tradt":6331,"træer":6332,"belej":6333,"bevidst":6334,"udsat":6335,"færge":6336,"UEFA":6337,"talrige":6338,"bredelse":6339,"formentlig":6340,"ign":6341,"gennembrud":6342,"fremstilling":6343,"sikrede":6344,"dir":6345,"flugt":6346,"1863":6347,"evne":6348,"Søn":6349,"tilknyt":6350,"terror":6351,"tiseret":6352,"internationalt":6353,"Francis":6354,"syl":6355,"Ern":6356,"France":6357,"kræver":6358,"leveret":6359,"Bas":6360,"nus":6361,"atør":6362,"sproget":6363,"Guld":6364,"beholdt":6365,"ktioner":6366,"illust":6367,"mestre":6368,"Mog":6369,"Brasilien":6370,"kræfter":6371,"offentliggjort":6372,"sey":6373,"sem":6374,"Asien":6375,"eten":6376,"250":6377,"62":6378,"Røde":6379,"natten":6380,"53":6381,"Rob":6382,"varier":6383,"fremme":6384,"1888":6385,"Mid":6386,"stifter":6387,"ference":6388,"skir":6389,"love":6390,"Organ":6391,"Philip":6392,"ptur":6393,"Ki":6394,"manniske":6395,"Ej":6396,"Rog":6397,"ømmer":6398,"organisationen":6399,"”.":6400,"1885":6401,"ages":6402,"betale":6403,"1894":6404,"spilles":6405,"forhand":6406,"geren":6407,"1895":6408,"Uden":6409,"cu":6410,"Bud":6411,"zin":6412,"Nan":6413,"sken":6414,"motorer":6415,"princip":6416,"brødre":6417,"bestyrelse":6418,"Saledes":6419,"vent":6420,"Dem":6421,"Ingen":6422,"situation":6423,"Tok":6424,"dder":6425,"69":6426,"hotel":6427,"ukendt":6428,"hon":6429,"amin":6430,"CI":6431,"horn":6432,"information":6433,"ouse":6434,"Silkeborg":6435,"anten":6436,"desel":6437,"fremstille":6438,"frie":6439,"Privat":6440,"foretog":6441,"Sørensen":6442,");":6443,"hundrede":6444,"fodboldlandshold":6445,"overbe":6446,"1884":6447,"rammer":6448,"symfon":6449,"stret":6450,"myr":6451,"Est":6452,"svin":6453,"verne":6454,"observ":6455,"interview":6456,"verse":6457,"ydre":6458,"AG":6459,"arm":6460,"medier":6461,"Louise":6462,"Fon":6463,"mader":6464,"Dermed":6465,"Fi":6466,"sakaldt":6467,"obel":6468,"Parti":6469,"starter":6470,"æres":6471,"vak":6472,"essen":6473,"jødiske":6474,"anerkendt":6475,"byggelse":6476,"Love":6477,"udvalget":6478,"Johann":6479,"distrikt":6480,"yll":6481,"Tron":6482,"dekor":6483,"1892":6484,"Flor":6485,"fiskeri":6486,"vanskelig":6487,"denes":6488,"Vis":6489,"indvand":6490,"mærker":6491,"anen":6492,"Kommunalreformen":6493,"isol":6494,"Jesus":6495,"finske":6496,"Ungdom":6497,"bassa":6498,"Arthur":6499,"51":6500,"Ant":6501,"Virgin":6502,"bands":6503,"indledende":6504,"opfattelse":6505,"Green":6506,"TA":6507,"Tele":6508,"gor":6509,"Mester":6510,"vokal":6511,"erklær":6512,"bebyg":6513,"gej":6514,"kommerci":6515,"forma":6516,"Bandet":6517,"rummet":6518,"folketings":6519,"førende":6520,"satel":6521,"krævede":6522,"ase":6523,"geograf":6524,"slam":6525,"parret":6526,"ike":6527,"1889":6528,"politiet":6529,"Provsti":6530,"Bille":6531,"1866":6532,"Adolf":6533,"Bank":6534,"engang":6535,"Falster":6536,"delig":6537,"haver":6538,"vinteren":6539,"Pl":6540,"arets":6541,"iteten":6542,"sæn":6543,"komed":6544,"metoder":6545,"just":6546,"stabil":6547,"bte":6548,"kup":6549,"Alli":6550,"Krig":6551,"opdelt":6552,"skader":6553,"anere":6554,"vokat":6555,"Sav":6556,"bøn":6557,"figurer":6558,"lukkede":6559,"Idræ":6560,"anda":6561,"skudt":6562,"Ernst":6563,"alet":6564,"dokt":6565,"forlade":6566,"ummer":6567,"dynasti":6568,"plat":6569,"vic":6570,"romersk":6571,"ynd":6572,"Americ":6573,"ante":6574,"ændre":6575,"udenrigs":6576,"1879":6577,"eksempler":6578,"Hart":6579,"fattig":6580,"Just":6581,"Spil":6582,"Fel":6583,"BC":6584,"presse":6585,"ios":6586,"nas":6587,"River":6588,"61":6589,"Hjem":6590,"greb":6591,"digte":6592,"kinesisk":6593,"Ret":6594,"daglig":6595,"Turneringen":6596,"begivenheder":6597,"bidra":6598,"vul":6599,"ary":6600,"formid":6601,"bød":6602,"ritu":6603,"søg":6604,"Konge":6605,"hverken":6606,"Person":6607,"Egypten":6608,"Brand":6609,"formo":6610,"skyld":6611,"oli":6612,"artikel":6613,"fiske":6614,"Real":6615,"Helsingør":6616,"voksende":6617,"vester":6618,"forholdsvis":6619,"tilstand":6620,"stoppe":6621,"oc":6622,"markeds":6623,"mander":6624,"myndigheder":6625,"Net":6626,"anbe":6627,"yllands":6628,"sour":6629,"Jorden":6630,"iges":6631,"nega":6632,"Spor":6633,"mørke":6634,"konsul":6635,"kohol":6636,"Gram":6637,"sønnen":6638,"myndighed":6639,"Hotel":6640,"open":6641,"Yo":6642,"hypp":6643,"mangel":6644,"Engel":6645,"Nordamerika":6646,"1893":6647,"emner":6648,"Ordet":6649,"field":6650,"stern":6651,"grunde":6652,"halvøen":6653,"skik":6654,"Morten":6655,"Internationale":6656,"ejede":6657,"yen":6658,"tikken":6659,"stations":6660,"well":6661,"derslev":6662,"klin":6663,"1882":6664,"lip":6665,"melser":6666,"Statens":6667,"oppe":6668,"ovre":6669,"foreninger":6670,"henvisninger":6671,"kapit":6672,"mindste":6673,"bia":6674,"board":6675,"elserne":6676,"efterfulgt":6677,"Daniel":6678,"købe":6679,"tilladelse":6680,"befinder":6681,"1883":6682,"Team":6683,"forskere":6684,"kvart":6685,"forfattere":6686,"Bed":6687,"foretaget":6688,"Bes":6689,"rac":6690,"vands":6691,"agere":6692,"kab":6693,"stoppede":6694,"vivl":6695,"(,":6696,"win":6697,"holt":6698,"1872":6699,"maskin":6700,"svig":6701,"kapital":6702,"ommer":6703,"Street":6704,"92":6705,"kommunal":6706,"Luc":6707,"strækker":6708,"Bad":6709,"øret":6710,"basis":6711,"63":6712,"Sognet":6713,"plader":6714,"sejre":6715,"grundlæggende":6716,"ungs":6717,"læse":6718,"Stats":6719,"involveret":6720,"øbing":6721,"1891":6722,"Dronning":6723,"skatte":6724,"kend":6725,"sædvan":6726,"forsøger":6727,"fjel":6728,"aller":6729,"endda":6730,"Stru":6731,"forretnings":6732,"eringen":6733,"ært":6734,"Biografi":6735,"Mari":6736,"',":6737,"fremtrædende":6738,"Brønd":6739,"enor":6740,"sus":6741,"omtales":6742,"Awards":6743,"Amager":6744,"kog":6745,"Ren":6746,"fanget":6747,"Rigs":6748,"tilfreds":6749,"fjernet":6750,"1871":6751,"vender":6752,"grundet":6753,"tekniske":6754,"rund":6755,"øk":6756,"salt":6757,"Lad":6758,"fronten":6759,"neutr":6760,"Award":6761,"forbi":6762,"fortsætte":6763,"samlingen":6764,"tromme":6765,"nødvendig":6766,"gives":6767,"teknisk":6768,"Gymnasi":6769,"opnaet":6770,"angiv":6771,"neden":6772,"omtalt":6773,"somradet":6774,"urnering":6775,"nabo":6776,"Kur":6777,"oth":6778,"stedt":6779,"restling":6780,"stum":6781,"ambassa":6782,"polske":6783,"planen":6784,"mikro":6785,"Brun":6786,"nie":6787,"grene":6788,"virker":6789,"Eksterne":6790,"forretning":6791,"beskrev":6792,"1875":6793,"Model":6794,"uafhængighed":6795,"Nicol":6796,"originale":6797,"bekendt":6798,"1862":6799,"anvendte":6800,"overgang":6801,"Moun":6802,"Prem":6803,"Win":6804,"hektar":6805,"Jar":6806,"aftalen":6807,"kalder":6808,"versioner":6809,"Feder":6810,"talent":6811,"regiment":6812,"premierminister":6813,"Lie":6814,"ræner":6815,"fortol":6816,"størstedelen":6817,"fylke":6818,"vælge":6819,"Næst":6820,"flok":6821,"trukket":6822,"forp":6823,"rit":6824,"mini":6825,"forsker":6826,"telefon":6827,"Sun":6828,"az":6829,"aterne":6830,"rejst":6831,"ordning":6832,"otball":6833,"Step":6834,"køret":6835,"Bygningen":6836,"American":6837,"ative":6838,"TO":6839,"vilkar":6840,"Bergen":6841,"eksist":6842,"Lol":6843,"sent":6844,"syre":6845,"perman":6846,"smag":6847,"klassisk":6848,"kkes":6849,"kW":6850,"sj":6851,"søer":6852,"etablere":6853,"spir":6854,"cover":6855,"Verdenskrig":6856,"keligt":6857,"ologien":6858,"Sar":6859,"deltaget":6860,"vilje":6861,"passager":6862,"It":6863,"Ford":6864,"Chic":6865,"Serien":6866,"hjerte":6867,"Stan":6868,"fremmest":6869,"130":6870,"bjergene":6871,"Sachsen":6872,"Foreningen":6873,"sløb":6874,"ramme":6875,"Jim":6876,"flg":6877,"separ":6878,"sterer":6879,"ows":6880,"Group":6881,"Frederic":6882,"besættelse":6883,"etape":6884,"dirig":6885,"tilbragte":6886,"kers":6887,"inspi":6888,"tligt":6889,"Holm":6890,"hoff":6891,"yllup":6892,"nøg":6893,"ison":6894,"Amal":6895,"Akadem":6896,"pi":6897,"alkohol":6898,"Anden":6899,"bibliotek":6900,"spræn":6901,"inddelt":6902,"siges":6903,"tyder":6904,"manglende":6905,"forsik":6906,"avisen":6907,"tæl":6908,"lægges":6909,"nene":6910,"ssel":6911,"luf":6912,"butikker":6913,"Bod":6914,"1865":6915,"ture":6916,"hau":6917,"abent":6918,"trykt":6919,"ament":6920,"inspiration":6921,"laet":6922,"fortsætter":6923,"but":6924,"tarnet":6925,"nordøstlige":6926,"hjemmebane":6927,"Blo":6928,"bit":6929,"1887":6930,"stigning":6931,"86":6932,"Aret":6933,"indledte":6934,"vene":6935,"Pres":6936,"Ribe":6937,"ors":6938,"fortr":6939,"stral":6940,"ændige":6941,"Selskabet":6942,"Soci":6943,"industrien":6944,"forhind":6945,"Jylland":6946,"Kle":6947,"arve":6948,"arsager":6949,"sidstnævnte":6950,"halvdelen":6951,"glob":6952,"row":6953,"forskellig":6954,"College":6955,"passagerer":6956,"uret":6957,"eksisterende":6958,"rødder":6959,"anke":6960,"solo":6961,"brænd":6962,"german":6963,"stamme":6964,"Stra":6965,"tone":6966,"ction":6967,"drag":6968,"samlinger":6969,"Christop":6970,"inkluderer":6971,"pædagog":6972,"Oly":6973,"ader":6974,"cal":6975,"paa":6976,"harmon":6977,"1867":6978,"erobrede":6979,"adels":6980,"argu":6981,"Chan":6982,"Gor":6983,"skak":6984,"endelige":6985,"prædik":6986,"undervis":6987,"kene":6988,"demokratiske":6989,"beskytte":6990,"pladesel":6991,"Gol":6992,"Les":6993,"fold":6994,"bruget":6995,"bandets":6996,"flytte":6997,"sejl":6998,"Stille":6999,"Bob":7000,"bod":7001,"inske":7002,"ower":7003,")\"":7004,"grave":7005,"jernbanest":7006,"Pic":7007,"rerede":7008,"udi":7009,"hej":7010,"antz":7011,"human":7012,"kok":7013,"cean":7014,"kære":7015,"1881":7016,"sjælland":7017,"sadanne":7018,"etabler":7019,"teknik":7020,"vedtaget":7021,"Bogen":7022,"ilæ":7023,"]],":7024,"haven":7025,"invasion":7026,"wald":7027,"skrives":7028,"Ukra":7029,"stændige":7030,"SF":7031,"1840":7032,"Olymp":7033,"nordvestlige":7034,"Madsen":7035,"Tyrkiet":7036,"flygtede":7037,"rens":7038,"eli":7039,"afe":7040,"fabrikken":7041,"hjel":7042,"krater":7043,"ridder":7044,"maskiner":7045,"mobil":7046,"smel":7047,"udførte":7048,"spo":7049,"paralle":7050,"fuldstændig":7051,"medvirket":7052,"zon":7053,"kolle":7054,"flygt":7055,"Kreis":7056,"BU":7057,"resulterede":7058,"app":7059,"spektør":7060,"Jesper":7061,"Operation":7062,"kirkens":7063,"flest":7064,"æssan":7065,"studenter":7066,"undtagelse":7067,"anvende":7068,"tanke":7069,"1886":7070,"Medlem":7071,"udpeget":7072,"Show":7073,"Ker":7074,"skulptur":7075,"1861":7076,"klassi":7077,"diam":7078,"Lim":7079,"ipp":7080,"bønder":7081,"Pop":7082,"fek":7083,"opdagede":7084,"tilhørende":7085,"pak":7086,"1873":7087,"Jen":7088,"arlig":7089,"ykning":7090,"nærings":7091,"aer":7092,"flo":7093,"onien":7094,"lings":7095,"projekter":7096,"funktioner":7097,"Heinrich":7098,"kvalificerede":7099,"punkter":7100,"inerende":7101,"1878":7102,"uropæiske":7103,"App":7104,"fed":7105,"Nikola":7106,"fikation":7107,"virkeligheden":7108,"zy":7109,"Forsvar":7110,"Wales":7111,"kla":7112,"1849":7113,"Hvid":7114,"producerede":7115,"Ox":7116,"ae":7117,"Biblio":7118,"yngste":7119,"slutte":7120,"udgaver":7121,"Kej":7122,"kav":7123,"førelsen":7124,"sterdam":7125,"Holly":7126,"midlertidig":7127,"Napoleon":7128,"Nov":7129,"mose":7130,"lis":7131,"regul":7132,"1868":7133,"bourg":7134,"udsel":7135,"ross":7136,"forny":7137,"tist":7138,"1874":7139,"million":7140,"Aa":7141,"parker":7142,"hhv":7143,"ishockey":7144,"statsminister":7145,"historiker":7146,"ligner":7147,"1876":7148,"Sønderborg":7149,"billedet":7150,"betydeligt":7151,"MA":7152,"imp":7153,"skij":7154,"flyet":7155,"rejsende":7156,"bevarede":7157,"72":7158,"Fjord":7159,"Amsterdam":7160,"eland":7161,"Ferdin":7162,"uelt":7163,"Hammer":7164,"sperio":7165,"forhindre":7166,"musikere":7167,"stantin":7168,"Europe":7169,"splads":7170,"vores":7171,"bun":7172,"skad":7173,"eftersom":7174,"Næstved":7175,"tish":7176,"overfladen":7177,"henviser":7178,"East":7179,"sagn":7180,"Kateg":7181,"drup":7182,"tivitet":7183,"Prins":7184,"Preussen":7185,"Imidlertid":7186,"ones":7187,"forfatteren":7188,"venskab":7189,"netværk":7190,"beskrives":7191,"May":7192,"bræt":7193,"ideer":7194,"Charl":7195,"Portugal":7196,"skæl":7197,"konvention":7198,"Dist":7199,"nordisk":7200,"kroppen":7201,"indbyggertal":7202,"kanten":7203,"imper":7204,"mental":7205,"oversættelse":7206,"pset":7207,"koncent":7208,"Gott":7209,"Mes":7210,"somheden":7211,"140":7212,"kommandoen":7213,"Syds":7214,"storm":7215,"Selskab":7216,"Margrethe":7217,"Filip":7218,"officerer":7219,"koloni":7220,"sydøstlige":7221,"pavirket":7222,"Big":7223,"itets":7224,"civile":7225,"gruppens":7226,"handværk":7227,"Nyk":7228,"karet":7229,"White":7230,"usalem":7231,"univer":7232,"Magnus":7233,"linge":7234,"Nordisk":7235,"voksne":7236,"hunde":7237,"optagelse":7238,"bortset":7239,"94":7240,"ændring":7241,"Arn":7242,"navnlig":7243,"eladende":7244,"frede":7245,"prøver":7246,"ugoslav":7247,"omet":7248,"ugis":7249,"hænge":7250,"arlige":7251,"admiral":7252,"udsendt":7253,"megen":7254,"Manchester":7255,"1877":7256,"astro":7257,"Skolen":7258,"modtager":7259,"78":7260,"put":7261,"):":7262,"Fire":7263,"Glo":7264,"agner":7265,"indiske":7266,"Administ":7267,"pin":7268,"”,":7269,"københavn":7270,"hjemmeside":7271,"Litau":7272,"sydvestlige":7273,"sejlede":7274,"DSB":7275,"fortalte":7276,"Gent":7277,"floder":7278,"assistent":7279,"betegner":7280,"ww":7281,"svarede":7282,"Ros":7283,"indspillede":7284,"bebyggelse":7285,"Slag":7286,"och":7287,"ryd":7288,"meddelte":7289,"smænd":7290,"Edvard":7291,"1200":7292,"Tot":7293,"bryde":7294,"boliger":7295,"sloven":7296,"Alfred":7297,"initiativ":7298,"skrivelse":7299,"sving":7300,"afgjort":7301,"borgerkrig":7302,"Vel":7303,"instrumenter":7304,"hagen":7305,"nødvendigt":7306,"Sad":7307,"Camp":7308,"stran":7309,"banken":7310,"Tim":7311,"operation":7312,"spredt":7313,"oke":7314,"arrække":7315,"villa":7316,"faderen":7317,"kampene":7318,"elin":7319,"delingen":7320,"Kiel":7321,"Lov":7322,"stenen":7323,"sammesteds":7324,"Sveriges":7325,"bonde":7326,"medarbejdere":7327,"Tex":7328,"materialer":7329,"genstande":7330,"².":7331,"struktør":7332,"gem":7333,"Finn":7334,"stadt":7335,"dannelsen":7336,"busser":7337,"Høje":7338,"Prog":7339,"Cy":7340,"Jackson":7341,"overført":7342,"betydelige":7343,"tilknytning":7344,"Dub":7345,"østrigske":7346,"ungar":7347,"beord":7348,"rykket":7349,"batal":7350,"enke":7351,"bredte":7352,"preus":7353,"lid":7354,"Borger":7355,"astronom":7356,"ted":7357,"beck":7358,"Edward":7359,"sikkert":7360,"fredet":7361,"Virginia":7362,"tens":7363,"'.":7364,"Stadion":7365,"Hær":7366,"hag":7367,"diale":7368,"lejr":7369,"repræsenterer":7370,"Pier":7371,"delvist":7372,"administrative":7373,"Ferdinand":7374,"bryder":7375,"VI":7376,"Ye":7377,"toget":7378,"Herning":7379,"institutioner":7380,"Kejser":7381,"ala":7382,"Folkeparti":7383,"afløst":7384,"skyde":7385,"forarsag":7386,"givelser":7387,"1869":7388,"kratere":7389,"Ikke":7390,"zi":7391,"service":7392,"stas":7393,"ruk":7394,"usæ":7395,"ellerup":7396,"Theod":7397,"portugis":7398,"sholm":7399,"adres":7400,"84":7401,"ægtet":7402,"One":7403,"rin":7404,"Kategori":7405,"atre":7406,"brasil":7407,"styrmand":7408,"jette":7409,"mærkelse":7410,"Horn":7411,"tier":7412,"mulige":7413,"Henning":7414,"studiealbum":7415,"komite":7416,"muslim":7417,"akademiet":7418,"formelt":7419,"Bundes":7420,"ther":7421,"minar":7422,"personlighed":7423,"Jerusalem":7424,"Ob":7425,"Las":7426,"mond":7427,"gram":7428,"91":7429,"sektor":7430,"ophørte":7431,"hævdede":7432,"evner":7433,"forstaelse":7434,"cin":7435,"hørt":7436,"Mic":7437,"reau":7438,"resterende":7439,"deltagere":7440,"liter":7441,"dræbte":7442,"scenen":7443,"støttet":7444,"vedkommende":7445,"poten":7446,"bydel":7447,"Henri":7448,"angribe":7449,"ace":7450,"sætninger":7451,"tunnel":7452,"opstar":7453,"konservator":7454,"rammet":7455,"hellige":7456,"Bent":7457,"nisk":7458,"medie":7459,"israel":7460,"Stør":7461,"vere":7462,"avan":7463,"Jones":7464,"indlem":7465,"Bak":7466,"senest":7467,"handboldspiller":7468,"Fu":7469,"kommander":7470,"Associ":7471,"rift":7472,"ots":7473,"arabiske":7474,"Isa":7475,"berømt":7476,"koncentration":7477,"nul":7478,"Colum":7479,"Kla":7480,"overvejende":7481,"%.":7482,"tennis":7483,"stue":7484,"Reger":7485,"fællesskab":7486,"etc":7487,"Kas":7488,"kortfilm":7489,"benytter":7490,"høre":7491,"etter":7492,"delvis":7493,"kulturelle":7494,"dning":7495,"resund":7496,"udnævntes":7497,"wig":7498,"ykke":7499,"Lab":7500,"prom":7501,"døden":7502,"vas":7503,"fisker":7504,"nia":7505,"uba":7506,"Konger":7507,"Bab":7508,"Dig":7509,"søger":7510,"landsholdet":7511,"dominerende":7512,"rot":7513,"offer":7514,"cens":7515,"diag":7516,"schweiz":7517,"nærmere":7518,"skrigen":7519,"autoriserede":7520,"hverv":7521,"gne":7522,"usædvan":7523,"batter":7524,"gennemførte":7525,"betegnes":7526,"bidrog":7527,"tjente":7528,"Mand":7529,"usen":7530,"grun":7531,"Hamborg":7532,"samfunds":7533,"sætningen":7534,"EP":7535,"skan":7536,"itte":7537,"Skandinav":7538,"støtter":7539,"IT":7540,"Køge":7541,"Lil":7542,"key":7543,"lerup":7544,"Brøndby":7545,"OS":7546,"tvivl":7547,"gældende":7548,"rapport":7549,"infanteri":7550,"Him":7551,"hjal":7552,"skaffe":7553,"luften":7554,"ianter":7555,"Champions":7556,"tilsyneladende":7557,"meldte":7558,"Scott":7559,"øverst":7560,"Gylden":7561,"vulkan":7562,"bek":7563,"play":7564,"transpor":7565,"pludsel":7566,"ugen":7567,"europæisk":7568,"kobber":7569,"Landshold":7570,"tilsku":7571,"organiseret":7572,"bryllup":7573,"Lauri":7574,"kvalifikation":7575,"arten":7576,"konstant":7577,"komplek":7578,"producere":7579,"populært":7580,"bue":7581,"sukker":7582,"korea":7583,"ira":7584,"beklæ":7585,"førtes":7586,"hævet":7587,"Madrid":7588,"verdensmester":7589,"kørsel":7590,"omatisk":7591,"forsknings":7592,"kapac":7593,"partiets":7594,"Skane":7595,"Wolf":7596,"wan":7597,"71":7598,"interesser":7599,"pes":7600,"sekund":7601,"tolv":7602,"nægtede":7603,"zig":7604,"Forbund":7605,"fyldte":7606,"Charlotte":7607,"Wo":7608,"berne":7609,"Trond":7610,"skriftet":7611,"Mølle":7612,"angriber":7613,"Fæl":7614,"overens":7615,"hovedkvarter":7616,"ikale":7617,"fængslet":7618,"cit":7619,"Hy":7620,"hind":7621,"advokat":7622,"monu":7623,"atorer":7624,"Kloster":7625,"disku":7626,"Gul":7627,"brid":7628,"mia":7629,"forbrug":7630,"fysisk":7631,"tets":7632,"afdelinger":7633,"Premier":7634,"sjette":7635,"zone":7636,"dernes":7637,"vedrør":7638,"sporet":7639,"kongres":7640,"befri":7641,"dæm":7642,"dybt":7643,"veks":7644,"elektrisk":7645,"kommen":7646,"medlemmerne":7647,"opløsning":7648,"dans":7649,"lager":7650,"landsbyer":7651,"Post":7652,"Hog":7653,"aritet":7654,"ladi":7655,"Organis":7656,"veksl":7657,"110":7658,"82":7659,"Viden":7660,"Hede":7661,"matisk":7662,"inform":7663,"ordnede":7664,"eventu":7665,"ramte":7666,"opper":7667,"særdeles":7668,"hjælper":7669,"Jacobsen":7670,"Aut":7671,"inerne":7672,"melod":7673,"Hertug":7674,"Jane":7675,"hjalp":7676,"mæl":7677,"ficere":7678,"sekven":7679,"skæn":7680,"skyg":7681,"spolitik":7682,"ues":7683,"modi":7684,"Sher":7685,"lse":7686,"mødtes":7687,"Steen":7688,"modsatte":7689,"breve":7690,"Svendborg":7691,"iter":7692,"Industri":7693,"jak":7694,"unst":7695,"definition":7696,"Hø":7697,"andel":7698,"Uddannelse":7699,"høv":7700,"mening":7701,"fur":7702,"forkortet":7703,"afhængig":7704,"fysiske":7705,"parten":7706,"introduceret":7707,"Best":7708,"able":7709,"Deut":7710,"Wer":7711,"ctor":7712,"frat":7713,"kæl":7714,"forsvandt":7715,"kørt":7716,"fyrste":7717,"maksi":7718,"Rumæn":7719,"Au":7720,"Hil":7721,"Argent":7722,"jubilæ":7723,"pu":7724,"ømmet":7725,"lærte":7726,"sto":7727,"naet":7728,"barne":7729,"tyskland":7730,"HF":7731,"edrag":7732,"bakter":7733,"slæ":7734,"mandlige":7735,"Gil":7736,"reserve":7737,"drives":7738,"afstemning":7739,"bne":7740,"ghan":7741,"pian":7742,"bevægelser":7743,"litterære":7744,"akiet":7745,"ET":7746,"æd":7747,"koncentr":7748,"skuespil":7749,"beslutning":7750,"Ing":7751,"ererer":7752,"--":7753,"kugle":7754,"normal":7755,"bestyrelses":7756,"Oli":7757,"danmark":7758,"hjemsted":7759,"900":7760,"atmos":7761,"oprette":7762,"stel":7763,"øjet":7764,"derpa":7765,"vedlige":7766,"gers":7767,"kommission":7768,"Lange":7769,"Sat":7770,"øjne":7771,"renæssan":7772,"bundet":7773,"bergs":7774,"bjerget":7775,"Barcel":7776,"lets":7777,"teknologi":7778,"ledt":7779,"omraderne":7780,"kommunikation":7781,"forlænget":7782,"Claus":7783,"Spr":7784,"fare":7785,"1830":7786,"Huset":7787,"Røn":7788,"komo":7789,"landede":7790,"1859":7791,"forsvaret":7792,"spris":7793,"senior":7794,"eksisterer":7795,"serede":7796,"urch":7797,"historier":7798,"multi":7799,"beskrivelse":7800,"magnet":7801,"eksplo":7802,"House":7803,"Mus":7804,"dømme":7805,"Sir":7806,"nummeret":7807,"Argentina":7808,"blan":7809,"Kj":7810,"kisk":7811,"tivet":7812,"Bred":7813,"BA":7814,"leds":7815,"ience":7816,"parlamentet":7817,"Gymnasium":7818,"Ala":7819,"skibene":7820,"saret":7821,"pave":7822,"gule":7823,"Athen":7824,"Gold":7825,"meret":7826,"siddende":7827,"ekst":7828,"forfatning":7829,"distri":7830,"føring":7831,"1855":7832,"Night":7833,"rads":7834,"værdier":7835,"Hør":7836,"fugl":7837,"jev":7838,"Norden":7839,"snar":7840,"østen":7841,"stok":7842,"afsluttet":7843,"strakte":7844,"Bryg":7845,"løv":7846,"Cle":7847,"præg":7848,"now":7849,"DK":7850,"oter":7851,"svæ":7852,"indrettet":7853,"kin":7854,"char":7855,"gy":7856,"kredse":7857,"sejer":7858,"Liber":7859,"afslutning":7860,"ioner":7861,"Oprindeligt":7862,"81":7863,"Holger":7864,"1857":7865,"Patri":7866,"brasili":7867,"tilstede":7868,"opløst":7869,"bølge":7870,"Long":7871,"Sv":7872,"kontro":7873,"brugen":7874,"romaner":7875,"stjeneste":7876,"optradt":7877,"knu":7878,"igheden":7879,"assi":7880,"kæmper":7881,"næs":7882,"oprettelsen":7883,"milliarder":7884,"konflikt":7885,"Band":7886,"retninger":7887,"darligt":7888,"musikalske":7889,"piger":7890,"kalde":7891,"sekunder":7892,"Sof":7893,"marken":7894,"straff":7895,"fans":7896,"Bat":7897,"okse":7898,"samlings":7899,"Fyr":7900,"radighed":7901,"tigede":7902,"1852":7903,"fæstning":7904,"1856":7905,"tronen":7906,"sygdomme":7907,"kelsen":7908,"web":7909,"ami":7910,"rætter":7911,"højskole":7912,"Eurovision":7913,"modstands":7914,"march":7915,"repræsentanter":7916,"Museet":7917,"Tysklands":7918,"kød":7919,"How":7920,"afholdes":7921,"driver":7922,"forbry":7923,"naturen":7924,"vælger":7925,"cyl":7926,"leks":7927,"resultatet":7928,"besejret":7929,"Mak":7930,"jernbanen":7931,"fase":7932,"EC":7933,"Lyn":7934,"somrader":7935,"Cre":7936,"tle":7937,"partik":7938,"Midtjylland":7939,"76":7940,"besluttet":7941,"diverse":7942,"sættelser":7943,"foræld":7944,"kvalitet":7945,"fænomen":7946,"betydnings":7947,"barndom":7948,"Karen":7949,"Sl":7950,"wo":7951,"skjul":7952,"Mads":7953,"afrikanske":7954,"nærliggende":7955,"Cro":7956,"Ægte":7957,"udbredelse":7958,"rust":7959,"svag":7960,"ques":7961,"Føl":7962,"jernen":7963,"udføre":7964,"74":7965,"omat":7966,"othe":7967,"okol":7968,"mødes":7969,"Ci":7970,"Fod":7971,"Prix":7972,"Ray":7973,"arre":7974,"ønt":7975,"brændte":7976,"sløs":7977,"Stal":7978,"stiftede":7979,"polsk":7980,"Joe":7981,"Wit":7982,"maet":7983,"underlagt":7984,"Kel":7985,"aven":7986,"finsk":7987,"kemiske":7988,"syssel":7989,"finans":7990,"Wol":7991,"umu":7992,"missil":7993,"aly":7994,"talende":7995,"ymnastik":7996,"tionen":7997,"bygnings":7998,"Gab":7999,"selvstændige":8000,"strækningen":8001,"1814":8002,"forbinder":8003,"Bran":8004,"nit":8005,"Lolland":8006,"medvirkende":8007,"samtlige":8008,"lufthavn":8009,"ils":8010,"vald":8011,"egn":8012,"agtige":8013,"udtale":8014,"Beskrivelse":8015,"koordin":8016,"astrup":8017,"Konstantin":8018,"Company":8019,"blandet":8020,"Sønderjylland":8021,"Barcelona":8022,"besat":8023,"hou":8024,"renover":8025,"trommeslag":8026,"Kongens":8027,"drenge":8028,"marine":8029,"aka":8030,"79":8031,"dron":8032,"gennemføre":8033,"strakt":8034,"Hot":8035,"trus":8036,"begynde":8037,"dato":8038,"institut":8039,"83":8040,"Avis":8041,"Ein":8042,"potenti":8043,"Out":8044,"Wat":8045,"hovedsagelig":8046,"matematik":8047,"offentligt":8048,"tunge":8049,"drage":8050,"geriet":8051,"rigtig":8052,"ope":8053,"rigtige":8054,"FF":8055,"oto":8056,"placerede":8057,"Hospital":8058,"trækker":8059,"romanen":8060,"udløb":8061,"følte":8062,"hai":8063,"mærkede":8064,"begivenhed":8065,"Jour":8066,"Nieder":8067,"opførte":8068,"fortrins":8069,"midtbane":8070,"Vejen":8071,"Nykøbing":8072,"sters":8073,"detaljer":8074,"dertil":8075,"udseende":8076,"indførte":8077,"anerkendte":8078,"byggeri":8079,"Sara":8080,"skræn":8081,"mptom":8082,"integr":8083,"Bjørn":8084,"aktivt":8085,"forstyr":8086,"Arkite":8087,"oy":8088,"eventyr":8089,"forsv":8090,"beton":8091,"guitarist":8092,"Sin":8093,"span":8094,"sangskriver":8095,"instrument":8096,"Bos":8097,"stalt":8098,"skræ":8099,"udsm":8100,"ruten":8101,"kategor":8102,"Hei":8103,"Sydafrika":8104,"anerkendelse":8105,"Hum":8106,"mole":8107,"Sprog":8108,"forhandlinger":8109,"opstillet":8110,"henblik":8111,"halvt":8112,"1854":8113,"Sus":8114,"ropol":8115,"Lux":8116,"Nederlandene":8117,"Fac":8118,"dh":8119,"krone":8120,"DA":8121,"invi":8122,"regne":8123,"oni":8124,"Løbet":8125,"Amerika":8126,"forstær":8127,"Tokyo":8128,"RA":8129,"oplevede":8130,"varierer":8131,"hale":8132,"æle":8133,"erende":8134,"Haw":8135,"Por":8136,"artilleri":8137,"Greg":8138,"Pi":8139,"bio":8140,"Thy":8141,"Viet":8142,"lunde":8143,"facil":8144,"kongelig":8145,"sælge":8146,"modstander":8147,"Ned":8148,"Sej":8149,"lettere":8150,"flek":8151,"73":8152,"jun":8153,"Stein":8154,"studere":8155,"rester":8156,"1853":8157,"poly":8158,"runden":8159,"maskine":8160,"Chicago":8161,"Ah":8162,"spær":8163,"skra":8164,"konkl":8165,"ansvarlig":8166,"Victoria":8167,"hailand":8168,"Texas":8169,"Hau":8170,"Sud":8171,"Lam":8172,"wis":8173,"ceremon":8174,"skjold":8175,"omgivet":8176,"tilbyder":8177,"hest":8178,"Juni":8179,"bære":8180,"hollandsk":8181,"konservative":8182,"Bart":8183,"tilhæng":8184,"knæ":8185,"aks":8186,"midter":8187,"regioner":8188,"soft":8189,"Øen":8190,"ressour":8191,"kræft":8192,"rost":8193,"1851":8194,"nets":8195,"Franz":8196,"ato":8197,"reformer":8198,"drikke":8199,"landbrugs":8200,"frivillige":8201,"SC":8202,"foredrag":8203,"laver":8204,"mans":8205,"Ukraine":8206,"elektriske":8207,"tilskuere":8208,"sions":8209,"dreng":8210,"Leg":8211,"alisme":8212,"Julius":8213,"analyse":8214,"teksten":8215,"Yder":8216,"xe":8217,"1842":8218,"kammerherre":8219,"bilen":8220,"naturligt":8221,"angiveligt":8222,"pool":8223,"bevare":8224,"Gammel":8225,"Hos":8226,"gratis":8227,"krydser":8228,"Nas":8229,"sklub":8230,"langsomt":8231,"producent":8232,"kni":8233,"derede":8234,"katastro":8235,"skop":8236,"værd":8237,"forholdene":8238,"ilt":8239,"prof":8240,"ledede":8241,"moral":8242,"udgivelser":8243,"profil":8244,"nærmeste":8245,"tanker":8246,"drive":8247,"Axel":8248,"malede":8249,"hvorpa":8250,"Inge":8251,"motiver":8252,"regnet":8253,"fanta":8254,"stads":8255,"baserede":8256,"Kli":8257,"bringer":8258,"Nye":8259,"urn":8260,"89":8261,"fyn":8262,"violin":8263,"gards":8264,"singlen":8265,"anvender":8266,"Zealand":8267,"Sie":8268,"Tu":8269,"Kore":8270,"Sab":8271,"Hjør":8272,"starte":8273,"Gren":8274,"Pon":8275,"opholdt":8276,"Law":8277,"lejren":8278,"Eliz":8279,"NS":8280,"ledelsen":8281,"DC":8282,"Forsk":8283,"kontinent":8284,"kommunerne":8285,"kvarteret":8286,"Football":8287,"Litauen":8288,"stæv":8289,"kalender":8290,"Manen":8291,"]].":8292,"ledte":8293,"Mart":8294,"erobret":8295,"betragtet":8296,"sproces":8297,"Hollywood":8298,"Association":8299,"Ang":8300,"kastede":8301,"ekstrem":8302,"rektor":8303,"1858":8304,"benytte":8305,"nødt":8306,"kavaler":8307,"udgiver":8308,"Landet":8309,"Parlam":8310,"foreslog":8311,"lyset":8312,"iværk":8313,"Titler":8314,"Cour":8315,"Foruden":8316,"arabisk":8317,"ments":8318,"tagne":8319,"traditionelt":8320,"fond":8321,"forhandling":8322,"sværd":8323,"race":8324,"udt":8325,"Efterfølgende":8326,"skur":8327,"Ib":8328,"Irak":8329,"Line":8330,"afhandling":8331,"kampvogne":8332,"divisioner":8333,"Gamle":8334,"Tol":8335,"ømt":8336,"ødelag":8337,"satellit":8338,"holdelse":8339,"Fisk":8340,"harde":8341,"landevej":8342,"Skibet":8343,"eksisterede":8344,"besl":8345,"ners":8346,"oplag":8347,"Endelig":8348,"træning":8349,"albums":8350,"kolde":8351,"mødet":8352,"specielle":8353,"rekor":8354,"melig":8355,"pleje":8356,"kritisk":8357,"overtage":8358,"ums":8359,"diesel":8360,"søj":8361,"eksport":8362,"erstatning":8363,"dty":8364,"Haderslev":8365,"latinske":8366,"orer":8367,"konver":8368,"lejet":8369,"Enter":8370,"kommunalreformen":8371,"DNA":8372,"operationer":8373,"Kl":8374,"tiser":8375,"komsten":8376,"elsker":8377,"Fis":8378,"instal":8379,"frygt":8380,"Lat":8381,"ingle":8382,"Od":8383,"amatør":8384,"Old":8385,"chs":8386,"sign":8387,"Contest":8388,"leverede":8389,"teborg":8390,"agtig":8391,"benzin":8392,"Oh":8393,"perron":8394,"himmel":8395,"præsiden":8396,"ert":8397,"slutr":8398,"købing":8399,"manuskrip":8400,"Mogens":8401,"forladt":8402,"fremgang":8403,"forbudt":8404,"kvadrat":8405,"absol":8406,"hval":8407,"Rich":8408,"WC":8409,"And":8410,"hovedsæde":8411,"mennesket":8412,"ombygget":8413,"ministeren":8414,"Trods":8415,"ua":8416,"music":8417,"artier":8418,"protest":8419,"Elizabeth":8420,"Hard":8421,"Økonom":8422,"bevis":8423,"Main":8424,"køkken":8425,"aliseret":8426,"pok":8427,"ikeren":8428,"vali":8429,"bytte":8430,"1400":8431,"troede":8432,"ical":8433,"drejer":8434,"Skive":8435,"ikop":8436,"verdenen":8437,"tilbaget":8438,"Menne":8439,"1847":8440,"mytologi":8441,"Nis":8442,"aet":8443,"omfru":8444,"lejligheder":8445,"tværs":8446,"sche":8447,"ateret":8448,"geme":8449,"samarbejdet":8450,"Amerik":8451,"ordnet":8452,"ampen":8453,"celli":8454,"Cir":8455,"tjek":8456,"pabegyndte":8457,"letter":8458,"ics":8459,"geligt":8460,"Univer":8461,"vakte":8462,"ugu":8463,"iana":8464,"fylde":8465,"gæster":8466,"udenrigsminister":8467,"Vinter":8468,"distriktet":8469,"kæmpet":8470,"Idræts":8471,"Fredericia":8472,"IA":8473,"fav":8474,"udstillinger":8475,"flam":8476,"Alter":8477,"moh":8478,"børnene":8479,"BS":8480,"Dun":8481,"deri":8482,"personen":8483,"gørelse":8484,"dybe":8485,"ray":8486,"Johanne":8487,"Trom":8488,"ologer":8489,"adskiller":8490,"Ofte":8491,"ety":8492,"botan":8493,"spilleren":8494,"kurren":8495,"DF":8496,"fine":8497,"finaler":8498,"amtmand":8499,"afgang":8500,"løbende":8501,"Rio":8502,"portrætter":8503,"cklen":8504,"havs":8505,"Beat":8506,"besætning":8507,"ois":8508,"rettede":8509,"normale":8510,"sejren":8511,"ids":8512,"hellig":8513,"kaste":8514,"udsendte":8515,"Iran":8516,"cken":8517,"1845":8518,"Drag":8519,"kontra":8520,"daglige":8521,"Sur":8522,"fortrinsvis":8523,"!\"":8524,"hentet":8525,"diskus":8526,"Hab":8527,"darlig":8528,"spredte":8529,"Endvidere":8530,"indtryk":8531,"lister":8532,"betj":8533,"bjerge":8534,"Rhin":8535,"statens":8536,"agement":8537,"forgæn":8538,"falde":8539,"Windows":8540,"Næ":8541,"chel":8542,"Caroline":8543,"icil":8544,"fremmede":8545,"lænderne":8546,"Fr":8547,"pig":8548,"sekvens":8549,"givelse":8550,"afløste":8551,"varende":8552,"grand":8553,"løbe":8554,"kortere":8555,"Virksomheden":8556,"cippet":8557,"aux":8558,"Ocean":8559,"afslutningen":8560,"uta":8561,"skrip":8562,"overensstem":8563,"fog":8564,"Bow":8565,"cor":8566,"Ligesom":8567,"British":8568,"Læ":8569,"Cl":8570,"ked":8571,"gart":8572,"cha":8573,"befolknings":8574,"Christopher":8575,"opposition":8576,"Frederiksborg":8577,"Jugoslav":8578,"givende":8579,"muligheden":8580,"Træ":8581,"told":8582,"ytter":8583,"anlægget":8584,"Ph":8585,"oler":8586,"overlevede":8587,"slaver":8588,"udvidelse":8589,"mærkelsesvær":8590,"Stations":8591,"øvre":8592,"sender":8593,"aku":8594,"producerer":8595,"bydelen":8596,"præste":8597,"selvmord":8598,"original":8599,"veget":8600,"belgiske":8601,"produktions":8602,"dygtig":8603,"Eb":8604,"Road":8605,"1100":8606,"Garden":8607,"gentin":8608,"ansvaret":8609,"gter":8610,"cast":8611,"beregnet":8612,"Gir":8613,"identitet":8614,"avy":8615,"tror":8616,"yderst":8617,"ktionen":8618,"Hiller":8619,"het":8620,"beskæftiger":8621,"indga":8622,"roer":8623,"bugten":8624,"provinser":8625,"stumfilm":8626,"fælle":8627,"cept":8628,"folketæl":8629,"not":8630,"skaff":8631,"ische":8632,"drej":8633,"moleky":8634,"Borg":8635,"anim":8636,"udtalt":8637,"steuropa":8638,"fattige":8639,"Traf":8640,"Islands":8641,"jernbanestation":8642,"Rumænien":8643,"onym":8644,"Golf":8645,"mangler":8646,"Letland":8647,"permanent":8648,"kemi":8649,"Anti":8650,"Kommand":8651,"skolens":8652,"ommern":8653,"fant":8654,"værks":8655,"Blue":8656,"Williams":8657,"skandinav":8658,"rerende":8659,"stæder":8660,"distribu":8661,"æne":8662,"pad":8663,"efterlod":8664,"cklenburg":8665,"fungere":8666,"praktisk":8667,"australske":8668,"Fla":8669,"fornem":8670,"liberale":8671,"Clar":8672,"lokomo":8673,"Schmidt":8674,"rebro":8675,"Fy":8676,"fjendt":8677,"noteret":8678,"Holste":8679,"anderledes":8680,"udsigt":8681,"See":8682,"traktaten":8683,"øder":8684,"Død":8685,"Pil":8686,"ancen":8687,"forlag":8688,"split":8689,"rov":8690,"Alexand":8691,"Nær":8692,"rival":8693,"mane":8694,"besked":8695,"igheder":8696,"kæreste":8697,"kæde":8698,"motoren":8699,"Hele":8700,"Pak":8701,"indtog":8702,"1300":8703,"Wood":8704,"beskyl":8705,"opstaet":8706,"sikkerheds":8707,"McC":8708,"afskaff":8709,"seri":8710,"eksk":8711,"BM":8712,"Ev":8713,"sse":8714,"stykket":8715,"guldmedalje":8716,"Sorø":8717,"kommanderende":8718,"invester":8719,"genstand":8720,"menighed":8721,"fremhæ":8722,"Brian":8723,"blomstr":8724,"bøj":8725,"Chris":8726,"Great":8727,"Disney":8728,"inet":8729,"Church":8730,"briterne":8731,"Sul":8732,"redes":8733,"indgaet":8734,"skyldtes":8735,"distrikter":8736,"menneskelige":8737,"hjørne":8738,"Jag":8739,"gæst":8740,"shavn":8741,"amo":8742,"registreret":8743,"slar":8744,"vagt":8745,"ress":8746,"startet":8747,"formaede":8748,"komedie":8749,"furt":8750,"isere":8751,"ferencer":8752,"farts":8753,"øjeblikket":8754,"gol":8755,"sau":8756,"malmand":8757,"ega":8758,"Chi":8759,"Forfatter":8760,"klasser":8761,"Dol":8762,"beslut":8763,"Not":8764,"Rap":8765,"glem":8766,"selvstændigt":8767,"ged":8768,"vinkel":8769,"kym":8770,"PS":8771,"bende":8772,"spunk":8773,"præcis":8774,"rykning":8775,"toner":8776,"Plat":8777,"ape":8778,"kastet":8779,"termin":8780,"uss":8781,"itteratur":8782,"afgræn":8783,"Holbæk":8784,"forestillinger":8785,"fartøjer":8786,"Færø":8787,"py":8788,"dække":8789,"scener":8790,"spræ":8791,"ejes":8792,"Lord":8793,"tung":8794,"sundhed":8795,"demonstra":8796,"kos":8797,"uddannelsen":8798,"brem":8799,"ligge":8800,"oversvøm":8801,"hvortil":8802,"more":8803,"Romer":8804,"Journal":8805,"patri":8806,"dybde":8807,"celle":8808,"absolut":8809,"FL":8810,"varianter":8811,"udøv":8812,"betæn":8813,"Leop":8814,"godkendt":8815,"Frederikshavn":8816,"Pin":8817,"ørken":8818,"Vind":8819,"vog":8820,"CA":8821,"element":8822,"1844":8823,"1815":8824,"fars":8825,"ideen":8826,"Laur":8827,"fabrikker":8828,"budget":8829,"kraftige":8830,"ogen":8831,"Hon":8832,"Ide":8833,"Walter":8834,"Cra":8835,"brugs":8836,"navngivet":8837,"usikker":8838,"regionale":8839,"Estland":8840,"interesseret":8841,"jysk":8842,"Kampen":8843,"demokrat":8844,"Mr":8845,"Wars":8846,"Flem":8847,"baron":8848,"Lufthavn":8849,"Branden":8850,"Dens":8851,"derfra":8852,"respek":8853,"ukra":8854,"vedrørende":8855,"deraf":8856,"udgrav":8857,"hospitalet":8858,"tydeligt":8859,"oer":8860,"forfrem":8861,"ikon":8862,"hm":8863,"vens":8864,"dokumenter":8865,"eskad":8866,"armen":8867,"forsin":8868,"vides":8869,"Force":8870,"sjældne":8871,"protestan":8872,"nødvendige":8873,"Øresund":8874,"Stav":8875,"oblast":8876,"vild":8877,"godset":8878,"singler":8879,"Rail":8880,"afdelingen":8881,"Jud":8882,"maling":8883,"Arena":8884,"dræbe":8885,"System":8886,"Hur":8887,"Mau":8888,"gle":8889,"lon":8890,"flydende":8891,"Play":8892,"||":8893,"spise":8894,"indkomst":8895,"Stand":8896,"digit":8897,"omdannet":8898,"spørgsmalet":8899,"juridisk":8900,"smukke":8901,"teatret":8902,"tillæg":8903,"Handels":8904,"bestand":8905,"offentligheden":8906,"alternativ":8907,"server":8908,"vilde":8909,"hallen":8910,"straffe":8911,"sidde":8912,"udvikler":8913,"mængden":8914,"hævder":8915,"uafhængigt":8916,"forsynet":8917,"minut":8918,"demokrati":8919,"ER":8920,"endt":8921,"inspektør":8922,"afslut":8923,"gave":8924,"Army":8925,"flygte":8926,"justits":8927,"snarere":8928,"ancer":8929,"forlæng":8930,"tilhængere":8931,"olle":8932,"gifte":8933,"helikop":8934,"Udvik":8935,"jag":8936,"kunder":8937,"edig":8938,"itch":8939,"væsenet":8940,"opførelsen":8941,"modsat":8942,"mellemtiden":8943,"afsluttede":8944,"Ep":8945,"islandske":8946,"typen":8947,"videnskabelig":8948,"Sæson":8949,"BN":8950,"PA":8951,"udbredte":8952,"tidligste":8953,"minstruktør":8954,"egyp":8955,"Folk":8956,"ulykke":8957,"markant":8958,"dages":8959,"canadiske":8960,"Olav":8961,"Sær":8962,"TS":8963,"radgiver":8964,"1846":8965,"turen":8966,"motiv":8967,"Brig":8968,"Byens":8969,"fyrst":8970,"offensiv":8971,"rap":8972,"sponsor":8973,"Dur":8974,"popularitet":8975,"demokratisk":8976,"møller":8977,"vang":8978,"omdøbt":8979,"rie":8980,"endeligt":8981,"værkt":8982,"Skib":8983,"kulturen":8984,"Bø":8985,"ording":8986,"strategi":8987,"down":8988,"udstillingen":8989,"NATO":8990,"saf":8991,"uten":8992,"Robin":8993,"cat":8994,"modtag":8995,"deriblandt":8996,"ræts":8997,"forsvare":8998,"øens":8999,"lander":9000,"bury":9001,"ump":9002,"imb":9003,"personlig":9004,"bredden":9005,"Nikolaj":9006,"afspej":9007,"Jesu":9008,"kopi":9009,"færøske":9010,"Luxem":9011,"forinden":9012,"længste":9013,"publi":9014,"bakke":9015,"Hvad":9016,"undersøge":9017,"Santa":9018,"afviste":9019,"samler":9020,"manuel":9021,"torped":9022,"Corn":9023,"smer":9024,"landskampe":9025,"Ligeledes":9026,"bosatte":9027,"Rose":9028,"Copen":9029,"bygges":9030,"gæste":9031,"departementet":9032,"Ris":9033,"Water":9034,"ansa":9035,"dateret":9036,"læser":9037,"besøgende":9038,"Cru":9039,"tegnede":9040,"Poulsen":9041,"sitet":9042,"Befolk":9043,"had":9044,"derudover":9045,"idræts":9046,"Selve":9047,"forlængelse":9048,"jager":9049,"sendes":9050,"uga":9051,"genre":9052,"ældende":9053,"døtre":9054,"Leip":9055,"manns":9056,"driften":9057,"godsejer":9058,"slesvig":9059,"episode":9060,"Republikken":9061,"Time":9062,"rader":9063,"bemærkelsesvær":9064,"underskrev":9065,"Vietnam":9066,"ulov":9067,"styrede":9068,"sundheds":9069,"Begrebet":9070,"orgel":9071,"Arab":9072,"diff":9073,"trafikken":9074,"Alban":9075,"Prag":9076,"sati":9077,"Dyr":9078,"forskelle":9079,"kritiseret":9080,"fac":9081,"myrdet":9082,"UCI":9083,"redaktion":9084,"baden":9085,"lyn":9086,"øya":9087,"Parret":9088,"offentliggjorde":9089,"betaling":9090,"Hjørring":9091,"omkost":9092,"uddannelser":9093,"1839":9094,"færdige":9095,"ttere":9096,"kredit":9097,"gs":9098,"enden":9099,"træde":9100,"alisering":9101,"supp":9102,"WWE":9103,"tiltag":9104,"lederen":9105,"Handbold":9106,"Roger":9107,"landskabet":9108,"centret":9109,"Plads":9110,"Hob":9111,"turneringer":9112,"team":9113,"beskyttet":9114,"Tun":9115,"sach":9116,"redde":9117,"tænkt":9118,"uafhængige":9119,"mode":9120,"Guds":9121,"vindere":9122,"kode":9123,"kapacitet":9124,"stranden":9125,"borgen":9126,"angiver":9127,"bekym":9128,"hovedrollen":9129,"Glas":9130,"ili":9131,"ado":9132,"Ann":9133,"forbedre":9134,"Francisco":9135,"Live":9136,"Cri":9137,"svej":9138,"zan":9139,"raket":9140,"foreslaet":9141,"cul":9142,"etten":9143,"passer":9144,"hænder":9145,"tilladt":9146,"Blu":9147,"sgade":9148,"Pierre":9149,"pse":9150,"Syrien":9151,"fæste":9152,"billedhug":9153,"ced":9154,"symptom":9155,"krigens":9156,"Østersøen":9157,"modstandere":9158,"partner":9159,"filminstruktør":9160,"gader":9161,"ella":9162,"skifter":9163,"Mecklenburg":9164,"seksuelle":9165,"tilfældet":9166,"erobre":9167,"Forening":9168,"Im":9169,"glæ":9170,"jæger":9171,"flygtninge":9172,"Sydslesvig":9173,"Sang":9174,"Wes":9175,"kvindelig":9176,"erstattede":9177,"kombination":9178,"turist":9179,"arn":9180,"omkom":9181,"Nort":9182,"overgik":9183,"øjen":9184,"kortvar":9185,"kæden":9186,"Young":9187,"arresteret":9188,"Hann":9189,"utz":9190,"Herman":9191,"Life":9192,"Wrestling":9193,"forføl":9194,"besatte":9195,"krige":9196,"irske":9197,"spark":9198,"situationen":9199,"Kongeriget":9200,"Tønder":9201,"begyndelse":9202,"mejer":9203,"hjemmet":9204,"byrdes":9205,"tand":9206,"indian":9207,"betegnet":9208,"festivalen":9209,"Svan":9210,"øgede":9211,"skraft":9212,"strom":9213,"Liver":9214,"diameter":9215,"(=":9216,".'":9217,"aden":9218,"møb":9219,"2021":9220,"herrer":9221,"sangerinde":9222,"inklusive":9223,"byt":9224,"Aage":9225,"Kent":9226,"ragende":9227,"hein":9228,"materiel":9229,"Hillerød":9230,"hammer":9231,"bibel":9232,"Profes":9233,"Charlot":9234,"kunsten":9235,"hausen":9236,"Mars":9237,"hertil":9238,"Forenede":9239,"sognepræst":9240,"teen":9241,"skap":9242,"optog":9243,"kredsløb":9244,"næstformand":9245,"tyrkiske":9246,"Penn":9247,"Holstebro":9248,"aftenen":9249,"Eksempler":9250,"spladser":9251,"Copenhagen":9252,"avnet":9253,"syvende":9254,"Baden":9255,"næststørste":9256,"ambassadør":9257,"tese":9258,"værre":9259,"Transport":9260,"Carolina":9261,"DDR":9262,"Wel":9263,"pligt":9264,"uan":9265,"tide":9266,"Japans":9267,"defineret":9268,"spids":9269,"Wi":9270,"iki":9271,"undertiden":9272,"Test":9273,"iss":9274,"samtidige":9275,"væb":9276,"stemte":9277,"Will":9278,"1841":9279,"købmand":9280,"Goteborg":9281,"stjene":9282,"besiddelse":9283,"gia":9284,"danse":9285,"Europas":9286,"Superligaen":9287,"Helle":9288,"paf":9289,"andt":9290,"ukas":9291,"Johnson":9292,"kategori":9293,"oberstløjtnant":9294,"Fælles":9295,"brugere":9296,"kamera":9297,"intel":9298,"ferie":9299,"spunkter":9300,"Bour":9301,"Gade":9302,"ule":9303,"helst":9304,"Hvert":9305,"granit":9306,"skotske":9307,"fedt":9308,"kund":9309,"virkninger":9310,"krise":9311,"1843":9312,"Sydamerika":9313,"Mette":9314,"mødt":9315,"uafhængig":9316,"speriode":9317,"Grundt":9318,"mindes":9319,"Schw":9320,"Sec":9321,"handlede":9322,"nationer":9323,"helbred":9324,"bureau":9325,"eksil":9326,"Ludwig":9327,"online":9328,"Provin":9329,"foregaende":9330,"Jugoslavien":9331,"115":9332,"lars":9333,"aviser":9334,"efterkom":9335,"ternes":9336,"havende":9337,"Prinsesse":9338,"bridge":9339,"Partiet":9340,"Bron":9341,"UFC":9342,"quar":9343,"alition":9344,"modtage":9345,"Arne":9346,"Franco":9347,"Skandinavien":9348,"Ori":9349,"indbyrdes":9350,"monark":9351,"drab":9352,"skønt":9353,"akse":9354,"lyde":9355,"flyv":9356,"flyvning":9357,"finger":9358,"levere":9359,"bevil":9360,"vedtog":9361,"overlevende":9362,"hersker":9363,"arealer":9364,"Zo":9365,"stro":9366,"kelser":9367,"tiserede":9368,"kristendommen":9369,"straling":9370,"Vag":9371,"appar":9372,"tegl":9373,"tilføj":9374,"Bulgar":9375,"AGF":9376,"Adel":9377,"kanaler":9378,"ness":9379,"erind":9380,"røg":9381,"forstan":9382,"forstærk":9383,"dagens":9384,"planet":9385,"jødisk":9386,"Resultater":9387,"uset":9388,"manager":9389,"oks":9390,"danskere":9391,"shire":9392,"anbef":9393,"kran":9394,"amester":9395,"bombar":9396,"patienter":9397,"københavnske":9398,"Abra":9399,"stisk":9400,"kommandør":9401,"hurtigere":9402,"Get":9403,"Jord":9404,"adskille":9405,"skuespillerinde":9406,"Juel":9407,"ory":9408,"Holdet":9409,"Afghan":9410,"Liga":9411,"ila":9412,"entre":9413,"kollek":9414,"evangel":9415,"Gentofte":9416,"ates":9417,"isted":9418,"tegner":9419,"optagelser":9420,"arden":9421,"Reich":9422,"arhundreder":9423,"humor":9424,"medarbejder":9425,"deløb":9426,"meters":9427,"fødselsdag":9428,"reduceret":9429,"muslimske":9430,"agede":9431,"udtaget":9432,"dagligt":9433,"sivt":9434,"Molt":9435,"dirigent":9436,"rea":9437,"olph":9438,"nære":9439,"boldt":9440,"Prisen":9441,"Krog":9442,"Teg":9443,"camp":9444,"ardo":9445,"Dire":9446,"forbered":9447,"handelen":9448,"førsel":9449,"kvæ":9450,"Monte":9451,"sylvan":9452,"Chile":9453,"betragt":9454,"tætte":9455,"bedet":9456,"hertu":9457,"hire":9458,"banens":9459,"Sea":9460,"hvile":9461,"ruter":9462,"bakken":9463,"Atlanter":9464,"Federation":9465,"bataljon":9466,"sekvenser":9467,"Leopold":9468,"gerning":9469,"match":9470,"prøvede":9471,"tedyr":9472,"stiger":9473,"gterne":9474,"stige":9475,"dokument":9476,"byggeriet":9477,"erklæret":9478,"ultet":9479,"osmanniske":9480,"forventes":9481,"styrken":9482,"showet":9483,"Pra":9484,"bien":9485,"hjemlandet":9486,"brødrene":9487,"Tayl":9488,"Spa":9489,"Vit":9490,"bjørn":9491,"Sydkorea":9492,"anmeldelser":9493,"hvidt":9494,"arch":9495,"filma":9496,"henrettet":9497,"væsentligt":9498,"fyrsten":9499,"forsyning":9500,"hangar":9501,"1837":9502,"Ful":9503,"cle":9504,"lærere":9505,"iness":9506,"udgaven":9507,"stoffet":9508,"dvær":9509,"søskende":9510,"vinden":9511,"software":9512,".),":9513,"BK":9514,"geri":9515,"konkurs":9516,"Leipzig":9517,"stic":9518,"delserne":9519,"Frankrigs":9520,"traditionel":9521,"=\"":9522,"Kurt":9523,"lokalt":9524,"officiel":9525,"1836":9526,"Universitetet":9527,"reklame":9528,"SE":9529,"Tel":9530,"1820":9531,"Parken":9532,"vinderen":9533,"færøsk":9534,"SK":9535,"tius":9536,"pon":9537,"wrest":9538,"Liverpool":9539,"adfærd":9540,"grundlaget":9541,"tilgængelige":9542,"igan":9543,"rykke":9544,"DV":9545,"værts":9546,"ottende":9547,"forstand":9548,"nom":9549,"stemmerne":9550,"samtidigt":9551,"jektet":9552,"Europæiske":9553,"kins":9554,"xi":9555,"indvi":9556,"kommis":9557,"forsøgt":9558,"lektor":9559,"rey":9560,"repar":9561,"længst":9562,"Mike":9563,"risiko":9564,"Litteratur":9565,"foretage":9566,"skreds":9567,"Ivan":9568,"nap":9569,"illede":9570,"vejer":9571,"indik":9572,"Lake":9573,"arrangementer":9574,"intellig":9575,"Mør":9576,"igang":9577,"rug":9578,"Slagelse":9579,"Søl":9580,"indgang":9581,"cho":9582,"hede":9583,"Fore":9584,"Wagner":9585,"adal":9586,"vendelse":9587,"ESCO":9588,"Korea":9589,"omhandler":9590,"agg":9591,"1808":9592,"fortælling":9593,"udspring":9594,"rødt":9595,"ving":9596,"vidste":9597,"Produktion":9598,"Bibliotek":9599,"Nordsjælland":9600,"pagældende":9601,"faciliteter":9602,"Day":9603,"blomst":9604,"udgangen":9605,"bosat":9606,"tilføjet":9607,"antik":9608,"konføder":9609,"shi":9610,"vokse":9611,"rollerne":9612,"dækkede":9613,"køretøjer":9614,"ytte":9615,"hals":9616,"kaldtes":9617,"formue":9618,"Sydney":9619,"Fox":9620,"trykke":9621,"betingelser":9622,"Florida":9623,"etik":9624,"Nyborg":9625,"Seri":9626,"lært":9627,"centralt":9628,"Bladene":9629,"EF":9630,"Sag":9631,"søgt":9632,"fremmed":9633,"musli":9634,"Amts":9635,"modernis":9636,"arkæologiske":9637,"Møn":9638,"Familie":9639,"Way":9640,"eor":9641,"udstillet":9642,"Bell":9643,"gymnastik":9644,"jæv":9645,"fremragende":9646,"herredømme":9647,"parallel":9648,"Hessen":9649,"borgerskab":9650,"ont":9651,"forbindelsen":9652,"specifik":9653,"debutalbum":9654,"pludselig":9655,"los":9656,"kommunistiske":9657,"beordrede":9658,"pause":9659,"byde":9660,"1807":9661,"Bom":9662,"gru":9663,"hud":9664,"ss":9665,"zu":9666,"beløn":9667,"beboet":9668,"Bry":9669,"Jun":9670,"forkort":9671,"syg":9672,"bygningerne":9673,"Hul":9674,"eje":9675,"kond":9676,"Andrew":9677,"kolonier":9678,"pum":9679,"abning":9680,"Sidst":9681,"roy":9682,"1810":9683,"filmene":9684,"Nak":9685,"nutidens":9686,"forbere":9687,"sølvmedalje":9688,"Ap":9689,"Steve":9690,"beboere":9691,"kyn":9692,"amer":9693,"indstillet":9694,"historikere":9695,"kus":9696,"Navy":9697,"trommer":9698,"UNESCO":9699,"OR":9700,"daler":9701,"lænd":9702,"zant":9703,"cykelrytter":9704,"levetid":9705,"Nab":9706,"jyllands":9707,"main":9708,"moderen":9709,"Aust":9710,"værn":9711,"ortod":9712,"færen":9713,"score":9714,"alvorligt":9715,"Middelhavet":9716,"polar":9717,"karakteristiske":9718,"cykl":9719,"lom":9720,"ulyk":9721,"Stone":9722,"Demo":9723,"højst":9724,"følelser":9725,"mægtig":9726,"Bou":9727,"nævner":9728,"alvorlige":9729,"WCW":9730,"350":9731,"irsk":9732,"poster":9733,"Kongen":9734,"vælges":9735,"Hannover":9736,"Hi":9737,"værdig":9738,"Stati":9739,"koslov":9740,"Videnskab":9741,"Grundtvig":9742,"gjor":9743,"hs":9744,"pot":9745,"labor":9746,"tyk":9747,"læste":9748,"rut":9749,"hæm":9750,"dyrkede":9751,"freden":9752,"tusind":9753,"elektronisk":9754,"Ener":9755,"skran":9756,"opføre":9757,"Abraham":9758,"tilsammen":9759,"pavirkning":9760,"forekom":9761,"demokratiet":9762,"Nobel":9763,"SP":9764,"forvand":9765,"new":9766,"galler":9767,"Regeringen":9768,"testam":9769,"kirur":9770,"spillefilm":9771,"1838":9772,"Bibel":9773,"olympisk":9774,"nedsat":9775,"1835":9776,"tidsskrift":9777,"trommeslager":9778,"Skt":9779,"gehej":9780,"Joach":9781,"Færøernes":9782,"Rige":9783,"yst":9784,"skærm":9785,"bryst":9786,"kontroversi":9787,"dorff":9788,"faderens":9789,"turister":9790,"AaB":9791,"Cit":9792,"Ever":9793,"Skal":9794,"internet":9795,"passerer":9796,"flad":9797,"kampagne":9798,"processen":9799,"brændstof":9800,"seg":9801,"urer":9802,"mix":9803,"buddh":9804,"bokser":9805,"Cur":9806,"onde":9807,"mont":9808,"uki":9809,"skala":9810,"jubilæum":9811,"frastruktur":9812,"driv":9813,"Theodor":9814,"burde":9815,"Vesttyskland":9816,"territorium":9817,".).":9818,"melige":9819,"staterne":9820,"alløjtnant":9821,"teorier":9822,"Zu":9823,"træder":9824,"autonom":9825,"Venedig":9826,"meddele":9827,"forenings":9828,"Orden":9829,"1801":9830,"jura":9831,"Muham":9832,"plynd":9833,"indlemmet":9834,"\"(":9835,"Dres":9836,"Hem":9837,"terræn":9838,"Efterhanden":9839,"Grønlands":9840,"tilstrækkelig":9841,"fryg":9842,"Neu":9843,"munder":9844,"komponeret":9845,"engag":9846,"gif":9847,"Stillehavet":9848,"ressourcer":9849,"Mos":9850,"ambi":9851,"akademi":9852,"format":9853,"evt":9854,"bomber":9855,"forsyninger":9856,"voksen":9857,"iks":9858,"ofre":9859,"vande":9860,"Wei":9861,"total":9862,"Følgende":9863,"oxid":9864,"magasinet":9865,"tilbød":9866,"1803":9867,"klippe":9868,"viderus":9869,"Muller":9870,"orf":9871,"holsten":9872,"sammenhænge":9873,"Joachim":9874,"skes":9875,"umin":9876,"dimen":9877,"Doug":9878,"administrativt":9879,"Frø":9880,"Pub":9881,"udvidede":9882,"Gene":9883,"Jr":9884,"Oster":9885,"ost":9886,"bez":9887,"Universitets":9888,"frag":9889,"matiske":9890,"radar":9891,"kejseren":9892,"udfor":9893,"ess":9894,"sættelsen":9895,"1809":9896,"medaljerne":9897,"Minister":9898,"Eksempel":9899,"Taylor":9900,"atletik":9901,"stati":9902,"skuespilleren":9903,"dokumen":9904,"optræde":9905,"Fodbold":9906,"tap":9907,"genhed":9908,"zburg":9909,"barok":9910,"reguler":9911,"færre":9912,"beløb":9913,"stammen":9914,"administr":9915,"tørre":9916,"Mellemøsten":9917,"Hadsund":9918,"oge":9919,"Inde":9920,"Syn":9921,"Udt":9922,"enige":9923,"omon":9924,"ico":9925,"konged":9926,"darlige":9927,"religiøs":9928,"trad":9929,"Jernbane":9930,"Eric":9931,"medens":9932,"betalt":9933,"redig":9934,"hovedrolle":9935,"Sky":9936,"HK":9937,"skru":9938,"uddannelses":9939,"Airport":9940,"fjender":9941,"Margar":9942,"morgenen":9943,"ava":9944,"urol":9945,"itan":9946,"Dahl":9947,"beskrive":9948,"Volks":9949,"preussiske":9950,"afbrudt":9951,"truede":9952,"efterkommere":9953,"Sicil":9954,"aba":9955,"hastig":9956,"Ler":9957,"orks":9958,"udgive":9959,"Lem":9960,"Thomsen":9961,"Metropol":9962,"indtægter":9963,"fære":9964,"inst":9965,"day":9966,"Wilson":9967,"Point":9968,"foreningens":9969,"fætter":9970,"restaurant":9971,"revolutionen":9972,"selvstændighed":9973,"etage":9974,"huller":9975,"racer":9976,"Stephen":9977,"spræng":9978,"Klas":9979,"Kjær":9980,"gæng":9981,"fektur":9982,"Friis":9983,"Lewis":9984,"kontrollen":9985,"vildt":9986,"Bot":9987,"Ton":9988,"Thailand":9989,"insk":9990,"sløj":9991,"ovl":9992,"brændt":9993,"Tak":9994,"bist":9995,"with":9996,"springer":9997,"Petersborg":9998,"stilles":9999,"Donald":10000,"fremtiden":10001,"cky":10002,"domstol":10003,"ffen":10004,"Nørrebro":10005,"Josef":10006,"Luther":10007,"Tai":10008,"nan":10009,"konstat":10010,"Tech":10011,"forfremmet":10012,"Bli":10013,"vikinget":10014,"politikere":10015,"Kroati":10016,"Charlotten":10017,"Fle":10018,"Rand":10019,"matik":10020,"Indre":10021,"fyret":10022,"Hof":10023,"hot":10024,"udstrækning":10025,"Især":10026,"Arkitekt":10027,"sun":10028,"utal":10029,"pendi":10030,"1828":10031,"undervejs":10032,"sammensat":10033,"mistæn":10034,"cell":10035,"arl":10036,"utt":10037,"Slæ":10038,"Tw":10039,"fremtidige":10040,"givning":10041,"America":10042,"Up":10043,"Beij":10044,"Villa":10045,"?\"":10046,"PC":10047,"Town":10048,"retter":10049,"Berling":10050,"Spillet":10051,"agent":10052,"Scha":10053,"Elvis":10054,"positiv":10055,"Thorvald":10056,"hoffet":10057,"isch":10058,"naturlig":10059,"guddom":10060,"sby":10061,"overalt":10062,"handboldlandshold":10063,"Jonas":10064,"faktorer":10065,"Dublin":10066,"Trondheim":10067,"Lot":10068,"hip":10069,"datidens":10070,"herfra":10071,"fremgar":10072,"book":10073,"Normand":10074,"Havn":10075,"ærkebiskop":10076,"Cha":10077,"lavt":10078,"hundreder":10079,"variant":10080,"wich":10081,"opbygget":10082,"Historisk":10083,"Politisk":10084,"Golden":10085,"foruren":10086,"dernæst":10087,"rejsen":10088,"atten":10089,"abningen":10090,"nært":10091,"bevæger":10092,"felter":10093,"Led":10094,"1813":10095,"introducerede":10096,"følelse":10097,"tønder":10098,"mers":10099,"næppe":10100,"ballet":10101,"Kanal":10102,"Lincol":10103,"diagno":10104,"forstander":10105,"1829":10106,"aya":10107,"kostede":10108,"Temp":10109,"Rosenkr":10110,"mistet":10111,"refer":10112,"korpset":10113,"ministerium":10114,"sælges":10115,"ße":10116,"lines":10117,"opp":10118,"1812":10119,"Seba":10120,"glat":10121,"sorg":10122,"etniske":10123,"markeder":10124,"Sorte":10125,"bourne":10126,"medfører":10127,"præsenteret":10128,"komponister":10129,"jæ":10130,"pokal":10131,"eds":10132,"efterfulgte":10133,"1834":10134,"grundlægger":10135,"kendskab":10136,"opfin":10137,"provis":10138,"automatisk":10139,"forvaltning":10140,"dollars":10141,"IN":10142,"Rub":10143,"Tam":10144,"mut":10145,"slægter":10146,"underviste":10147,"Johnny":10148,"dynastiet":10149,"BBC":10150,"munke":10151,"pladen":10152,"hits":10153,"overdraget":10154,"Gabri":10155,"atte":10156,"Stefan":10157,"klokken":10158,"smæssige":10159,"Institu":10160,"burgh":10161,"Times":10162,"double":10163,"Bald":10164,"Fem":10165,"seminar":10166,"udform":10167,"vilegi":10168,"nedslag":10169,"skuespillere":10170,"Broad":10171,"Hir":10172,"olde":10173,"hyg":10174,"fremstilles":10175,"homo":10176,"køl":10177,"konkret":10178,"torp":10179,"faldende":10180,"tilgængelig":10181,"Luxembourg":10182,"Kru":10183,"sie":10184,"hvæl":10185,"house":10186,"stiske":10187,"km2":10188,"litau":10189,"Have":10190,"WWF":10191,"Valle":10192,"afledt":10193,"operaer":10194,"individuelle":10195,"Stig":10196,"elite":10197,"oply":10198,"biografi":10199,"biblioteket":10200,"Hold":10201,"skam":10202,"obbel":10203,"mindret":10204,"Hamburg":10205,"Hed":10206,"veter":10207,"dahl":10208,"Dertil":10209,"værksted":10210,"drøm":10211,"processer":10212,"konflikter":10213,"Fro":10214,"agnen":10215,"ason":10216,"Frankfurt":10217,"adj":10218,"mordet":10219,"egenskab":10220,"forsøge":10221,"kunstneriske":10222,"Micros":10223,"overensstemmelse":10224,"LP":10225,"banker":10226,"uddannede":10227,"udtrykket":10228,"ejendomme":10229,"Beijing":10230,"schef":10231,"lejre":10232,"sjælden":10233,"favor":10234,"feltet":10235,"skæbne":10236,"hjerne":10237,"Danish":10238,"ardin":10239,"Kors":10240,"annoncerede":10241,"Fun":10242,"Kos":10243,"skød":10244,"udø":10245,"iregi":10246,"støv":10247,"bop":10248,"Anth":10249,"kow":10250,"Good":10251,"Dit":10252,"afbil":10253,"pabegyndt":10254,"monteret":10255,"spladsen":10256,"Cas":10257,"lør":10258,"bage":10259,"Afghanistan":10260,"opfundet":10261,"opgive":10262,"Thisted":10263,"sarede":10264,"parlaments":10265,"brasiliansk":10266,"strej":10267,"ingets":10268,"iserer":10269,"lovede":10270,"adskilt":10271,"beredne":10272,"Clas":10273,"ademy":10274,"Als":10275,"ligheder":10276,"sejle":10277,"korrekt":10278,"kollega":10279,"Brandenburg":10280,"aud":10281,"stolen":10282,"tillod":10283,"Alminde":10284,"Tang":10285,"deret":10286,"passende":10287,"stoppet":10288,"karakteriseret":10289,"mønster":10290,"tæller":10291,"pianist":10292,"dame":10293,"beviser":10294,"cio":10295,"Floden":10296,"bebyggelser":10297,"srige":10298,"ariske":10299,"huser":10300,"lovgivning":10301,"sangene":10302,"Serie":10303,"Familien":10304,"DBU":10305,"afvist":10306,"abil":10307,"hek":10308,"Historien":10309,"alvorlig":10310,"Moltke":10311,"kunde":10312,"emne":10313,"familiens":10314,"Politiken":10315,"ødelagde":10316,"befal":10317,"vente":10318,"egnen":10319,"Fug":10320,"tilgang":10321,"holdende":10322,"traditioner":10323,"Society":10324,"Rosenkrantz":10325,"Bret":10326,"gær":10327,"tjener":10328,"etableringen":10329,"Kær":10330,"undborg":10331,"Musikkonservator":10332,"Cher":10333,"Sigur":10334,"uft":10335,"Rej":10336,"erfaring":10337,"uanset":10338,"bassin":10339,"Donau":10340,"individer":10341,"genren":10342,"Palæst":10343,"Academy":10344,"arts":10345,"omatiske":10346,"refererer":10347,"asien":10348,"box":10349,"auf":10350,"Entertain":10351,"Kvali":10352,"alfab":10353,"berør":10354,"Studen":10355,"Jep":10356,"Shar":10357,"rigets":10358,"succesfulde":10359,"Kinas":10360,"geografiske":10361,"tendens":10362,"Jordens":10363,"Administra":10364,"kvæg":10365,"²,":10366,"besvær":10367,"api":10368,"Dream":10369,"spedition":10370,"ordningen":10371,"præm":10372,"alliance":10373,"medvirker":10374,"afsløret":10375,"pladeselskab":10376,"etager":10377,"teologi":10378,"benæv":10379,"givne":10380,"fortælle":10381,"nedenfor":10382,"Az":10383,"sunget":10384,"skilte":10385,"vidde":10386,"forker":10387,"teorien":10388,"medstifter":10389,"lide":10390,"munition":10391,"kulturer":10392,"Mikkel":10393,"Hvide":10394,"gentagne":10395,"skiold":10396,"Arten":10397,"Trin":10398,"Bremen":10399,"cd":10400,"hom":10401,"nev":10402,"kali":10403,"museer":10404,"Oluf":10405,"ici":10406,"elighed":10407,"personligt":10408,"Billboard":10409,"iler":10410,"princippet":10411,"tvil":10412,"Castle":10413,"Pu":10414,"cet":10415,"sius":10416,"perspek":10417,"bredere":10418,"Johansen":10419,"sketball":10420,"forsvarede":10421,"soldat":10422,"ekspeditionen":10423,"inn":10424,"slund":10425,"tagelsen":10426,"Christoffer":10427,"Nicolai":10428,"Glad":10429,"argentin":10430,"marskal":10431,"gravid":10432,"eksperimenter":10433,"Tred":10434,"skatter":10435,"1831":10436,"frigi":10437,"Gas":10438,"amik":10439,"Ulrik":10440,"betalte":10441,"svære":10442,"opvokset":10443,"vidner":10444,"1832":10445,"Tidlige":10446,"mmelig":10447,"//":10448,"Hong":10449,"planten":10450,"beskad":10451,"Brad":10452,"spin":10453,"vegne":10454,"head":10455,"murer":10456,"slippe":10457,"European":10458,"misk":10459,"skr":10460,"lægningen":10461,"bøgerne":10462,"Knudsen":10463,"foto":10464,"gros":10465,"sigtet":10466,"søe":10467,"gravet":10468,"junior":10469,"Mesterskabet":10470,"pist":10471,"reber":10472,"olet":10473,"roen":10474,"husene":10475,"kvalifikations":10476,"Ost":10477,"jeneste":10478,"forenede":10479,"løser":10480,"højder":10481,"Rolling":10482,"Grant":10483,"gejst":10484,"Carlsberg":10485,"universiteter":10486,"førstehold":10487,"koalition":10488,"Tyske":10489,"Fan":10490,"Vend":10491,"ulation":10492,"danser":10493,"fonden":10494,"plejer":10495,"juridiske":10496,"Isabel":10497,"Sak":10498,"wi":10499,"overskud":10500,"gammelt":10501,"legat":10502,"forsamlingen":10503,"Oxford":10504,"1826":10505,"generalløjtnant":10506,"Ringkøbing":10507,"henseende":10508,"Karakter":10509,"Ross":10510,"positive":10511,"nogenlunde":10512,"trium":10513,"kunnet":10514,"organiserede":10515,"lærde":10516,"skibets":10517,"statistik":10518,"Shan":10519,"Vladi":10520,"gjal":10521,"avi":10522,"Meyer":10523,"Elekt":10524,"Christine":10525,"Amalie":10526,"Gods":10527,"overordnede":10528,"synge":10529,"vanskeligt":10530,"Total":10531,"Tony":10532,"sammensætning":10533,"Bugt":10534,"Tjekkiet":10535,"uleret":10536,"antrop":10537,"tim":10538,"gifter":10539,"færdigt":10540,"Landsbyen":10541,"episoder":10542,"Stort":10543,"korset":10544,"Parlamentet":10545,"gjaldt":10546,"UK":10547,"ligget":10548,"sikret":10549,"Little":10550,"Koncer":10551,"lokaler":10552,"tegnefilm":10553,"udgifter":10554,"kompagni":10555,"afdøde":10556,"ftræner":10557,"filmens":10558,"lint":10559,"virkelige":10560,"trykker":10561,"Akademi":10562,"Kred":10563,"FIF":10564,"omgange":10565,"peri":10566,"1806":10567,"speciel":10568,"oplevelser":10569,"ury":10570,"113":10571,"ail":10572,"ough":10573,"opbevar":10574,"handle":10575,"divisionen":10576,"fæstningen":10577,"Gunnar":10578,"Resultatet":10579,"Run":10580,"pund":10581,"Christen":10582,"centre":10583,"slap":10584,"skommun":10585,"regerede":10586,"Columbia":10587,"pseud":10588,"IM":10589,"1816":10590,"kurs":10591,"sprogede":10592,"ryttere":10593,"legiet":10594,"velsen":10595,"embede":10596,"motorvejen":10597,"suver":10598,"universitets":10599,"skirken":10600,"betjent":10601,"AM":10602,"maskinge":10603,"branchen":10604,"%,":10605,"vinger":10606,"yre":10607,"temmelig":10608,"digital":10609,"Herre":10610,"avancerede":10611,"Cong":10612,"plig":10613,"onkel":10614,"grundlov":10615,"Boy":10616,"ofon":10617,"busk":10618,"truet":10619,"Trans":10620,"angivet":10621,"fordeling":10622,"Davis":10623,"Rag":10624,"internettet":10625,"guder":10626,"Charlie":10627,"arkitekten":10628,"israelske":10629,"ID":10630,"Kunstakademiet":10631,"Pul":10632,"tømmer":10633,"konsekvens":10634,"medaljen":10635,"dikt":10636,"intern":10637,"Schle":10638,"retssag":10639,"østrigsk":10640,"avik":10641,"farvet":10642,"lukke":10643,"broer":10644,"Hag":10645,"pans":10646,"fabrikant":10647,"Natura":10648,"Lincoln":10649,".&":10650,"regent":10651,"tiltradte":10652,"Konservative":10653,"bevæb":10654,"gum":10655,"his":10656,"ume":10657,"hei":10658,"idømt":10659,"løsla":10660,"Design":10661,"praktiske":10662,"principper":10663,"Malt":10664,"forklaring":10665,"søgning":10666,"Kommandør":10667,"Nyt":10668,"vre":10669,"1818":10670,"oba":10671,"veksling":10672,"sylvania":10673,"aton":10674,"lyder":10675,"States":10676,"Elec":10677,"enz":10678,"vandring":10679,"tekstil":10680,"Teatret":10681,"volde":10682,"Ord":10683,"universet":10684,"Køb":10685,"edral":10686,"fakt":10687,"Formalet":10688,"Harris":10689,"klosteret":10690,"from":10691,"Helsin":10692,"pression":10693,"filosofiske":10694,"Skander":10695,"blandede":10696,"omvendt":10697,"synet":10698,"tykke":10699,"centi":10700,"stammede":10701,"aber":10702,"skrivning":10703,"Birg":10704,"spænding":10705,"indholdet":10706,"gennemgik":10707,"søndag":10708,"udviklings":10709,"administrerende":10710,"afgørelse":10711,"dater":10712,"oker":10713,"signaler":10714,"ellen":10715,"rapper":10716,"ador":10717,"udenrig":10718,"Arts":10719,"arth":10720,"Valg":10721,"kombineret":10722,"betydningsfulde":10723,"08":10724,"ental":10725,"cius":10726,"udendørs":10727,"vandløb":10728,"kritiske":10729,"Mose":10730,"kommercielle":10731,"Djur":10732,"Sma":10733,"dentlig":10734,"Højde":10735,"Ji":10736,"tningen":10737,"vst":10738,"wal":10739,"kirkelige":10740,"ATP":10741,"Cross":10742,"pigen":10743,"understøt":10744,"datteren":10745,"eksistens":10746,"situationer":10747,"undervisnings":10748,"Entertainment":10749,"Kvinde":10750,"arer":10751,"hart":10752,"boet":10753,"synger":10754,"ovan":10755,"opdager":10756,"kiat":10757,"Hellerup":10758,"cafe":10759,"indr":10760,"gern":10761,"mandater":10762,"løfte":10763,"bolden":10764,"forsvarende":10765,"Brug":10766,"name":10767,"skyn":10768,"dækkende":10769,"Tennes":10770,"Dø":10771,"kig":10772,"Forskel":10773,"Brown":10774,"Bruun":10775,"trussel":10776,"Derimod":10777,"ateau":10778,"brecht":10779,"Service":10780,"mønter":10781,"renæssance":10782,".:":10783,"Ash":10784,"raa":10785,"sigter":10786,"nyheds":10787,"Wis":10788,"ventet":10789,"fremtid":10790,"præsten":10791,"skriften":10792,"kvalificeret":10793,"Sas":10794,"Vas":10795,"1824":10796,"amerikanere":10797,"Torshavn":10798,"Tids":10799,"undtagen":10800,"Sovjetunionens":10801,"sædvanligvis":10802,"udføres":10803,"opsta":10804,"haus":10805,"organismer":10806,"menneskets":10807,"forretninger":10808,"Eti":10809,"hent":10810,"phil":10811,"hara":10812,"nedbør":10813,"benævn":10814,"tegning":10815,"dragelse":10816,"Bjar":10817,"stej":10818,"traf":10819,"objekter":10820,"Samuel":10821,"arkitek":10822,"buk":10823,"dale":10824,"Stones":10825,"blo":10826,"Banen":10827,"klokke":10828,"kug":10829,"medlems":10830,"Tog":10831,"Upp":10832,"sipp":10833,"vitj":10834,"1833":10835,"ryggen":10836,"Demokra":10837,"Lauritz":10838,"Of":10839,"best":10840,"hurtige":10841,"Sax":10842,"enorm":10843,"Douglas":10844,"koret":10845,"jøde":10846,"Brid":10847,"wen":10848,"søerne":10849,"oprykning":10850,"Nordafrika":10851,"Kirsten":10852,"DJ":10853,"ute":10854,"utere":10855,"opgivet":10856,"bly":10857,"kritiker":10858,"takket":10859,"county":10860,"sev":10861,"landbruget":10862,"dømte":10863,"stærkere":10864,"landsbyerne":10865,"Nel":10866,"defen":10867,"hæve":10868,"regeringens":10869,"Warsza":10870,"adop":10871,"ordfører":10872,"Russiske":10873,"semifinalen":10874,"Cer":10875,"Cel":10876,"underskrevet":10877,"søkonom":10878,"barnet":10879,"Moz":10880,"svagt":10881,"betydningen":10882,"firer":10883,"konkurrencer":10884,"Apol":10885,"EN":10886,"luther":10887,"endog":10888,"lovet":10889,"sønder":10890,"fundament":10891,"cykler":10892,"sammenlagt":10893,"svage":10894,"slave":10895,"Kalundborg":10896,"Trafik":10897,"Berlingske":10898,"ulf":10899,"ventede":10900,"jordens":10901,"smalle":10902,"sammenlignet":10903,"Pav":10904,"agu":10905,"ulu":10906,"obser":10907,"reglen":10908,"Fog":10909,"Us":10910,"skør":10911,"Roy":10912,"regner":10913,"Bach":10914,"dukkede":10915,"stændigt":10916,"Riga":10917,"besættelsen":10918,"Atlanterhavet":10919,"flader":10920,"afhandlinger":10921,"virus":10922,"konserva":10923,"Cham":10924,"itiv":10925,"Landst":10926,"løsningen":10927,"oprøret":10928,"ansigt":10929,"pape":10930,"Nordjylland":10931,"forsvarer":10932,"manglede":10933,"udnævnte":10934,"1790":10935,"urs":10936,"itær":10937,"ønsket":10938,"instruktion":10939,"skarp":10940,"Arch":10941,"punktet":10942,"reservat":10943,"afsat":10944,"ilde":10945,"blæ":10946,"valgtes":10947,"Halv":10948,"eksklu":10949,"lser":10950,"stres":10951,"terende":10952,"værdige":10953,"garnis":10954,"domme":10955,"forestilling":10956,"frekvens":10957,"Højskole":10958,"Tekniske":10959,"musikalsk":10960,"forlig":10961,"hvorvidt":10962,"Corpor":10963,"vn":10964,"vinge":10965,"skaret":10966,"lanceret":10967,"statslige":10968,"fangst":10969,"tighederne":10970,"nødvendigvis":10971,"ient":10972,"minim":10973,"kemisk":10974,"Pad":10975,"1819":10976,"Jersey":10977,"indkøb":10978,"hards":10979,"1825":10980,"indbyggerne":10981,"nøje":10982,"arvede":10983,"forar":10984,"ungen":10985,"maleren":10986,"syntes":10987,"eselskab":10988,"antages":10989,"pilot":10990,"kongeriget":10991,"Bulgarien":10992,"sner":10993,"ammunition":10994,"befandt":10995,"indfødte":10996,"henret":10997,"forenet":10998,"trængte":10999,"light":11000,"ief":11001,"Bjerg":11002,"Ges":11003,"asia":11004,"grus":11005,"idi":11006,"besta":11007,"solen":11008,"Østerbro":11009,"Jordan":11010,"P3":11011,"ouble":11012,"udryd":11013,"Boston":11014,"AN":11015,"ovo":11016,"egnet":11017,"præster":11018,"Ringsted":11019,"Ball":11020,"spa":11021,"klam":11022,"lagdes":11023,"hemmelige":11024,"Microsoft":11025,"Tennessee":11026,"Raf":11027,"hvorimod":11028,"rækken":11029,"stallet":11030,"Matt":11031,"sammenhængende":11032,"Mot":11033,"begreber":11034,"hovedkrateret":11035,"styring":11036,"muslimer":11037,"Fen":11038,"cist":11039,"øbet":11040,"brune":11041,"andene":11042,"tilbageven":11043,"strømmen":11044,"Kristus":11045,"sviger":11046,"reich":11047,"forsanger":11048,"rumæn":11049,"generelle":11050,"møllen":11051,"AR":11052,"kum":11053,"cheftræner":11054,"vanskeligheder":11055,"bug":11056,"mot":11057,"liden":11058,"Braun":11059,"konsulent":11060,"mani":11061,"Vestre":11062,"ægteskabet":11063,"1811":11064,"mouth":11065,"Boe":11066,"1805":11067,"strenge":11068,"infek":11069,"konference":11070,"associ":11071,"illes":11072,"tir":11073,"Malmø":11074,"patrul":11075,"But":11076,"foged":11077,"laborator":11078,"Tob":11079,"opel":11080,"sekter":11081,"Tivol":11082,"Missis":11083,"skytte":11084,"Sn":11085,"Sne":11086,"antag":11087,"ansættelse":11088,"Formel":11089,"ejere":11090,"roll":11091,"Julie":11092,"09":11093,"ikal":11094,"islandsk":11095,"markeret":11096,"Slov":11097,"TC":11098,"udvalgt":11099,"alth":11100,"\"\".":11101,"Islam":11102,"wick":11103,"oga":11104,"blød":11105,"mønt":11106,"Rh":11107,"Za":11108,"umb":11109,"kald":11110,"Hermann":11111,"porten":11112,"Hovedstaden":11113,"stændigheder":11114,"dukker":11115,"sala":11116,"inklusiv":11117,"Sicilien":11118,"Tab":11119,"zek":11120,"relev":11121,"stes":11122,"geomet":11123,"ions":11124,"Tjekkoslov":11125,"Rend":11126,"arup":11127,"forlaget":11128,"udvalgte":11129,"ulær":11130,"byzant":11131,"stream":11132,"begrænsede":11133,"Julian":11134,"Jyllands":11135,"stole":11136,"forvir":11137,"værne":11138,"romansk":11139,"vinduer":11140,"domineret":11141,"bakterier":11142,"Mir":11143,"iale":11144,"almen":11145,"fordele":11146,"reag":11147,"lufthavnen":11148,"fylder":11149,"golf":11150,"enburg":11151,"Storm":11152,"nationalpark":11153,"skiftende":11154,"Queen":11155,"Flemming":11156,"jes":11157,"ferens":11158,"tusinde":11159,"Hvidovre":11160,"ido":11161,"yderste":11162,"Major":11163,"fartøj":11164,"Antark":11165,"bezirk":11166,"Institute":11167,"05":11168,"Ove":11169,"Antallet":11170,"romerne":11171,"opfattes":11172,"kategorien":11173,"udnytte":11174,"Yderligere":11175,"lah":11176,"overhovedet":11177,"kirkegard":11178,"rukne":11179,"Kroatien":11180,"ihjel":11181,"flyver":11182,"Sche":11183,"kunstnerisk":11184,"Dannebrogsmand":11185,"Bedste":11186,"enorme":11187,"Mississipp":11188,"Walt":11189,"Østre":11190,"amts":11191,"1804":11192,"Poly":11193,"Produc":11194,"brænde":11195,"forbedret":11196,"Fabrik":11197,"Fag":11198,"Maler":11199,"udfol":11200,"henvisning":11201,"ledige":11202,"regeringstid":11203,"sklas":11204,"togene":11205,"tidsskriftet":11206,"Rhinen":11207,"veri":11208,"spilletid":11209,"Englands":11210,"edia":11211,"omtale":11212,"højskolen":11213,"Wild":11214,"Metal":11215,"begravelse":11216,"Sene":11217,"aftaler":11218,"ology":11219,"helhed":11220,"burger":11221,"Olden":11222,"finansielle":11223,"indføre":11224,"løses":11225,"ria":11226,"indendørs":11227,"væsentlige":11228,"tillader":11229,"Mount":11230,"Flam":11231,"nens":11232,"holmen":11233,"begav":11234,"hypo":11235,"1802":11236,"cirkel":11237,"eksisteret":11238,"enighed":11239,"læder":11240,"relation":11241,"fysi":11242,"lykkes":11243,"miljøet":11244,"akker":11245,"markerede":11246,"canadisk":11247,"forhandlingerne":11248,"Nam":11249,"Psy":11250,"reelt":11251,"rive":11252,"sinstitution":11253,"hente":11254,"ologen":11255,"ways":11256,"Jy":11257,"dad":11258,"halt":11259,"erungs":11260,"afhænger":11261,"koncep":11262,"forbunds":11263,";/":11264,"Ida":11265,"melodi":11266,"selskabets":11267,"køns":11268,"Skanderborg":11269,"xen":11270,"størst":11271,"kendetegnet":11272,"etats":11273,"indtradte":11274,"sation":11275,"vedvarende":11276,"liters":11277,"Lubeck":11278,"svenskerne":11279,"reformationen":11280,"kommunist":11281,"besiddelser":11282,"Pennsylvania":11283,"Eu":11284,"udarbejdet":11285,"vering":11286,"fuldstændigt":11287,"Australian":11288,"frik":11289,"fint":11290,"shows":11291,"Normandiet":11292,"ique":11293,"arrest":11294,"tie":11295,"kommentar":11296,"svømme":11297,"industrielle":11298,"desto":11299,"glæde":11300,"velt":11301,"gotisk":11302,"opgaven":11303,"Benj":11304,"palæ":11305,"Frugterne":11306,"sygdommen":11307,"formodentlig":11308,"Grammy":11309,"sgaard":11310,"worth":11311,"respekt":11312,"regerende":11313,"tros":11314,"Milano":11315,"vognen":11316,"konstrueret":11317,"embedsmænd":11318,"ødelægge":11319,"Deutsch":11320,"Rør":11321,"1821":11322,"istik":11323,"cion":11324,"ladet":11325,"Michel":11326,"Serbien":11327,"Gruppe":11328,"Frej":11329,"forman":11330,"ffel":11331,"Sym":11332,"kandidater":11333,"Rudolf":11334,"Skar":11335,"vade":11336,"elius":11337,"hovedparten":11338,"arkiv":11339,"fortællinger":11340,"omstændigheder":11341,"opsat":11342,"kejserlige":11343,"Vide":11344,"øger":11345,"læger":11346,"sælger":11347,"behandlet":11348,"Singap":11349,"Hugo":11350,"Lag":11351,"Rene":11352,"beskæftigede":11353,"Helsinki":11354,"State":11355,"oplysning":11356,"øster":11357,"stone":11358,"fornu":11359,"bestil":11360,"1817":11361,"præfektur":11362,"planlægning":11363,"produceres":11364,"vore":11365,"klip":11366,"Dresden":11367,"iregiment":11368,"Pit":11369,"Alligevel":11370,"kompli":11371,"dyrket":11372,"embedsmand":11373,"symfoni":11374,"anse":11375,"overvag":11376,"orienterede":11377,"Beteg":11378,"simpelt":11379,"besætningen":11380,"Bond":11381,"aa":11382,"ingsvalget":11383,"Fritz":11384,"Solen":11385,"menterne":11386,"farten":11387,"Opera":11388,"dru":11389,"æder":11390,"stak":11391,"gaver":11392,"nordligste":11393,"XX":11394,"bent":11395,"tilvækst":11396,"fremstillede":11397,"Rein":11398,"oprettedes":11399,"Atlet":11400,"Kenned":11401,"korrespon":11402,"DVD":11403,"ence":11404,"forveks":11405,"holdninger":11406,"spillerne":11407,"Blomsterne":11408,"Programmet":11409,"Spring":11410,"bæn":11411,"sninger":11412,"elli":11413,"bronzemedalje":11414,"platin":11415,"forløber":11416,"lak":11417,"streng":11418,"scyk":11419,"afor":11420,"certi":11421,"højest":11422,"tidsskrifter":11423,"nederste":11424,"voldsomme":11425,"Ungdoms":11426,"OB":11427,"begrun":11428,"1795":11429,"Sebastian":11430,"wh":11431,"privilegi":11432,"kommandant":11433,"accepterede":11434,"Viktor":11435,"folketællingen":11436,"maskingevær":11437,"freg":11438,"ote":11439,"eti":11440,"sachsen":11441,"Holstein":11442,"1789":11443,"Arbejds":11444,"kapitel":11445,"aggres":11446,"Ske":11447,"kaffe":11448,"forme":11449,"Skj":11450,"firmaer":11451,"Disk":11452,"Gord":11453,"euro":11454,"wall":11455,"prægede":11456,"Arhundreder":11457,"opretholde":11458,"cou":11459,"forest":11460,"Barbar":11461,"voldsomt":11462,"fjeld":11463,"Domin":11464,"Mere":11465,"reflek":11466,"parter":11467,"fekt":11468,"objekt":11469,"amerikanerne":11470,"Bladet":11471,"foreløb":11472,"Fron":11473,"indskræn":11474,"konsol":11475,"tyve":11476,"Frans":11477,"Hell":11478,"borgerlige":11479,"sovjetisk":11480,"ungarske":11481,"work":11482,"uddelt":11483,"kommissionen":11484,"Artier":11485,"bladene":11486,"katolsk":11487,"Dyb":11488,"klædt":11489,"jeld":11490,"dialekt":11491,"slutrunden":11492,"Game":11493,"1770":11494,"Børne":11495,"kompagn":11496,"Palæstina":11497,"Ting":11498,"tang":11499,"langvar":11500,"hertugdømmet":11501,"muren":11502,"ferencen":11503,"Alice":11504,"floderne":11505,"digitale":11506,"1827":11507,"1660":11508,"Back":11509,"Pap":11510,"Shi":11511,"bræ":11512,"infrastruktur":11513,"fortalt":11514,"ligak":11515,"synd":11516,"elektric":11517,"bekræftet":11518,"Distri":11519,"ordingborg":11520,"etatsrad":11521,"omtalte":11522,"krigstiden":11523,"designer":11524,"schweiziske":11525,"Varde":11526,"erobring":11527,"stræde":11528,"kasse":11529,"bogstaver":11530,"Mississippi":11531,"Aqu":11532,"Fur":11533,"gender":11534,"komponerede":11535,"scorer":11536,"computere":11537,"Største":11538,"Benjamin":11539,"Adri":11540,"anser":11541,"opbygning":11542,"lant":11543,"Marx":11544,"strukturer":11545,"Alliance":11546,"Lav":11547,"Vordingborg":11548,"HMS":11549,"dobbel":11550,"Æl":11551,"Burg":11552,"Bull":11553,"Modellen":11554,"www":11555,"Ohio":11556,"Sum":11557,"udskiftet":11558,"ventil":11559,"Beck":11560,"112":11561,"Løg":11562,"sell":11563,"ampton":11564,"lyk":11565,"Vendsyssel":11566,"oversigt":11567,"omkringliggende":11568,"reglerne":11569,"Sound":11570,"1793":11571,"beslægtet":11572,"hukom":11573,"halvø":11574,"gradvist":11575,"Antonio":11576,"Krag":11577,"forgæ":11578,"slutspillet":11579,"Kilde":11580,"anbefal":11581,"LO":11582,"Rena":11583,"UC":11584,"museets":11585,"hitliste":11586,"myndighederne":11587,"forplig":11588,"illi":11589,"deleg":11590,"adresse":11591,"symptomer":11592,"forgæves":11593,"opvarm":11594,"sløse":11595,"nedre":11596,"rone":11597,"fredede":11598,"FIFA":11599,"arvs":11600,"mexic":11601,"tanken":11602,"Christiania":11603,"Orle":11604,"seriens":11605,"gaards":11606,"købstad":11607,"Syge":11608,"skuff":11609,"Corporation":11610,"Wall":11611,"ift":11612,"antog":11613,"sekond":11614,"intelle":11615,"pattedyr":11616,"Klaus":11617,"skandinaviske":11618,"Cuba":11619,"Fame":11620,"ður":11621,"danskerne":11622,"skikkelse":11623,"kategorier":11624,"rice":11625,"There":11626,"fjenden":11627,"Cli":11628,"bye":11629,"right":11630,"musikvideo":11631,"tredjedel":11632,"Privatliv":11633,"bjør":11634,"shøj":11635,"rigsdaler":11636,"adskilte":11637,"premierløjtnant":11638,"Massach":11639,"Fak":11640,"smed":11641,"genrer":11642,"magter":11643,"billet":11644,"udøver":11645,"kulmin":11646,"Erhver":11647,"drengen":11648,"Boli":11649,"dialek":11650,"Kit":11651,"ødt":11652,"say":11653,"holdnings":11654,"tokol":11655,"semifinalerne":11656,"aria":11657,"tillid":11658,"rami":11659,"udstillede":11660,"Moder":11661,"bevæge":11662,"beskæftiget":11663,"Fischer":11664,"Latin":11665,"450":11666,"sale":11667,"tos":11668,"Arsen":11669,"boende":11670,"mongol":11671,"økonomien":11672,"kræve":11673,"1799":11674,"Juan":11675,"fjernsyn":11676,"Viggo":11677,"Series":11678,"omsætning":11679,"fastlandet":11680,"uch":11681,"kansler":11682,"værdien":11683,"repræsentation":11684,"bos":11685,"maden":11686,"hvormed":11687,"oko":11688,"beliggenhed":11689,"Orleans":11690,"Wurt":11691,"Yn":11692,"tia":11693,"kont":11694,"grebet":11695,"bestemmelser":11696,"suveræn":11697,"Kh":11698,"Rot":11699,"master":11700,"hovedrollerne":11701,"laves":11702,"naturligvis":11703,"wee":11704,"midlertidigt":11705,"astr":11706,"fing":11707,"beholde":11708,"Skjern":11709,"ministre":11710,"Fredrik":11711,"strækninger":11712,"interesserede":11713,"konflikten":11714,"Niedersachsen":11715,"værktøj":11716,"Hom":11717,"Jel":11718,"indebar":11719,"storff":11720,"stemning":11721,"Skue":11722,"felttog":11723,"Socialdemokratiet":11724,"bønderne":11725,"Højesteret":11726,"deløbende":11727,"Salt":11728,"mme":11729,"skampe":11730,"Alber":11731,"færgen":11732,"rækning":11733,"belast":11734,"falsk":11735,"almindeligvis":11736,"Guy":11737,"Richards":11738,"spændende":11739,"usetts":11740,"lage":11741,"placere":11742,"svampe":11743,"arving":11744,"htt":11745,"hjørnet":11746,"Lod":11747,"”\"":11748,"stekn":11749,"Carsten":11750,"forsikrings":11751,"Massachusetts":11752,"sned":11753,"indien":11754,"Relig":11755,"Øl":11756,"afvig":11757,"sigts":11758,"stipendi":11759,"rune":11760,"Ruslands":11761,"Grev":11762,"Mikkelsen":11763,"Antarktis":11764,"rigtigt":11765,"sangeren":11766,"licens":11767,"lød":11768,"anfører":11769,"Kirk":11770,"Hjort":11771,"flit":11772,"forvejen":11773,"residen":11774,"dimit":11775,"Marok":11776,"bugt":11777,"radikale":11778,"drager":11779,"repræsentere":11780,"koreanske":11781,"xelles":11782,"Tv":11783,"uhel":11784,"oblig":11785,"vandre":11786,"sporten":11787,"motorvej":11788,"Andrea":11789,"militæret":11790,"erstatte":11791,"totale":11792,"simple":11793,"skotsk":11794,"Organisationen":11795,"fikke":11796,"antyder":11797,"rier":11798,"nock":11799,"misbrug":11800,"videoen":11801,"psyko":11802,"germanske":11803,"intellekt":11804,"Hay":11805,"OC":11806,"frek":11807,"rix":11808,"forskelligt":11809,"franskmændene":11810,"trækning":11811,"ais":11812,"ous":11813,"beh":11814,"icap":11815,"statsk":11816,"saga":11817,"resterne":11818,"Canad":11819,"cirkul":11820,"cylind":11821,"DP":11822,"foden":11823,"bety":11824,"rednings":11825,"klubplan":11826,"kampagnen":11827,"falz":11828,"flytter":11829,"sforhold":11830,"omgivelser":11831,"forskningen":11832,"korstog":11833,"Conrad":11834,"medicinske":11835,"Endnu":11836,"bombarde":11837,"%)":11838,"uz":11839,"bestræ":11840,"artus":11841,"mesteren":11842,"skygge":11843,"erungsbezirk":11844,"Hjer":11845,"sans":11846,"stim":11847,"tisme":11848,"klæde":11849,"1788":11850,"umuligt":11851,"Volksw":11852,"Sort":11853,"hoe":11854,"Roose":11855,"vidne":11856,"Morris":11857,"ække":11858,"rente":11859,"Christiansborg":11860,"aktuelle":11861,"forbrydelser":11862,"EG":11863,"Klok":11864,"cup":11865,"konsekvenser":11866,"Ellen":11867,"eksper":11868,"Georgia":11869,"Kevin":11870,"Special":11871,"Adams":11872,"tilstrækkeligt":11873,"Blan":11874,"Pyr":11875,"dret":11876,"1792":11877,"://":11878,"HL":11879,"forlader":11880,"velserne":11881,"gørelsen":11882,"Medal":11883,"ficering":11884,"Hakon":11885,"japanerne":11886,"erhvervede":11887,"Bruxelles":11888,"sørgede":11889,"kgl":11890,"peratur":11891,"Revent":11892,"sejlads":11893,"attle":11894,"SM":11895,"ain":11896,"stag":11897,"arbejderne":11898,"velly":11899,"døren":11900,"krystal":11901,"prøvet":11902,"bombefly":11903,"symfonier":11904,"flyvninger":11905,"tum":11906,"ukendte":11907,"efterladt":11908,"kristendom":11909,"Business":11910,"alternative":11911,"slinjer":11912,"demokraterne":11913,"Alan":11914,"Gret":11915,"forstas":11916,"stemp":11917,"spekter":11918,"Kilder":11919,"Smal":11920,"oller":11921,"ammen":11922,"samles":11923,"husets":11924,"Fransk":11925,"helgen":11926,"navnene":11927,"hrine":11928,"1776":11929,"Light":11930,"Wik":11931,"gate":11932,"skand":11933,"beretning":11934,"Free":11935,"Dagen":11936,"mem":11937,"undne":11938,"trold":11939,"Hertil":11940,"styres":11941,"republikken":11942,"effektivt":11943,"smule":11944,"ires":11945,"miske":11946,"ties":11947,"overhoved":11948,"dommere":11949,"kommunens":11950,"seksuel":11951,"RK":11952,"binde":11953,"ual":11954,"kommunikations":11955,"Antwer":11956,"beslutninger":11957,"benævnt":11958,"esi":11959,"hren":11960,"retur":11961,"holdets":11962,"manuskriptforfatter":11963,"gennemsnitlige":11964,"jurist":11965,"illustration":11966,"skjult":11967,"udbud":11968,"indebærer":11969,"ovs":11970,"Aleks":11971,"palæst":11972,"Potter":11973,"sele":11974,"dia":11975,"adelige":11976,"stasien":11977,"læses":11978,"presset":11979,"tliggende":11980,"forandring":11981,"nøgle":11982,"Buk":11983,"atra":11984,"forklare":11985,"Styr":11986,"masser":11987,"Simp":11988,"medicinsk":11989,"Cambridge":11990,"forandringer":11991,"partikler":11992,"evig":11993,"ints":11994,"indeholde":11995,"minton":11996,"togsæt":11997,"bay":11998,"Manens":11999,"tempel":12000,"eventuelt":12001,"Pakistan":12002,"beund":12003,"aby":12004,"krøn":12005,"idræt":12006,"væske":12007,"handlingen":12008,"1797":12009,"socialistiske":12010,"laveste":12011,"formula_1":12012,"orienteret":12013,"Emma":12014,"centimeter":12015,"Your":12016,"skelse":12017,"lau":12018,"specifikke":12019,"regional":12020,"Billy":12021,"NFL":12022,"holdte":12023,"trone":12024,"sistens":12025,"kompositioner":12026,"præsidenten":12027,"verdensplan":12028,"regeringer":12029,"kontorer":12030,"kavaleri":12031,"dedik":12032,"elen":12033,"udsagn":12034,"Derved":12035,"graden":12036,"fried":12037,"tank":12038,"jordiske":12039,"omfatte":12040,"pulje":12041,"portugisiske":12042,"Down":12043,"ett":12044,"skomp":12045,"Albrecht":12046,"statue":12047,"Rønne":12048,"Erhvervs":12049,"komplet":12050,"relationer":12051,"fæstet":12052,"ortodokse":12053,"omi":12054,"hvornar":12055,"klø":12056,"fiktiv":12057,"Herfra":12058,"haw":12059,"aco":12060,"Clausen":12061,"effektiv":12062,"umen":12063,"tilslutning":12064,"sigende":12065,"interne":12066,"ledon":12067,"1794":12068,"IP":12069,"Nr":12070,"cket":12071,"bys":12072,"1822":12073,"Kristensen":12074,"overraskende":12075,"Margaret":12076,"Wimb":12077,"pavirke":12078,"kante":12079,"sprogram":12080,"knude":12081,"Vladimir":12082,"Tjekkoslovakiet":12083,"ML":12084,"Shang":12085,"krisen":12086,"1780":12087,"appel":12088,"mandat":12089,"Guine":12090,"kammermusik":12091,"slette":12092,"Women":12093,"aren":12094,"udru":12095,"undertryk":12096,"fredag":12097,"lins":12098,"basketball":12099,"voldsom":12100,"Børn":12101,"Mortensen":12102,"ordene":12103,"ilen":12104,"overgangen":12105,"tættere":12106,"Frue":12107,"landskaber":12108,"havets":12109,"branden":12110,"leverand":12111,"bokse":12112,"tegneserie":12113,"Stavanger":12114,"kj":12115,"Schu":12116,"Miljø":12117,"stræner":12118,"Fyns":12119,"sognet":12120,"ulige":12121,"paven":12122,"spart":12123,"indsatte":12124,"Melbourne":12125,"karakteristisk":12126,"Roosevelt":12127,"114":12128,"nævne":12129,"klassik":12130,"ledningen":12131,"Finlands":12132,"rigsministeriet":12133,"tilbudt":12134,"Clo":12135,"opstilling":12136,"vindende":12137,"barhed":12138,"bevægel":12139,"bassist":12140,"Brother":12141,"maleriet":12142,"maneders":12143,"smæssigt":12144,"komplekse":12145,"Avisen":12146,"Jæger":12147,"Kvinder":12148,"høn":12149,"minal":12150,"Kritik":12151,"Torben":12152,"forelæs":12153,"temaer":12154,"annonceret":12155,"aflej":12156,"Syddanmark":12157,"salon":12158,"ktorer":12159,"spurgte":12160,"Aaben":12161,"Log":12162,"Vid":12163,"rerne":12164,"skub":12165,"inddeling":12166,"nemt":12167,"imøde":12168,"Allan":12169,"passet":12170,"Christiansen":12171,"stamning":12172,"Maxim":12173,"melsen":12174,"uka":12175,"mile":12176,"tilbageværende":12177,"løsninger":12178,"kunstneren":12179,"diplom":12180,"Reventlow":12181,"Wimbledon":12182,"Munk":12183,"omend":12184,"tograf":12185,"ylon":12186,"ukket":12187,"biologiske":12188,"kirkegarden":12189,"Olaf":12190,"Klubbens":12191,"Napoli":12192,"stur":12193,"forslaget":12194,"bygden":12195,"Marcus":12196,"planlagte":12197,"nyeste":12198,"forfatterskab":12199,"antikke":12200,"nabol":12201,"Lady":12202,"Testam":12203,"Nag":12204,"Wedel":12205,"ekstraordin":12206,"rekorden":12207,"svæk":12208,"istika":12209,"Anhalt":12210,"langsom":12211,"Hellig":12212,"Jazz":12213,"typiske":12214,"tyrkisk":12215,"anmelder":12216,"Shake":12217,"overgav":12218,"præstation":12219,"beder":12220,"vestlig":12221,"seksamen":12222,"doktorg":12223,"ype":12224,"drop":12225,"erfaringer":12226,"skere":12227,"onne":12228,"bemærket":12229,"grafik":12230,"sydpa":12231,"Cecil":12232,"Krigen":12233,"Arnold":12234,"stæng":12235,"medierne":12236,"oprettelse":12237,"skyldig":12238,"Unionens":12239,"stegn":12240,"Hat":12241,"Sop":12242,"Tag":12243,"oe":12244,"oster":12245,"teren":12246,"assen":12247,"Marian":12248,"auer":12249,"Guadal":12250,"07":12251,"Vog":12252,"indisk":12253,"uto":12254,"klaret":12255,"Andet":12256,"mure":12257,"niens":12258,"protein":12259,"legnet":12260,"forsvundet":12261,"mejeri":12262,"Francois":12263,"tagen":12264,"hensigt":12265,"Norde":12266,"deltagerne":12267,"Sports":12268,"opfordrede":12269,"realitet":12270,"luck":12271,"bestemme":12272,"Gaden":12273,"Abd":12274,"landevejscyk":12275,"Eva":12276,"Mang":12277,"Uru":12278,"tiende":12279,"skrog":12280,"eda":12281,"kronen":12282,"skrevne":12283,"menneskelig":12284,"Side":12285,"Marine":12286,"producenter":12287,"inkluderet":12288,"kriminal":12289,"billedhugger":12290,"sekondløjtnant":12291,"EL":12292,"Kop":12293,"hier":12294,"inus":12295,"udformet":12296,"Anvendelse":12297,"125":12298,"Leo":12299,"born":12300,"jordskæl":12301,"Anderson":12302,"formelle":12303,"tilpasset":12304,"210":12305,"IX":12306,"kler":12307,"opti":12308,"lans":12309,"højet":12310,"Roman":12311,"faglige":12312,"Salomon":12313,"bølger":12314,"jarl":12315,"drevne":12316,"uminium":12317,"Betegnelsen":12318,"Græn":12319,"ørn":12320,"iseres":12321,"lap":12322,"konferens":12323,"Domkirke":12324,"black":12325,"identificere":12326,"Konstantinopel":12327,"fantasi":12328,"Ey":12329,"menterede":12330,"ents":12331,"fremad":12332,"Beau":12333,"dyrkes":12334,"1772":12335,"dygtighed":12336,"arsagen":12337,"nordpa":12338,"rækkefølge":12339,"cering":12340,"Melodi":12341,"militært":12342,"pokalt":12343,"Otte":12344,"prest":12345,"arskrigen":12346,"pastor":12347,"præcist":12348,"blues":12349,"rogen":12350,"Moderne":12351,"ells":12352,"Dorothe":12353,"Sj":12354,"tøm":12355,"temberg":12356,"science":12357,"sorden":12358,"bidraget":12359,"Space":12360,"Udtrykket":12361,"Iron":12362,"forhen":12363,"generationer":12364,"mislykkedes":12365,"evaku":12366,"niveauer":12367,"deltagende":12368,"bachel":12369,"sammenligning":12370,"anklaget":12371,"Kennedy":12372,"kle":12373,"oul":12374,"Kirkens":12375,"spartiet":12376,"alfabet":12377,"Fern":12378,"MG":12379,"indgangen":12380,"facel":12381,"itive":12382,"fredaktør":12383,"Firmaet":12384,"Akademiet":12385,"skaffede":12386,"Das":12387,"markante":12388,"Nordvest":12389,"Typ":12390,"omradets":12391,"symmet":12392,"prinsen":12393,"frugter":12394,"ejendoms":12395,"middelalderlige":12396,"hertugen":12397,"mindretal":12398,"Fris":12399,"Iver":12400,"Lom":12401,"witz":12402,"nordsiden":12403,"færds":12404,"Party":12405,"Antwerpen":12406,"Wen":12407,"rerer":12408,"Peru":12409,"tropiske":12410,"1798":12411,"mursten":12412,"Naz":12413,"opmærksom":12414,"skirke":12415,"Astronom":12416,"steori":12417,"hebra":12418,"immun":12419,"Information":12420,"digtet":12421,"kult":12422,"traktat":12423,"versionen":12424,"Christianshavn":12425,"konkluder":12426,"Churchill":12427,"06":12428,"Gru":12429,"ogi":12430,"alm":12431,"sammenlægning":12432,"Sjællands":12433,"forklarer":12434,"tydelig":12435,"negative":12436,"Patrick":12437,"Aabenraa":12438,"hjernen":12439,"atol":12440,"uez":12441,"Scot":12442,"stikker":12443,"tyng":12444,"bekræftede":12445,"Sub":12446,"Bruce":12447,"ekstremt":12448,"Lej":12449,"beskyttede":12450,"monument":12451,"Gladsa":12452,"Even":12453,"ceres":12454,"europ":12455,"has":12456,"støb":12457,"Skot":12458,"Media":12459,"fasc":12460,"integreret":12461,"Mind":12462,"aster":12463,"nerede":12464,"stock":12465,"oman":12466,"Syste":12467,"ssted":12468,"itære":12469,"meteor":12470,"embedet":12471,"atoren":12472,"1796":12473,"inspirerede":12474,"Singapore":12475,"gis":12476,"Arm":12477,"grønt":12478,"Halle":12479,"Kant":12480,"efternavn":12481,"akke":12482,"hovet":12483,"hermed":12484,"Forlag":12485,"belejring":12486,"geografisk":12487,"Bodil":12488,"pommern":12489,"syrer":12490,"heavy":12491,"navig":12492,"tika":12493,"skadet":12494,"ekspan":12495,"schen":12496,"Roms":12497,"pressen":12498,"phia":12499,"fokuserer":12500,"dygtige":12501,"demonstr":12502,"indtægt":12503,"Syl":12504,"lof":12505,"øren":12506,"uddøde":12507,"1823":12508,"dance":12509,"Valby":12510,"socialt":12511,"annek":12512,"AD":12513,"Hoff":12514,"Tul":12515,"afstamning":12516,"opperne":12517,"opsamlings":12518,"følgen":12519,"trænings":12520,"USS":12521,"Maj":12522,"sande":12523,"hære":12524,"insekter":12525,"edyg":12526,"stier":12527,"Fonden":12528,"hyppig":12529,"KF":12530,"bec":12531,"Anthony":12532,"Cav":12533,"Din":12534,"Ærø":12535,"ophævet":12536,"høvding":12537,"kortvarigt":12538,"Fat":12539,"Sloven":12540,"minor":12541,"erenti":12542,"dragt":12543,"rangliste":12544,"Web":12545,"forventede":12546,"Speci":12547,"temperaturer":12548,"venskabskamp":12549,"Kid":12550,"dinge":12551,"glim":12552,"ualitet":12553,"kolonien":12554,"California":12555,"downlo":12556,"Warszawa":12557,"Gard":12558,"ligning":12559,"oda":12560,"neth":12561,"Flyve":12562,"Volkswagen":12563,"Lut":12564,"tninger":12565,"ophav":12566,"logo":12567,"Fjorden":12568,"anført":12569,"edy":12570,"Forum":12571,"Skagen":12572,"Jacques":12573,"Cuppen":12574,"Statistik":12575,"utilfreds":12576,"fød":12577,"ressen":12578,"døgn":12579,"Kasper":12580,"indledt":12581,"Ligaen":12582,"veksel":12583,"dollar":12584,"dum":12585,"pioner":12586,"uheld":12587,"adset":12588,"begaet":12589,"voldt":12590,"Airlines":12591,"Frederikke":12592,"himlen":12593,"ethvert":12594,"ismens":12595,"samarbejder":12596,"ængde":12597,"kart":12598,"stødte":12599,"affald":12600,"Planten":12601,"discipliner":12602,"forræ":12603,"unt":12604,"styrkerne":12605,"propag":12606,"skydning":12607,"lane":12608,"herskende":12609,"imple":12610,"Nordsøen":12611,"alismen":12612,"kvalifikationen":12613,"strategisk":12614,"brigadegeneral":12615,"diskuteret":12616,"frekven":12617,"Rundt":12618,"pur":12619,"cise":12620,"kommunale":12621,"mønstre":12622,"Stadium":12623,"modificeret":12624,"Hviderus":12625,"enze":12626,"Alperne":12627,"bahn":12628,"helte":12629,"færdsel":12630,"hjemmehørende":12631,"massa":12632,"Cho":12633,"Marsh":12634,"ydningen":12635,"gennemgaende":12636,"læst":12637,"Colom":12638,"unionen":12639,"trænge":12640,"bebyggelsen":12641,"Lande":12642,"RC":12643,"opgrader":12644,"alede":12645,"smit":12646,"Tradition":12647,"kritikere":12648,"temperaturen":12649,"Dark":12650,"iagt":12651,"vier":12652,"nederlandsk":12653,"Korps":12654,"fødevarer":12655,"gymnasiet":12656,"Howard":12657,"dalene":12658,"lovgivende":12659,"globale":12660,"angar":12661,"betinget":12662,"Anlæg":12663,"boe":12664,"væggen":12665,"vurdering":12666,"Kristiania":12667,"Hobro":12668,"Kvar":12669,"cour":12670,"amtet":12671,"rumme":12672,"Beach":12673,"Tennis":12674,"konfødererede":12675,"Rat":12676,"wrestling":12677,"enge":12678,"drejede":12679,"Theatre":12680,"Mitch":12681,"egyptiske":12682,"engageret":12683,"mol":12684,"afgr":12685,"itiske":12686,"Gladsaxe":12687,"Bam":12688,"Graf":12689,"Hval":12690,"lunge":12691,"baret":12692,"klarede":12693,"frygtede":12694,"ive":12695,"isa":12696,"sæder":12697,"Lev":12698,"operaen":12699,"bestemmelse":12700,"Opvækst":12701,"arbejdskraft":12702,"Jeppe":12703,"Nick":12704,"Piet":12705,"uin":12706,"indire":12707,"stilen":12708,"Tibet":12709,"Matthe":12710,"opførelse":12711,"Firenze":12712,"orkesterværker":12713,"Junior":12714,"Rab":12715,"Rets":12716,"Saf":12717,"sidig":12718,"lation":12719,"positioner":12720,"koncernen":12721,"føderale":12722,"Klein":12723,"BO":12724,"NO":12725,"ito":12726,"monopol":12727,"aktioner":12728,"ombord":12729,"vejede":12730,"overgaet":12731,"stationeret":12732,"Buck":12733,"brogade":12734,"ejendommen":12735,"beretninger":12736,"04":12737,"Cab":12738,"ED":12739,"ankommer":12740,"aterede":12741,"liggender":12742,"ulære":12743,"mandskab":12744,"færdighed":12745,"Found":12746,"psykologi":12747,"Bush":12748,"Fall":12749,"Pot":12750,"Satur":12751,"komiker":12752,"fremskridt":12753,"Resten":12754,"regning":12755,"Carlos":12756,"Vene":12757,"Æg":12758,"skland":12759,"atel":12760,"udmærkede":12761,"følgelig":12762,"kadet":12763,"hidtidige":12764,"mælk":12765,"vikingetiden":12766,"canal":12767,"Montre":12768,"ordentlig":12769,"Lokal":12770,"værste":12771,"farven":12772,"onenter":12773,"Tidende":12774,"tænder":12775,"Hjemme":12776,"hyppigt":12777,"VII":12778,"ride":12779,"kommerciel":12780,"leres":12781,"ankomst":12782,"reen":12783,"udgik":12784,"ulerede":12785,"teknikker":12786,"kraften":12787,"udbruddet":12788,"Økonomi":12789,"AP":12790,"glad":12791,"afgift":12792,"uda":12793,"faren":12794,"Mach":12795,"kontrollerede":12796,"fakultet":12797,"australsk":12798,"imperium":12799,"Uppsala":12800,"Marokko":12801,"RO":12802,"gnet":12803,"tilnavnet":12804,"bærende":12805,"Ekstra":12806,"Sidstnævnte":12807,"onerende":12808,"straße":12809,"folkeafstemning":12810,"psykiat":12811,"Rav":12812,"dun":12813,"anbragt":12814,"udan":12815,"nutiden":12816,"Marc":12817,"hovedby":12818,"come":12819,"Urugu":12820,"prestige":12821,"Birk":12822,"Hugh":12823,"ingrad":12824,"hern":12825,"restauranter":12826,"acceptere":12827,"Hund":12828,"inas":12829,"Reyk":12830,"Skul":12831,"kurser":12832,"salget":12833,"kopier":12834,"Studios":12835,"platform":12836,"indirekte":12837,"stk":12838,"isation":12839,"flanke":12840,"forbillede":12841,"svare":12842,"lash":12843,"missions":12844,"Ged":12845,"Mest":12846,"aw":12847,"dv":12848,"yper":12849,"aki":12850,"landsdækkende":12851,"atorisk":12852,"stopper":12853,"nederlandske":12854,"undervisningen":12855,"hyr":12856,"støj":12857,"1750":12858,"midte":12859,"restaureret":12860,"Ec":12861,"Rø":12862,"indo":12863,"endestation":12864,"delses":12865,"tigelse":12866,"indenrigs":12867,"kendetegn":12868,"ovenfor":12869,"missioner":12870,"fædre":12871,"menneskeret":12872,"Wurttemberg":12873,"Dyn":12874,"UM":12875,"chaft":12876,"kernen":12877,"personale":12878,"Morgen":12879,"apel":12880,"Manu":12881,"falds":12882,"spore":12883,"sandsynligt":12884,"symboler":12885,"bisped":12886,"barnebarn":12887,"SV":12888,"vabnet":12889,"lerød":12890,"user":12891,"mellemrum":12892,"følges":12893,"vanding":12894,"sydsiden":12895,"Konkurren":12896,"elektroniske":12897,"midtbanespiller":12898,"inviteret":12899,"CP":12900,"Rie":12901,"komment":12902,"Rev":12903,"velgør":12904,"bevidsthed":12905,"æde":12906,"ettet":12907,"lids":12908,"itat":12909,"sino":12910,"marmor":12911,"fremstar":12912,"kronprins":12913,"Dyre":12914,"forsikring":12915,"Rendsborg":12916,"behøver":12917,"air":12918,"mom":12919,"ches":12920,"underviser":12921,"gardens":12922,"impor":12923,"synspunkt":12924,"Brød":12925,"mangfold":12926,"diplomat":12927,"forstyrr":12928,"afskaffet":12929,"Power":12930,"Tos":12931,"WTA":12932,"lob":12933,"unik":12934,"rifter":12935,"itor":12936,"stridigheder":12937,"Sibi":12938,"destroy":12939,"fornyet":12940,"fjendtlige":12941,"Ok":12942,"befon":12943,"sigten":12944,"keren":12945,"Schwar":12946,"ladsen":12947,"chefen":12948,"problemet":12949,"Bjerre":12950,"Atlanta":12951,"ulykken":12952,"Cou":12953,"Gon":12954,"teologiske":12955,"leveres":12956,"begej":12957,"løve":12958,"børs":12959,"Oliver":12960,"Jomfru":12961,"æra":12962,"Chal":12963,"bringes":12964,"Apple":12965,"lørdag":12966,"understøttelse":12967,"\"'":12968,"Niger":12969,"Pant":12970,"varsel":12971,"efterspørg":12972,"nerve":12973,"Franklin":12974,"tyskere":12975,"1787":12976,"Bonde":12977,"observationer":12978,"ceremoni":12979,"Lagt":12980,"Sup":12981,"Ug":12982,"iver":12983,"amter":12984,"understre":12985,"handicap":12986,"strene":12987,"boy":12988,"Master":12989,"behandles":12990,"Stanley":12991,"manuskriptet":12992,"bler":12993,"ræer":12994,"dialog":12995,"metro":12996,"chefredaktør":12997,"Kai":12998,"totalt":12999,"jævnligt":13000,"folketingsvalget":13001,"missiler":13002,"diskussion":13003,"__":13004,"amen":13005,"Inc":13006,"korrup":13007,"arko":13008,"emig":13009,"affy":13010,"opførtes":13011,"forrige":13012,"værnet":13013,"Death":13014,"tenberg":13015,"stilstand":13016,"Revolution":13017,"turisme":13018,"fiction":13019,"Catal":13020,"inkluderede":13021,"Arsenal":13022,"hall":13023,"runder":13024,"oplever":13025,"Sted":13026,"Radikale":13027,"Ældre":13028,"Guadalcanal":13029,"Valen":13030,"klor":13031,"organer":13032,"positivt":13033,"evnen":13034,"panel":13035,"vægge":13036,"fjende":13037,"forhenværende":13038,"Sho":13039,"sidenhen":13040,"hængt":13041,"porte":13042,"Jimmy":13043,"forkortelse":13044,"Arag":13045,"beslutter":13046,"interval":13047,"ognos":13048,"trykket":13049,"fløjen":13050,"hjertet":13051,"Slovakiet":13052,"Mem":13053,"Mong":13054,"ody":13055,"lider":13056,"døre":13057,"epi":13058,"116":13059,"AL":13060,"løg":13061,"broderen":13062,"vægten":13063,"bulgar":13064,"Sogne":13065,"dinger":13066,"ørede":13067,"undersiden":13068,"indehaver":13069,"malinger":13070,"Philadel":13071,"Bernhard":13072,"Pia":13073,"sædet":13074,"Repræsen":13075,"graven":13076,"Copa":13077,"traditionen":13078,"studeret":13079,"formalet":13080,"tennisspiller":13081,"Gyldendal":13082,"Dort":13083,"Kate":13084,"cerne":13085,"stæt":13086,"udbygget":13087,"Arbejder":13088,"peger":13089,"Professor":13090,"adet":13091,"øber":13092,"tech":13093,"steget":13094,"lering":13095,"kantet":13096,"metoden":13097,"kampvogn":13098,"Part":13099,"aluminium":13100,"koncept":13101,"middag":13102,"Sep":13103,"folkeslag":13104,"beskytter":13105,"sælgende":13106,"introduktion":13107,"fungeret":13108,"birolle":13109,"rustning":13110,"Muhammed":13111,"Wy":13112,"zhou":13113,"orator":13114,"levering":13115,"retningen":13116,"koden":13117,"ficeres":13118,"ights":13119,"gymnasium":13120,"Ørsted":13121,"junker":13122,"Venez":13123,"220":13124,"Gang":13125,"Tower":13126,"pit":13127,"derup":13128,"føler":13129,"væv":13130,"redskaber":13131,"fodboldt":13132,"scoret":13133,"sygehus":13134,"skildrer":13135,"øverstkommanderende":13136,"tiderne":13137,"borgerkrigen":13138,"arealet":13139,"Glob":13140,"Dir":13141,"GB":13142,"Tør":13143,"klan":13144,"stang":13145,"stjal":13146,"kanter":13147,"ylle":13148,"nedgang":13149,"Frances":13150,"Galler":13151,"vanskelige":13152,"slinje":13153,"Gis":13154,"tnings":13155,"Rober":13156,"ivrig":13157,"fejlag":13158,"1784":13159,"mesterskaberne":13160,"religions":13161,"udgives":13162,"Ara":13163,"mv":13164,"ank":13165,"spion":13166,"tænke":13167,"Giovan":13168,"trinbræt":13169,"doktor":13170,"Austin":13171,"(;":13172,"medføre":13173,"chok":13174,"brydning":13175,"finansieret":13176,"Eksempelvis":13177,"Palle":13178,"aspekter":13179,"rine":13180,"storhed":13181,"1791":13182,"Margrete":13183,"indspilninger":13184,"udskift":13185,"opleve":13186,"aborg":13187,"tret":13188,"trav":13189,"Bornholms":13190,"forarsaget":13191,"lændinge":13192,"Dorothea":13193,"\"”":13194,"HT":13195,"Sant":13196,"Søen":13197,"Von":13198,"walis":13199,"afslog":13200,"nej":13201,"bekæmp":13202,"indførelse":13203,"værelser":13204,"Anker":13205,"planlagde":13206,"Norsk":13207,"kompleks":13208,"dyrke":13209,"videnskabeligt":13210,"Face":13211,"gulvet":13212,"effekter":13213,"negativ":13214,"Stalin":13215,"asiatiske":13216,"Are":13217,"Kry":13218,"fB":13219,"seng":13220,"Stol":13221,"Stri":13222,"grupperne":13223,"dokumentarisk":13224,"cra":13225,"lus":13226,"zoner":13227,"edik":13228,"omring":13229,"udskilt":13230,"fragt":13231,"indførelsen":13232,"højden":13233,"Helge":13234,"kontrakten":13235,"variation":13236,"jernbaner":13237,"forkert":13238,"Dren":13239,"IL":13240,"Jup":13241,"nic":13242,"reste":13243,"sprang":13244,"malere":13245,"hjemland":13246,"fangen":13247,"Stockholms":13248,"Shakespe":13249,"rop":13250,"skit":13251,"Dead":13252,"Balkan":13253,"frivillig":13254,"tilstedeværelse":13255,"smerte":13256,"District":13257,"Testamente":13258,"anatom":13259,"arist":13260,"kancelli":13261,"sejler":13262,"fersk":13263,"Jeff":13264,"Bibelen":13265,"TU":13266,"mologi":13267,"tilskud":13268,"rade":13269,"forbræn":13270,"romanske":13271,"næring":13272,"misly":13273,"News":13274,"Stedet":13275,"Salzburg":13276,"spiration":13277,"forpligt":13278,"Janeiro":13279,"Yorks":13280,"wel":13281,"teket":13282,"indspille":13283,"akust":13284,"ologier":13285,"produktioner":13286,"proteiner":13287,"lokomotiver":13288,"Musikkonservatorium":13289,"tort":13290,"kryp":13291,"næse":13292,"sydligste":13293,"grønlandske":13294,"romantiske":13295,"1771":13296,"virkelighed":13297,"Tredje":13298,"opvarmning":13299,"Abel":13300,"Bjor":13301,"Oprin":13302,"udad":13303,"males":13304,"Allen":13305,"selvstyre":13306,"historikeren":13307,"velhavende":13308,"cock":13309,"protester":13310,"Northern":13311,"Ster":13312,"deci":13313,"skind":13314,"farvede":13315,"tigheds":13316,"medlemskab":13317,"vicepræsident":13318,"skønhed":13319,"fysiker":13320,"Fiat":13321,"tat":13322,"ando":13323,"statist":13324,"frisk":13325,"Parad":13326,"ladning":13327,"tarne":13328,"ground":13329,"Uruguay":13330,"dab":13331,"anlagde":13332,"omtaler":13333,"urg":13334,"overen":13335,"slu":13336,"stemt":13337,"soundt":13338,"opfordring":13339,"uafgjort":13340,"oniske":13341,"progres":13342,"Color":13343,"portugisisk":13344,"Deutsche":13345,"edr":13346,"fortid":13347,"forstod":13348,"udbrød":13349,"immig":13350,"kalen":13351,"bou":13352,"aktier":13353,"bælt":13354,"byrd":13355,"dværg":13356,"bret":13357,"nad":13358,"reddet":13359,"organist":13360,"weig":13361,"klit":13362,"sadant":13363,"legeme":13364,"besejre":13365,"stærkeste":13366,"molekyler":13367,"perspektiv":13368,"tyngde":13369,"Av":13370,"Bram":13371,"biske":13372,"cur":13373,"forstad":13374,"isot":13375,"bard":13376,"dreje":13377,"ændrer":13378,"hævn":13379,"(),":13380,"Galli":13381,"Tune":13382,"aske":13383,"nyheder":13384,"kursus":13385,"sportsgrene":13386,"eksperiment":13387,"bestyrelsesmedlem":13388,"360":13389,"Act":13390,"Hind":13391,"Odin":13392,"krigene":13393,"1775":13394,"administrationen":13395,"imponerende":13396,"drejning":13397,"Khan":13398,"vac":13399,"Stam":13400,"tagelser":13401,"kritiserede":13402,"Frederikssund":13403,"eleverne":13404,"Gustaf":13405,"First":13406,"Flander":13407,"Glen":13408,"artet":13409,"overtagelse":13410,"ordrer":13411,"oldater":13412,"fiktive":13413,"Armen":13414,"kurin":13415,"folkeskole":13416,"Human":13417,"islamiske":13418,"Philadelphia":13419,"Ral":13420,"behandler":13421,"blat":13422,"stringen":13423,"forskellen":13424,"guer":13425,"TV2":13426,"opfattet":13427,"Bernard":13428,"RS":13429,"græk":13430,"bekæmpe":13431,"fremkom":13432,"klassic":13433,"stave":13434,"Laura":13435,"Ideen":13436,"Rantz":13437,"unger":13438,"hovedperson":13439,"invasionen":13440,"tilføjede":13441,"Jay":13442,"Veg":13443,"dninger":13444,"skunst":13445,"essel":13446,"undergrund":13447,"tril":13448,"lyden":13449,"1774":13450,"pavirker":13451,"dannedes":13452,"Christina":13453,"fril":13454,"kommissær":13455,"Almindelig":13456,"Sikker":13457,"jas":13458,"sant":13459,"landes":13460,"farlige":13461,"skribent":13462,"poesi":13463,"Samfund":13464,"englænderne":13465,"Miss":13466,"attent":13467,"usædvanligt":13468,"anna":13469,"uddeles":13470,"rium":13471,"sides":13472,"falske":13473,"matematiker":13474,"skulpturer":13475,"Stationsbygningen":13476,"anstalt":13477,"hovedværk":13478,"Norr":13479,"ografiske":13480,"Goog":13481,"Vesterbro":13482,"Nils":13483,"Wald":13484,"siderne":13485,"Herudover":13486,"fordelingen":13487,"erobr":13488,"Reykj":13489,"Cæs":13490,"gale":13491,"skæg":13492,"udfører":13493,"getøj":13494,"yngle":13495,"fæstede":13496,"integra":13497,"separat":13498,"Ege":13499,"oi":13500,"ree":13501,"ummet":13502,"marin":13503,"andenplads":13504,"kardin":13505,"Karls":13506,"1777":13507,"fattigdom":13508,"udgravninger":13509,"Shu":13510,"’’":13511,"ople":13512,"univers":13513,"borough":13514,"væksten":13515,"værdifulde":13516,"stæderne":13517,"kvartfinalerne":13518,"Bridge":13519,"afstanden":13520,"geark":13521,"retnings":13522,"enestaende":13523,"scher":13524,"kontrollere":13525,"materialet":13526,"1783":13527,"mundingen":13528,"rapporter":13529,"Geneve":13530,"arisk":13531,"reelle":13532,"opnas":13533,"identisk":13534,"smuk":13535,"dækning":13536,"1781":13537,"risikoen":13538,"Kyst":13539,"konferensrad":13540,"Nurn":13541,"leverer":13542,"landings":13543,"egaende":13544,"biflod":13545,"Samt":13546,"ipedia":13547,"stadigvæk":13548,"1773":13549,"Cathrine":13550,"fusionerede":13551,"Maribo":13552,"løsladt":13553,"750":13554,"Fren":13555,"jomfru":13556,"kines":13557,"lum":13558,"inve":13559,"foræl":13560,"olo":13561,"genvalgt":13562,"Undersø":13563,"Toy":13564,"størrelsen":13565,"arkivet":13566,"stiftelsen":13567,"Idræt":13568,"klassificeret":13569,"DI":13570,"HC":13571,"hmen":13572,"jed":13573,"abner":13574,"asser":13575,"Broen":13576,"andidat":13577,"Indenfor":13578,"renoveret":13579,"omkostninger":13580,"Giovanni":13581,"Mob":13582,"bs":13583,"riller":13584,"øgelse":13585,"anker":13586,"Tivoli":13587,"king":13588,"ws":13589,"stuen":13590,"blind":13591,"USAs":13592,"kongerige":13593,"Hitlers":13594,"dronningen":13595,"tene":13596,"agtigt":13597,"accel":13598,"ledninger":13599,"maskinen":13600,"Venstres":13601,"Nabo":13602,"%),":13603,"Audi":13604,"Neden":13605,"jene":13606,"zonen":13607,"fuldmægtig":13608,"relateret":13609,"afhængige":13610,"damer":13611,"1763":13612,"dramatisk":13613,"Centre":13614,"MTV":13615,"Rang":13616,"anholdt":13617,"lignede":13618,"værelsen":13619,"hers":13620,"stifte":13621,"præcise":13622,"Norske":13623,"jøderne":13624,"speciale":13625,"undersøgt":13626,"uregel":13627,"Fjer":13628,"MP":13629,"pus":13630,"loyal":13631,"rammen":13632,"Gabriel":13633,"Isabella":13634,"Pir":13635,"kabel":13636,"behovet":13637,"musk":13638,"styrtede":13639,"Boys":13640,"Kaj":13641,"embeds":13642,"Queens":13643,"Visse":13644,"forlang":13645,"overleve":13646,"Navn":13647,"Folketingets":13648,"Valley":13649,"Rantzau":13650,"Lise":13651,"katalog":13652,"Nationalmuseet":13653,"autoritet":13654,"fortolkning":13655,"Sit":13656,"gear":13657,"træet":13658,"ændres":13659,"Liban":13660,"Folkere":13661,"kroa":13662,"installeret":13663,"Fed":13664,"dos":13665,"maner":13666,"samtale":13667,"reducere":13668,"Hawai":13669,"tisering":13670,"Egern":13671,"Nich":13672,"Pave":13673,"ination":13674,"ellet":13675,"tilhør":13676,"1760":13677,"buske":13678,"smør":13679,"Flyet":13680,"frivilligt":13681,"nevø":13682,"ST":13683,"ydelser":13684,"beman":13685,"undervist":13686,"skriv":13687,"sessor":13688,"løbs":13689,"dyrkning":13690,"spunktet":13691,"Koln":13692,"fungerende":13693,"alistiske":13694,"olution":13695,"meldt":13696,"Unter":13697,"bedt":13698,"Elle":13699,"hængende":13700,"Projektet":13701,"iseringen":13702,"Kelly":13703,"3000":13704,"Bren":13705,"Jur":13706,"kræn":13707,"tam":13708,"søstre":13709,"herskede":13710,"hovedkontor":13711,"rækningen":13712,"hilde":13713,"romantisk":13714,"figuren":13715,"Wiener":13716,"Augu":13717,"MC":13718,"iko":13719,"indtage":13720,"merad":13721,"fremrykning":13722,"That":13723,"godser":13724,"elektrom":13725,"Storbritanniens":13726,"Regierungsbezirk":13727,"Lyon":13728,"forfatningen":13729,"legendar":13730,"pladeselskabet":13731,"elektricitet":13732,"Vold":13733,"gla":13734,"optage":13735,"hem":13736,"basen":13737,"bild":13738,"astisk":13739,"fiskere":13740,"balance":13741,"kronet":13742,"forbedrede":13743,"Rødovre":13744,"Ingeniør":13745,"informationer":13746,"Hin":13747,"pant":13748,"neur":13749,"næb":13750,"strat":13751,"Munch":13752,"gorod":13753,"dingen":13754,"sistor":13755,"tagere":13756,"Enkel":13757,"sammenbrud":13758,"101":13759,"tallets":13760,"bordet":13761,"engagement":13762,"Koch":13763,"Aven":13764,"Hop":13765,"Tas":13766,"ctic":13767,"drik":13768,"atlan":13769,"teri":13770,"search":13771,"overvin":13772,"tobak":13773,"banerne":13774,"baggrunden":13775,"Hogan":13776,"Flandern":13777,"Cu":13778,"Gluck":13779,"Shin":13780,"plik":13781,"wart":13782,"vinding":13783,"telef":13784,"uenighed":13785,"forklarede":13786,"sænket":13787,"differenti":13788,"Etiop":13789,"Home":13790,"sim":13791,"abet":13792,"modangreb":13793,"hentede":13794,"Eftersom":13795,"Bibli":13796,"drømme":13797,"forelsket":13798,"novelle":13799,"hyldest":13800,"varmt":13801,"Ditlev":13802,"Sigurd":13803,"antikken":13804,"underholdning":13805,"entin":13806,"læsning":13807,"alders":13808,"240":13809,"foretages":13810,"besøgt":13811,"Værket":13812,"Administration":13813,"Odder":13814,"Rel":13815,"mail":13816,"pers":13817,"105":13818,"stry":13819,"styrelse":13820,"Else":13821,"arrangement":13822,"kvadratkilometer":13823,"plet":13824,"verede":13825,"enevæl":13826,"protot":13827,"Chelse":13828,"borgerne":13829,"oney":13830,"Haag":13831,"fæstnings":13832,"pels":13833,"fortet":13834,"oping":13835,"urin":13836,"grevskabet":13837,"hemmelighed":13838,"Offic":13839,"Alterna":13840,"Charlottenborg":13841,"knog":13842,"wor":13843,"ædel":13844,"gio":13845,"nylig":13846,"lock":13847,"baser":13848,"indflydelsesrige":13849,"registrer":13850,"parallelt":13851,"Werner":13852,"forstærket":13853,"Kier":13854,"Skønt":13855,"længden":13856,"belgisk":13857,"litz":13858,"Brit":13859,"størrelser":13860,"Ebbe":13861,"betændelse":13862,"card":13863,"delag":13864,"Adolph":13865,"Mikael":13866,"koncentrations":13867,"Esp":13868,"spiser":13869,"final":13870,"styrer":13871,"Thur":13872,"initiati":13873,"Maked":13874,"Reykjavik":13875,"Handel":13876,"godkendte":13877,"Kalmar":13878,"Mission":13879,"Hills":13880,"rapporterede":13881,"Bjør":13882,"Pel":13883,"udgøres":13884,"sisten":13885,"roit":13886,"Hanne":13887,"fester":13888,"ichte":13889,"Bernstorff":13890,"akademiets":13891,"Railway":13892,"Ted":13893,"konferencen":13894,"østsiden":13895,"forsøget":13896,"dyrene":13897,"atomer":13898,"afslørede":13899,"reaktioner":13900,"mineral":13901,"Nobelprisen":13902,"Whit":13903,"beslag":13904,"promin":13905,"læggelse":13906,"passe":13907,"kredi":13908,"krydset":13909,"utallige":13910,"230":13911,"util":13912,"overdrog":13913,"pren":13914,"førstepladsen":13915,"virtu":13916,"bælte":13917,"teoretisk":13918,"Nicolas":13919,"Gregor":13920,"hæl":13921,"sult":13922,"kemon":13923,"inddeles":13924,"rettighederne":13925,"velop":13926,"mørk":13927,"Augusta":13928,"Kenneth":13929,"effektive":13930,"hemmelig":13931,"anklager":13932,"etablering":13933,"Montreal":13934,"ufor":13935,"stere":13936,"elleve":13937,"byomrade":13938,"hvaler":13939,"banden":13940,"moske":13941,"action":13942,"sanlæg":13943,"altertav":13944,"Slottet":13945,"krydsede":13946,"strategiske":13947,"Struen":13948,"Enkelte":13949,"gning":13950,"agnet":13951,"spal":13952,"Stur":13953,"vejret":13954,"Heart":13955,"toppede":13956,"Graham":13957,"Klubkarriere":13958,"akademiske":13959,"sørge":13960,"accepteret":13961,"oplevelse":13962,"Kjeld":13963,"evolution":13964,"omener":13965,"oduk":13966,"iten":13967,"gardene":13968,"anslaet":13969,"læring":13970,"krydse":13971,"Bowl":13972,"formance":13973,"Folkerepublik":13974,"Aud":13975,"Rac":13976,"sove":13977,"trykte":13978,"ficerer":13979,"public":13980,"hændelser":13981,"Italia":13982,"1766":13983,"CC":13984,"Gest":13985,"Jung":13986,"komprom":13987,"ægterne":13988,"Malmo":13989,"skærer":13990,"forgænger":13991,"Nurnberg":13992,"ey":13993,"nale":13994,"kaster":13995,"Mah":13996,"Isra":13997,"besøge":13998,"Vincent":13999,"Kampene":14000,"afstemningen":14001,"konklu":14002,"Pur":14003,"Turner":14004,"reserv":14005,"ekspor":14006,"gavn":14007,"centeret":14008,"Gav":14009,"Snor":14010,"das":14011,"oir":14012,"orlog":14013,"ledig":14014,"hule":14015,"enkle":14016,"Faderen":14017,"Politik":14018,"Erich":14019,"Rune":14020,"opdeles":14021,"sax":14022,"ografisk":14023,"oo":14024,"sw":14025,"beholder":14026,"less":14027,"bosættelse":14028,"Holdene":14029,"Base":14030,"videnskaben":14031,"dømmerne":14032,"Palæ":14033,"isoleret":14034,"forældrene":14035,"Renault":14036,"Ay":14037,"got":14038,"udlejet":14039,"indslag":14040,"servi":14041,"hosp":14042,"protokol":14043,"synlige":14044,"1769":14045,"sultan":14046,"favorit":14047,"Hud":14048,"high":14049,"oversættelser":14050,"osof":14051,"gelserne":14052,"Herlev":14053,"tvinge":14054,"blokke":14055,"territorier":14056,"Shep":14057,"forhindrede":14058,"atmosfære":14059,"Fj":14060,"Set":14061,"stedse":14062,"Leif":14063,"organiske":14064,"Suz":14065,"beskrivelser":14066,"Regiment":14067,"Paulus":14068,"sparti":14069,"ministeriets":14070,"Helsingborg":14071,"SO":14072,"yle":14073,"levard":14074,"vesten":14075,"gie":14076,"kantede":14077,"nedrevet":14078,"vejene":14079,"bow":14080,"passere":14081,"Ingeborg":14082,"Ety":14083,"Jos":14084,"zel":14085,"byradet":14086,"hovedturneringen":14087,"Wee":14088,"Civil":14089,"pyrami":14090,"Zurich":14091,"Hend":14092,"Nationale":14093,"rekognos":14094,"Keith":14095,"Eleon":14096,"Emp":14097,"Ian":14098,"Imper":14099,"Tub":14100,"adelen":14101,"haret":14102,"syntet":14103,"russerne":14104,"brevet":14105,"behandlingen":14106,"NT":14107,"pend":14108,"smar":14109,"bydes":14110,"banegard":14111,"Edin":14112,"spejl":14113,"Slut":14114,"Ner":14115,"guden":14116,"lejer":14117,"radets":14118,"kriter":14119,"hæder":14120,"fyrster":14121,"Malay":14122,"Fair":14123,"sygeplejer":14124,"hormon":14125,"betragtede":14126,"diplomatiske":14127,"grosserer":14128,"Kab":14129,"sop":14130,"Stras":14131,"handtere":14132,"Vild":14133,"skonkurren":14134,"Besæt":14135,"minimum":14136,"Helt":14137,"KB":14138,"cre":14139,"organisk":14140,"badminton":14141,"Common":14142,"Gerhard":14143,"bidrager":14144,"pistol":14145,"ann":14146,"staben":14147,"revision":14148,"cement":14149,"metaller":14150,"Studenter":14151,"Guinea":14152,"Ene":14153,"rækkevidde":14154,"generel":14155,"tabel":14156,"1778":14157,"docent":14158,"oplevet":14159,"Læng":14160,"depu":14161,"krudt":14162,"nette":14163,"Inger":14164,"motion":14165,"astiske":14166,"1782":14167,"Warner":14168,"CO2":14169,"gyldne":14170,"kvinderne":14171,"Tube":14172,"dle":14173,"salen":14174,"athan":14175,"udsted":14176,"faca":14177,"ffet":14178,"Kristen":14179,"Sønderjysk":14180,"forvalter":14181,"stasjon":14182,"Bosnien":14183,"dtyske":14184,"Clark":14185,"holstenske":14186,"Figh":14187,"emp":14188,"erup":14189,"udarbejdede":14190,"udpræget":14191,"tour":14192,"1740":14193,"grundspillet":14194,"folks":14195,"Konig":14196,"niende":14197,"skelne":14198,"Eisen":14199,"Gib":14200,"Mick":14201,"auktion":14202,"sok":14203,"erings":14204,"modtagelse":14205,"ægge":14206,"Holmens":14207,"vistnok":14208,"BI":14209,"Tod":14210,"oro":14211,"tildeles":14212,"Stuar":14213,"Benny":14214,"angives":14215,"midlertidige":14216,"Foundation":14217,"Israels":14218,"Aur":14219,"Lasse":14220,"rønt":14221,"lades":14222,"visende":14223,"German":14224,"brydende":14225,"udsendelser":14226,"rockband":14227,"krops":14228,"Sarah":14229,"Mongol":14230,"Gad":14231,"bydele":14232,"roste":14233,"hoven":14234,"valuta":14235,"landsholds":14236,"1785":14237,"tjenester":14238,"Chelsea":14239,"Morgan":14240,"Tau":14241,"Child":14242,"trænet":14243,"renes":14244,"fulden":14245,"pperne":14246,"generalsekretær":14247,"Matth":14248,"fæd":14249,"Hamil":14250,"esingle":14251,"usta":14252,"nærmede":14253,"tures":14254,"forbedring":14255,"Factor":14256,"Hæren":14257,"perto":14258,"oka":14259,"begik":14260,"sammenslutning":14261,"smab":14262,"Mariager":14263,"hoteller":14264,"Slægten":14265,"Grun":14266,"fig":14267,"you":14268,"oger":14269,"oversætter":14270,"lancerede":14271,"træden":14272,"itis":14273,"fastlagt":14274,"Reser":14275,"matematisk":14276,"vurderet":14277,"fænomener":14278,"kriminalitet":14279,"strengt":14280,"Albanien":14281,"ukasus":14282,"Boeing":14283,"Nil":14284,"bbe":14285,"kningen":14286,"lyr":14287,"obi":14288,"magi":14289,"syntese":14290,"voks":14291,"Distrik":14292,"Beatles":14293,"forstærkninger":14294,"hukommelse":14295,"Aleksand":14296,"hederne":14297,"parad":14298,"fortsættelse":14299,"emnet":14300,"Posten":14301,"elektro":14302,"foretrækker":14303,"Rachel":14304,"Dannebrogordenen":14305,"hydro":14306,"vrede":14307,"streg":14308,"onto":14309,"opløste":14310,"geologiske":14311,"skaberne":14312,"ione":14313,"Nordiske":14314,"uroy":14315,"Indone":14316,"Trump":14317,"betjenes":14318,"pansrede":14319,"Marshall":14320,"HD":14321,"Ana":14322,"Seminar":14323,"Riis":14324,"Hz":14325,"Rhein":14326,"stine":14327,"forblive":14328,"ulykker":14329,"flyder":14330,"synder":14331,"vindu":14332,"stribe":14333,"Gottorp":14334,"RNA":14335,"fet":14336,"lish":14337,"sgard":14338,"reference":14339,"terapi":14340,"ensis":14341,"arktiske":14342,"sporvogn":14343,"Tilbage":14344,"Lykke":14345,"forsvinder":14346,"Organisation":14347,"Loven":14348,"pakke":14349,"beat":14350,"opbak":14351,"sias":14352,"Chr":14353,"komponenter":14354,"Erne":14355,"Illin":14356,"involverede":14357,"vedligeholdelse":14358,"French":14359,"Cop":14360,"phy":14361,"berger":14362,"ista":14363,"færger":14364,"Filipp":14365,"Science":14366,"1682":14367,"Demografi":14368,"helikopter":14369,"forveksles":14370,"EA":14371,"Yam":14372,"opstillede":14373,"sian":14374,"holdtes":14375,"ænder":14376,"rigdom":14377,"stillende":14378,"Arme":14379,"Sever":14380,"Heide":14381,"fløjte":14382,"1768":14383,"matematiske":14384,"Lucas":14385,"Provinsen":14386,"bjæl":14387,"mister":14388,"tibet":14389,"forreste":14390,"skive":14391,"vinderne":14392,"strafik":14393,"givere":14394,"grevinde":14395,"almindelighed":14396,"1786":14397,"forventet":14398,"optrædener":14399,"besættelses":14400,"forfølgelse":14401,"Størstedelen":14402,"antaget":14403,"moders":14404,"vestsiden":14405,"verdensmesterskabet":14406,"Grønne":14407,"arbejdsløs":14408,"01":14409,"Elev":14410,"foder":14411,"skuer":14412,"spyd":14413,"Moon":14414,"Eddie":14415,"afsnittet":14416,"supple":14417,"Ægteskab":14418,"forelæsninger":14419,"Google":14420,"Mill":14421,"kulstof":14422,"kvæl":14423,"præsenterede":14424,"Wester":14425,"distance":14426,"dighederne":14427,"Knut":14428,"bindings":14429,"journalister":14430,"religioner":14431,"Murray":14432,"optagelserne":14433,"vegetation":14434,"tortur":14435,"Ea":14436,"innov":14437,"manøv":14438,"brøn":14439,"feber":14440,"turnerede":14441,"planerne":14442,"sangere":14443,"Bech":14444,"Kristi":14445,"Langs":14446,"Tommy":14447,"Kay":14448,"Slam":14449,"Sardin":14450,"køber":14451,"Malet":14452,"Vorpommern":14453,"bestyrelsesformand":14454,"Sofie":14455,"protestantiske":14456,"Standard":14457,"Broadway":14458,"Illinois":14459,"Wie":14460,"jung":14461,"kninger":14462,"indsigt":14463,"usse":14464,"toer":14465,"vandret":14466,"Meget":14467,"Tarn":14468,"dominerede":14469,"nazistiske":14470,"Year":14471,"Østeuropa":14472,"stien":14473,"udkast":14474,"resingle":14475,"forbød":14476,"kompeten":14477,"Metro":14478,"Gordon":14479,"Shanghai":14480,"Hviderusland":14481,"Lun":14482,"trædelse":14483,"svovl":14484,"klipper":14485,"skarriere":14486,"Games":14487,"komponisten":14488,"videregaende":14489,"hjulpet":14490,"azine":14491,"dimension":14492,"hastigheden":14493,"ulus":14494,"kulturel":14495,"Italiens":14496,"skriftlige":14497,"skarpe":14498,"country":14499,"indvandrere":14500,"arkitekter":14501,"Tir":14502,"edal":14503,"landgang":14504,"samledes":14505,"import":14506,"Kompag":14507,"passede":14508,"stance":14509,"udtrykte":14510,"beboerne":14511,"indspilning":14512,"overbevist":14513,"parkering":14514,"Finnmark":14515,"forgængeren":14516,"03":14517,"aus":14518,"hvir":14519,"jin":14520,"sle":14521,"miste":14522,"Libyen":14523,"Pokemon":14524,"Brock":14525,"hima":14526,"Nationalpark":14527,"Præsident":14528,"Blomstringen":14529,"Henriette":14530,"Hertugdømmet":14531,"FK":14532,"unikke":14533,"teolog":14534,"venter":14535,"placeres":14536,"Nordir":14537,"kollegi":14538,"Finans":14539,"Dagmar":14540,"renovering":14541,"residens":14542,"Listen":14543,"SU":14544,"core":14545,"anliggender":14546,"blog":14547,"præmi":14548,"Herbert":14549,"planeten":14550,"Nordre":14551,"instruerede":14552,"foretrak":14553,"computerspil":14554,"rulle":14555,"produktet":14556,"kernes":14557,"mmer":14558,"væld":14559,"harina":14560,"Kommunes":14561,"plus":14562,"forsynings":14563,"krydsere":14564,"autonome":14565,"Techn":14566,"benævnes":14567,"triumf":14568,"Krab":14569,"Low":14570,"ares":14571,"alistisk":14572,"hvorledes":14573,"ubade":14574,"uston":14575,"Sex":14576,"ydede":14577,"strøms":14578,"mekanisk":14579,"skovene":14580,"respektive":14581,"Cob":14582,"Tes":14583,"ischen":14584,"hob":14585,"neret":14586,"bande":14587,"landskamp":14588,"tynde":14589,"søjler":14590,"musical":14591,"BNP":14592,"udformning":14593,"hartkorn":14594,"Libanon":14595,"Ax":14596,"øjnene":14597,"Barn":14598,"Western":14599,"dateres":14600,"konstruktionen":14601,"hvede":14602,"js":14603,"udkanten":14604,"flaget":14605,"imi":14606,"pengene":14607,"Moore":14608,"tredjeplads":14609,"erhvervet":14610,"fødeby":14611,"spurgt":14612,"gummi":14613,"Jyske":14614,"RAF":14615,"itation":14616,"festen":14617,"generob":14618,"kæder":14619,"press":14620,"præstationer":14621,"opførsel":14622,"-\"":14623,"Ach":14624,"Sli":14625,"1730":14626,"nius":14627,"Glostrup":14628,"afspejler":14629,"Cirk":14630,"siven":14631,"indven":14632,"listerne":14633,"farlig":14634,"aktie":14635,"Emmy":14636,"dynam":14637,"Aristo":14638,"kniv":14639,"Nakskov":14640,"Nelson":14641,".”":14642,"ores":14643,"alia":14644,"onisk":14645,"besidder":14646,"serklær":14647,"Magasin":14648,"Andersens":14649,"fotografier":14650,"fossil":14651,"handværkere":14652,"Ministeriet":14653,"Sibirien":14654,"Dak":14655,"erkendelse":14656,"dagbog":14657,"bange":14658,"moser":14659,"nograf":14660,"Herluf":14661,"stadigt":14662,"variationer":14663,"sandsynlighed":14664,"Løven":14665,"mingham":14666,"Kjøbenhavn":14667,"rekorder":14668,"gehejmerad":14669,"Sagen":14670,"ags":14671,"søs":14672,"Radhus":14673,"dramatiske":14674,"hattan":14675,"Panzer":14676,"sprocessen":14677,"Vad":14678,"kold":14679,"nærede":14680,"bakker":14681,"komiteen":14682,"Gø":14683,"zona":14684,"enzy":14685,"sturneringen":14686,"forløbet":14687,"tilhænger":14688,"saur":14689,"udenlands":14690,"bore":14691,"færdiggjort":14692,"felttoget":14693,"defineres":14694,"tyndt":14695,"Lissa":14696,"Afri":14697,"galt":14698,"Militær":14699,"skarpt":14700,"Nicola":14701,"sekretari":14702,"identificeret":14703,"Forbunds":14704,"gartner":14705,"Egen":14706,"Pow":14707,"objek":14708,"rence":14709,"Birmingham":14710,"Olympiske":14711,"manuskripter":14712,"overenskom":14713,"detek":14714,"riet":14715,"ladte":14716,"135":14717,"anvendtes":14718,"vindue":14719,"sparken":14720,"Misso":14721,"trængt":14722,"infanteridivision":14723,"Mater":14724,"cas":14725,"dur":14726,"artede":14727,"omstri":14728,"slange":14729,"toil":14730,"Buch":14731,"varierende":14732,"Felix":14733,"Romerriget":14734,"650":14735,"udmærket":14736,"mariti":14737,"hoveder":14738,"forekommende":14739,"skolerne":14740,"Grav":14741,"munding":14742,"Jin":14743,"Sve":14744,"aneren":14745,"ulere":14746,"Johans":14747,"Byer":14748,"folkemusik":14749,"Milan":14750,"Bin":14751,"SI":14752,"avl":14753,"indlagt":14754,"overlod":14755,"ends":14756,"aliserede":14757,"legemer":14758,"krigsskibe":14759,"højdepunkt":14760,"conom":14761,"svømning":14762,"elimin":14763,"Universal":14764,"legetøj":14765,"indtaget":14766,"ventar":14767,"marx":14768,"fremført":14769,"lyser":14770,"følgere":14771,"velige":14772,"affel":14773,"fødevare":14774,"episoden":14775,"kongressen":14776,"Alaska":14777,"Balduin":14778,"Dick":14779,"Field":14780,"yin":14781,"sir":14782,"Andy":14783,
[...]
