{"version":"1.0","truncation":null,"padding":null,"added_tokens":[{"id":0,"special":true,"content":"<unk>","single_word":false,"lstrip":false,"rstrip":false,"normalized":false}],"normalizer":{"type":"Sequence","normalizers":[{"type":"NFD"},{"type":"StripAccents"}]},"pre_tokenizer":{"type":"Whitespace"},"post_processor":null,"decoder":{"type":"Metaspace","replacement":"▁","str_rep":"▁","add_prefix_space":true},"model":{"type":"BPE","dropout":null,"unk_token":null,"continuing_subword_prefix":null,"end_of_word_suffix":null,"fuse_unk":false,"vocab":{"<unk>":0,"!":1,"\"":2,"#":3,"$":4,"%":5,"&":6,"'":7,"(":8,")":9,"*":10,"+":11,",":12,"-":13,".":14,"/":15,"0":16,"1":17,"2":18,"3":19,"4":20,"5":21,"6":22,"7":23,"8":24,"9":25,":":26,";":27,"=":28,"?":29,"@":30,"A":31,"B":32,"C":33,"D":34,"E":35,"F":36,"G":37,"H":38,"I":39,"J":40,"K":41,"L":42,"M":43,"N":44,"O":45,"P":46,"Q":47,"R":48,"S":49,"T":50,"U":51,"V":52,"W":53,"X":54,"Y":55,"Z":56,"[":57,"\\":58,"]":59,"^":60,"_":61,"`":62,"a":63,"b":64,"c":65,"d":66,"e":67,"f":68,"g":69,"h":70,"i":71,"j":72,"k":73,"l":74,"m":75,"n":76,"o":77,"p":78,"q":79,"r":80,"s":81,"t":82,"u":83,"v":84,"w":85,"x":86,"y":87,"z":88,"{":89,"|":90,"}":91,"~":92,"¡":93,"£":94,"§":95,"¨":96,"«":97,"­":98,"®":99,"°":100,"±":101,"²":102,"³":103,"´":104,"µ":105,"·":106,"¹":107,"º":108,"»":109,"¼":110,"½":111,"Æ":112,"Ð":113,"×":114,"Ø":115,"Þ":116,"ß":117,"æ":118,"ð":119,"ø":120,"þ":121,"Đ":122,"đ":123,"Ħ":124,"ħ":125,"ı":126,"Ł":127,"ł":128,"ŋ":129,"Œ":130,"œ":131,"Ə":132,"ƒ":133,"ɐ":134,"ɑ":135,"ɔ":136,"ə":137,"ɛ":138,"ɨ":139,"ɪ":140,"ɾ":141,"ʀ":142,"ʁ":143,"ʃ":144,"ʊ":145,"ʒ":146,"ʲ":147,"ʹ":148,"ʻ":149,"ʾ":150,"ʿ":151,"ˈ":152,"ː":153,"˚":154,"Α":155,"Β":156,"Γ":157,"Δ":158,"Ε":159,"Η":160,"Θ":161,"Ι":162,"Κ":163,"Λ":164,"Μ":165,"Ν":166,"Ο":167,"Π":168,"Ρ":169,"Σ":170,"Τ":171,"Φ":172,"Χ":173,"Ω":174,"α":175,"β":176,"γ":177,"δ":178,"ε":179,"ζ":180,"η":181,"θ":182,"ι":183,"κ":184,"λ":185,"μ":186,"ν":187,"ξ":188,"ο":189,"π":190,"ρ":191,"ς":192,"σ":193,"τ":194,"υ":195,"φ":196,"χ":197,"ψ":198,"ω":199,"І":200,"Ј":201,"А":202,"Б":203,"В":204,"Г":205,"Д":206,"Е":207,"Ж":208,"З":209,"И":210,"К":211,"Л":212,"М":213,"Н":214,"О":215,"П":216,"Р":217,"С":218,"Т":219,"У":220,"Ф":221,"Х":222,"Ц":223,"Ч":224,"Ш":225,"Э":226,"Ю":227,"Я":228,"а":229,"б":230,"в":231,"г":232,"д":233,"е":234,"ж":235,"з":236,"и":237,"к":238,"л":239,"м":240,"н":241,"о":242,"п":243,"р":244,"с":245,"т":246,"у":247,"ф":248,"х":249,"ц":250,"ч":251,"ш":252,"щ":253,"ъ":254,"ы":255,"ь":256,"э":257,"ю":258,"я":259,"і":260,"ј":261,"љ":262,"њ":263,"ћ":264,"џ":265,"қ":266,"ү":267,"ә":268,"Ө":269,"ө":270,"Ա":271,"Ե":272,"Լ":273,"Կ":274,"Հ":275,"Մ":276,"Ս":277,"ա":278,"բ":279,"գ":280,"դ":281,"ե":282,"զ":283,"թ":284,"ի":285,"լ":286,"խ":287,"կ":288,"հ":289,"ղ":290,"մ":291,"յ":292,"ն":293,"շ":294,"ո":295,"պ":296,"ռ":297,"ս":298,"վ":299,"տ":300,"ր":301,"ց":302,"ւ":303,"ք":304,"א":305,"ב":306,"ג":307,"ד":308,"ה":309,"ו":310,"ז":311,"ח":312,"ט":313,"י":314,"כ":315,"ל":316,"ם":317,"מ":318,"ן":319,"נ":320,"ס":321,"ע":322,"ף":323,"פ":324,"צ":325,"ק":326,"ר":327,"ש":328,"ת":329,"ء":330,"ا":331,"ب":332,"ة":333,"ت":334,"ث":335,"ج":336,"ح":337,"خ":338,"د":339,"ذ":340,"ر":341,"ز":342,"س":343,"ش":344,"ص":345,"ض":346,"ط":347,"ظ":348,"ع":349,"غ":350,"ـ":351,"ف":352,"ق":353,"ك":354,"ل":355,"م":356,"ن":357,"ه":358,"و":359,"ى":360,"ي":361,"پ":362,"چ":363,"ډ":364,"ژ":365,"ک":366,"گ":367,"ہ":368,"ۆ":369,"ی":370,"ێ":371,"ې":372,"ە":373,"ܐ":374,"ܝ":375,"ܪ":376,"क":377,"ग":378,"ज":379,"ट":380,"त":381,"द":382,"न":383,"प":384,"ब":385,"म":386,"य":387,"र":388,"ल":389,"व":390,"श":391,"स":392,"ह":393,"গ":394,"দ":395,"ন":396,"ব":397,"ম":398,"র":399,"ল":400,"க":401,"ட":402,"த":403,"ன":404,"ப":405,"ம":406,"ர":407,"ก":408,"ง":409,"ช":410,"ด":411,"ต":412,"ท":413,"น":414,"บ":415,"พ":416,"ม":417,"ย":418,"ร":419,"ล":420,"ว":421,"ส":422,"ห":423,"อ":424,"ะ":425,"า":426,"เ":427,"་":428,"ག":429,"ང":430,"བ":431,"ར":432,"ས":433,"ა":434,"ბ":435,"გ":436,"დ":437,"ე":438,"ვ":439,"ზ":440,"თ":441,"ი":442,"კ":443,"ლ":444,"მ":445,"ნ":446,"ო":447,"პ":448,"რ":449,"ს":450,"ტ":451,"უ":452,"ფ":453,"ქ":454,"ღ":455,"ყ":456,"შ":457,"ჩ":458,"ც":459,"ძ":460,"წ":461,"ხ":462,"ჯ":463,"ᄀ":464,"ᄂ":465,"ᄃ":466,"ᄅ":467,"ᄆ":468,"ᄇ":469,"ᄉ":470,"ᄊ":471,"ᄋ":472,"ᄌ":473,"ᄎ":474,"ᄏ":475,"ᄐ":476,"ᄑ":477,"ᄒ":478,"ᅡ":479,"ᅢ":480,"ᅣ":481,"ᅥ":482,"ᅦ":483,"ᅧ":484,"ᅨ":485,"ᅩ":486,"ᅪ":487,"ᅬ":488,"ᅭ":489,"ᅮ":490,"ᅯ":491,"ᅱ":492,"ᅲ":493,"ᅳ":494,"ᅴ":495,"ᅵ":496,"ᆨ":497,"ᆫ":498,"ᆯ":499,"ᆷ":500,"ᆸ":501,"ᆺ":502,"ᆼ":503,"ᚠ":504,"ᚢ":505,"ᚦ":506,"ᚱ":507,"ᚴ":508,"ᚾ":509,"ᛁ":510,"ᛅ":511,"ᛋ":512,"ᛏ":513,"ᛚ":514,"᛫":515,"᛬":516,"‌":517,"‐":518,"‑":519,"–":520,"—":521,"‘":522,"’":523,"“":524,"”":525,"„":526,"†":527,"•":528,"…":529,"‰":530,"′":531,"″":532,"€":533,"№":534,"ℵ":535,"→":536,"∈":537,"−":538,"√":539,"∞":540,"≈":541,"≤":542,"≥":543,"⋅":544,"─":545,"│":546,"└":547,"├":548,"★":549,"☉":550,"♭":551,"⟨":552,"⟩":553,"い":554,"か":555,"き":556,"し":557,"と":558,"の":559,"ん":560,"ア":561,"イ":562,"ウ":563,"カ":564,"キ":565,"ク":566,"コ":567,"シ":568,"ス":569,"タ":570,"ッ":571,"テ":572,"ト":573,"ハ":574,"ヒ":575,"フ":576,"ホ":577,"マ":578,"ラ":579,"リ":580,"ル":581,"レ":582,"ロ":583,"ン":584,"・":585,"ー":586,"一":587,"丁":588,"七":589,"万":590,"三":591,"上":592,"下":593,"东":594,"两":595,"中":596,"丰":597,"临":598,"义":599,"之":600,"乌":601,"乐":602,"九":603,"乡":604,"二":605,"云":606,"五":607,"井":608,"亚":609,"京":610,"亭":611,"人":612,"什":613,"仁":614,"仓":615,"仙":616,"伊":617,"会":618,"佛":619,"依":620,"保":621,"信":622,"候":623,"元":624,"光":625,"克":626,"八":627,"公":628,"六":629,"兰":630,"关":631,"兴":632,"内":633,"军":634,"农":635,"凤":636,"刘":637,"则":638,"利":639,"前":640,"力":641,"加":642,"勒":643,"包":644,"化":645,"北":646,"区":647,"十":648,"千":649,"华":650,"南":651,"博":652,"卡":653,"厂":654,"原":655,"县":656,"双":657,"口":658,"古":659,"台":660,"号":661,"司":662,"合":663,"吉":664,"同":665,"后":666,"吐":667,"向":668,"吴":669,"周":670,"咀":671,"和":672,"哈":673,"唐":674,"喀":675,"嘉":676,"嘎":677,"四":678,"回":679,"团":680,"园":681,"国":682,"图":683,"國":684,"土":685,"圩":686,"地":687,"场":688,"坊":689,"坑":690,"坝":691,"坡":692,"坪":693,"城":694,"埠":695,"基":696,"堂":697,"堆":698,"堡":699,"塔":700,"塘":701,"墩":702,"夏":703,"外":704,"多":705,"大":706,"天":707,"太":708,"头":709,"如":710,"子":711,"孔":712,"字":713,"孙":714,"孜":715,"学":716,"宁":717,"安":718,"宋":719,"宗":720,"官":721,"定":722,"宝":723,"宫":724,"家":725,"富":726,"寨":727,"寺":728,"寿":729,"小":730,"尔":731,"尖":732,"尼":733,"尾":734,"屯":735,"山":736,"屿":737,"岔":738,"岗":739,"岛":740,"岩":741,"岭":742,"峡":743,"峰":744,"島":745,"川":746,"州":747,"工":748,"巴":749,"市":750,"布":751,"帝":752,"常":753,"干":754,"平":755,"年":756,"广":757,"庄":758,"庆":759,"库":760,"底":761,"店":762,"庙":763,"康":764,"建":765,"式":766,"张":767,"当":768,"彝":769,"彦":770,"徐":771,"德":772,"心":773,"成":774,"房":775,"所":776,"扎":777,"托":778,"拉":779,"排":780,"敖":781,"文":782,"斯":783,"新":784,"方":785,"族":786,"旗":787,"日":788,"昌":789,"明":790,"星":791,"春":792,"普":793,"景":794,"曲":795,"曹":796,"月":797,"朗":798,"望":799,"朝":800,"木":801,"本":802,"朱":803,"机":804,"李":805,"村":806,"杜":807,"来":808,"杨":809,"東":810,"松":811,"板":812,"林":813,"果":814,"柏":815,"查":816,"柳":817,"树":818,"株":819,"根":820,"格":821,"桂":822,"桃":823,"桑":824,"桥":825,"梁":826,"梅":827,"楼":828,"横":829,"正":830,"武":831,"毛":832,"民":833,"水":834,"永":835,"汉":836,"江":837,"池":838,"汤":839,"沙":840,"沟":841,"河":842,"治":843,"泉":844,"法":845,"泡":846,"波":847,"泰":848,"洋":849,"洛":850,"洞":851,"津":852,"洪":853,"洲":854,"流":855,"浦":856,"浪":857,"海":858,"清":859,"渡":860,"温":861,"港":862,"湖":863,"湾":864,"源":865,"溪":866,"满":867,"滩":868,"潭":869,"灣":870,"火":871,"灵":872,"热":873,"牛":874,"特":875,"玉":876,"王":877,"玛":878,"珠":879,"琼":880,"瑶":881,"瓦":882,"甘":883,"生":884,"田":885,"甲":886,"界":887,"白":888,"百":889,"皇":890,"盖":891,"盘":892,"盛":893,"石":894,"矿":895,"社":896,"神":897,"福":898,"秀":899,"科":900,"窝":901,"立":902,"站":903,"章":904,"竹":905,"米":906,"紫":907,"红":908,"纳":909,"结":910,"罗":911,"羊":912,"美":913,"群":914,"老":915,"联":916,"胜":917,"胡":918,"自":919,"良":920,"色":921,"芦":922,"花":923,"苏":924,"苗":925,"英":926,"茶":927,"草":928,"荣":929,"莫":930,"莲":931,"营":932,"萨":933,"董":934,"蒲":935,"藏":936,"虎":937,"街":938,"西":939,"观":940,"角":941,"谷":942,"贡":943,"赛":944,"赤":945,"赵":946,"路":947,"车":948,"辛":949,"边":950,"达":951,"连":952,"通":953,"道":954,"那":955,"郊":956,"郎":957,"部":958,"郭":959,"都":960,"里":961,"野":962,"金":963,"钦":964,"铁":965,"铜":966,"铺":967,"错":968,"镇":969,"长":970,"门":971,"阳":972,"阿":973,"陈":974,"院":975,"陵":976,"隆":977,"雄":978,"雅":979,"集":980,"雪":981,"青":982,"面":983,"音":984,"顶":985,"顺":986,"风":987,"香":988,"马":989,"高":990,"鱼":991,"鲁":992,"鸡":993,"鹤":994,"鹿":995,"麦":996,"麻":997,"黄":998,"黑":999,"龙":1000,"en":1001,"ar":1002,"er":1003,"an":1004,"st":1005,"et":1006,"or":1007,"in":1008,"at":1009,"om":1010,"de":1011,"li":1012,"ra":1013,"ch":1014,"ed":1015,"al":1016,"den":1017,"il":1018,"och":1019,"av":1020,"sk":1021,"un":1022,"on":1023,"ing":1024,"la":1025,"kt":1026,"re":1027,"am":1028,"med":1029,"and":1030,"ste":1031,"va":1032,"sta":1033,"it":1034,"lig":1035,"del":1036,"for":1037,"ord":1038,"em":1039,"el":1040,"som":1041,"eter":1042,"ur":1043,"der":1044,"og":1045,"per":1046,"art":1047,"Den":1048,"ol":1049,"att":1050,"ig":1051,"ov":1052,"var":1053,"na":1054,"be":1055,"man":1056,"da":1057,"sn":1058,"erb":1059,"ck":1060,"kten":1061,"ri":1062,"land":1063,"ederb":1064,"ederbord":1065,"pa":1066,"ill":1067,"ma":1068,"ingar":1069,"19":1070,"ut":1071,"gen":1072,"are":1073,"sa":1074,"ska":1075,"ud":1076,"itt":1077,"ot":1078,"me":1079,"hu":1080,"tem":1081,"ger":1082,"inn":1083,"meter":1084,"tra":1085,"ran":1086,"is":1087,"es":1088,"unt":1089,"till":1090,"atur":1091,"pp":1092,"us":1093,"mm":1094,"ber":1095,"ett":1096,"temper":1097,"medel":1098,"ga":1099,"id":1100,"aturen":1101,"aden":1102,"all":1103,"temperaturen":1104,"medeltemperaturen":1105,"vud":1106,"huvud":1107,"manaden":1108,"ter":1109,"km":1110,"snitt":1111,"of":1112,"omsnitt":1113,"nederbord":1114,"under":1115,"det":1116,"ost":1117,"fe":1118,"ade":1119,"ari":1120,"over":1121,"ligger":1122,"sla":1123,"od":1124,"In":1125,"ion":1126,"Ar":1127,"as":1128,"van":1129,"finn":1130,"ilj":1131,"trakten":1132,"finns":1133,"ning":1134,"pr":1135,"ue":1136,"rev":1137,"reg":1138,"sam":1139,"le":1140,"sy":1141,"kil":1142,"amilj":1143,"ometer":1144,"kilometer":1145,"familj":1146,"ad":1147,"Li":1148,"slakt":1149,"runt":1150,"familjen":1151,"br":1152,"vast":1153,"jan":1154,"hav":1155,"ta":1156,"arter":1157,"ul":1158,"skrev":1159,"op":1160,"alla":1161,"maste":1162,"ia":1163,"sp":1164,"nar":1165,"slaktet":1166,"sen":1167,"fol":1168,"delen":1169,"atal":1170,"skrevs":1171,"se":1172,"uari":1173,"iv":1174,"beskrevs":1175,"tor":1176,"underarter":1177,"han":1178,"lista":1179,"mat":1180,"atalog":1181,"Life":1182,"Catalog":1183,"Catalogue":1184,"Inga":1185,"des":1186,"listade":1187,"havet":1188,"rat":1189,"ik":1190,"staden":1191,"har":1192,"ell":1193,"landet":1194,"20":1195,"iga":1196,"kalla":1197,"um":1198,"huvudstaden":1199,"kom":1200,"te":1201,"stor":1202,"os":1203,"het":1204,"mar":1205,"ang":1206,"illi":1207,"ju":1208,"invan":1209,"vad":1210,"invanare":1211,"ak":1212,"regn":1213,"men":1214,"Gen":1215,"Ars":1216,"Arsmedeltemperaturen":1217,"varmaste":1218,"kallaste":1219,"18":1220,"kvad":1221,"kvadrat":1222,"igaste":1223,"ic":1224,"kvadratkilometer":1225,"ust":1226,"genomsnitt":1227,"milli":1228,"torra":1229,"millimeter":1230,"vax":1231,"ag":1232,"arsn":1233,"Genomsnitt":1234,"torraste":1235,"Genomsnittlig":1236,"arsnederbord":1237,"regnigaste":1238,"kan":1239,"folk":1240,"ver":1241,"limat":1242,"syd":1243,"ock":1244,"januari":1245,"ug":1246,"upp":1247,"nord":1248,"ens":1249,"sak":1250,"pl":1251,"vid":1252,"ok":1253,"isk":1254,"fl":1255,"fran":1256,"befolk":1257,"ande":1258,"Det":1259,"juli":1260,"iska":1261,"hog":1262,"ent":1263,"ningar":1264,"ser":1265,"ro":1266,"ist":1267,"ka":1268,"ovin":1269,"komm":1270,"Tra":1271,"bor":1272,"tal":1273,"son":1274,"huvudsak":1275,"heten":1276,"ha":1277,"fter":1278,"opp":1279,"ann":1280,"Trakten":1281,"nor":1282,"ien":1283,"rangen":1284,"hall":1285,"rader":1286,"yg":1287,"provin":1288,"sl":1289,"ember":1290,"pun":1291,"ort":1292,"berg":1293,"sj":1294,"gr":1295,"narheten":1296,"gan":1297,"provinsen":1298,"so":1299,"ugust":1300,"klimat":1301,"ir":1302,"hogsta":1303,"eller":1304,"ac":1305,"St":1306,"kon":1307,"ick":1308,"Runt":1309,"he":1310,"giv":1311,"august":1312,"augusti":1313,"An":1314,"sv":1315,"min":1316,"200":1317,"Ter":1318,"befolkat":1319,"punkten":1320,"Han":1321,"ionen":1322,"sin":1323,"ram":1324,"kommun":1325,"jar":1326,"sig":1327,"ningarna":1328,"amn":1329,"si":1330,"und":1331,"ant":1332,"lag":1333,"Terrangen":1334,"ung":1335,"kr":1336,"sart":1337,"ala":1338,"yt":1339,"ub":1340,"ab":1341,"mark":1342,"dar":1343,"Ch":1344,"givningarna":1345,"bar":1346,"vatt":1347,"dra":1348,"yr":1349,"lar":1350,"00":1351,"oli":1352,"oster":1353,"bet":1354,"gar":1355,"sydost":1356,"ft":1357,"star":1358,"ster":1359,"talet":1360,"tva":1361,"ob":1362,"uk":1363,"rik":1364,"samhall":1365,"skog":1366,"Al":1367,"gra":1368,"ation":1369,"ana":1370,"skap":1371,"hi":1372,"era":1373,"oc":1374,"efter":1375,"Nar":1376,"red":1377,"gl":1378,"erna":1379,"lev":1380,"eg":1381,"tid":1382,"ex":1383,"yck":1384,"nordvast":1385,"ling":1386,"vaster":1387,"mot":1388,"vaxt":1389,"febr":1390,"februari":1391,"cen":1392,"somra":1393,"bland":1394,"uni":1395,"ea":1396,"ligen":1397,"201":1398,"storre":1399,"ott":1400,"norr":1401,"nordost":1402,"vatten":1403,"ats":1404,"ne":1405,"ades":1406,"rikt":1407,"uper":1408,"ida":1409,"forst":1410,"hor":1411,"dec":1412,"199":1413,"soder":1414,"aven":1415,"blev":1416,"sydvast":1417,"far":1418,"ier":1419,"tr":1420,"ligt":1421,"tat":1422,"ba":1423,"juni":1424,"str":1425,"ina":1426,").":1427,"hade":1428,"hon":1429,"Lak":1430,"namn":1431,"dre":1432,"gi":1433,"ningen":1434,"december":1435,"oll":1436,"yn":1437,"inte":1438,"ten":1439,"je":1440,"spel":1441,"En":1442,"andra":1443,"fram":1444,"drag":1445,"centra":1446,"De":1447,"kuper":1448,"verk":1449,"Lake":1450,"kuperad":1451,"liga":1452,"\".":1453,"ds":1454,"ou":1455,"par":1456,"di":1457,"samhalle":1458,"iskt":1459,"ganska":1460,"vil":1461,"Narmaste":1462,"uh":1463,"val":1464,"satt":1465,"ek":1466,"mo":1467,"vi":1468,"sep":1469,"fod":1470,"ygg":1471,"oppen":1472,"yl":1473,"198":1474,"centrala":1475,"ans":1476,"uc":1477,"arna":1478,"bestar":1479,"ater":1480,"197":1481,"gles":1482,"io":1483,"17":1484,"bil":1485,"lang":1486,"ap":1487,"nara":1488,"glesbefolkat":1489,"im":1490,"wa":1491,"las":1492,"omgivningarna":1493,"jor":1494,"Toppen":1495,"vaxer":1496,"ry":1497,"ge":1498,"alt":1499,"led":1500,"ober":1501,"slut":1502,"nov":1503,"fa":1504,"stat":1505,"tember":1506,"jande":1507,"september":1508,"smark":1509,"Kuh":1510,"fick":1511,"196":1512,"Un":1513,"regionen":1514,"onen":1515,"Le":1516,"vattendrag":1517,"fodd":1518,"amp":1519,"mer":1520,"\",":1521,"sven":1522,"platt":1523,"Jo":1524,"aren":1525,"bo":1526,"november":1527,"lad":1528,"omra":1529,"ingen":1530,"ve":1531,"lan":1532,"her":1533,"okt":1534,"ata":1535,"ara":1536,"stra":1537,"sjo":1538,"mars":1539,"hol":1540,"foljande":1541,"Om":1542,"forsta":1543,"bruk":1544,"fjar":1545,"ong":1546,"genom":1547,"edan":1548,"tatbefolkat":1549,"ket":1550,"ella":1551,"mindre":1552,"For":1553,"alb":1554,"hem":1555,"res":1556,"mal":1557,"ja":1558,"spe":1559,"ti":1560,"sitt":1561,"huvudsakligen":1562,"Fran":1563,"gor":1564,"vaxtart":1565,"),":1566,"Ma":1567,"vis":1568,"verig":1569,"Pa":1570,"fta":1571,"oktober":1572,"Me":1573,"ycket":1574,"Sverig":1575,"jord":1576,"ind":1577,"ets":1578,"ukt":1579,"stad":1580,"samt":1581,"stall":1582,"igt":1583,"195":1584,"fors":1585,"bygg":1586,"ulle":1587,"La":1588,"ny":1589,"lat":1590,"ard":1591,"maj":1592,"rinn":1593,"hus":1594,"bas":1595,"ers":1596,"arbet":1597,"bi":1598,"fjaril":1599,"tv":1600,"Ne":1601,"plat":1602,"193":1603,"ellan":1604,"15":1605,"16":1606,"ci":1607,"fatt":1608,"mycket":1609,"ho":1610,"kor":1611,"ingsomra":1612,"194":1613,"rinningsomra":1614,"part":1615,"erade":1616,"kring":1617,"syfta":1618,"ement":1619,"ie":1620,"ty":1621,"sklimat":1622,"mus":1623,"up":1624,"kar":1625,"vaxter":1626,"befolkad":1627,"tt":1628,"ali":1629,"Mo":1630,"kl":1631,"ron":1632,"co":1633,"skri":1634,"storsta":1635,"apr":1636,"holm":1637,"arl":1638,"dod":1639,"jur":1640,"vand":1641,"ocksa":1642,"ce":1643,"nog":1644,"riktning":1645,"odra":1646,"bli":1647,"etta":1648,"idae":1649,"april":1650,"Mar":1651,"Tr":1652,"ven":1653,"fil":1654,"obefolkad":1655,"Be":1656,"ys":1657,"nu":1658,"rak":1659,"yd":1660,"tog":1661,"mellan":1662,"vande":1663,"inge":1664,"ner":1665,"omradet":1666,"Sa":1667,"by":1668,"hal":1669,"Omgivningarna":1670,"kall":1671,"Br":1672,"ca":1673,"Sverige":1674,"bl":1675,"lade":1676,"vilket":1677,"omm":1678,"samman":1679,"Par":1680,"jordbruk":1681,"sedan":1682,"192":1683,"zonen":1684,"kommunen":1685,"bore":1686,"lit":1687,"pre":1688,"mon":1689,"190":1690,"staten":1691,"sydostra":1692,"platser":1693,"ken":1694,"boreala":1695,"klimatzonen":1696,"don":1697,"Nor":1698,"fore":1699,"dom":1700,"ow":1701,"ich":1702,"nas":1703,"ementet":1704,"anada":1705,"fjarilsart":1706,"bred":1707,"landskap":1708,"inne":1709,"Ot":1710,"ke":1711,"omkring":1712,"ratt":1713,"gs":1714,"ff":1715,"Sp":1716,"san":1717,"yp":1718,"kra":1719,"hand":1720,"avann":1721,"Kanada":1722,"annat":1723,"tvav":1724,"iet":1725,"Re":1726,"lien":1727,"dr":1728,"hans":1729,"ars":1730,"opiskt":1731,"int":1732,"Bo":1733,"ip":1734,"veck":1735,"delstaten":1736,"sten":1737,"ye":1738,"jordbruksmark":1739,"kyr":1740,"Stock":1741,"sodra":1742,"lis":1743,"stek":1744,"Hon":1745,"norra":1746,"ica":1747,"erat":1748,"El":1749,"Sch":1750,"tvavinge":1751,"tvavingeart":1752,"Under":1753,"ula":1754,"ris":1755,"ola":1756,"lighet":1757,"Lac":1758,"Stockholm":1759,"10":1760,"svensk":1761,"Bra":1762,"tre":1763,"tawa":1764,"Ottawa":1765,"ogra":1766,"kun":1767,"fin":1768,"lia":1769,"ine":1770,"ton":1771,"nings":1772,"nes":1773,"els":1774,"Ett":1775,"Ber":1776,"che":1777,"Ba":1778,"Gu":1779,"djur":1780,"fi":1781,"hel":1782,"samma":1783,"Art":1784,"ym":1785,"San":1786,"inom":1787,"band":1788,"ya":1789,"bu":1790,"amer":1791,"avrinningsomra":1792,"189":1793,"Pr":1794,"qu":1795,"Te":1796,"rad":1797,"Cre":1798,"hen":1799,"ensis":1800,"Va":1801,"mi":1802,"rist":1803,"kv":1804,"ban":1805,"bredning":1806,"oph":1807,"tur":1808,"14":1809,"form":1810,"Col":1811,"..":1812,"gjor":1813,"anska":1814,"ende":1815,"samling":1816,"tag":1817,"anvand":1818,"ns":1819,"ull":1820,"gang":1821,"Bar":1822,"vara":1823,"ytt":1824,"skol":1825,"prod":1826,"dess":1827,"utan":1828,"Cer":1829,"ess":1830,"ostra":1831,"akt":1832,"igare":1833,"skulle":1834,"Fin":1835,"fri":1836,"bel":1837,"eri":1838,"(\"":1839,"mann":1840,"lo":1841,"itet":1842,"Efter":1843,"liv":1844,"hj":1845,"dist":1846,"gall":1847,"lik":1848,"\")":1849,"vastra":1850,"givande":1851,"somrade":1852,"eae":1853,"sar":1854,"stand":1855,"13":1856,"Creek":1857,"oken":1858,"do":1859,"pel":1860,"olog":1861,"Klimat":1862,"Sk":1863,"oppet":1864,"lam":1865,"fort":1866,"Ha":1867,"sekt":1868,"Bred":1869,"flera":1870,"slag":1871,"kommer":1872,"cker":1873,"basen":1874,"ork":1875,"bra":1876,"omgivande":1877,"Se":1878,"rom":1879,"ian":1880,"iss":1881,"ct":1882,"grund":1883,"Ge":1884,"varl":1885,"ings":1886,"terrangen":1887,"gick":1888,"eng":1889,"lin":1890,"utbredning":1891,"lov":1892,"vag":1893,"ora":1894,"12":1895,"Bredden":1896,"ele":1897,"ura":1898,"ena":1899,"enligt":1900,"senare":1901,"ansk":1902,"sina":1903,"hemi":1904,"lem":1905,"Or":1906,"natur":1907,"olika":1908,"lands":1909,"ide":1910,"utveck":1911,"hemiboreala":1912,"188":1913,"nag":1914,"sjon":1915,"Co":1916,"ph":1917,"The":1918,"inga":1919,"bergig":1920,"nad":1921,"trad":1922,"olit":1923,"kand":1924,"agg":1925,"Man":1926,"Stor":1927,"dock":1928,"Mon":1929,"vaxtlighet":1930,"fall":1931,"vit":1932,"forb":1933,"ham":1934,"alen":1935,"Ko":1936,"rid":1937,"gav":1938,"fot":1939,"amerik":1940,"ote":1941,"ben":1942,"insekt":1943,"stan":1944,"Artens":1945,"He":1946,"nation":1947,"utbredningsomrade":1948,"detta":1949,"Tropiskt":1950,"ogram":1951,"net":1952,"ss":1953,"blandskog":1954,"minist":1955,"lades":1956,"Ta":1957,"Her":1958,"arta":1959,"ins":1960,"tidigare":1961,"tar":1962,"kop":1963,"Medel":1964,"gjorde":1965,"iker":1966,"jarn":1967,"flug":1968,"rike":1969,"skalb":1970,"person":1971,"inter":1972,"Cerro":1973,"ommun":1974,"Per":1975,"iz":1976,"heter":1977,"konom":1978,"sammans":1979,"konst":1980,"depart":1981,"hn":1982,"186":1983,"Klimatet":1984,"flugor":1985,"oma":1986,"Que":1987,"New":1988,"187":1989,"svenska":1990,"distrikt":1991,"gran":1992,"Mount":1993,"jon":1994,"aria":1995,"So":1996,"pub":1997,"ile":1998,"tillhor":1999,"Av":2000,"histor":2001,"sson":2002,"spr":2003,"strom":2004,"alv":2005,"lite":2006,"Ut":2007,"borj":2008,"Finland":2009,"Savann":2010,"rich":2011,"Savannklimat":2012,"ator":2013,"antalet":2014,"ru":2015,"departementet":2016,"off":2017,"ark":2018,"exem":2019,"Are":2020,"rit":2021,"est":2022,"blad":2023,"dag":2024,"pen":2025,"plan":2026,"cia":2027,"ekonom":2028,"Ka":2029,"sch":2030,"cer":2031,"gu":2032,"ium":2033,"ofta":2034,"nade":2035,"oss":2036,"innan":2037,"Har":2038,"sland":2039,"Ph":2040,"smarker":2041,"bur":2042,"grasmarker":2043,"pt":2044,"ppklimat":2045,"ivers":2046,"busk":2047,"ustra":2048,"plats":2049,"Ro":2050,"Ca":2051,"kallt":2052,"skalbagg":2053,"skalbaggsart":2054,"ror":2055,"stod":2056,"insektsart":2057,"ren":2058,"yc":2059,"stu":2060,"yra":2061,"fisk":2062,"iva":2063,"Hen":2064,"sal":2065,"dem":2066,"bilda":2067,"grupp":2068,"Frank":2069,"skil":2070,"borg":2071,"manga":2072,"SA":2073,"Da":2074,"pra":2075,"vill":2076,"Arten":2077,"erar":2078,"ius":2079,"kraft":2080,"fra":2081,"bia":2082,"tillsammans":2083,"arten":2084,"mor":2085,"ity":2086,"ep":2087,"Ra":2088,"000":2089,"Hels":2090,"gallande":2091,"Vid":2092,"Jak":2093,"Brasi":2094,"Arean":2095,"11":2096,"nat":2097,"Helsing":2098,"indel":2099,"Mal":2100,"stappklimat":2101,"met":2102,"rig":2103,"ota":2104,"denna":2105,"skar":2106,"forsamling":2107,"von":2108,"enda":2109,"siska":2110,"slakte":2111,"busklandskap":2112,"album":2113,"ko":2114,"ish":2115,"Carl":2116,"musik":2117,"stora":2118,"Ad":2119,"dens":2120,"po":2121,"borjade":2122,"Th":2123,"kant":2124,"publi":2125,"dels":2126,"utom":2127,"gron":2128,"bild":2129,"riks":2130,"ila":2131,"ler":2132,"Mex":2133,"kat":2134,"Del":2135,"flyg":2136,"sydlig":2137,"oi":2138,"exempel":2139,"unda":2140,"polit":2141,"Dar":2142,"kulle":2143,"Antalet":2144,"dal":2145,"za":2146,"eln":2147,"spelare":2148,"sma":2149,"ira":2150,"30":2151,"vet":2152,"Austra":2153,"On":2154,"sason":2155,"hoj":2156,"Eur":2157,"ioner":2158,"Gun":2159,"Nord":2160,"sydvastra":2161,"natt":2162,"Mor":2163,"au":2164,"ey":2165,"svar":2166,"vastlig":2167,"vin":2168,"Gr":2169,"sock":2170,"du":2171,"nordostra":2172,"to":2173,"ander":2174,"okenklimat":2175,"ops":2176,"stam":2177,"proc":2178,"th":2179,"II":2180,"185":2181,"esien":2182,"orn":2183,"produc":2184,"landsklimat":2185,"sti":2186,"rel":2187,"else":2188,"USA":2189,"bara":2190,"peri":2191,"Bu":2192,"stads":2193,"stracker":2194,"Iran":2195,"lovskog":2196,"eder":2197,"vann":2198,"tav":2199,"Sam":2200,"ani":2201,"eh":2202,"egen":2203,"elart":2204,"Johan":2205,"namnet":2206,"Indon":2207,"vat":2208,"ivis":2209,"hov":2210,"Indonesien":2211,"if":2212,"allt":2213,"kn":2214,"go":2215,"laget":2216,"foret":2217,"sprak":2218,"samhallen":2219,"sjalv":2220,"kul":2221,"bb":2222,"sub":2223,"Helsingfors":2224,"unn":2225,"cher":2226,"derna":2227,"barn":2228,"illa":2229,"ama":2230,"ts":2231,"Karl":2232,"klas":2233,"Jakarta":2234,"Ja":2235,"steklar":2236,"fann":2237,"heran":2238,"Frankrike":2239,"rek":2240,"ii":2241,"ellt":2242,"Teheran":2243,"stekelart":2244,"rum":2245,"ald":2246,"organ":2247,"bak":2248,"atus":2249,"Hi":2250,"ite":2251,"Con":2252,"dessa":2253,"kort":2254,"ux":2255,"krig":2256,"hos":2257,"ots":2258,"org":2259,"area":2260,"nordvastra":2261,"ske":2262,"we":2263,"Kommun":2264,"Sc":2265,"Hans":2266,"persiska":2267,"nya":2268,"lor":2269,"cir":2270,"medlem":2271,"boll":2272,"Kar":2273,"ava":2274,"Ste":2275,"folj":2276,"sid":2277,"mosa":2278,"spelade":2279,"ekonomiska":2280,"bin":2281,"milj":2282,"Medelhav":2283,"vik":2284,"ovr":2285,"djursart":2286,"forfatt":2287,"ua":2288,"con":2289,"film":2290,"Am":2291,"sju":2292,"25":2293,"utveckling":2294,"Medelhavsklimat":2295,"verksam":2296,"dae":2297,"John":2298,"fem":2299,"Car":2300,"yll":2301,"lex":2302,"Bi":2303,"erades":2304,"fyra":2305,"ico":2306,"Ol":2307,"ckt":2308,"varit":2309,"ministrat":2310,"Inlandsklimat":2311,"jo":2312,"Je":2313,"una":2314,"ografi":2315,"Pol":2316,"Ed":2317,"honom":2318,"flytt":2319,"mest":2320,"ale":2321,"ski":2322,"Kon":2323,"sol":2324,"Rio":2325,"gam":2326,"osa":2327,"egor":2328,"naturlig":2329,"tot":2330,"foren":2331,"Sven":2332,"Ty":2333,"otter":2334,"erad":2335,"borjan":2336,"rekt":2337,"rukt":2338,"sprung":2339,"stats":2340,"tan":2341,"tempererat":2342,"rinningsomradet":2343,"Avrinningsomradet":2344,"pe":2345,"avrinningsomrade":2346,"Klad":2347,"sex":2348,"les":2349,"Na":2350,"Lag":2351,"ktar":2352,"kunde":2353,"pas":2354,"dare":2355,"blir":2356,"2000":2357,"sun":2358,"ker":2359,"tes":2360,"mosaik":2361,"Kladogram":2362,"fer":2363,"flo":2364,"lj":2365,"vo":2366,"stadse":2367,"stadsegron":2368,"hela":2369,"syste":2370,"tran":2371,"but":2372,"roll":2373,"hett":2374,"period":2375,"port":2376,"Lon":2377,"sc":2378,"esh":2379,"ice":2380,"Di":2381,"infor":2382,"Cor":2383,"fanns":2384,"distriktet":2385,"184":2386,"syn":2387,"prof":2388,"aceae":2389,"2010":2390,"hur":2391,"Ser":2392,"fast":2393,"dent":2394,"kvinn":2395,"Australien":2396,"savann":2397,"nagra":2398,"stud":2399,"univers":2400,"landskapet":2401,"ly":2402,"alp":2403,"Kommunen":2404,"dern":2405,"lingar":2406,"dig":2407,"skade":2408,"Char":2409,"Upp":2410,"andet":2411,"anda":2412,"Detta":2413,"ions":2414,"presen":2415,"Eng":2416,"Pe":2417,"count":2418,"vikt":2419,"ceae":2420,"Hav":2421,"sm":2422,"uli":2423,"gul":2424,"socken":2425,"bade":2426,"ita":2427,"opa":2428,"Gunung":2429,"kter":2430,"eta":2431,"kol":2432,"ursprung":2433,"pri":2434,"Kina":2435,"sh":2436,"bok":2437,"elsen":2438,"Sjon":2439,"ona":2440,"Hu":2441,"ova":2442,"len":2443,"Med":2444,"Sant":2445,"the":2446,"gangen":2447,"igen":2448,"Oster":2449,"bergs":2450,"Tor":2451,"brit":2452,"monsun":2453,"tiden":2454,"rar":2455,"monsunklimat":2456,"ons":2457,"innebar":2458,"cirka":2459,"Gote":2460,"bro":2461,"omfatt":2462,"organis":2463,"Chile":2464,"Po":2465,"one":2466,"24":2467,"erande":2468,"ole":2469,"kin":2470,"ymp":2471,"visa":2472,"mang":2473,"Som":2474,"delar":2475,"orter":2476,"Ac":2477,"ned":2478,"amerikansk":2479,"Befolk":2480,"dor":2481,"britann":2482,"Cha":2483,"klub":2484,"divis":2485,"olf":2486,"itar":2487,"Storbritann":2488,"eras":2489,"bla":2490,"gift":2491,"spindel":2492,"atan":2493,"Till":2494,"ope":2495,"orkide":2496,"ji":2497,"ition":2498,"slapp":2499,"TV":2500,"unds":2501,"ley":2502,"Var":2503,"ass":2504,"regnskog":2505,"byg":2506,"foretag":2507,"iken":2508,"skolan":2509,"Wal":2510,"Gra":2511,"svamp":2512,"kategor":2513,"sna":2514,"ationer":2515,"back":2516,"Ver":2517,"2006":2518,"holl":2519,"lu":2520,"spar":2521,"skapet":2522,"amot":2523,"anien":2524,"Wil":2525,"Willi":2526,"gent":2527,"anvands":2528,"rag":2529,"komp":2530,"grav":2531,"byggna":2532,"lagen":2533,"ros":2534,"Alger":2535,"Reg":2536,"forekommer":2537,"50":2538,"studer":2539,"sag":2540,"ministrativ":2541,"ox":2542,"Syd":2543,"meh":2544,"fun":2545,"reger":2546,"ili":2547,"cent":2548,"pla":2549,"burg":2550,"klar":2551,"Ind":2552,"Dan":2553,"hamn":2554,"2008":2555,"Sy":2556,"procent":2557,"regnskogsklimat":2558,"riar":2559,"norrut":2560,"Storbritannien":2561,"ring":2562,"istan":2563,"countyt":2564,"skland":2565,"fordes":2566,"London":2567,"landsk":2568,"City":2569,"nagon":2570,"Ru":2571,"deras":2572,"soderut":2573,"tjan":2574,"2007":2575,"fag":2576,"orna":2577,"profess":2578,"Mad":2579,"hennes":2580,"ampar":2581,"jer":2582,"Bro":2583,"Er":2584,"eli":2585,"gens":2586,"Fri":2587,"Su":2588,"chef":2589,"pat":2590,"enskap":2591,"atta":2592,"Mel":2593,"slutet":2594,"sang":2595,"21":2596,"nagot":2597,"mare":2598,"Histor":2599,"antal":2600,"Chesh":2601,"lok":2602,"kvar":2603,"%.":2604,"UC":2605,"Cheshmeh":2606,"ive":2607,"lagg":2608,"universitet":2609,"bec":2610,"pop":2611,"engel":2612,"omy":2613,"ith":2614,"unge":2615,"ash":2616,"moj":2617,"fotboll":2618,"utgor":2619,"Fred":2620,"ruktbar":2621,"hot":2622,"ene":2623,"dri":2624,"forsk":2625,"Jam":2626,"tidigt":2627,"2009":2628,"lav":2629,"26":2630,"Ex":2631,"23":2632,"gas":2633,"ofruktbar":2634,"cus":2635,"Af":2636,"iko":2637,"yo":2638,"28":2639,"fekt":2640,"William":2641,"Ga":2642,"Des":2643,"Ny":2644,"sok":2645,"medan":2646,"iver":2647,"Hol":2648,"langd":2649,"hy":2650,"27":2651,"kyrkan":2652,"IUC":2653,"IUCN":2654,"Bur":2655,"endast":2656,"Tan":2657,"fal":2658,"Provin":2659,"cis":2660,"hjart":2661,"oner":2662,"sad":2663,"2011":2664,"Ham":2665,"hl":2666,"Pal":2667,"sty":2668,"full":2669,"ze":2670,"ern":2671,"darefter":2672,"Si":2673,"We":2674,"aldre":2675,"stort":2676,"seud":2677,"sasongen":2678,"kel":2679,"kantonen":2680,"huset":2681,"muse":2682,"totalt":2683,"direkt":2684,"tit":2685,"varande":2686,"dotter":2687,"Ab":2688,"ationen":2689,"teck":2690,"serien":2691,"Mus":2692,"nen":2693,"Brasilien":2694,"adi":2695,"osterut":2696,"gren":2697,"ori":2698,"vasterut":2699,"vs":2700,"Qu":2701,"fortsatt":2702,"grunda":2703,"As":2704,"varier":2705,"produkt":2706,"ika":2707,"ont":2708,"tex":2709,"2005":2710,"Enligt":2711,"22":2712,"tropiskt":2713,"Lu":2714,"Lin":2715,"Quebec":2716,"sing":2717,"ps":2718,"bety":2719,"Ho":2720,"mitt":2721,"fte":2722,"kte":2723,"SM":2724,"avrinningsomradet":2725,"lt":2726,"At":2727,"ment":2728,"oper":2729,"hektar":2730,"eld":2731,"Ons":2732,"prakt":2733,"framst":2734,"sommar":2735,"uth":2736,"Tyskland":2737,"kung":2738,"igh":2739,"Ben":2740,"svampar":2741,"2016":2742,"Havet":2743,"ighet":2744,"lek":2745,"alli":2746,"delas":2747,"myr":2748,"ore":2749,"kategoris":2750,"Ti":2751,"2004":2752,"ate":2753,"oni":2754,"gel":2755,"Fil":2756,"hr":2757,"183":2758,"29":2759,"ef":2760,"1990":2761,"represen":2762,"ane":2763,"kam":2764,"Mari":2765,"uss":2766,"start":2767,"iat":2768,"Kab":2769,"inat":2770,"mmer":2771,"Mag":2772,"Sar":2773,"ret":2774,"personer":2775,"ric":2776,"onia":2777,"Bor":2778,"sista":2779,"2012":2780,"gruppen":2781,"mask":2782,"elser":2783,"via":2784,"borgs":2785,"its":2786,"Gar":2787,"allet":2788,"our":2789,"1980":2790,"Mexiko":2791,"Sveriges":2792,"Christ":2793,"bon":2794,"skrig":2795,"amen":2796,"upper":2797,"delstats":2798,"eck":2799,"forande":2800,"cha":2801,"fler":2802,"gener":2803,"fan":2804,"ille":2805,"Colom":2806,"mas":2807,"kategoriserar":2808,"lack":2809,"gard":2810,"region":2811,"gre":2812,"ligare":2813,"jen":2814,"slutade":2815,"Fa":2816,"Kung":2817,"skola":2818,"Vi":2819,"kap":2820,"vig":2821,"delstatshuvudstaden":2822,"rop":2823,"rot":2824,"fukt":2825,"britt":2826,"Val":2827,"Ander":2828,"Mac":2829,"1970":2830,"ropp":2831,"2014":2832,"ovrigt":2833,"tillverk":2834,"ledde":2835,"kallas":2836,"bladig":2837,"deltog":2838,"vers":2839,"vilken":2840,"England":2841,"Men":2842,"chen":2843,"Spanien":2844,"jekt":2845,"ghan":2846,"kyrka":2847,"skra":2848,"ister":2849,"sidan":2850,"pol":2851,"iner":2852,"stit":2853,"Koh":2854,"fang":2855,"eftersom":2856,"samband":2857,"af":2858,"Fl":2859,"Saint":2860,"spekt":2861,"tyska":2862,"divisionen":2863,"Dom":2864,"Sal":2865,"hop":2866,"jam":2867,"ivt":2868,"bert":2869,"ford":2870,"varld":2871,"ument":2872,"40":2873,"redje":2874,"Peter":2875,"ici":2876,"spelar":2877,"tackt":2878,"Norra":2879,"aldr":2880,"1960":2881,"ville":2882,"administrativ":2883,"esiska":2884,"haller":2885,"bran":2886,"styr":2887,"opsis":2888,"ernas":2889,"rond":2890,"ure":2891,"bildades":2892,"2015":2893,"fjarilar":2894,"Ag":2895,"soci":2896,"bat":2897,"Stockholms":2898,"arbete":2899,"mannisk":2900,"spindelart":2901,"glob":2902,"brott":2903,"Mart":2904,"ordning":2905,"Em":2906,"ain":2907,"ni":2908,"jung":2909,"god":2910,"kur":2911,"mast":2912,"que":2913,"ec":2914,"flyn":2915,"redan":2916,"mesta":2917,"anvan":2918,"Dist":2919,"nis":2920,"horningar":2921,"Jon":2922,"nattflyn":2923,"sked":2924,"rod":2925,"Sh":2926,"spind":2927,"Kal":2928,"ologi":2929,"ult":2930,"hang":2931,"avvatt":2932,"debut":2933,"asit":2934,"gem":2935,"lingen":2936,"Paul":2937,"Gran":2938,"Tur":2939,"kvinnor":2940,"fle":2941,"matare":2942,"Fol":2943,"forfattare":2944,"rott":2945,"filmen":2946,"ino":2947,"fik":2948,"Svenska":2949,"2013":2950,"dena":2951,"opter":2952,"Island":2953,"barr":2954,"popul":2955,"2002":2956,"fart":2957,"ario":2958,"bada":2959,"ytan":2960,"rost":2961,"spindlar":2962,"aret":2963,"sil":2964,"innare":2965,"ytter":2966,"fred":2967,"pan":2968,"kron":2969,"Vast":2970,"sning":2971,"idag":2972,"Hal":2973,"Kust":2974,"cy":2975,"forde":2976,"ini":2977,"vagen":2978,"hjartbladig":2979,"skyd":2980,"Lou":2981,"sjuk":2982,"tredje":2983,"mak":2984,"milit":2985,"AB":2986,"periodiskt":2987,"Afghan":2988,"Alex":2989,"bag":2990,"Brasilia":2991,"allman":2992,"list":2993,"Norr":2994,"no":2995,"Go":2996,"stroms":2997,"Ita":2998,"stri":2999,"2018":3000,"old":3001,"zi":3002,"reproduc":3003,"blomm":3004,"lyck":3005,"ering":3006,"2003":3007,"1999":3008,"svampart":3009,"Can":3010,"cho":3011,"Afghanistan":3012,"Ri":3013,"vars":3014,"Rom":3015,"skapa":3016,"Dav":3017,"gora":3018,"parasit":3019,"amerikanska":3020,"mos":3021,"stift":3022,"ledamot":3023,"sarskil":3024,"Pi":3025,"vissa":3026,"falt":3027,"Befolknings":3028,"istallet":3029,"mis":3030,"Kr":3031,"dy":3032,"Befolkningsutveckling":3033,"hora":3034,"rondiss":3035,"sat":3036,"Pas":3037,"bal":3038,"gj":3039,"omas":3040,"60":3041,"troll":3042,"vattnet":3043,"skriget":3044,"flod":3045,"undet":3046,"helt":3047,"fuktigt":3048,"aver":3049,"Geor":3050,"tysk":3051,"ema":3052,"Inter":3053,"subtropiskt":3054,"Rab":3055,"arrondiss":3056,"Mexico":3057,"byggdes":3058,"pal":3059,"kallad":3060,"Region":3061,"okrat":3062,"esi":3063,"kallar":3064,"forn":3065,"myn":3066,"Mer":3067,"Van":3068,"sala":3069,"num":3070,"barrskog":3071,"dam":3072,"krit":3073,"gamla":3074,"Ost":3075,"mmet":3076,"riket":3077,"svart":3078,"ganger":3079,"emi":3080,"omrade":3081,"Goteborg":3082,"lever":3083,"dis":3084,"Kabul":3085,"Com":3086,"ors":3087,"reproducerande":3088,"sags":3089,"ress":3090,"olymp":3091,"arkite":3092,"otten":3093,"Kustklimat":3094,"kultur":3095,"Indien":3096,"arrondissementet":3097,"koping":3098,"bit":3099,"varje":3100,"180":3101,"1900":3102,"ordforande":3103,"Europa":3104,"orten":3105,"Bel":3106,"وه":3107,"omyia":3108,"karriar":3109,"guver":3110,"Is":3111,"100":3112,"slaget":3113,"ordningen":3114,"lander":3115,"darfor":3116,"avax":3117,"atten":3118,"kyrk":3119,"Colum":3120,"Sm":3121,"Aven":3122,"Cal":3123,"Air":3124,"sluttar":3125,"nytt":3126,"tillbak":3127,"VM":3128,"Provincia":3129,"Mc":3130,"mestadels":3131,"iro":3132,"los":3133,"Danmark":3134,"tro":3135,"Las":3136,"Mich":3137,"saker":3138,"beskri":3139,"helm":3140,"hojden":3141,"Ju":3142,"uren":3143,"program":3144,"Bog":3145,"arbetade":3146,"2001":3147,"guld":3148,"kare":3149,"sand":3150,"65":3151,"vard":3152,"Min":3153,"Uppsala":3154,"icus":3155,"Land":3156,"blom":3157,"internation":3158,"Paris":3159,"unta":3160,"Brit":3161,"blivit":3162,"2017":3163,"framgang":3164,"gt":3165,"Hy":3166,"flyttade":3167,"Pri":3168,"Koud":3169,"ogon":3170,"system":3171,"republi":3172,"Ont":3173,"Bul":3174,"kanda":3175,"vidare":3176,"globalt":3177,"ria":3178,"aten":3179,"tu":3180,"Denna":3181,"70":3182,"80":3183,"gras":3184,"ersatt":3185,"ack":3186,"stallning":3187,"jarvi":3188,"kinesiska":3189,"vilka":3190,"Colombia":3191,"Ten":3192,"reser":3193,"kropp":3194,"Ap":3195,"nande":3196,"1998":3197,"Bay":3198,"Biografi":3199,"George":3200,"strukt":3201,"spinnare":3202,"Pseud":3203,"Soder":3204,"mag":3205,"ytor":3206,"hjalp":3207,"Erik":3208,"Ontario":3209,"kallade":3210,"stitut":3211,"langhorningar":3212,"hitt":3213,"medlemmar":3214,"ogs":3215,"fon":3216,"vux":3217,"pris":3218,"radet":3219,"jet":3220,"tekn":3221,"Mic":3222,"skrift":3223,"Sta":3224,"Pet":3225,"savannskog":3226,"vel":3227,"1971":3228,"tryck":3229,"nam":3230,"national":3231,"oga":3232,"speci":3233,"edon":3234,"ras":3235,"mt":3236,"staende":3237,"Mat":3238,"annan":3239,"Loma":3240,"Maria":3241,"Krist":3242,"HI":3243,"Tri":3244,"yta":3245,"konstnar":3246,"Lo":3247,"zz":3248,"engelska":3249,"Sedan":3250,"utanfor":3251,"bid":3252,"litter":3253,"Tim":3254,"grev":3255,"utbild":3256,"historia":3257,"Mountain":3258,"Kat":3259,"skon":3260,"Mas":3261,"oides":3262,"Los":3263,"vare":3264,"spelen":3265,"%,":3266,"Met":3267,"1992":3268,"York":3269,"uch":3270,"eur":3271,"lac":3272,"Mot":3273,"ockey":3274,"iden":3275,"Rober":3276,"trakt":3277,"ograf":3278,"por":3279,"dagen":3280,"All":3281,"Sten":3282,"64":3283,"1994":3284,"bock":3285,"ungefar":3286,"Madrid":3287,"River":3288,"ktis":3289,"ix":3290,"bandet":3291,"British":3292,"Herc":3293,"sas":3294,"uta":3295,"varlden":3296,"Nu":3297,"My":3298,"delse":3299,"stil":3300,"31":3301,"Jar":3302,"Ul":3303,"gavs":3304,"Sol":3305,"Do":3306,"1950":3307,"ocko":3308,"Ou":3309,"slott":3310,"orts":3311,"strand":3312,"tri":3313,"varierad":3314,"Tid":3315,"makt":3316,"verksamhet":3317,"brada":3318,"tillbaka":3319,"bad":3320,"sade":3321,"Georg":3322,"can":3323,"avar":3324,"Sim":3325,"aler":3326,"Columbia":3327,"Dra":3328,"tus":3329,"osten":3330,"terade":3331,"master":3332,"studerade":3333,"uppstroms":3334,"stritar":3335,"%).":3336,"Ger":3337,"oversatt":3338,"Jean":3339,"iago":3340,"ljus":3341,"Tall":3342,"Nation":3343,"vetenskap":3344,"itz":3345,"ank":3346,"ides":3347,"Quebrada":3348,"provins":3349,"spor":3350,"brev":3351,"dat":3352,"vent":3353,"1996":3354,"terna":3355,"Hel":3356,"osit":3357,"franska":3358,"alj":3359,"halv":3360,"arnas":3361,"SMHI":3362,"styrel":3363,"Jawa":3364,"Santiago":3365,"yggor":3366,"Bland":3367,"Marocko":3368,"IF":3369,"professor":3370,"Bon":3371,"jarnen":3372,"fli":3373,"stopp":3374,"vald":3375,"Louis":3376,"delavrinningsomrade":3377,"hojd":3378,"bed":3379,"varlds":3380,"Pro":3381,"oren":3382,"Don":3383,"Delavrinningsomrade":3384,"onom":3385,"tvahjartbladig":3386,"Far":3387,"fo":3388,"landska":3389,"staf":3390,"1995":3391,"uel":3392,"beratt":3393,"vattenytor":3394,"1991":3395,"motor":3396,"arab":3397,"Italien":3398,"Rabat":3399,"naden":3400,"oth":3401,"Res":3402,"Lind":3403,"sjoprocent":3404,"vart":3405,"til":3406,"Bosn":3407,"byggnad":3408,"Sodra":3409,"henne":3410,"forsok":3411,"ges":3412,"verkade":3413,"dagar":3414,"udde":3415,"resul":3416,"Dal":3417,"emot":3418,"Punta":3419,"kunna":3420,"pass":3421,"aris":3422,"Medelhojden":3423,"1997":3424,"elli":3425,"Bre":3426,"get":3427,"ward":3428,"1993":3429,"fab":3430,"adem":3431,"formen":3432,"bror":3433,"ki":3434,"Eu":3435,"Bosnien":3436,"mannen":3437,"Andre":3438,"Count":3439,"slapptes":3440,"basta":3441,"demokrat":3442,"Pre":3443,"skan":3444,"saga":3445,"90":3446,"forhall":3447,"ytterligare":3448,"last":3449,"varg":3450,"albumet":3451,"ovina":3452,"hin":3453,"nuvarande":3454,"jud":3455,"Sen":3456,"Cen":3457,"ood":3458,"ryska":3459,"skatt":3460,"amnet":3461,"hund":3462,"South":3463,"poli":3464,"lub":3465,".\"":3466,"orth":3467,"framfor":3468,"sida":3469,"presi":3470,"Herceg":3471,"skraft":3472,"ero":3473,"mac":3474,"tol":3475,"roman":3476,"1930":3477,"mel":3478,"nom":3479,"pro":3480,"Wa":3481,"tjanst":3482,"Ke":3483,"itali":3484,"Historia":3485,"Argent":3486,"kriget":3487,"miljoner":3488,"minister":3489,"das":3490,"Du":3491,"ustri":3492,"garden":3493,"Jab":3494,"ism":3495,"tradde":3496,"Bou":3497,"fiskart":3498,"vapen":3499,"Bak":3500,"chi":3501,"skt":3502,"flesta":3503,"hopp":3504,"com":3505,"OS":3506,"farande":3507,"Mi":3508,"studier":3509,"Jac":3510,"bort":3511,"Lang":3512,"Hercegovina":3513,"Hill":3514,"Nil":3515,"1988":3516,"Lund":3517,"jorn":3518,"Berg":3519,"serie":3520,"Univers":3521,"ovan":3522,"Gust":3523,"Santa":3524,"Ant":3525,"2019":3526,"forma":3527,"fr":3528,"punkt":3529,"mastare":3530,"bart":3531,"1920":3532,"Fer":3533,"latt":3534,"Bogota":3535,"lut":3536,"Kyr":3537,"Dessa":3538,"gatan":3539,"amar":3540,"1800":3541,"togs":3542,"کوه":3543,"ilus":3544,"Charles":3545,"Camp":3546,"orkideer":3547,"sall":3548,"kraftdjursart":3549,"handel":3550,"isse":3551,"olympiska":3552,"osof":3553,"Ur":3554,"urt":3555,"radi":3556,"ibland":3557,"arkitekt":3558,"hast":3559,"upptackt":3560,"Ken":3561,"behand":3562,"iteten":3563,"iaceae":3564,"alet":3565,"Wilhelm":3566,"Sha":3567,"bos":3568,"Nag":3569,"Bat":3570,"cka":3571,"Ain":3572,"Argentina":3573,"got":3574,"Norge":3575,"visar":3576,"typ":3577,"Mun":3578,"halla":3579,"Gustav":3580,"sport":3581,"loss":3582,"flyt":3583,"biflo":3584,"provinshuvudstaden":3585,"Malmo":3586,"lamnade":3587,"Op":3588,"ider":3589,"sel":3590,"Pan":3591,"iti":3592,"1989":3593,"odes":3594,"lika":3595,"Distri":3596,"Eli":3597,"nast":3598,"1940":3599,"sens":3600,"Desa":3601,"bergstopp":3602,"Ep":3603,"myggor":3604,"Algeriet":3605,"lant":3606,"oj":3607,"Robert":3608,"1974":3609,"loppet":3610,"Vaster":3611,"sman":3612,"Fried":3613,"skall":3614,"rang":3615,"jap":3616,"Sara":3617,"igheter":3618,"darmed":3619,"fortfarande":3620,"batt":3621,"innehaller":3622,"1952":3623,"1987":3624,"Lan":3625,"republiken":3626,"mera":3627,"weiz":3628,"Lud":3629,"August":3630,"ney":3631,"unga":3632,"wan":3633,"Gam":3634,"langre":3635,"varldskriget":3636,"1984":3637,"laten":3638,"Bir":3639,"klubben":3640,"fly":3641,"fartyg":3642,"1986":3643,"Pen":3644,"varav":3645,"stol":3646,"reh":3647,"ks":3648,"ast":3649,"County":3650,"matcher":3651,"teater":3652,"oul":3653,"brok":3654,"orkideart":3655,"sarskilt":3656,"station":3657,"Kan":3658,"nig":3659,"grupper":3660,"Gre":3661,"oblem":3662,"su":3663,"Il":3664,"skal":3665,"ulus":3666,"lic":3667,"flodar":3668,"bestam":3669,"utgiv":3670,"avvattnar":3671,"zo":3672,"Ku":3673,"dju":3674,"nades":3675,"dub":3676,"model":3677,"bus":3678,"ovjet":3679,"filosof":3680,"anth":3681,"dan":3682,"Hall":3683,"ped":3684,"Ak":3685,"serv":3686,"Sav":3687,"District":3688,"jas":3689,"ito":3690,"anus":3691,"skadespelare":3692,"\").":3693,"Che":3694,"uer":3695,"desordning":3696,"biflodesordning":3697,"rov":3698,"bod":3699,"Dag":3700,"anvandes":3701,"praktfjarilar":3702,"intres":3703,"fen":3704,"museum":3705,"slandor":3706,"mande":3707,"1979":3708,"kande":3709,"sokte":3710,"zar":3711,"alder":3712,"politiker":3713,"grundades":3714,"poang":3715,"ulata":3716,"premi":3717,"Es":3718,"forbunds":3719,"materi":3720,"1968":3721,"use":3722,"parti":3723,"1985":3724,"partiet":3725,"omraden":3726,"skiv":3727,"1972":3728,"fest":3729,"open":3730,"klassen":3731,"Delhi":3732,"Kh":3733,"Jabal":3734,"Friedrich":3735,"1982":3736,"forbundet":3737,"Gi":3738,"Sand":3739,"nan":3740,"yer":3741,"ump":3742,"ome":3743,"179":3744,"garna":3745,"inna":3746,"spelades":3747,"idi":3748,"Josep":3749,"vol":3750,"Alexander":3751,"gjordes":3752,"1983":3753,"livskraft":3754,"Thomas":3755,"aldrig":3756,"Vic":3757,"platsen":3758,"Rich":3759,"stjar":3760,"\"),":3761,"Ram":3762,"ledare":3763,"Lars":3764,"samtidigt":3765,"ente":3766,"bildade":3767,"mord":3768,"stes":3769,"Vis":3770,"Gl":3771,"vari":3772,"inus":3773,"1976":3774,"kust":3775,"Tam":3776,"Park":3777,"Osterrike":3778,"War":3779,"Bl":3780,"oa":3781,"ogen":3782,"1962":3783,"Bal":3784,"vingar":3785,"1981":3786,"Nya":3787,"Mont":3788,"skul":3789,"kal":3790,"Joseph":3791,"Gustaf":3792,"Arro":3793,"idrott":3794,"Pra":3795,"emat":3796,"Jose":3797,"umet":3798,"oba":3799,"ej":3800,"West":3801,"uri":3802,"verket":3803,"war":3804,"anstall":3805,"inkl":3806,"Mu":3807,"ansvar":3808,"gjort":3809,"Ai":3810,"motsvar":3811,"problem":3812,"skick":3813,"nus":3814,"1967":3815,"Berlin":3816,"ktor":3817,"uppdrag":3818,"mana":3819,"dvarg":3820,"Plat":3821,"bolaget":3822,"aka":3823,"Kn":3824,"belagen":3825,"forsvar":3826,"Ni":3827,"car":3828,"funkt":3829,"Rys":3830,"stel":3831,"Hand":3832,"livskraftig":3833,"varmt":3834,"1973":3835,"horn":3836,"bud":3837,"placer":3838,"parasitsteklar":3839,"David":3840,"forening":3841,"otek":3842,"brokparasitsteklar":3843,"fotbolls":3844,"kas":3845,"1977":3846,"eus":3847,"president":3848,"Dess":3849,"Got":3850,"Wien":3851,"Fi":3852,"Brook":3853,"inia":3854,"mand":3855,"1969":3856,"uck":3857,"Stra":3858,"seende":3859,"komma":3860,"1964":3861,"lopp":3862,"boken":3863,"Eg":3864,"korea":3865,"uts":3866,"1978":3867,"farg":3868,"kla":3869,"uti":3870,"Rud":3871,"stav":3872,"ute":3873,"Henry":3874,"1975":3875,"ledning":3876,"klass":3877,"ophila":3878,"Leon":3879,"jag":3880,"skilj":3881,"huvudort":3882,"lans":3883,"forlor":3884,"sasom":3885,"offici":3886,"skill":3887,"aktiv":3888,"haft":3889,"italien":3890,"Kor":3891,"Francis":3892,"snabb":3893,"not":3894,"elekt":3895,"gifte":3896,"delades":3897,"fagel":3898,"hard":3899,"Band":3900,"unden":3901,"egna":3902,"isseau":3903,"Port":3904,"manniskor":3905,"armen":3906,"Airport":3907,"Rad":3908,"1965":3909,"bul":3910,"rade":3911,"ano":3912,"Lapp":3913,"numera":3914,"bolag":3915,"Ruisseau":3916,"oarna":3917,"tack":3918,"takt":3919,"projekt":3920,"bot":3921,"sav":3922,"Cy":3923,"Pat":3924,"kara":3925,"chus":3926,"fortsatte":3927,"1910":3928,"alis":3929,"tax":3930,"Bas":3931,"rakt":3932,"byn":3933,"Por":3934,"langt":3935,"als":3936,"Sj":3937,"progra":3938,"js":3939,"spela":3940,"1945":3941,"vuxna":3942,"cu":3943,"Jan":3944,"Dam":3945,"exempelvis":3946,"Underarter":3947,"col":3948,"elle":3949,"minst":3950,"riksdelen":3951,"enos":3952,"Ghar":3953,"Tet":3954,"silver":3955,"Tre":3956,"Amer":3957,"trots":3958,"lipp":3959,"gla":3960,"fic":3961,"Skan":3962,"pet":3963,"sim":3964,"premiar":3965,"dok":3966,"Hor":3967,"skott":3968,"sym":3969,"Rh":3970,"ugh":3971,"indiv":3972,"ursprungligen":3973,"inska":3974,"liknande":3975,"35":3976,"Filmen":3977,"ral":3978,"mitten":3979,"atte":3980,"Az":3981,"James":3982,"Hyp":3983,"stero":3984,"cens":3985,"slande":3986,"Anton":3987,"Dje":3988,"risk":3989,"1939":3990,"1912":3991,"own":3992,"industri":3993,"rus":3994,"langa":3995,"prov":3996,"kamp":3997,"eget":3998,"kval":3999,"stallet":4000,"kopp":4001,"liten":4002,"anden":4003,"kran":4004,"bebygg":4005,"Fal":4006,"uppgick":4007,"Gron":4008,"1966":4009,"nads":4010,"nastan":4011,"Mil":4012,"Buk":4013,"olia":4014,"odi":4015,"178":4016,"tio":4017,"konser":4018,"somradet":4019,"forklar":4020,"Fre":4021,"arabiska":4022,"visade":4023,"Kir":4024,"uba":4025,"Barn":4026,"inen":4027,"rack":4028,"fj":4029,"1914":4030,"harad":4031,"cm":4032,"Ox":4033,"Cla":4034,"Hem":4035,"perio":4036,"Ir":4037,"modern":4038,"Martin":4039,"sjal":4040,"oende":4041,"flock":4042,"rym":4043,"75":4044,"Bag":4045,"Cap":4046,"uter":4047,"Cat":4048,"ony":4049,"stru":4050,"vas":4051,"dade":4052,"Djebel":4053,"pade":4054,"brack":4055,"Grek":4056,"spelet":4057,"1938":4058,"slandeart":4059,"artvaxter":4060,"etter":4061,"lus":4062,"brun":4063,"Sil":4064,"fora":4065,"skold":4066,"ovriga":4067,"sled":4068,"general":4069,"politiska":4070,"pes":4071,"rika":4072,"Eup":4073,"Hog":4074,"igur":4075,"byt":4076,"relig":4077,"bocker":4078,"guvern":4079,"dog":4080,"resultat":4081,"bord":4082,"lanet":4083,"atet":4084,"ei":4085,"istiska":4086,"National":4087,"Smith":4088,"Alb":4089,"HL":4090,"Gor":4091,"scen":4092,"bom":4093,"maskart":4094,"litet":4095,"grek":4096,"zon":4097,"III":4098,"representer":4099,"valt":4100,"forbundslandet":4101,"Gol":4102,"sett":4103,"icola":4104,"Cam":4105,"bol":4106,"opeiska":4107,"bisk":4108,"mes":4109,"Grand":4110,"ague":4111,"stader":4112,"din":4113,"ations":4114,"500":4115,"Schweiz":4116,"Andra":4117,"ses":4118,"betyd":4119,"match":4120,"pap":4121,"lon":4122,"rikes":4123,"Mol":4124,"respekt":4125,"1961":4126,"oftast":4127,"dad":4128,"1913":4129,"1963":4130,"Jap":4131,"vanligt":4132,"makedon":4133,"fiskar":4134,"ht":4135,"beslut":4136,"nummer":4137,"vinter":4138,"vanliga":4139,"Darreh":4140,"kri":4141,"ungdom":4142,"fur":4143,"larare":4144,"Peak":4145,"fragor":4146,"sack":4147,"Vil":4148,"eau":4149,".,":4150,"uppfordes":4151,"astr":4152,"Ly":4153,"But":4154,"1908":4155,"Za":4156,"stjarn":4157,"let":4158,"stid":4159,"Ve":4160,"Ker":4161,"Cu":4162,"1911":4163,"alle":4164,"serna":4165,"lyckades":4166,"iens":4167,"cerade":4168,"byggnaden":4169,"utstall":4170,"disk":4171,"Ras":4172,"valdes":4173,"Namnet":4174,"finalen":4175,"1941":4176,"Mes":4177,"Laguna":4178,"Stat":4179,"pha":4180,"Anna":4181,"tradition":4182,"2020":4183,"Ze":4184,"ylla":4185,"1936":4186,"medic":4187,"utbildning":4188,"Dor":4189,"hire":4190,"gards":4191,"Ali":4192,"Jer":4193,"gal":4194,"guvernementet":4195,"Gora":4196,"1918":4197,"grad":4198,"fabrik":4199,"xi":4200,"Luc":4201,"klock":4202,"kors":4203,"ologiska":4204,"Sv":4205,"1958":4206,"baggar":4207,"1956":4208,"militar":4209,"arah":4210,"iks":4211,"varandra":4212,"Ryssland":4213,"ange":4214,"prefekt":4215,"odor":4216,"fas":4217,"Fredrik":4218,"tig":4219,"ire":4220,"ppar":4221,"rin":4222,"mans":4223,"jevo":4224,"startade":4225,"Est":4226,"Mur":4227,"ansprak":4228,"beteck":4229,"chy":4230,"tida":4231,"rien":4232,"omat":4233,"artvaxtart":4234,"inner":4235,"Vol":4236,"Sw":4237,"Hein":4238,"1957":4239,"ight":4240,"1917":4241,"Not":4242,"yk":4243,"lakt":4244,"urna":4245,"tillhorde":4246,"roat":4247,"utgav":4248,"etes":4249,"laga":4250,"deltag":4251,"sikt":4252,"starkt":4253,"arean":4254,"kontrakt":4255,"Goteborgs":4256,"Pier":4257,"annu":4258,"1948":4259,"behov":4260,"opus":4261,"sur":4262,"jut":4263,"Kali":4264,"dvargstritar":4265,"paver":4266,"Bern":4267,"landskommun":4268,"Stora":4269,"luft":4270,"Tanjung":4271,"1928":4272,"samlingen":4273,"Ott":4274,"1924":4275,"ige":4276,"1944":4277,"biart":4278,"uppen":4279,"kontroll":4280,"Arroyo":4281,"hogre":4282,"kanal":4283,"Nat":4284,"bast":4285,"artik":4286,"Ore":4287,"ias":4288,"stern":4289,"Christian":4290,"Aires":4291,"vall":4292,"anses":4293,"klubb":4294,"Victor":4295,"skriv":4296,"krets":4297,"lie":4298,"anthus":4299,"Buenos":4300,"Centra":4301,"1959":4302,"Pla":4303,"kontor":4304,"otus":4305,"skepp":4306,"Wh":4307,"ocar":4308,"North":4309,"lingarna":4310,"brittiska":4311,"valet":4312,"uppe":4313,"fron":4314,"centrum":4315,"rys":4316,"ingo":4317,"foretaget":4318,"orsak":4319,"nit":4320,"Bran":4321,"filmer":4322,"Kam":4323,"jeck":4324,"arran":4325,"gifter":4326,"1907":4327,"inal":4328,"unionen":4329,"aknas":4330,"Kol":4331,"1906":4332,"University":4333,"Liban":4334,"45":4335,"vist":4336,"urus":4337,"dokt":4338,"inratt":4339,"grevskapet":4340,"To":4341,"lats":4342,"Tar":4343,"regering":4344,"Lappland":4345,"oka":4346,"kommit":4347,"betydelse":4348,"ulerade":4349,"final":4350,"kopings":4351,"atum":4352,"gern":4353,"ette":4354,"trod":4355,"1926":4356,"yi":4357,"kallades":4358,"Lep":4359,"bjorn":4360,"Ara":4361,"omfattar":4362,"Litt":4363,"League":4364,"1909":4365,"Sab":4366,"Timur":4367,"Staden":4368,"ful":4369,"mens":4370,"Lar":4371,"Shan":4372,"Grekland":4373,"1927":4374,"1933":4375,"1929":4376,"avled":4377,"ild":4378,"sasong":4379,"ffer":4380,"undan":4381,"wig":4382,"handlar":4383,"avsnitt":4384,"1937":4385,"fransk":4386,"liksom":4387,"uz":4388,"Ban":4389,"gransen":4390,"oder":4391,"Antar":4392,"1955":4393,"oden":4394,"stein":4395,"herr":4396,"regeringen":4397,"Lov":4398,"Sarajevo":4399,"1919":4400,"djup":4401,"1932":4402,"Bol":4403,"gaende":4404,"frika":4405,"regi":4406,"Ax":4407,"bracksteklar":4408,"Lam":4409,"hets":4410,"1954":4411,"vitt":4412,"format":4413,"Gud":4414,"1947":4415,"trafik":4416,"funger":4417,"gym":4418,"saari":4419,"dans":4420,"park":4421,"1935":4422,"ati":4423,"lagt":4424,"orl":4425,"1942":4426,"igheten":4427,"kta":4428,"Dani":4429,"unnit":4430,"ener":4431,"medverkade":4432,"1934":4433,"hjal":4434,"1953":4435,"orer":4436,"lop":4437,"titeln":4438,"rock":4439,"spelat":4440,"arie":4441,"Ple":4442,"backen":4443,"rog":4444,"galler":4445,"ingick":4446,"foddes":4447,"psy":4448,"hed":4449,"utnamn":4450,"1925":4451,"banan":4452,"parla":4453,"respektive":4454,"Sel":4455,"sommarspelen":4456,"delade":4457,"nik":4458,"Rod":4459,"1905":4460,"way":4461,"Trich":4462,"ath":4463,"Genom":4464,"1949":4465,"mun":4466,"1921":4467,"formula":4468,"kommen":4469,"Adolf":4470,"formula_":4471,"eland":4472,"flertal":4473,"nadde":4474,"lager":4475,"Anders":4476,"anger":4477,"Marie":4478,"medal":4479,"Micha":4480,"Cas":4481,"dansk":4482,"brons":4483,"reservat":4484,"miss":4485,"Johannes":4486,"1943":4487,"Ron":4488,"1946":4489,"gah":4490,"anvanda":4491,"forskning":4492,"tart":4493,"1951":4494,"invig":4495,"bestod":4496,"latar":4497,"1922":4498,"hou":4499,"mangd":4500,"begrav":4501,"inc":4502,"besok":4503,"pis":4504,"internationella":4505,"Sof":4506,"1916":4507,"177":4508,"former":4509,"Sig":4510,"1915":4511,"Mellan":4512,"samhallet":4513,"sor":4514,"pus":4515,"flygplan":4516,"miljo":4517,"1931":4518,"anvandas":4519,"uppmark":4520,"pi":4521,"kva":4522,"Tom":4523,"landerna":4524,"Befolkningen":4525,"cup":4526,"moss":4527,"skaper":4528,"sekr":4529,"antar":4530,"redakt":4531,"pot":4532,"flockblomm":4533,"ovo":4534,"Boli":4535,"umen":4536,"how":4537,"avaxter":4538,"ado":4539,"tom":4540,"Rap":4541,"Ek":4542,"dari":4543,"innes":4544,"sjalva":4545,"Str":4546,"litteratur":4547,"fjarde":4548,"faglar":4549,"langs":4550,"[[":4551,"ago":4552,"sons":4553,"sjukdom":4554,"cord":4555,"dessutom":4556,"eria":4557,"tera":4558,"sker":4559,"]]":4560,"Agu":4561,"Dyn":4562,"vide":4563,"Aren":4564,"ales":4565,"Edward":4566,"Maur":4567,"systemet":4568,"1923":4569,"grepp":4570,"itu":4571,"enser":4572,"gri":4573,"une":4574,"arbeten":4575,"Bab":4576,"skrifter":4577,"lange":4578,"cht":4579,"ruz":4580,"mu":4581,"ophyll":4582,"cel":4583,"programmet":4584,"material":4585,"Antarktis":4586,"central":4587,"Hennes":4588,"ise":4589,"livet":4590,"version":4591,"fyl":4592,"Cent":4593,"Ped":4594,"ington":4595,"serade":4596,"civ":4597,"Kopen":4598,"arke":4599,"ackum":4600,"organisation":4601,"bibli":4602,"kons":4603,"Lat":4604,"major":4605,"figur":4606,"gemen":4607,"sanger":4608,"ishockey":4609,"Sang":4610,"post":4611,"Red":4612,"Rock":4613,"hidae":4614,"festiv":4615,"log":4616,"ordet":4617,"debuterade":4618,"floden":4619,"sattning":4620,"Wales":4621,"Sydkorea":4622,"vak":4623,"parlament":4624,"Black":4625,"oda":4626,"yan":4627,"yx":4628,"rick":4629,"kommande":4630,"inger":4631,"omen":4632,"Hed":4633,"Seoul":4634,"kandid":4635,"traf":4636,"Vastra":4637,"dia":4638,"avslut":4639,"otta":4640,"Kopenhamn":4641,"Richard":4642,"34":4643,"lip":4644,"wood":4645,"offent":4646,"inci":4647,"1904":4648,"Japan":4649,"Bla":4650,"illo":4651,"dubbel":4652,"unc":4653,"stal":4654,"fus":4655,"ech":4656,"bong":4657,"styck":4658,"soma":4659,"urg":4660,"Fili":4661,"Tab":4662,"avaxtart":4663,"aca":4664,"egent":4665,"urs":4666,"dol":4667,"Aten":4668,"Rob":4669,"tving":4670,"effekt":4671,"institut":4672,"Bill":4673,"sager":4674,"staur":4675,"cc":4676,"byggnader":4677,"Soc":4678,"gru":4679,"Angel":4680,"enn":4681,"Tak":4682,"bana":4683,"lim":4684,"publicer":4685,"fores":4686,"Pot":4687,"fotbollsspelare":4688,"gammal":4689,"icer":4690,"ackumulerade":4691,"jal":4692,"win":4693,"brittisk":4694,"osus":4695,"175":4696,"vaxte":4697,"Dare":4698,"Flor":4699,"lust":4700,"flott":4701,"Kra":4702,"omyc":4703,"Otto":4704,"romer":4705,"bakom":4706,"tavling":4707,"mod":4708,"gitar":4709,"entiteten":4710,"kem":4711,"arbetar":4712,"Alto":4713,"Para":4714,"anvander":4715,"Part":4716,"raknas":4717,"betyder":4718,"erber":4719,"ringar":4720,"Egyp":4721,"sattes":4722,"37":4723,"ال":4724,"Gri":4725,"uella":4726,"examen":4727,"Kap":4728,"uan":4729,"1902":4730,"fraga":4731,"rh":4732,"Walker":4733,"1700":4734,"tion":4735,"ration":4736,"foreningen":4737,"Barat":4738,"skot":4739,"hack":4740,"kes":4741,"dater":4742,"ez":4743,"36":4744,"Bjor":4745,"Cast":4746,"Sund":4747,"FC":4748,"bevar":4749,"moder":4750,"dator":4751,"forbund":4752,"sek":4753,"vap":4754,"mad":4755,"historiska":4756,"turner":4757,"astronom":4758,"omer":4759,"mid":4760,"grasart":4761,"ament":4762,"ved":4763,"Shu":4764,"icol":4765,"Juli":4766,"valde":4767,"topp":4768,"osc":4769,"Kungliga":4770,"ami":4771,"gatt":4772,"komst":4773,"jt":4774,"Kur":4775,"motstand":4776,"Brun":4777,"rollen":4778,"listan":4779,"rapp":4780,"inled":4781,"Kong":4782,"singel":4783,"Ven":4784,"ies":4785,"gon":4786,"pad":4787,"arbetet":4788,"foljd":4789,"Tang":4790,"drott":4791,"Omradet":4792,"ush":4793,"Johann":4794,"riska":4795,"prote":4796,"gy":4797,"linjen":4798,"holls":4799,"traff":4800,"Dol":4801,"Ji":4802,"strack":4803,"Max":4804,"Konst":4805,"satta":4806,"cep":4807,"fel":4808,"IK":4809,"vanligen":4810,"ston":4811,"dit":4812,"hogskolan":4813,"direktor":4814,"Jes":4815,"aldsta":4816,"eth":4817,"fys":4818,"talets":4819,"Nik":4820,"nationella":4821,"Mak":4822,"ademien":4823,"1903":4824,"blod":4825,"aut":4826,"relat":4827,"age":4828,"sjalvstand":4829,"bron":4830,"horde":4831,"raket":4832,"journa":4833,"Fram":4834,"1901":4835,"در":4836,"Att":4837,"ior":4838,"allen":4839,"revol":4840,"insekter":4841,"omgiv":4842,"No":4843,"ipen":4844,"bergspass":4845,"ms":4846,"gad":4847,"forlorade":4848,"iana":4849,"framsta":4850,"Stad":4851,"Henrik":4852,"insp":4853,"stig":4854,"uca":4855,"affar":4856,"tavlingen":4857,"masterskap":4858,"kna":4859,"39":4860,"ihop":4861,"Lept":4862,"Ana":4863,"Tu":4864,"Heinrich":4865,"38":4866,"krav":4867,"Libanon":4868,"Rid":4869,"begran":4870,"Ele":4871,"Sur":4872,"Phi":4873,"gari":4874,"igenom":4875,"Olof":4876,"social":4877,"ah":4878,"amo":4879,"syl":4880,"berget":4881,"Grande":4882,"avdel":4883,"Ce":4884,"heim":4885,"domin":4886,"gud":4887,"Queens":4888,"ophyllum":4889,"perioden":4890,"Utover":4891,"ax":4892,"forvalt":4893,"upptacktes":4894,"atervande":4895,"Point":4896,"Kom":4897,"agde":4898,"manader":4899,"spelaren":4900,"ljud":4901,"tillgang":4902,"emal":4903,"ited":4904,"ingenjor":4905,"myndig":4906,"Kall":4907,"Over":4908,"SS":4909,"brand":4910,"hotad":4911,"Darefter":4912,"glas":4913,"Little":4914,"Pasir":4915,"etenskap":4916,"smal":4917,"bidrag":4918,"Utbredning":4919,"avarande":4920,"Ki":4921,"omfattande":4922,"Alla":4923,"enbart":4924,"%)":4925,"davarande":4926,"tand":4927,"tele":4928,"osition":4929,"Jack":4930,"ador":4931,"sted":4932,"produktion":4933,"\"-":4934,"dikt":4935,"orden":4936,"taxa":4937,"tas":4938,"bane":4939,"mur":4940,"undersok":4941,"Manga":4942,"wn":4943,"danska":4944,"vice":4945,"sjoarna":4946,"anal":4947,"landets":4948,"osp":4949,"pastor":4950,"text":4951,"my":4952,"holms":4953,"Pon":4954,"Dem":4955,"kost":4956,"66":4957,"ign":4958,"tet":4959,"sekreter":4960,"gara":4961,"viss":4962,"stre":4963,"dera":4964,"Gil":4965,"nere":4966,"fallande":4967,"strid":4968,"dagens":4969,"regel":4970,"jav":4971,"ason":4972,"bach":4973,"170":4974,"pil":4975,"doktor":4976,"ios":4977,"forand":4978,"ial":4979,"bese":4980,"dags":4981,"32":4982,"pon":4983,"Bygg":4984,"icke":4985,"Bukit":4986,"ان":4987,"inea":4988,"etab":4989,"bank":4990,"informat":4991,"abri":4992,"Dic":4993,"buk":4994,"ften":4995,"kre":4996,"sena":4997,"mojlig":4998,"profession":4999,"malar":5000,"krigs":5001,"Handling":5002,"stallde":5003,"pres":5004,"lil":5005,"roc":5006,"anslut":5007,"irk":5008,"levde":5009,"Monte":5010,"Cham":5011,"oar":5012,"ting":5013,"issi":5014,"400":5015,"allra":5016,"niva":5017,"tunn":5018,"bibliotek":5019,"Tran":5020,"svan":5021,"steg":5022,"Pierre":5023,"Abo":5024,"bre":5025,"Reser":5026,"kore":5027,"stran":5028,"iere":5029,"Sankt":5030,"1897":5031,"ingart":5032,"Stefan":5033,"vags":5034,"Spel":5035,"lakare":5036,"skedde":5037,"Osc":5038,"ima":5039,"odon":5040,"Blan":5041,"tyd":5042,"48":5043,"bygga":5044,"yah":5045,"alter":5046,"snack":5047,"ands":5048,"Ang":5049,"slags":5050,"Sovjet":5051,"Glac":5052,"restaur":5053,"sket":5054,"torn":5055,"Ov":5056,"Ros":5057,"rea":5058,"slog":5059,"sem":5060,"She":5061,"varen":5062,"marken":5063,"yngre":5064,"Dyntaxa":5065,"isten":5066,"1890":5067,"Daniel":5068,"funktion":5069,"borjar":5070,"Glacier":5071,"skriven":5072,"ikanska":5073,"Son":5074,"alltid":5075,"Nas":5076,"slo":5077,"defin":5078,"harkran":5079,"narmaste":5080,"tillfall":5081,"betrakt":5082,"isa":5083,"lea":5084,"lund":5085,"bjornspinnare":5086,"Michael":5087,"harkrankar":5088,"Lab":5089,"Divis":5090,"saval":5091,"Foren":5092,"ophora":5093,"Mark":5094,"tin":5095,"wadi":5096,"Matt":5097,"Sydney":5098,"Asp":5099,"hoga":5100,"68":5101,"orm":5102,"Tal":5103,"priset":5104,"ligan":5105,"livs":5106,"enga":5107,"Pter":5108,"Hus":5109,"Jebel":5110,"Tjeck":5111,"Egypten":5112,"gade":5113,"biskop":5114,"posit":5115,"framgangs":5116,"iser":5117,"syster":5118,"300":5119,"bryt":5120,"Clar":5121,"konkur":5122,"skrivit":5123,"sningar":5124,"skat":5125,"yang":5126,"skulp":5127,"Ludwig":5128,"Heter":5129,"United":5130,"manus":5131,"sky":5132,"arme":5133,"alltsa":5134,"eda":5135,"ution":5136,"bis":5137,"Dia":5138,"satte":5139,"kronor":5140,"ftet":5141,"varde":5142,"stas":5143,"ischer":5144,"arbets":5145,"1600":5146,"ids":5147,"Das":5148,"arv":5149,"Senare":5150,"snabbt":5151,"67":5152,"unde":5153,"Gav":5154,"Kul":5155,"Utloppet":5156,"bri":5157,"zan":5158,"iller":5159,"Bry":5160,"rackligt":5161,"Neder":5162,"Queensland":5163,"avrinningsomraden":5164,"exempl":5165,"vir":5166,"gande":5167,"Les":5168,"Cup":5169,"Nova":5170,"Kroat":5171,"tagit":5172,"studen":5173,"1898":5174,"Mos":5175,"beroende":5176,"begrepp":5177,"mangfot":5178,"befal":5179,"Albert":5180,"vita":5181,"150":5182,"skillnad":5183,"varldens":5184,"ere":5185,"arg":5186,"Cry":5187,"flav":5188,"bell":5189,"servator":5190,"Mala":5191,"Magnus":5192,"nod":5193,"oe":5194,"styrelsen":5195,"kungen":5196,"1862":5197,"ursprungliga":5198,"ape":5199,"Huvud":5200,"Dessutom":5201,"verkar":5202,"Gal":5203,"anga":5204,"troligen":5205,"orig":5206,"foljde":5207,"Cr":5208,"ques":5209,"Gronland":5210,"Alfred":5211,"matt":5212,"usa":5213,"Bris":5214,"jk":5215,"Varm":5216,"ital":5217,"unger":5218,"asan":5219,"sekreterare":5220,"yet":5221,"1899":5222,"rorelsen":5223,"Trots":5224,"delvis":5225,"33":5226,"juvel":5227,"norska":5228,"psyk":5229,"1895":5230,"marevaxter":5231,"gol":5232,"stadens":5233,"az":5234,"Riv":5235,"mossart":5236,"Ah":5237,"sommaren":5238,"kvarter":5239,"kommunal":5240,"diam":5241,"Andersson":5242,"bodde":5243,"ansi":5244,"Phou":5245,"69":5246,"tjarnen":5247,"tidningen":5248,"forvar":5249,"Tengah":5250,"Skar":5251,"his":5252,"marks":5253,"International":5254,"ave":5255,"brukar":5256,"pul":5257,"Teng":5258,"Australia":5259,"Freder":5260,"1896":5261,"cor":5262,"Fo":5263,"bladmossart":5264,"uma":5265,"Indi":5266,"Gro":5267,"sign":5268,"skydd":5269,"kandidat":5270,"ambet":5271,"antarktis":5272,"Eric":5273,"sporsack":5274,"qvist":5275,"strax":5276,"Santo":5277,"47":5278,"arbeta":5279,"uder":5280,"guvernor":5281,"Long":5282,"sporsacksvampar":5283,"enhet":5284,"Nan":5285,"Henri":5286,"snart":5287,"Nils":5288,"Koudiat":5289,"kammar":5290,"avrinningsomradena":5291,"Raknas":5292,"enten":5293,"steroid":5294,"alls":5295,"territ":5296,"cell":5297,"iter":5298,"Pula":5299,"drar":5300,"Division":5301,"drog":5302,"sed":5303,"finner":5304,"Ran":5305,"malt":5306,"jol":5307,"ble":5308,"eten":5309,"Chi":5310,"erationen":5311,"Tro":5312,"Chan":5313,"emente":5314,"anvande":5315,"Forsamlingen":5316,"mansk":5317,"fre":5318,"oz":5319,"Jacob":5320,"inspel":5321,"delarna":5322,"popular":5323,"lokal":5324,"anne":5325,"Herr":5326,"Kri":5327,"juk":5328,"vok":5329,"Tem":5330,"Roy":5331,"arranger":5332,"God":5333,"privat":5334,"Syn":5335,"Tex":5336,"Fed":5337,"Sag":5338,"Lev":5339,"hosten":5340,"viktig":5341,"mastar":5342,"grundade":5343,"asi":5344,"Historik":5345,"Ama":5346,"Pod":5347,"publik":5348,"akten":5349,"nasi":5350,"delta":5351,"titel":5352,"dop":5353,"oca":5354,"ovi":5355,"Zag":5356,"Isla":5357,"musiker":5358,"Eri":5359,"ephal":5360,"sningen":5361,"jader":5362,"fru":5363,"inflyt":5364,"stalla":5365,"regemente":5366,"Vir":5367,"kombin":5368,"grade":5369,"tis":5370,"Polit":5371,"motiv":5372,"Cl":5373,"raff":5374,"prefekturen":5375,"vinn":5376,"mol":5377,"inget":5378,"Inom":5379,"Kl":5380,"museet":5381,"ckte":5382,"set":5383,"ose":5384,"samarbete":5385,"iske":5386,"battre":5387,"kommuner":5388,"engelsk":5389,"revs":5390,"stade":5391,"uppratt":5392,"mork":5393,"slot":5394,"frukt":5395,"eum":5396,"Fr":5397,"lidae":5398,"jorden":5399,"asteroid":5400,"pur":5401,"lagga":5402,"stalldes":5403,"prast":5404,"etag":5405,"malare":5406,"lius":5407,"ink":5408,"dokument":5409,"field":5410,"tata":5411,"Beng":5412,"1893":5413,"nst":5414,"befolkningen":5415,"anen":5416,"krist":5417,"ocent":5418,"verksamheten":5419,"44":5420,"Plan":5421,"marevaxtart":5422,"forste":5423,"gat":5424,"Os":5425,"ylus":5426,"Brdo":5427,"Serra":5428,"press":5429,"flick":5430,"Gul":5431,"Shi":5432,"Bolivia":5433,"losa":5434,"konstrukt":5435,"Kaliforn":5436,"hit":5437,"55":5438,"Tillsammans":5439,"nos":5440,"ylt":5441,"ete":5442,"Pu":5443,"mass":5444,"long":5445,"marker":5446,"Record":5447,"Mega":5448,"Bad":5449,"Vall":5450,"amerika":5451,"flyttades":5452,"Bil":5453,"roda":5454,"Kalifornien":5455,"Kot":5456,"niska":5457,"dium":5458,"erbotten":5459,"fyr":5460,"1880":5461,"nant":5462,"dro":5463,"Sao":5464,"Pulau":5465,"ringmaskart":5466,"pans":5467,"fakt":5468,"studio":5469,"pseud":5470,"Hot":5471,"Kroatien":5472,"rego":5473,"reb":5474,"serad":5475,"EM":5476,"jakt":5477,"myror":5478,"hjul":5479,"Brisbane":5480,"Tel":5481,"Ungern":5482,"ves":5483,"Nagra":5484,"Song":5485,"taget":5486,"fardig":5487,"oleander":5488,"vattendraget":5489,"mangfotingart":5490,"omo":5491,"ellertid":5492,"isc":5493,"1892":5494,"Administrativ":5495,"uller":5496,"tills":5497,"medeltida":5498,"utnamndes":5499,"botten":5500,"1889":5501,"skriften":5502,"Ari":5503,"juvelvingar":5504,"Im":5505,"wi":5506,"Sula":5507,"Suc":5508,"hoe":5509,"modell":5510,"bergsked":5511,"49":5512,"foll":5513,"Tot":5514,"Spr":5515,"iae":5516,"Au":5517,"samtliga":5518,"finska":5519,"utgors":5520,"kong":5521,"Ala":5522,"160":5523,"jd":5524,"Gard":5525,"span":5526,"Kun":5527,"Eugen":5528,"Film":5529,"Chal":5530,"egro":5531,"iosa":5532,"Bri":5533,"Py":5534,"Polen":5535,"invigdes":5536,"ae":5537,"1894":5538,"utsags":5539,"tilldelades":5540,"separ":5541,"ido":5542,"nio":5543,"arbetare":5544,"ismen":5545,"Ostra":5546,"Tidigare":5547,"inrattades":5548,"Kristian":5549,"anlagg":5550,"officer":5551,"introd":5552,"jul":5553,"ui":5554,"kans":5555,"rac":5556,"icum":5557,"avvattnas":5558,"rust":5559,"Tour":5560,"just":5561,"dades":5562,"strument":5563,"Ober":5564,"prins":5565,"Smal":5566,"Corrego":5567,"angd":5568,"Orebro":5569,"Leuc":5570,"slatt":5571,"Skott":5572,"Scot":5573,"ornis":5574,"Domin":5575,"vetenskapliga":5576,"osia":5577,"orld":5578,"seger":5579,"sangare":5580,"flu":5581,"itets":5582,"Phil":5583,"ager":5584,"Gon":5585,"vakt":5586,"ach":5587,"Cra":5588,"uppgift":5589,"atis":5590,"okar":5591,"دره":5592,"cal":5593,"Pl":5594,"uppskatt":5595,"1891":5596,"mojligt":5597,"Sud":5598,"Margar":5599,"Johans":5600,"Republi":5601,"out":5602,"NA":5603,"Lit":5604,"forutom":5605,"bilder":5606,"hemma":5607,"nordvastlig":5608,"beck":5609,"vagar":5610,"gotland":5611,"Dr":5612,"fyll":5613,"avstand":5614,"Jamt":5615,"olont":5616,"mob":5617,"handels":5618,"beh":5619,"dela":5620,"foraldr":5621,"serades":5622,"slagen":5623,"rub":5624,"Musik":5625,"lovfallande":5626,"yana":5627,"hertig":5628,"grekiska":5629,"liggande":5630,"orus":5631,"lokala":5632,"forstor":5633,"jak":5634,"ellersta":5635,"Djur":5636,"chia":5637,"Dub":5638,"utfor":5639,"baserad":5640,"wer":5641,"Melolont":5642,"vanlig":5643,"radio":5644,"skilda":5645,"Klub":5646,"neder":5647,"leder":5648,"Fag":5649,"Lago":5650,"Villa":5651,"aller":5652,"manland":5653,"idium":5654,"anna":5655,"hastar":5656,"indi":5657,"Beir":5658,"resa":5659,"1888":5660,"omp":5661,"Der":5662,"Vill":5663,"samhet":5664,"splan":5665,"skogs":5666,"Bea":5667,"IV":5668,"straff":5669,"yla":5670,"forbindel":5671,"ordin":5672,"diameter":5673,"lande":5674,"Fe":5675,"Laten":5676,"regler":5677,"uttryck":5678,"oker":5679,"Jag":5680,"levande":5681,"rund":5682,"Tek":5683,"ugu":5684,"olax":5685,"1870":5686,"Folk":5687,"desh":5688,"kning":5689,"Axel":5690,"1885":5691,"bosatt":5692,"Qa":5693,"darpa":5694,"Super":5695,"Tas":5696,"uppfatt":5697,"Chu":5698,"enkel":5699,"tina":5700,"starka":5701,"dott":5702,"mit":5703,"Melolonthidae":5704,"Beirut":5705,"fjader":5706,"bytte":5707,"forlust":5708,"Hyd":5709,"Pha":5710,"salt":5711,"tidiga":5712,"omet":5713,"Lor":5714,"organisationen":5715,"alternat":5716,"regiss":5717,"fader":5718,"redaktor":5719,"sterna":5720,"Hab":5721,"init":5722,"Ernst":5723,"Aster":5724,"kade":5725,"ratten":5726,"Skane":5727,"oce":5728,"Tenggara":5729,"Juan":5730,"ces":5731,"teor":5732,"syr":5733,"Albumet":5734,"europeiska":5735,"relativt":5736,"viken":5737,"optera":5738,"Phyll":5739,"Bez":5740,"student":5741,"Fort":5742,"Foljande":5743,"Prag":5744,"trupper":5745,"avan":5746,"administrat":5747,"larna":5748,"forskare":5749,"tz":5750,"italienska":5751,"iidae":5752,"1887":5753,"jod":5754,"medalj":5755,"Ribe":5756,"inde":5757,"forlag":5758,"zak":5759,"ary":5760,"Hermann":5761,"Flyg":5762,"Dre":5763,"skalbag":5764,"Ori":5765,"flora":5766,"domen":5767,"Ob":5768,"kh":5769,"latin":5770,"Pradesh":5771,"division":5772,"holmen":5773,"ato":5774,"uppgifter":5775,"dagg":5776,"pens":5777,"ativ":5778,"Hag":5779,"matchen":5780,"tillstand":5781,"phi":5782,"ame":5783,"moderna":5784,"ingarna":5785,"Sul":5786,"kok":5787,"42":5788,"ifran":5789,"skor":5790,"svenskan":5791,"Poly":5792,"borde":5793,"ocer":5794,"Depart":5795,"ku":5796,"forsokte":5797,"ierna":5798,"brot":5799,"kyrko":5800,"antus":5801,"Forsta":5802,"lare":5803,"eman":5804,"myrten":5805,"lage":5806,"likt":5807,"kontakt":5808,"still":5809,"exemplar":5810,"vunnit":5811,"onis":5812,"idia":5813,"hustru":5814,"malv":5815,"vant":5816,"naturreservat":5817,"usive":5818,"job":5819,"dennes":5820,"iku":5821,"Vas":5822,"karaktar":5823,"elen":5824,"gymnasi":5825,"andena":5826,"princi":5827,"stick":5828,"Lim":5829,"portratt":5830,"Oper":5831,"atem":5832,"agua":5833,"fack":5834,"Riks":5835,"inas":5836,"Skop":5837,"utred":5838,"Nusa":5839,"rattigheter":5840,"hara":5841,"ocha":5842,"Stan":5843,"Records":5844,"balt":5845,"Tva":5846,"World":5847,"ois":5848,"Morro":5849,"torel":5850,"samlingar":5851,"run":5852,"zer":5853,"sandes":5854,"inerna":5855,"bour":5856,"Eftersom":5857,"givare":5858,"daga":5859,"tids":5860,"forut":5861,"Isra":5862,"bygger":5863,"tavlade":5864,"Big":5865,"ulatus":5866,"Rosen":5867,"VD":5868,"dorf":5869,"Savolax":5870,"ory":5871,"orum":5872,"Rog":5873,"agus":5874,"Ren":5875,"folkrak":5876,"Tjeckien":5877,"Jord":5878,"berom":5879,"mir":5880,"intresse":5881,"Geografi":5882,"Tol":5883,"Central":5884,"sasonger":5885,"Bang":5886,"Bart":5887,"put":5888,"stationen":5889,"ersattes":5890,"kej":5891,"ophor":5892,"emellertid":5893,"foljer":5894,"Sing":5895,"anser":5896,"kallat":5897,"etts":5898,"46":5899,"allmanna":5900,"ansag":5901,"amnen":5902,"flygplats":5903,"85":5904,"lara":5905,"1878":5906,"Simon":5907,"lid":5908,"ratts":5909,"forfattaren":5910,"NHL":5911,"cken":5912,"komposit":5913,"”.":5914,"SV":5915,"Sri":5916,"journalist":5917,"eftertrad":5918,"skolor":5919,"huvudstad":5920,"sovjet":5921,"handling":5922,"nattslandeart":5923,"japanska":5924,"kejs":5925,"isen":5926,"status":5927,"Skottland":5928,"sko":5929,"Hom":5930,"bergskedja":5931,"How":5932,"spraket":5933,"Skopje":5934,"Teg":5935,"Ry":5936,"iah":5937,"agare":5938,"dell":5939,"otes":5940,"Stud":5941,"introduc":5942,"oro":5943,"grans":5944,"historik":5945,"skalbaggar":5946,"regis":5947,"ese":5948,"upplo":5949,"okus":5950,"domstol":5951,"ike":5952,"ift":5953,"nader":5954,"makedonien":5955,"Thor":5956,"jart":5957,"lagre":5958,"tron":5959,"ace":5960,"Idag":5961,"rer":5962,"1500":5963,"kapten":5964,"Nordmakedonien":5965,"1886":5966,"cur":5967,"ktiv":5968,"energi":5969,"Rudolf":5970,"skiljer":5971,"mic":5972,"Mali":5973,"forsamlingen":5974,"Samma":5975,"Cop":5976,"ariket":5977,"Ale":5978,"forslag":5979,"drabb":5980,"forkort":5981,"erholl":5982,"mea":5983,"byggd":5984,"Khan":5985,"Ig":5986,"Sock":5987,"gardar":5988,"rona":5989,"lamna":5990,"kott":5991,"Tha":5992,"Ray":5993,"inklusive":5994,"hia":5995,"fir":5996,"Nederlanderna":5997,"King":5998,"uell":5999,"okade":6000,"atern":6001,"nare":6002,"stedt":6003,"sno":6004,"Bulu":6005,"sjtina":6006,"Liv":6007,"spindeldjursart":6008,"kvalster":6009,"opha":6010,"skapade":6011,"stjarna":6012,"hant":6013,"Strom":6014,"eds":6015,"rekord":6016,"Koudyet":6017,"fragan":6018,"visades":6019,"uttal":6020,"senaste":6021,"oft":6022,"cta":6023,"talen":6024,"mmar":6025,"Western":6026,"riksdag":6027,"anten":6028,"iella":6029,"svenskt":6030,"Cruz":6031,"saldes":6032,"forbatt":6033,"test":6034,"sjoar":6035,"hir":6036,"eral":6037,"Brom":6038,"stang":6039,"Elisa":6040,"1884":6041,"Mosk":6042,"Kalmar":6043,"typer":6044,"Sor":6045,"verka":6046,"namns":6047,"Pil":6048,"1863":6049,"exist":6050,"Loi":6051,"denne":6052,"wesi":6053,"ares":6054,"spanska":6055,"bilden":6056,"Sin":6057,"uten":6058,"regist":6059,"antha":6060,"ladi":6061,"ppa":6062,"Syrien":6063,"serier":6064,"Cur":6065,"Angeles":6066,"pjas":6067,"inspir":6068,"eira":6069,"erov":6070,"EU":6071,"forhallandena":6072,"Vin":6073,"cit":6074,"ffe":6075,"vagnar":6076,"Agua":6077,"orke":6078,"server":6079,"assist":6080,"Oscar":6081,"oto":6082,"ania":6083,"heterna":6084,"ansags":6085,"arts":6086,"umm":6087,"sammanhang":6088,"gin":6089,"Kron":6090,"hallet":6091,"Fra":6092,"ude":6093,"Gunnar":6094,"fog":6095,"roster":6096,"Hamp":6097,"mond":6098,"bes":6099,"Franco":6100,"Flera":6101,"dron":6102,"matemat":6103,"char":6104,"usen":6105,"Will":6106,"vinna":6107,"63":6108,"Gott":6109,"akantus":6110,"1860":6111,"Dy":6112,"forhallande":6113,"aga":6114,"Orten":6115,"Vasa":6116,"sadan":6117,"Domingo":6118,"1882":6119,"utt":6120,"Chil":6121,"Ria":6122,"bildar":6123,"skriva":6124,"Darah":6125,"omgivningen":6126,"cupen":6127,"ijan":6128,"officiella":6129,"avlade":6130,"chin":6131,"Champ":6132,"fallet":6133,"befinner":6134,"inledde":6135,"43":6136,"utvecklades":6137,"Manit":6138,"fiske":6139,"rella":6140,"Pap":6141,"arbetat":6142,"Lem":6143,"halls":6144,"sent":6145,"95":6146,"hundra":6147,"ygt":6148,"draget":6149,"fard":6150,"kopte":6151,"Sulawesi":6152,"tak":6153,"Ferdin":6154,"liber":6155,"ljung":6156,"artist":6157,"Spe":6158,"Aust":6159,"feld":6160,"professionell":6161,"ungen":6162,"oua":6163,"Abu":6164,"zen":6165,"ularis":6166,"Kongo":6167,"Dhar":6168,"sist":6169,"tros":6170,"byggnads":6171,"amento":6172,"information":6173,"vades":6174,"bestaende":6175,"Colle":6176,"standard":6177,"ule":6178,"Ky":6179,"hyp":6180,"stark":6181,"struktur":6182,"1879":6183,"avse":6184,"Psy":6185,"jus":6186,"tjanstgjorde":6187,"Antonio":6188,"sprid":6189,"finansi":6190,"Fu":6191,"patraff":6192,"edi":6193,"yng":6194,"Varl":6195,"frikan":6196,"forsalj":6197,"riksdagen":6198,"Sofia":6199,"Alber":6200,"ierra":6201,"ridge":6202,"East":6203,"vanster":6204,"Exem":6205,"Stre":6206,"katol":6207,"politik":6208,"masterskapet":6209,"Sovjetunionen":6210,"femte":6211,"cke":6212,"rande":6213,"mekan":6214,"Lis":6215,"Ann":6216,"Vit":6217,"adel":6218,"tillkom":6219,"Irak":6220,"fla":6221,"Fiji":6222,"antingen":6223,"viktigaste":6224,"Nilsson":6225,"stammar":6226,"klad":6227,"Victoria":6228,"Myn":6229,"Elisabet":6230,"41":6231,"universitetet":6232,"mil":6233,"oppor":6234,"Kos":6235,"betydande":6236,"slappte":6237,"underarten":6238,"Redan":6239,"Lunds":6240,"omus":6241,"haer":6242,"uda":6243,"grunden":6244,"Carol":6245,"tagen":6246,"Ferdinand":6247,"syft":6248,"Pers":6249,"tryc":6250,"Sem":6251,"Francisco":6252,"fjall":6253,"ool":6254,"aker":6255,"slutligen":6256,"hart":6257,"instrument":6258,"Vax":6259,"Adam":6260,"Foretag":6261,"ding":6262,"skjut":6263,"Johansson":6264,"Lanka":6265,"gjord":6266,"egang":6267,"svarta":6268,"ense":6269,"Ribeira":6270,"austra":6271,"CD":6272,"snar":6273,"1881":6274,"nominat":6275,"extra":6276,"strat":6277,"atemala":6278,"ocera":6279,"ار":6280,"Sat":6281,"semi":6282,"kyrkor":6283,"nomin":6284,"ifolia":6285,"Gh":6286,"artill":6287,"snamn":6288,"skyr":6289,"stens":6290,"utskott":6291,"Zagreb":6292,"uce":6293,"daribland":6294,"Kas":6295,"Suva":6296,"syfte":6297,"57":6298,"².":6299,"Guatemala":6300,"Departamento":6301,"Kyrkan":6302,"Holm":6303,"isch":6304,"motsvarar":6305,"rades":6306,"forord":6307,"foremal":6308,"pian":6309,"otte":6310,"polis":6311,"Ther":6312,"hoger":6313,"ij":6314,"spelas":6315,"mont":6316,"1865":6317,"konfli":6318,"Sason":6319,"maskar":6320,"stycken":6321,"insk":6322,"ums":6323,"ills":6324,"Dama":6325,"handlingar":6326,"ib":6327,"parasitflugor":6328,"Mary":6329,"veckor":6330,"Mid":6331,"Anth":6332,"Dur":6333,"fullmakt":6334,"yth":6335,"festivalen":6336,"rix":6337,"smaharkrankar":6338,"Jarn":6339,"itch":6340,"etten":6341,"kritik":6342,"ower":6343,"Manitoba":6344,"Massa":6345,"serar":6346,"cos":6347,"varn":6348,"Just":6349,"Exempel":6350,"Mah":6351,"kolle":6352,"amin":6353,"norsk":6354,"gast":6355,"Spar":6356,"perman":6357,"Ecu":6358,"kart":6359,"sey":6360,"Khor":6361,"him":6362,"sken":6363,"obius":6364,"olyck":6365,"inkluder":6366,"aro":6367,"oki":6368,"nej":6369,"Hockey":6370,"brak":6371,"slyck":6372,"karlek":6373,"matik":6374,"tatt":6375,"riaren":6376,"koreanska":6377,"camp":6378,"media":6379,"Familj":6380,"Pin":6381,"glans":6382,"funn":6383,"filosofie":6384,"myrart":6385,"stem":6386,"istisk":6387,"Tele":6388,"otill":6389,"beskrivs":6390,"kog":6391,"aterupp":6392,"iger":6393,"Pop":6394,"Forutom":6395,"Ing":6396,"Institut":6397,"kroppen":6398,"end":6399,"rysk":6400,"IS":6401,"solen":6402,"arden":6403,"1883":6404,"finlandsk":6405,"Hak":6406,"Och":6407,"drygt":6408,"1877":6409,"Hil":6410,"Lill":6411,"mex":6412,"fulla":6413,"Filipp":6414,"nominatformen":6415,"uppror":6416,"sera":6417,"ligaste":6418,"77":6419,"civil":6420,"utstallningar":6421,"blomflugor":6422,"overste":6423,"Scotia":6424,"hette":6425,"oppna":6426,"arker":6427,"ferenser":6428,"cin":6429,"Bengt":6430,"visning":6431,"stjarnor":6432,"Prot":6433,"omfattade":6434,"Castle":6435,"kak":6436,"klipp":6437,"havs":6438,"nem":6439,"japansk":6440,"prop":6441,"Arthur":6442,"tvingades":6443,"styrelse":6444,"Sucre":6445,"1874":6446,"flack":6447,"essen":6448,"uras":6449,"itionen":6450,"slogs":6451,"Myr":6452,"itten":6453,"obygg":6454,"aland":6455,"1875":6456,"Dominikanska":6457,"friidrott":6458,"58":6459,"seder":6460,"hort":6461,"valkrets":6462,"antas":6463,"box":6464,"kapell":6465,"tj":6466,"lamp":6467,"ase":6468,"ellus":6469,"Smaland":6470,"sburg":6471,"vade":6472,"Brown":6473,"Coll":6474,"ensam":6475,"Shar":6476,"engager":6477,"ence":6478,"hogt":6479,"fylumet":6480,"minuter":6481,"Mars":6482,"vika":6483,"individer":6484,"borr":6485,"alven":6486,"neg":6487,"eton":6488,"fyn":6489,"kvinnliga":6490,"otis":6491,"lagan":6492,"Green":6493,"ines":6494,"stjan":6495,"byggde":6496,"fokus":6497,"Ribeirao":6498,"rata":6499,"Ecuador":6500,"arina":6501,"skogar":6502,"Nic":6503,"onoma":6504,"tranare":6505,"mam":6506,"uppkallad":6507,"bedri":6508,"well":6509,"kvalsterart":6510,"Lom":6511,"idan":6512,"Irland":6513,"rapporter":6514,"99":6515,"Jakob":6516,"Pel":6517,"ical":6518,"die":6519,"bebyggt":6520,"iativ":6521,"misslyck":6522,"lings":6523,"karn":6524,"Yo":6525,"kraftigt":6526,"officiellt":6527,"blads":6528,"oiden":6529,"verkat":6530,"ligheten":6531,"splat":6532,"usten":6533,"flykt":6534,"hoglandsklimat":6535,"Kre":6536,"utrikes":6537,"nia":6538,"mmen":6539,"hag":6540,"mangden":6541,"pengar":6542,"utes":6543,"drottning":6544,"linje":6545,"Shuiku":6546,"ev":6547,"andin":6548,"yu":6549,"Et":6550,"egentligen":6551,"yle":6552,"stylt":6553,"pers":6554,"Olymp":6555,"Bot":6556,"gil":6557,"snackart":6558,"lojt":6559,"ssel":6560,"Gym":6561,"garen":6562,"Laur":6563,"168":6564,"Federationen":6565,"62":6566,"Tapp":6567,"Nue":6568,"Igar":6569,"Sun":6570,"ctus":6571,"sund":6572,"Lilla":6573,"tam":6574,"Ach":6575,"Kuba":6576,"olo":6577,"Crypt":6578,"leg":6579,"minnes":6580,"lific":6581,"Tiz":6582,"manien":6583,"Pic":6584,"grod":6585,"app":6586,"omor":6587,"landslag":6588,"observator":6589,"dipl":6590,"sann":6591,"kvinna":6592,"bott":6593,"rep":6594,"fier":6595,"hum":6596,"namnda":6597,"Heli":6598,"storlek":6599,"Vissa":6600,"edes":6601,"flockblommiga":6602,"wald":6603,"fordon":6604,"1876":6605,"baltet":6606,"omyza":6607,"kir":6608,"France":6609,"gle":6610,"Cir":6611,"Nou":6612,"1869":6613,"Israel":6614,"Finlands":6615,"Franz":6616,"arida":6617,"uellt":6618,"SC":6619,"Mann":6620,"Sr":6621,"sakerhet":6622,"inflytande":6623,"You":6624,"kullar":6625,"Has":6626,"anvandning":6627,"super":6628,"Sasongen":6629,"Cord":6630,"Charl":6631,"Samtidigt":6632,"bilar":6633,"has":6634,"Igarape":6635,"olis":6636,"suc":6637,"viol":6638,"befolkning":6639,"belag":6640,"ags":6641,"120":6642,"Bell":6643,"makedonska":6644,"omycetes":6645,"bostad":6646,"61":6647,"cas":6648,"Ivan":6649,"Jacques":6650,"terades":6651,"klart":6652,"oversattning":6653,"iri":6654,"utgjorde":6655,"aldern":6656,"represent":6657,"forestall":6658,"Cab":6659,"formis":6660,"benamn":6661,"1866":6662,"Star":6663,"Moskva":6664,"cap":6665,"funnits":6666,"forsvars":6667,"skapades":6668,"ckerlack":6669,"lata":6670,"tacker":6671,"ovis":6672,"jarnvags":6673,"illust":6674,"angs":6675,"sledamot":6676,"sporter":6677,"skivan":6678,"ball":6679,"hatt":6680,"hug":6681,"Linne":6682,"shire":6683,"ican":6684,"gett":6685,"ving":6686,"upphorde":6687,"lojtnant":6688,"Wood":6689,"tatbebyggt":6690,"kackerlack":6691,"fangelse":6692,"meddelade":6693,"pper":6694,"frit":6695,"beror":6696,"makten":6697,"Costa":6698,"Bent":6699,"sidor":6700,"Hop":6701,"parken":6702,"avtal":6703,"fotograf":6704,"webb":6705,"Kha":6706,"teknik":6707,"Tip":6708,"wal":6709,"Nun":6710,"Aph":6711,"Afrika":6712,"Tok":6713,"Lid":6714,"skomm":6715,"rymd":6716,"kompon":6717,"sadana":6718,"grash":6719,"78":6720,"Oli":6721,"betal":6722,"Mis":6723,"dos":6724,"mig":6725,"Ere":6726,"mandat":6727,"Jane":6728,"-,":6729,"skus":6730,"viktiga":6731,"hindra":6732,"eden":6733,"anvants":6734,"Zar":6735,"obel":6736,"bba":6737,"drom":6738,"aner":6739,"lagr":6740,"tiop":6741,"Egent":6742,"ophagus":6743,"lock":6744,"soner":6745,"hip":6746,"lavart":6747,"bry":6748,"orien":6749,"ogae":6750,"tering":6751,"kommiss":6752,"Vatten":6753,"olen":6754,"ode":6755,"otrich":6756,"versionen":6757,"Gavle":6758,"Jesus":6759,"osterrik":6760,"Jbel":6761,"varierar":6762,"utionen":6763,"seg":6764,"mul":6765,"varfor":6766,"kanske":6767,"psal":6768,"menar":6769,"1868":6770,"parish":6771,"orit":6772,"massa":6773,"White":6774,"ryg":6775,"Riviere":6776,"Verk":6777,"gro":6778,"emon":6779,"hallen":6780,"formaga":6781,"stag":6782,"skyl":6783,"Shah":6784,"salde":6785,"Karriar":6786,"mia":6787,"Wash":6788,"ekonomi":6789,"Kairo":6790,"prot":6791,"individ":6792,"1864":6793,"Hammar":6794,"sedermera":6795,"avi":6796,"Stu":6797,"obe":6798,"zhou":6799,"ktes":6800,"brist":6801,"ativa":6802,"etiska":6803,"Zeeland":6804,"mart":6805,"itte":6806,"atar":6807,"jurid":6808,"Bet":6809,"Rub":6810,"igan":6811,"Nom":6812,"Cro":6813,"Rut":6814,"ør":6815,"onde":6816,"mara":6817,"Sn":6818,"adens":6819,"Mir":6820,"ledande":6821,"aba":6822,"produkter":6823,"dekor":6824,"eval":6825,"utgavs":6826,"Fore":6827,"Gir":6828,"cept":6829,"ophilus":6830,"Tappeh":6831,"Isa":6832,"mani":6833,"mata":6834,"Cyr":6835,"onien":6836,"overgick":6837,"Wadi":6838,"line":6839,"ikern":6840,"berak":6841,"Salt":6842,"SVT":6843,"situ":6844,"myt":6845,"Bob":6846,"Pass":6847,"reakt":6848,"dap":6849,"Nam":6850,"Etiop":6851,"publicerades":6852,"grashoppor":6853,"vic":6854,"kristna":6855,"anes":6856,"Prod":6857,"tecken":6858,"hogskola":6859,"spin":6860,"ansen":6861,"wards":6862,"framtrad":6863,"nasta":6864,"Horn":6865,"astronomen":6866,"allvar":6867,"anstallda":6868,"yne":6869,"Wat":6870,"vind":6871,"Sl":6872,"Oslo":6873,"Svart":6874,"temperatur":6875,"jun":6876,"Dalarna":6877,"1858":6878,"union":6879,"qa":6880,"skad":6881,"eti":6882,"1867":6883,"ipes":6884,"1871":6885,"valdigt":6886,"zarba":6887,"vilj":6888,"inre":6889,"leva":6890,"aterfinns":6891,"itel":6892,"etus":6893,"malm":6894,"1872":6895,"sonen":6896,"pin":6897,"deltagare":6898,"lae":6899,"Qar":6900,"Top":6901,"rester":6902,"representerade":6903,"samlings":6904,"tekniska":6905,"Kasti":6906,"kolon":6907,"slakten":6908,"slan":6909,"Radio":6910,"Bom":6911,"71":6912,"FF":6913,"Damaskus":6914,"ove":6915,"tagande":6916,"andrades":6917,"slar":6918,"Pit":6919,"urval":6920,"ledningen":6921,"uppmarksamma":6922,"foraldrar":6923,"andinav":6924,"fria":6925,"publicerade":6926,"doda":6927,"gne":6928,"reformen":6929,"Abra":6930,"bete":6931,"Ci":6932,"brom":6933,"Ash":6934,"objekt":6935,"Mats":6936,"militara":6937,"edra":6938,"stock":6939,"producent":6940,"representerad":6941,"upplagan":6942,"kontin":6943,"utvecklade":6944,"Rag":6945,"ando":6946,"ranun":6947,"Gali":6948,"cra":6949,"ophylla":6950,"aukt":6951,"Die":6952,"vards":6953,"Egentliga":6954,"stiden":6955,"Umea":6956,"block":6957,"sats":6958,"sankm":6959,"1873":6960,"600":6961,"stadsdelen":6962,"Kastilien":6963,"Perth":6964,"yri":6965,"skrona":6966,"boli":6967,"hastighet":6968,"Hart":6969,"edd":6970,"opt":6971,"Nikola":6972,"ards":6973,"strids":6974,"infordes":6975,"wick":6976,"ongoli":6977,"800":6978,"saknar":6979,"traffade":6980,"otyp":6981,"lett":6982,"pred":6983,"miljon":6984,"phia":6985,"alist":6986,"aktiva":6987,"egori":6988,"ert":6989,"politisk":6990,"uf":6991,"Madaga":6992,"140":6993,"gitarr":6994,"grat":6995,"130":6996,"hak":6997,"Pam":6998,"utstallning":6999,"territor":7000,"79":7001,"Sierra":7002,"antik":7003,"socia":7004,"skulptur":7005,"skaff":7006,"Ophi":7007,"initiativ":7008,"nassel":7009,"kyrkog":7010,"Bezirk":7011,"Bes":7012,"itis":7013,"Lut":7014,"odin":7015,"styrkor":7016,"Sir":7017,"ologisk":7018,"Warren":7019,"Cyc":7020,"Bada":7021,"hegy":7022,"italiensk":7023,"stant":7024,"Vad":7025,"1861":7026,"App":7027,"Siah":7028,"imus":7029,"Bjorn":7030,"Alban":7031,"Francois":7032,"Cacho":7033,"singeln":7034,"1850":7035,"sankmarker":7036,"72":7037,"aktenskap":7038,"Jen":7039,"Klimatforhallandena":7040,"grader":7041,"Pyr":7042,"tillfal":7043,"utkom":7044,"Asteroiden":7045,"Etiopien":7046,"Tub":7047,"Nav":7048,"oria":7049,"250":7050,"jes":7051,"pac":7052,"Chic":7053,"genomfordes":7054,"uv":7055,"oke":7056,"Glav":7057,"hasa":7058,"Kyrk":7059,"gransar":7060,"Hell":7061,"repp":7062,"kommunerna":7063,"minne":7064,"skadespel":7065,"sociala":7066,"Status":7067,"mala":7068,"yes":7069,"slin":7070,"upphov":7071,"ephalus":7072,"ordinarie":7073,"()":7074,"huvudbaltet":7075,"fordel":7076,"hals":7077,"spart":7078,"Washington":7079,"Chlor":7080,"other":7081,"elever":7082,"flockblommig":7083,"Gabri":7084,"Feli":7085,"verkan":7086,"stades":7087,"tunnel":7088,"It":7089,"kunskap":7090,"Skol":7091,"ilis":7092,"alpa":7093,"Step":7094,"Melan":7095,"lass":7096,"SK":7097,"jiang":7098,"ond":7099,"Tav":7100,"lys":7101,"varia":7102,"Jamtland":7103,"benam":7104,"daremot":7105,"chis":7106,"Cerat":7107,"pam":7108,"stater":7109,"permanent":7110,"angen":7111,"Nap":7112,"stin":7113,"install":7114,"havare":7115,"Oued":7116,"Dock":7117,"Piz":7118,"zat":7119,"landslaget":7120,"olly":7121,"sitter":7122,"non":7123,"sallskap":7124,"Bap":7125,"undantag":7126,"Madagaskar":7127,"tju":7128,"98":7129,"trop":7130,"Belg":7131,"slav":7132,"ovre":7133,"Hir":7134,"vanligtvis":7135,"Bank":7136,"aring":7137,"rest":7138,"ardo":7139,"Vrh":7140,"karen":7141,"reste":7142,"utvecklingen":7143,"etabl":7144,"chal":7145,"metod":7146,"kompl":7147,"blommiga":7148,"dramat":7149,"resten":7150,"exped":7151,"fortsatta":7152,"High":7153,"Puer":7154,"Scha":7155,"Buttu":7156,"faren":7157,"rorelse":7158,"Utseende":7159,"aman":7160,"svav":7161,"Europeiska":7162,"sjukhus":7163,"socialdemokrat":7164,"Bulgari":7165,"frihet":7166,"roller":7167,"Augu":7168,"tyck":7169,"ambas":7170,"hyn":7171,"forband":7172,"splats":7173,"geli":7174,"tegel":7175,"dods":7176,"Britt":7177,"Hos":7178,"kreis":7179,"Bus":7180,"bir":7181,"kristen":7182,"sul":7183,"arius":7184,"uning":7185,"lagger":7186,"mastaren":7187,"Pek":7188,"bildning":7189,"Cachoeira":7190,"jel":7191,"vata":7192,"bladet":7193,"potatis":7194,"Arn":7195,"laggning":7196,"osi":7197,"medeltiden":7198,"kejsar":7199,"avratt":7200,"ple":7201,"arens":7202,"Sad":7203,"tolv":7204,"hana":7205,"registr":7206,"Kategori":7207,"kusten":7208,"Wer":7209,"konstru":7210,"Vasteras":7211,"Yang":7212,"anum":7213,"grand":7214,"mojlighet":7215,"Foretaget":7216,"Ostantarktis":7217,"bildas":7218,"May":7219,"...":7220,"oland":7221,"1859":7222,"manad":7223,"process":7224,"52":7225,"ows":7226,"Ast":7227,"svag":7228,"Hond":7229,"1000":7230,"akh":7231,"populara":7232,"Dip":7233,"Ljung":7234,"kallor":7235,"speciellt":7236,"Rapids":7237,"kret":7238,"oslav":7239,"Julius":7240,"Kim":7241,"jamfor":7242,"medlemmarna":7243,"nordiska":7244,"73":7245,"lige":7246,"uro":7247,"belon":7248,"oppnade":7249,"vul":7250,"kast":7251,"Dun":7252,"leda":7253,"forekom":7254,"ders":7255,"regissor":7256,"College":7257,"utforde":7258,"Len":7259,"element":7260,"Samuel":7261,"betydligt":7262,"precis":7263,"organisationer":7264,"Mall":7265,"qi":7266,"korta":7267,"Theodor":7268,"Khorasan":7269,"hone":7270,"Hur":7271,"faller":7272,"imeter":7273,"Love":7274,"pu":7275,"autonoma":7276,"Had":7277,"Mig":7278,"varden":7279,"masterskapen":7280,"svalet":7281,"naz":7282,"see":7283,"Kungariket":7284,"motsvarande":7285,"Anger":7286,"zarbaijan":7287,"forsoker":7288,"Range":7289,"ray":7290,"59":7291,"position":7292,"snings":7293,"koptes":7294,"ogaster":7295,"Saskat":7296,"Arbet":7297,"behandling":7298,"skiftet":7299,"fullt":7300,"stazarbaijan":7301,"ates":7302,"skinn":7303,"malningar":7304,"Deras":7305,"avgor":7306,"ungebin":7307,"Munchen":7308,"inleddes":7309,"Typ":7310,"dollar":7311,"soldater":7312,"Ec":7313,"politiskt":7314,"Pav":7315,"alo":7316,"fera":7317,"atom":7318,"ics":7319,"idea":7320,"medaljor":7321,"Osterbotten":7322,"heller":7323,"bring":7324,"Pahar":7325,"56":7326,"Ludvig":7327,"Estero":7328,"stjart":7329,"Mill":7330,"narmare":7331,"knott":7332,"Bac":7333,"pska":7334,"sande":7335,"skrivna":7336,"Monten":7337,"Politischer":7338,"Robin":7339,"schen":7340,"Hud":7341,"Hard":7342,"hea":7343,"hes":7344,"nier":7345,"avslutade":7346,"punc":7347,"sto":7348,"lech":7349,"RA":7350,"akta":7351,"ocker":7352,"chewan":7353,"hamnade":7354,"Scott":7355,"lax":7356,"planer":7357,"Bure":7358,"offer":7359,"stalt":7360,"Myc":7361,"88":7362,"rarna":7363,"falla":7364,"skusten":7365,"aur":7366,"sattningen":7367,"regementet":7368,"svampdjursart":7369,"styrka":7370,"sades":7371,"54":7372,"historien":7373,"skiva":7374,"76":7375,"eles":7376,"folket":7377,"Hug":7378,"Gamla":7379,"board":7380,"skij":7381,"Phyt":7382,"nabb":7383,"insat":7384,"kyrkans":7385,"fien":7386,"1857":7387,"fordra":7388,"Parc":7389,"behover":7390,"herre":7391,"gangar":7392,"symbol":7393,"Hit":7394,"top":7395,"Back":7396,"elektron":7397,"ungdoms":7398,"alum":7399,"skam":7400,"Lad":7401,"Larsson":7402,"vav":7403,"51":7404,"lossum":7405,"Strand":7406,"74":7407,"Bis":7408,"phala":7409,"vor":7410,"arer":7411,"Nort":7412,"kommunik":7413,"Saskatchewan":7414,"strandlinjen":7415,"total":7416,"eps":7417,"somraden":7418,"Mellersta":7419,"ao":7420,"anthes":7421,"svaxtart":7422,"Law":7423,"Tai":7424,"vartbit":7425,"yat":7426,"slottet":7427,"Belgien":7428,"karriaren":7429,"segr":7430,"aki":7431,"Kamar":7432,"farger":7433,"marknads":7434,"planet":7435,"viv":7436,"Serien":7437,"Varje":7438,"namnas":7439,"Champions":7440,"fullmaktige":7441,"vartbitare":7442,"drev":7443,"Cle":7444,"Riacho":7445,"kanalen":7446,"Ton":7447,"arus":7448,"udi":7449,"bury":7450,"ustrin":7451,"sarbar":7452,"fenben":7453,"hra":7454,"inslag":7455,"parlamentet":7456,"Aqu":7457,"Dji":7458,"anstalld":7459,"inneholl":7460,"offentliga":7461,"koncent":7462,"Gord":7463,"icornis":7464,"elev":7465,"bakgrund":7466,"oche":7467,"imm":7468,"advok":7469,"betraktas":7470,"Royal":7471,"anj":7472,"areal":7473,"sannoli":7474,"drift":7475,"Miss":7476,"folia":7477,"nedan":7478,"anges":7479,"aterigen":7480,"extre":7481,"monster":7482,"projektet":7483,"ocephalus":7484,"Colonia":7485,"paborj":7486,"Guinea":7487,"Qal":7488,"hotell":7489,"kus":7490,"Natura":7491,"Ukra":7492,"anord":7493,"Lakes":7494,"Chry":7495,"aran":7496,"opera":7497,"timmar":7498,"ologin":7499,"rol":7500,"dals":7501,"centimeter":7502,"Mitt":7503,"Distrikt":7504,"Yu":7505,"nr":7506,"visat":7507,"musiken":7508,"Srpska":7509,"Republika":7510,"kanna":7511,"States":7512,"gom":7513,"bildad":7514,"Wol":7515,"internationellt":7516,"interv":7517,"max":7518,"hogst":7519,"Lee":7520,"hyd":7521,"Anne":7522,"Tizi":7523,"Borg":7524,"Seg":7525,"skid":7526,"Prix":7527,"tac":7528,"Totalt":7529,"strav":7530,"wen":7531,"bered":7532,"Breuning":7533,"bouti":7534,"Chen":7535,"Num":7536,"specia":7537,"forandringar":7538,"Dicran":7539,"utrust":7540,"rovflugor":7541,"narna":7542,"Honduras":7543,"experi":7544,"administrativa":7545,"kad":7546,"synner":7547,"Bulgarien":7548,"Oz":7549,"dir":7550,"berattar":7551,"Mang":7552,"kvalific":7553,"studioalbum":7554,"lium":7555,"omfattning":7556,"villa":7557,"enhjartbladig":7558,"Atlant":7559,"vanner":7560,"\"\"":7561,"Kin":7562,"Fest":7563,"bili":7564,"sum":7565,"Forsvar":7566,"kloster":7567,"Djibouti":7568,"icolor":7569,"ocarpus":7570,"hul":7571,"klin":7572,"Svensk":7573,"longi":7574,"1848":7575,"Colombo":7576,"forts":7577,"Sac":7578,"spri":7579,"lah":7580,"delsen":7581,"renover":7582,"arder":7583,"satts":7584,"anfall":7585,"halvon":7586,"Infor":7587,"sattningar":7588,"dapest":7589,"skriver":7590,"1856":7591,"Arg":7592,"anti":7593,"minska":7594,"Budapest":7595,"Aland":7596,"Aut":7597,"borgar":7598,"para":7599,"Liber":7600,"beskriver":7601,"knapp":7602,"vader":7603,"essa":7604,"erba":7605,"EP":7606,"Wolf":7607,"standet":7608,"aliska":7609,"trans":7610,"ingom":7611,"ivi":7612,"53":7613,"ytte":7614,"egenskaper":7615,"romerska":7616,"Od":7617,"spets":7618,"1830":7619,"Guyana":7620,"Utt":7621,"paret":7622,"1852":7623,"orp":7624,"urn":7625,"اب":7626,"Blu":7627,"Rik":7628,"oppnades":7629,"Glavica":7630,"ky":7631,"utnytt":7632,"aph":7633,"American":7634,"byggda":7635,"vapnet":7636,"svara":7637,"aville":7638,"utgivet":7639,"Bam":7640,"Piper":7641,"forhallanden":7642,"Malm":7643,"accep":7644,"varefter":7645,"belaget":7646,"Roth":7647,"rut":7648,"bevarade":7649,"110":7650,"teri":7651,"Filippinerna":7652,"lilla":7653,"day":7654,"placerade":7655,"magnit":7656,"Lenn":7657,"made":7658,"tala":7659,"artister":7660,"wang":7661,"teatern":7662,"katolska":7663,"graf":7664,"ivet":7665,"inata":7666,"anta":7667,"peppar":7668,"Kenya":7669,"hat":7670,"sili":7671,"svaxter":7672,"won":7673,"vert":7674,"biograf":7675,"fonster":7676,"Fir":7677,"Josef":7678,"resor":7679,"utgiven":7680,"ningens":7681,"Bos":7682,"fing":7683,"Johnson":7684,"medverkat":7685,"tah":7686,"1855":7687,"forare":7688,"Wind":7689,"forlang":7690,"Morne":7691,"debatt":7692,"Montenegro":7693,"Elfenben":7694,"Varmland":7695,"broder":7696,"rosophila":7697,"framgangar":7698,"odia":7699,"syftar":7700,"sakademien":7701,"smaningom":7702,"School":7703,"enia":7704,"arterna":7705,"Gall":7706,"nens":7707,"palli":7708,"Mora":7709,"Mik":7710,"forsak":7711,"Brazz":7712,"Skargards":7713,"otillrackligt":7714,"Ayn":7715,"hab":7716,"Euc":7717,"Turk":7718,"Norden":7719,"evan":7720,"samlade":7721,"Pereval":7722,"glest":7723,"teckning":7724,"occus":7725,"innehall":7726,"Peru":7727,"texten":7728,"studera":7729,"talje":7730,"Hob":7731,"dyg":7732,"riga":7733,"hern":7734,"anpas":7735,"forsv":7736,"Moha":7737,"Bolag":7738,"hoven":7739,"Haw":7740,"produktionen":7741,"chot":7742,"bergen":7743,"Sz":7744,"escens":7745,"trumm":7746,"flottan":7747,".)":7748,"demon":7749,"della":7750,"Brazzaville":7751,"ello":7752,"chsen":7753,"Eriksson":7754,"Boken":7755,"oy":7756,"Herrarnas":7757,"influ":7758,"ferens":7759,"atter":7760,"utmark":7761,"usso":7762,"Mynnar":7763,"styltflugor":7764,"olle":7765,"Brand":7766,"ipennis":7767,"Elfenbenskusten":7768,"forran":7769,"Jul":7770,"quad":7771,"Bun":7772,"pansar":7773,"Wen":7774,"gemang":7775,"rup":7776,"stipen":7777,"eftertraddes":7778,"menade":7779,"inten":7780,"varv":7781,"Ye":7782,"rollerna":7783,"rent":7784,"Nem":7785,"jarnvag":7786,"Pala":7787,"Innan":7788,"Moore":7789,"fungerar":7790,"fjadermyggor":7791,"studerad":7792,"Cyper":7793,"Linkoping":7794,"Grad":7795,"aneh":7796,"gers":7797,"vanda":7798,"Music":7799,"ranunkel":7800,"Stappklimat":7801,"greve":7802,"mossor":7803,"internationell":7804,"minstone":7805,"Jor":7806,"bundet":7807,"itta":7808,"nagonsin":7809,"utstallningen":7810,"Skara":7811,"Dahl":7812,"beskriv":7813,"inrikt":7814,"brost":7815,"wis":7816,"BK":7817,"svis":7818,"kryp":7819,"Baker":7820,"lister":7821,"Sym":7822,"169":7823,"Referenser":7824,"Indian":7825,"1200":7826,"Wall":7827,"utok":7828,"orkester":7829,"cera":7830,"soni":7831,"hil":7832,"baserade":7833,"metall":7834,"Prin":7835,"Bakgrund":7836,"osum":7837,"ellen":7838,"ungar":7839,"klubbar":7840,"mut":7841,"passager":7842,"original":7843,"Phn":7844,"Territ":7845,"korall":7846,"Namn":7847,"definier":7848,"Tag":7849,"rug":7850,"foreningar":7851,"ungs":7852,"artiklar":7853,"sigt":7854,"1840":7855,"pec":7856,"Olsson":7857,"Abe":7858,"Ovan":7859,"Wang":7860,"89":7861,"Addis":7862,"live":7863,"tavlingar":7864,"Byggnaden":7865,"vack":7866,"ental":7867,"halften":7868,"cyl":7869,"kov":7870,"hai":7871,"skoldloss":7872,"Kle":7873,"Asien":7874,"svetenskap":7875,"tillfallen":7876,"trade":7877,"bostads":7878,"Vag":7879,"ogr":7880,"borger":7881,"quist":7882,"drama":7883,"fton":7884,"hua":7885,"sering":7886,"ophaga":7887,"arez":7888,"domdes":7889,"texter":7890,"ftea":7891,"Reyk":7892,"distri":7893,"Ouadi":7894,"Foreningen":7895,"folja":7896,"Bow":7897,"Run":7898,"mik":7899,"puck":7900,"ringen":7901,"Club":7902,"ident":7903,"medvet":7904,"Barra":7905,"sberg":7906,"byte":7907,"IFK":7908,"Organ":7909,"varian":7910,"Wilson":7911,"Bagdad":7912,"andrade":7913,"oter":7914,"Tipula":7915,"umb":7916,"ues":7917,"kritiker":7918,"misstan":7919,"begreppet":7920,"Beg":7921,"pades":7922,"oblast":7923,"Walter":7924,"Fur":7925,"fid":7926,"ов":7927,"revolutionen":7928,"Jones":7929,"مه":7930,"1851":7931,"Ark":7932,"Aret":7933,"order":7934,"Harry":7935,"fadern":7936,"goda":7937,"vagn":7938,"forbindelse":7939,"Chrys":7940,"Barcel":7941,"ور":7942,"Nordamerika":7943,"agog":7944,"Svan":7945,"narvarande":7946,"exp":7947,"kg":7948,"Hali":7949,"teori":7950,"Polyp":7951,"romanen":7952,"agen":7953,"flode":7954,"Opsjtina":7955,"ites":7956,"Chah":7957,"Glen":7958,"Stand":7959,"karna":7960,"Act":7961,"iserade":7962,"Tit":7963,"kortare":7964,"skador":7965,"Kop":7966,")\"":7967,"ego":7968,"opogon":7969,"Syl":7970,"erus":7971,"zu":7972,"sprakiga":7973,"tattingar":7974,"elin":7975,"skots":7976,"rip":7977,"fazat":7978,"allmant":7979,"Pom":7980,"utseende":7981,"lamningar":7982,"Skargardshavet":7983,"istik":7984,"sklub":7985,"Taung":7986,"Draa":7987,"normalt":7988,"klassiska":7989,"avent":7990,"Puerto":7991,"Dash":7992,"liknar":7993,"vuxen":7994,"Off":7995,"Let":7996,"Onth":7997,"Frit":7998,"86":7999,"CA":8000,"Uttar":8001,"1853":8002,"gula":8003,"tillrackligt":8004,"bourne":8005,"Astra":8006,"foli":8007,"lio":8008,"Williams":8009,"tjanste":8010,"lita":8011,"trett":8012,"Kultur":8013,"brut":8014,"Stal":8015,"byggt":8016,"Mul":8017,"ithe":8018,"Emil":8019,"faktor":8020,"baserat":8021,"Knut":8022,"faltet":8023,"minor":8024,"ylon":8025,"predik":8026,"gott":8027,"Play":8028,"mynnar":8029,"Kie":8030,"Slakt":8031,"sekv":8032,"General":8033,"sallan":8034,"Mohafazat":8035,"700":8036,"Portug":8037,"personal":8038,"inis":8039,"klot":8040,"Ida":8041,"Color":8042,"Tysk":8043,"republikan":8044,"Mine":8045,"opht":8046,"besegrade":8047,"Texas":8048,"ylor":8049,"handlingen":8050,"torp":8051,"Klubben":8052,"Kent":8053,"beslutade":8054,"Led":8055,"strackning":8056,"sangen":8057,"tern":8058,"robot":8059,"tror":8060,"Yt":8061,"uppstod":8062,"skada":8063,"genombrott":8064,"Gruppen":8065,"Beach":8066,"Maja":8067,"Brad":8068,"rotter":8069,"staderna":8070,"Vastergotland":8071,"cess":8072,"Rhe":8073,"intervju":8074,"vac":8075,"icta":8076,"Alberta":8077,"Pak":8078,"uela":8079,"borja":8080,"bedom":8081,"patraffats":8082,"elt":8083,"attack":8084,"Sidi":8085,"maskin":8086,"ew":8087,"erats":8088,"historisk":8089,"Reykjav":8090,"Vetenskap":8091,"oav":8092,"stop":8093,"forsknings":8094,"Oc":8095,"1854":8096,"Distriktet":8097,"sokt":8098,"traditionella":8099,"andre":8100,"intill":8101,"kommunhuvudort":8102,"rana":8103,"Dod":8104,"oleandervaxter":8105,"framforallt":8106,"ostoma":8107,"Khar":8108,"avdelning":8109,"polska":8110,"fartyget":8111,"borgare":8112,"Sus":8113,"Herman":8114,"Onthophagus":8115,"elva":8116,"handboll":8117,"ktion":8118,"ydde":8119,"medicin":8120,"islam":8121,"systematik":8122,"Engel":8123,"yst":8124,"tillhorande":8125,"Wi":8126,"Andreas":8127,"australi":8128,"US":8129,"atminstone":8130,"Ball":8131,"rygg":8132,"bidrog":8133,"modellen":8134,"framat":8135,"celler":8136,"sloj":8137,"marknaden":8138,"bytt":8139,"كوه":8140,"Mam":8141,"stral":8142,"befordra":8143,"metoder":8144,"1849":8145,"framgangsrika":8146,"Dry":8147,"zjan":8148,"siff":8149,"terar":8150,"kalen":8151,"agnade":8152,"Pir":8153,"Chang":8154,"skop":8155,"utbildade":8156,"sea":8157,"itter":8158,"fet":8159,"finna":8160,"ortsvaxter":8161,"erbju":8162,"Nordkorea":8163,"Syda":8164,"Hampson":8165,"Comm":8166,"Mem":8167,"samlar":8168,"Spring":8169,"ango":8170,"Dipl":8171,"bryg":8172,"Kungs":8173,"palats":8174,"dyn":8175,"talis":8176,"yttre":8177,"tung":8178,"Reykjavik":8179,"Dich":8180,"Statens":8181,"Xant":8182,"Til":8183,"tider":8184,"event":8185,"sii":8186,"advokat":8187,"jed":8188,"Bulb":8189,"sammanlagt":8190,"brett":8191,"Internationella":8192,"Dig":8193,"etia":8194,"narmast":8195,"distan":8196,"glanssteklar":8197,"mund":8198,"iland":8199,"psalm":8200,"rill":8201,"pastorat":8202,"bs":8203,"ypt":8204,"Pedro":8205,"skrivning":8206,"emang":8207,"AIK":8208,"mjol":8209,"tillverkades":8210,"Chicago":8211,"lankar":8212,"Maz":8213,"stenar":8214,"Mans":8215,"osh":8216,"Wik":8217,"ay":8218,"vanligaste":8219,"upplostes":8220,"Lasi":8221,"erbo":8222,"osper":8223,"Rem":8224,"nars":8225,"ingham":8226,"kins":8227,"Doli":8228,"parall":8229,"artikel":8230,"konservat":8231,"anslutning":8232,"ked":8233,"lju":8234,"Evan":8235,"rium":8236,"desig":8237,"Jonas":8238,"bebyggelse":8239,"turneringen":8240,"Dis":8241,"Gilbert":8242,"malet":8243,"Pur":8244,"oleon":8245,"spansk":8246,"Sundsv":8247,"wo":8248,"Rac":8249,"magnitud":8250,"dea":8251,"ikon":8252,"yrkes":8253,"visas":8254,"lapp":8255,"ucig":8256,"tennis":8257,"Lek":8258,"anni":8259,"kannet":8260,"Din":8261,"kanneteck":8262,"foring":8263,"ilton":8264,"Center":8265,"rey":8266,"Philipp":8267,"chn":8268,"socknen":8269,"Win":8270,"Bandet":8271,"ilo":8272,"utmar":8273,"slov":8274,"skivor":8275,"Calli":8276,"vive":8277,"varm":8278,"cks":8279,"kanner":8280,"inborde":8281,"talar":8282,"personen":8283,"pals":8284,"ogne":8285,"standigt":8286,"nodvand":8287,"data":8288,"opel":8289,"bun":8290,"Cten":8291,"Havanna":8292,"skj":8293,"Landkreis":8294,"Finska":8295,"mynt":8296,"Levu":8297,"folkrakningen":8298,"olus":8299,"alko":8300,"eme":8301,"Cri":8302,"jazz":8303,"ryck":8304,"tim":8305,"ensson":8306,"ritningar":8307,"oco":8308,"Ay":8309,"universitets":8310,"kammaren":8311,"yeong":8312,"kod":8313,"bekraft":8314,"Tob":8315,"kyrkoher":8316,"manlands":8317,"syns":8318,"spann":8319,"aux":8320,"bulgari":8321,"Bapti":8322,"pennis":8323,"Agr":8324,"Eva":8325,"Fars":8326,"tidskriften":8327,"ych":8328,"Halsing":8329,"utta":8330,"konvent":8331,"avveck":8332,"aco":8333,"Orth":8334,"skivbolaget":8335,"drakt":8336,"itze":8337,"cial":8338,"Say":8339,"Ces":8340,"Mey":8341,"Gabriel":8342,"abad":8343,"Norrkoping":8344,"blandning":8345,"utskottet":8346,"Gab":8347,"soldat":8348,"banken":8349,"Arch":8350,"ukro":8351,"oko":8352,"othi":8353,"Beet":8354,"ucigalpa":8355,"Meg":8356,"Tegucigalpa":8357,"denten":8358,"fysik":8359,"Reserve":8360,"Ned":8361,"Reich":8362,"Bost":8363,"gallmyggor":8364,"iola":8365,"Cours":8366,"Lagoa":8367,"hah":8368,"freds":8369,"arkitektur":8370,"ambassa":8371,"Cet":8372,"lep":8373,"Frederick":8374,"Fot":8375,"bou":8376,"iph":8377,"konstnaren":8378,"eftertradde":8379,"cykel":8380,"konsert":8381,"Kallor":8382,"varme":8383,"Guer":8384,"vision":8385,"Muller":8386,"oneura":8387,"latta":8388,"olja":8389,"radande":8390,"amal":8391,"saledes":8392,"Stads":8393,"honan":8394,"Valle":8395,"dun":8396,"Eurovis":8397,"partiets":8398,"omvand":8399,"bandy":8400,"varna":8401,"Pand":8402,"finlandska":8403,"fars":8404,"stallande":8405,"ffa":8406,"Iso":8407,"fynd":8408,"sval":8409,"trycket":8410,"trag":8411,"Nuuk":8412,"Rica":8413,"ulen":8414,"Schiz":8415,"Vik":8416,"sjatte":8417,"metal":8418,"viks":8419,"Social":8420,"reklam":8421,"variant":8422,"Sid":8423,"folkm":8424,"sekunder":8425,"tillverkning":8426,"Hay":8427,"FA":8428,"tvaa":8429,"motte":8430,"gasin":8431,"Forst":8432,"nard":8433,"qui":8434,"mem":8435,"rell":8436,"religiosa":8437,"Podgor":8438,"milis":8439,"alus":8440,"Lik":8441,"Ytter":8442,"vasen":8443,"oris":8444,"tian":8445,"oshi":8446,"Vr":8447,"One":8448,"rah":8449,"barnen":8450,"Ring":8451,"Rein":8452,"Pse":8453,"kommunreformen":8454,"Nov":8455,"Museum":8456,"ruf":8457,"kvarteret":8458,"bek":8459,"diale":8460,"multi":8461,"Care":8462,"aton":8463,"sner":8464,"yeh":8465,"ouz":8466,"Sak":8467,"kansl":8468,"ophia":8469,"Helsingborg":8470,"Water":8471,"prefektur":8472,"Tun":8473,"erberg":8474,"By":8475,"Pad":8476,"Master":8477,"nejlik":8478,"pav":8479,"diplomat":8480,"rings":8481,"Barcelona":8482,"BA":8483,"Tekniska":8484,"historiskt":8485,"gogae":8486,"Franska":8487,"Baptiste":8488,"Muh":8489,"onus":8490,"statliga":8491,"Bour":8492,"bens":8493,"oberoende":8494,"lagar":8495,"Nich":8496,"fasta":8497,"manniskan":8498,"Kil":8499,"Gunt":8500,"Ingen":8501,"ocal":8502,"Odon":8503,"Ford":8504,"quin":8505,"Centre":8506,"uppmarksamhet":8507,"Vilhelm":8508,"dirig":8509,"kav":8510,"ressen":8511,"regionhuvudstaden":8512,"strads":8513,"special":8514,"omataceae":8515,"konkurr":8516,"isterna":8517,"rok":8518,"Turner":8519,"inella":8520,"odendron":8521,"jev":8522,"Florida":8523,"Ris":8524,"iler":8525,"Podgorica":8526,"ligtvis":8527,"omgangen":8528,"skontrakt":8529,"Yamo":8530,"lier":8531,"flor":8532,"Bureau":8533,"foregang":8534,"1400":8535,"1847":8536,"lap":8537,"koloni":8538,"tvavingar":8539,"landst":8540,"VI":8541,"gensis":8542,"Turkiet":8543,"zia":8544,"serat":8545,"batar":8546,"amne":8547,"cip":8548,"smannen":8549,"graci":8550,"fu":8551,"talas":8552,"bevis":8553,"historiker":8554,"Yamousso":8555,"Zard":8556,"fritt":8557,"tum":8558,"Yamoussoukro":8559,"zig":8560,"mote":8561,"damm":8562,"uke":8563,"cum":8564,"”,":8565,"ofs":8566,"husen":8567,"fasci":8568,"Estland":8569,"kommersi":8570,"ularia":8571,"olph":8572,"tidens":8573,"bladhorningar":8574,"Stig":8575,"Vaxjo":8576,"lost":8577,"poj":8578,"bilis":8579,"ryp":8580,"Kum":8581,"Varlds":8582,"asen":8583,"feder":8584,"iculata":8585,"sprang":8586,"Boh":8587,"kunga":8588,"1846":8589,"kanadens":8590,"Call":8591,"prom":8592,"Vo":8593,"ademi":8594,"malade":8595,"lagstift":8596,"ophorus":8597,"Eurovision":8598,"docent":8599,"kalk":8600,"rater":8601,"hamt":8602,"Fon":8603,"Blom":8604,"Cens":8605,"Emi":8606,"utveckla":8607,"skildr":8608,"Socknen":8609,"Viet":8610,"Gur":8611,"esia":8612,"Ske":8613,"Vel":8614,"minn":8615,"ysi":8616,"Janeiro":8617,"skogen":8618,"sammanslag":8619,"Philip":8620,"video":8621,"ationerna":8622,"sli":8623,"FN":8624,"Kel":8625,"Valen":8626,"ular":8627,"Doug":8628,"worth":8629,"statt":8630,"upe":8631,"Elisabeth":8632,"prag":8633,"begravd":8634,"zakstan":8635,"oleandervaxtart":8636,"Rene":8637,"stannade":8638,"speg":8639,"kultu":8640,"Andr":8641,"regement":8642,"BC":8643,"hitta":8644,"Drott":8645,"lokaler":8646,"Ross":8647,"natten":8648,"modeller":8649,"strateg":8650,"Adela":8651,"pek":8652,"gruppens":8653,"viktigt":8654,"transport":8655,"row":8656,"riksdags":8657,"Cali":8658,"Greg":8659,"utov":8660,"regerings":8661,"utbrott":8662,"tifier":8663,"sallsyn":8664,"avsnittet":8665,"Gros":8666,"Loire":8667,"resp":8668,"emen":8669,"statens":8670,"Hugo":8671,"nest":8672,"tel":8673,"spet":8674,"transporter":8675,"Jackson":8676,"monument":8677,"infan":8678,"landa":8679,"ortsvaxtart":8680,"besokte":8681,"Schmid":8682,"filosofi":8683,"erbajd":8684,"arkitekten":8685,"ppe":8686,"Pyong":8687,"Dublin":8688,"avsked":8689,"1300":8690,"Chur":8691,"fastighet":8692,"komplex":8693,"Margareta":8694,"Nuevo":8695,"groddjursart":8696,"brig":8697,"Bod":8698,"Byn":8699,"Blek":8700,"overtog":8701,"alternativ":8702,"geri":8703,"tillbring":8704,"autom":8705,"skadespelaren":8706,"skel":8707,"Cos":8708,"Karelen":8709,"framtradande":8710,"utover":8711,"othe":8712,"berga":8713,"Halm":8714,"82":8715,"Jr":8716,"rats":8717,"tillhorigheten":8718,"romersk":8719,"heh":8720,"erbajdzjan":8721,"erier":8722,"inve":8723,"allmanhet":8724,"sparris":8725,"omedel":8726,"Gardaneh":8727,"cla":8728,"kos":8729,"yen":8730,"frikanska":8731,"hom":8732,"brunn":8733,"Carolina":8734,"Hul":8735,"چش":8736,"papper":8737,"Tig":8738,"bruket":8739,"Fern":8740,"Zam":8741,"akadem":8742,"grann":8743,"Ilha":8744,"oten":8745,"Jun":8746,"slappt":8747,"tankt":8748,"bab":8749,"atra":8750,"prost":8751,"tecknare":8752,"zab":8753,"pip":8754,"leden":8755,"observatoriet":8756,"Auguste":8757,"yon":8758,"spolit":8759,"ople":8760,"Roda":8761,"Akra":8762,"Poli":8763,"framstaende":8764,"IA":8765,"trupp":8766,"Seri":8767,"turne":8768,"1838":8769,"Laurent":8770,"blommor":8771,"gods":8772,"onym":8773,"familjer":8774,"resultatet":8775,"hof":8776,"slangd":8777,"Cano":8778,"ivan":8779,"Sum":8780,"arets":8781,"minut":8782,"Arets":8783,"bygd":8784,"Krig":8785,"neum":8786,"koppar":8787,"make":8788,"Wu":8789,"Montre":8790,"overfordes":8791,"staterna":8792,"forsor":8793,"privata":8794,"huvudet":8795,"antin":8796,"Mand":8797,"Torn":8798,"Teater":8799,"flytta":8800,"Xi":8801,"sovjetiska":8802,"mina":8803,"gemensamma":8804,"alitet":8805,"bostader":8806,"rosvaxter":8807,"aventyr":8808,"stalld":8809,"konstruktion":8810,"hani":8811,"rador":8812,"Platy":8813,"miljarder":8814,"ocke":8815,"Hamilton":8816,"Fab":8817,"gruva":8818,"Abeba":8819,"raf":8820,"ultat":8821,"assel":8822,"چشمه":8823,"84":8824,"Thel":8825,"skrivare":8826,"elson":8827,"ison":8828,"Thom":8829,"ehr":8830,"sexamen":8831,"Luis":8832,"startades":8833,"skning":8834,"Adel":8835,"Balt":8836,"krimin":8837,"tidning":8838,"myrtenvaxter":8839,"isol":8840,"soc":8841,"reservo":8842,"hallit":8843,"trask":8844,"Vidare":8845,"Kef":8846,"Ud":8847,"torelvaxter":8848,"Kuk":8849,"ladimir":8850,"Ner":8851,"Peking":8852,"mum":8853,"Beethoven":8854,"MS":8855,"kines":8856,"Stanley":8857,"Census":8858,"foljare":8859,"Donald":8860,"Jur":8861,"Sommar":8862,"tjock":8863,"Mongoli":8864,"later":8865,"aspis":8866,"bomb":8867,"Alpes":8868,"snarare":8869,"Nab":8870,"design":8871,"vatet":8872,"83":8873,"brann":8874,"Adelaide":8875,"Pyongyang":8876,"Gang":8877,"producerade":8878,"romaner":8879,"begar":8880,"foral":8881,"mix":8882,"Lok":8883,"atre":8884,"Fageln":8885,"representerar":8886,"inae":8887,"naturliga":8888,"Hong":8889,"varo":8890,"studenter":8891,"fored":8892,"onidae":8893,"halvgras":8894,"Anom":8895,"bly":8896,"Gotland":8897,"1844":8898,"Kj":8899,"chan":8900,"ologen":8901,"edel":8902,"olas":8903,"vardera":8904,"effe":8905,"wall":8906,"gata":8907,"Darfor":8908,"underhall":8909,"ekonomisk":8910,"Ath":8911,"utspelar":8912,"grekisk":8913,"Alek":8914,"elegan":8915,"Externa":8916,"Andrew":8917,"strof":8918,"Akt":8919,"amus":8920,"hoppspindlar":8921,"manna":8922,"issa":8923,"smyck":8924,"Neu":8925,"Brach":8926,"\"(":8927,"itioner":8928,"ovac":8929,"trada":8930,"Ich":8931,"attslandor":8932,"bridge":8933,"ough":8934,"plos":8935,"tillverkade":8936,"olympisk":8937,"vaga":8938,"arligen":8939,"namligen":8940,"Now":8941,"oste":8942,"iteter":8943,"ligheter":8944,"forman":8945,"iris":8946,"stenen":8947,"frig":8948,"Gad":8949,"batal":8950,"emin":8951,"Vladimir":8952,"invand":8953,"diver":8954,"jde":8955,"tingslag":8956,"Jonsson":8957,"Spelet":8958,"center":8959,"artilleri":8960,"storstad":8961,"plo":8962,"yrus":8963,"fs":8964,"rektor":8965,"utifran":8966,"inder":8967,"alia":8968,"anter":8969,"dets":8970,"ulosa":8971,"botan":8972,"anerna":8973,"tydligt":8974,"epis":8975,"harstammar":8976,"gors":8977,"turk":8978,"Dagh":8979,"offentlig":8980,"berattelser":8981,"insatser":8982,"inar":8983,"svid":8984,"Hjal":8985,"Ola":8986,"bladiga":8987,"fat":8988,"oun":8989,"tidig":8990,"ersatte":8991,"lamnat":8992,"bund":8993,"sorg":8994,"Dong":8995,"Vie":8996,"Katarina":8997,"tandspinnare":8998,"programledare":8999,"Petit":9000,"eu":9001,"gos":9002,"vatmarker":9003,"cyk":9004,"flottilj":9005,"stug":9006,"slang":9007,"اد":9008,"fattar":9009,"obia":9010,"idion":9011,"polisen":9012,"glaci":9013,"jae":9014,"narings":9015,"Grund":9016,"Khu":9017,"ariga":9018,"Hov":9019,"acia":9020,"fotingar":9021,"komplett":9022,"Quito":9023,"enkelt":9024,"utrustning":9025,"Doro":9026,"Fj":9027,"Rost":9028,"fabriken":9029,"Cot":9030,"varor":9031,"Rosa":9032,"studie":9033,"fragorna":9034,"Miguel":9035,"syra":9036,"etabler":9037,"Persson":9038,"Arvid":9039,"Mach":9040,"Gull":9041,"Ung":9042,"kommunalforbundet":9043,"Jug":9044,"versioner":9045,"Hum":9046,"enskilda":9047,"Jiang":9048,"Howard":9049,"Adrar":9050,".-":9051,"odrom":9052,"experiment":9053,"Sub":9054,"regl":9055,"efternamn":9056,"illus":9057,"ollen":9058,"mode":9059,"genomforde":9060,"diskut":9061,"cium":9062,"Aur":9063,"Taylor":9064,"bjor":9065,"omia":9066,"angzhou":9067,"sagor":9068,"Cote":9069,"Elit":9070,"alpus":9071,"ansvarig":9072,"87":9073,"Real":9074,"sarskild":9075,"solo":9076,"Amazon":9077,"Low":9078,"Konda":9079,"stationer":9080,"yllis":9081,"Ix":9082,"tecknade":9083,"Goran":9084,"schweiz":9085,"myrtenvaxtart":9086,"Fen":9087,"anlades":9088,"Vietnam":9089,"familje":9090,"Chaet":9091,"nyck":9092,"posten":9093,"Melbourne":9094,"separat":9095,"ellidae":9096,"vintern":9097,"revolution":9098,"blo":9099,"utvid":9100,"ience":9101,"hjalpa":9102,"aska":9103,"skolans":9104,"Dahr":9105,"Grupp":9106,"icip":9107,"braken":9108,"Fair":9109,"Bud":9110,"Chat":9111,"Tat":9112,"klockan":9113,"samtida":9114,"MA":9115,"chefen":9116,"81":9117,"oti":9118,"legen":9119,"lagare":9120,"byra":9121,"varvid":9122,"nastin":9123,"Corne":9124,"cius":9125,"Bara":9126,"arm":9127,"bei":9128,"utlandska":9129,"domet":9130,"egendom":9131,"teckningar":9132,"rank":9133,"varianter":9134,"ellia":9135,"Young":9136,"Boy":9137,"Chri":9138,"fodda":9139,"opol":9140,"totala":9141,"amat":9142,"Finn":9143,"malvavaxter":9144,"Fun":9145,"Dog":9146,"teras":9147,"1842":9148,"ptus":9149,"producerades":9150,"Colorado":9151,"svik":9152,"satter":9153,"Vastantarktis":9154,"Allsvenskan":9155,"delning":9156,"hander":9157,"diet":9158,"Lyn":9159,"Stein":9160,"Glava":9161,"sanka":9162,"Psychot":9163,"idus":9164,"Kazakstan":9165,"driver":9166,"Nyland":9167,"Mog":9168,"smakten":9169,"uppdraget":9170,"Strauss":9171,"pedagog":9172,"Mongoliet":9173,"skin":9174,"terat":9175,"ophi":9176,"angar":9177,"Rat":9178,"Natur":9179,"Schlech":9180,"wart":9181,"princip":9182,"anslot":9183,"ryss":9184,"Union":9185,"atgar":9186,"Reservatet":9187,"Cant":9188,"mmy":9189,"Edu":9190,"Gle":9191,"sjong":9192,"dikter":9193,"svidknott":9194,"regioner":9195,"trollslandeart":9196,"Mika":9197,"premiarminister":9198,"Moham":9199,"rors":9200,"skytte":9201,"mossdjursart":9202,"LC":9203,"kopa":9204,"etti":9205,"Bebygg":9206,"driv":9207,"bulgariska":9208,"Anti":9209,"oman":9210,"vager":9211,"Lulea":9212,"Societ":9213,"beromda":9214,"iso":9215,"kyrkobygg":9216,"stallen":9217,"Psychotria":9218,"Bulbophyllum":9219,"Xyl":9220,"antis":9221,"inkluderar":9222,"langtungebin":9223,"Kara":9224,"leken":9225,"linjer":9226,"resulterade":9227,"imp":9228,"kraver":9229,"Tetra":9230,"Award":9231,"uppfor":9232,"egentliga":9233,"reda":9234,"koncer":9235,"avsed":9236,"hamns":9237,"torelvaxtart":9238,"Contest":9239,"dahl":9240,"chester":9241,"valla":9242,"skript":9243,"Ler":9244,"agar":9245,"Blue":9246,"sut":9247,"Cien":9248,"dalen":9249,"ettix":9250,"Slut":9251,"supp":9252,"parad":9253,"Guld":9254,"hovding":9255,"europe":9256,"Olympiska":9257,"Prout":9258,"gyn":9259,"pum":9260,"eni":9261,"Paulo":9262,"Daghi":9263,"iceps":9264,"anstalldes":9265,"Ostergotland":9266,"igi":9267,"And":9268,"haus":9269,"stjarnan":9270,"Michel":9271,"vinst":9272,"vinterspelen":9273,"Cypern":9274,"Ug":9275,"undervisning":9276,"saknas":9277,"spi":9278,"borjat":9279,"Vene":9280,"titt":9281,"tornet":9282,"reich":9283,"indelning":9284,"Compan":9285,"religion":9286,"krafter":9287,"ianus":9288,"byggas":9289,"Cher":9290,"Slo":9291,"onica":9292,"graden":9293,"Gas":9294,"avgjordes":9295,"beskrev":9296,"ladd":9297,"ifier":9298,"gus":9299,"bestamde":9300,"Tasmanien":9301,"detalj":9302,"idaceae":9303,"etapp":9304,"Pant":9305,"Mou":9306,"Sall":9307,"handa":9308,"omys":9309,"tenu":9310,"Portugal":9311,"Zan":9312,"sorter":9313,"1845":9314,"Hub":9315,"Tyr":9316,"halvgrasart":9317,"urner":9318,"storp":9319,"ela":9320,"finnas":9321,"rant":9322,"akantusvaxter":9323,"Jonkopings":9324,"friidrottare":9325,"iao":9326,"antogs":9327,"Tubu":9328,"Ofta":9329,"sate":9330,"odox":9331,"medlems":9332,"Parac":9333,"begravning":9334,"synnerhet":9335,"Pont":9336,"yia":9337,"skydds":9338,"Minas":9339,"punkter":9340,"Phnum":9341,"Gold":9342,"rons":9343,"stone":9344,"delad":9345,"varvades":9346,"slos":9347,"Haj":9348,"Sydafrika":9349,"beraknas":9350,"Kotal":9351,"Associ":9352,"golf":9353,"ospor":9354,"rerade":9355,"toppen":9356,"Lewis":9357,"paborjades":9358,"enor":9359,"1839":9360,"segel":9361,"Ukraina":9362,"sne":9363,"formod":9364,"introducerades":9365,"fund":9366,"flex":9367,"klara":9368,"sangaren":9369,"bandets":9370,"bladloss":9371,"innehade":9372,"Hooker":9373,"funktioner":9374,"fungerade":9375,"Eskil":9376,"Guad":9377,"Pointe":9378,"marna":9379,"rorelser":9380,"mier":9381,"allmanheten":9382,"92":9383,"Rin":9384,"bruna":9385,"lasa":9386,"brasili":9387,"esch":9388,"grona":9389,"zin":9390,"forestand":9391,"stro":9392,"Leonard":9393,"foda":9394,"otal":9395,"bium":9396,"Pampa":9397,"Mit":9398,"lantbruk":9399,"placering":9400,"leuc":9401,"Karlskrona":9402,"avgick":9403,"gjorts":9404,"ocarpa":9405,"Penn":9406,"svavflugor":9407,"klost":9408,"reservoar":9409,"900":9410,"Zap":9411,"Bull":9412,"formellt":9413,"lopare":9414,"Dendro":9415,"veckan":9416,"Canada":9417,"ffar":9418,"laggande":9419,"atak":9420,"aff":9421,"Post":9422,"telefon":9423,"Prince":9424,"ifer":9425,"sjukdomar":9426,"Filip":9427,"origin":9428,"kogel":9429,"vu":9430,"placeras":9431,"tatort":9432,"ioides":9433,"Ordet":9434,"rummet":9435,"chel":9436,"denburg":9437,"avgorande":9438,"nel":9439,"96":9440,"rero":9441,"skommun":9442,"ione":9443,"edia":9444,"Micro":9445,"institutet":9446,"phis":9447,"Ile":9448,"vecka":9449,"Karlsson":9450,"Ake":9451,"Rav":9452,"forhand":9453,"ografiska":9454,"doden":9455,"orgel":9456,"ogi":9457,"Chia":9458,"hjarn":9459,"lanserades":9460,"Tap":9461,"partier":9462,"Hoch":9463,"Hes":9464,"erska":9465,"Fla":9466,"lug":9467,"xen":9468,"hynchus":9469,"ogat":9470,"Lilj":9471,"ilen":9472,"Zi":9473,"medborgare":9474,"syrsor":9475,"Ursprung":9476,"Gha":9477,"gur":9478,"latarna":9479,"Resultat":9480,"Ever":9481,"icia":9482,"ells":9483,"Rose":9484,"xia":9485,"Lux":9486,"akte":9487,"galus":9488,"framstall":9489,"Rhod":9490,"gemensamt":9491,"isering":9492,"yna":9493,"upplev":9494,"upplaga":9495,"Harris":9496,"Nieder":9497,"kopinghuvudort":9498,"Centrala":9499,"eto":9500,"invaldes":9501,"Virg":9502,"tyskland":9503,"berlin":9504,"segl":9505,"torget":9506,"upptradde":9507,"drivs":9508,"Wag":9509,"medaljer":9510,"Lav":9511,"erovrade":9512,"arena":9513,"nut":9514,"enheter":9515,"klatt":9516,"grasvaxtart":9517,"gemensam":9518,"ako":9519,"hackar":9520,"icollis":9521,"cist":9522,"valja":9523,"1100":9524,"Astragalus":9525,"spun":9526,"ulium":9527,"Ernest":9528,"Jin":9529,"Bunt":9530,"figurer":9531,"spelad":9532,"indiska":9533,"uge":9534,"sjalvstandighet":9535,"nack":9536,"hud":9537,"avskaff":9538,"Fabri":9539,"trader":9540,"rosvaxtart":9541,"illon":9542,"ishockeyspelare":9543,"Skelle":9544,"Orn":9545,"stabil":9546,"forklarade":9547,"DNA":9548,"lob":9549,"andi":9550,"gallde":9551,"Ponta":9552,"Prov":9553,"rie":9554,"Armen":9555,"signal":9556,"Dac":9557,"Ret":9558,"sot":9559,"bilen":9560,"Edwards":9561,"xa":9562,"igg":9563,"fortsatter":9564,"isar":9565,"kombination":9566,"Lju":9567,"anty":9568,"kot":9569,"verb":9570,"Euro":9571,"unionens":9572,"edo":9573,"avgran":9574,"Jung":9575,"helst":9576,"mangder":9577,"Alm":9578,"atorer":9579,"cerat":9580,"laggningen":9581,"planen":9582,"zel":9583,"jaure":9584,"Albanien":9585,"honor":9586,"Viktor":9587,"Sap":9588,"Pach":9589,"fried":9590,"ussen":9591,"97":9592,"Minor":9593,"Lisa":9594,"Bok":9595,"talade":9596,"igu":9597,"Egen":9598,"oniidae":9599,"splatsen":9600,"stadsdel":9601,"Organis":9602,"Log":9603,"odont":9604,"intens":9605,"Thi":9606,"karl":9607,"idu":9608,"humor":9609,"smaort":9610,"motorer":9611,"Bade":9612,"Dagens":9613,"belagna":9614,"satser":9615,"befordrades":9616,"bromsar":9617,"villkor":9618,"kiri":9619,"roch":9620,"forsvann":9621,"Anvand":9622,"ctylus":9623,"normal":9624,"brots":9625,"Kins":9626,"Halsingland":9627,"forfattar":9628,"formel":9629,"tillbringade":9630,"Khal":9631,"sadant":9632,"ansson":9633,"Muse":9634,"Emer":9635,"uppgar":9636,"eringen":9637,"entre":9638,"kretsar":9639,"Maurice":9640,"fav":9641,"inred":9642,"Gunther":9643,"Drosophila":9644,"litterara":9645,"formade":9646,"arch":9647,"Bebyggelsen":9648,"listiska":9649,"husflugor":9650,"skild":9651,"ilum":9652,"Skog":9653,"resi":9654,"partik":9655,"radd":9656,"sific":9657,"akantusvaxtart":9658,"Fall":9659,"IT":9660,"lyckas":9661,"lung":9662,"tillat":9663,"Montag":9664,"نگ":9665,"oller":9666,"ardi":9667,"grundare":9668,"melan":9669,"Xen":9670,"itus":9671,"gjorda":9672,"beslutet":9673,"Allen":9674,"ministern":9675,"huvudorten":9676,"kapit":9677,"avdelningen":9678,"representant":9679,"malvavaxtart":9680,"sjunde":9681,"befalhavare":9682,"decen":9683,"ithecia":9684,"Sefid":9685,"Roger":9686,"kompositor":9687,"kanadensisk":9688,"kravs":9689,"Kors":9690,"essan":9691,"siffror":9692,"kravde":9693,"yns":9694,"rinner":9695,"assa":9696,"Vattendraget":9697,"etisk":9698,"sannolikt":9699,"vem":9700,"lich":9701,"tatus":9702,"Blekinge":9703,"Hid":9704,"motet":9705,"Butler":9706,"91":9707,"ikan":9708,"AS":9709,"Asa":9710,"mog":9711,"beteckningen":9712,"Kani":9713,"lyst":9714,"Lucas":9715,"house":9716,"festival":9717,"Coc":9718,"Sachsen":9719,"lussteklar":9720,"Kamen":9721,"foljdes":9722,"Ostazarbaijan":9723,"isi":9724,"fattig":9725,"Thunder":9726,"cat":9727,"olje":9728,"grenar":9729,"brakenvaxtart":9730,"sle":9731,"flen":9732,"Occ":9733,"jamfort":9734,"94":9735,"aterkom":9736,"jatte":9737,"Tibet":9738,"drabbades":9739,"Eupithecia":9740,"Rhone":9741,"neut":9742,"Reger":9743,"texamen":9744,"usik":9745,"kraftdjur":9746,"skulptor":9747,"Motor":9748,"bella":9749,"Ulf":9750,"Europ":9751,"skaps":9752,"teolog":9753,"hantverk":9754,"oser":9755,"head":9756,"lagda":9757,"Nomos":9758,"Montreal":9759,"ovanligt":9760,"bef":9761,"draft":9762,"coides":9763,"howr":9764,"Katal":9765,"gifta":9766,"konserter":9767,"kvadratmeter":9768,"korallart":9769,"neumon":9770,"Mr":9771,"Ratt":9772,"Nig":9773,"ка":9774,"Sport":9775,"streck":9776,"flag":9777,"cio":9778,"bredd":9779,"kungliga":9780,"riv":9781,"mmat":9782,"heders":9783,"doms":9784,"Shak":9785,"antag":9786,"dah":9787,"Ibland":9788,"irus":9789,"typen":9790,"Kerman":9791,"Svea":9792,"termin":9793,"Samt":9794,"illes":9795,"ifoli":9796,"Chel":9797,"93":9798,"Jama":9799,"Group":9800,"etik":9801,"iensis":9802,"Esc":9803,"tals":9804,"ionerna":9805,"cancer":9806,"Schlechter":9807,"Davis":9808,"larover":9809,"observer":9810,"Beskrivning":9811,"filmerna":9812,"stjarnbilden":9813,"Bentham":9814,"angust":9815,"scenen":9816,"Hymen":9817,"Gordon":9818,"tyg":9819,"hyl":9820,"Brachy":9821,"hk":9822,"Brother":9823,"omyces":9824,"Bourg":9825,"ogrammet":9826,"territori":9827,"finans":9828,"arth":9829,"Tysklands":9830,"harads":9831,"tun":9832,"skars":9833,"odle":9834,"Chir":9835,"Fisk":9836,"plex":9837,"herrar":9838,"hammar":9839,"Isch":9840,"Pue":9841,"romant":9842,"manska":9843,"oura":9844,"iza":9845,"Holly":9846,"ukra":9847,"اه":9848,"velle":9849,"Gota":9850,"forsoka":9851,"flest":9852,"Pia":9853,"perioder":9854,"gn":9855,"processen":9856,"hittades":9857,"obsc":9858,"Province":9859,"Kort":9860,"cl":9861,"Hobart":9862,"LP":9863,"ovit":9864,"Karin":9865,"phy":9866,"cola":9867,"handelser":9868,"nigri":9869,"1834":9870,"dykare":9871,"klader":9872,"CC":9873,"likhet":9874,"broderna":9875,"Velik":9876,"tuber":9877,"olla":9878,"poly":9879,"undersokningar":9880,"Angermanland":9881,"utvecklas":9882,"ikt":9883,"Anto":9884,"west":9885,"vander":9886,"syche":9887,"1841":9888,"Azerbajdzjan":9889,"sylvan":9890,"Tidningen":9891,"byran":9892,"frid":9893,"inbordeskriget":9894,"DVD":9895,"1843":9896,"Kinshasa":9897,"listen":9898,"mmel":9899,"segrar":9900,"stadt":9901,"Pett":9902,"tavlingarna":9903,"trover":9904,"opet":9905,"skyddat":9906,"elflugor":9907,"Chung":9908,"manskliga":9909,"paminner":9910,"prak":9911,"Bjork":9912,"Lord":9913,"aster":9914,"Cli":9915,"eriet":9916,"anledning":9917,"Boras":9918,"TV4":9919,"Koudiet":9920,"kropps":9921,"Eumen":9922,"lakem":9923,"ulu":9924,"Taiwan":9925,"heng":9926,"Head":9927,"had":9928,"rane":9929,"takter":9930,"invester":9931,"Dick":9932,"tilltradde":9933,"Cheng":9934,"Sjo":9935,"recens":9936,"rema":9937,"idrotts":9938,"industrin":9939,"Gyll":9940,"fasa":9941,"omradena":9942,"hovet":9943,"marke":9944,"Melast":9945,"1835":9946,"imper":9947,"boende":9948,"skydda":9949,"cata":9950,"utvecklat":9951,"effektiv":9952,"gaster":9953,"bard":9954,"bars":9955,"belg":9956,"front":9957,"arskontrakt":9958,"Camer":9959,"sius":9960,"mers":9961,"borrflugor":9962,"IP":9963,"hind":9964,"natverk":9965,"bang":9966,"mission":9967,"konsul":9968,"sys":9969,"GP":9970,"enay":9971,"avlag":9972,"ube":9973,"tonsatt":9974,"sagt":9975,"seri":9976,"andras":9977,"rorsbladloss":9978,"pic":9979,"konstit":9980,"undi":9981,"langrorsbladloss":9982,"enz":9983,"Hamburg":9984,"atel":9985,"bosatte":9986,"ysia":9987,"frivil":9988,"Europe":9989,"kirimoj":9990,"pool":9991,"janst":9992,"ugis":9993,"Hipp":9994,"Anderson":9995,"Simp":9996,"hs":9997,"Syste":9998,"'.":9999,"runda":10000,"tain":10001,"uhstor":10002,"Sodertalje":10003,"akut":10004,"split":10005,"ctor":10006,"foretrad":10007,"Svensson":10008,"strackan":10009,"minskade":10010,"radik":10011,"iane":10012,"uteslut":10013,"serb":10014,"yya":10015,"iven":10016,"vistas":10017,"Carlos":10018,"mojligen":10019,"Cob":10020,"ifera":10021,"Barrage":10022,"220":10023,"studentexamen":10024,"acruz":10025,"forekommande":10026,"hamnen":10027,"Dh":10028,"bildat":10029,"Ovriga":10030,"kapac":10031,"etablerade":10032,"Ow":10033,"gades":10034,"terad":10035,"selia":10036,"borgerliga":10037,"ance":10038,"verkstallande":10039,"kopf":10040,"konstnarer":10041,"territoriet":10042,"Naz":10043,"BM":10044,"forbi":10045,"jin":10046,"Rha":10047,"varum":10048,"klassisk":10049,"Sala":10050,"jarnvagen":10051,"Kro":10052,"Negro":10053,"kanon":10054,"symboli":10055,"1837":10056,"Kak":10057,"Nis":10058,"Simulium":10059,"Avrinningsomradets":10060,"opteryx":10061,"Sham":10062,"iled":10063,"banor":10064,"kackerlackor":10065,"Puc":10066,"sler":10067,"uppre":10068,"forsaljning":10069,"nadssatt":10070,"karakt":10071,"kyrkliga":10072,"framgangsrik":10073,"formad":10074,"orelsen":10075,"Amphi":10076,"undersokning":10077,"Rand":10078,"Ovre":10079,"Medan":10080,"pension":10081,"automat":10082,"House":10083,"borta":10084,"hong":10085,"ily":10086,"lof":10087,"overens":10088,"alkohol":10089,"dle":10090,"tolk":10091,"Pub":10092,"liens":10093,"Normand":10094,"Mek":10095,"tings":10096,"enkla":10097,"kvalitet":10098,"okat":10099,"blomster":10100,"Huset":10101,"tratt":10102,"jatt":10103,"utflode":10104,"Basta":10105,"kunnat":10106,"prin":10107,"jah":10108,"Bagh":10109,"Nes":10110,"verkt":10111,"salis":10112,"hangare":10113,"Company":10114,"ural":10115,"Virginia":10116,"kejsaren":10117,"konflikt":10118,"tagare":10119,"uppf":10120,"chang":10121,"konstmuseum":10122,"styre":10123,"ume":10124,"eler":10125,"Troll":10126,"Neo":10127,"invald":10128,"Verb":10129,"Ya":10130,"Veracruz":10131,"vaningar":10132,"elset":10133,"skarriar":10134,"Chap":10135,"Silver":10136,"Gla":10137,"Karol":10138,"Ves":10139,"itanien":10140,"edig":10141,"fak":10142,"liska":10143,"junior":10144,"Billboard":10145,"orda":10146,"riset":10147,"vagg":10148,"titlar":10149,"odleart":10150,"forblev":10151,"Anis":10152,"Drottning":10153,"rull":10154,"uld":10155,"Kari":10156,"siva":10157,"traffar":10158,"nell":10159,"hona":10160,"Ort":10161,"Golo":10162,"arsus":10163,"Laos":10164,"bockerna":10165,"beteckning":10166,"trafiken":10167,"folkrakning":10168,"Kem":10169,"vilja":10170,"kungens":10171,"smas":10172,"Edvard":10173,"medarbetare":10174,"Banglades":10175,"rare":10176,"elidae":10177,"inriktning":10178,"Alv":10179,"tjeck":10180,"Varmlands":10181,"oglossum":10182,"Abraham":10183,"Association":10184,"begav":10185,"elsson":10186,"Sou":10187,"undvika":10188,"examin":10189,"Melastomataceae":10190,"trafiker":10191,"vanns":10192,"erby":10193,"Beck":10194,"edonien":10195,"luc":10196,"flit":10197,"mant":10198,"judar":10199,"eno":10200,"infekt":10201,"ocy":10202,"1829":10203,"givit":10204,"Linkopings":10205,"Maj":10206,"placerades":10207,"Prist":10208,"ival":10209,"Ster":10210,"Town":10211,"perspekt":10212,"ST":10213,"tall":10214,"reduc":10215,"Norman":10216,"Alp":10217,"drum":10218,"nick":10219,"Handels":10220,"Good":10221,"kub":10222,"ovic":10223,"Liksom":10224,"smor":10225,"Jugoslav":10226,"Cyp":10227,"rim":10228,"forvan":10229,"haw":10230,"demokraterna":10231,"iscus":10232,"jarne":10233,"kvist":10234,"Istallet":10235,"praktiken":10236,"naturen":10237,"storm":10238,"maculata":10239,"Tou":10240,"vavar":10241,"yss":10242,"Felix":10243,"stjanst":10244,"kyl":10245,"Utara":10246,"Wild":10247,"debutalbum":10248,"sarskilda":10249,"Napoleon":10250,"sump":10251,"oron":10252,"mull":10253,"sakra":10254,"sangerska":10255,"myndigheter":10256,"Helena":10257,"Qarah":10258,"Kla":10259,"Gray":10260,"Christop":10261,"svans":10262,"Gom":10263,"majoritet":10264,"Hunt":10265,"iral":10266,"Paso":10267,"Bangladesh":10268,"utru":10269,"kontra":10270,"ccion":10271,"SD":10272,"anmar":10273,"gestalt":10274,"quia":10275,"Palm":10276,"larde":10277,"ratta":10278,"amerikanske":10279,"Flo":10280,"Lans":10281,"jungfr":10282,"ocephala":10283,"rica":10284,"fangats":10285,"enden":10286,"naderna":10287,"Beat":10288,"lamnar":10289,"Northern":10290,"Crist":10291,"grip":10292,"starten":10293,"inum":10294,"utova":10295,"hittills":10296,"insjoar":10297,"Rhyn":10298,"foss":10299,"forstordes":10300,"Louise":10301,"Oct":10302,"Pitt":10303,"bryta":10304,"personliga":10305,"Great":10306,"medicine":10307,"Rho":10308,"Laget":10309,"gardens":10310,"jods":10311,"Boston":10312,"relation":10313,"Tokyo":10314,"radsomradet":10315,"Aq":10316,"salja":10317,"لا":10318,"hagen":10319,"elius":10320,"aktivt":10321,"korde":10322,"pert":10323,"huvudrollen":10324,"Skandinav":10325,"Pico":10326,"1833":10327,"Lager":10328,"fril":10329,"flydde":10330,"Hyl":10331,"Mario":10332,"wit":10333,"stak":10334,"varder":10335,"tillfalle":10336,"aktie":10337,"Charlotte":10338,"rytt":10339,"dras":10340,"uki":10341,"Boris":10342,"Lett":10343,"tidningar":10344,"court":10345,"allierade":10346,"handeln":10347,"avslutades":10348,"Sebast":10349,"Fox":10350,"Rhin":10351,"dygn":10352,"Pul":10353,"forhindra":10354,",\"":10355,"Fruhstor":10356,"rof":10357,"marin":10358,"lokalt":10359,"artikeln":10360,"Fruhstorfer":10361,"ML":10362,"gymnast":10363,"Thu":10364,"Erit":10365,"slutar":10366,"stell":10367,"trodde":10368,"inspekt":10369,"iers":10370,"Nouvelle":10371,"inda":10372,"ljungvaxter":10373,"nordostlig":10374,"kvarts":10375,"Fast":10376,"utvecklats":10377,"nationalpark":10378,"tofs":10379,"utstrackning":10380,"Lennart":10381,"210":10382,"bius":10383,"monark":10384,"Birg":10385,"dus":10386,"atgarder":10387,"harda":10388,"Souss":10389,"portugis":10390,"Angola":10391,"bladsvaxter":10392,"Tomas":10393,"behandlas":10394,"Kanda":10395,"itaine":10396,"Norrbotten":10397,"Skelleftea":10398,"Alan":10399,"bedrev":10400,"Bug":10401,"Bohu":10402,"Schaus":10403,"halt":10404,"fenomen":10405,"Sumat":10406,"Loch":10407,"reformer":10408,"say":10409,"Academ":10410,"Slott":10411,"nav":10412,"jurist":10413,"hebre":10414,"horax":10415,"snyl":10416,"paborjade":10417,"Cari":10418,"manu":10419,"skinnbaggar":10420,"schild":10421,"sater":10422,"urser":10423,"annars":10424,"chs":10425,"orerna":10426,"Lepid":10427,"Feder":10428,"zal":10429,"soka":10430,"tage":10431,"Day":10432,"kategorin":10433,"Hills":10434,"motstandare":10435,"Megaselia":10436,"fara":10437,"onotus":10438,"Cand":10439,"Asc":10440,"deltagit":10441,"Sagu":10442,"gentian":10443,"halsa":10444,"stump":10445,"Enda":10446,"ideer":10447,"planerade":10448,"Pos":10449,"Douglas":10450,"stans":10451,"raka":10452,"beslot":10453,"cou":10454,"utfar":10455,"ariidae":10456,"Scap":10457,"reform":10458,"skole":10459,"malning":10460,"succe":10461,"habit":10462,"gator":10463,"betala":10464,"Scop":10465,"Amm":10466,"host":10467,"produ":10468,"HC":10469,"alism":10470,"mju":10471,"cea":10472,"Sydamerika":10473,"Spa":10474,"Dolich":10475,"Eduard":10476,"Kamp":10477,"mek":10478,"Euphor":10479,"dokumentar":10480,"arn":10481,"skapen":10482,"Upper":10483,"1820":10484,"Ask":10485,"sax":10486,"given":10487,"Old":10488,"anhangare":10489,"Prof":10490,"Arab":10491,"spora":10492,"sonder":10493,"alton":10494,"Open":10495,"Umm":10496,"behalla":10497,"ravin":10498,"Dc":10499,"klassific":10500,"Gosta":10501,"1809":10502,"endet":10503,"borator":10504,"formodligen":10505,"Aga":10506,"side":10507,"amaryllis":10508,"Cetoniidae":10509,"Major":10510,"arte":10511,"Coch":10512,"kulturen":10513,"verktyg":10514,"Serb":10515,"rodlistan":10516,"cover":10517,"lay":10518,"similis":10519,"illustrat":10520,"begransad":10521,"Krit":10522,"rekommen":10523,"mour":10524,"nerv":10525,"pastoratet":10526,"Venez":10527,"livsmedel":10528,"dik":10529,"angel":10530,"Petersburg":10531,"Produkt":10532,"provfiske":10533,"Put":10534,"Pleur":10535,"Mant":10536,"eo":10537,"forra":10538,"right":10539,"Vasterbotten":10540,"was":10541,"Occitanien":10542,"Ric":10543,"tillam":10544,"amper":10545,"Rot":10546,"wana":10547,"Minnes":10548,"pter":10549,"fangar":10550,"kyrkoherde":10551,"bog":10552,"huvudkontor":10553,"vavarspindlar":10554,"Andal":10555,"thys":10556,"utbildnings":10557,"AC":10558,"Tong":10559,"forkortning":10560,"øn":10561,"Parad":10562,"Sarc":10563,"Spir":10564,"tackvavarspindlar":10565,"Sork":10566,"allas":10567,"sistnamnda":10568,"Elias":10569,"areh":10570,"gala":10571,"rio":10572,"pati":10573,"snackor":10574,"Ozero":10575,"lagd":10576,"Hj":10577,"cul":10578,"Gyeong":10579,"ada":10580,"elm":10581,"hasten":10582,"Acant":10583,"opez":10584,"ovich":10585,"bygden":10586,"Dow":10587,"dong":10588,"Familjen":10589,"Aquitaine":10590,"Meyrick":10591,"wak":10592,"ococcus":10593,"parker":10594,"ubb":10595,"priser":10596,"Nicola":10597,"Tum":10598,"Alt":10599,"Curt":10600,"Nico":10601,"fikt":10602,"joki":10603,"Honor":10604,"fodelse":10605,"Church":10606,"cion":10607,"gun":10608,"foreslog":10609,"Rus":10610,"ction":10611,"Lap":10612,"sunds":10613,"more":10614,"Lob":10615,"Sich":10616,"ingens":10617,"kull":10618,"ан":10619,"Hyper":10620,"oplat":10621,"tillhort":10622,"oxid":10623,"Tir":10624,"tavlar":10625,"Alvs":10626,"lattare":10627,"ambassador":10628,"Vent":10629,"Filmografi":10630,"Arkite":10631,"Magall":10632,"forestandare":10633,"ingue":10634,"Ekologi":10635,"Mort":10636,"zyg":10637,"Jersey":10638,"dyr":10639,"kroat":10640,"arium":10641,"dottern":10642,"betyg":10643,"mult":10644,"intress":10645,"basket":10646,"Oh":10647,"behovde":10648,"Kok":10649,"mellersta":10650,"ones":10651,"dack":10652,"Bryssel":10653,"lora":10654,"omon":10655,"dak":10656,"kammare":10657,"analys":10658,"jian":10659,"Rutelidae":10660,"igma":10661,"Gene":10662,"tatorten":10663,"lyft":10664,"ophthal":10665,"ognat":10666,"Magallanes":10667,"\":":10668,"utfordes":10669,"radda":10670,"Ahl":10671,"tjanster":10672,"speciali":10673,"stumpbaggar":10674,"Pun":10675,"rion":10676,"domstolen":10677,"hausen":10678,"besegra":10679,"Mira":10680,"pid":10681,"Kopp":10682,"Rol":10683,"bys":10684,"langst":10685,"Emb":10686,"Hun":10687,"meddel":10688,"Ska":10689,"ockup":10690,"ifraga":10691,"Folkmangden":10692,"\";":10693,"Mile":10694,"inomhus":10695,"kyrkobyggnad":10696,"klan":10697,"katal":10698,"Esp":10699,"Nationalmuseum":10700,"AT":10701,"kalendern":10702,"Gera":10703,"amb":10704,"steater":10705,"1832":10706,"forkn":10707,"kry":10708,"230":10709,"Stilla":10710,"Kjell":10711,"liter":10712,"Street":10713,"Rothschild":10714,"burn":10715,"Sali":10716,"okad":10717,"EC":10718,"erkan":10719,"Bahia":10720,"Station":10721,"Lea":10722,"Cort":10723,"Ord":10724,"svarade":10725,"forstar":10726,"heli":10727,"grundlaggande":10728,"Ling":10729,"Clark":10730,"Enter":10731,"skapar":10732,"Eumenidae":10733,"invas":10734,"acan":10735,"Cart":10736,"fjarden":10737,"rute":10738,"ettan":10739,"jordbruks":10740,"Fron":10741,"kakt":10742,"Stephen":10743,"entris":10744,"forbud":10745,"strider":10746,"cout":10747,"esa":10748,"andel":10749,"testam":10750,"Fors":10751,"trar":10752,"furt":10753,"kommitte":10754,"Georgien":10755,"Gotlands":10756,"ersson":10757,"domare":10758,"Myanmar":10759,"elit":10760,"strang":10761,"erbott":10762,"upptackte":10763,"skilja":10764,"1836":10765,"plant":10766,"Sip":10767,"opio":10768,"mening":10769,"mari":10770,"yar":10771,"Meli":10772,"lyder":10773,"Serge":10774,"Russ":10775,"yton":10776,"Auver":10777,"sjost":10778,"Windows":10779,"daligt":10780,"term":10781,"Liby":10782,"Arena":10783,"ouan":10784,"Trig":10785,"Comte":10786,"gruv":10787,"Hjalmar":10788,"rosa":10789,"Phila":10790,"torg":10791,"cili":10792,"betyda":10793,"inspi":10794,"Tow":10795,"senast":10796,"Sher":10797,"anka":10798,"avancerade":10799,"jning":10800,"lanta":10801,"ylis":10802,"nominerades":10803,"vinrute":10804,"water":10805,"hemmet":10806,"disput":10807,"korsblommiga":10808,"ologiskt":10809,"Macro":10810,"snyltrots":10811,"broll":10812,"350":10813,"vagrade":10814,"Abd":10815,"Loren":10816,"Lof":10817,"etown":10818,"maskiner":10819,"Bibli":10820,"Buntu":10821,"foras":10822,"riddar":10823,"Ame":10824,"Wis":10825,"meters":10826,"Paz":10827,"sledare":10828,"Inge":10829,"strar":10830,"pressen":10831,"Auvergne":10832,"kommunikation":10833,"granser":10834,"utbildningen":10835,"Cav":10836,"edom":10837,"olin":10838,"anvant":10839,"traditionellt":10840,"Normandie":10841,"alem":10842,"jara":10843,"ctic":10844,"Kav":10845,"ður":10846,"kompan":10847,"Slaget":10848,"Veli":10849,"veget":10850,"slutt":10851,"kompani":10852,"vulkan":10853,"Acanth":10854,"ypha":10855,"lejon":10856,"uensis":10857,"befatt":10858,"husets":10859,"jamte":10860,"Konstantin":10861,"egypt":10862,"Christina":10863,"mojligheter":10864,"Lant":10865,"kackerlacksart":10866,"arkiv":10867,"vaningen":10868,"genomgick":10869,"avhandling":10870,"Vig":10871,"stilen":10872,"Claude":10873,"uppstar":10874,"valv":10875,"synlig":10876,"feren":10877,"Wahl":10878,"stiska":10879,"Dendrobium":10880,"plikt":10881,"tunga":10882,"kanten":10883,"inb":10884,"slosa":10885,"trapp":10886,"Saguenay":10887,"Wars":10888,"Fredriks":10889,"sidae":10890,"administrativt":10891,"Jordan":10892,"240":10893,"found":10894,"Pac":10895,"havdade":10896,"tabell":10897,"ugg":10898,"reserv":10899,"opsyl":10900,"sind":10901,"beton":10902,"analy":10903,"anas":10904,"Ting":10905,"yds":10906,"py":10907,"strum":10908,"digit":10909,"Jud":10910,"varpa":10911,"ocerus":10912,"ljungvaxtart":10913,"Ghowr":10914,"deh":10915,"bebyggelsen":10916,"sia":10917,"skilt":10918,"Kristina":10919,"Urban":10920,"Guds":10921,"medaljen":10922,"vakien":10923,"opis":10924,"Rolf":10925,"massigt":10926,"sjof":10927,"politiken":10928,"amarant":10929,"Brian":10930,"Zem":10931,"fos":10932,"gram":10933,"brant":10934,"sekund":10935,"restaurang":10936,"Joe":10937,"passerar":10938,"Egenskaper":10939,"sling":10940,"Oskar":10941,"iten":10942,"motorn":10943,"fristaende":10944,"satsen":10945,"Harald":10946,"Mesa":10947,"Net":10948,"aterkommande":10949,"kvarn":10950,"pion":10951,"Harri":10952,"glaciar":10953,"Nelson":10954,"Set":10955,"Vinter":10956,"opod":10957,"pho":10958,"anim":10959,"Garden":10960,"driva":10961,"bonde":10962,"Koch":10963,"Chin":10964,"muslim":10965,"ortodox":10966,"key":10967,"lanssteklar":10968,"ophy":10969,"operan":10970,"Rodrig":10971,"finglanssteklar":10972,"Buck":10973,"Chiapas":10974,"helik":10975,"utman":10976,"staller":10977,"Kunt":10978,"Fem":10979,"ophus":10980,"Andalus":10981,"valen":10982,"tagna":10983,"foregaende":10984,"tillhorighet":10985,"bagge":10986,"Bala":10987,"peran":10988,"icana":10989,"blommig":10990,"gracilis":10991,"damer":10992,"Ace":10993,"anensis":10994,"vardet":10995,"forfattade":10996,"Carlsson":10997,"Zo":10998,"nats":10999,"trum":11000,"Folket":11001,"aktig":11002,"torr":11003,"lart":11004,"hult":11005,"skatte":11006,"Tul":11007,"sakert":11008,"cana":11009,"Allt":11010,"omorpha":11011,"terror":11012,"Peg":11013,"nisk":11014,"lick":11015,"ifrons":11016,"Sas":11017,"stuna":11018,"antyder":11019,"Uppland":11020,"brytning":11021,"Nicholas":11022,"kemi":11023,"strup":11024,"Forest":11025,"ungdomar":11026,"Blo":11027,"judiska":11028,"Dolok":11029,"skyrkan":11030,"perspektiv":11031,"Kash":11032,"Saf":11033,"litteraturen":11034,"Chryso":11035,"kata":11036,"fac":11037,"Paret":11038,"utgang":11039,"Norges":11040,"Hapl":11041,"obi":11042,"karr":11043,"veta":11044,"Nordiska":11045,"anklaga":11046,"umi":11047,"kortvingar":11048,"Adri":11049,"Aboland":11050,"End":11051,"population":11052,"Cit":11053,"skapat":11054,"knappt":11055,"Out":11056,"inidae":11057,"lader":11058,"okand":11059,"kvall":11060,"Hann":11061,"Prote":11062,"Amerika":11063,"Bron":11064,"snabba":11065,"svampmyggor":11066,"diskuss":11067,"Mikael":11068,"Giov":11069,"Qor":11070,"Opp":11071,"ous":11072,"ellet":11073,"frag":11074,"Islands":11075,"otrop":11076,"vinde":11077,"formed":11078,"istiskt":11079,"ombord":11080,"hony":11081,"Meta":11082,"stjarnen":11083,"eteck":11084,"magasin":11085,"jubil":11086,"integr":11087,"ovanfor":11088,"bah":11089,"behandlar":11090,"Leip":11091,"Lun":11092,"Margaret":11093,"brod":11094,"lod":11095,"xis":11096,"konsten":11097,"Ej":11098,"aterade":11099,"hamnar":11100,"arig":11101,"ockuper":11102,"kora":11103,"landskamper":11104,"Did":11105,"blatt":11106,"ping":11107,"blik":11108,"Norte":11109,"livsmiljo":11110,"nin":11111,"forr":11112,"metoden":11113,"hebreiska":11114,"1815":11115,"skeppet":11116,"ES":11117,"ovans":11118,"losning":11119,"Daremot":11120,"utomlands":11121,"antog":11122,"Sex":11123,"Bergen":11124,"borgmastare":11125,"tillverkas":11126,"dokumen":11127,"cina":11128,"Bert":11129,"Team":11130,"Muham":11131,"cri":11132,"Latlista":11133,"Cin":11134,"uga":11135,"staka":11136,"halvan":11137,"vagbin":11138,"utform":11139,"sphaer":11140,"samhalls":11141,"beteende":11142,"utz":11143,"absol":11144,"Four":11145,"varade":11146,"stalle":11147,"Phylla":11148,"gotlands":11149,"alon":11150,"Mande":11151,"Arist":11152,"Kec":11153,"cylind":11154,"sammanslagning":11155,"idens":11156,"ruc":11157,"forlaget":11158,"artica":11159,"Championship":11160,"sexuella":11161,"Um":11162,"Fabricius":11163,"skare":11164,"Boul":11165,"omedelbart":11166,"tvungen":11167,"Sjal":11168,"cre":11169,"pent":11170,"anor":11171,"Melodi":11172,"Ech":11173,"jerna":11174,"kis":11175,"wat":11176,"aljer":11177,"raten":11178,"Marshall":11179,"Ble":11180,"sjob":11181,"manliga":11182,"Holland":11183,"Cocker":11184,"Alf":11185,"fastlandet":11186,"Arne":11187,"smak":11188,"sjukvar":11189,"ukas":11190,"emia":11191,"omnamns":11192,"Bois":11193,"musikalbum":11194,"Miller":11195,"saknade":11196,"femin":11197,"Baku":11198,"emellan":11199,"incta":11200,"Fel":11201,"zy":11202,"ledar":11203,"Forn":11204,"poet":11205,"Amazonas":11206,"rorande":11207,"Dys":11208,"Fod":11209,"ches":11210,"kraftverk":11211,"engagerad":11212,"beholl":11213,"molek":11214,"Eritrea":11215,"Fle":11216,"Peri":11217,"lind":11218,"speciella":11219,"attle":11220,"rier":11221,"tillvaxt":11222,"hias":11223,"egel":11224,"forsamlingar":11225,"hers":11226,"belonades":11227,"Chilena":11228,"teh":11229,"nedre":11230,"yas":11231,"slotts":11232,"habitat":11233,"Cienaga":11234,"Hansson":11235,"issima":11236,"adels":11237,"revis":11238,"dalena":11239,"Canal":11240,"kine":11241,"tia":11242,"Form":11243,"bladsvaxtart":11244,"ktioner":11245,"hittas":11246,"Bruce":11247,"skyldig":11248,"inspelningar":11249,"Valley":11250,"semifinal":11251,"Culi":11252,"sney":11253,"stierna":11254,"Marc":11255,"!\"":11256,"utfora":11257,"halso":11258,"ombildades":11259,"puckelflugor":11260,"elus":11261,"tillag":11262,"Aer":11263,"Fischer":11264,"nederlandska":11265,"bottens":11266,"askadare":11267,"tillfalligt":11268,"rina":11269,"turn":11270,"barnet":11271,"Stone":11272,"hm":11273,"riktigt":11274,"Nick":11275,"hyll":11276,"huvudsakliga":11277,"riksdagsledamot":11278,"Skivan":11279,"Newfound":11280,"magnet":11281,"hyr":11282,"sallskapet":11283,"Dramat":11284,"uropa":11285,"Moritz":11286,"lasare":11287,"Sundsvall":11288,"Hollywood":11289,"minskar":11290,"juridik":11291,"manniska":11292,"tavla":11293,"stipendium":11294,"spelarna":11295,"asiat":11296,"internet":11297,"venemang":11298,"uelo":11299,"Antartica":11300,"Habit":11301,"kyrkogard":11302,"trasket":11303,"overtogs":11304,"Trin":11305,"Fart":11306,"obal":11307,"hira":11308,"bearbet":11309,"formogen":11310,"foreningens":11311,"Elizab":11312,"Venedig":11313,"ambetsman":11314,"klostret":11315,"uru":11316,"marknad":11317,"sterdam":11318,"Parana":11319,"nationell":11320,"Rak":11321,"smitt":11322,"grupperna":11323,"igang":11324,"ritade":11325,"datab":11326,"1824":11327,"spat":11328,"idendrum":11329,"beslakt":11330,"okon":11331,"visst":11332,"hushall":11333,"andamal":11334,"Kala":11335,"partiled":11336,"Bourgogne":11337,"angi":11338,"shan":11339,"Verde":11340,"Micros":11341,"Hela":11342,"Helsingborgs":11343,"stapel":11344,"morka":11345,"Dhaka":11346,"rand":11347,"1818":11348,"ygen":11349,"Epidendrum":11350,"stach":11351,"ners":11352,"stallda":11353,"jagar":11354,"enson":11355,"heder":11356,"georg":11357,"kusin":11358,"storharkrankar":11359,"skala":11360,"odling":11361,"ritades":11362,"populart":11363,"wich":11364,"heta":11365,"knyt":11366,"samlarbin":11367,"Bid":11368,"Disk":11369,"Grev":11370,"anstallning":11371,"illy":11372,"Amsterdam":11373,"sangerskan":11374,"1828":11375,"osterreich":11376,"falz":11377,"klubbens":11378,"Potosi":11379,"vackte":11380,"Jonkoping":11381,"Eskilstuna":11382,"Lie":11383,"kard":11384,"mah":11385,"intressen":11386,"buksamlarbin":11387,"Labrador":11388,"Phyllach":11389,"smalt":11390,"Oliver":11391,"ер":11392,"kvalificerade":11393,"nica":11394,"pak":11395,"bruks":11396,"Manchester":11397,"Mut":11398,"ochrom":11399,"avsloj":11400,"spitze":11401,"black":11402,"prog":11403,"ienne":11404,"tagits":11405,"Patrick":11406,"ylum":11407,"matematik":11408,"zona":11409,"samheten":11410,"framforde":11411,"Universitet":11412,"iserades":11413,"insats":11414,"Cameron":11415,"Symp":11416,"medverkar":11417,"iton":11418,"Samtliga":11419,"forvaltning":11420,"pali":11421,"djurart":11422,"Bayern":11423,"presidenten":11424,"horns":11425,"Ian":11426,"Nak":11427,"starta":11428,"1810":11429,"betong":11430,"alens":11431,"Skolan":11432,"Andalusien":11433,"Newfoundland":11434,"Hugh":11435,"Damernas":11436,"hiz":11437,"latskrivare":11438,"solens":11439,"orange":11440,"magister":11441,"Dasht":11442,"idaw":11443,"Braun":11444,"icha":11445,"Giovanni":11446,"Lig":11447,"segern":11448,"marg":11449,"jarna":11450,"Dz":11451,"fjord":11452,"godkan":11453,"Fritz":11454,"neby":11455,"AR":11456,"rikets":11457,"Up":11458,"fili":11459,"grundat":11460,"forvand":11461,"Ericsson":11462,"work":11463,"Elmer":11464,"Luxem":11465,"konsekv":11466,"Kell":11467,"Rou":11468,"imal":11469,"uay":11470,"Ghana":11471,"ledamoter":11472,"foresprak":11473,"ual":11474,"egal":11475,"presenterades":11476,"reppet":11477,"emblik":11478,"Euphorbia":11479,"bygds":11480,"ypy":11481,"Frankrikes":11482,"rosterna":11483,"Numera":11484,"vits":11485,"Karlstad":11486,"branschen":11487,"skytt":11488,"annon":11489,"Llan":11490,"borre":11491,"Marcus":11492,"Schmidt":11493,"Gerais":11494,"caceae":11495,"ege":11496,"Id":11497,"forber":11498,"foder":11499,"Fly":11500,"lider":11501,"kontrover":11502,"atervanda":11503,"qua":11504,"Tanger":11505,"skoldlussteklar":11506,"Pennsylvan":11507,"ljusar":11508,"Thailand":11509,"kallats":11510,"kaktus":11511,"ER":11512,"Falls":11513,"Vat":11514,"skrid":11515,"Cockerell":11516,"pack":11517,"foregangare":11518,"Syds":11519,"Veliki":11520,"Katalonien":11521,"Kurt":11522,"Kvarn":11523,"Ral":11524,"jala":11525,"lada":11526,"Frans":11527,"cula":11528,"tolkning":11529,"sjalvmord":11530,"Elizabeth":11531,"umat":11532,"ische":11533,"Birger":11534,"anlaggningen":11535,"eftertradare":11536,"algo":11537,"ogna":11538,"Illin":11539,"iskan":11540,"Schwar":11541,"respon":11542,"jing":11543,"syre":11544,"byggts":11545,"xamen":11546,"plast":11547,"bats":11548,"tiderna":11549,"Jim":11550,"cast":11551,"Georgetown":11552,"noll":11553,"Karls":11554,"Nea":11555,"fods":11556,"Trad":11557,"Hauts":11558,"Litau":11559,"Tad":11560,"felakt":11561,"Alli":11562,"nun":11563,"State":11564,"anlande":11565,"uppman":11566,"sklubb":11567,"fald":11568,"enus":11569,"ree":11570,"Deh":11571,"Time":11572,"neur":11573,"stallt":11574,"Jugoslavien":11575,"artade":11576,"gler":11577,"budd":11578,"skans":11579,"sagas":11580,"textil":11581,"kampen":11582,"bic":11583,"buss":11584,"ming":11585,"Cephal":11586,"Flat":11587,"fatal":11588,"ento":11589,"Arm":11590,"svenske":11591,"نه":11592,"faderns":11593,"aridae":11594,"agh":11595,"Stro":11596,"wah":11597,"سر":11598,"befann":11599,"komedi":11600,"Juni":11601,"asy":11602,"Cambridge":11603,"witz":11604,"konver":11605,"elserna":11606,"Drae":11607,"Eut":11608,"konkurs":11609,"Fas":11610,"Rhein":11611,"ymer":11612,"inton":11613,"daggflugor":11614,"Jules":11615,"kraftig":11616,"nagare":11617,"PC":11618,"Internet":11619,"Tabanus":11620,"Kv":11621,"leddes":11622,"Harjed":11623,"yak":11624,"ekonomiskt":11625,"listor":11626,"inet":11627,"betydelsen":11628,"flickor":11629,"Guadal":11630,"tempel":11631,"spis":11632,"Xin":11633,"onto":11634,"Inte":11635,"Ass":11636,"Olig":11637,"desmus":11638,"bergstra":11639,"publiken":11640,"inhem":11641,"attonde":11642,"Alg":11643,"byggnaderna":11644,"Hex":11645,"chon":11646,"sjunger":11647,"kvinnan":11648,"Naypy":11649,"kretsen":11650,"Naypyidaw":11651,"Kvinn":11652,"emer":11653,"1831":11654,"osterrikiska":11655,"Society":11656,"2021":11657,"Rumanien":11658,"Antio":11659,"Corn":11660,"uno":11661,"borgen":11662,"piano":11663,"uit":11664,"hanen":11665,"1819":11666,"Franche":11667,"justit":11668,"sark":11669,"erbjuder":11670,"nyckel":11671,"):":11672,"Gira":11673,"regisserad":11674,"Shin":11675,"pagick":11676,"county":11677,"Carex":11678,"taket":11679,"valda":11680,"Main":11681,"skilde":11682,"Embrik":11683,"iran":11684,"vaxande":11685,"Dres":11686,"proces":11687,"ersatta":11688,"tidskrift":11689,"tavlings":11690,"enbach":11691,"strackt":11692,"breda":11693,"Koudia":11694,"linge":11695,"Werner":11696,"Kit":11697,"wil":11698,"avser":11699,"kurs":11700,"dottrar":11701,"utton":11702,"Svenskt":11703,"stranden":11704,"lakemedel":11705,"othy":11706,"soarna":11707,"ovice":11708,"darifran":11709,"Massachus":11710,"Erich":11711,"Lot":11712,"yli":11713,"harmon":11714,"Darwin":11715,"Sla":11716,"Leop":11717,"SF":11718,"1825":11719,"dirigent":11720,"Sma":11721,"skand":11722,"Massachusetts":11723,"Gn":11724,"sakerhets":11725,"tens":11726,"yte":11727,"Gill":11728,"seras":11729,"uco":11730,"Darmed":11731,"organiserade":11732,"opoda":11733,"skickade":11734,"pupp":11735,"kinestrads":11736,"Norrbottens":11737,"Lys":11738,"Param":11739,"Semi":11740,"utgivna":11741,"Drew":11742,"budget":11743,"Europas":11744,"Hoff":11745,"helgon":11746,"rence":11747,"maleri":11748,"sjukhuset":11749,"Cac":11750,"Ljus":11751,"Dim":11752,"ariska":11753,"mottog":11754,"Antioquia":11755,"utexamin":11756,"namnen":11757,"knut":11758,"Ostersjon":11759,"sanddyn":11760,"Slaktet":11761,"tea":11762,"agna":11763,"byar":11764,"vitj":11765,"Television":11766,"fahan":11767,"ladder":11768,"neri":11769,"Mell":11770,"Spen":11771,"uppfattning":11772,"Hammarby":11773,"Pow":11774,"shi":11775,"Nobel":11776,"hann":11777,"Lith":11778,"manuel":11779,"matning":11780,"steatern":11781,"Sci":11782,"passa":11783,"Fro":11784,"Carlo":11785,"kinesisk":11786,"Eun":11787,"jum":11788,"arier":11789,"1814":11790,"departement":11791,"Tallinn":11792,"Bolagh":11793,"rundmaskart":11794,"Card":11795,"Show":11796,"okant":11797,"pod":11798,"filmat":11799,"Halland":11800,"regent":11801,"misslyckades":11802,"Claes":11803,"phus":11804,"ummer":11805,"pression":11806,"tycks":11807,"kali":11808,"anlaggning":11809,"Homer":11810,"ww":11811,"biblioteket":11812,"Pros":11813,"sekel":11814,"fortro":11815,"omi":11816,"orea":11817,"trummor":11818,"Ced":11819,"trea":11820,"praster":11821,"Selatan":11822,"nivaer":11823,"Clad":11824,"Yaz":11825,"cost":11826,"deltagande":11827,"punctata":11828,"isp":11829,"Omkring":11830,"licent":11831,"olata":11832,"usch":11833,"sparken":11834,"regionala":11835,"identifier":11836,"pulch":11837,"Aker":11838,"amba":11839,"fargen":11840,"beln":11841,"Kuopio":11842,"Golden":11843,"bygget":11844,"forsvaret":11845,"Person":11846,"gymnasiet":11847,"Bali":11848,"dur":11849,"ingi":11850,"Inloppet":11851,"butik":11852,"Gutta":11853,"Oak":11854,"underjord":11855,"1826":11856,"Bernard":11857,"atorn":11858,"Jerus":11859,"vaning":11860,"Kenora":11861,"kapacitet":11862,"Valencia":11863,"bataljon":11864,"HD":11865,"gjut":11866,"ovansidan":11867,"Kosa":11868,"GA":11869,"etc":11870,"malvakt":11871,"Nairo":11872,"SE":11873,"drevs":11874,"uppfinn":11875,"Gren":11876,"cali":11877,"utokades":11878,"forsam":11879,"lektor":11880,"tull":11881,"polsk":11882,"besokare":11883,"Christopher":11884,"parat":11885,"Shir":11886,"Whit":11887,"turnering":11888,"hustr":11889,"opsyche":11890,"blandade":11891,"Magdalena":11892,"Lena":11893,"margin":11894,"Trop":11895,"dryck":11896,"aktenskapet":11897,"div":11898,"Minsk":11899,"civila":11900,"Disney":11901,"framtida":11902,"inensis":11903,"Sound":11904,"ulidae":11905,"Obsjtina":11906,"finsk":11907,"Kad":11908,"bist":11909,"domar":11910,"stodde":11911,"arrester":11912,"Kang":11913,"Wallen":11914,"ng":11915,"ratal":11916,"kommissionen":11917,"Cel":11918,"Gru":11919,"Live":11920,"hansyn":11921,"ianum":11922,"materialet":11923,"jat":11924,"lott":11925,"enkl":11926,"Haiti":11927,"geme":11928,"bruck":11929,"jaren":11930,"eor":11931,"Road":11932,"anlit":11933,"Drag":11934,"sinstitut":11935,"sie":11936,"Volvo":11937,"ambetet":11938,"katt":11939,"Lei":11940,"Glas":11941,"Night":11942,"bow":11943,"Pennsylvania":11944,"homo":11945,"Thomson":11946,"Sve":11947,"Illinois":11948,"vey":11949,"Kirk":11950,"hio":11951,"strad":11952,"demokratiska":11953,"palatset":11954,"jab":11955,"uu":11956,"Alta":11957,"fangen":11958,"dvs":11959,"rostning":11960,"sant":11961,"undervi":11962,"singlar":11963,"Merrill":11964,"asp":11965,"assistent":11966,"Skov":11967,"scener":11968,"Venezuela":11969,"pli":11970,"deleg":11971,"His":11972,"Sed":11973,"1823":11974,"Phan":11975,"رد":11976,"pros":11977,"paris":11978,"Morgan":11979,"trupperna":11980,"Leo":11981,"Hast":11982,"inspelning":11983,"Halmstad":11984,"Wei":11985,"lord":11986,"tez":11987,"rou":11988,"kordes":11989,"mjolk":11990,"Iz":11991,"Push":11992,"soker":11993,"Spin":11994,"amerikanskt":11995,"Nairobi":11996,"nett":11997,"Hitler":11998,"',":11999,"volution":12000,"تل":12001,"Nad":12002,"tydlig":12003,"grov":12004,"Premier":12005,"cock":12006,"amik":12007,"Tara":12008,"skrivs":12009,"Amph":12010,"hui":12011,"vaxel":12012,"ollo":12013,"Mod":12014,"Huidu":12015,"fungera":12016,"nederlandsk":12017,"tryckt":12018,"Regional":12019,"ografiskt":12020,"inspiration":12021,"1812":12022,"fargade":12023,"Leipzig":12024,"esen":12025,"arenan":12026,"stadion":12027,"berattelse":12028,"hundar":12029,"Gag":12030,"varken":12031,"1816":12032,"Neph":12033,"Halle":12034,"Ytterligare":12035,"ulins":12036,"tyske":12037,"Bjorne":12038,"Ivar":12039,"Dir":12040,"ionde":12041,"fagels":12042,"Alice":12043,"Holstein":12044,"Visby":12045,"Pargas":12046,"landsting":12047,"Bed":12048,"syssel":12049,"Tony":12050,"real":12051,"iki":12052,"forenings":12053,"Lamp":12054,"atskil":12055,"Ridge":12056,"Territory":12057,"feldt":12058,"ross":12059,"Reka":12060,"bent":12061,"Kurdistan":12062,"esv":12063,"grundad":12064,"Vista":12065,"republik":12066,"forbundets":12067,"boda":12068,"Dak":12069,"ID":12070,"forlorat":12071,"havdar":12072,"ict":12073,"Foot":12074,"ær":12075,"ulatum":12076,"fina":12077,"arum":12078,"Modern":12079,"domsaga":12080,"utredning":12081,"ieri":12082,"Broad":12083,"tronen":12084,"frekv":12085,"licentiat":12086,"skida":12087,"forandring":12088,"pach":12089,"naturvards":12090,"fett":12091,"verkstad":12092,"ecil":12093,"samla":12094,"hier":12095,"Bromma":12096,"krypare":12097,"angan":12098,"scens":12099,"ls":12100,"lach":12101,"opon":12102,"akvar":12103,"ija":12104,"etis":12105,"tema":12106,"ademin":12107,"Hidalgo":12108,"Agari":12109,"stiftelsen":12110,"bitradande":12111,"here":12112,"Philadel":12113,"plus":12114,"byta":12115,"kunder":12116,"Bruns":12117,"skrivet":12118,"regelbundet":12119,"tyckte":12120,"standig":12121,"intresserad":12122,"paverkar":12123,"Kann":12124,"vileg":12125,"elong":12126,"Utan":12127,"Emma":12128,"odiidae":12129,"delningen":12130,"Bonnier":12131,"handelse":12132,"Toronto":12133,"ranunkelvaxter":12134,"ospora":12135,"Kyrkobygg":12136,"hockey":12137,"Bertil":12138,"banden":12139,"Lincol":12140,"Peder":12141,"Tin":12142,"lism":12143,"samiska":12144,"stallningen":12145,"Jav":12146,"Shela":12147,"skur":12148,"verken":12149,"amerun":12150,"Danmarks":12151,"spridning":12152,"Nicar":12153,"Amar":12154,"Edmond":12155,"Ostergotlands":12156,"Alexand":12157,"vivlar":12158,"Zur":12159,"kli":12160,"tvar":12161,"alltmer":12162,"bokstav":12163,"ungerska":12164,"expedition":12165,"opar":12166,"agdes":12167,"Blanco":12168,"stravbladiga":12169,"Provincial":12170,"Stift":12171,"Frederik":12172,"besvar":12173,"Chris":12174,"Brandenburg":12175,"Birkal":12176,"potent":12177,"yga":12178,"uppfora":12179,"heliga":12180,"sallsynt":12181,"erbottens":12182,"oh":12183,"manen":12184,"minsta":12185,"stickmyggor":12186,"fant":12187,"undersidan":12188,"Viti":12189,"spetsen":12190,"Hua":12191,"angare":12192,"Industri":12193,"nasseldjursart":12194,"entes":12195,"tanke":12196,"gium":12197,"Cyrt":12198,"rese":12199,"forny":12200,"ffen":12201,"Plag":12202,"Rig":12203,"Eugenia":12204,"Dri":12205,"repar":12206,"ctes":12207,"butiker":12208,"ansvaret":12209,"with":12210,"bokst":12211,"service":12212,"konservativa":12213,"Oax":12214,"Tava":12215,"udden":12216,"bonder":12217,"oversattare":12218,"Libyen":12219,"oen":12220,"phan":12221,"Rhy":12222,"sparet":12223,"forvaltnings":12224,"elegans":12225,"semifinalen":12226,"sjun":12227,"kommunala":12228,"ledaren":12229,"LA":12230,"Baden":12231,"enstaka":12232,"utrym":12233,"freden":12234,"elos":12235,"Stri":12236,"lokali":12237,"kyrkbyn":12238,"radar":12239,"backa":12240,"Milit":12241,"store":12242,"oslo":12243,"dynastin":12244,"Disc":12245,"socker":12246,"Botten":12247,"omma":12248,"befri":12249,"resan":12250,"skadade":12251,"Sangen":12252,"blan":12253,"rans":12254,"kommitten":12255,"myndighet":12256,"Gyllen":12257,"Zhang":12258,"stafett":12259,"Rick":12260,"prinsessan":12261,"osterrikisk":12262,"turist":12263,"Lyck":12264,"annex":12265,"cheong":12266,"Panama":12267,"Esfahan":12268,"hugg":12269,"bind":12270,"Liver":12271,"sands":12272,"Sichuan":12273,"Vor":12274,"gravar":12275,"Shelah":12276,"genomfora":12277,"hundratal":12278,"260":12279,"vila":12280,"inforli":12281,"medforde":12282,"foljt":12283,"Mez":12284,"Norrland":12285,"uman":12286,"omgangar":12287,"delat":12288,"hjalpte":12289,"fursten":12290,"Partiet":12291,"Endast":12292,"Jerusalem":12293,"Rena":12294,"dodades":12295,"vinkel":12296,"alerna":12297,"korg":12298,"bransle":12299,"teorin":12300,"diverse":12301,"Hof":12302,"temot":12303,"opterus":12304,"racing":12305,"Steve":12306,"Coel":12307,"intraffade":12308,"ithi":12309,"isra":12310,"verkliga":12311,"sattet":12312,"esvampar":12313,"human":12314,"Hack":12315,"dale":12316,"1827":12317,"latinska":12318,"flyttning":12319,"varu":12320,"mordet":12321,"handlade":12322,"lossa":12323,"bac":12324,"Culicoides":12325,"Petter":12326,"Rapides":12327,"fakult":12328,"stot":12329,"foretradare":12330,"tofsspinnare":12331,"mota":12332,"omoj":12333,"tii":12334,"lamnades":12335,"burgh":12336,"pig":12337,"mern":12338,"kronan":12339,"fronten":12340,"ansikt":12341,"Dendr":12342,"moten":12343,"fix":12344,"1790":12345,"Tammer":12346,"utforda":12347,"scha":12348,"Kieffer":12349,"naturligt":12350,"biskopen":12351,"ła":12352,"korrekt":12353,"Series":12354,"onne":12355,"Stjarn":12356,"bura":12357,"tvan":12358,"egenskap":12359,"korsblommig":12360,"overstelojtnant":12361,"Linn":12362,"export":12363,"Rain":12364,"ljusare":12365,"observ":12366,"jia":12367,"hovd":12368,"ryggen":12369,"soldaterna":12370,"grodor":12371,"dominerande":12372,"stadsplan":12373,"skett":12374,"amatan":12375,"leds":12376,"skillnader":12377,"Milj":12378,"slok":12379,"Sok":12380,"Eugene":12381,"atmos":12382,"underart":12383,"aktiviteter":12384,"Gabon":12385,"لی":12386,"arliga":12387,"vacker":12388,"Palindi":12389,"Lidingo":12390,"Boll":12391,"Lopez":12392,"ores":12393,"dero":12394,"darigenom":12395,"Bergs":12396,"Sebastian":12397,"karp":12398,"arkebiskop":12399,"Institute":12400,"forkortat":12401,"Key":12402,"opul":12403,"klor":12404,"mira":12405,"skrack":12406,"America":12407,"Bernhard":12408,"Fotboll":12409,"CO":12410,"glad":12411,"zburg":12412,"opteris":12413,"huvudrollerna":12414,"Enc":12415,"dimens":12416,"fordraget":12417,"spraken":12418,"sjalvstandig":12419,"Gara":12420,"inkomst":12421,"jobb":12422,"ев":12423,"manniskans":12424,"parten":12425,"romia":12426,"Bru":12427,"Aar":12428,"cle":12429,"perna":12430,"nationellt":12431,"stuga":12432,"forknip":12433,"flertalet":12434,"Mike":12435,"cilia":12436,"1822":12437,"Lovisa":12438,"Sale":12439,"olycka":12440,"framfordes":12441,"utexaminerades":12442,"Galli":12443,"Pang":12444,"vich":12445,"Falken":12446,"Mitch":12447,"uy":12448,"huvu":12449,"Lug":12450,"Tres":12451,"ophan":12452,"fargad":12453,"ichi":12454,"Zel":12455,"seled":12456,"Tw":12457,"inforde":12458,"Augustus":12459,"cephal":12460,"moter":12461,"nie":12462,"seat":12463,"360":12464,"lyckats":12465,"nordisk":12466,"fastning":12467,"spektral":12468,"Kecamatan":12469,"anteles":12470,"Tammerfors":12471,"jamn":12472,"luften":12473,"felt":12474,"ppi":12475,"Robinson":12476,"pagne":12477,"Bohmen":12478,"hura":12479,"ongo":12480,"Cook":12481,"skillnaden":12482,"igera":12483,"akry":12484,"tusen":12485,"Bates":12486,"arrangerades":12487,"bestamm":12488,"kejsare":12489,"fladder":12490,"drab":12491,"oux":12492,"profil":12493,"unculus":12494,"Cross":12495,"alit":12496,"celi":12497,"radgivare":12498,"alistiska":12499,"bicolor":12500,"bergia":12501,"videon":12502,"Sumatera":12503,"sov":12504,"kapital":12505,"Nunatak":12506,"gentemot":12507,"imer":12508,"pafagels":12509,"rem":12510,"marmor":12511,"riken":12512,"officerare":12513,"Pena":12514,"Guerrero":12515,"Ok":12516,"any":12517,"hallare":12518,"Meyer":12519,"forvax":12520,"bidra":12521,"Chungcheong":12522,"nets":12523,"spark":12524,"protester":12525,"Anvandning":12526,"Arag":12527,"Lagoon":12528,"ique":12529,"raea":12530,"staben":12531,"1821":12532,"yrmex":12533,"Wad":12534,"karakter":12535,"miljoer":12536,"sae":12537,"mannia":12538,"Dalton":12539,"Tes":12540,"basidi":12541,"mojligheten":12542,"bem":12543,"avut":12544,"plet":12545,"Sture":12546,"pit":12547,"Asmara":12548,"ligga":12549,"Dasy":12550,"Dio":12551,"ند":12552,"livstid":12553,"Murray":12554,"avlingarna":12555,"cam":12556,"nt":12557,"Begreppet":12558,"DC":12559,"brodern":12560,"sagare":12561,"Levnadssatt":12562,"Oaxaca":12563,"Siyah":12564,"Nicolas":12565,"sluta":12566,"rice":12567,"ocken":12568,"Cho":12569,"zawa":12570,"Ryd":12571,"yler":12572,"Pachy":12573,"turkiska":12574,"Scopula":12575,"Pfalz":12576,"ossa":12577,"hold":12578,"loven":12579,"edda":12580,"koret":12581,"Tyska":12582,"avs":12583,"fords":12584,"basidiesvampar":12585,"densis":12586,"slutspel":12587,"tradgards":12588,"1808":12589,"tob":12590,"pojk":12591,"Tetouan":12592,"sound":12593,"indelat":12594,"lot":12595,"beskrivning":12596,"altar":12597,"ionella":12598,"ografer":12599,"dialekt":12600,"atu":12601,"umer":12602,"alais":12603,"Lasioglossum":12604,"naturvardsunionen":12605,"otea":12606,"storps":12607,"Solna":12608,"tropiska":12609,"Serie":12610,"orr":12611,"Hei":12612,"Brunswick":12613,"AP":12614,"generation":12615,"Racing":12616,"Programmet":12617,"fiskals":12618,"goras":12619,"skickades":12620,"rips":12621,"exakt":12622,"sele":12623,"Strax":12624,"sakrist":12625,"Lore":12626,"Conakry":12627,"asteroidgruppen":12628,"mom":12629,"Leeds":12630,"ai":12631,"acken":12632,"ryt":12633,"kanaler":12634,"medicinska":12635,"Achille":12636,"Philadelphia":12637,"mjuk":12638,"hems":12639,"trav":12640,"ness":12641,"Line":12642,"Base":12643,"ipa":12644,"ivag":12645,"paverkan":12646,"lake":12647,"Gy":12648,"rena":12649,"bevak":12650,"ulin":12651,"leby":12652,"drogs":12653,"striden":12654,"datorer":12655,"resurser":12656,"270":12657,"teknisk":12658,"mikro":12659,"korpor":12660,"Montagne":12661,"Zyg":12662,"situation":12663,"betes":12664,"jeh":12665,"Moder":12666,"Sainte":12667,"1758":12668,"katoli":12669,"flamm":12670,"Preussen":12671,"Indiana":12672,"Raymond":12673,"Ater":12674,"omlopp":12675,"fororen":12676,"illar":12677,"juris":12678,"iona":12679,"Lip":12680,"forela":12681,"Benjam":12682,"regeringens":12683,"gilt":12684,"ativt":12685,"jordens":12686,"Hakan":12687,"evangeli":12688,"argent":12689,"inium":12690,"alom":12691,"tillverka":12692,"Falk":12693,"Jamtlands":12694,"Nunavut":12695,"apotek":12696,"tillverkare":12697,"Mauret":12698,"skyrka":12699,"stralning":12700,"marskal":12701,"Haute":12702,"Kou":12703,"bakter":12704,"kampanj":12705,"ulum":12706,"oso":12707,"turen":12708,"Lod":12709,"1817":12710,"Valde":12711,"traditionell":12712,"anah":12713,"Aphodiidae":12714,"Lawrence":12715,"Sep":12716,"itas":12717,"balsam":12718,"onomus":12719,"myndigheterna":12720,"detaljer":12721,"byggandet":12722,"tjugo":12723,"Kand":12724,"Pent":12725,"frik":12726,"vilar":12727,"ckar":12728,"Hardy":12729,"inrikes":12730,"imi":12731,"Bergman":12732,"disputerade":12733,"sporten":12734,"ramer":12735,"Olle":12736,"Kyrkobyggnaden":12737,"thon":12738,"DR":12739,"Syzyg":12740,"Shang":12741,"tyng":12742,"orin":12743,"medborgar":12744,"sac":12745,"kraftiga":12746,"forslaget":12747,"emann":12748,"Queen":12749,"herrgard":12750,"ridae":12751,"saka":12752,"traditionen":12753,"skrigets":12754,"Hedvig":12755,"Nicaragua":12756,"komsten":12757,"Anthony":12758,"Arnold":12759,"Antoine":12760,"Commun":12761,"ра":12762,"allsvenskan":12763,"kongres":12764,"uridae":12765,"Hydra":12766,"galan":12767,"manusforfattare":12768,"Fagel":12769,"khan":12770,"ury":12771,"siden":12772,"artiller":12773,"skildrar":12774,"uber":12775,"ин":12776,"ights":12777,"Klubb":12778,"Riddar":12779,"sniva":12780,"innefattar":12781,"mojliga":12782,"Velika":12783,"Herber":12784,"oo":12785,"tacka":12786,"Nyheter":12787,"dansflugor":12788,"loper":12789,"ranunkelvaxtart":12790,"Ding":12791,"show":12792,"producera":12793,"atskilliga":12794,"Ryss":12795,"kansli":12796,"astad":12797,"1775":12798,"flytande":12799,"blot":12800,"Echin":12801,"akter":12802,"inspelningen":12803,"Row":12804,"landsoarna":12805,"otiska":12806,"ienter":12807,"dagarna":12808,"vagarna":12809,"ehamn":12810,"fogder":12811,"Gum":12812,"Zhe":12813,"paven":12814,"presenterade":12815,"entals":12816,"Burundi":12817,"handlare":12818,"hornstritar":12819,"Bohuslan":12820,"osoma":12821,"Prog":12822,"Montana":12823,"Kosovo":12824,"Astana":12825,"bestand":12826,"edit":12827,"utsmyck":12828,"Harold":12829,"jungfrulins":12830,"team":12831,"konen":12832,"natet":12833,"Try":12834,"XII":12835,"Idi":12836,"Tobias":12837,"nattslandor":12838,"produktions":12839,"snick":12840,"market":12841,"Harnos":12842,"utbildad":12843,"tillforord":12844,"Norrkopings":12845,"alfab":12846,"brotts":12847,"bestammer":12848,"Vita":12849,"gyll":12850,"Rafa":12851,"Sho":12852,"helg":12853,"inspirerad":12854,"Strang":12855,"marsch":12856,"Anomala":12857,"saken":12858,"Rudolph":12859,"affars":12860,"Nac":12861,"jade":12862,"uka":12863,"utus":12864,"roa":12865,"Aleksand":12866,"Lum":12867,"obra":12868,"Sodermanland":12869,"gitarrist":12870,"Clem":12871,"rosen":12872,"skivbolag":12873,"Olat":12874,"Schw":12875,"Seh":12876,"fallen":12877,"Eleon":12878,"Cem":12879,"SP":12880,"vild":12881,"variabel":12882,"narliggande":12883,"quer":12884,"asu":12885,"Kiruna":12886,"Aw":12887,"uppford":12888,"quen":12889,"Kristus":12890,"سی":12891,"inos":12892,"Medlem":12893,"Mauric":12894,"cz":12895,"hallandet":12896,"Litauen":12897,"sjop":12898,"imb":12899,"oon":12900,"vr":12901,"mane":12902,"djuren":12903,"Map":12904,"Pab":12905,"bildandet":12906,"kari":12907,"minerar":12908,"Luxemburg":12909,"ochilus":12910,"brach":12911,"hren":12912,"sidorna":12913,"splatser":12914,"alog":12915,"See":12916,"passagerare":12917,"illing":12918,"utgrav":12919,"Jok":12920,"gg":12921,"1813":12922,"Hansen":12923,"Sphaer":12924,"fastigheter":12925,"nyligen":12926,"tyder":12927,"Jamaica":12928,"smek":12929,"kallavaxter":12930,"vetenskaplig":12931,"Shet":12932,"mottes":12933,"Samman":12934,"atiska":12935,"darav":12936,"staty":12937,"eliaceae":12938,"ол":12939,"Sey":12940,"radie":12941,"Milano":12942,"Oden":12943,"uil":12944,"seriet":12945,"Blanca":12946,"Melodifestivalen":12947,"SO":12948,"svarmare":12949,"Petrov":12950,"slutspelet":12951,"Tach":12952,"Northwest":12953,"individuella":12954,"cli":12955,"stim":12956,"benamns":12957,"cien":12958,"omum":12959,"Mauretanien":12960,"proff":12961,"ellata":12962,"Allan":12963,"professionella":12964,"positiva":12965,"hing":12966,"Gesner":12967,"skift":12968,"ogel":12969,"plattmaskart":12970,"bergstrakter":12971,"Syzygium":12972,"Doc":12973,"TA":12974,"rundan":12975,"blem":12976,"Vagen":12977,"Privat":12978,"Astr":12979,"bronsal":12980,"²,":12981,"instift":12982,"hax":12983,"odinidae":12984,"Minnesota":12985,"Zab":12986,"vaggar":12987,"Vari":12988,"liaceae":12989,"Ohio":12990,"Sigism":12991,"Nedre":12992,"raden":12993,"eterna":12994,"Media":12995,"beskriva":12996,"flackar":12997,"Born":12998,"Vu":12999,"uppsattning":13000,"kroppslangd":13001,"Shen":13002,"Swe":13003,"Prins":13004,"Lasse":13005,"Serbien":13006,"Nip":13007,"Hanna":13008,"flygplanet":13009,"rap":13010,"hemman":13011,"Glyp":13012,"favorit":13013,"ional":13014,"biografi":13015,"Gottfried":13016,"Gradina":13017,"overen":13018,"friherre":13019,"Pho":13020,"avsikt":13021,"Chamberlin":13022,"folkmangd":13023,"lii":13024,"opor":13025,"mater":13026,"plots":13027,"Vasterbottens":13028,"Bond":13029,"ulla":13030,"koncept":13031,"mineral":13032,"teorier":13033,"skande":13034,"musikaliska":13035,"Lindberg":13036,"berattelsen":13037,"Liverpool":13038,"zj":13039,"stena":13040,"Wie":13041,"laborator":13042,"diff":13043,"klok":13044,"stycke":13045,"jamforelse":13046,"uku":13047,"Gesneriaceae":13048,"tepec":13049,"faktorer":13050,"Idaea":13051,"bunden":13052,"rekry":13053,"jana":13054,"Parap":13055,"only":13056,"Druce":13057,"Qing":13058,"SL":13059,"Tomm":13060,"Tbili":13061,"born":13062,"Frances":13063,"fasciata":13064,"Guadalupe":13065,"dalig":13066,"rann":13067,"relationer":13068,"rekordet":13069,"Roman":13070,"ekv":13071,"fattiga":13072,"utlan":13073,"trollslandor":13074,"Georges":13075,"koncernen":13076,"stolen":13077,"Pettersson":13078,"forsvara":13079,"Ursprungligen":13080,"Hosten":13081,"Wes":13082,"Boz":13083,"stanna":13084,"Graham":13085,"orsakade":13086,"Shel":13087,"intresserade":13088,"forestallningar":13089,"stare":13090,"arsskiftet":13091,"skikt":13092,"color":13093,"Skanska":13094,"genren":13095,"vattenfall":13096,"naturskyddat":13097,"Vetenskapsakademien":13098,"katastrof":13099,"enta":13100,"tidskrifter":13101,"studerat":13102,"Motala":13103,"Tbilisi":13104,"blomsvaxter":13105,"Qol":13106,"Oliv":13107,"sjalvstandigt":13108,"Sorkh":13109,"Benjamin":13110,"inta":13111,"ely":13112,"fect":13113,"ditt":13114,"kommunistiska":13115,"gitarri":13116,"Nua":13117,"Pare":13118,"essor":13119,"hima":13120,"giz":13121,"svarigheter":13122,"inclu":13123,"kulturella":13124,"coc":13125,"intryck":13126,"expans":13127,"Box":13128,"fangsla":13129,"doptes":13130,"Roll":13131,"Cela":13132,"hattan":13133,"Ela":13134,"skom":13135,"igny":13136,"byttes":13137,"utsch":13138,"tap":13139,"abborre":13140,"Tors":13141,"Gymn":13142,"gnagare":13143,"ijer":13144,"rass":13145,"dotterbo":13146,"Wul":13147,"fro":13148,"syskon":13149,"minskat":13150,"hiza":13151,"Meck":13152,"benamningen":13153,"Bild":13154,"Marrak":13155,"modifier":13156,"engagemang":13157,"ladius":13158,"Leopold":13159,"BBC":13160,"avtalet":13161,"tanter":13162,"Wagner":13163,"uns":13164,"stracka":13165,"upproret":13166,"vackra":13167,"kvart":13168,"FK":13169,"fral":13170,"Uran":13171,"kamer":13172,"ulon":13173,"rox":13174,"ypter":13175,"Tax":13176,"unnen":13177,"Arkitekt":13178,"Mud":13179,"lagervaxter":13180,"dac":13181,"slaktingar":13182,"stravbladig":13183,"puppglanssteklar":13184,"popularitet":13185,"mott":13186,"trott":13187,"attacker":13188,"statistik":13189,"jordlopare":13190,"erbjud":13191,"givning":13192,"melodi":13193,"Skepp":13194,"Yukon":13195,"Elitserien":13196,"Drak":13197,"Scen":13198,"offens":13199,"motsats":13200,"Hoc":13201,"Taza":13202,"Ekman":13203,"Punt":13204,"fundet":13205,"Indivi":13206,"erfar":13207,"backhopp":13208,"fjad":13209,"alternativt":13210,"nal":13211,"angaende":13212,"tillverkad":13213,"king":13214,"graven":13215,"System":13216,"Game":13217,"Limn":13218,"slide":13219,"Kalle":13220,"uppvaxt":13221,"Akademien":13222,"Frey":13223,"Mull":13224,"oplus":13225,"novell":13226,"sumpmark":13227,"medier":13228,"agaren":13229,"plock":13230,"heus":13231,"Mina":13232,"espe":13233,"flyttar":13234,"kollektiv":13235,"blivande":13236,"cond":13237,"Zhejiang":13238,"ulis":13239,"quart":13240,"gart":13241,"tander":13242,"utvecklings":13243,"uppehall":13244,"Ronald":13245,"Krim":13246,"emig":13247,"helhet":13248,"Kanal":13249,"Marrakech":13250,"Becker":13251,"halva":13252,"kostnad":13253,"forna":13254,"ovs":13255,"franske":13256,"tradgard":13257,"ific":13258,"pepparvaxter":13259,"muren":13260,"1789":13261,"ен":13262,"reformat":13263,"bely":13264,"omya":13265,"slor":13266,"militart":13267,"seledamot":13268,"Oran":13269,"overgang":13270,"operativ":13271,"rera":13272,"invol":13273,"foretagets":13274,"violin":13275,"lers":13276,"riddare":13277,"Xanthop":13278,"ᅩᆼ":13279,"kyrkogarden":13280,"kannetecknas":13281,"pafagelsspinnare":13282,"Ts":13283,"amator":13284,"Book":13285,"Projekt":13286,"infanteri":13287,"Yazd":13288,"Via":13289,"gis":13290,"Asplen":13291,"resande":13292,"firman":13293,"ongen":13294,"stodja":13295,"pepparvaxtart":13296,"Nob":13297,"barns":13298,"rax":13299,"forluster":13300,"Individerna":13301,"forklaring":13302,"Ahmad":13303,"Fame":13304,"alyp":13305,"forekommit":13306,"Lista":13307,"baten":13308,"Barbara":13309,"yllus":13310,"Forenade":13311,"talande":13312,"Vap":13313,"morgon":13314,"ussel":13315,"Emile":13316,"fiken":13317,"garnis":13318,"Lop":13319,"Radi":13320,"Tens":13321,"cinia":13322,"Wright":13323,"odyn":13324,"nejlikvaxter":13325,"spott":13326,"Keith":13327,"Crot":13328,"gaz":13329,"TH":13330,"Demokrat":13331,"Adams":13332,"larar":13333,"skede":13334,"Awards":13335,"illas":13336,"ilong":13337,"law":13338,"sytan":13339,"Inre":13340,"iventris":13341,"magn":13342,"Sommaren":13343,"Lhasa":13344,"ogo":13345,"stret":13346,"Metrop":13347,"provis":13348,"Hat":13349,"utmed":13350,"1793":13351,"Cour":13352,"Cres":13353,"smala":13354,"vivevaxter":13355,"Boissi":13356,"Opius":13357,"avsedd":13358,"originalt":13359,"exkl":13360,"owski":13361,"utsedd":13362,"gh":13363,"utbyte":13364,"upplag":13365,"starkare":13366,"murar":13367,"Yan":13368,"gio":13369,"duk":13370,"Pres":13371,"hao":13372,"Beni":13373,"dragen":13374,"Lecan":13375,"produktioner":13376,"valjer":13377,"Forster":13378,"Kaw":13379,"Anop":13380,"280":13381,"bundna":13382,"uez":13383,"oire":13384,"backslandeart":13385,"situationen":13386,"iste":13387,"styrkan":13388,"jubileum":13389,"ologer":13390,"hinder":13391,"skoter":13392,"Brev":13393,"Sina":13394,"ekul":13395,"Dothi":13396,"Hawa":13397,"benamning":13398,"Oua":13399,"rora":13400,"ombud":13401,"upply":13402,"ythr":13403,"foretog":13404,"gemenskap":13405,"bav":13406,"stille":13407,"Gan":13408,"rocer":13409,"arist":13410,"hew":13411,"riktade":13412,"Dead":13413,"dies":13414,"kallavaxtart":13415,"utgava":13416,"Tand":13417,"Linda":13418,"Sodermanlands":13419,"inflytelser":13420,"Forsvarsmakten":13421,"Conne":13422,"ochaeta":13423,"iman":13424,"pera":13425,"play":13426,"Luft":13427,"sau":13428,"1801":13429,"styrelseledamot":13430,"lagervaxtart":13431,"gymnastik":13432,"iba":13433,"vre":13434,"foran":13435,"konferens":13436,"leddjur":13437,"Sout":13438,"Skovde":13439,"IN":13440,"gross":13441,"Kus":13442,"Sik":13443,"overra":13444,"simm":13445,"nodvandigt":13446,"lyn":13447,"styra":13448,"omnamn":13449,"Bromeliaceae":13450,"itra":13451,"sinn":13452,"Fat":13453,"Pes":13454,"midae":13455,"Phys":13456,"Capit":13457,"cras":13458,"skug":13459,"Coqu":13460,"olleh":13461,"omac":13462,"efterfoljande":13463,"SCB":13464,"Fartyg":13465,"jang":13466,"framtradde":13467,"Nagu":13468,"spartiet":13469,"ير":13470,"Afton":13471,"ilia":13472,"upt":13473,"Johanna":13474,"junkt":13475,"Vatt":13476,"sakt":13477,"Stur":13478,"smart":13479,"mae":13480,"Haouz":13481,"Lepanthes":13482,"kemiska":13483,"distribut":13484,"ofon":13485,"obas":13486,"Thecla":13487,"klasser":13488,"traning":13489,"Michigan":13490,"success":13491,"Program":13492,"erfaren":13493,"anske":13494,"berattade":13495,"Ornskold":13496,"lagenheter":13497,"pjaser":13498,"kommunist":13499,"tonsattare":13500,"Theatre":13501,"poesi":13502,"ferensen":13503,"quel":13504,"vens":13505,"dii":13506,"Bolaget":13507,"Mariehamn":13508,"Bari":13509,"Dana":13510,"Suk":13511,"tvatt":13512,"utgora":13513,"Puebla":13514,"Kola":13515,"Pag":13516,"imala":13517,"Vitt":13518,"include":13519,"termen":13520,"samtal":13521,"getingar":13522,"Pushtah":13523,"Squ":13524,"cop":13525,"Nept":13526,"hovratt":13527,"bbspindlar":13528,"licens":13529,"Forcip":13530,"frakt":13531,"Polyg":13532,"speciell":13533,"Hallands":13534,"Krono":13535,"icipal":13536,"Hier":13537,"Wir":13538,"pher":13539,"rob":13540,"benen":13541,"Bujum":13542,"koppling":13543,"eima":13544,"clav":13545,"Copa":13546,"Tirana":13547,"frukter":13548,"Qolleh":13549,"sviks":13550,"alltfor":13551,"omar":13552,"horighet":13553,"SR":13554,"uft":13555,"beord":13556,"couver":13557,"Chapman":13558,"Bujumbura":13559,"ake":13560,"hae":13561,"varldscupen":13562,"Klock":13563,"gymnasium":13564,"Alvsborgs":13565,"brid":13566,"teologi":13567,"Kristi":13568,"Ferr":13569,"Californ":13570,"Lagen":13571,"forbattra":13572,"Armenien":13573,"hotade":13574,"Vastmanland":13575,"Ranunculus":13576,"drabbade":13577,"utrikesminister":13578,"Trel":13579,"iermark":13580,"1792":13581,"orlunda":13582,"Idrott":13583,"ocam":13584,"ission":13585,"Studio":13586,"avseende":13587,"Taoun":13588,"Nahr":13589,"Aran":13590,"pave":13591,"vardag":13592,"Chong":13593,"Spencer":13594,"lun":13595,"fantas":13596,"sagan":13597,"ostre":13598,"Dicranomyia":13599,"fell":13600,"iley":13601,"Six":13602,"Herbert":13603,"Hale":13604,"derade":13605,"Fries":13606,"Varen":13607,"hti":13608,"naring":13609,"deb":13610,"assan":13611,"djupt":13612,"officiell":13613,"Trans":13614,"kapellet":13615,"reaktion":13616,"annorlunda":13617,"Chahar":13618,"inosa":13619,"varierande":13620,"skepps":13621,"Lorestan":13622,"alskar":13623,"trades":13624,"rast":13625,"inledning":13626,"femton":13627,"uris":13628,"Miconia":13629,"Nuvarande":13630,"alands":13631,"Leg":13632,"tillfang":13633,"Mauricie":13634,"ester":13635,"antrop":13636,"spunkt":13637,"producerat":13638,"Atlanta":13639,"Oland":13640,"ifolium":13641,"lein":13642,"senat":13643,"komed":13644,"riktiga":13645,"Taounate":13646,"Gand":13647,"entet":13648,"langsta":13649,"science":13650,"erovr":13651,"hue":13652,"uteslutande":13653,"skov":13654,"landskaps":13655,"okoll":13656,"bosatta":13657,"Hydrop":13658,"Dha":13659,"hya":13660,"Gua":13661,"hittats":13662,"positiv":13663,"liberala":13664,"levnad":13665,"onlyinclude":13666,"pung":13667,"Frankfurt":13668,"Belarus":13669,"spic":13670,"tillforordnad":13671,"utgar":13672,"snabbare":13673,"forvaltningen":13674,"Malloch":13675,"tje":13676,"skull":13677,"iodes":13678,"angrepp":13679,"intel":13680,"Andrea":13681,"angdong":13682,"مر":13683,"borough":13684,"forbjud":13685,"utlandsk":13686,"ories":13687,"mobil":13688,"Festival":13689,"olophia":13690,"ekar":13691,"Mato":13692,"Tensift":13693,"Byr":13694,"lenburg":13695,"vivevaxtart":13696,"tilli":13697,"Theod":13698,"ingaende":13699,"1802":13700,"Portez":13701,"avhandlingen":13702,"manni":13703,"massan":13704,"juden":13705,"Stav":13706,"religios":13707,"pjasen":13708,"Jarnvag":13709,"omkom":13710,"tagning":13711,"apic":13712,"bers":13713,"Vient":13714,"Liu":13715,"mynning":13716,"Comp":13717,"tekniker":13718,"Campbell":13719,"stangdes":13720,"chile":13721,"samarbetet":13722,"glom":13723,"Teatern":13724,"utomhus":13725,"Ostersund":13726,"icauda":13727,"tionde":13728,"Yong":13729,"jare":13730,"oud":13731,"paverka":13732,"Cordoba":13733,"Football":13734,"overenskomm":13735,"Tis":13736,"skargard":13737,"forbindelser":13738,"Grant":13739,"indelad":13740,"laroverk":13741,"mors":13742,"kvarvarande":13743,"effekter":13744,"Sigismund":13745,"Aud":13746,"reus":13747,"attrakt":13748,"fiender":13749,"ariaceae":13750,"svin":13751,"blotta":13752,"backslandor":13753,"yrtus":13754,"kontoret":13755,"ين":13756,"hoppade":13757,"Tripoli":13758,"Shakespe":13759,"givna":13760,"ipe":13761,"Julia":13762,"1806":13763,"Cad":13764,"hina":13765,"gali":13766,"placerad":13767,"Swed":13768,"Stephan":13769,"Hoceima":13770,"arkt":13771,"ellaceae":13772,"fig":13773,"blandad":13774,"Thur":13775,"bekan":13776,"moz":13777,"Schu":13778,"Boissier":13779,"etiskt":13780,"Psil":13781,"hallas":13782,"skara":13783,"hari":13784,"framtiden":13785,"primar":13786,"1803":13787,"tril":13788,"from":13789,"ocon":13790,"elektriska":13791,"sanda":13792,"Cauca":13793,"regissoren":13794,"Carpen":13795,"Gustafsson":13796,"fortroende":13797,"More":13798,"HK":13799,"turnerade":13800,"Tric":13801,"opia":13802,"town":13803,"volym":13804,"Makedonien":13805,"fastigheten":13806,"tha":13807,"isera":13808,"jarnaldern":13809,"risken":13810,"begravdes":13811,"blomsvaxtart":13812,"opposition":13813,"1805":13814,"ista":13815,"meister":13816,"uppna":13817,"sokan":13818,"Lox":13819,"Microp":13820,"Ein":13821,"Landskrona":13822,"daggdjur":13823,"bevap":13824,"sai":13825,"Eud":13826,"prova":13827,"Anat":13828,"pionjar":13829,"Rafael":13830,"mytologi":13831,"Mohammad":13832,"Cyat":13833,"annexforsamling":13834,"California":13835,"unnan":13836,"Hammer":13837,"Agri":13838,"Girault":13839,"refer":13840,"vie":13841,"svagt":13842,"Forcipomyia":13843,"pia":13844,"sockenhuvudort":13845,"Huang":13846,"Sofla":13847,"Oscars":13848,"Vientiane":13849,"Kamerun":13850,"inatus":13851,"legat":13852,"lanades":13853,"kottflugor":13854,"Best":13855,"patri":13856,"anlaggningar":13857,"skulpturer":13858,"geomet":13859,"Vide":13860,"anknyt":13861,"inkorpor":13862,"paket":13863,"okning":13864,"Bamako":13865,"GT":13866,"genre":13867,"ophis":13868,"Tommy":13869,"cav":13870,"obium":13871,"Phy":13872,"Carlyle":13873,"Vasttyskland":13874,"Atlanten":13875,"Habitatet":13876,"Portezuelo":13877,"urinsektsart":13878,"flotta":13879,"Jesu":13880,"Helicon":13881,"ortodoxa":13882,"Fyra":13883,"iphora":13884,"Maxim":13885,"Koppar":13886,"Phe":13887,"Joao":13888,"flagga":13889,"IC":13890,"tidpunkt":13891,"chefredaktor":13892,"tillverkningen":13893,"obla":13894,"virid":13895,"gonen":13896,"cosa":13897,"originaltitel":13898,"hay":13899,"vandring":13900,"Sot":13901,"Your":13902,"wh":13903,"Falun":13904,"pensioner":13905,"Bott":13906,"Gis":13907,"Skandinavien":13908,"Eux":13909,"behovs":13910,"arrangemang":13911,"Oriental":13912,"recensioner":13913,"Kaj":13914,"Scler":13915,"Wester":13916,"Hotel":13917,"Arsen":13918,"lane":13919,"fond":13920,"Smed":13921,"fysi":13922,"rigt":13923,"Iron":13924,"uen":13925,"utsatt":13926,"flicka":13927,"uppenbar":13928,"delats":13929,"mega":13930,"Kropp":13931,"forhandlingar":13932,"nab":13933,"helea":13934,"demokratisk":13935,"Papua":13936,"enklare":13937,"اغ":13938,"sei":13939,"kopt":13940,"stadsfullmaktige":13941,"massor":13942,"uria":13943,"styrkorna":13944,"Io":13945,"foni":13946,"matidae":13947,"fangelset":13948,"Jas":13949,"trafikeras":13950,"Fis":13951,"Riga":13952,"sorts":13953,"vasent":13954,"standiga":13955,"skanal":13956,"Beau":13957,"Skaraborgs":13958,"bukt":13959,"amas":13960,"Shaw":13961,"Div":13962,"Lorra":13963,"Uul":13964,"yndig":13965,"othrix":13966,"spons":13967,"goring":13968,"smyggor":13969,"corn":13970,"Kanarie":13971,"fiction":13972,"sus":13973,"stund":13974,"Berk":13975,"Piedra":13976,"tjansteman":13977,"Kub":13978,"Oph":13979,"leh":13980,"rymmer":13981,"kunskaper":13982,"Honan":13983,"Operan":13984,"afrikanska":13985,"uve":13986,"agt":13987,"quadri":13988,"egu":13989,"komponerade":13990,"Autom":13991,"Chor":13992,"Mancha":13993,"minnen":13994,"flitigt":13995,"Lub":13996,"ratus":13997,"ciden":13998,"utrymme":13999,"Sloven":14000,"Campo":14001,"harstam":14002,"1811":14003,"erings":14004,"Arc":14005,"horus":14006,"Entertain":14007,"gemeinde":14008,"Rase":14009,"frons":14010,"Megachile":14011,"ал":14012,"tillamp":14013,"tiotal":14014,"konstitution":14015,"trog":14016,"trang":14017,"emoni":14018,"eko":14019,"Wor":14020,"smar":14021,"inspelad":14022,"cerad":14023,"strafik":14024,"amaster":14025,"uvida":14026,"Llo":14027,"fritflugor":14028,"avrattades":14029,"Evans":14030,"propa":14031,"tillganglig":14032,"Hassel":14033,"Whe":14034,"skapad":14035,"Vancouver":14036,"alders":14037,"sjalvstandiga":14038,"Cow":14039,"Sit":14040,"Toro":14041,"samre":14042,"rakning":14043,"Cay":14044,"Rubus":14045,"Watson":14046,"Wolfgang":14047,"nejlikvaxtart":14048,"minerarflugor":14049,"samlades":14050,"Brittiska":14051,"Udde":14052,"Ait":14053,"Kalla":14054,"kler":14055,"skarm":14056,"fogderier":14057,"AHL":14058,"gerna":14059,"hipp":14060,"producenten":14061,"Godar":14062,"senator":14063,"Misso":14064,"definieras":14065,"Carpenter":14066,"yros":14067,"Castel":14068,"Justicia":14069,"kommission":14070,"slem":14071,"regerande":14072,"Party":14073,"koncentration":14074,"EN":14075,"grus":14076,"domsagor":14077,"ykh":14078,"stallningar":14079,"blick":14080,"Oxy":14081,"ploea":14082,"Sis":14083,"zeh":14084,"klund":14085,"Brig":14086,"Rayon":14087,"sparrisvaxter":14088,"roder":14089,"darna":14090,"Zheng":14091,"himm":14092,"tankar":14093,"kandidatexamen":14094,"Aguada":14095,"320":14096,"skadades":14097,"underratt":14098,"territoriets":14099,"Steiermark":14100,"Jeff":14101,"codes":14102,"Limon":14103,"kampade":14104,"Fager":14105,"Ragnar":14106,"stakademien":14107,"quet":14108,"elles":14109,"Moderna":14110,"Johnny":14111,"Lagun":14112,"tyskt":14113,"Georgia":14114,"Oxford":14115,"Lettland":14116,"varns":14117,"adensiska":14118,"vasendet":14119,"arken":14120,"lak":14121,"Aceh":14122,"Tala":14123,"Utveck":14124,"kontroversi":14125,"Kanneteck":14126,"antor":14127,"hrus":14128,"Fan":14129,"Fac":14130,"vaggen":14131,"virus":14132,"havaren":14133,"Parat":14134,"varldskrigets":14135,"iera":14136,"Thal":14137,"gau":14138,"djuret":14139,"Arts":14140,"Syftet":14141,"Loew":14142,"akch":14143,"sjukdomen":14144,"usia":14145,"Pseudo":14146,"Tox":14147,"ordnade":14148,"forvant":14149,"kansla":14150,"halvo":14151,"chae":14152,"hittade":14153,"Dagbladet":14154,"konservator":14155,"Acacia":14156,"mamma":14157,"Birkaland":14158,"(),":14159,"seringen":14160,"Trafik":14161,"rypt":14162,"Schles":14163,"berger":14164,"framja":14165,"ways":14166,"Hamn":14167,"vikten":14168,"Storre":14169,"Euploea":14170,"melod":14171,"bevarad":14172,"raknades":14173,"tillgangliga":14174,"BS":14175,"upphoj":14176,"tjansten":14177,"Martins":14178,"Phae":14179,"iseras":14180,"ografisk":14181,"Graf":14182,"triang":14183,"institutioner":14184,"tydliga":14185,"Gala":14186,"Sari":14187,"stjarne":14188,"argument":14189,"Kings":14190,"uppat":14191,"hastarna":14192,"skommunen":14193,"Pis":14194,"kanoner":14195,"kampa":14196,"Olika":14197,"Christoph":14198,"Apanteles":14199,"Nueva":14200,"Fry":14201,"Vastazarbaijan":14202,"Ninten":14203,"Pich":14204,"oraceae":14205,"avli":14206,"Avsnitt":14207,"viking":14208,"Jens":14209,"framstallning":14210,"tifran":14211,"inhemska":14212,"karpfiskar":14213,"etet":14214,"chem":14215,"laser":14216,"Strat":14217,"sittande":14218,"Stewart":14219,"Cyn":14220,"Wel":14221,"ryn":14222,"arrangerade":14223,"Isid":14224,"Manuel":14225,"fartygen":14226,"Kristianstad":14227,"Tyrolen":14228,"bio":14229,"luther":14230,"belagr":14231,"Ent":14232,"avagen":14233,"Petrus":14234,"kanslor":14235,"innehalla":14236,"uppmarksammade":14237,"Jason":14238,"fika":14239,"alu":14240,"Tafil":14241,"offentligt":14242,"Hin":14243,"toner":14244,"fysiska":14245,"Odont":14246,"israeli":14247,"sha":14248,"vistades":14249,"Guan":14250,"Kirgiz":14251,"ramma":14252,"Kristianstads":14253,"folium":14254,"bilj":14255,"kvallen":14256,"Glo":14257,"Stil":14258,"git":14259,"storst":14260,"flygplatsen":14261,"fageln":14262,"generalmajor":14263,"Karolinska":14264,"gymnasie":14265,"450":14266,"anthe":14267,"ompson":14268,"Cathar":14269,"forteckning":14270,"grens":14271,"hornet":14272,"Raz":14273,"Pick":14274,"deles":14275,"euro":14276,"derar":14277,"atelje":14278,"Kanarieoarna":14279,"Zetter":14280,"strim":14281,"Aedes":14282,"aktivitet":14283,"ukrainska":14284,"akers":14285,"anny":14286,"flygning":14287,"Andrena":14288,"punk":14289,"yren":14290,"Staff":14291,"Polyc":14292,"abaa":14293,"Shand":14294,"listar":14295,"asca":14296,"obus":14297,"lagret":14298,"Suz":14299,"Riodinidae":14300,"pall":14301,"opin":14302,"Coen":14303,"rasen":14304,"vardig":14305,"Walt":14306,"ич":14307,"partner":14308,"hittar":14309,"proport":14310,"Gem":14311,"framgar":14312,"flyttas":14313,"stom":14314,"Saab":14315,"basis":14316,"Philli":14317,"Gotalands":14318,"Exempelvis":14319,"roit":14320,"laggs":14321,"Thy":14322,"Molophilus":14323,"Territories":14324,"Cun":14325,"Dos":14326,"Raven":14327,"systemat":14328,"Nielsen":14329,"Eleonora":14330,"spir":14331,"fjarilsmyggor":14332,"utgavan":14333,"mill":14334,"rads":14335,"andan":14336,"rysa":14337,"Kenned":14338,"konkurren":14339,"ET":14340,"slap":14341,"verkande":14342,"kampan":14343,"entrepr":14344,"Rah":14345,"garh":14346,"branden":14347,"Rea":14348,"usta":14349,"ون":14350,"skis":14351,"miar":14352,"Gast":14353,"Fadern":14354,"Lands":14355,"Birgitta":14356,"Knight":14357,"stelse":14358,"Nouakch":14359,"skildringar":14360,"Dresden":14361,"Nouakchott":14362,"sis":14363,"Mick":14364,"UN":14365,"alisk":14366,"Quer":14367,"1804":14368,"Reichenbach":14369,"Hongkong":14370,"sjunga":14371,"Navar":14372,"socknens":14373,"fortsattning":14374,"portugisiska":14375,"Oue":14376,"spels":14377,"Bruk":14378,"125":14379,"hojer":14380,"Rancho":14381,"inspirerade":14382,"Dil":14383,"Kinas":14384,"igo":14385,"geografiska":14386,"Zen":14387,"Leif":14388,"Sper":14389,"Burma":14390,"Baba":14391,"Thun":14392,"Hod":14393,"Ping":14394,"Marin":14395,"nationen":14396,"veter":14397,"stich":14398,"konomi":14399,"1807":14400,"otrichia":14401,"utmarkelser":14402,"ofor":14403,"zzia":14404,"cret":14405,"avslo":14406,"verksamma":14407,"auktors":14408,"Kashmir":14409,"Oreg":14410,"Guangdong":14411,"gravbin":14412,"storstadsomrade":14413,"Cue":14414,"Ock":14415,"Guilla":14416,"mannens":14417,"svard":14418,"morkare":14419,"overty":14420,"beromd":14421,"Sarcophaga":14422,"Strangnas":14423,"Krak":14424,"Wy":14425,"XX":14426,"alan":14427,"Gramm":14428,"nionde":14429,"yph":14430,"riksdagens":14431,"Potok":14432,"fardiga":14433,"?\"":14434,"Nyc":14435,"medi":14436,"ottor":14437,"invanarna":14438,"verkligen":14439,"lassen":14440,"Folke":14441,"Zer":14442,"eventuellt":14443,"Vincent":14444,"Diskografi":14445,"mp":14446,"landsfiskals":14447,"Karez":14448,"Vanua":14449,"erbjod":14450,"idna":14451,"ytta":14452,"api":14453,"ceremoni":14454,"gult":14455,"utgivare":14456,"Paras":14457,"aktuella":14458,"operation":14459,"nj":14460,"vaxa":14461,"Ili":14462,"Hippar":14463,"sjuka":14464,"anthera":14465,"chet":14466,"dete":14467,"socialistiska":14468,"Dothide":14469,"osma":14470,"kontakter":14471,"iano":14472,"loppor":14473,"Pakistan":14474,"huvuden":14475,"Kep":14476,"PR":14477,"Entertainment":14478,"Gow":14479,"Rug":14480,"skas":14481,"esor":14482,"mossa":14483,"Operation":14484,"evenemang":14485,"nybildade":14486,"Mab":14487,"rantz":14488,"yphus":14489,"oue":14490,"light":14491,"lei":14492,"Konig":14493,"zania":14494,"olep":14495,"Andor":14496,"spelats":14497,"auktorsforkortning":14498,"Lower":14499,"odlas":14500,"osaur":14501,"chard":14502,"uci":14503,"Luer":14504,"Mecklenburg":14505,"dt":14506,"skapare":14507,"tatbefolkad":14508,"langfilm":14509,"tifik":14510,"Kreis":14511,"Pim":14512,"Leh":14513,"vagns":14514,"fylke":14515,"skenbar":14516,"Marka":14517,"furst":14518,"garde":14519,"engagerade":14520,"opsylla":14521,"iserat":14522,"Ng":14523,"adan":14524,"pist":14525,"senaten":14526,"entin":14527,"exil":14528,"vedlar":14529,"First":14530,"Hangzhou":14531,"Loph":14532,"Ange":14533,"daggdjursart":14534,"=\"":14535,"Pieter":14536,"له":14537,"lakar":14538,"havsytan":14539,"Grosso":14540,"Nuaf":14541,"fattade":14542,"varda":14543,"utu":14544,"karleks":14545,"parallellt":14546,"Burg":14547,"Sudbury":14548,"efterhand":14549,"nyare":14550,"ratter":14551,"skolle":14552,"%),":14553,"AF":14554,"Pard":14555,"sgatan":14556,"dege":14557,"bekant":14558,"vapenflugor":14559,"urium":14560,"Bird":14561,"Libanonberget":14562,"Pitea":14563,"korgblommiga":14564,"kala":14565,"overlag":14566,"lasar":14567,"brukade":14568,"Vega":14569,"konflikter":14570,"Ambly":14571,"deltar":14572,"utdod":14573,"serierna":14574,"hyper":14575,"Kansas":14576,"Elekt":14577,"amensis":14578,"mouth":14579,"ffel":14580,"tragspinnare":14581,"Adrian":14582,"inalis":14583,"Bast":14584,"fotter":14585,"Mata":14586,"main":14587,"1780":14588,"Sche":14589,"nova":14590,"1794":14591,"igar":14592,"listas":14593,"Eryth":14594,"rapport":14595,"Nigeria":14596,"Aragonien":14597,"05":14598,"blek":14599,"spen":14600,"riksdagsman":14601,"eres":14602,"tima":14603,"fornlamningar":14604,"orsaken":14605,"spridda":14606,"Our":14607,"asci":14608,"Brod":14609,"Meknes":14610,"Eds":14611,"uster":14612,"helikopter":14613,"reso":14614,"kraften":14615,"fasad":14616,"varldsmasterskapen":14617,"slangden":14618,"Eriks":14619,"laste":14620,"lagsta":14621,"Ingrid":14622,"Lorraine":14623,"omstand":14624,"troligtvis":14625,"Staud":14626,"begransade":14627,"Batt":14628,"Dark":14629,"tang":14630,"undey":14631,"IX":14632,"jou":14633,"enlighet":14634,"omgang":14635,"idad":14636,"Corpor":14637,"Kristine":14638,"olepis":14639,"idis":14640,"ostern":14641,"Seccion":14642,"Stelis":14643,"socialt":14644,"angers":14645,"stallas":14646,"kontinuer":14647,"vesi":14648,"itsch":14649,"aguay":14650,"Verksamheten":14651,"Republiken":14652,"lakaren":14653,"ockeyt":14654,"avskaffades":14655,"vida":14656,"jarnor":14657,"grenen":14658,"traditioner":14659,"bestamt":14660,"Emery":14661,"dil":14662,"hanger":14663,"Nepal":14664,"Clarke":14665,"usi":14666,"icz":14667,"kommunens":14668,"hjalper":14669,"absolut":14670,"cari":14671,"ctr":14672,"potatisvaxter":14673,"forrad":14674,"mats":14675,"Elli":14676,"oavsett":14677,"iggins":14678,"spilus":14679,"Djurgarden":14680,"Cum":14681,"HF":14682,"ichthys":14683,"tank":14684,"arkeologiska":14685,"Karel":14686,"Myco":14687,"silvermedaljor":14688,"kongressen":14689,"Hasan":14690,"Luk":14691,"enaria":14692,"hogra":14693,"Caes":14694,"Cele":14695,"Upplands":14696,"bros":14697,"Guy":14698,"historie":14699,"laggningar":14700,"AG":14701,"snamnet":14702,"Ror":14703,"kanadensiska":14704,"privileg":14705,"Torsten":14706,"gammalt":14707,"Pie":14708,"Guangzhou":14709,"tamligen":14710,"hamtade":14711,"Clo":14712,"Vet":14713,"cki":14714,"Bren":14715,"datum":14716,"Regeringen":14717,"Peper":14718,"representanter":14719,"Institutet":14720,"Warszawa":14721,"bevilj":14722,"utse":14723,"Chrom":14724,"Bolivar":14725,"faktum":14726,"odde":14727,"patienter":14728,"gripande":14729,"naren":14730,"snapp":14731,"Bit":14732,"vanligare":14733,"anae":14734,"populationen":14735,"semin":14736,"Mitchell":14737,"Bock":14738,"dim":14739,"vatmark":14740,"hjulspindlar":14741,"Was":14742,"tillagg":14743,"Branch":14744,"definition":14745,"instrukt":14746,"jac":14747,"plund":14748,"Mazar":14749,"ains":14750,"she":14751,"ramen":14752,"Haga":14753,"Bundes":14754,"Mandeh":14755,"IM":14756,"fans":14757,"punct":14758,"boj":14759,"Erebia":14760,"avvik":14761,"skamp":14762,"Volcan":14763,"Phytose":14764,"Connectic":14765,"().":14766,"Narings":14767,"farbror":14768,"aterforen":14769,"rita":14770,"Luanda":14771,"Cecilia":14772,"introducerade":14773,"kommersiella":14774,"Museet":14775,"Bum":14776,"forfolj":14777,"cky":14778,"1798":14779,"sasongerna":14780,"ppen":14781,"Otter":14782,"anklag":14783,"Musiken":14784,"fanga":14785,"come":14786,"eva":14787,"obo":14788,"Ghundey":14789,"socialdemokratiska":14790,"Vac":14791,"sic":14792,"maken":14793,"sparrisvaxtart":14794,"Nash":14795,"paci":14796,"Lika":14797,"Lucien":14798,"befint":14799,"sekelskiftet":14800,"ettia":14801,"slager":14802,"ffi":14803,"Storbritanniens":14804,"pos":14805,"personlighet":14806,"infra":14807,"artisten":14808,"Lady":14809,"Academy":14810,"fjorden":14811,"arat":14812,"tvingade":14813,"bedriver":14814,"befolkade":14815,"funktionen":14816,"tai":14817,"Atac":14818,"orton":14819,"sokande":14820,"Dou":14821,"bourg":14822,"Sweden":14823,"dele":14824,"shamn":14825,"Linde":14826,"ll":14827,"ostylis":14828,"tomt":14829,"fritids":14830,"sop":14831,"Helic":14832,"Studios":14833,"gota":14834,"rostratt":14835,"Kirgizistan":14836,"Sord":14837,"ampton":14838,"Notera":14839,"faktiskt":14840,"Stiftelsen":14841,"syntes":14842,"Casey":14843,"Detroit":14844,"protestant":14845,"ril":14846,"etz":14847,"oms":14848,"spett":14849,"klarade":14850,"tyskarna":14851,"Charlotta":14852,"foraldra":14853,"Buff":14854,"befinna":14855,"producerar":14856,"framgangsrikt":14857,"Lloyd":14858,"Dw":14859,"Tart":14860,"statlig":14861,"ogramma":14862,"sprakig":14863,"Carter":14864,"amiral":14865,"ogonen":14866,"Moon":14867,"olor":14868,"lept":14869,"330":14870,"Hara":14871,"Gerhard":14872,"bez":14873,"identitet":14874,"//":14875,"Oce":14876,"iment":14877,"XIV":14878,"forklara":14879,"Tjeckoslo":14880,"vd":14881,"iren":14882,"orterna":14883,"stjarnans":14884,"Ges":14885,"svam":14886,"bay":14887,"EA":14888,"Jos":14889,"Light":14890,"290":14891,"landsfiskalsdistrikt":14892,"Elae":14893,"ils":14894,"rose":14895,"frammande":14896,"studierna":14897,"Tanzania":14898,"Bots":14899,"poster":14900,"ersattning":14901,"skylt":14902,"usar":14903,"gravid":14904,"bie":14905,"anknytning":14906,"OR":14907,"لو":14908,"Inde":14909,"herrarnas":14910,"visor":14911,"onomi":14912,"HS":14913,"orpha":14914,"slop":14915,"kvinnlig":14916,"Peters":14917,"snamnden":14918,"vinnare":14919,"acris":14920,"avgift":14921,"skaren":14922,"Thompson":14923,"gravfalt":14924,"mordades":14925,"Metropolit":14926,"Aa":14927,"Lock":14928,"bildats":14929,"ormart":14930,"ар":14931,"stugan":14932,"Peperomia":14933,"Sug":14934,"usse":14935,"angran":14936,"hallning":14937,"indo":14938,"Elsa":14939,"skjuta":14940,"kup":14941,"uppfoljare":14942,"ogift":14943,"statsminister":14944,"skontor":14945,"formation":14946,"xon":14947,"ovica":14948,"skaffa":14949,"Hut":14950,"Won":14951,"aspe":14952,"judisk":14953,"armens":14954,"Aftonbladet":14955,"Two":14956,"thi":14957,"ikor":14958,"passions":14959,"kroatiska":14960,"Ib":14961,"munt":14962,"obot":14963,"distin":14964,"finger":14965,"low":14966,"Einar":14967,"phal":14968,"konstnarliga":14969,"uppdater":14970,"kredit":14971,"webbplats":14972,"processer":14973,"Staudinger":14974,"anatom":14975,"harror":14976,"thes":14977,"forfattarskap":14978,"elo":14979,"Stationen":14980,"amph":14981,"urahan":14982,"skonst":14983,"gae":14984,"sonii":14985,"Diego":14986,"specifika":14987,"spektralklass":14988,"Bli":14989,"hors":14990,"ceps":14991,"omphus":14992,"thonius":14993,"intog":14994,"Mountains":14995,"Dah":14996,"utformning":14997,"Nur":14998,"gli":14999,"Neur":15000,"ospermum":15001,"underlag":15002,"slots":15003,"anvandare":15004,"Edgar":15005,"Banks":15006,"Komm":15007,"Wan":15008,"aks":15009,"entuna":15010,"Albin":15011,"uchi":15012,"gitarristen":15013,"etery":15014,"trads":15015,"flog":15016,"imen":15017,"undervisade":15018,"tidigaste":15019,"pelare":15020,"08":15021,"Times":15022,"ods":15023,"skapten":15024,"kostade":15025,"berry":15026,"schack":15027,"Vastmanlands":15028,"expand":15029,"framtid":15030,"Levi":15031,"rattegang":15032,"kungs":15033,"medicinsk":15034,"Kelurahan":15035,"pekar":15036,"CR":15037,"vali":15038,"osfar":15039,"cipl":15040,"forekomma":15041,"Coy":15042,"separata":15043,
[...]
