{"version":"1.0","truncation":null,"padding":null,"added_tokens":[{"id":0,"special":true,"content":"<unk>","single_word":false,"lstrip":false,"rstrip":false,"normalized":false}],"normalizer":{"type":"Sequence","normalizers":[{"type":"NFD"},{"type":"StripAccents"}]},"pre_tokenizer":{"type":"Whitespace"},"post_processor":null,"decoder":{"type":"Metaspace","replacement":"▁","str_rep":"▁","add_prefix_space":true},"model":{"type":"BPE","dropout":null,"unk_token":null,"continuing_subword_prefix":null,"end_of_word_suffix":null,"fuse_unk":false,"vocab":{"<unk>":0,"\u0000":1,"\u0001":2,"\u0002":3,"\u0003":4,"\u0004":5,"\u0005":6,"\u0006":7,"\u0007":8,"\b":9,"\u001f":10,"!":11,"\"":12,"#":13,"$":14,"%":15,"&":16,"'":17,"(":18,")":19,"*":20,"+":21,",":22,"-":23,".":24,"/":25,"0":26,"1":27,"2":28,"3":29,"4":30,"5":31,"6":32,"7":33,"8":34,"9":35,":":36,";":37,"<":38,"=":39,">":40,"?":41,"@":42,"A":43,"B":44,"C":45,"D":46,"E":47,"F":48,"G":49,"H":50,"I":51,"J":52,"K":53,"L":54,"M":55,"N":56,"O":57,"P":58,"Q":59,"R":60,"S":61,"T":62,"U":63,"V":64,"W":65,"X":66,"Y":67,"Z":68,"[":69,"\\":70,"]":71,"^":72,"_":73,"`":74,"a":75,"b":76,"c":77,"d":78,"e":79,"f":80,"g":81,"h":82,"i":83,"j":84,"k":85,"l":86,"m":87,"n":88,"o":89,"p":90,"q":91,"r":92,"s":93,"t":94,"u":95,"v":96,"w":97,"x":98,"y":99,"z":100,"{":101,"|":102,"}":103,"~":104,"":105,"":106,"":107,"":108,"":109,"":110,"":111,"":112,"":113,"":114,"¡":115,"¢":116,"£":117,"¤":118,"¥":119,"¦":120,"§":121,"¨":122,"©":123,"ª":124,"«":125,"¬":126,"­":127,"®":128,"¯":129,"°":130,"±":131,"²":132,"³":133,"´":134,"µ":135,"¶":136,"·":137,"¸":138,"¹":139,"º":140,"»":141,"¼":142,"½":143,"¾":144,"¿":145,"Æ":146,"×":147,"Ø":148,"Þ":149,"ß":150,"æ":151,"ð":152,"ø":153,"þ":154,"Đ":155,"đ":156,"ı":157,"Ł":158,"ł":159,"Œ":160,"œ":161,"ſ":162,"ƒ":163,"ɔ":164,"ə":165,"ʹ":166,"ʺ":167,"ʼ":168,"ʿ":169,"ˆ":170,"ˈ":171,"ː":172,"˚":173,"˜":174,"Α":175,"Γ":176,"Δ":177,"Ε":178,"Ι":179,"Κ":180,"Λ":181,"Μ":182,"Ν":183,"Ο":184,"Π":185,"Σ":186,"Τ":187,"Φ":188,"Ω":189,"α":190,"β":191,"γ":192,"δ":193,"ε":194,"ζ":195,"η":196,"θ":197,"ι":198,"κ":199,"λ":200,"μ":201,"ν":202,"ξ":203,"ο":204,"π":205,"ρ":206,"ς":207,"σ":208,"τ":209,"υ":210,"φ":211,"χ":212,"ω":213,"А":214,"Б":215,"В":216,"Г":217,"Д":218,"Е":219,"Ж":220,"З":221,"И":222,"К":223,"Л":224,"М":225,"Н":226,"О":227,"П":228,"Р":229,"С":230,"Т":231,"У":232,"Ф":233,"Х":234,"Ц":235,"Ч":236,"Ш":237,"Э":238,"Ю":239,"Я":240,"а":241,"б":242,"в":243,"г":244,"д":245,"е":246,"ж":247,"з":248,"и":249,"к":250,"л":251,"м":252,"н":253,"о":254,"п":255,"р":256,"с":257,"т":258,"у":259,"ф":260,"х":261,"ц":262,"ч":263,"ш":264,"щ":265,"ъ":266,"ы":267,"ь":268,"э":269,"ю":270,"я":271,"і":272,"Ґ":273,"ա":274,"א":275,"ב":276,"ג":277,"ד":278,"ה":279,"ו":280,"ח":281,"ט":282,"י":283,"כ":284,"ל":285,"ם":286,"מ":287,"ן":288,"נ":289,"ס":290,"ע":291,"פ":292,"ק":293,"ר":294,"ש":295,"ת":296,"،":297,"ء":298,"ا":299,"ب":300,"ة":301,"ت":302,"ث":303,"ج":304,"ح":305,"خ":306,"د":307,"ذ":308,"ر":309,"ز":310,"س":311,"ش":312,"ص":313,"ض":314,"ط":315,"ع":316,"غ":317,"ـ":318,"ف":319,"ق":320,"ك":321,"ل":322,"م":323,"ن":324,"ه":325,"و":326,"ى":327,"ي":328,"پ":329,"ک":330,"گ":331,"ی":332,"क":333,"ज":334,"त":335,"न":336,"प":337,"म":338,"य":339,"र":340,"ल":341,"व":342,"स":343,"ह":344,"ন":345,"র":346,"ക":347,"ത":348,"ന":349,"യ":350,"ര":351,"ก":352,"ข":353,"ค":354,"ง":355,"จ":356,"ด":357,"ต":358,"ท":359,"น":360,"บ":361,"ป":362,"พ":363,"ม":364,"ย":365,"ร":366,"ล":367,"ว":368,"ส":369,"ห":370,"อ":371,"ะ":372,"า":373,"เ":374,"แ":375,"ไ":376,"ა":377,"ე":378,"ი":379,"ᄀ":380,"ᄂ":381,"ᄃ":382,"ᄅ":383,"ᄆ":384,"ᄇ":385,"ᄉ":386,"ᄋ":387,"ᄌ":388,"ᄎ":389,"ᄐ":390,"ᄑ":391,"ᄒ":392,"ᅡ":393,"ᅢ":394,"ᅥ":395,"ᅦ":396,"ᅧ":397,"ᅩ":398,"ᅪ":399,"ᅬ":400,"ᅮ":401,"ᅳ":402,"ᅴ":403,"ᅵ":404,"ᆨ":405,"ᆫ":406,"ᆯ":407,"ᆷ":408,"ᆸ":409,"ᆻ":410,"ᆼ":411,"​":412,"‌":413,"‍":414,"‎":415,"‏":416,"‐":417,"‑":418,"‒":419,"–":420,"—":421,"‘":422,"’":423,"‚":424,"“":425,"”":426,"„":427,"†":428,"•":429,"…":430,"‪":431,"‰":432,"′":433,"″":434,"‹":435,"›":436,"⁄":437,"⁣":438,"₂":439,"€":440,"℃":441,"№":442,"™":443,"←":444,"↑":445,"→":446,"⇒":447,"−":448,"∗":449,"∙":450,"√":451,"≥":452,"─":453,"━":454,"│":455,"├":456,"■":457,"▪":458,"►":459,"◊":460,"●":461,"☀":462,"★":463,"☆":464,"☎":465,"☕":466,"☺":467,"♀":468,"♂":469,"♡":470,"♥":471,"♦":472,"✅":473,"✌":474,"✓":475,"✔":476,"✨":477,"❑":478,"❗":479,"❤":480,"➔":481,"➤":482,"➧":483,"⠀":484,"⬆":485,"⭐":486,"、":487,"。":488,"「":489,"」":490,"【":491,"】":492,"あ":493,"い":494,"う":495,"え":496,"お":497,"か":498,"き":499,"く":500,"け":501,"こ":502,"さ":503,"し":504,"す":505,"せ":506,"そ":507,"た":508,"ち":509,"っ":510,"つ":511,"て":512,"と":513,"な":514,"に":515,"の":516,"は":517,"へ":518,"ま":519,"み":520,"め":521,"も":522,"や":523,"よ":524,"ら":525,"り":526,"る":527,"れ":528,"わ":529,"を":530,"ん":531,"ア":532,"ィ":533,"イ":534,"ウ":535,"ェ":536,"エ":537,"オ":538,"カ":539,"キ":540,"ク":541,"ケ":542,"コ":543,"サ":544,"シ":545,"ス":546,"セ":547,"タ":548,"チ":549,"ッ":550,"ツ":551,"テ":552,"ト":553,"ナ":554,"ニ":555,"ネ":556,"ハ":557,"ヒ":558,"フ":559,"ヘ":560,"ホ":561,"マ":562,"ミ":563,"ム":564,"メ":565,"ャ":566,"ュ":567,"ョ":568,"ラ":569,"リ":570,"ル":571,"レ":572,"ロ":573,"ワ":574,"ン":575,"・":576,"ー":577,"一":578,"七":579,"万":580,"三":581,"上":582,"下":583,"不":584,"与":585,"专":586,"世":587,"业":588,"东":589,"两":590,"个":591,"中":592,"为":593,"主":594,"久":595,"么":596,"之":597,"乐":598,"九":599,"也":600,"买":601,"了":602,"争":603,"事":604,"二":605,"于":606,"五":607,"亚":608,"交":609,"产":610,"京":611,"人":612,"什":613,"今":614,"他":615,"代":616,"以":617,"们":618,"件":619,"会":620,"位":621,"体":622,"作":623,"你":624,"使":625,"保":626,"信":627,"元":628,"光":629,"免":630,"入":631,"全":632,"八":633,"公":634,"六":635,"内":636,"円":637,"册":638,"准":639,"出":640,"分":641,"划":642,"利":643,"到":644,"制":645,"前":646,"力":647,"加":648,"务":649,"动":650,"势":651,"動":652,"化":653,"北":654,"区":655,"十":656,"单":657,"南":658,"博":659,"原":660,"县":661,"及":662,"双":663,"发":664,"取":665,"口":666,"可":667,"台":668,"号":669,"司":670,"合":671,"同":672,"名":673,"后":674,"吗":675,"员":676,"和":677,"品":678,"哪":679,"商":680,"器":681,"四":682,"回":683,"国":684,"图":685,"在":686,"地":687,"场":688,"址":689,"坛":690,"城":691,"場":692,"外":693,"多":694,"大":695,"天":696,"太":697,"奖":698,"女":699,"好":700,"如":701,"姐":702,"娱":703,"子":704,"字":705,"学":706,"安":707,"官":708,"定":709,"宝":710,"实":711,"客":712,"家":713,"富":714,"对":715,"将":716,"小":717,"少":718,"就":719,"尾":720,"展":721,"山":722,"島":723,"川":724,"州":725,"工":726,"巧":727,"市":728,"平":729,"年":730,"广":731,"庆":732,"库":733,"店":734,"度":735,"建":736,"开":737,"式":738,"引":739,"当":740,"录":741,"彩":742,"影":743,"律":744,"得":745,"微":746,"心":747,"必":748,"忙":749,"快":750,"怎":751,"思":752,"性":753,"情":754,"意":755,"感":756,"成":757,"我":758,"户":759,"所":760,"手":761,"技":762,"投":763,"报":764,"挂":765,"指":766,"排":767,"提":768,"播":769,"教":770,"数":771,"文":772,"料":773,"新":774,"方":775,"无":776,"日":777,"时":778,"明":779,"星":780,"是":781,"時":782,"更":783,"最":784,"月":785,"有":786,"服":787,"期":788,"未":789,"本":790,"机":791,"杀":792,"来":793,"果":794,"格":795,"業":796,"正":797,"比":798,"民":799,"氓":800,"気":801,"水":802,"江":803,"河":804,"法":805,"波":806,"注":807,"活":808,"流":809,"测":810,"海":811,"港":812,"游":813,"澳":814,"点":815,"然":816,"爱":817,"片":818,"版":819,"牌":820,"物":821,"特":822,"狗":823,"玄":824,"王":825,"玩":826,"现":827,"球":828,"理":829,"生":830,"用":831,"田":832,"电":833,"町":834,"画":835,"疆":836,"白":837,"百":838,"的":839,"目":840,"直":841,"相":842,"看":843,"県":844,"真":845,"着":846,"知":847,"码":848,"碰":849,"社":850,"神":851,"票":852,"福":853,"科":854,"稳":855,"站":856,"第":857,"等":858,"算":859,"管":860,"精":861,"系":862,"红":863,"线":864,"经":865,"结":866,"网":867,"美":868,"群":869,"老":870,"者":871,"肖":872,"能":873,"自":874,"色":875,"蛋":876,"行":877,"表":878,"装":879,"西":880,"要":881,"見":882,"规":883,"视":884,"解":885,"计":886,"论":887,"设":888,"说":889,"财":890,"费":891,"资":892,"赌":893,"赛":894,"赢":895,"走":896,"超":897,"跑":898,"路":899,"车":900,"软":901,"载":902,"过":903,"运":904,"这":905,"送":906,"选":907,"通":908,"道":909,"部":910,"都":911,"酶":912,"里":913,"重":914,"金":915,"钱":916,"长":917,"間":918,"门":919,"阳":920,"院":921,"集":922,"霸":923,"青":924,"面":925,"音":926,"频":927,"香":928,"马":929,"高":930,"龙":931,"":932,"":933,"":934,"":935,"":936,"":937,"":938,"":939,"":940,"":941,"":942,"":943,"":944,"":945,"":946,"":947,"":948,"ﬁ":949,"ﬂ":950,"﻿":951,"！":952,"（":953,"）":954,"，":955,"５":956,"：":957,"￼":958,"�":959,"🇩":960,"🇰":961,"🌸":962,"🍀":963,"🎄":964,"🏻":965,"🏼":966,"🏽":967,"👌":968,"👍":969,"👏":970,"💕":971,"💙":972,"💪":973,"🔻":974,"😀":975,"😁":976,"😂":977,"😃":978,"😄":979,"😅":980,"😆":981,"😉":982,"😊":983,"😋":984,"😍":985,"😎":986,"😘":987,"😛":988,"😜":989,"😱":990,"😳":991,"🙁":992,"🙂":993,"🙈":994,"🙌":995,"🙏":996,"🤔":997,"🤗":998,"🤞":999,"🤩":1000,"er":1001,"en":1002,"de":1003,"an":1004,"or":1005,"et":1006,"in":1007,"ti":1008,"ar":1009,"og":1010,"st":1011,"ig":1012,"el":1013,"ed":1014,"at":1015,"sk":1016,"al":1017,"for":1018,"om":1019,"der":1020,"re":1021,"le":1022,"ing":1023,"til":1024,"vi":1025,"af":1026,"den":1027,"ne":1028,"det":1029,"ag":1030,"on":1031,"pa":1032,"se":1033,"un":1034,"te":1035,"sa":1036,"lig":1037,"ik":1038,"med":1039,"eg":1040,"ter":1041,"ver":1042,"ra":1043,"ke":1044,"ler":1045,"es":1046,"ør":1047,"ud":1048,"ol":1049,"som":1050,"and":1051,"be":1052,"il":1053,"ær":1054,"op":1055,"ve":1056,"ge":1057,"har":1058,"ning":1059,"men":1060,"du":1061,"sp":1062,"ikke":1063,"ste":1064,"ser":1065,"kan":1066,"ri":1067,"li":1068,"si":1069,"dt":1070,"ende":1071,"var":1072,"ere":1073,"la":1074,"ma":1075,"sen":1076,"ru":1077,"æn":1078,"ro":1079,"ind":1080,"ha":1081,"hed":1082,"man":1083,"vor":1084,"ske":1085,"ur":1086,"del":1087,"tion":1088,"æl":1089,"ger":1090,"mm":1091,"vil":1092,"jeg":1093,"sig":1094,"ræ":1095,"dig":1096,"eller":1097,"ul":1098,"fra":1099,"ab":1100,"lige":1101,"over":1102,"kom":1103,"di":1104,"væ":1105,"Det":1106,"tet":1107,"ved":1108,"ek":1109,"else":1110,"sam":1111,"vær":1112,"ang":1113,"ef":1114,"fa":1115,"hol":1116,"ven":1117,"vis":1118,"ker":1119,"gen":1120,"læ":1121,"hvor":1122,"od":1123,"gi":1124,"skal":1125,"sm":1126,"dan":1127,"ok":1128,"age":1129,"us":1130,"lev":1131,"ad":1132,"øj":1133,"erne":1134,"ga":1135,"sel":1136,"per":1137,"kl":1138,"ret":1139,"kun":1140,"ak":1141,"sy":1142,"han":1143,"bej":1144,"efter":1145,"mer":1146,"by":1147,"ort":1148,"me":1149,"kon":1150,"arbej":1151,"bru":1152,"ly":1153,"tal":1154,"før":1155,"tig":1156,"ogsa":1157,"være":1158,"øb":1159,"tr":1160,"tid":1161,"hel":1162,"pro":1163,"min":1164,"nog":1165,"dag":1166,"ny":1167,"fø":1168,"blev":1169,"ens":1170,"bl":1171,"kr":1172,"elig":1173,"und":1174,"hj":1175,"sl":1176,"bli":1177,"is":1178,"sø":1179,"under":1180,"20":1181,"end":1182,"ho":1183,"ligt":1184,"des":1185,"ster":1186,"hav":1187,"ten":1188,"ut":1189,"mu":1190,"eget":1191,"æt":1192,"dr":1193,"am":1194,"Jeg":1195,"it":1196,"..":1197,"øn":1198,"br":1199,"kt":1200,"fin":1201,"ene":1202,"stor":1203,"far":1204,"net":1205,"din":1206,"ken":1207,"her":1208,"nu":1209,"val":1210,"kke":1211,"sta":1212,"skab":1213,"bet":1214,"ss":1215,"ling":1216,"pe":1217,"lan":1218,"gr":1219,"Vi":1220,"meget":1221,"elle":1222,"ale":1223,"ber":1224,"mo":1225,"to":1226,"alt":1227,"Der":1228,"go":1229,"vin":1230,"hand":1231,"ds":1232,"selv":1233,"yr":1234,"gang":1235,"ation":1236,"nem":1237,"ci":1238,"ent":1239,"mere":1240,"let":1241,"mar":1242,"vir":1243,"of":1244,"bar":1245,"nar":1246,"rem":1247,"vet":1248,"mme":1249,"jer":1250,"bil":1251,"da":1252,"alle":1253,"tag":1254,"par":1255,"eder":1256,"ce":1257,"lere":1258,"mi":1259,"ket":1260,"sker":1261,"pr":1262,"00":1263,"sæt":1264,"Den":1265,"as":1266,"lo":1267,"rig":1268,"brug":1269,"vej":1270,"hver":1271,"os":1272,"ner":1273,"uden":1274,"yl":1275,"lighed":1276,"føl":1277,"For":1278,"land":1279,"ba":1280,"øre":1281,"mange":1282,"ninger":1283,"ch":1284,"sik":1285,"bed":1286,"hold":1287,"ød":1288,"ingen":1289,"pen":1290,"havde":1291,"yn":1292,"ord":1293,"æng":1294,"gør":1295,"sin":1296,"sten":1297,"vad":1298,"sse":1299,"bliver":1300,"ie":1301,"ir":1302,"son":1303,"elser":1304,"ej":1305,"læg":1306,"frem":1307,"høj":1308,"gar":1309,"na":1310,"mod":1311,"kunne":1312,"hvis":1313,"mig":1314,"dem":1315,"str":1316,"isk":1317,"elsen":1318,"have":1319,"bes":1320,"skri":1321,"star":1322,"virk":1323,"stil":1324,"jo":1325,"elt":1326,"De":1327,"19":1328,"delse":1329,"andre":1330,"En":1331,"ft":1332,"beg":1333,"godt":1334,"tik":1335,"sat":1336,"vores":1337,"bør":1338,"forsk":1339,"træ":1340,"noget":1341,"bo":1342,"mp":1343,"deres":1344,"bor":1345,"mal":1346,"Dan":1347,"cer":1348,"201":1349,"tisk":1350,"næ":1351,"inger":1352,"sammen":1353,"hen":1354,"sag":1355,"hun":1356,"ko":1357,"ant":1358,"lag":1359,"ningen":1360,"lu":1361,"gt":1362,"mark":1363,"mmer":1364,"anden":1365,"ede":1366,"dre":1367,"get":1368,"em":1369,"pri":1370,"yk":1371,"denne":1372,"spil":1373,"helt":1374,"lø":1375,"um":1376,"Men":1377,"byg":1378,"bi":1379,"pla":1380,"sion":1381,"gra":1382,"set":1383,"In":1384,"St":1385,"hvad":1386,"styr":1387,"ot":1388,"lidt":1389,"dat":1390,"reg":1391,"yg":1392,"les":1393,"iske":1394,"god":1395,"vel":1396,"fter":1397,"ellem":1398,"su":1399,"ap":1400,"arbejde":1401,"red":1402,"fri":1403,"gennem":1404,"fal":1405,"sex":1406,"mil":1407,"mellem":1408,"sti":1409,"gan":1410,"været":1411,"nes":1412,"tte":1413,"hus":1414,"forskel":1415,"An":1416,"Og":1417,"udvi":1418,"tu":1419,"tilb":1420,"person":1421,"ktion":1422,"res":1423,"ty":1424,"ien":1425,"ned":1426,"sid":1427,"fort":1428,"andet":1429,"Du":1430,"hjæl":1431,"tigt":1432,"løb":1433,"met":1434,"inde":1435,"tra":1436,"atur":1437,"igen":1438,"hi":1439,"præ":1440,"bade":1441,"nogle":1442,"gøre":1443,"nye":1444,"hele":1445,"inter":1446,"blive":1447,"flere":1448,"ier":1449,"inden":1450,"lin":1451,"stør":1452,"mær":1453,"svar":1454,"tiv":1455,"sko":1456,"produ":1457,"ide":1458,"kommer":1459,"led":1460,"po":1461,"vn":1462,"tes":1463,"Han":1464,"somhed":1465,"Hvis":1466,"dette":1467,"ater":1468,"dere":1469,"dende":1470,"ænd":1471,"køb":1472,"skul":1473,"giver":1474,"mind":1475,"Al":1476,"Sa":1477,"rup":1478,"sted":1479,"no":1480,"bare":1481,"lang":1482,"vig":1483,"grund":1484,"kvin":1485,"itet":1486,"ic":1487,"ele":1488,"vand":1489,"dk":1490,"ful":1491,"første":1492,"Her":1493,"klar":1494,"oli":1495,"samt":1496,"fik":1497,"mand":1498,"ille":1499,"fæl":1500,"fun":1501,"10":1502,"hvil":1503,"søg":1504,"siden":1505,"mulighed":1506,"ager":1507,"je":1508,"gerne":1509,"kker":1510,"fer":1511,"ings":1512,"ige":1513,"store":1514,"kal":1515,"lever":1516,"ssage":1517,"jek":1518,"mun":1519,"plan":1520,"omra":1521,"forskellige":1522,"cen":1523,"syn":1524,"Danmark":1525,"ult":1526,"mid":1527,"tak":1528,"...":1529,"nings":1530,"au":1531,"fol":1532,"mø":1533,"vende":1534,"fe":1535,"he":1536,"fil":1537,"tage":1538,"id":1539,"skulle":1540,"børn":1541,").":1542,"pp":1543,"ment":1544,"dom":1545,"Pa":1546,"lede":1547,"ren":1548,"Se":1549,"øg":1550,"kø":1551,"fi":1552,"æg":1553,"tek":1554,"virksomhed":1555,"hje":1556,"ni":1557,"fat":1558,"stra":1559,"forb":1560,"18":1561,"yder":1562,"ble":1563,"væl":1564,"stand":1565,"bu":1566,"dog":1567,"borg":1568,"fly":1569,"valg":1570,"tiske":1571,"tel":1572,"gende":1573,"ring":1574,"bag":1575,"havn":1576,"samme":1577,"ville":1578,"fr":1579,"ka":1580,"ære":1581,"200":1582,"hos":1583,"finde":1584,"hvordan":1585,"lys":1586,"tale":1587,"andt":1588,"so":1589,"fek":1590,"liv":1591,"dit":1592,"ski":1593,"slag":1594,"derne":1595,"menne":1596,"øv":1597,"mor":1598,"ben":1599,"altid":1600,"ska":1601,"handling":1602,"blevet":1603,"tere":1604,"sikker":1605,"ban":1606,"forhold":1607,"dens":1608,"derfor":1609,"hende":1610,"hu":1611,"Ma":1612,"ks":1613,"dann":1614,"vide":1615,"tige":1616,"æs":1617,"natur":1618,"række":1619,"ham":1620,"stem":1621,"spør":1622,"len":1623,"eret":1624,"udvikl":1625,"old":1626,"van":1627,"ligere":1628,"kar":1629,"fær":1630,"enk":1631,"tilbage":1632,"tede":1633,"tæn":1634,"nok":1635,"massage":1636,"vid":1637,"mest":1638,"Er":1639,"besk":1640,"form":1641,"leder":1642,"komme":1643,"olog":1644,"lille":1645,"tis":1646,"yd":1647,"rej":1648,"sn":1649,"kræ":1650,"sær":1651,"kla":1652,"ca":1653,"sser":1654,"dte":1655,"gj":1656,"spi":1657,"nær":1658,"holder":1659,"Med":1660,"dine":1661,"aft":1662,"mel":1663,"Ar":1664,"ses":1665,"hur":1666,"Sk":1667,"kring":1668,"kommun":1669,"made":1670,"fordi":1671,"hal":1672,"fyl":1673,"bedste":1674,"side":1675,"Til":1676,"gode":1677,"agt":1678,"smal":1679,"tor":1680,"læng":1681,"ting":1682,"eligt":1683,"15":1684,"sigt":1685,"Kom":1686,"tager":1687,"disse":1688,"tidig":1689,"mens":1690,"danske":1691,"ører":1692,"begyn":1693,"kur":1694,"sidste":1695,"fast":1696,"run":1697,"stat":1698,"dighed":1699,"dansk":1700,"ck":1701,"omkring":1702,"Nar":1703,"we":1704,"nyt":1705,"lok":1706,"kor":1707,"uddann":1708,"erede":1709,"lad":1710,"hans":1711,"ets":1712,"give":1713,"medle":1714,"Man":1715,"smu":1716,"ran":1717,"kort":1718,"siger":1719,"tre":1720,"gu":1721,"tro":1722,"holde":1723,"spr":1724,"slut":1725,"enhavn":1726,"unkt":1727,"akti":1728,"grup":1729,"ine":1730,"klu":1731,"oner":1732,"gener":1733,"Ud":1734,"æk":1735,"Køb":1736,"dage":1737,"bel":1738,"elige":1739,"bog":1740,"ta":1741,"bruger":1742,"kval":1743,"va":1744,"lade":1745,"histor":1746,"sige":1747,"sol":1748,"12":1749,"stru":1750,"bedre":1751,"gæl":1752,"kter":1753,"ars":1754,"spe":1755,"aler":1756,"poli":1757,"ts":1758,"mindre":1759,"ju":1760,"bruge":1761,"giv":1762,"por":1763,"hjælp":1764,"sor":1765,"kende":1766,"rigtig":1767,"proble":1768,"),":1769,"io":1770,"ges":1771,"sc":1772,"kvinder":1773,"ob":1774,"cial":1775,"tter":1776,"sal":1777,"ces":1778,"mad":1779,"amp":1780,"maske":1781,"prø":1782,"viser":1783,"vok":1784,"spørg":1785,"lej":1786,"atte":1787,"famil":1788,"tioner":1789,"nogen":1790,"blik":1791,"Dette":1792,"fle":1793,"rad":1794,"ard":1795,"sadan":1796,"øde":1797,"muligt":1798,"ligger":1799,"ener":1800,"gange":1801,"arbejder":1802,"Mar":1803,"forbin":1804,"projek":1805,"30":1806,"digt":1807,"blandt":1808,"bud":1809,"verden":1810,"finder":1811,"mini":1812,"løs":1813,"lær":1814,"sæ":1815,"rak":1816,"fag":1817,"lave":1818,"lov":1819,"ofte":1820,"behandling":1821,"søger":1822,"hvilket":1823,"hjem":1824,"taget":1825,"stilling":1826,"rede":1827,"folk":1828,"dy":1829,"unge":1830,"tur":1831,"tiden":1832,"hjemm":1833,"rek":1834,"ER":1835,"sit":1836,"ønsker":1837,"Da":1838,"are":1839,"tive":1840,"stø":1841,"heden":1842,"ældre":1843,"hoved":1844,"iger":1845,"værk":1846,"up":1847,"følge":1848,"kendt":1849,"oplev":1850,"mænd":1851,"væk":1852,"egen":1853,"fortæl":1854,"jø":1855,"stu":1856,"mennesker":1857,"stre":1858,"arbejd":1859,"heds":1860,"spørgsmal":1861,"tog":1862,"modt":1863,"nød":1864,"17":1865,"sty":1866,"kommen":1867,"nor":1868,"gik":1869,"off":1870,"line":1871,"kontak":1872,"opga":1873,"skaber":1874,"hæng":1875,"tan":1876,"pu":1877,"fuld":1878,"Hvor":1879,"Som":1880,"lerede":1881,"mt":1882,"iser":1883,"elses":1884,"mber":1885,"stadig":1886,"sma":1887,"14":1888,"plads":1889,"16":1890,"teret":1891,"com":1892,"faet":1893,"væg":1894,"anvende":1895,"sætte":1896,"vitet":1897,"kvalitet":1898,"Har":1899,"endnu":1900,"Et":1901,"videre":1902,"København":1903,"Un":1904,"semp":1905,"øl":1906,"Ved":1907,"mit":1908,"cent":1909,"oplys":1910,"Efter":1911,"Op":1912,"vt":1913,"virkelig":1914,"nede":1915,"mærk":1916,"forbindelse":1917,"50":1918,"øje":1919,"Kon":1920,"dige":1921,"komp":1922,"sek":1923,"kæ":1924,"aret":1925,"lerne":1926,"interes":1927,"arbejdet":1928,"sla":1929,"stedet":1930,"betal":1931,"dej":1932,"regi":1933,"Af":1934,"Be":1935,"dele":1936,"usik":1937,"fald":1938,"vs":1939,"art":1940,"dyr":1941,"ræk":1942,"fant":1943,"hæn":1944,"hør":1945,"svær":1946,"større":1947,"mon":1948,"skil":1949,"kri":1950,"vist":1951,"konom":1952,"000":1953,"findes":1954,"Hun":1955,"bolig":1956,"rum":1957,"sende":1958,"penge":1959,"vat":1960,"ry":1961,"sv":1962,"foren":1963,"menter":1964,"rer":1965,"præsen":1966,"fred":1967,"kra":1968,"følgende":1969,"iet":1970,"sætter":1971,"oven":1972,"telse":1973,"hæ":1974,"udvikling":1975,"gratis":1976,"tidligere":1977,"teg":1978,"længere":1979,"spunkt":1980,"eksemp":1981,"styrelsen":1982,"11":1983,"fo":1984,"ug":1985,"uni":1986,"skole":1987,"Sam":1988,"tryk":1989,"krop":1990,"lagt":1991,"stær":1992,"jæl":1993,"ateri":1994,"sku":1995,"Denne":1996,"olle":1997,"stort":1998,"gdom":1999,"dagen":2000,"aldr":2001,"sket":2002,"sine":2003,"tilfæl":2004,"ves":2005,"stk":2006,"heder":2007,"vne":2008,"hai":2009,"først":2010,"satte":2011,"kost":2012,"olen":2013,"cep":2014,"dri":2015,"aledes":2016,"ført":2017,"funktion":2018,"lse":2019,"Sp":2020,"eng":2021,"effek":2022,"viden":2023,"Ch":2024,"online":2025,"flo":2026,"mine":2027,"fælles":2028,"arbejds":2029,"ac":2030,"beho":2031,"13":2032,"iden":2033,"lut":2034,"bry":2035,"synes":2036,"terne":2037,"ogra":2038,"sport":2039,"eks":2040,"prak":2041,"raf":2042,"handler":2043,"rundt":2044,"est":2045,"kør":2046,"vur":2047,"langt":2048,"værdi":2049,"film":2050,"fte":2051,"orden":2052,"aldrig":2053,"nation":2054,"klub":2055,"øm":2056,"piger":2057,"løbet":2058,"byder":2059,"gam":2060,"hvert":2061,"hjemmes":2062,"fes":2063,"allerede":2064,"læn":2065,"hurtigt":2066,"hjælpe":2067,"At":2068,"sommer":2069,"oku":2070,"tæt":2071,"mang":2072,"sh":2073,"minde":2074,"fak":2075,"organ":2076,"ja":2077,"sper":2078,"billeder":2079,"gjort":2080,"leve":2081,"forma":2082,"offent":2083,"timer":2084,"eneste":2085,"tilbud":2086,"taler":2087,"leje":2088,"bal":2089,"ki":2090,"vælge":2091,"skud":2092,"ceret":2093,"mune":2094,"ationer":2095,"oplysninger":2096,"agen":2097,"tab":2098,"stri":2099,"bro":2100,"skabet":2101,"skyl":2102,"ppe":2103,"ade":2104,"gelig":2105,"yt":2106,"tivt":2107,"snit":2108,"ini":2109,"søge":2110,"Sel":2111,"Re":2112,"møde":2113,"speci":2114,"aget":2115,"servi":2116,"ernes":2117,"enkel":2118,"ultur":2119,"øger":2120,"kvinde":2121,"25":2122,"Sex":2123,"gamle":2124,"ude":2125,"stæn":2126,"bred":2127,"perio":2128,"pl":2129,"forsta":2130,"result":2131,"steder":2132,"co":2133,"betyder":2134,"revet":2135,"købe":2136,"ræn":2137,"Pro":2138,"tekn":2139,"hendes":2140,"stal":2141,"isse":2142,"økonom":2143,"kli":2144,"veau":2145,"fre":2146,"san":2147,"fej":2148,"ia":2149,"nødven":2150,"Jo":2151,"behov":2152,"altsa":2153,"samtidig":2154,"saledes":2155,"mis":2156,"foret":2157,"iner":2158,"indt":2159,"ateg":2160,"udvalg":2161,"tør":2162,"lyst":2163,"eter":2164,"landet":2165,"Mo":2166,"aften":2167,"stof":2168,"givet":2169,"holdt":2170,"nr":2171,"sdag":2172,"uddannelse":2173,"ansvar":2174,"fantas":2175,"stan":2176,"tionen":2177,"omradet":2178,"forven":2179,"hin":2180,"spæn":2181,"sund":2182,"vigtigt":2183,"anbe":2184,"faktisk":2185,"nemlig":2186,"glæ":2187,"føre":2188,"beslut":2189,"EN":2190,"web":2191,"haft":2192,"erfar":2193,"ov":2194,"fy":2195,"Derfor":2196,"Alle":2197,"job":2198,"video":2199,"pris":2200,"næste":2201,"desig":2202,"ekstra":2203,"undersøg":2204,"delser":2205,"læse":2206,"produkter":2207,"mmet":2208,"Om":2209,"ssi":2210,"rev":2211,"samling":2212,"blot":2213,"endom":2214,"fleste":2215,"skabe":2216,"rekte":2217,"største":2218,"bær":2219,"trol":2220,"dør":2221,"ders":2222,"næsten":2223,"kend":2224,"varer":2225,"Li":2226,"Hvad":2227,"SA":2228,"igennem":2229,"musik":2230,"midler":2231,"ator":2232,"hjemme":2233,"sej":2234,"bestil":2235,"ændr":2236,"Ro":2237,"retning":2238,"ligvis":2239,"rik":2240,"lavet":2241,"vl":2242,"mail":2243,"kken":2244,"este":2245,"jen":2246,"seret":2247,"varme":2248,"ff":2249,"niveau":2250,"kig":2251,"eksempel":2252,"Fa":2253,"materi":2254,"mindst":2255,"erhver":2256,"via":2257,"top":2258,"El":2259,"orde":2260,"mask":2261,"aktivitet":2262,"spek":2263,"bat":2264,"Ha":2265,"skøn":2266,"privat":2267,"grun":2268,"kir":2269,"samarbejde":2270,"100":2271,"gul":2272,"anske":2273,"non":2274,"visning":2275,"enkelte":2276,"hy":2277,"anlæg":2278,"fundet":2279,"hyg":2280,"Nu":2281,"utter":2282,"delsen":2283,"omrade":2284,"nettet":2285,"udfor":2286,"do":2287,"virksomheder":2288,"vejen":2289,"rag":2290,"bruges":2291,"mærke":2292,"besøg":2293,"fører":2294,"IN":2295,"skær":2296,"tran":2297,"barn":2298,"aben":2299,"imod":2300,"energi":2301,"ital":2302,"medlem":2303,"ledning":2304,"enter":2305,"øver":2306,"prøve":2307,"ina":2308,"morgen":2309,"nat":2310,"uro":2311,"fl":2312,"sikre":2313,"fund":2314,"yde":2315,"40":2316,"holdet":2317,"lands":2318,"beh":2319,"esc":2320,"bjer":2321,"anal":2322,"serne":2323,"nen":2324,"rør":2325,"mmel":2326,"telef":2327,"størr":2328,"sikkert":2329,"grad":2330,"omfat":2331,"skriv":2332,"drag":2333,"rige":2334,"alminde":2335,"spro":2336,"udvik":2337,"fordel":2338,"senere":2339,"rejse":2340,"stemm":2341,"sprog":2342,"livet":2343,"ering":2344,"Ja":2345,"søn":2346,"ung":2347,"progra":2348,"værende":2349,"maned":2350,"even":2351,"slet":2352,"tilfælde":2353,"Le":2354,"model":2355,"ky":2356,"spiller":2357,"tøj":2358,"rel":2359,"navn":2360,"tror":2361,"fod":2362,"aut":2363,"okus":2364,"enkelt":2365,"hinanden":2366,"posi":2367,"personer":2368,"gaet":2369,"især":2370,"smæs":2371,"grøn":2372,"kunst":2373,"ori":2374,"mat":2375,"græn":2376,"malt":2377,"kket":2378,"escort":2379,"Par":2380,"alet":2381,"læge":2382,"bygge":2383,"støtte":2384,"Bo":2385,"antal":2386,"Ra":2387,"skrive":2388,"herunder":2389,"sygdom":2390,"porno":2391,"terer":2392,"heller":2393,"indsat":2394,"deren":2395,"kultur":2396,"vigtig":2397,"følgelig":2398,"fla":2399,"vurder":2400,"enten":2401,"sning":2402,"krav":2403,"byen":2404,"24":2405,"pper":2406,"pati":2407,"huset":2408,"dar":2409,"længe":2410,"væsen":2411,"gælder":2412,"skriver":2413,"brugt":2414,"sis":2415,"netop":2416,"dæk":2417,"regn":2418,"rette":2419,"jern":2420,"muligheder":2421,"bla":2422,"butik":2423,"sand":2424,"uge":2425,"direkte":2426,"svært":2427,"stig":2428,"adgang":2429,"service":2430,"familie":2431,"passer":2432,"Fr":2433,"Per":2434,"Chri":2435,"ou":2436,"kontakt":2437,"opmærk":2438,"199":2439,"sagt":2440,"int":2441,"udover":2442,"pige":2443,"cyk":2444,"stod":2445,"Under":2446,"syste":2447,"elever":2448,"dæ":2449,"rekt":2450,"fokus":2451,"gjorde":2452,"oppe":2453,"ast":2454,"tri":2455,"mpe":2456,"sagde":2457,"tj":2458,"fir":2459,"data":2460,"miljø":2461,"gørelse":2462,"isa":2463,"egne":2464,"stitu":2465,"ht":2466,"problemer":2467,"sens":2468,"sætning":2469,"Ind":2470,"Dansk":2471,"Selv":2472,"ikker":2473,"informa":2474,"dene":2475,"ograf":2476,"stille":2477,"spændende":2478,"hjer":2479,"els":2480,"øge":2481,"nævn":2482,"masse":2483,"klæ":2484,"ore":2485,"gruppe":2486,"kre":2487,"afdel":2488,"las":2489,"halv":2490,"bestem":2491,"ylland":2492,"køre":2493,"talt":2494,"60":2495,"sne":2496,"Kommune":2497,"indtil":2498,"salg":2499,"sli":2500,"ansk":2501,"medlemmer":2502,"fortæller":2503,"kommende":2504,"begge":2505,"vare":2506,"Ny":2507,"vise":2508,"forud":2509,"EU":2510,"maneder":2511,"matte":2512,"sme":2513,"omrader":2514,"disk":2515,"medarbej":2516,"Nor":2517,"super":2518,"øst":2519,"kær":2520,"fantastisk":2521,"ist":2522,"betaling":2523,"produktion":2524,"ps":2525,"fyldt":2526,"plad":2527,"fx":2528,"mper":2529,"middel":2530,"selvfølgelig":2531,"Vor":2532,"Hol":2533,"mener":2534,"pil":2535,"historie":2536,"skrift":2537,"udgang":2538,"forslag":2539,"AN":2540,"\".":2541,"kerne":2542,"aller":2543,"tv":2544,"Reg":2545,"sjo":2546,"telefon":2547,"sæl":2548,"Po":2549,"liges":2550,"kamp":2551,"virker":2552,"risik":2553,"fire":2554,"vem":2555,"hjemmeside":2556,"Ni":2557,"staende":2558,"smag":2559,"psy":2560,"laver":2561,"kontrol":2562,"our":2563,"opgaver":2564,"stet":2565,"akter":2566,"anset":2567,"gave":2568,"ogle":2569,"ferie":2570,"cm":2571,"tions":2572,"nø":2573,"hvorfor":2574,"ST":2575,"kap":2576,"lækker":2577,"Læs":2578,"anbefal":2579,"forældre":2580,"ct":2581,"erer":2582,"\",":2583,"system":2584,"elserne":2585,"fj":2586,"ress":2587,"vnet":2588,"kede":2589,"bur":2590,"kommet":2591,"ww":2592,"dating":2593,"løsning":2594,"ryk":2595,"orn":2596,"hotel":2597,"værelse":2598,"hvilke":2599,"ellers":2600,"jan":2601,"fores":2602,"løn":2603,"ytte":2604,"hund":2605,"skolen":2606,"sager":2607,"fru":2608,"sør":2609,"højt":2610,"tilbyder":2611,"inge":2612,"resultat":2613,"ew":2614,"situ":2615,"ryg":2616,"Min":2617,"maj":2618,"ejendom":2619,"stede":2620,"værre":2621,"rettet":2622,"vest":2623,"indeholder":2624,"pop":2625,"centr":2626,"ønske":2627,"sitet":2628,"kred":2629,"doku":2630,"fore":2631,"spar":2632,"perfek":2633,"elsker":2634,"bjerg":2635,"bedst":2636,"ologi":2637,"kendte":2638,"sættes":2639,"uger":2640,"kender":2641,"ande":2642,"OR":2643,"selskab":2644,"projekt":2645,"gte":2646,"midt":2647,"22":2648,"dermed":2649,"Des":2650,"gene":2651,"tom":2652,"imp":2653,"valgt":2654,"annon":2655,"soci":2656,"ktur":2657,"vægt":2658,"tering":2659,"gav":2660,"kil":2661,"begræn":2662,"Pri":2663,"ægte":2664,"lejlighed":2665,"bold":2666,"thai":2667,"mag":2668,"reb":2669,"gift":2670,"Gr":2671,"Bru":2672,"minutter":2673,"syge":2674,"alene":2675,"fejl":2676,"arhus":2677,"Th":2678,"rigtige":2679,"fød":2680,"indlæg":2681,"ktor":2682,"kunder":2683,"foran":2684,"valget":2685,"dø":2686,"ften":2687,"merik":2688,"afhæng":2689,"Vores":2690,"lære":2691,"lokale":2692,"Massage":2693,"gæ":2694,"fysi":2695,"forløb":2696,"dels":2697,"pik":2698,"børne":2699,"21":2700,"nemt":2701,"ligevel":2702,"oplevelse":2703,"luft":2704,"rapp":2705,"ydning":2706,"tru":2707,"spille":2708,"former":2709,"stud":2710,"problem":2711,"profes":2712,"køkken":2713,"artik":2714,"formal":2715,"regler":2716,"affe":2717,"marked":2718,"etab":2719,"konkur":2720,"nummer":2721,"kræver":2722,"hurtig":2723,"vede":2724,"forsik":2725,"fan":2726,"lande":2727,"Su":2728,"billede":2729,"proces":2730,"samlet":2731,"ændre":2732,"uar":2733,"eten":2734,"rom":2735,"agra":2736,"che":2737,"Vil":2738,"masser":2739,"øren":2740,"tilfred":2741,"kas":2742,"sep":2743,"udfordr":2744,"Over":2745,"igt":2746,"udtryk":2747,"part":2748,"aftale":2749,"Bil":2750,"Go":2751,"ganske":2752,"jord":2753,"radet":2754,"Danmarks":2755,"forklar":2756,".,":2757,"ationen":2758,"repræsen":2759,"smukke":2760,"vol":2761,"design":2762,"sider":2763,"center":2764,"ons":2765,"anti":2766,"tids":2767,"spise":2768,"pap":2769,"dyb":2770,"politi":2771,"sæson":2772,"”.":2773,"meter":2774,"23":2775,"fem":2776,"organisa":2777,"beret":2778,"skrevet":2779,"ejer":2780,"Te":2781,"undet":2782,"skade":2783,"ligesom":2784,"digheder":2785,"snar":2786,"nal":2787,"tvi":2788,"ay":2789,"træn":2790,"port":2791,"holds":2792,"nord":2793,"gifter":2794,"græ":2795,"spor":2796,"fed":2797,"selvom":2798,"start":2799,"høre":2800,"analy":2801,"log":2802,"tidspunkt":2803,"forbrug":2804,"aner":2805,"føres":2806,"Fra":2807,"leret":2808,"øs":2809,"billig":2810,"tænke":2811,"erefter":2812,"bol":2813,"samfund":2814,"Kan":2815,"vinder":2816,"Sy":2817,"bin":2818,"lokal":2819,"egent":2820,"blog":2821,"gaard":2822,"indenfor":2823,"sjæl":2824,"icin":2825,"lader":2826,"krig":2827,"fang":2828,"vidt":2829,"server":2830,"simp":2831,"vedet":2832,"ømme":2833,"80":2834,"registr":2835,"vælger":2836,"Ho":2837,"deltag":2838,"bestemt":2839,"staur":2840,"Kun":2841,"indi":2842,"male":2843,"lægge":2844,"tant":2845,"2018":2846,"resse":2847,"berg":2848,"Freder":2849,"bygning":2850,"lykke":2851,"lejer":2852,"70":2853,"følger":2854,"im":2855,"glæde":2856,"hvilken":2857,"lign":2858,"løse":2859,"manden":2860,"kære":2861,"smer":2862,"skov":2863,"Før":2864,"Gra":2865,"kol":2866,"ander":2867,"sere":2868,"Vej":2869,"AR":2870,"hovedet":2871,"eksi":2872,"jylland":2873,"farver":2874,"ED":2875,"Fol":2876,"snak":2877,"Di":2878,"gle":2879,"The":2880,"foreg":2881,"bygget":2882,"the":2883,"baggrund":2884,"fandt":2885,"qu":2886,"firma":2887,"ender":2888,"slags":2889,"hjælper":2890,"dition":2891,"forening":2892,"medarbejdere":2893,"motor":2894,"anvendes":2895,"alligevel":2896,"Mere":2897,"cept":2898,"”,":2899,"smil":2900,"ET":2901,"2017":2902,"kedet":2903,"kat":2904,"angi":2905,"kel":2906,"væsent":2907,"oma":2908,"procent":2909,"blom":2910,"egn":2911,"lægger":2912,"afslut":2913,"EL":2914,"sidder":2915,"lende":2916,"Ad":2917,"Ber":2918,"flot":2919,"kam":2920,"Gud":2921,"ledes":2922,"ate":2923,"bevæg":2924,"bestyrelsen":2925,"bad":2926,"træning":2927,"tning":2928,"højere":2929,"2015":2930,"studer":2931,"jeres":2932,"særligt":2933,"finan":2934,"seksu":2935,"klasse":2936,"kæmpe":2937,"bygger":2938,"26":2939,"lærer":2940,"behand":2941,"prin":2942,"km":2943,"kret":2944,"fyr":2945,"lering":2946,"tiver":2947,"stræk":2948,"borger":2949,"seneste":2950,"risiko":2951,"ktet":2952,"rele":2953,"ftet":2954,"Ty":2955,"SK":2956,"afgør":2957,"Br":2958,"talte":2959,"juni":2960,"tvivl":2961,"....":2962,"størrelse":2963,"Sko":2964,"ykker":2965,"gæng":2966,"mør":2967,"con":2968,"lar":2969,"bøger":2970,"La":2971,"handen":2972,"uropa":2973,"ow":2974,"lide":2975,"stol":2976,"farve":2977,"milli":2978,"ure":2979,"Ju":2980,"rent":2981,"jul":2982,"fulde":2983,"28":2984,"mester":2985,"produkt":2986,"pæ":2987,"penis":2988,"nap":2989,"popul":2990,"arran":2991,"kolle":2992,"Nord":2993,"vision":2994,"Bør":2995,"رر":2996,"spillet":2997,"medicin":2998,"verdens":2999,"vog":3000,"sterne":3001,"lod":3002,"opna":3003,"mæng":3004,"AT":3005,"syd":3006,"Or":3007,"periode":3008,"try":3009,"tin":3010,"delen":3011,"apr":3012,"time":3013,"sagen":3014,"bart":3015,"vinde":3016,"Hen":3017,"profession":3018,"holm":3019,"alen":3020,"bestar":3021,"veje":3022,"træk":3023,"gade":3024,"Car":3025,"27":3026,"venner":3027,"priser":3028,"derefter":3029,"Esc":3030,"hvem":3031,"enhver":3032,"eventu":3033,"Hu":3034,"2016":3035,"betale":3036,"Kar":3037,"forsøg":3038,"aktiviteter":3039,"pi":3040,"tende":3041,"fu":3042,"2014":3043,"møder":3044,"Vær":3045,"onen":3046,"digvis":3047,"sto":3048,"opmærksom":3049,"Alt":3050,"beløb":3051,"brud":3052,"Pr":3053,"udgangspunkt":3054,"stykke":3055,"sikkerhed":3056,"ktøj":3057,"stj":3058,"nøg":3059,"arbejdsp":3060,"anmel":3061,"særlig":3062,"special":3063,"ringer":3064,"strøm":3065,"Lu":3066,"bryster":3067,"januar":3068,"all":3069,"stian":3070,"fug":3071,"rød":3072,"grundlag":3073,"mobil":3074,"drift":3075,"internation":3076,"meto":3077,"politik":3078,"jule":3079,"virke":3080,"inister":3081,"USA":3082,"Escort":3083,"lange":3084,"opr":3085,"tages":3086,"forp":3087,"rigt":3088,"udstyr":3089,"indhold":3090,"ration":3091,"teres":3092,"elek":3093,"begyndte":3094,"sidst":3095,"restaur":3096,"29":3097,"gelse":3098,"tred":3099,"Hans":3100,"Ikke":3101,"fremme":3102,"pass":3103,"igur":3104,"æf":3105,"vindu":3106,"jf":3107,"Arbej":3108,"beskyt":3109,"AL":3110,"glad":3111,"So":3112,"Kir":3113,"hører":3114,"hul":3115,"alder":3116,"karakter":3117,"urop":3118,"compu":3119,"sil":3120,"barnet":3121,"alvor":3122,"evt":3123,"pisk":3124,"gere":3125,"funger":3126,"begynder":3127,"klart":3128,"sociale":3129,"parti":3130,"gøres":3131,"amerik":3132,"Thai":3133,"Hvordan":3134,"utro":3135,"Kri":3136,"reger":3137,"bus":3138,"Mange":3139,"kompeten":3140,"kraft":3141,"stillet":3142,"Fran":3143,"pleje":3144,"Fri":3145,"yderligere":3146,"rigtigt":3147,"ym":3148,"bereg":3149,"hensyn":3150,"grupper":3151,"Peter":3152,"splan":3153,"køn":3154,"bord":3155,"test":3156,"givning":3157,"deles":3158,"kærlighed":3159,"vendt":3160,"book":3161,"Ek":3162,"za":3163,"use":3164,"regel":3165,"tyde":3166,"varm":3167,"fuldt":3168,"struktur":3169,"konkurren":3170,"pat":3171,"2013":3172,"betydning":3173,"dense":3174,"dren":3175,"tit":3176,"Ste":3177,"ppet":3178,"opleve":3179,"Disse":3180,"kommunik":3181,"desuden":3182,"sendt":3183,"afik":3184,"erfaring":3185,"Hel":3186,"Stk":3187,"TV":3188,"fest":3189,"ys":3190,"psyk":3191,"lyd":3192,"lat":3193,"født":3194,"45":3195,"smar":3196,"Side":3197,"!!":3198,"samlede":3199,"ations":3200,"ningerne":3201,"ider":3202,"cces":3203,"studerende":3204,"kant":3205,"strateg":3206,"Ser":3207,"information":3208,"social":3209,"tilling":3210,"bekendt":3211,"versitet":3212,"naturligvis":3213,"terede":3214,"vester":3215,"vækst":3216,"oper":3217,"myn":3218,"sæd":3219,"alborg":3220,"mentar":3221,"kører":3222,"To":3223,"engel":3224,"bestille":3225,"ordin":3226,"saf":3227,"bogen":3228,"chef":3229,"Land":3230,"sundhed":3231,"nemm":3232,"fint":3233,"fatter":3234,"opgave":3235,"styrke":3236,"arm":3237,"Nogle":3238,"band":3239,"færdig":3240,"beting":3241,"cember":3242,"Uni":3243,"dagog":3244,"gede":3245,"eres":3246,"normalt":3247,"føler":3248,"strup":3249,"bak":3250,"fel":3251,"remt":3252,"modtager":3253,"moderne":3254,"snart":3255,"spir":3256,"ion":3257,"indsats":3258,"værktøj":3259,"opdat":3260,"fro":3261,"mæs":3262,"viste":3263,"Ga":3264,"Frederik":3265,"flytte":3266,"Na":3267,"ond":3268,"idet":3269,"gammel":3270,"skel":3271,"egentlig":3272,"yng":3273,"dustri":3274,"vender":3275,"dejlig":3276,"tember":3277,"stop":3278,"jæ":3279,"undervisning":3280,"otek":3281,"dato":3282,"gust":3283,"vandet":3284,"udgifter":3285,"ksi":3286,"tvær":3287,"institu":3288,"nov":3289,"Aarhus":3290,"Mi":3291,"Gen":3292,"ance":3293,"pas":3294,"huse":3295,"cykel":3296,"bræn":3297,"fisk":3298,"vinter":3299,"ton":3300,"passe":3301,"kkede":3302,"øjeblik":3303,"Eller":3304,"trække":3305,"Danske":3306,"offentlige":3307,"kroner":3308,"uk":3309,"konkret":3310,"gri":3311,"skat":3312,"tilla":3313,"35":3314,"kul":3315,"bon":3316,"bevar":3317,"tilgæng":3318,"erstat":3319,"Europa":3320,"resten":3321,"nyde":3322,"typer":3323,"mangler":3324,"type":3325,"Jes":3326,"haber":3327,"ero":3328,"nøj":3329,"marts":3330,"instru":3331,"færd":3332,"punkt":3333,"indre":3334,"By":3335,"holdes":3336,"cel":3337,"kroppen":3338,"alitet":3339,"inder":3340,"arige":3341,"ændringer":3342,"ledelse":3343,"eksper":3344,"intet":3345,"høje":3346,"cere":3347,"uanset":3348,"december":3349,"admini":3350,"uren":3351,"vember":3352,"nuværende":3353,"oft":3354,"feren":3355,"føj":3356,"orien":3357,"gennemsnit":3358,"benytte":3359,"bestemm":3360,"​​":3361,"olie":3362,"pal":3363,"stoffer":3364,"tober":3365,"Co":3366,"arki":3367,"vind":3368,"eren":3369,"læser":3370,"undt":3371,"Mad":3372,"datter":3373,"engang":3374,"shop":3375,"udvikle":3376,"alog":3377,"succes":3378,"baseret":3379,"april":3380,"kunde":3381,"øget":3382,"oktober":3383,"hard":3384,"erhvervs":3385,"løbende":3386,"2012":3387,"dræ":3388,"sort":3389,"Søn":3390,"SE":3391,"lege":3392,"sminister":3393,"september":3394,"børnene":3395,"vag":3396,"skol":3397,"brand":3398,"byde":3399,"meste":3400,"projektet":3401,"efterfølgende":3402,"særlige":3403,"lav":3404,"ighed":3405,"førte":3406,"videnskab":3407,"undersøgelse":3408,"pet":3409,"skar":3410,"bri":3411,"unkter":3412,"trods":3413,"tivitet":3414,"beskæf":3415,"gæld":3416,"kop":3417,"somt":3418,"folke":3419,"nødvendigt":3420,"ansøg":3421,"desværre":3422,"bran":3423,"tegn":3424,"tænker":3425,"rapport":3426,"stik":3427,"mentet":3428,"brød":3429,"pag":3430,"viagra":3431,"takt":3432,"bane":3433,"liste":3434,"IL":3435,"delt":3436,"Bi":3437,"instal":3438,"vold":3439,"død":3440,"døde":3441,"abel":3442,"uropæ":3443,"mes":3444,"He":3445,"vejledning":3446,"fortælle":3447,"undga":3448,"hud":3449,"redu":3450,"bestyr":3451,"atet":3452,"stærk":3453,"lignende":3454,"fortsat":3455,"tekst":3456,"offentlig":3457,"fjer":3458,"klassi":3459,"hænger":3460,"cir":3461,"lik":3462,"budget":3463,"højde":3464,"Var":3465,"bevid":3466,"vari":3467,"supp":3468,"udsel":3469,"placer":3470,"asi":3471,"Mil":3472,"dets":3473,"eksister":3474,"nere":3475,"tradition":3476,"køber":3477,"personlige":3478,"kvar":3479,"maler":3480,"hvid":3481,"unde":3482,"abne":3483,"frække":3484,"IT":3485,"Kr":3486,"sættelse":3487,"opret":3488,"øvrigt":3489,"Fo":3490,"værd":3491,"november":3492,"ette":3493,"ages":3494,"Mic":3495,"blod":3496,"materiale":3497,"week":3498,"eledes":3499,"detal":3500,"Sadan":3501,"bebo":3502,"ked":3503,"31":3504,"one":3505,"minister":3506,"voksne":3507,"Derudover":3508,"nævnte":3509,"trafik":3510,"behøver":3511,"foræl":3512,"arrange":3513,"københavn":3514,"frit":3515,"afsnit":3516,"velkommen":3517,"anvendelse":3518,".”":3519,"ING":3520,"Fin":3521,"Hos":3522,"ttet":3523,"vens":3524,"Bar":3525,"Str":3526,"oplevelser":3527,"spur":3528,"Sc":3529,"forsamling":3530,"rolle":3531,"bidr":3532,"synet":3533,"pædagog":3534,"ugen":3535,"cis":3536,"ON":3537,"gard":3538,"computer":3539,"spej":3540,"middag":3541,"kommunen":3542,"indivi":3543,"198":3544,"ines":3545,"udvalget":3546,"private":3547,"inen":3548,"ku":3549,"dyg":3550,"fødsel":3551,"forsvar":3552,"vejr":3553,"talen":3554,"stemme":3555,"papir":3556,"finansi":3557,"Christian":3558,"hygg":3559,"systemet":3560,"perfekt":3561,"sammenhæng":3562,"fungerer":3563,"imellem":3564,"hverdag":3565,"gældende":3566,"general":3567,"virksomheden":3568,"artikel":3569,"vner":3570,"ologiske":3571,"gruppen":3572,"øvrige":3573,"starter":3574,"frisk":3575,"sus":3576,"fedt":3577,"Dat":3578,"Bor":3579,"kontor":3580,"lads":3581,"endelig":3582,"ensen":3583,"bund":3584,"mio":3585,"simpelt":3586,"omkost":3587,"ino":3588,"kning":3589,"familien":3590,"pan":3591,"pct":3592,"vurdering":3593,"trak":3594,"opfyl":3595,"tar":3596,"knap":3597,"markedet":3598,"Ex":3599,"glas":3600,"klin":3601,"partner":3602,"bre":3603,"stab":3604,"behag":3605,"skyldes":3606,"værker":3607,"afil":3608,"90":3609,"holdelse":3610,"Hot":3611,"gangen":3612,"højre":3613,"ister":3614,"Øn":3615,"august":3616,"kaffe":3617,"lub":3618,"th":3619,"knyt":3620,"2011":3621,"beskriv":3622,"tilskud":3623,"invester":3624,"praksis":3625,"formand":3626,"paa":3627,"iv":3628,"transport":3629,"helst":3630,"Ver":3631,"ressour":3632,"kombin":3633,"typisk":3634,"leg":3635,"stændig":3636,"anter":3637,"sender":3638,"kendelse":3639,"bæk":3640,"stræ":3641,"direkt":3642,"sad":3643,"svarende":3644,"stillinger":3645,"ssen":3646,"fodbold":3647,"skifte":3648,"ologisk":3649,"oplever":3650,"forbi":3651,"medarbejder":3652,"recept":3653,"rammer":3654,"kæreste":3655,"skyld":3656,"sar":3657,"iseret":3658,"smæssige":3659,"aff":3660,"2010":3661,"Mal":3662,"tron":3663,"overra":3664,"erhverv":3665,"flotte":3666,"haven":3667,"osv":3668,"kelig":3669,"hot":3670,"sang":3671,"hardt":3672,"komst":3673,"real":3674,"valgte":3675,"hil":3676,"regnskab":3677,"pres":3678,"kry":3679,"betyde":3680,"netværk":3681,"frivil":3682,"Hver":3683,"Val":3684,"menneske":3685,"afdeling":3686,"pension":3687,"kg":3688,"ID":3689,"malet":3690,"ex":3691,"bruar":3692,"øse":3693,"vilkar":3694,"ies":3695,"opti":3696,"koncer":3697,"ans":3698,"gaende":3699,"porn":3700,"belig":3701,"mmelig":3702,"muse":3703,"ium":3704,"We":3705,"møn":3706,"Ka":3707,"bort":3708,"sul":3709,"mærker":3710,"billed":3711,"tighed":3712,"forskning":3713,"interesse":3714,"Samtidig":3715,"lager":3716,"lægges":3717,"belt":3718,"specielt":3719,"pludsel":3720,"kraf":3721,"hjul":3722,"sammenlig":3723,"moder":3724,"tredje":3725,"pol":3726,"rejser":3727,"lyder":3728,"Maske":3729,"industri":3730,"sing":3731,"75":3732,"stærkt":3733,"cy":3734,"fli":3735,"prøver":3736,"kn":3737,"Hej":3738,"ringe":3739,"kateg":3740,"føde":3741,"mader":3742,"udviklet":3743,"Stor":3744,"ældende":3745,"hor":3746,"skæ":3747,"uddan":3748,"biler":3749,"Poli":3750,"chen":3751,"flu":3752,"meld":3753,"DK":3754,"nærmere":3755,"prisen":3756,"Bes":3757,"uld":3758,"IS":3759,"Andre":3760,"kræft":3761,"vigtigste":3762,"OL":3763,"Næ":3764,"ela":3765,"my":3766,"borgere":3767,"Syd":3768,"36":3769,"almindelige":3770,"inte":3771,"ledet":3772,"skom":3773,"rim":3774,"klare":3775,"terna":3776,"Desuden":3777,"vises":3778,"tenti":3779,"Gu":3780,"IG":3781,"ktioner":3782,"projekter":3783,"handel":3784,"skr":3785,"foto":3786,"tallet":3787,"neden":3788,"somra":3789,"diske":3790,"hn":3791,"dent":3792,"ill":3793,"venlig":3794,"købt":3795,"app":3796,"oprinde":3797,"ilm":3798,"skland":3799,"resultater":3800,"ligheder":3801,"varet":3802,"selve":3803,"Odense":3804,"mening":3805,"bun":3806,"staet":3807,".\"":3808,"vant":3809,"ank":3810,"lækre":3811,"generelt":3812,"vo":3813,"kæl":3814,"Ba":3815,"Eng":3816,"ogen":3817,"chat":3818,"vedlige":3819,"team":3820,"foreningen":3821,"jorden":3822,"demok":3823,"udel":3824,"Sund":3825,"Inter":3826,"mission":3827,"læst":3828,"automa":3829,"falder":3830,"fjern":3831,"-)":3832,"deltage":3833,"ega":3834,"sede":3835,"forbed":3836,"retur":3837,"program":3838,"dede":3839,"aktu":3840,"ørg":3841,"mene":3842,"Aalborg":3843,"situation":3844,"søgt":3845,"juli":3846,"Res":3847,"kne":3848,"smuk":3849,"effekt":3850,"retten":3851,"udviklingen":3852,"februar":3853,"vend":3854,"inspir":3855,"ophold":3856,"plejer":3857,"klima":3858,"byr":3859,"Por":3860,"fon":3861,"rørende":3862,"Søren":3863,"Sch":3864,"dejligt":3865,"kog":3866,"kontakte":3867,"bø":3868,"Net":3869,"forel":3870,"DR":3871,"temper":3872,"afgørende":3873,"Høj":3874,"ifølge":3875,"Person":3876,"dra":3877,"nødt":3878,"øjne":3879,"Kommun":3880,"hedder":3881,"chan":3882,"perioden":3883,"værelser":3884,"www":3885,"endda":3886,"Hi":3887,"inklu":3888,"skabt":3889,"profil":3890,"Mon":3891,"peg":3892,"lægning":3893,"urnal":3894,"Si":3895,"dob":3896,"udsigt":3897,"skrifter":3898,"skrev":3899,"okol":3900,"hop":3901,"brænd":3902,"dio":3903,"drø":3904,"aby":3905,"pladsen":3906,"banen":3907,"egnet":3908,"nene":3909,"konsek":3910,"fine":3911,"jælland":3912,"arig":3913,"Far":3914,"sove":3915,"Lig":3916,"fry":3917,"ørdag":3918,"serede":3919,"pakke":3920,"økonomiske":3921,"tider":3922,"debat":3923,"pagældende":3924,"iller":3925,"ins":3926,"somme":3927,"gro":3928,"agere":3929,"Ti":3930,"Del":3931,"brugte":3932,"sidde":3933,"tilfreds":3934,"befolk":3935,"kontra":3936,"mød":3937,"kaldt":3938,"istiske":3939,"rul":3940,"hvide":3941,"rene":3942,"flade":3943,"unktet":3944,"mennesk":3945,"Ge":3946,"spon":3947,"skon":3948,"starte":3949,"publik":3950,"magt":3951,"burde":3952,"fot":3953,"fab":3954,"æld":3955,"nab":3956,"Mor":3957,"defin":3958,"politiske":3959,"tema":3960,"rets":3961,"anderledes":3962,"individu":3963,"konstru":3964,"stærke":3965,"2009":3966,"savel":3967,"sandsyn":3968,"svarer":3969,"huske":3970,"strik":3971,"iso":3972,"Jør":3973,"omfang":3974,"ierne":3975,"opfat":3976,"hvornar":3977,"bevidst":3978,"konst":3979,"liggende":3980,"Dag":3981,"starten":3982,"bevæ":3983,"vikl":3984,"sstil":3985,"Bet":3986,"version":3987,"Ven":3988,"venstre":3989,"dørs":3990,"skatte":3991,"hunde":3992,"post":3993,"IK":3994,"maskine":3995,"foku":3996,"forfatter":3997,"rø":3998,"solut":3999,"kte":4000,"kommune":4001,"stiller":4002,"vejs":4003,"God":4004,"pul":4005,"kirke":4006,"faglige":4007,"II":4008,"maden":4009,"Natur":4010,"Vir":4011,"vandt":4012,"drikke":4013,"tryg":4014,"ligeledes":4015,"omfatter":4016,"tand":4017,"startede":4018,"mik":4019,"bringe":4020,"bredt":4021,"Tr":4022,"Skal":4023,"Hoved":4024,"cebook":4025,"Læ":4026,"ønskede":4027,"sloven":4028,"tus":4029,"out":4030,"løber":4031,"isering":4032,"brev":4033,"princi":4034,"spital":4035,"getøj":4036,"pladser":4037,"fremgar":4038,"emær":4039,"mum":4040,"bilen":4041,"fler":4042,"ordning":4043,"kym":4044,"fisse":4045,"bekym":4046,"glæder":4047,"elset":4048,"Ingen":4049,"US":4050,"hum":4051,"33":4052,"regu":4053,"billedet":4054,"ansatte":4055,"sikrer":4056,"Arhus":4057,"parker":4058,"adskil":4059,"ity":4060,"kommentar":4061,"skoler":4062,"sky":4063,"fale":4064,"ote":4065,"Con":4066,"ram":4067,"tjene":4068,"primær":4069,"frugt":4070,"figur":4071,"gæster":4072,"cialis":4073,"Hand":4074,"station":4075,"OG":4076,"styret":4077,"udgør":4078,"vante":4079,"197":4080,"overfor":4081,"patienter":4082,"handle":4083,"tyr":4084,"foregar":4085,"bank":4086,"Byg":4087,"bas":4088,"inspi":4089,"sven":4090,"view":4091,"Bla":4092,"Gratis":4093,"Lad":4094,"lider":4095,"løsninger":4096,"steg":4097,"identi":4098,"forstaelse":4099,"accep":4100,"nytte":4101,"respek":4102,"funktioner":4103,"Tor":4104,"spænd":4105,"sken":4106,"500":4107,"smart":4108,"mærket":4109,"Nielsen":4110,"levering":4111,"haver":4112,"løbe":4113,"2008":4114,"rækker":4115,"gives":4116,"adresse":4117,"eksempelvis":4118,"dækker":4119,"ændret":4120,"invi":4121,"gas":4122,"piller":4123,"vider":4124,"Jan":4125,"senest":4126,"prøvet":4127,"sukker":4128,"pludselig":4129,"antallet":4130,"bøl":4131,"ramme":4132,"populære":4133,"økonomi":4134,"tæ":4135,"skader":4136,"tjek":4137,"udfordringer":4138,"skift":4139,"generisk":4140,"ue":4141,"tilli":4142,"bered":4143,"vedrørende":4144,"CO":4145,"absolut":4146,"mmerne":4147,"Københavns":4148,"New":4149,"potenti":4150,"Jensen":4151,"præcis":4152,"kaldte":4153,"spillere":4154,"ideer":4155,"omo":4156,"itter":4157,"serer":4158,"formu":4159,"administra":4160,"boliger":4161,"engelsk":4162,"Tak":4163,"aktiver":4164,"Ve":4165,"kryd":4166,"holdsvis":4167,"uropæiske":4168,"skema":4169,"stens":4170,"stue":4171,"smule":4172,"lsen":4173,"vansk":4174,"skridt":4175,"amerikanske":4176,"virkning":4177,"how":4178,"ilitet":4179,"materialer":4180,"skin":4181,"støj":4182,"efterhanden":4183,"Hansen":4184,"serie":4185,"letter":4186,"ativ":4187,"scen":4188,"196":4189,"stemmer":4190,"gengæld":4191,"udby":4192,"hjerte":4193,"nævnt":4194,"Grøn":4195,"sive":4196,"mulige":4197,"danmark":4198,"saa":4199,"aktion":4200,"offi":4201,"søde":4202,"tagelse":4203,"brugere":4204,"itel":4205,"anbefale":4206,"tyske":4207,"Ta":4208,"ovn":4209,"standard":4210,"overvej":4211,"pt":4212,"stress":4213,"Fi":4214,"EM":4215,"begrænset":4216,"kredit":4217,"overens":4218,"ES":4219,"midlertid":4220,"fac":4221,"Brug":4222,"millioner":4223,"lyse":4224,"otte":4225,"fic":4226,"navnet":4227,"grader":4228,"besked":4229,"forsikring":4230,"temperatur":4231,"rat":4232,"byer":4233,"seks":4234,"dejlige":4235,"roman":4236,"mann":4237,"tilsyn":4238,"ytter":4239,"fræk":4240,"smus":4241,"Selvom":4242,"mptom":4243,":)":4244,"sw":4245,"AG":4246,"cher":4247,"henhold":4248,"Thom":4249,"eksisterende":4250,"wn":4251,"modtaget":4252,"holdning":4253,"Jørgen":4254,"skra":4255,"34":4256,"ændring":4257,"uen":4258,"konto":4259,"Ben":4260,"nogens":4261,"cerer":4262,"istisk":4263,"beskyttelse":4264,"ell":4265,"32":4266,"Ander":4267,"mæl":4268,"Ski":4269,"udbud":4270,"PR":4271,"ungdom":4272,"ærer":4273,"stykker":4274,"sendes":4275,"valu":4276,"forval":4277,"apotek":4278,"ødel":4279,"listen":4280,"Find":4281,"Vel":4282,"cre":4283,"lek":4284,"hab":4285,"træf":4286,"aktiv":4287,"økonomisk":4288,".)":4289,"Ogsa":4290,"sælger":4291,"følelse":4292,"uddannelsen":4293,"generalforsamling":4294,"jak":4295,"hjør":4296,"Ca":4297,"Mu":4298,"2007":4299,"batter":4300,"smo":4301,"Super":4302,"koster":4303,"blo":4304,"historier":4305,"kast":4306,"rekla":4307,"leverand":4308,"visningen":4309,"simpelthen":4310,"forand":4311,"korrekt":4312,"sjovt":4313,"genop":4314,"Sid":4315,"mv":4316,"forret":4317,"kvali":4318,"Hus":4319,"beskæftig":4320,"demokra":4321,"internationale":4322,"deltager":4323,"næst":4324,"dobbelt":4325,"forsy":4326,"alterna":4327,"sundheds":4328,"klage":4329,"DS":4330,"fysisk":4331,"ness":4332,"garanti":4333,"darlig":4334,"hundrede":4335,"Beg":4336,"ep":4337,"nogensinde":4338,"blomster":4339,"meddel":4340,"personale":4341,"faktor":4342,"indgar":4343,"indfly":4344,"videoer":4345,"dokument":4346,"sød":4347,"UN":4348,"forker":4349,"Tag":4350,"tanker":4351,"forretning":4352,"dyre":4353,"spørge":4354,"skønne":4355,"nærmest":4356,"amil":4357,"grænse":4358,"pæn":4359,"almindelig":4360,"udstilling":4361,"olf":4362,"medier":4363,"fæ":4364,"38":4365,"støv":4366,"enor":4367,"inspiration":4368,"øk":4369,"stæ":4370,"mus":4371,"stit":4372,"opdag":4373,"modtage":4374,"rende":4375,"sym":4376,"ulti":4377,"Ak":4378,"Mat":4379,"hørt":4380,"Tyskland":4381,"enhed":4382,"tilstræk":4383,"glade":4384,"linger":4385,"guide":4386,"hverken":4387,"søndag":4388,"ali":4389,"point":4390,"hænge":4391,"historien":4392,"klubben":4393,"selskabet":4394,"skræ":4395,"Din":4396,"vaske":4397,"andi":4398,"vild":4399,"tilføj":4400,"præci":4401,"bede":4402,"skilde":4403,"hone":4404,"forpligt":4405,"dialog":4406,"litter":4407,"Væl":4408,"edyg":4409,"modeller":4410,"xx":4411,"gter":4412,"ze":4413,"Midt":4414,"fotograf":4415,"primært":4416,"fabrik":4417,"sur":4418,"levende":4419,"On":4420,"smiljø":4421,"huden":4422,"37":4423,"dvs":4424,"umiddel":4425,"kørsel":4426,"eleverne":4427,"udenfor":4428,"træder":4429,"sind":4430,"ative":4431,"samfundet":4432,"region":4433,"værdier":4434,"gel":4435,"afe":4436,"39":4437,"automatisk":4438,"møl":4439,"48":4440,"varmt":4441,"turen":4442,"Hotel":4443,"buk":4444,"grønne":4445,"Au":4446,"direktør":4447,"grunden":4448,"konsekven":4449,"bok":4450,"Kontakt":4451,"opmærksomhed":4452,"vildt":4453,"Stat":4454,"smæssigt":4455,"eksp":4456,"nødvendige":4457,",-":4458,"relevante":4459,"ink":4460,"fortsætter":4461,"møb":4462,"ape":4463,"systemer":4464,"løst":4465,"ers":4466,"bygninger":4467,"rings":4468,"tigheder":4469,",”":4470,"udgave":4471,"Porno":4472,"mera":4473,"Sil":4474,"visse":4475,"inten":4476,"skærm":4477,"wor":4478,"forsøger":4479,"lagde":4480,"Store":4481,"lettere":4482,"ræt":4483,"slen":4484,"opfor":4485,"kød":4486,"Am":4487,"ris":4488,"gaver":4489,"smi":4490,"klen":4491,"Sønder":4492,"Com":4493,"omgang":4494,"kes":4495,"døren":4496,"fantastiske":4497,"betalt":4498,"Bag":4499,"detaljer":4500,"orier":4501,"tation":4502,"Mand":4503,"bærer":4504,"Plan":4505,"Gener":4506,"radighed":4507,"tilbyde":4508,"stoppe":4509,"legetøj":4510,"Hvil":4511,"Henrik":4512,"bland":4513,"ise":4514,"Sver":4515,"betrag":4516,"cerede":4517,"leveret":4518,"Sal":4519,"venter":4520,"Sen":4521,"læggende":4522,"sygdomme":4523,"dik":4524,"Bade":4525,"kigge":4526,"trækker":4527,"begi":4528,"træner":4529,"vendte":4530,"straks":4531,"glo":4532,"grønt":4533,"kursus":4534,"cha":4535,"eto":4536,"deling":4537,"55":4538,"langs":4539,"gym":4540,"vogn":4541,"kaldes":4542,"Spe":4543,"fællesskab":4544,"stats":4545,"stemning":4546,"celler":4547,"siv":4548,"tidsp":4549,"Peder":4550,"overensstemm":4551,"Politi":4552,"areal":4553,"AS":4554,"gyl":4555,"vigtige":4556,"forbundet":4557,"butikker":4558,"planer":4559,"ild":4560,"værelset":4561,"citet":4562,"overblik":4563,"mende":4564,"uddannelses":4565,"selskaber":4566,"rebet":4567,"erfaringer":4568,"skede":4569,"landske":4570,"øjen":4571,"gørelsen":4572,"-,":4573,"tænkt":4574,"førelse":4575,"ilet":4576,"jør":4577,"godkendt":4578,"standen":4579,"vente":4580,"tidens":4581,"ligge":4582,"indkøb":4583,"neder":4584,"mmes":4585,"kommunikation":4586,"perfekte":4587,"Rig":4588,"hyl":4589,"værket":4590,"vik":4591,"undersøgelser":4592,"relig":4593,"tilstand":4594,"entre":4595,"zz":4596,"ansigt":4597,"læring":4598,"ditet":4599,"kommuner":4600,"journal":4601,"Nej":4602,"Vest":4603,"Rasmus":4604,"hente":4605,"arets":4606,"ringen":4607,"ald":4608,"Hvorfor":4609,"Siden":4610,"faldet":4611,"sasom":4612,"kræfter":4613,"stande":4614,"tydeligt":4615,"AD":4616,"Frederiks":4617,"ragende":4618,"uafhæng":4619,"livs":4620,"kkes":4621,"faste":4622,"placeret":4623,"kampen":4624,"sler":4625,"symptom":4626,"havet":4627,"Nør":4628,"betaler":4629,"lørdag":4630,"landbrug":4631,"drene":4632,"Ri":4633,"guld":4634,"arsag":4635,"cam":4636,"Lang":4637,"AB":4638,"tværs":4639,"fjerne":4640,"rol":4641,"lyn":4642,"kohol":4643,"organisation":4644,"keting":4645,"udeluk":4646,"leres":4647,"fredag":4648,"Kor":4649,"Jens":4650,"imidlertid":4651,"endte":4652,"last":4653,"kens":4654,"fæng":4655,"Pen":4656,"sætt":4657,"konkrete":4658,"indga":4659,"beslutning":4660,"Gar":4661,"røde":4662,"initi":4663,"Ret":4664,"sene":4665,"fysiske":4666,"analyse":4667,"pig":4668,"Erhver":4669,"agelse":4670,"sset":4671,"Lars":4672,"trodu":4673,"ls":4674,"daglig":4675,"hastig":4676,"Johan":4677,"velse":4678,"denafil":4679,"sætninger":4680,"AM":4681,"bibli":4682,"Ener":4683,"studie":4684,"formid":4685,"riere":4686,"valitet":4687,"nej":4688,"daglige":4689,"hospital":4690,"Es":4691,"gli":4692,"رررر":4693,"trin":4694,"muligheden":4695,"højeste":4696,"henvende":4697,"Tek":4698,"kelse":4699,"blød":4700,"rus":4701,"fart":4702,"bring":4703,"tilslut":4704,"besøge":4705,"nøgen":4706,"seng":4707,"herefter":4708,"lation":4709,"lem":4710,"politisk":4711,"tysk":4712,"FOR":4713,"væsentlig":4714,"vidste":4715,"aen":4716,"lay":4717,"ffet":4718,"ari":4719,"seksuelle":4720,"fremtiden":4721,"fors":4722,"levere":4723,"Inden":4724,"lf":4725,"voksen":4726,"mødes":4727,"tidige":4728,"indflydelse":4729,"bom":4730,"Sta":4731,"retter":4732,"slaet":4733,"rid":4734,"flik":4735,"forhand":4736,"rengør":4737,"kapital":4738,"Kvinder":4739,"Dog":4740,"tival":4741,"sland":4742,"igang":4743,"nas":4744,"givelser":4745,"fron":4746,"tyn":4747,"indholdet":4748,"eli":4749,"sioner":4750,"knæ":4751,"skende":4752,"lukket":4753,"træt":4754,"overensstemmelse":4755,"mom":4756,"greb":4757,"ligheden":4758,"keligt":4759,"læder":4760,"aftaler":4761,"elektron":4762,"forh":4763,"Universitet":4764,"elementer":4765,"cit":4766,"national":4767,"pengene":4768,"andidat":4769,"kalder":4770,"skj":4771,"kompetencer":4772,"San":4773,"opstar":4774,"Sammen":4775,"Tid":4776,"omkostninger":4777,"klo":4778,"hjemmesiden":4779,"grunde":4780,"sorte":4781,"turi":4782,"forbedre":4783,"kone":4784,"annoncer":4785,"olding":4786,"vilde":4787,"hyggeligt":4788,"presse":4789,"deler":4790,"soft":4791,"fit":4792,"arter":4793,"stad":4794,"ydelser":4795,"Cla":4796,"vene":4797,"lom":4798,"anbefaler":4799,"44":4800,"myndighed":4801,"radgivning":4802,"Lige":4803,"Sol":4804,"fakt":4805,"begyndt":4806,"stral":4807,"ordent":4808,"bordet":4809,"afstand":4810,"bidrag":4811,"ægt":4812,"teen":4813,"ish":4814,"henblik":4815,"køle":4816,"udelukkende":4817,"Me":4818,"delig":4819,"hænder":4820,"overhovedet":4821,"arti":4822,"behør":4823,"ikken":4824,"løg":4825,"ansat":4826,"Bu":4827,"OM":4828,"nega":4829,"ansvarlig":4830,"99":4831,"No":4832,"prote":4833,"cas":4834,"lækkert":4835,"tanke":4836,"live":4837,"vedr":4838,"bunden":4839,"verse":4840,"sant":4841,":-)":4842,"udført":4843,"slin":4844,"sagtens":4845,"camp":4846,"Facebook":4847,"sorg":4848,"nasi":4849,"Tra":4850,"punkter":4851,"onne":4852,"døg":4853,"End":4854,"status":4855,"faldt":4856,"Mag":4857,"begiven":4858,"sommeren":4859,"stin":4860,"evne":4861,"Porn":4862,"ægter":4863,"eksk":4864,"baby":4865,"føring":4866,"slutningen":4867,"mulig":4868,"straf":4869,"betjen":4870,"2006":4871,"Ifølge":4872,"Bro":4873,"Gennem":4874,"naturen":4875,"byens":4876,"æd":4877,"Sverige":4878,"maskiner":4879,"føle":4880,"ært":4881,"bra":4882,"??":4883,"virkeligheden":4884,"site":4885,"grundlæggende":4886,"kron":4887,"natten":4888,"Sø":4889,"spare":4890,"frokost":4891,"ture":4892,"reglerne":4893,"serien":4894,"etøj":4895,"stensen":4896,"begynde":4897,"2000":4898,"damer":4899,"Hal":4900,"rund":4901,"John":4902,"Mik":4903,"Bed":4904,"parat":4905,"Ring":4906,"tjeneste":4907,"lykkedes":4908,"komfort":4909,"jævn":4910,"Fyn":4911,"skib":4912,"Region":4913,"viditet":4914,"Præ":4915,"plade":4916,"omfattet":4917,"grænser":4918,"vice":4919,"skru":4920,"chokol":4921,"forstar":4922,"lyser":4923,"frihed":4924,"ld":4925,"manglende":4926,"slu":4927,"Husk":4928,"Is":4929,"beskrivelse":4930,"elighed":4931,"42":4932,"alkohol":4933,"drenge":4934,"lot":4935,"stigende":4936,"fylde":4937,"praktisk":4938,"Foto":4939,"arbejdsplad":4940,"orten":4941,"minimum":4942,"fuldstændig":4943,"digital":4944,"Andersen":4945,"regering":4946,"læs":4947,"agte":4948,"vore":4949,"fremragende":4950,"atter":4951,"salt":4952,"spillede":4953,"atri":4954,"stitut":4955,"can":4956,"sjov":4957,"kampe":4958,"stilles":4959,"ange":4960,"færre":4961,"sikkerheds":4962,"markeds":4963,"Projek":4964,"styre":4965,"Ko":4966,"stjerne":4967,"Flere":4968,"planter":4969,"kage":4970,"teknologi":4971,"hvi":4972,"spoli":4973,"strategi":4974,"personlig":4975,"kørte":4976,"fantasi":4977,"støtter":4978,"Hor":4979,"drer":4980,"navne":4981,"IV":4982,"hvorefter":4983,"nemmere":4984,"Lar":4985,"internet":4986,"naturlige":4987,"aktive":4988,"mængde":4989,"konkurrence":4990,"runde":4991,"skrives":4992,"renover":4993,"seri":4994,"dækket":4995,"laget":4996,"visor":4997,"Ej":4998,"klok":4999,"jagt":5000,"websted":5001,"mødet":5002,"konsul":5003,"mente":5004,"gennemført":5005,"kunstner":5006,"bevægelse":5007,"vitra":5008,"forventes":5009,"sproces":5010,"num":5011,"tidligt":5012,"Lok":5013,"vit":5014,"eksa":5015,"skes":5016,"Ly":5017,"Fæl":5018,"Frem":5019,"deret":5020,"mindste":5021,"trad":5022,"//":5023,"Social":5024,"konflik":5025,"keg":5026,"enden":5027,"vejled":5028,"affald":5029,"univer":5030,"ordre":5031,"iel":5032,"hl":5033,"ficeret":5034,"300":5035,"bilag":5036,"ingerne":5037,"sjældent":5038,"mode":5039,"vejret":5040,"temp":5041,"spurgte":5042,"spo":5043,"ktionen":5044,"unik":5045,"Mit":5046,"65":5047,"Ran":5048,"ach":5049,"Vælg":5050,"dning":5051,"Møl":5052,"Bemær":5053,"nabo":5054,"AF":5055,"gulv":5056,"afsla":5057,"fisker":5058,"forløbet":5059,"Tu":5060,"Først":5061,"spa":5062,"naturligt":5063,"søvn":5064,"gud":5065,"svin":5066,"programmer":5067,"iværk":5068,"hær":5069,"marker":5070,"ced":5071,"ægge":5072,"smid":5073,"Niels":5074,"smukt":5075,"dder":5076,"Lo":5077,"rang":5078,"ware":5079,"arbejdes":5080,"ron":5081,"foretaget":5082,"weekend":5083,"artikler":5084,"ody":5085,"relevant":5086,"Thomas":5087,"uddannelser":5088,"tillæg":5089,"iker":5090,"\u0000\u0000":5091,"tilladelse":5092,"bage":5093,"kamera":5094,"handlinger":5095,"stige":5096,"mund":5097,"eu":5098,"udgivet":5099,"regne":5100,"syntes":5101,"tilknyt":5102,"afsl":5103,"ondt":5104,"kammer":5105,"centrum":5106,"programmet":5107,"190":5108,"interessant":5109,"klager":5110,"back":5111,"bygningen":5112,"angreb":5113,"orte":5114,"følelser":5115,"skete":5116,"opbevar":5117,"spiser":5118,"ip":5119,"Folke":5120,"utrolig":5121,"tistik":5122,"dis":5123,"levitra":5124,"Uanset":5125,"samle":5126,"ight":5127,"offici":5128,"kortet":5129,"aly":5130,"plej":5131,"Bir":5132,"195":5133,"LE":5134,"46":5135,"sprøj":5136,"tim":5137,"interview":5138,"api":5139,"heldigvis":5140,"Kirke":5141,"fleksi":5142,"Fak":5143,"fortalte":5144,"gl":5145,"49":5146,"ativt":5147,"FC":5148,"adfærd":5149,"arkite":5150,"ftede":5151,"planen":5152,"kere":5153,"RE":5154,"stjer":5155,"skrig":5156,"Bel":5157,"lette":5158,"mur":5159,"fortsætte":5160,"toilet":5161,"matik":5162,"syg":5163,"abner":5164,"umiddelbart":5165,"begyndelsen":5166,"oftest":5167,"fødselsdag":5168,"Cop":5169,"orig":5170,"patient":5171,"garden":5172,"afgørelse":5173,"Miljø":5174,"rettigheder":5175,"annoncen":5176,"beliggende":5177,"aktuelle":5178,"aftalen":5179,"samtale":5180,"--":5181,"hotellet":5182,"overskud":5183,"politiet":5184,"Bemærk":5185,"udvikler":5186,"IF":5187,"radgiver":5188,"solgt":5189,"krist":5190,"tegne":5191,"restaurant":5192,"derimod":5193,"lane":5194,"asse":5195,"kasse":5196,"behandlingen":5197,"betingelser":5198,"tninger":5199,"familier":5200,"priori":5201,"fordele":5202,"overord":5203,"volver":5204,"emner":5205,"landets":5206,"vokat":5207,"metoder":5208,"ior":5209,"safremt":5210,"spørger":5211,"lavere":5212,"loven":5213,"terra":5214,"rummet":5215,"manu":5216,"designet":5217,"skues":5218,"Sjælland":5219,"anbefales":5220,"Erik":5221,"lavede":5222,"darligt":5223,"Dom":5224,"Uden":5225,"Produ":5226,"lægen":5227,"somradet":5228,"oo":5229,"pga":5230,"bragt":5231,"smuligheder":5232,"2005":5233,"enheder":5234,"vning":5235,"kus":5236,"Meget":5237,"eventuelle":5238,"metal":5239,"formen":5240,"klog":5241,"position":5242,"effektiv":5243,"abent":5244,"bæredyg":5245,"App":5246,"bevis":5247,"alderen":5248,"ola":5249,"Fort":5250,"interesseret":5251,"filer":5252,"tantra":5253,"bestyrelse":5254,"Kn":5255,"brun":5256,"47":5257,"tilsvarende":5258,"Rom":5259,"eden":5260,"favor":5261,"introdu":5262,"læger":5263,"placering":5264,"skabs":5265,"hid":5266,"danskere":5267,"sakaldte":5268,"maksi":5269,"arsager":5270,"Ru":5271,"sadanne":5272,"evalu":5273,"drømme":5274,"Bland":5275,"ilde":5276,"præsiden":5277,"smerter":5278,"strand":5279,"sælge":5280,"Ab":5281,"Ital":5282,"arrangementer":5283,"korte":5284,"origin":5285,"tillid":5286,"udarbejdet":5287,"erende":5288,"Micha":5289,"kok":5290,"havnen":5291,"involver":5292,"arbejdsmar":5293,"eventuelt":5294,"kandidat":5295,"yllu":5296,"toppen":5297,"dam":5298,"normal":5299,"forlæng":5300,"dengang":5301,"char":5302,"anten":5303,"syv":5304,"prøv":5305,"ong":5306,"Rad":5307,"vedkommende":5308,"universitet":5309,"elev":5310,"icap":5311,"naede":5312,"car":5313,"førende":5314,"udstyret":5315,"dagens":5316,"optaget":5317,"lagte":5318,"ætter":5319,"hjemmet":5320,"fornøj":5321,"Jac":5322,"Rus":5323,"sger":5324,"Tri":5325,"agne":5326,"betales":5327,"hyggelig":5328,"pum":5329,"skiftet":5330,"Roskilde":5331,"branchen":5332,"iP":5333,"Anders":5334,"varier":5335,"øjnene":5336,"rappor":5337,"leveres":5338,"itale":5339,"fornu":5340,"kirken":5341,"oni":5342,"leverer":5343,"beskrevet":5344,"udlandet":5345,"forstyr":5346,"DE":5347,"matisk":5348,"mandag":5349,"43":5350,"sports":5351,"milit":5352,"byggelse":5353,"klassiske":5354,"tæl":5355,"gtning":5356,"Kort":5357,"ressourcer":5358,"sent":5359,"metode":5360,"oplevet":5361,"ffer":5362,"Frankrig":5363,"fransk":5364,"tænkte":5365,"filmen":5366,"nøgne":5367,"virkninger":5368,"bul":5369,"Vand":5370,"ani":5371,"jy":5372,"nationale":5373,"fylder":5374,"sak":5375,"tænder":5376,"enes":5377,"tningen":5378,"Fil":5379,"klær":5380,"hygge":5381,"cook":5382,"muligvis":5383,"billige":5384,"forkert":5385,"sigtet":5386,"chokolade":5387,"omfattende":5388,"Fre":5389,"tivet":5390,"karriere":5391,"resultatet":5392,"Histor":5393,"ænk":5394,"kvalitets":5395,"praktik":5396,"bum":5397,"nis":5398,"ball":5399,"wi":5400,"bange":5401,"felt":5402,"seende":5403,"Martin":5404,"tilmel":5405,"ony":5406,"put":5407,"nerne":5408,"søgning":5409,"tekniske":5410,"PS":5411,"historiske":5412,".:":5413,"av":5414,"Kat":5415,"Google":5416,"Leg":5417,"Virk":5418,"arder":5419,"Skole":5420,"kendskab":5421,"Kvinde":5422,"link":5423,"Tran":5424,"fas":5425,"reen":5426,"tiltag":5427,"internettet":5428,"endvidere":5429,"Vide":5430,"disku":5431,"vaben":5432,"ometer":5433,"bemærk":5434,"følg":5435,"bespar":5436,"stalt":5437,"Ul":5438,"ovre":5439,"95":5440,"nyder":5441,"venlige":5442,"konstant":5443,"ligner":5444,"pens":5445,"levet":5446,"dal":5447,"institutioner":5448,"sørger":5449,"stranden":5450,"stere":5451,"ordningen":5452,"ofilm":5453,"hensigt":5454,"afhængig":5455,"foretage":5456,"maling":5457,"uddannet":5458,"ogn":5459,"frivillige":5460,"sprojek":5461,"miner":5462,"afdelingen":5463,"tingene":5464,"org":5465,"lingen":5466,"modne":5467,"VM":5468,"Øst":5469,"rens":5470,"soli":5471,"øjeblikket":5472,"forsøge":5473,"udlej":5474,"ceres":5475,"jet":5476,"Gi":5477,"dokumenter":5478,"vanza":5479,"Michael":5480,"cks":5481,"sektor":5482,"lene":5483,"41":5484,"mos":5485,"købte":5486,"selvstæn":5487,"søl":5488,"Ønske":5489,"afsk":5490,"down":5491,"foreninger":5492,"opper":5493,"dreng":5494,"MS":5495,"sædvan":5496,",\"":5497,"organisationer":5498,"mangel":5499,"prog":5500,"vejer":5501,"foretages":5502,"cirka":5503,"bryst":5504,"finger":5505,"spring":5506,"bh":5507,"udt":5508,"assi":5509,"bladet":5510,"opgaven":5511,"bøn":5512,"undersøge":5513,"kaldet":5514,"lerer":5515,"personligt":5516,"processen":5517,"date":5518,"sperio":5519,"stole":5520,"01":5521,"Føl":5522,"forholdet":5523,"specifik":5524,"stuen":5525,"ala":5526,"Fred":5527,"informationer":5528,"dagligt":5529,"kode":5530,"arbejdsgiver":5531,"professionelle":5532,"kurser":5533,"vivanza":5534,"anledning":5535,"Char":5536,"smæssig":5537,"vinduer":5538,"ick":5539,"bukser":5540,"læsning":5541,"europæiske":5542,"ara":5543,"Kultur":5544,"…]":5545,"arligt":5546,"oprette":5547,"ledere":5548,"hh":5549,"opfattelse":5550,"lex":5551,"praktiske":5552,"Vejle":5553,"mæn":5554,"BR":5555,"øve":5556,"indsigt":5557,"parkering":5558,"midten":5559,"hr":5560,"tilbehør":5561,"positiv":5562,"ledige":5563,"atør":5564,"elef":5565,"iz":5566,"vedligeholdelse":5567,"park":5568,"Ole":5569,"diag":5570,"dags":5571,"henholdsvis":5572,"slog":5573,"keborg":5574,"dybt":5575,"kjo":5576,"andel":5577,"Kur":5578,"udføre":5579,"sjove":5580,"[…]":5581,"sendte":5582,"slar":5583,"diverse":5584,"Randers":5585,"herre":5586,"falde":5587,"øen":5588,"bryllu":5589,"tykke":5590,"akt":5591,"hoteller":5592,"kald":5593,"styring":5594,"steret":5595,"Bolig":5596,"fugle":5597,"fing":5598,"situationer":5599,"undervisningen":5600,"aktivt":5601,"Børn":5602,"Ne":5603,"tir":5604,"kigger":5605,"omstæn":5606,"eringen":5607,"mørke":5608,"tille":5609,"hurtigere":5610,"behandler":5611,"Spørg":5612,"moden":5613,"brede":5614,"balance":5615,"dybe":5616,"gravid":5617,"OS":5618,"digitale":5619,"stillede":5620,"kommunal":5621,"institution":5622,",«":5623,"blok":5624,"italien":5625,"dannelse":5626,"ventil":5627,"anvendt":5628,"yderst":5629,"lært":5630,"bestemmelser":5631,"oprindelige":5632,"plat":5633,"uhel":5634,"tun":5635,"skort":5636,"vita":5637,"udføres":5638,"irri":5639,"galt":5640,"wer":5641,"overfla":5642,"lam":5643,"fløj":5644,"fortr":5645,"cia":5646,"graviditet":5647,"frygt":5648,"bure":5649,"centrale":5650,"nemme":5651,"aftenen":5652,"symptomer":5653,"ika":5654,"Mid":5655,"nærheden":5656,"særdeles":5657,"terape":5658,"kørt":5659,"perspek":5660,"ventet":5661,"facilitet":5662,"oversigt":5663,"EF":5664,"Wil":5665,"arene":5666,"htt":5667,"way":5668,"igh":5669,"Saf":5670,"hørte":5671,"sions":5672,"hverdagen":5673,"heraf":5674,"smerte":5675,"lit":5676,"Svend":5677,"varen":5678,"plus":5679,"ømm":5680,"refle":5681,"overveje":5682,"sørge":5683,"trykke":5684,"skam":5685,"beskriver":5686,"stav":5687,"iens":5688,"2004":5689,"stiger":5690,"litteratur":5691,"feltet":5692,"sorden":5693,"Jylland":5694,"heste":5695,"kalde":5696,"repar":5697,"nyeste":5698,"Bra":5699,"Opfyldt":5700,"Result":5701,"nul":5702,"radio":5703,"skolens":5704,"koordin":5705,"nyheds":5706,"Skri":5707,"linje":5708,"lim":5709,"fælle":5710,"egenskaber":5711,"fyn":5712,"ekst":5713,"Jesus":5714,"Kap":5715,"bio":5716,"central":5717,"Vin":5718,"klikke":5719,"kanten":5720,"yngre":5721,"eksempler":5722,"Øster":5723,"deltagelse":5724,"torsdag":5725,"mate":5726,"Energi":5727,"drejer":5728,"enige":5729,"Jer":5730,"kro":5731,"ansøgning":5732,"DF":5733,"deltagere":5734,"diskus":5735,"omgivelser":5736,"IP":5737,"but":5738,"boede":5739,"dækning":5740,"Norge":5741,"samarbejdet":5742,"OK":5743,"nedenfor":5744,"ura":5745,"skriften":5746,"drage":5747,"Træ":5748,"burg":5749,"Lou":5750,"plante":5751,"Virksomhed":5752,"minder":5753,"præget":5754,"kommunens":5755,"mede":5756,"fulgt":5757,"Red":5758,"bidrage":5759,"publikum":5760,"bringer":5761,"efteraret":5762,"vagt":5763,"opskrifter":5764,"Fælles":5765,"frie":5766,"Fal":5767,"stød":5768,"godkendelse":5769,"fornemm":5770,"præmi":5771,"hon":5772,"ana":5773,"Ren":5774,"Tro":5775,"cafe":5776,"rengøring":5777,"stret":5778,"kni":5779,"sigten":5780,"længde":5781,"undervejs":5782,"tilgængelige":5783,"foraret":5784,"behandlet":5785,"150":5786,"eventyr":5787,"vek":5788,"visen":5789,"derved":5790,"imøde":5791,"find":5792,"Mod":5793,"næv":5794,"ase":5795,"Poul":5796,"sløs":5797,"førsel":5798,"Esbjerg":5799,"arbejdsmiljø":5800,"ork":5801,"forklarer":5802,"abonne":5803,"modu":5804,"ømte":5805,"brow":5806,"swinger":5807,"ftes":5808,"afhænger":5809,"Herefter":5810,"Grund":5811,"præsident":5812,"info":5813,"indtryk":5814,"Anne":5815,"arealer":5816,"ya":5817,"ferien":5818,"biograf":5819,"lie":5820,"mæssige":5821,"hagen":5822,"sprogra":5823,"kæmp":5824,"køretøj":5825,"lings":5826,"udsat":5827,"registreret":5828,"eksklu":5829,"travl":5830,"Klik":5831,"ramt":5832,"pacitet":5833,"endt":5834,"Bri":5835,"beskytte":5836,"ambi":5837,"lip":5838,"kvaliteten":5839,"sub":5840,"prom":5841,"delses":5842,"ødet":5843,"DM":5844,"etableret":5845,"vurdere":5846,"almindeligt":5847,"dygtige":5848,"links":5849,"afholdt":5850,"skur":5851,"Jacob":5852,"melding":5853,"Thor":5854,"nærmeste":5855,"professionel":5856,"forvejen":5857,"bære":5858,"tanter":5859,"afsted":5860,"imple":5861,"mødt":5862,"blad":5863,"Sto":5864,"Deres":5865,"emne":5866,"roligt":5867,"problemet":5868,"Fer":5869,"illu":5870,"motiver":5871,"iserede":5872,"ørende":5873,"kunden":5874,"smand":5875,"Sw":5876,"morgenmad":5877,"Extra":5878,"85":5879,"forny":5880,"bureau":5881,"gy":5882,"gens":5883,"pyn":5884,"jær":5885,"kelige":5886,"føles":5887,"belast":5888,"spid":5889,"tø":5890,"undersøgelsen":5891,"Nation":5892,"bler":5893,"kemi":5894,"sæsonen":5895,"Arbejds":5896,"isere":5897,"indik":5898,"afgift":5899,"show":5900,"gymnasi":5901,"festival":5902,"unikke":5903,"kryds":5904,"inet":5905,"opdateret":5906,"udendørs":5907,"produktet":5908,"Vester":5909,"hø":5910,"søen":5911,"bror":5912,"naturlig":5913,"indstilling":5914,"lser":5915,"regning":5916,"brugerne":5917,"danne":5918,"forbe":5919,"givelse":5920,"kilometer":5921,"forplig":5922,"betæn":5923,"ost":5924,"dygtig":5925,"integr":5926,"ynam":5927,"mikro":5928,"spørgsmalet":5929,"ark":5930,"Foren":5931,"franske":5932,"langsomt":5933,"mængder":5934,"udvalgte":5935,"passende":5936,"hat":5937,"forestilling":5938,"objek":5939,"bely":5940,"kab":5941,"OP":5942,"KE":5943,"Tru":5944,"bert":5945,"konklu":5946,"Tekn":5947,"værktøjer":5948,"fremmest":5949,"angar":5950,"\":":5951,"størrelser":5952,"søster":5953,"Fe":5954,"cu":5955,"rabat":5956,"bit":5957,"Center":5958,"Dis":5959,"smør":5960,"Lands":5961,"hvoraf":5962,"edrag":5963,"stabil":5964,"motion":5965,"parter":5966,"skoven":5967,"camping":5968,"udviklings":5969,"effektivt":5970,"Hj":5971,"hørende":5972,"revision":5973,"respekt":5974,"dække":5975,"Mens":5976,"Udover":5977,"arbejdede":5978,"eleg":5979,"udnytte":5980,"Hav":5981,"attrak":5982,"dages":5983,"møbler":5984,"400":5985,"gla":5986,"Dy":5987,"://":5988,"scor":5989,"hvorvidt":5990,"musk":5991,"Fly":5992,"handicap":5993,"købes":5994,"billet":5995,"Italien":5996,"Dig":5997,"dokumentation":5998,"somrader":5999,"ome":6000,"sætningen":6001,"religi":6002,"besluttet":6003,"stammer":6004,"blade":6005,"sering":6006,"tic":6007,"klik":6008,"menu":6009,"lyset":6010,"certi":6011,"øder":6012,"tol":6013,"press":6014,"forega":6015,"able":6016,"fortj":6017,"balan":6018,"anne":6019,"karto":6020,"Derefter":6021,"ragt":6022,"konsekvenser":6023,"kommunale":6024,"Muse":6025,"gevin":6026,"ph":6027,"svare":6028,"vask":6029,"byggeri":6030,"homo":6031,"Can":6032,"look":6033,"onsdag":6034,"Lin":6035,"UD":6036,"relation":6037,"positive":6038,"endes":6039,"AC":6040,"kraftig":6041,"arden":6042,"SP":6043,"Sand":6044,"forventer":6045,"sionen":6046,"fordelt":6047,"bind":6048,"mæssigt":6049,"lænd":6050,"sags":6051,"kilde":6052,"svig":6053,"udnyt":6054,"harde":6055,"kritik":6056,"Ønsker":6057,"ynd":6058,"tyk":6059,"kontrakt":6060,"venligst":6061,"flygtning":6062,"juri":6063,"tilfældet":6064,"bryg":6065,"rettel":6066,"Famil":6067,"forsig":6068,"anvender":6069,"gulvet":6070,"drej":6071,"gennemføre":6072,"imm":6073,"handværk":6074,"overnat":6075,"sejr":6076,"Hold":6077,"Hvem":6078,"garn":6079,"Skov":6080,"Lille":6081,"medlems":6082,"Hele":6083,"reser":6084,"mands":6085,"besæt":6086,"Lej":6087,"England":6088,"kund":6089,"pænt":6090,"mødte":6091,"Blandt":6092,"kompon":6093,"love":6094,"Mænd":6095,"troede":6096,"ference":6097,"somrade":6098,"isme":6099,"disp":6100,"Viborg":6101,"foder":6102,"pool":6103,"søges":6104,"bonus":6105,"lovgivning":6106,"TR":6107,"ateret":6108,"kong":6109,"tips":6110,"etter":6111,"Figur":6112,"pligt":6113,"fremstillet":6114,"prop":6115,"plig":6116,"Søger":6117,"friske":6118,"tilgang":6119,"Larsen":6120,"enhagen":6121,"varende":6122,"besluttede":6123,"ældste":6124,"Ele":6125,"bryder":6126,"maskinen":6127,"virkede":6128,"benytter":6129,"nødvendigvis":6130,"rest":6131,"blanding":6132,"træer":6133,"orga":6134,"traditionelle":6135,"Første":6136,"færdige":6137,"medarbejderne":6138,"græs":6139,"Børne":6140,"anmeldelser":6141,"foruren":6142,"slan":6143,"Sundheds":6144,"grav":6145,"ladt":6146,"Dem":6147,"tilfredsstil":6148,"staten":6149,"benyttes":6150,"Pedersen":6151,"snakke":6152,"skyg":6153,"vidunder":6154,"Kla":6155,"fiske":6156,"klokken":6157,"sch":6158,"creme":6159,"Bestyrelsen":6160,"Sag":6161,"følte":6162,"turner":6163,"Kolding":6164,"røv":6165,"restauranter":6166,"asy":6167,"udfordring":6168,"klassen":6169,"ryggen":6170,"Jesper":6171,"ail":6172,"tidlig":6173,"svenske":6174,"sølv":6175,"AND":6176,"ændres":6177,"cookies":6178,"røg":6179,"planlægning":6180,"virksomhedens":6181,"væsentligt":6182,"gaden":6183,"hæve":6184,"ungdoms":6185,"ms":6186,"brænde":6187,"elektri":6188,"Piger":6189,"fremtid":6190,"88":6191,"dru":6192,"hval":6193,"bevil":6194,"Marie":6195,"opskrift":6196,"Tryk":6197,"ssel":6198,"lund":6199,"føje":6200,"foranstalt":6201,"66":6202,"SF":6203,"billigt":6204,"Inds":6205,"ordet":6206,"vestlige":6207,"Kl":6208,"Ter":6209,"forældrene":6210,"Mer":6211,"plader":6212,"osof":6213,"Guds":6214,"nak":6215,"bløde":6216,"haret":6217,"demokrati":6218,"stigning":6219,"spri":6220,"kollega":6221,"bragte":6222,"overflade":6223,"foreningens":6224,"juster":6225,"teknik":6226,"eksamen":6227,"tunge":6228,"skilt":6229,"usikker":6230,"tabel":6231,"Je":6232,"Morten":6233,"interesser":6234,"regeringen":6235,"eld":6236,"tirsdag":6237,"markant":6238,"splad":6239,"helbred":6240,"vsel":6241,"myndigheder":6242,"naet":6243,"casino":6244,"sj":6245,"Kunst":6246,"opført":6247,"tekster":6248,"ønsket":6249,"lukke":6250,"lejligheder":6251,"arv":6252,"aa":6253,"oprettet":6254,"cering":6255,"forslaget":6256,"pkt":6257,"smøde":6258,"agement":6259,"vurderer":6260,"komm":6261,"2003":6262,"kombination":6263,"sving":6264,"hjertet":6265,"afholdes":6266,"skønt":6267,"arlige":6268,"ejendommen":6269,"not":6270,"hit":6271,"Rej":6272,"rester":6273,"Tant":6274,"faciliteter":6275,"Lov":6276,"olu":6277,"Pl":6278,".«":6279,"personalet":6280,"krimin":6281,"argu":6282,"øjet":6283,"fungere":6284,"folket":6285,"pause":6286,"øret":6287,"Brøn":6288,"oget":6289,"IC":6290,"spred":6291,"kompetence":6292,"ryd":6293,"tilpasse":6294,"agerer":6295,"døre":6296,"produktionen":6297,"ite":6298,"tilrettel":6299,"faglig":6300,"deltog":6301,"sorti":6302,"samler":6303,"Jak":6304,"trænings":6305,"TER":6306,"opdage":6307,"halvdelen":6308,"vang":6309,"inkl":6310,"drøm":6311,"rab":6312,"handtere":6313,"pavirke":6314,"ondon":6315,"Nik":6316,"dring":6317,"rente":6318,"Udvikl":6319,"Wor":6320,"besøger":6321,"eksperi":6322,"tilgængelig":6323,"frø":6324,"varsel":6325,"sælges":6326,"mave":6327,"vælges":6328,"meddelelse":6329,"vundet":6330,"cc":6331,"anlægget":6332,"cip":6333,"ford":6334,"svære":6335,"Tom":6336,"total":6337,"Tre":6338,"don":6339,"Ke":6340,"56":6341,"endelige":6342,"TIL":6343,"forbruger":6344,"behandles":6345,"generelle":6346,"webshop":6347,"positivt":6348,"komne":6349,"beskæftigelse":6350,"Born":6351,"arhundrede":6352,"Mari":6353,"lavt":6354,"oversku":6355,"pot":6356,"**":6357,"bestemte":6358,"berør":6359,"russi":6360,"skærmen":6361,"DKK":6362,"fikke":6363,"Bogen":6364,"solen":6365,"hest":6366,"lytte":6367,"forventninger":6368,"Bus":6369,"kiatri":6370,"sekret":6371,"munden":6372,"cens":6373,"tens":6374,"max":6375,"krops":6376,"vokser":6377,"abet":6378,"downlo":6379,"vnen":6380,"faktorer":6381,"svaret":6382,"garan":6383,"formation":6384,"fede":6385,"amatør":6386,"iland":6387,"sofa":6388,"husker":6389,"sation":6390,"rart":6391,"spolitik":6392,"styk":6393,"nøgle":6394,"klubber":6395,"mælk":6396,"enskom":6397,"kiggede":6398,"Lær":6399,"Nat":6400,"hypp":6401,"Bek":6402,"advokat":6403,"Aut":6404,"Kal":6405,"laves":6406,"døds":6407,"grænsen":6408,"kapitel":6409,"ævnet":6410,"indled":6411,"teknisk":6412,"EC":6413,"flø":6414,"EG":6415,"befinder":6416,"Mette":6417,"ætte":6418,"resul":6419,"relativt":6420,"Nørre":6421,"Privat":6422,"mentere":6423,"produceret":6424,"pes":6425,"Met":6426,"godkende":6427,"brugs":6428,"Pu":6429,"skifter":6430,"befolkning":6431,"forment":6432,"UR":6433,"kræves":6434,"bæl":6435,"darlige":6436,"AK":6437,"trukket":6438,"bisk":6439,"hæl":6440,"givende":6441,"IM":6442,"gardin":6443,"inspireret":6444,"mass":6445,"Ban":6446,"virket":6447,"nyheder":6448,"museum":6449,"genhed":6450,"Hør":6451,"cykler":6452,"foredrag":6453,"ingred":6454,"etisk":6455,"Dr":6456,"forum":6457,"svej":6458,"Bal":6459,"siges":6460,"bevare":6461,"64":6462,"1000":6463,"adskillige":6464,"fremover":6465,"Tantra":6466,"moms":6467,"ror":6468,"utroligt":6469,"fornuf":6470,"maven":6471,"oritet":6472,"regnes":6473,"køkkenet":6474,"styrker":6475,"Arbejd":6476,"døgn":6477,"ign":6478,"risikoen":6479,"forfat":6480,"samtlige":6481,"abning":6482,"pornofilm":6483,"statistik":6484,"hjel":6485,"perioder":6486,"evig":6487,"ards":6488,"butikken":6489,"besvær":6490,"betragt":6491,"berettig":6492,"Lau":6493,"ith":6494,"rapporten":6495,"hyggelige":6496,"Sommer":6497,"kræve":6498,"Dej":6499,"lerende":6500,"fornøjelse":6501,"modstand":6502,"uret":6503,"telsen":6504,"edag":6505,"danner":6506,"angst":6507,"ylling":6508,"Web":6509,"udseende":6510,"historisk":6511,"borgerne":6512,"træde":6513,"øvelser":6514,"gebyr":6515,"Paris":6516,"bens":6517,"brem":6518,"avan":6519,"dame":6520,"udenlandske":6521,"sna":6522,"smartp":6523,"aber":6524,"Em":6525,"pakker":6526,"52":6527,"utal":6528,"London":6529,"%.":6530,"telefoner":6531,"adres":6532,"chance":6533,"flyttet":6534,"Dit":6535,"fortsatte":6536,"overbe":6537,"vurderes":6538,"parørende":6539,"Port":6540,"stjerner":6541,"specifikke":6542,"indret":6543,"egner":6544,"bydes":6545,"relationer":6546,"beslutninger":6547,"akut":6548,"jap":6549,"Helt":6550,"oplæg":6551,"gavn":6552,"samtaler":6553,"engelske":6554,"holdene":6555,"Fær":6556,"hastighed":6557,"Silkeborg":6558,"smateri":6559,"tendens":6560,"Film":6561,"sign":6562,"klæde":6563,"retningslin":6564,"kalender":6565,"værksted":6566,"smeto":6567,"spær":6568,"Christensen":6569,"bekendtgørelse":6570,"underviser":6571,"afslutning":6572,"kines":6573,"Især":6574,"Indi":6575,"medfører":6576,"forskellig":6577,"sengen":6578,"oblig":6579,"pad":6580,"medie":6581,"gent":6582,"parken":6583,"baner":6584,"kategori":6585,"Dating":6586,"omstændigheder":6587,"indgaet":6588,"Vis":6589,"repræsentant":6590,"Bank":6591,"læste":6592,"kommunerne":6593,"bygnings":6594,"frist":6595,"Nic":6596,"Ekstra":6597,"klip":6598,"motiv":6599,"eftermiddag":6600,"Rasmussen":6601,"konge":6602,"lærere":6603,"anien":6604,"Hje":6605,"kommentarer":6606,"vilje":6607,"Bog":6608,"ressource":6609,"AP":6610,"Col":6611,"lens":6612,"sygeplejer":6613,"besøgende":6614,"gal":6615,"studier":6616,"brugen":6617,"esel":6618,"væsentlige":6619,"byggede":6620,"ligeg":6621,"Safremt":6622,"Gam":6623,"«.":6624,"bakter":6625,"jor":6626,"fremtidige":6627,"abonnement":6628,"tjener":6629,"NING":6630,"pigerne":6631,"telefonen":6632,"Sær":6633,"infek":6634,"erotiske":6635,".-":6636,"Lø":6637,"ledelsen":6638,"stimu":6639,"soldat":6640,"Spørgsmal":6641,"ykke":6642,"hertil":6643,"spurgt":6644,"nysger":6645,"tales":6646,"dne":6647,"basis":6648,"pavirker":6649,"kapacitet":6650,"tral":6651,"vanskelig":6652,"miljøet":6653,"seksuel":6654,"individuelle":6655,"krigen":6656,"ros":6657,"erstatning":6658,"filosof":6659,"ændrer":6660,"Kong":6661,"Bornholm":6662,"afdelinger":6663,"klassisk":6664,"afrik":6665,"mekan":6666,"dragelse":6667,"passet":6668,"Horsens":6669,"indeholde":6670,"forsyning":6671,"AV":6672,"Rød":6673,"visu":6674,"adal":6675,"fagligt":6676,"øverste":6677,"kontant":6678,"rimelig":6679,"nøjag":6680,"bekræ":6681,"pren":6682,"missionen":6683,"’,":6684,"Pris":6685,"alternativ":6686,"elske":6687,"ition":6688,"Hels":6689,"huller":6690,"):":6691,"situationen":6692,"Eksemp":6693,"direk":6694,"forretnings":6695,"tørre":6696,"ødt":6697,"Bud":6698,"album":6699,"ena":6700,"sendelse":6701,"etiske":6702,"Faktisk":6703,"cker":6704,"skraft":6705,"you":6706,"Knud":6707,"kug":6708,"Air":6709,"180":6710,"værdig":6711,"Kina":6712,"enig":6713,"sprodu":6714,"Ham":6715,"Desværre":6716,"favorit":6717,"frig":6718,"2001":6719,"vokset":6720,"modsætning":6721,"hemmelig":6722,"LED":6723,"sikring":6724,"refer":6725,"fødevarer":6726,"gumm":6727,"ili":6728,"hjerne":6729,"iør":6730,"indrettet":6731,"que":6732,"forelig":6733,"indkomst":6734,"administr":6735,"begrun":6736,"asser":6737,"gangs":6738,"Dermed":6739,"58":6740,"2002":6741,"omen":6742,"Godt":6743,"Menne":6744,"overordnede":6745,"Eli":6746,"landskab":6747,"iets":6748,"betegn":6749,"bygges":6750,"ampe":6751,"PC":6752,"bestyrelses":6753,"overenskom":6754,"veninde":6755,"Maria":6756,"terapi":6757,"multi":6758,"DB":6759,"klasser":6760,"Cha":6761,"handtering":6762,"hellere":6763,"57":6764,"medmindre":6765,"98":6766,"ruppen":6767,"ye":6768,"oteket":6769,"flyve":6770,"urer":6771,"revisor":6772,"anses":6773,"tilføje":6774,"fremad":6775,"deltagerne":6776,"Erhvervs":6777,"Krist":6778,"Musik":6779,"fæn":6780,"numre":6781,"fare":6782,"billederne":6783,"wa":6784,"hjørne":6785,"ØR":6786,"onde":6787,"rummer":6788,"skibe":6789,"lukkede":6790,"færdigheder":6791,"Ref":6792,"hæv":6793,"maskin":6794,"Sig":6795,"Ero":6796,"ogne":6797,"kvartal":6798,"dagsorden":6799,"nødvendig":6800,"helhed":6801,"barnets":6802,"vægge":6803,"behagelig":6804,"fryg":6805,"tilstede":6806,"hals":6807,"lykkes":6808,"redskaber":6809,"indretning":6810,"badeværelse":6811,"fili":6812,"OB":6813,"artner":6814,"tanken":6815,"bidrager":6816,"fulgte":6817,"effektive":6818,"ctor":6819,"ppen":6820,"beregnet":6821,"erklær":6822,"bile":6823,"fjerde":6824,"formentlig":6825,"Endelig":6826,"leverandør":6827,"billigere":6828,"Strand":6829,"normale":6830,"maneden":6831,"ismen":6832,"bandet":6833,"arrangement":6834,"højst":6835,"perne":6836,"serveret":6837,"bloggen":6838,"instrukt":6839,"omsorg":6840,"opfylder":6841,"holdende":6842,"Sport":6843,"hunden":6844,"abnede":6845,"uf":6846,"Sæ":6847,"jun":6848,"angivet":6849,"befolkningen":6850,"Undersøg":6851,"sigter":6852,"Mang":6853,"Sikker":6854,"begra":6855,"Ejendom":6856,"if":6857,"FR":6858,"m2":6859,"træne":6860,"tilladt":6861,"67":6862,"humør":6863,"Klub":6864,"wo":6865,"vands":6866,"ficere":6867,"You":6868,"Forslag":6869,"skor":6870,"forskelligt":6871,"socialt":6872,"Top":6873,"68":6874,"Velkommen":6875,"forsin":6876,"etc":6877,"stel":6878,"bber":6879,"dekor":6880,"fortalt":6881,"kunderne":6882,"forhandling":6883,"panel":6884,"Stud":6885,"ley":6886,"Folketing":6887,"National":6888,"angen":6889,"bt":6890,"kæmper":6891,"peger":6892,"stationer":6893,"foreløb":6894,"cla":6895,"Økonom":6896,"fængsel":6897,"komplek":6898,"tlf":6899,"personen":6900,"opfyldt":6901,"slæg":6902,"Nye":6903,"dertil":6904,"bryde":6905,"planlagt":6906,"Service":6907,"Mun":6908,"atmos":6909,"iness":6910,"sæn":6911,"liter":6912,"datab":6913,"teater":6914,"hug":6915,"ydelse":6916,"gelsen":6917,"fortælling":6918,"Mine":6919,"mg":6920,"teori":6921,"Kø":6922,"sministeriet":6923,"Pal":6924,"As":6925,"mæg":6926,"fekt":6927,"Blu":6928,"Hvid":6929,"slovens":6930,"nævnes":6931,"samarbejdsp":6932,"vært":6933,"trivsel":6934,"dtryk":6935,"grundigt":6936,"forhandler":6937,"teksten":6938,"nedsat":6939,"Formalet":6940,"illa":6941,"tilfredse":6942,"OD":6943,"59":6944,"opfylde":6945,"afspej":6946,"vention":6947,"Herning":6948,"Star":6949,"ona":6950,"kopi":6951,"glob":6952,"veksl":6953,"lof":6954,"lyde":6955,"flyttede":6956,"bestilling":6957,"andina":6958,"KL":6959,"udbyder":6960,"jser":6961,"sson":6962,"ovenstaende":6963,"ving":6964,"nien":6965,"beretning":6966,"begej":6967,"demon":6968,"odense":6969,"erotisk":6970,"timers":6971,"’.":6972,"varmen":6973,"betalings":6974,"mulighederne":6975,"anmeldelse":6976,"tilstrækkelig":6977,"luften":6978,"Ofte":6979,"Frederiksberg":6980,"stration":6981,"rere":6982,"vent":6983,"lun":6984,"hjemmesider":6985,"69":6986,"forsikrings":6987,"sagn":6988,"berettiget":6989,"kolde":6990,"fortol":6991,"løfte":6992,"Ger":6993,"Besk":6994,"Pla":6995,"noveller":6996,"77":6997,"forhøj":6998,"værste":6999,"ular":7000,"visnings":7001,"kager":7002,"størrelsen":7003,"jyske":7004,"Sundhed":7005,"besid":7006,"arbejdsplads":7007,"identitet":7008,"ane":7009,"mas":7010,"Begge":7011,"prim":7012,"medlemmerne":7013,"spænding":7014,"forar":7015,"specielle":7016,"magas":7017,"kendet":7018,"ryt":7019,"ksus":7020,"svag":7021,"http":7022,"Gro":7023,"terende":7024,"beton":7025,"smager":7026,"værdien":7027,"ansvaret":7028,"funda":7029,"lister":7030,"slot":7031,"body":7032,"foranstaltninger":7033,"fyldte":7034,"indebærer":7035,"vative":7036,"kyst":7037,"Spil":7038,"54":7039,"fornemmelse":7040,"amerikansk":7041,"ægteskab":7042,"præcist":7043,"aktør":7044,"havne":7045,"konsulent":7046,"flugt":7047,"understre":7048,"beliggenhed":7049,"ule":7050,"sange":7051,"erings":7052,"Jakob":7053,"etn":7054,"assen":7055,"Mads":7056,"imponer":7057,"indsatsen":7058,"siske":7059,"low":7060,"psykisk":7061,"Finan":7062,"PA":7063,"løser":7064,"halvt":7065,"fremstilling":7066,"niveauet":7067,"lokaler":7068,"hidtil":7069,"behandle":7070,"væske":7071,"glat":7072,"selvstændig":7073,"Helsing":7074,"sites":7075,"kasser":7076,"firmaet":7077,"kyn":7078,"Nøg":7079,"bestemme":7080,"ssik":7081,"VI":7082,"visninger":7083,"videnskabelige":7084,"sandsynligvis":7085,"eladende":7086,"kunnet":7087,"bagefter":7088,"oplyst":7089,"Jon":7090,"Pe":7091,"hailand":7092,"Hendes":7093,"adalafil":7094,"næppe":7095,"proced":7096,"SU":7097,"koldt":7098,"DC":7099,"sildenafil":7100,"centret":7101,"ita":7102,"hvori":7103,"arranger":7104,"alvorligt":7105,"skyde":7106,"match":7107,"die":7108,"Sidst":7109,"abnet":7110,"luk":7111,"kriter":7112,"lyk":7113,"ose":7114,"slippe":7115,"front":7116,"forsøgte":7117,"trænger":7118,"medføre":7119,"browser":7120,"optag":7121,"Don":7122,"Video":7123,"TE":7124,"600":7125,"ice":7126,"ovens":7127,"vle":7128,"Wind":7129,"beder":7130,"nel":7131,"imens":7132,"Tal":7133,"koncert":7134,"«,":7135,"nik":7136,"ante":7137,"regner":7138,"politikere":7139,"regnet":7140,"banken":7141,"stoff":7142,"element":7143,"Verden":7144,"dukker":7145,"yog":7146,"niveauer":7147,"ovnen":7148,"udkig":7149,"vinteren":7150,"Valg":7151,"sien":7152,"cal":7153,"ney":7154,"uter":7155,"malrettet":7156,"skrivning":7157,"prakti":7158,"træng":7159,"duft":7160,"una":7161,"ash":7162,"72":7163,"stopper":7164,"draget":7165,"forskere":7166,"51":7167,"bega":7168,"flad":7169,"søgte":7170,"munes":7171,"Møller":7172,"graf":7173,"sæde":7174,"hentet":7175,"opsta":7176,"Qu":7177,"fræ":7178,"mister":7179,"salat":7180,"entlig":7181,"virkelighed":7182,"svarede":7183,"givningen":7184,"andres":7185,"evner":7186,"samtidigt":7187,"vegne":7188,"flytter":7189,"skuespiller":7190,"serende":7191,"tusind":7192,"pre":7193,"orer":7194,"ingredien":7195,"forbered":7196,"dsjælland":7197,"slæ":7198,"knu":7199,"sevær":7200,"arbejdspladser":7201,"Mellem":7202,"behageligt":7203,"pus":7204,"indvand":7205,"mæssig":7206,"betændelse":7207,"kold":7208,"tadalafil":7209,"blan":7210,"umuligt":7211,"09":7212,"tz":7213,"My":7214,"dec":7215,"betjening":7216,"vejleder":7217,"Lund":7218,"rejsen":7219,"kompli":7220,"flygtninge":7221,"forklare":7222,"250":7223,"driv":7224,"boo":7225,"førelsen":7226,"bevæger":7227,"gyn":7228,"ovenfor":7229,"istik":7230,"kassen":7231,"Do":7232,"arkitekt":7233,"gir":7234,"international":7235,"knappen":7236,"Endvidere":7237,"bemærke":7238,"Forsk":7239,"billetter":7240,"kontin":7241,"slutter":7242,"Rusland":7243,"væggen":7244,"kreative":7245,"free":7246,"smit":7247,"53":7248,"udbytte":7249,"drive":7250,"Pol":7251,"misk":7252,"ora":7253,"Kim":7254,"belæg":7255,"ulle":7256,"Antal":7257,"slappe":7258,"novation":7259,"fikation":7260,"initia":7261,"fange":7262,"flok":7263,"herom":7264,"Ap":7265,"processer":7266,"falds":7267,"dynam":7268,"pande":7269,"bevæge":7270,"aftalt":7271,"fyre":7272,"berømte":7273,"drevet":7274,"Isra":7275,"Stør":7276,"BE":7277,"opnaet":7278,"single":7279,"gran":7280,"York":7281,"arrang":7282,"tidspunktet":7283,"pin":7284,"atorer":7285,"Lokal":7286,"meg":7287,"brænder":7288,"forandring":7289,"kvindelige":7290,"rust":7291,"symbol":7292,"Sæt":7293,"forsøgt":7294,"dannet":7295,"stolt":7296,"bøj":7297,"koncentr":7298,"vardenafil":7299,"kaste":7300,"signal":7301,"landsk":7302,"heldig":7303,"Folk":7304,"tilbag":7305,"operation":7306,"kraftigt":7307,"fanget":7308,"stider":7309,"villa":7310,"psykolog":7311,"diskret":7312,"mia":7313,"alu":7314,"jakke":7315,"enkle":7316,"volu":7317,"Nyt":7318,"Berlin":7319,"aka":7320,"værks":7321,"sekunder":7322,"jur":7323,"weekenden":7324,"smidler":7325,"TS":7326,"Xtra":7327,"08":7328,"forbud":7329,"forars":7330,"Vol":7331,"dimen":7332,"sunde":7333,"staden":7334,"06":7335,"trans":7336,"sommerhus":7337,"ION":7338,"revolu":7339,"Lyng":7340,"ancer":7341,"tilsynet":7342,"box":7343,"derer":7344,"Altsa":7345,"kshop":7346,"lærte":7347,"Lind":7348,"jerne":7349,"Job":7350,"reak":7351,"foretrækker":7352,"tide":7353,"stiden":7354,"Mis":7355,"skidt":7356,"arbejdsmarkedet":7357,"pædagogiske":7358,"forvente":7359,"Nordjylland":7360,"skaffe":7361,"agram":7362,"optimer":7363,"beboere":7364,"nøje":7365,"kjole":7366,"forbere":7367,"kreds":7368,"Sti":7369,"præsentere":7370,"købet":7371,"Ken":7372,"primære":7373,"tilbydes":7374,"brudt":7375,"sau":7376,"bevægelser":7377,"Park":7378,"yndighed":7379,"komplet":7380,"industrien":7381,"tabt":7382,"organisationen":7383,"styrelsens":7384,"trom":7385,"præst":7386,"andinavi":7387,"afsluttet":7388,"tjenester":7389,"tilsyneladende":7390,"yst":7391,"Island":7392,"boligen":7393,"offentligt":7394,"startet":7395,"aug":7396,"Post":7397,"investering":7398,"Slag":7399,"rur":7400,"venligt":7401,"rulle":7402,"mængden":7403,"forudsætning":7404,"gear":7405,"lunde":7406,"recep":7407,"Unge":7408,"senge":7409,"fordeling":7410,"oplysning":7411,"faca":7412,"udtal":7413,"ulov":7414,"husk":7415,".[":7416,"paf":7417,"finansiering":7418,"klæder":7419,"installa":7420,"gennemføres":7421,"Wi":7422,"Lever":7423,"2019":7424,"aspek":7425,"radi":7426,"aktier":7427,"golf":7428,"reaktion":7429,"stent":7430,"konstruktion":7431,"integra":7432,"overalt":7433,"fotos":7434,"imponerende":7435,"tilhørende":7436,"muskel":7437,"menuen":7438,"tradte":7439,"fastsat":7440,"chi":7441,"geren":7442,"officielle":7443,"svensk":7444,"senior":7445,"fet":7446,"sed":7447,"henvendelse":7448,"Bilag":7449,"himmel":7450,"fødder":7451,"generalforsamlingen":7452,"tellig":7453,"modning":7454,"Fag":7455,"Paul":7456,"oprindeligt":7457,"blow":7458,"indtægter":7459,"dommer":7460,"prøvede":7461,"konver":7462,"Sørensen":7463,"driver":7464,"bestaende":7465,"dret":7466,"perspektiv":7467,"ping":7468,"Jørgensen":7469,"Sten":7470,"mønster":7471,"atom":7472,"køl":7473,"Næste":7474,"titel":7475,"Ellers":7476,"smat":7477,"kortere":7478,"Bl":7479,"mændene":7480,"beklæ":7481,"Glo":7482,"stern":7483,"fugt":7484,"enormt":7485,"sninger":7486,"tvang":7487,"celle":7488,"Gre":7489,"begivenheder":7490,"registrering":7491,"støt":7492,"CD":7493,"ano":7494,"otor":7495,"78":7496,"rift":7497,"uafhængigt":7498,"PL":7499,"iPhone":7500,"abenbart":7501,"Psy":7502,"rod":7503,"ordentligt":7504,"træffe":7505,"koncent":7506,"understøtte":7507,"betyd":7508,"sakaldt":7509,"modtog":7510,"aftens":7511,"ats":7512,"Noget":7513,"icia":7514,"øvelse":7515,"zone":7516,"ube":7517,"feb":7518,"Log":7519,"kvinden":7520,"ica":7521,"Spanien":7522,"tryghed":7523,"levede":7524,"skønhed":7525,"hallen":7526,"sia":7527,"kristne":7528,"Bjer":7529,"fase":7530,"terrasse":7531,"indbyg":7532,"HD":7533,"udvalgt":7534,"vitamin":7535,"travlt":7536,"leverandører":7537,"tøjet":7538,"betragtes":7539,"livsstil":7540,"administration":7541,"markeder":7542,"Gør":7543,"sproble":7544,"tættere":7545,"aterne":7546,"vindue":7547,"peber":7548,"egi":7549,"oplagt":7550,"distrik":7551,"selskabets":7552,"eksperter":7553,"benene":7554,"ows":7555,"pasning":7556,"xe":7557,"kontakter":7558,"Græ":7559,"elskede":7560,"barhed":7561,"virksomhederne":7562,"nyere":7563,"drifts":7564,"sov":7565,"fradrag":7566,"Jap":7567,"Nem":7568,"etablering":7569,"professor":7570,"City":7571,"forbund":7572,"pud":7573,"ferencer":7574,"studen":7575,"borgmester":7576,"Prøv":7577,"præg":7578,"taske":7579,"orgasme":7580,"Ord":7581,"talent":7582,"stolen":7583,"reducere":7584,"tjekke":7585,"Hvilke":7586,"forme":7587,"allergi":7588,"Tabel":7589,"رررررررر":7590,"priserne":7591,"stak":7592,"Real":7593,"rejste":7594,"morgenen":7595,"kilder":7596,"teknolog":7597,"col":7598,"Saledes":7599,"maltid":7600,"Heldigvis":7601,"repræsentanter":7602,"62":7603,"reelt":7604,"modellen":7605,"temmelig":7606,"opvarm":7607,"ankom":7608,"skrivelse":7609,"virksomheds":7610,"software":7611,"ml":7612,"Tan":7613,"kategorier":7614,"emnet":7615,"splads":7616,"als":7617,"lokalt":7618,"vine":7619,"opslag":7620,"Bare":7621,"rader":7622,"etablere":7623,"regionen":7624,"menteret":7625,"fære":7626,"smodel":7627,"samfunds":7628,"overvag":7629,"syre":7630,"Regi":7631,"well":7632,"onom":7633,"formanden":7634,"skære":7635,"opbevaring":7636,"stærkere":7637,"reflek":7638,"cro":7639,"Yder":7640,"fritid":7641,"samlinger":7642,"cover":7643,"Liges":7644,"modstan":7645,"Hjæl":7646,"etik":7647,"barndom":7648,"ns":7649,"forklaring":7650,"pumpe":7651,"imer":7652,"rute":7653,"tto":7654,"bryllup":7655,"forhind":7656,"05":7657,"funktionen":7658,"skrav":7659,"yllands":7660,"'.":7661,"Kra":7662,"Grønland":7663,"hverdage":7664,"ligesa":7665,"køns":7666,"bringes":7667,"begrebet":7668,"skibet":7669,"Pi":7670,"appar":7671,"bibliotek":7672,"behandlings":7673,"GE":7674,"Data":7675,"zza":7676,"okt":7677,"tiger":7678,"spilde":7679,"farvet":7680,"fragt":7681,"astrup":7682,"bolden":7683,"diagno":7684,"SM":7685,"opholds":7686,"Helsingør":7687,"verne":7688,"behandlinger":7689,"forhab":7690,"ox":7691,"tilstrækkeligt":7692,"analyser":7693,"flertal":7694,"ction":7695,"gers":7696,"ethvert":7697,"udfører":7698,"opgør":7699,"Alex":7700,"fjernet":7701,"vogne":7702,"Camp":7703,"matiske":7704,"personlighed":7705,"Syge":7706,"alvorlige":7707,"',":7708,"boet":7709,"initiativ":7710,"make":7711,"forskelle":7712,"GR":7713,"188":7714,"bbe":7715,"brugeren":7716,"samtykke":7717,"ideen":7718,"Æn":7719,"hænderne":7720,"sut":7721,"slid":7722,"hurtige":7723,"flag":7724,"opnar":7725,"beløbet":7726,"gram":7727,"ventede":7728,"Midtjylland":7729,"kobl":7730,"NE":7731,"depres":7732,"\u0000\u0000\u0000\u0000":7733,"Let":7734,"Max":7735,"forsker":7736,"spunktet":7737,"bakke":7738,"titlen":7739,"besøgte":7740,"misbrug":7741,"forholdsvis":7742,"skabte":7743,"vedtaget":7744,"svømme":7745,"strikke":7746,"aktører":7747,"vokse":7748,"optagelse":7749,"dejen":7750,"02":7751,"reder":7752,"forlængelse":7753,"tablet":7754,"120":7755,"Næst":7756,"Morgen":7757,"handels":7758,"firmaer":7759,"producenter":7760,"Middel":7761,"rolig":7762,"aalborg":7763,"Proble":7764,"07":7765,"oen":7766,"flest":7767,"samarbejder":7768,"stren":7769,"trop":7770,"luksus":7771,"ansøger":7772,"fasc":7773,"Chi":7774,"fremhæ":7775,"verdenen":7776,"prem":7777,"lovens":7778,"respon":7779,"mølle":7780,"øbet":7781,"implementer":7782,"udvidet":7783,"anbefalinger":7784,"Va":7785,"ædvan":7786,"tilknyttet":7787,"rut":7788,"vanskeligt":7789,"kvarter":7790,"amet":7791,"CV":7792,"pasta":7793,"æst":7794,"Sidste":7795,"63":7796,"flaske":7797,"hjemmela":7798,"OT":7799,"bedt":7800,"Anna":7801,"speciel":7802,"benyt":7803,"stam":7804,"eje":7805,"danskerne":7806,"Projektet":7807,"bytte":7808,"alerne":7809,"armen":7810,"veks":7811,"vaner":7812,"discip":7813,"elektronisk":7814,"dans":7815,"fattig":7816,"foresla":7817,"barne":7818,"Museum":7819,"humor":7820,"oplyser":7821,"siddende":7822,"hermed":7823,"Sor":7824,"strid":7825,"sortiment":7826,"sle":7827,"IKKE":7828,"Fru":7829,"alli":7830,"sikret":7831,"inerende":7832,"partier":7833,"breve":7834,"Eg":7835,"sante":7836,"holdninger":7837,"ømt":7838,"glemt":7839,"centre":7840,"ødelæg":7841,"militær":7842,"betydelig":7843,"And":7844,"blandet":7845,"pperne":7846,"Start":7847,"krydder":7848,"sso":7849,"ekstremt":7850,"tradi":7851,"forpligtende":7852,"Fant":7853,"forstaet":7854,"idag":7855,"kylling":7856,"sejl":7857,"udi":7858,"smel":7859,"understøtter":7860,"nedenstaende":7861,"diskussion":7862,"seværdigheder":7863,"Øv":7864,"galler":7865,"skum":7866,"betød":7867,"slik":7868,"grøntsager":7869,"følgning":7870,"monteret":7871,"interne":7872,"ildo":7873,"krise":7874,"Fun":7875,"behovet":7876,"kolleger":7877,"Telef":7878,"Spar":7879,"gre":7880,"udsatte":7881,"tæller":7882,"DER":7883,"ramte":7884,"institut":7885,"andels":7886,"Fordi":7887,"overraskende":7888,"studiet":7889,"ordninger":7890,"scan":7891,"alders":7892,"løsningen":7893,"tegnet":7894,"kollek":7895,"….":7896,"usen":7897,"grundlaget":7898,"indstillinger":7899,"forandringer":7900,"Apple":7901,"Claus":7902,"lak":7903,"tigede":7904,"cht":7905,"61":7906,"CH":7907,"Analy":7908,"lejligheden":7909,"nævne":7910,"gider":7911,"forvaltningen":7912,"ineret":7913,"forvaltning":7914,"præsenteret":7915,"potentiale":7916,"ganisa":7917,"Erhverv":7918,"Fle":7919,"protein":7920,"museet":7921,"Klin":7922,"sundt":7923,"lagen":7924,"løses":7925,"unget":7926,"79":7927,"berne":7928,"centralt":7929,"forventet":7930,"air":7931,"stebro":7932,"ansættelse":7933,"midlertidig":7934,"mmelige":7935,"kulturelle":7936,"Uddann":7937,"gennemgang":7938,"grill":7939,"udlænd":7940,"Black":7941,"forpligtelser":7942,"teor":7943,"iks":7944,"Vig":7945,"ial":7946,"pc":7947,"pigen":7948,"tone":7949,"forskellen":7950,"rade":7951,"fravær":7952,"Ide":7953,"ruppe":7954,"interesserede":7955,"sisk":7956,"Luft":7957,"fremmed":7958,"sikkerheden":7959,"bestemmer":7960,"Arki":7961,"snakker":7962,"ansætt":7963,"samles":7964,"forbruget":7965,"markedsføring":7966,"æren":7967,"UL":7968,"bager":7969,"mennesket":7970,"muskler":7971,"modsatte":7972,"ficerede":7973,"biner":7974,"!!!":7975,"bredde":7976,"resultaterne":7977,"beholder":7978,"fonden":7979,"Simon":7980,"øerne":7981,"ii":7982,"Senere":7983,"indven":7984,"sult":7985,"minut":7986,"uer":7987,"klinik":7988,"Carl":7989,"bevægelsen":7990,"Inde":7991,"omsætning":7992,"1999":7993,"OV":7994,"Free":7995,"ejendomme":7996,"71":7997,"ah":7998,"regulering":7999,"patienten":8000,"regnskabet":8001,"massi":8002,"modtag":8003,"urder":8004,"189":8005,"kade":8006,"udlejning":8007,"bestemmelse":8008,"Bedste":8009,"alp":8010,"forventning":8011,"Mac":8012,"oplysningerne":8013,"Føde":8014,"rejst":8015,"menneskelige":8016,"renovering":8017,"finansielle":8018,"opkald":8019,"hovedsag":8020,"Swinger":8021,"mmelt":8022,"musikken":8023,"FN":8024,"intern":8025,"ordentlig":8026,"tat":8027,"læses":8028,"dum":8029,"Afr":8030,"Frække":8031,"nos":8032,"følges":8033,"herhjemme":8034,"Skan":8035,"Prisen":8036,"giften":8037,"lukker":8038,"skriftlig":8039,"forudsætninger":8040,"læsere":8041,"landsby":8042,"forsknings":8043,"auto":8044,"1990":8045,"Styr":8046,"jag":8047,"eringer":8048,"pon":8049,"Helle":8050,"øbt":8051,"vinden":8052,"usædvan":8053,"afklar":8054,"korn":8055,"strækning":8056,"forhindre":8057,"bekendtgørelsen":8058,"liver":8059,"Mel":8060,"dol":8061,"invest":8062,"tillige":8063,"own":8064,"para":8065,"hjernen":8066,"sponsor":8067,"800":8068,"Køge":8069,"zo":8070,"vandre":8071,"fiskeri":8072,"sluttede":8073,"medal":8074,"fingre":8075,"skuff":8076,"tillader":8077,"scenen":8078,"fødte":8079,"Fir":8080,"mørk":8081,"cykl":8082,"tilpas":8083,"britiske":8084,"Allerede":8085,"boks":8086,"harmon":8087,"Off":8088,"Liv":8089,"overrask":8090,"udgift":8091,"Æl":8092,"overfladen":8093,"univers":8094,"tempo":8095,"David":8096,"itz":8097,"stekn":8098,"plast":8099,"interessante":8100,"lement":8101,"melde":8102,"arch":8103,"ordinære":8104,"entrepren":8105,"bevidsthed":8106,"Kommunes":8107,"kunstnere":8108,"negative":8109,"gten":8110,"74":8111,"hormon":8112,"katte":8113,"sammenhænge":8114,"dyrt":8115,"desto":8116,"valut":8117,"forbindelser":8118,"gmail":8119,"Ed":8120,"kanaler":8121,"videok":8122,"beskrive":8123,"DAN":8124,"workshop":8125,"neu":8126,"generation":8127,"Speci":8128,"kvad":8129,"nylig":8130,"udviklede":8131,"skarp":8132,"forestille":8133,"ameter":8134,"held":8135,"klubbens":8136,"skriftligt":8137,"inse":8138,"nordiske":8139,"aten":8140,"skode":8141,"afvikl":8142,"forlade":8143,"ada":8144,"dia":8145,"oplevelsen":8146,"revne":8147,"originale":8148,"ønskes":8149,"reklame":8150,"zin":8151,"Copenhagen":8152,"CE":8153,"Bry":8154,"internationalt":8155,"tung":8156,"spunkter":8157,"gin":8158,"mani":8159,"Nov":8160,"farligt":8161,"indblik":8162,"middagen":8163,"Led":8164,"tilknytning":8165,"Læg":8166,"legen":8167,"bilæ":8168,"forsvinder":8169,"kastet":8170,"edyr":8171,"Cor":8172,"intellig":8173,"batteri":8174,"producere":8175,"hurtigst":8176,"gru":8177,"Ligesom":8178,"plet":8179,"Løn":8180,"ryger":8181,"(\"":8182,"mord":8183,"Søg":8184,"1970":8185,"eventuel":8186,"koge":8187,"forstyrr":8188,"autor":8189,"pakken":8190,"Svendborg":8191,"skør":8192,"erfarne":8193,"derslev":8194,"kna":8195,"?\"":8196,"Ki":8197,"sved":8198,"næring":8199,"Ah":8200,"itar":8201,"klogere":8202,"arbejdere":8203,"yal":8204,"ÆR":8205,"ydre":8206,"bek":8207,"million":8208,"urt":8209,"beregning":8210,"fusion":8211,"Oplys":8212,"lød":8213,"øres":8214,"derhjemme":8215,"Even":8216,"hvorfra":8217,"oply":8218,"SL":8219,"udskift":8220,"Brand":8221,"knyttet":8222,"format":8223,"yer":8224,"Phil":8225,"Sus":8226,"Lis":8227,"bop":8228,"indbyggere":8229,"hustru":8230,"Generelt":8231,"smænd":8232,"gule":8233,"redskab":8234,"produk":8235,"Elever":8236,"bundet":8237,"Il":8238,"Skriv":8239,"lerød":8240,"Cen":8241,"MED":8242,"kabel":8243,"Lidt":8244,"arme":8245,"inno":8246,"steget":8247,"vælg":8248,"repræsenterer":8249,"Cam":8250,"forvir":8251,"forsø":8252,"stationen":8253,"hæk":8254,"scene":8255,"produktions":8256,"him":8257,"fen":8258,"serier":8259,"begreb":8260,"konflikt":8261,"Kære":8262,"forholde":8263,"saktivitet":8264,"oplevede":8265,"oth":8266,"seg":8267,"kle":8268,"email":8269,"børns":8270,"vak":8271,"sivt":8272,"herfra":8273,"kelsen":8274,"kurset":8275,"underholdning":8276,"kurs":8277,"akade":8278,"øjer":8279,"skudt":8280,"billigste":8281,"offentliggjort":8282,"bik":8283,"somkost":8284,"hospitalet":8285,"opfordre":8286,"sydlige":8287,"stok":8288,"forholdene":8289,"Institut":8290,"perman":8291,"nordlige":8292,"kritisk":8293,"gemme":8294,"Byen":8295,"meldt":8296,"luder":8297,"pose":8298,"angiver":8299,"borde":8300,"shir":8301,"Gul":8302,"yright":8303,"sproget":8304,"bivirkninger":8305,"ligefrem":8306,"placeres":8307,"destin":8308,"voldsomt":8309,"besvar":8310,"stillingen":8311,"HER":8312,"frat":8313,"høring":8314,"gennemsnitlige":8315,"von":8316,"Kilde":8317,"Amager":8318,"tilfredshed":8319,"logo":8320,"skla":8321,"overtræ":8322,"war":8323,"spændt":8324,"Bur":8325,"sigelse":8326,"snor":8327,"vade":8328,"73":8329,"Leder":8330,"Emil":8331,"IR":8332,"delte":8333,"Sort":8334,"megen":8335,"IB":8336,"fokusere":8337,"ministeren":8338,"autom":8339,"psykiatri":8340,"Bruger":8341,"versi":8342,"briller":8343,"mandens":8344,"terræn":8345,"principper":8346,"Stand":8347,"mental":8348,"Tjek":8349,"etage":8350,"populær":8351,"Mc":8352,"Ris":8353,"velegnet":8354,"stitution":8355,"jørn":8356,"slev":8357,"stance":8358,"ikon":8359,"servere":8360,"linjer":8361,"snu":8362,"03":8363,"gummi":8364,"baserede":8365,"spin":8366,"initiativer":8367,"blande":8368,"Tidligere":8369,"CO2":8370,"Rap":8371,"sekund":8372,"retningslinjer":8373,"ktions":8374,"ministeriet":8375,"solgte":8376,"forstand":8377,"cke":8378,"ego":8379,"hent":8380,"ansvarlige":8381,"begivenhed":8382,"sammenligne":8383,"Lan":8384,"ssag":8385,"russiske":8386,"publi":8387,"Fy":8388,"værdige":8389,"Hiller":8390,"ængde":8391,"betydeligt":8392,"flyver":8393,"Thi":8394,"lægningen":8395,"efterspørg":8396,"fond":8397,"ding":8398,"udpeg":8399,"Regn":8400,"væv":8401,"cca":8402,"producerer":8403,"betragtning":8404,"Fon":8405,"kondom":8406,"base":8407,"vurderet":8408,"artnere":8409,"dyrke":8410,"Trump":8411,"artiklen":8412,"essen":8413,"euro":8414,"undgar":8415,"Sof":8416,"cop":8417,"sms":8418,"Næstved":8419,"Juli":8420,"levetid":8421,"astro":8422,"sover":8423,"merne":8424,"æble":8425,"miste":8426,"hej":8427,"danse":8428,"bilitet":8429,"iblandt":8430,"spligt":8431,"kontoret":8432,"færdigt":8433,"presset":8434,"sleder":8435,"terings":8436,"forekommer":8437,"ads":8438,"Hotellet":8439,"skop":8440,"Bon":8441,"kejser":8442,"spot":8443,"nogenlunde":8444,"76":8445,"planlægge":8446,"tiller":8447,"keret":8448,"vestor":8449,"hoppe":8450,"ansigtet":8451,"smarte":8452,"bning":8453,"skan":8454,"beskat":8455,"Of":8456,"alvorlig":8457,"pizza":8458,"Windows":8459,"overvejelser":8460,"urin":8461,"fyld":8462,"ingredienser":8463,"Gym":8464,"standarder":8465,"sum":8466,"04":8467,"computere":8468,"glemme":8469,"mandlige":8470,"henvisning":8471,"Viden":8472,"gæst":8473,"gammelt":8474,"Online":8475,"grundet":8476,"fans":8477,"geograf":8478,"gren":8479,"hones":8480,"konser":8481,"NY":8482,"Tyr":8483,"Eksempel":8484,"personoplysninger":8485,"undersøgt":8486,"ente":8487,"DV":8488,"økologisk":8489,"Smu":8490,"nysgerrig":8491,"derudover":8492,"ile":8493,"designer":8494,"Ir":8495,"skabel":8496,"øverst":8497,"slipper":8498,"ritu":8499,"fænomen":8500,"indsatser":8501,"eksport":8502,"forbedring":8503,"Kristian":8504,"Fjern":8505,"HT":8506,"vedrører":8507,"mati":8508,"jar":8509,"arsagen":8510,"skæl":8511,"ray":8512,"Madsen":8513,"udløb":8514,"skolerne":8515,"merende":8516,"indberet":8517,"fuck":8518,"zon":8519,"trend":8520,"indendørs":8521,"udvide":8522,"vedt":8523,"Sh":8524,"færdighed":8525,"uddannede":8526,"sperson":8527,"rettede":8528,"etræ":8529,"profiler":8530,"nus":8531,"medlemskab":8532,"smykker":8533,"Play":8534,"opløsning":8535,"kampag":8536,"træden":8537,"ændrede":8538,"overvejer":8539,"investeringer":8540,"atmosfære":8541,"mte":8542,"aer":8543,"Design":8544,"idræt":8545,"arkitektur":8546,"damp":8547,"forpligtet":8548,"Ry":8549,"henvender":8550,"ejere":8551,"smæg":8552,"frækt":8553,"genstande":8554,"mistet":8555,"tidlige":8556,"udbredt":8557,"Venstre":8558,"tain":8559,"spiste":8560,"Dam":8561,"undervisnings":8562,"jobbet":8563,"Plus":8564,"Nr":8565,"muslim":8566,"seren":8567,"vr":8568,"bs":8569,"bac":8570,"nærværende":8571,"piske":8572,"tap":8573,"innovation":8574,"giej":8575,"alsk":8576,"formular":8577,"atoriske":8578,"fitness":8579,"handlede":8580,"kæde":8581,"idræ":8582,"Model":8583,"dby":8584,"sprogram":8585,"Tur":8586,"astisk":8587,"Skær":8588,"funder":8589,"kru":8590,"Christ":8591,"ekspert":8592,"udarbej":8593,"Mini":8594,"halsen":8595,"vognen":8596,"krigs":8597,"ænder":8598,"koncept":8599,"division":8600,"kers":8601,"trakt":8602,"møller":8603,"Pre":8604,"psykiske":8605,"dækkende":8606,"hind":8607,"frek":8608,"Bre":8609,"kælder":8610,"tilfredsstillende":8611,"afhængigt":8612,"1998":8613,"riske":8614,"kriti":8615,"eksterne":8616,"Fu":8617,"farlige":8618,"nerv":8619,"ppede":8620,"Borger":8621,"Huset":8622,"bekæmp":8623,"eland":8624,"poster":8625,"stemp":8626,",,":8627,"omvendt":8628,"borgeren":8629,"angri":8630,"tydelig":8631,"fuldstæn":8632,"derfra":8633,"skilte":8634,"udp":8635,"britan":8636,"Hvert":8637,"økologiske":8638,"synlig":8639,"hydr":8640,"opnas":8641,"ELSE":8642,"Tlf":8643,"DI":8644,"times":8645,"acceptere":8646,"drømmer":8647,"bid":8648,"seres":8649,"bekræft":8650,"gardiner":8651,"avis":8652,"installation":8653,"Sm":8654,"præsenterer":8655,"Kvalitet":8656,"nærings":8657,"bende":8658,"omhandler":8659,"sammenhængende":8660,"rurgi":8661,"festen":8662,"Tilføj":8663,"jubilæ":8664,"kanal":8665,"minutters":8666,"nom":8667,"overgang":8668,"sprøjte":8669,"Uds":8670,"inviteret":8671,"sidig":8672,"Sven":8673,"Besøg":8674,"rock":8675,"pensions":8676,"husets":8677,"optimale":8678,"sled":8679,"ging":8680,"menstru":8681,"Lyngby":8682,"Team":8683,"transpor":8684,"Und":8685,"globale":8686,"tabe":8687,"dybde":8688,"gaven":8689,"indsamling":8690,"norske":8691,"sygdommen":8692,"idræts":8693,"males":8694,"italienske":8695,"\")":8696,"telses":8697,"navig":8698,"formalet":8699,"branche":8700,"Rigtig":8701,"Bille":8702,"leringen":8703,"ums":8704,"Ungdom":8705,"Kj":8706,"hek":8707,"støvler":8708,"Spr":8709,"stadi":8710,"Tar":8711,"drager":8712,"Kli":8713,"?”":8714,"belysning":8715,"ames":8716,"mming":8717,"Hy":8718,"with":8719,"almen":8720,"att":8721,"samvær":8722,"rin":8723,"rutter":8724,"Hillerød":8725,"lotte":8726,"matematik":8727,"overskri":8728,"Mær":8729,"ico":8730,"-/":8731,"beskrives":8732,"Idræ":8733,"flydende":8734,"østlige":8735,"besø":8736,";)":8737,"trækkes":8738,"sexet":8739,"ras":8740,"Petersen":8741,"leverings":8742,"endeligt":8743,"kombineret":8744,"svamp":8745,"krævet":8746,"leger":8747,"indgang":8748,"elsk":8749,"World":8750,"plik":8751,"BL":8752,"sevne":8753,"størst":8754,"sministeren":8755,"sels":8756,"cho":8757,"rimeligt":8758,"ire":8759,"Cas":8760,"stadigvæk":8761,"komprom":8762,"Kunne":8763,"anen":8764,"ønne":8765,"bestod":8766,"religion":8767,"datoer":8768,"rukne":8769,"undtagelse":8770,"raft":8771,"kloak":8772,"Fod":8773,"pavirket":8774,"betj":8775,"opgørelse":8776,"mmede":8777,"Arets":8778,"plastik":8779,"forventede":8780,"Storbritan":8781,"mmende":8782,"fjernes":8783,"evaluering":8784,"Louise":8785,"engagement":8786,"skyn":8787,"trykt":8788,"Høje":8789,"europæ":8790,"læne":8791,"simpel":8792,"bemærkninger":8793,"stemningen":8794,"fremmede":8795,"princippet":8796,"Stort":8797,"Indtil":8798,"hukomm":8799,"Samlet":8800,"anerne":8801,"Projekt":8802,"klagen":8803,"fiber":8804,"opdaget":8805,"opstaet":8806,"disciplin":8807,"89":8808,"odi":8809,"næse":8810,"floden":8811,"ydes":8812,"mega":8813,"holt":8814,"Copyright":8815,"aga":8816,"ffe":8817,"etid":8818,"anere":8819,"isolering":8820,"investere":8821,"kvi":8822,"FA":8823,"sprocessen":8824,"Micro":8825,"tyder":8826,"overrasket":8827,"udform":8828,"Fredericia":8829,"Opret":8830,"samleje":8831,"Lav":8832,"Anden":8833,"Ol":8834,"finalen":8835,"Gamle":8836,"trygt":8837,"human":8838,"koncep":8839,"givne":8840,"iler":8841,"foretager":8842,"stoffet":8843,"abetes":8844,"Personalet":8845,"Grun":8846,"væn":8847,"UT":8848,"ærlig":8849,"avisen":8850,"kompen":8851,"cien":8852,"kene":8853,"afgang":8854,"Tilbud":8855,"indført":8856,"Folketinget":8857,"sting":8858,"slutning":8859,"klædt":8860,"igheds":8861,"typen":8862,"sædvanlige":8863,"hhv":8864,"Frank":8865,"stater":8866,"terapeut":8867,"Mog":8868,"skjul":8869,"cerne":8870,"udfol":8871,"soldater":8872,"foreligger":8873,"hvidt":8874,"lægemidler":8875,"ison":8876,"sner":8877,"arbejdskraft":8878,"færds":8879,"begrænsninger":8880,"tons":8881,"DA":8882,"ejl":8883,"henvises":8884,"funktions":8885,"udbetaling":8886,"genkende":8887,"afgræn":8888,"udelu":8889,"æstet":8890,"gig":8891,"fløde":8892,"egaende":8893,"halvdel":8894,"planlægger":8895,"anført":8896,"trag":8897,"distri":8898,"Pati":8899,"sgu":8900,"kostu":8901,"computeren":8902,"forebyggelse":8903,"edi":8904,"integreret":8905,"merika":8906,"kontrollere":8907,"Kommissionen":8908,"Væk":8909,"vinduet":8910,"1980":8911,"journalist":8912,"UM":8913,"filter":8914,"skabes":8915,"velfærd":8916,"miske":8917,"olland":8918,"forstær":8919,"spilles":8920,"kombiner":8921,"mælke":8922,"effektivitet":8923,"ffek":8924,"hovedstad":8925,"hjulpet":8926,"forbedringer":8927,"1800":8928,"redde":8929,"drages":8930,"længst":8931,"opstod":8932,"enestaende":8933,"farvel":8934,"!\"":8935,"beskyttet":8936,"kiet":8937,"uforpligtende":8938,"master":8939,"Progra":8940,"nør":8941,"afvig":8942,"bøsse":8943,"UC":8944,"totalt":8945,"holdte":8946,"Dyr":8947,"læber":8948,"Hjer":8949,"hjalp":8950,"ride":8951,"Karen":8952,"hvorledes":8953,"ræning":8954,";-)":8955,"broen":8956,"affili":8957,"speriode":8958,"foreløbig":8959,"stagram":8960,"Alligevel":8961,"bab":8962,"koste":8963,"freder":8964,"risk":8965,"rafik":8966,"stiv":8967,"gæsterne":8968,"enterne":8969,"Karl":8970,"pakket":8971,"præsentation":8972,"tax":8973,"gevinst":8974,"klø":8975,"wh":8976,"smage":8977,"rejsende":8978,"website":8979,"fanger":8980,"grundlagt":8981,"Nær":8982,"apital":8983,"forfær":8984,"klag":8985,"simple":8986,"bordel":8987,"integration":8988,"døden":8989,"kusse":8990,"Telefon":8991,"Thailand":8992,"aterede":8993,"XX":8994,"fastholde":8995,"forurening":8996,"involveret":8997,"bestilt":8998,"maneders":8999,"udarbejde":9000,"86":9001,"fjen":9002,"dron":9003,"ffel":9004,"udsalg":9005,"bopæl":9006,"testet":9007,"gær":9008,"pede":9009,"spidsen":9010,"optage":9011,"storm":9012,"knytte":9013,"ophæ":9014,"SS":9015,"spladsen":9016,"obser":9017,"pak":9018,"Van":9019,"tegner":9020,"ApS":9021,"bræ":9022,"bedømm":9023,"rich":9024,"korrekte":9025,"forlod":9026,"opmærksomme":9027,"singler":9028,"chauf":9029,"ægges":9030,"opskriften":9031,"forsigtigt":9032,"elegant":9033,"Ligeledes":9034,"ments":9035,"klarer":9036,"mundt":9037,"etableres":9038,"spist":9039,"Rør":9040,"øster":9041,"tilføjer":9042,"arbejdspladsen":9043,"skulder":9044,"send":9045,"pædagogisk":9046,"sammenlignet":9047,"boy":9048,"Olsen":9049,"annonce":9050,"DN":9051,"arbejdsmarked":9052,"fastsættes":9053,"stilbud":9054,"geby":9055,"læggelse":9056,"Israel":9057,"sandt":9058,"mobile":9059,"grin":9060,"string":9061,"blowjob":9062,"Europæiske":9063,"garde":9064,"stiske":9065,"Tænk":9066,"hylde":9067,"Behandling":9068,"okay":9069,"effekter":9070,"henviser":9071,"kanter":9072,"hvile":9073,"HV":9074,"repræsenteret":9075,"materialet":9076,"splanen":9077,"tagen":9078,"MA":9079,"gemmer":9080,"Sara":9081,"dennes":9082,"derude":9083,"konkurrencen":9084,"orienteret":9085,"bot":9086,"lover":9087,"eleven":9088,"betinget":9089,"salget":9090,"peratur":9091,"nøjes":9092,"køretøjer":9093,"Materi":9094,"vacc":9095,"Kommunen":9096,"tilpasset":9097,"92":9098,"delvist":9099,"populært":9100,"bortset":9101,"mønstre":9102,"posten":9103,"bussen":9104,"kvinderne":9105,"DU":9106,"unikt":9107,"arab":9108,"nie":9109,"bili":9110,"parret":9111,"day":9112,"aktie":9113,"anlægs":9114,"illustr":9115,"Bang":9116,"fremstar":9117,"mærkede":9118,"ktu":9119,"eksplo":9120,"frede":9121,"kommerci":9122,"pine":9123,"ryge":9124,"Syn":9125,"banker":9126,"alske":9127,"terror":9128,"smide":9129,"døgnet":9130,"krog":9131,"Skulle":9132,"nastik":9133,"oprør":9134,"ydet":9135,"Kontrol":9136,"betingelserne":9137,"opbygning":9138,"hentes":9139,"eftersom":9140,"labor":9141,"bron":9142,"børnehave":9143,"flytning":9144,"%,":9145,"gemt":9146,"intim":9147,"tegninger":9148,"skiftes":9149,"opdagede":9150,"udstillingen":9151,"Sha":9152,"skuespil":9153,"teste":9154,"albu":9155,"baggrunden":9156,"vinkel":9157,"pille":9158,"Motor":9159,"tabte":9160,"jordbær":9161,"inspek":9162,"professionelt":9163,"figurer":9164,"KR":9165,"Johannes":9166,"rigs":9167,"reber":9168,"lyden":9169,"kartofler":9170,"rapporter":9171,"bby":9172,"rollen":9173,"Herudover":9174,"individuelt":9175,"slap":9176,"beskytter":9177,"nære":9178,"Big":9179,"kommand":9180,"kilo":9181,"investor":9182,"domme":9183,"voksende":9184,"hygiej":9185,"Hur":9186,"Cyk":9187,"forstas":9188,"eksemplar":9189,"Kommunal":9190,"sproblemer":9191,"optræder":9192,"pulver":9193,"oda":9194,"Brøndby":9195,"skik":9196,"evnen":9197,"king":9198,"cor":9199,"Holbæk":9200,"veksling":9201,"Tour":9202,"kødet":9203,"rømme":9204,"Kol":9205,"kørende":9206,"support":9207,"guitar":9208,"oplyse":9209,"Annon":9210,"produkterne":9211,"Sørg":9212,"Rosen":9213,"Wal":9214,"96":9215,"handbold":9216,"kravene":9217,"pladen":9218,"Have":9219,"cig":9220,"beth":9221,"Neden":9222,"Austral":9223,"brog":9224,"sele":9225,"Anvende":9226,"ambul":9227,"frugter":9228,"legi":9229,"problemstillinger":9230,"smukkeste":9231,"Selve":9232,"afsked":9233,"stoppede":9234,"kampagne":9235,"nævner":9236,"sprojekt":9237,"springer":9238,"One":9239,"lejr":9240,"hilsen":9241,"fortællinger":9242,"tokol":9243,"syet":9244,"best":9245,"Kapitel":9246,"luf":9247,"selvstændigt":9248,"afslappet":9249,"farven":9250,"skaret":9251,"resterende":9252,"Prak":9253,"dirig":9254,"agtig":9255,"sikres":9256,"konstat":9257,"Skive":9258,"Ned":9259,"Ung":9260,"87":9261,"pir":9262,"ejet":9263,"forberedt":9264,"partiet":9265,"anmodning":9266,"Hou":9267,"husene":9268,"baden":9269,"Information":9270,"tjen":9271,"forbehold":9272,"ift":9273,"tildelt":9274,"forekomme":9275,"villig":9276,"sha":9277,"blæ":9278,"bakterier":9279,"Maj":9280,"Foreningen":9281,"Chat":9282,"centen":9283,"dræbt":9284,"weiz":9285,"pøl":9286,"flod":9287,"Ku":9288,"interessen":9289,"hellig":9290,"Sing":9291,"desser":9292,"øges":9293,"brevet":9294,"kbh":9295,"iværksætter":9296,"tier":9297,"Bibli":9298,"besøgt":9299,"nograf":9300,"voksede":9301,"potentielle":9302,"børnenes":9303,"ugent":9304,"direktiv":9305,"teren":9306,"milliarder":9307,"mangfol":9308,"skarpe":9309,"varierer":9310,"mdr":9311,"forordning":9312,"moderen":9313,"ficering":9314,"ligegyl":9315,"koncerter":9316,"nyhed":9317,"beslutter":9318,"ple":9319,"veri":9320,"fos":9321,"Line":9322,"bevidste":9323,"feed":9324,"skemaet":9325,"frivillig":9326,"Endnu":9327,"ledningen":9328,"gennemgaet":9329,"opfølgning":9330,"Selvfølgelig":9331,"Udvikling":9332,"Sek":9333,"sløb":9334,"forvand":9335,"beska":9336,"porte":9337,"henter":9338,"forkerte":9339,"ole":9340,"fremgang":9341,"sparer":9342,"Pige":9343,"udgangen":9344,"frastruktur":9345,"teknikker":9346,"VE":9347,"tene":9348,"Sogn":9349,"Nøgne":9350,"igheden":9351,"DEN":9352,"indvi":9353,"1960":9354,"revolution":9355,"virkelige":9356,"besparelser":9357,"faget":9358,"Cat":9359,"fjerner":9360,"temaer":9361,"sprodukter":9362,"samarbejdspartnere":9363,"frivilligt":9364,"lampe":9365,"bebyggelse":9366,"dagpenge":9367,"skille":9368,"øns":9369,"vort":9370,"opfordrer":9371,"reklamer":9372,"individuel":9373,"overenskomst":9374,"porten":9375,"skrædder":9376,"jævnligt":9377,"sjælland":9378,"affen":9379,"Holstebro":9380,"bir":9381,"VS":9382,"købing":9383,"Out":9384,"liber":9385,"isten":9386,"beboerne":9387,"optimalt":9388,"salgs":9389,"skred":9390,"ordnet":9391,"fødevare":9392,"now":9393,"rigeligt":9394,"instruktør":9395,"udbydere":9396,"Jul":9397,"Havde":9398,"kriterier":9399,"fokuserer":9400,"ppes":9401,"passion":9402,"vandløb":9403,"strande":9404,"tt":9405,"klat":9406,"afholder":9407,"facebook":9408,"1997":9409,"linjen":9410,"pilot":9411,"lamentet":9412,"Aar":9413,"stram":9414,"liderlig":9415,"fritids":9416,"patter":9417,"debut":9418,"].":9419,"veget":9420,"82":9421,"træningen":9422,"begreber":9423,"ønder":9424,"DT":9425,"specifikt":9426,"passi":9427,"Club":9428,"kongen":9429,"øer":9430,"isen":9431,"partnere":9432,"opvarmning":9433,"egnede":9434,"gentag":9435,"røre":9436,"værdigt":9437,"ellerup":9438,"ække":9439,"ulykke":9440,"atorisk":9441,"indbygget":9442,"belastning":9443,"dildo":9444,"modtagelse":9445,"__":9446,"betalte":9447,"Indt":9448,"sværdi":9449,"dommen":9450,"sværere":9451,"Steen":9452,"radik":9453,"opdager":9454,"skygge":9455,"dul":9456,"platform":9457,"formidling":9458,"verdenskrig":9459,"svæ":9460,"rense":9461,"varighed":9462,"sanger":9463,"offer":9464,"skiver":9465,"gød":9466,"stream":9467,"redaktør":9468,"Malet":9469,"elektroniske":9470,"biske":9471,"tilslutning":9472,"savner":9473,"biblioteket":9474,"betalinger":9475,"videns":9476,"700":9477,"æne":9478,"aspekter":9479,"tilhører":9480,"tynde":9481,"Bent":9482,"KT":9483,"Slagelse":9484,"faldende":9485,"gader":9486,"Bay":9487,"itler":9488,"byggeriet":9489,"pok":9490,"angiv":9491,"anvendte":9492,"afsæt":9493,"tum":9494,"kniv":9495,"ummer":9496,"selvstændige":9497,"regionale":9498,"sønder":9499,"bestræ":9500,"temperaturen":9501,"virkende":9502,"Storbritannien":9503,"uheld":9504,"ledende":9505,"konflikter":9506,"kendes":9507,"fremm":9508,"forbrænd":9509,"Ør":9510,"udvidelse":9511,"bedes":9512,"Mol":9513,"ella":9514,"dømt":9515,"Les":9516,"vifte":9517,"Forskel":9518,"Giv":9519,"eksisterer":9520,"linge":9521,"fødslen":9522,"Mikkel":9523,"provin":9524,"glemmer":9525,"økonomien":9526,"OF":9527,"overvagning":9528,"indtægt":9529,"fader":9530,"forsikringen":9531,"Ældre":9532,"kræn":9533,"alarm":9534,"bestyrelsens":9535,"blødt":9536,"lytter":9537,"thi":9538,"herred":9539,"hjemmefra":9540,"skulp":9541,"reduktion":9542,"Cre":9543,"skolel":9544,"Skrevet":9545,"risikerer":9546,"præmie":9547,"søkonom":9548,"spen":9549,"mart":9550,"Billeder":9551,"zen":9552,"rist":9553,"rekord":9554,"fjorden":9555,"Ac":9556,"katastro":9557,"forlader":9558,"smagen":9559,"turister":9560,"negativ":9561,"ader":9562,"Pet":9563,"truffet":9564,"slaget":9565,"bølge":9566,"!)":9567,"Økonomi":9568,"bogstav":9569,"Fast":9570,"halve":9571,"ods":9572,"stjene":9573,"skæb":9574,"forman":9575,"sides":9576,"mistede":9577,"rien":9578,"melder":9579,"BM":9580,"hvorved":9581,"peten":9582,"bistand":9583,"trygge":9584,"formere":9585,"øgede":9586,"HED":9587,"Vik":9588,"reduceret":9589,"opbak":9590,"kvadrat":9591,"herrer":9592,"Mark":9593,"infektion":9594,"mails":9595,"timod":9596,"drikker":9597,"udfylde":9598,"faktura":9599,"foretrukne":9600,"vedvarende":9601,"gtede":9602,"behagelige":9603,"byggende":9604,"forenings":9605,"stjeneste":9606,"83":9607,"skit":9608,"see":9609,"træffes":9610,"vægten":9611,"omraderne":9612,"Cup":9613,"Gode":9614,"Omradet":9615,"enheden":9616,"sensor":9617,"tegning":9618,"fysio":9619,"flit":9620,"Beskrivelse":9621,"Ting":9622,"ilt":9623,"sperioden":9624,"gerede":9625,"afgifter":9626,"strategier":9627,"siderne":9628,"Resultatet":9629,"accepterer":9630,"xxx":9631,"grene":9632,"charmerende":9633,"snarere":9634,"budskab":9635,"beskæftiger":9636,"kaster":9637,"nende":9638,"dannes":9639,"ief":9640,"domin":9641,"Herunder":9642,"afgørelsen":9643,"webcam":9644,"ensar":9645,"Sprog":9646,"loft":9647,"atoren":9648,"bestand":9649,"Jack":9650,"styrket":9651,"scener":9652,"Verdens":9653,"ekstern":9654,"sammensætning":9655,"2020":9656,"tilføjet":9657,"søer":9658,"udgifterne":9659,"Kær":9660,"ingeniør":9661,"udarbejdes":9662,"asia":9663,"Ag":9664,"besta":9665,"SR":9666,"leverede":9667,"hegn":9668,"skind":9669,"robu":9670,"fødsels":9671,"hip":9672,"kontanthjælp":9673,"brune":9674,"samarbejds":9675,"depression":9676,"Willi":9677,"medierne":9678,"Japan":9679,"gulve":9680,"vers":9681,"General":9682,"sygehus":9683,"Jule":9684,"tip":9685,"ORT":9686,"sammenligning":9687,"Guld":9688,"parterne":9689,"deltaget":9690,"boller":9691,"beboer":9692,"III":9693,"udsende":9694,"undskyld":9695,"trykker":9696,"gay":9697,"voldt":9698,"kler":9699,"væld":9700,"virus":9701,"producent":9702,"orientering":9703,"Amt":9704,"smartphones":9705,"trafikken":9706,"optimal":9707,"sogne":9708,"formue":9709,"93":9710,"International":9711,"overnatning":9712,"Teater":9713,"bød":9714,"nit":9715,"Legal":9716,"mpi":9717,"Polen":9718,"horn":9719,"lum":9720,"iere":9721,"Cu":9722,"forebygge":9723,"utallige":9724,"installeret":9725,"livets":9726,"print":9727,"turist":9728,"Igen":9729,"magten":9730,"matcher":9731,"somkostninger":9732,"Ur":9733,"talmo":9734,"signaler":9735,"stang":9736,"grave":9737,"ufor":9738,"tilbudt":9739,"papeg":9740,"Euro":9741,"smægler":9742,"drev":9743,"spillerne":9744,"Fes":9745,"arlig":9746,"afspejler":9747,"opbygget":9748,"lamper":9749,"fand":9750,"score":9751,"kategorien":9752,"overordnet":9753,"træet":9754,"unt":9755,"isterne":9756,"Bul":9757,"Sæl":9758,"indrømme":9759,"bæ":9760,"Undervisning":9761,"kraftige":9762,"ugers":9763,"hvorpa":9764,"udforske":9765,"printer":9766,"oprin":9767,"blodtryk":9768,"Amat":9769,"delingen":9770,"Servi":9771,"hede":9772,"dosis":9773,"udefra":9774,"elevernes":9775,"rads":9776,"kosm":9777,"udkom":9778,"spis":9779,"liden":9780,"netværket":9781,"termin":9782,"foruden":9783,"rammerne":9784,"sister":9785,"opsætning":9786,"tynd":9787,"pæne":9788,"iseres":9789,"claimer":9790,"eksklusive":9791,"debatten":9792,"Svar":9793,"rødt":9794,"fællesskabet":9795,"Bak":9796,"svage":9797,"kalen":9798,"afsløre":9799,"embed":9800,"Ze":9801,"Admini":9802,"ejeren":9803,"slo":9804,"passager":9805,"ands":9806,"Disclaimer":9807,"GB":9808,"Rek":9809,"følelsen":9810,"skvalitet":9811,"ji":9812,"alm":9813,"modsat":9814,"Hvilken":9815,"Special":9816,"MEN":9817,"ics":9818,"fad":9819,"kundeservice":9820,"Havn":9821,"Minister":9822,"Maden":9823,"Book":9824,"Digital":9825,"takket":9826,"Selskab":9827,"generel":9828,"iti":9829,"fungerende":9830,"enorme":9831,"stur":9832,"tikken":9833,"appel":9834,"slip":9835,"diabetes":9836,"bæn":9837,"bass":9838,"esbjerg":9839,"dero":9840,"GO":9841,"habili":9842,"sigtede":9843,"sofaen":9844,"opleves":9845,"krævede":9846,"religiøse":9847,"laborator":9848,"dansker":9849,"videregaende":9850,"spris":9851,"permanent":9852,"Cro":9853,"Holland":9854,"udmærket":9855,"nævnet":9856,"cle":9857,"nødder":9858,"win":9859,"formar":9860,"streng":9861,"kys":9862,"inkluderet":9863,"Business":9864,"mistæn":9865,"Tel":9866,"opdelt":9867,"lokalplan":9868,"sav":9869,"begrænse":9870,"faktiske":9871,"Pak":9872,"udvikles":9873,"daværende":9874,"more":9875,"tøm":9876,"græsk":9877,"aske":9878,"læseren":9879,"dimension":9880,"katalog":9881,"øbing":9882,"slette":9883,"ague":9884,"sprak":9885,"abnes":9886,"Fug":9887,"sret":9888,"ikere":9889,"blomst":9890,"1996":9891,"stævne":9892,"flasker":9893,"himlen":9894,"affilierede":9895,"definition":9896,"glide":9897,"klippe":9898,"Tir":9899,"medicinsk":9900,"!”":9901,"Sky":9902,"streg":9903,"langsom":9904,"indta":9905,"nummeret":9906,"formet":9907,"Kræ":9908,"kysten":9909,"oren":9910,"forfatteren":9911,"glip":9912,"sadant":9913,"fester":9914,"84":9915,"Holm":9916,"Anlæg":9917,"omet":9918,"stykket":9919,"sholm":9920,"dress":9921,"bæredygtig":9922,"chancen":9923,"uth":9924,"high":9925,"immun":9926,"dybere":9927,"fortjener":9928,"input":9929,"udsted":9930,"udven":9931,"Lørdag":9932,"betalingen":9933,"bliv":9934,"sprojekter":9935,"het":9936,"efterar":9937,"tent":9938,"redning":9939,"Hil":9940,"beregnes":9941,"administrative":9942,"dry":9943,"sic":9944,"marketing":9945,"vejle":9946,"genbrug":9947,"Afrika":9948,"enting":9949,"Hæ":9950,"kj":9951,"returner":9952,"ssede":9953,"telser":9954,"søgende":9955,"opgaverne":9956,"felter":9957,"spild":9958,"Sæson":9959,"Fro":9960,"overtog":9961,"aende":9962,"distribu":9963,"tvunget":9964,"parten":9965,"4for":9966,"Haber":9967,"tro4for":9968,"lanet":9969,"Uddannelse":9970,"yndlings":9971,"SMS":9972,"ografi":9973,"toget":9974,"introduktion":9975,"Brun":9976,"vaskemaskine":9977,"core":9978,"impon":9979,"binde":9980,"iseringen":9981,"forhabentlig":9982,"sløse":9983,"given":9984,"diskutere":9985,"noter":9986,"Tube":9987,"SKAT":9988,"forbedret":9989,"agtige":9990,"pornograf":9991,"liderlige":9992,"Sv":9993,"play":9994,"new":9995,"vanskeligheder":9996,"yper":9997,"110":9998,"pavirkning":9999,"Aa":10000,"maet":10001,"load":10002,"hjemmelavet":10003,"Kro":10004,"psyko":10005,"tegnede":10006,"global":10007,"slikke":10008,"konference":10009,"cl":10010,"Vok":10011,"Kron":10012,"traditionel":10013,"tikel":10014,"Herre":10015,"Art":10016,"moner":10017,"smetoder":10018,"helor":10019,"saret":10020,"rap":10021,"spejl":10022,"ømmer":10023,"taller":10024,"grundig":10025,"ledelses":10026,"angive":10027,"kærligheden":10028,"tets":10029,"fysik":10030,"Bran":10031,"klagede":10032,"Pas":10033,"kolon":10034,"ffen":10035,"Hjør":10036,"defineret":10037,"beviser":10038,"sem":10039,"skriftlige":10040,"reserve":10041,"befal":10042,"agg":10043,"civi":10044,"Master":10045,"Green":10046,"informer":10047,"deci":10048,"negle":10049,"roller":10050,"politiker":10051,"ovennævnte":10052,"Blom":10053,"97":10054,"stier":10055,"fejre":10056,"strækker":10057,"politikerne":10058,"palide":10059,"mellemrum":10060,"Gyl":10061,"Stru":10062,"ægtefælle":10063,"delvis":10064,"fortid":10065,"een":10066,"beholde":10067,"inspirerende":10068,"Ali":10069,"stolte":10070,"lidelser":10071,"........":10072,"dic":10073,"unges":10074,"ønt":10075,"sædet":10076,"effekten":10077,"affet":10078,"modul":10079,"ravarer":10080,"sæk":10081,"bos":10082,"lap":10083,"tillade":10084,"opbygge":10085,"Wa":10086,"Virksomheden":10087,"toner":10088,"vægttab":10089,"blodet":10090,"ata":10091,"tube":10092,"ødelægge":10093,"ingenting":10094,"trakten":10095,"Drag":10096,"renter":10097,"Microsoft":10098,"udskiftning":10099,"opretholde":10100,"rolige":10101,"Indien":10102,"skub":10103,"faktum":10104,"mors":10105,"liga":10106,"studenter":10107,"tnings":10108,"flow":10109,"rettes":10110,"room":10111,"ladet":10112,"Geor":10113,"Wo":10114,"Pan":10115,"ogsaa":10116,"lans":10117,"adet":10118,"vejledningen":10119,"Festival":10120,"Nogen":10121,"blin":10122,"heldige":10123,"driften":10124,"Hvilket":10125,"bere":10126,"tilgængeligt":10127,"ordene":10128,"Christians":10129,"filen":10130,"lighederne":10131,"udsigten":10132,"Ejer":10133,"HR":10134,"forrige":10135,"latin":10136,"Moden":10137,"vere":10138,"mestre":10139,"kering":10140,"Gri":10141,"Thy":10142,"fælge":10143,"cyklen":10144,"linket":10145,"pørg":10146,"fremtidens":10147,"opbakning":10148,"atch":10149,"3D":10150,"punktet":10151,"menstruation":10152,"Mobil":10153,"sici":10154,"Kæ":10155,"Skolen":10156,"Hvornar":10157,"trækning":10158,"udfordre":10159,"svampe":10160,"lufthavn":10161,"holdere":10162,"overførsel":10163,"nyd":10164,"strej":10165,"Fl":10166,"tilmelde":10167,"affalds":10168,"Juni":10169,"stes":10170,"hjælpemidler":10171,"Kjær":10172,"saktiviteter":10173,"Profes":10174,"kran":10175,"centeret":10176,"Radio":10177,"romer":10178,"manglede":10179,"Klo":10180,"varianter":10181,"hyppig":10182,"lovgivningen":10183,"eftermiddagen":10184,"tilbuddet":10185,"Golf":10186,"minar":10187,"lufthavnen":10188,"sanlæg":10189,"smødet":10190,"stift":10191,"indby":10192,"ckt":10193,"identificere":10194,"ageret":10195,"budgettet":10196,"anerkendt":10197,"Bø":10198,"kvalificeret":10199,"Dine":10200,"display":10201,"krea":10202,"ix":10203,"visende":10204,"loftet":10205,"Dato":10206,"HF":10207,"Fredag":10208,"marken":10209,"%)":10210,"Cir":10211,"demokratiske":10212,"seksuelt":10213,"byerne":10214,"søskende":10215,"stiftet":10216,"forberede":10217,"afstemning":10218,"velkomne":10219,"konvention":10220,"synlige":10221,"Eleverne":10222,"pel":10223,"Statistik":10224,"infrastruktur":10225,"nydt":10226,"placere":10227,"arrække":10228,"etten":10229,"Oper":10230,"Lolland":10231,"kalk":10232,"Tilbage":10233,"forarsage":10234,"Gal":10235,"italiensk":10236,"tætte":10237,"fattige":10238,"barns":10239,"relateret":10240,"kirurgi":10241,"køleskab":10242,"sperm":10243,"bestilte":10244,"onsul":10245,"yoga":10246,"August":10247,"andelen":10248,"Fyr":10249,"Journal":10250,"das":10251,"regioner":10252,"Andet":10253,"Slot":10254,"udbetalt":10255,"tændt":10256,"Blo":10257,"stemet":10258,"opdatering":10259,"tusindvis":10260,"delige":10261,"fair":10262,"sygeplejerske":10263,"kinesiske":10264,"Industri":10265,"veninder":10266,"tillids":10267,"længden":10268,"undersøger":10269,"lades":10270,"Anal":10271,"skræn":10272,"sok":10273,"mose":10274,"search":10275,"arbejderne":10276,"kvalifik":10277,"veg":10278,"sædceller":10279,"anda":10280,"samtalen":10281,"trives":10282,"bøgerne":10283,"bakken":10284,"brændstof":10285,"taj":10286,"indstillet":10287,"dl":10288,"ørerne":10289,"femin":10290,"femte":10291,"Restaur":10292,"forfattere":10293,"tiltrække":10294,"dragt":10295,"ampen":10296,"tingent":10297,"anelse":10298,"farvede":10299,"lugt":10300,"rug":10301,"ams":10302,"ppende":10303,"Gucca":10304,"ovenpa":10305,"rækken":10306,"nens":10307,"badet":10308,"Station":10309,"skontrol":10310,"1995":10311,"egentlige":10312,"drejning":10313,"Sma":10314,"aftal":10315,"instrumenter":10316,"blu":10317,"ødelagt":10318,"suger":10319,"Fla":10320,"bogsta":10321,"frost":10322,"papirer":10323,"reaktioner":10324,"Søndag":10325,"Beskæf":10326,"samvit":10327,"seksualitet":10328,"overraskelse":10329,"væsenet":10330,"onym":10331,"Mennesker":10332,"smateriale":10333,"hjørnet":10334,"almene":10335,"rytter":10336,"kroppens":10337,"Alterna":10338,"apps":10339,"begær":10340,"SEX":10341,"Pik":10342,"Harry":10343,"rykker":10344,"forkæ":10345,"FO":10346,"ligste":10347,"Stats":10348,"kurren":10349,"Live":10350,"roid":10351,"kravet":10352,"meldte":10353,"BS":10354,"forbudt":10355,".....":10356,"medfør":10357,"monteres":10358,"Mandag":10359,"81":10360,"vug":10361,"rammen":10362,"sandsynlighed":10363,"menneskets":10364,"homoseksuelle":10365,"fraf":10366,"tusinde":10367,"Birgi":10368,"paske":10369,"wood":10370,"udfordrende":10371,"Kirsten":10372,"kommunikations":10373,"løfter":10374,"ulykker":10375,"høst":10376,"egnes":10377,"varig":10378,"Ric":10379,"tilmelding":10380,"svi":10381,"Tj":10382,"stund":10383,"skilsm":10384,"Pil":10385,"IDE":10386,"Fire":10387,"Rigs":10388,"modtagere":10389,"europæisk":10390,"mentale":10391,"leden":10392,"Stre":10393,"nætter":10394,"understreger":10395,"DJ":10396,"telt":10397,"stein":10398,"sandsynligt":10399,"godkendte":10400,"Power":10401,"ich":10402,"Politiet":10403,"skala":10404,"fig":10405,"retninger":10406,"bræt":10407,"lesvig":10408,"stanke":10409,"Hjælp":10410,"smyk":10411,"bero":10412,"unger":10413,"dæmp":10414,"usikkerhed":10415,"løft":10416,"sørg":10417,"urdering":10418,"vation":10419,"Vo":10420,"affelse":10421,"baren":10422,"etager":10423,"board":10424,"vidner":10425,"coach":10426,"officielt":10427,"Dagen":10428,"udgav":10429,"Offi":10430,"katol":10431,"folkeskolen":10432,"Stri":10433,"dringer":10434,"Stil":10435,"tidspunkter":10436,"ral":10437,"smartphone":10438,".).":10439,"maksimalt":10440,"underligt":10441,"94":10442,"montering":10443,"ringede":10444,"tenden":10445,"væksten":10446,"sjældne":10447,"Pia":10448,"supplerende":10449,"gs":10450,"støttet":10451,"episo":10452,"tænk":10453,"boksen":10454,"Sønderborg":10455,"Hanne":10456,"argang":10457,"Down":10458,"Home":10459,"tigelse":10460,"inspirere":10461,"farten":10462,"benyttet":10463,"enede":10464,"universet":10465,"GL":10466,"League":10467,"kandidater":10468,"aftensmad":10469,"cil":10470,"dyrere":10471,"afvik":10472,"rive":10473,"skæring":10474,"1900":10475,"kontakten":10476,"Omkring":10477,"foreslar":10478,"idi":10479,"skabende":10480,"afkast":10481,"gennemførelse":10482,"argumenter":10483,"varmet":10484,"diagnos":10485,"prøven":10486,"oversættelse":10487,"skiftede":10488,"udstillinger":10489,"yo":10490,"seriøst":10491,"funktionalitet":10492,"Nordisk":10493,"fuldstændigt":10494,"tankerne":10495,"datoen":10496,"foden":10497,"gryde":10498,"systematisk":10499,"sporet":10500,"beløn":10501,"nærmer":10502,"stoppet":10503,"race":10504,"hviler":10505,"Carsten":10506,"værds":10507,"Familie":10508,"1950":10509,"smut":10510,"Andreas":10511,"cus":10512,"racer":10513,"fyldes":10514,"motivation":10515,"xy":10516,"søj":10517,"skulptur":10518,"anerkendelse":10519,"komponenter":10520,"præsenteres":10521,"varieret":10522,"Grand":10523,"mul":10524,"club":10525,"abelt":10526,"præstation":10527,"relaterede":10528,"Billed":10529,"visit":10530,"detail":10531,"medi":10532,"speku":10533,"bekymret":10534,"Medlem":10535,"etablerede":10536,"resund":10537,"Politiken":10538,"cet":10539,"handværker":10540,"adgangskode":10541,"beskrivelser":10542,"Michel":10543,"ædagog":10544,"indkom":10545,"Mør":10546,"ruten":10547,"Mangler":10548,"formel":10549,"zy":10550,"Ce":10551,"kommunikere":10552,"debu":10553,"makeup":10554,"koden":10555,"bestiller":10556,"springe":10557,"fastsætte":10558,"hensigtsmæssigt":10559,"natte":10560,"Fisse":10561,"Soci":10562,"Cent":10563,"kirkeg":10564,"nette":10565,"ummet":10566,"veder":10567,"syns":10568,"dukke":10569,"varerne":10570,"tænd":10571,"Sagen":10572,"tilsku":10573,"afgr":10574,"erotik":10575,"Dren":10576,"nyhedsbrev":10577,"reparation":10578,"had":10579,"cd":10580,"installationer":10581,"vane":10582,"malerier":10583,"mærkning":10584,"brændt":10585,"forbry":10586,"erklæring":10587,"inci":10588,"lederen":10589,",.":10590,"apos":10591,"Ker":10592,"domstol":10593,"dresse":10594,"tillinger":10595,"fugl":10596,"nytar":10597,"maneds":10598,"afgørelser":10599,"Smart":10600,"træffer":10601,"Bliv":10602,"ligget":10603,"pynt":10604,"vns":10605,"artier":10606,"iveau":10607,"ventilation":10608,"bekæmpelse":10609,"afgjort":10610,"japanske":10611,"slas":10612,"lant":10613,"Instagram":10614,"alternative":10615,"udsagn":10616,"vidunderlige":10617,"hovedsageligt":10618,"Aben":10619,"givelserne":10620,"Forening":10621,"smester":10622,"investerings":10623,"lon":10624,"irriterende":10625,"plejen":10626,"Vækst":10627,"dedik":10628,"tandlæge":10629,"variere":10630,"alting":10631,"anvendelsen":10632,"slok":10633,"eksperimenter":10634,"forsiden":10635,"Fantastisk":10636,"aviser":10637,"princip":10638,"anlagt":10639,"værn":10640,"tank":10641,"sure":10642,"Lene":10643,"hverdags":10644,"venskab":10645,"tofte":10646,"Dertil":10647,"inviterer":10648,"tie":10649,"cigaret":10650,"HK":10651,"citat":10652,"meret":10653,"indbrud":10654,"applik":10655,"køleskabet":10656,"jazz":10657,"ledsag":10658,"Manden":10659,"juridiske":10660,"samspil":10661,"begrænsning":10662,"betegnelse":10663,"gad":10664,"modet":10665,"deligt":10666,"1992":10667,"Tør":10668,"Navn":10669,"Australien":10670,"mørkt":10671,"iserer":10672,"gifte":10673,"apparat":10674,"kirker":10675,"AA":10676,"unst":10677,"Gran":10678,"trænet":10679,"sejler":10680,"vidde":10681,"mation":10682,"91":10683,"ulyk":10684,"pligtige":10685,"Jord":10686,");":10687,"ambas":10688,"Rejse":10689,"kopier":10690,"øsning":10691,"Problemet":10692,"imødekommende":10693,"barsel":10694,"virkeligt":10695,"komplekse":10696,"Oplev":10697,"anony":10698,"derede":10699,"skuffet":10700,"DVD":10701,"udpeget":10702,"Bekendt":10703,"speciale":10704,"henvendelser":10705,"hukommelse":10706,"ukendt":10707,"Jen":10708,"TDC":10709,"ALT":10710,"afhængige":10711,"Dal":10712,"All":10713,"gennemga":10714,"kritiske":10715,"forberedelse":10716,"fur":10717,"Trafik":10718,"Body":10719,"Bad":10720,"Mind":10721,"mmeligt":10722,"realitet":10723,"Skander":10724,"1994":10725,"beskadig":10726,"BN":10727,"glim":10728,"kammerater":10729,"talere":10730,"Doku":10731,"Sov":10732,"check":10733,"teringen":10734,"chancer":10735,"Hospital":10736,"ordinær":10737,"itte":10738,"vurderingen":10739,"gennemsig":10740,"omfatte":10741,"underskud":10742,"optimere":10743,"wellness":10744,"jobs":10745,"pning":10746,"værdighed":10747,"ansættelses":10748,"magnet":10749,"kliniske":10750,"ankomst":10751,"enighed":10752,"SEN":10753,"eri":10754,"udnyttelse":10755,"tørt":10756,"sammensat":10757,"dreje":10758,"uges":10759,"varetage":10760,"raa":10761,"champ":10762,"!.":10763,"arbejdsløs":10764,"straler":10765,"styrken":10766,"Historie":10767,"parall":10768,"shopping":10769,"zu":10770,"BB":10771,"formiddag":10772,"udførelse":10773,"fantasier":10774,"fleksibel":10775,"forbliver":10776,"ssoci":10777,"cast":10778,"spanske":10779,"bagt":10780,"restauranten":10781,"drivende":10782,"netto":10783,"Intet":10784,"Tysk":10785,"fælde":10786,"afsnittet":10787,"præcise":10788,"udarbejdelse":10789,"overvæl":10790,"ansøgninger":10791,"serveres":10792,"arealet":10793,"begyndelse":10794,"Varme":10795,"vul":10796,"bøde":10797,"span":10798,"forstyrrelser":10799,"tele":10800,"ledninger":10801,"Amatør":10802,"aarhus":10803,"blind":10804,"busser":10805,"orts":10806,"vasket":10807,"Ob":10808,"gravide":10809,"tex":10810,"kemik":10811,"virtu":10812,"videoklip":10813,"ferencen":10814,"nederlag":10815,"kjoler":10816,"ligne":10817,"græske":10818,"Rum":10819,"medvirke":10820,"godkendes":10821,"ward":10822,"laveste":10823,"Falster":10824,"kompromis":10825,"uddannelserne":10826,"mærkeligt":10827,"dokumentar":10828,"spænder":10829,"Tilsæt":10830,"Berling":10831,"Che":10832,"Word":10833,"sandheden":10834,"smagende":10835,"risici":10836,"benzin":10837,"kosten":10838,"Nordsjælland":10839,"synligt":10840,"svagt":10841,"forsynet":10842,"forkæl":10843,"mobiltelefon":10844,"zer":10845,"berettigede":10846,"familiens":10847,"Aktivitet":10848,"tær":10849,"boende":10850,"indeholdt":10851,"chefen":10852,"Dron":10853,"Samme":10854,"chauffør":10855,"skærme":10856,"soveværelse":10857,"Gymnasi":10858,"sung":10859,"dyrker":10860,"parfu":10861,"ihjel":10862,"Villa":10863,"foregik":10864,"tilmeldt":10865,"sekretari":10866,"its":10867,"Vinter":10868,"Royal":10869,"udbre":10870,"licens":10871,"indtræ":10872,"spark":10873,"oprindelse":10874,"kneppe":10875,"oteker":10876,"sandhed":10877,"interval":10878,"Jor":10879,"samlingen":10880,"arrangeret":10881,"sexlegetøj":10882,"rekrutter":10883,"erstatte":10884,"musli":10885,"Damer":10886,"tænkning":10887,"beskeder":10888,"reagerer":10889,"prostitu":10890,"efterspørgsel":10891,"Udvalget":10892,"tika":10893,"Robert":10894,"afslører":10895,"jysk":10896,"HP":10897,"genstand":10898,"gennemgar":10899,"latter":10900,"inkluderer":10901,"BY":10902,"Has":10903,"myg":10904,"dif":10905,"bevilling":10906,"screen":10907,"forsvandt":10908,"smiddel":10909,"cket":10910,"cool":10911,"efterløn":10912,"demonstr":10913,"Fortæl":10914,"Enhver":10915,"forsv":10916,"styrer":10917,"adressen":10918,"generationer":10919,"Betal":10920,"højest":10921,"prædik":10922,"fleksibilitet":10923,"dispen":10924,"optimering":10925,"gribe":10926,"ærligt":10927,"Son":10928,"gelser":10929,"Normalt":10930,"rækkefølge":10931,"drengene":10932,"amilla":10933,"digitalt":10934,"gardero":10935,"Stu":10936,"lærings":10937,"Forfatter":10938,"Hertil":10939,"gymnastik":10940,"adop":10941,"LIG":10942,"opdagelse":10943,"attraktive":10944,"glu":10945,"orke":10946,"Lækker":10947,"Røde":10948,"værelsen":10949,"1993":10950,"vler":10951,"scenar":10952,"herfor":10953,"Supp":10954,"kundens":10955,"ged":10956,"grafik":10957,"issen":10958,"besvare":10959,"Indhold":10960,"Vejen":10961,"tradt":10962,"beslutte":10963,"Daniel":10964,"bremse":10965,"erind":10966,"efterars":10967,"pej":10968,"klap":10969,"indirekte":10970,"Budget":10971,"stabilitet":10972,"indehaver":10973,"dernes":10974,"lovet":10975,"Kbh":10976,"Transport":10977,"Victor":10978,"valuta":10979,"medarbejderen":10980,"Antallet":10981,"Kamp":10982,"nederst":10983,"asen":10984,"IST":10985,"Charlotte":10986,"original":10987,"tiet":10988,"130":10989,"slov":10990,"handlet":10991,"Hjemme":10992,"ped":10993,"følsomme":10994,"forestillinger":10995,"elas":10996,"indledende":10997,"rask":10998,"kemiske":10999,"meningen":11000,"kollegaer":11001,"Test":11002,"bidraget":11003,"Shop":11004,"Nyk":11005,"fandtes":11006,"hjælpsomme":11007,"inddragelse":11008,"hang":11009,"hom":11010,"Stock":11011,"varemær":11012,"Lab":11013,"fæst":11014,"befri":11015,"pornostjerne":11016,"spørgeskema":11017,"iste":11018,"nærliggende":11019,"smøder":11020,"alumini":11021,"urter":11022,"kin":11023,"Eventu":11024,"Eva":11025,"Skanderborg":11026,"ual":11027,"ai":11028,"Jy":11029,"fungerede":11030,"Kristus":11031,"Internet":11032,"sposi":11033,"SER":11034,"slank":11035,"varmer":11036,"poser":11037,"hinandens":11038,"kolding":11039,"keram":11040,"kristendom":11041,"feber":11042,"alg":11043,"omfru":11044,"nederste":11045,"Hjem":11046,"habet":11047,"kirkens":11048,"semi":11049,"opnaede":11050,"udtaler":11051,"videoen":11052,"barber":11053,"solid":11054,"forbrugere":11055,"Følg":11056,"overgreb":11057,"teknologier":11058,"Henning":11059,"enorm":11060,"avl":11061,"arrangementet":11062,"tasker":11063,"hængende":11064,"lysten":11065,"OC":11066,"emale":11067,"versioner":11068,"beslag":11069,"Særligt":11070,"ejendoms":11071,"konsekvens":11072,"iget":11073,"Pat":11074,"udgøre":11075,"brø":11076,"overvejende":11077,"Fab":11078,"hvidløg":11079,"nydelse":11080,"størstedelen":11081,"beskyttelses":11082,"zi":11083,"omgivet":11084,"dire":11085,"salen":11086,"lelse":11087,"ott":11088,"formidle":11089,"grus":11090,"citron":11091,"vindues":11092,"rethe":11093,"fristen":11094,"radets":11095,"strer":11096,"Torben":11097,"maltider":11098,"trøje":11099,"graden":11100,"vrede":11101,"DG":11102,"bachelor":11103,"asing":11104,"stro":11105,"ofre":11106,"hellige":11107,"fodbol":11108,"Nok":11109,"overholde":11110,"fingrene":11111,"Ram":11112,"bakker":11113,"dyrene":11114,"FL":11115,"hule":11116,"gennemsnittet":11117,"ekstrem":11118,"demokratiet":11119,"downloade":11120,"opspar":11121,"belægning":11122,"lykkelig":11123,"spredt":11124,"juridisk":11125,"agerede":11126,"West":11127,"skjult":11128,"SV":11129,"vangel":11130,"rødder":11131,"ters":11132,"gæste":11133,"afholde":11134,"ati":11135,"taber":11136,"opad":11137,"HA":11138,"drama":11139,"badeværelset":11140,"vikar":11141,"planlagte":11142,"swingerklub":11143,"sagens":11144,"adi":11145,"portræt":11146,"dømme":11147,"jubilæum":11148,"benet":11149,"straffes":11150,"Gammel":11151,"tilmeld":11152,"mindske":11153,"bredere":11154,"Kasper":11155,"landskabet":11156,"oplyste":11157,"forhandlinger":11158,"900":11159,"yngste":11160,"æde":11161,"kajak":11162,"udøver":11163,"leks":11164,"thaimassage":11165,"Indledning":11166,"landshold":11167,"Sep":11168,"panden":11169,"Bio":11170,"filosofi":11171,"Jorden":11172,"pletter":11173,"ævn":11174,"Tyrkiet":11175,"tillingen":11176,"koloni":11177,"hændelser":11178,"opdatere":11179,"Mølle":11180,"innovative":11181,"Læge":11182,"stej":11183,"mix":11184,"Mes":11185,"dipl":11186,"tyskland":11187,"ærke":11188,"kameraet":11189,"Undersøgelsen":11190,"lase":11191,"vitaminer":11192,"Mød":11193,"mødre":11194,"sviger":11195,"adskiller":11196,"mild":11197,"skrue":11198,"kreativitet":11199,"skive":11200,"iagt":11201,"omradets":11202,"indføre":11203,"Specielt":11204,"begrænsede":11205,"sættelsen":11206,"head":11207,"cktail":11208,"import":11209,"infla":11210,"ng":11211,"domæn":11212,"Thaimassage":11213,"strømmen":11214,"USB":11215,"afgøre":11216,"godtgørelse":11217,"pude":11218,"smed":11219,"Poulsen":11220,"Ang":11221,"forarsag":11222,"gart":11223,"konstater":11224,"Bjar":11225,"randers":11226,"byrdes":11227,"Dre":11228,"forelsket":11229,"gods":11230,"stikker":11231,"Modne":11232,"urs":11233,"regelmæssigt":11234,"ismer":11235,"Onsdag":11236,"Danish":11237,"Uge":11238,"markeret":11239,"mistanke":11240,"kugle":11241,"konstruk":11242,"hemmelighed":11243,"akterer":11244,"Total":11245,"NB":11246,"Tvær":11247,"rehabili":11248,"udlejer":11249,"ametre":11250,"trist":11251,"Tus":11252,"forretninger":11253,"Østrig":11254,"madlav":11255,"mmere":11256,"ober":11257,"Tim":11258,"mæt":11259,"beregninger":11260,"kombinere":11261,"kunsten":11262,"portion":11263,"certifik":11264,"synge":11265,"voldsom":11266,"realistisk":11267,"denes":11268,"positioner":11269,"rop":11270,"forinden":11271,"ory":11272,"alisme":11273,"orth":11274,"Cafe":11275,"visi":11276,"MP":11277,"kagen":11278,"kælderen":11279,"Hovedstaden":11280,"kommunalbestyrelsen":11281,"velsmagende":11282,"inddrage":11283,"opgrader":11284,"arhund":11285,"smodt":11286,"big":11287,"Næsten":11288,"bekymring":11289,"batterier":11290,"IND":11291,"husdyr":11292,"fastsætter":11293,"serverer":11294,"nett":11295,"Filmen":11296,"trusser":11297,"registrerede":11298,"sikrede":11299,"Hob":11300,"skulde":11301,"Torsdag":11302,"oline":11303,"kreativ":11304,"ballage":11305,"Sofie":11306,"reglen":11307,"Yderligere":11308,"PDF":11309,"sejle":11310,"arbejdstid":11311,"islam":11312,"spilleren":11313,"sæbe":11314,"Send":11315,"stegn":11316,"opbevares":11317,"institutionen":11318,"work":11319,"drøft":11320,"udleveret":11321,"arre":11322,"ike":11323,"gien":11324,"fars":11325,"veter":11326,"from":11327,"ago":11328,"pun":11329,"milf":11330,"digte":11331,"malinger":11332,"gards":11333,"sekretær":11334,"aftalte":11335,"fakta":11336,"tilbered":11337,"LÆ":11338,"vasker":11339,"angrebet":11340,"beklædning":11341,"udenrig":11342,"Vejledning":11343,"journalister":11344,"begravet":11345,"?.":11346,"strationer":11347,"drog":11348,"tilfældigt":11349,"aktuelt":11350,"problemerne":11351,"bam":11352,"fjord":11353,"ringet":11354,"Penis":11355,"fog":11356,"toler":11357,"isoleret":11358,"Stig":11359,"Mogens":11360,"tørret":11361,"beredskab":11362,"villige":11363,"forebyggende":11364,"abningstider":11365,"sparring":11366,"sektion":11367,"kedeligt":11368,"kvaliteter":11369,"ansøgningen":11370,"sinde":11371,"rykke":11372,"toft":11373,"skarpt":11374,"udtrykke":11375,"ensartet":11376,"plu":11377,"udlændinge":11378,"Vid":11379,"skadelige":11380,"wich":11381,"flir":11382,"dagene":11383,"forespørg":11384,"VVS":11385,"anerkendte":11386,"unden":11387,"isla":11388,"140":11389,"metoden":11390,"oler":11391,"services":11392,"Mak":11393,"Pop":11394,"Bjørn":11395,"slidt":11396,"ladning":11397,"Fjord":11398,"trent":11399,"Cy":11400,"Flemming":11401,"ulære":11402,"bly":11403,"Hede":11404,"ssikker":11405,"spildevand":11406,"Tw":11407,"tikler":11408,"tainer":11409,"opretter":11410,"vedtægter":11411,"sagerne":11412,"lander":11413,"yderste":11414,"tomme":11415,"runder":11416,"Hjørring":11417,"James":11418,"Syg":11419,"onering":11420,"fliser":11421,"underholdende":11422,"kore":11423,"gørende":11424,"farlig":11425,"vækkende":11426,"stenen":11427,"ophør":11428,"passede":11429,"ux":11430,"øgen":11431,"revider":11432,"medlemsstat":11433,"skove":11434,"hite":11435,"Folkeparti":11436,"turnering":11437,"kademi":11438,"Børnene":11439,"bod":11440,"versity":11441,"Homo":11442,"gebyrer":11443,"Køkken":11444,"skiller":11445,"Tirsdag":11446,"værelserne":11447,"DET":11448,"fasen":11449,"rumme":11450,"apparatet":11451,"stres":11452,"ærger":11453,"kriminalitet":11454,"System":11455,"drives":11456,"udgaver":11457,"your":11458,"besparelse":11459,"indende":11460,"fladen":11461,"voks":11462,"feedback":11463,"manuskri":11464,"klasses":11465,"vred":11466,"mødtes":11467,"rose":11468,"videregi":11469,"Pern":11470,"hjælpen":11471,"Langt":11472,"assistent":11473,"konstatere":11474,"ustit":11475,"tredj":11476,"bour":11477,"Mas":11478,"landsdækkende":11479,"kæledyr":11480,"Bryg":11481,"lovligt":11482,"angivelse":11483,"tarn":11484,"portal":11485,"overbevist":11486,"spansk":11487,"trætte":11488,"Bygge":11489,"separat":11490,"efterfulgt":11491,"ologien":11492,"egentligt":11493,"Oven":11494,"afsluttes":11495,"efterlader":11496,"avancerede":11497,"bevaret":11498,"skaf":11499,"døbt":11500,"hæld":11501,"lykket":11502,"splaner":11503,"fornuftigt":11504,"registrere":11505,"Ci":11506,"menneskers":11507,"udsendt":11508,"Kør":11509,"indtast":11510,"Skatte":11511,"attra":11512,"brøn":11513,"undborg":11514,"DSB":11515,"omkostningerne":11516,"synd":11517,"light":11518,"hævet":11519,"Sovjet":11520,"fortegn":11521,"dagtilbud":11522,"regeringens":11523,"brygger":11524,"næsen":11525,"adresser":11526,"patienterne":11527,"personal":11528,"It":11529,"Regeringen":11530,"Kig":11531,"højden":11532,"olier":11533,"Angel":11534,"modtageren":11535,"bekymringer":11536,"parts":11537,"sgaard":11538,"mager":11539,"turde":11540,"TV2":11541,"elektrisk":11542,"event":11543,"skyder":11544,"udad":11545,"bonde":11546,"tekstil":11547,"juletræ":11548,"tæppe":11549,"forudgaende":11550,"Forældre":11551,"klikker":11552,"oliven":11553,"auten":11554,"Plads":11555,"copenhagen":11556,"istan":11557,"petit":11558,"jyllands":11559,"bredband":11560,"Stø":11561,"alier":11562,"jerede":11563,"orange":11564,"menings":11565,"undtag":11566,"løbs":11567,"konsi":11568,"trekant":11569,"formulering":11570,"Fræk":11571,"Apr":11572,"ødven":11573,"ekon":11574,"Frederikshavn":11575,"Bliver":11576,"liget":11577,"cand":11578,"kvadratmeter":11579,"sande":11580,"satser":11581,"Central":11582,"bomuld":11583,"strategisk":11584,"teamet":11585,"udveksling":11586,"Samsung":11587,"malgruppe":11588,"udtalelse":11589,"aud":11590,"University":11591,"klinikken":11592,"refunder":11593,"amt":11594,"vejene":11595,"derende":11596,"myndighederne":11597,"glimrende":11598,"syl":11599,"Værdi":11600,"inklusive":11601,"vidst":11602,"traditionelt":11603,"HUS":11604,"informations":11605,"ligaen":11606,"traditioner":11607,"ankommer":11608,"øvede":11609,"aldre":11610,"næs":11611,"deri":11612,"spladser":11613,"formo":11614,"See":11615,"forudsætter":11616,"forbinder":11617,"kompliceret":11618,"hesten":11619,"Netop":11620,"Auto":11621,"must":11622,"prinse":11623,"Jonas":11624,"detaljeret":11625,"overe":11626,"Bladet":11627,"udsættes":11628,"Sop":11629,"uft":11630,"kosttilskud":11631,"vidne":11632,"smilede":11633,"ruter":11634,"bærende":11635,"julen":11636,"Stift":11637,"tabletter":11638,"girl":11639,"Dejligt":11640,"fyret":11641,"kredi":11642,"hader":11643,"1920":11644,"skue":11645,"koder":11646,"tilsammen":11647,"tilpasning":11648,"Politik":11649,"poly":11650,"flyttes":11651,"bestemmelserne":11652,"kalorier":11653,"samvittighed":11654,"entu":11655,"Canada":11656,"givelsen":11657,"drikkevarer":11658,"Arbejdet":11659,"IA":11660,"Bol":11661,"beskæftigelses":11662,"unktur":11663,"lærerne":11664,"Afdeling":11665,"pædagoger":11666,"Barcel":11667,"udgivelse":11668,"oer":11669,"optager":11670,"vugge":11671,"gn":11672,"laser":11673,"cirku":11674,"Sjæl":11675,"indbyrdes":11676,"vidende":11677,"Færøerne":11678,"Beslut":11679,"160":11680,"lidelse":11681,"Ron":11682,"koncentra":11683,"stramme":11684,"særskilt":11685,"diameter":11686,"indbydende":11687,"Fore":11688,"diagnose":11689,"udbrud":11690,"kredsen":11691,"Følgende":11692,"Øvrige":11693,"logge":11694,"arkæ":11695,"UK":11696,"dækkes":11697,"besiddelse":11698,"Ringsted":11699,"Statens":11700,"Medle":11701,"sutte":11702,"Eleven":11703,"Hvidovre":11704,"Herren":11705,"omgivelserne":11706,"redegørelse":11707,"dokumentere":11708,"kompetente":11709,"aggres":11710,"tyve":11711,"smidt":11712,"Græken":11713,"elen":11714,"Modt":11715,"muslimer":11716,"arkiv":11717,"house":11718,"militære":11719,"blon":11720,"pind":11721,"indgangen":11722,"volumen":11723,"lægemiddel":11724,"clo":11725,"uch":11726,"skræmmende":11727,"Ars":11728,"CP":11729,"minimal":11730,"Hard":11731,"Kommunik":11732,"Fan":11733,"frigi":11734,"dkvalitet":11735,"vinen":11736,"møbel":11737,"tidspen":11738,"perspektiver":11739,"Hø":11740,"kammerat":11741,"Marg":11742,"fællesskaber":11743,"implementering":11744,"habe":11745,"taknemm":11746,"Nykøbing":11747,"Berlingske":11748,"foregaende":11749,"skjulte":11750,"Jern":11751,"reel":11752,"elite":11753,"fabrikken":11754,"tallerken":11755,"afsat":11756,"kørekort":11757,"Denmark":11758,"Europas":11759,"forlænge":11760,"sogn":11761,"Drift":11762,"erkende":11763,"agtigt":11764,"balancen":11765,"bug":11766,"sgade":11767,"hovedpine":11768,"skæn":11769,"fødderne":11770,"synger":11771,"maa":11772,"1500":11773,"henne":11774,"dominerende":11775,"solidt":11776,"Tab":11777,"romantisk":11778,"Spa":11779,"Finland":11780,"medens":11781,"database":11782,"suver":11783,"Note":11784,"skandinavi":11785,"statslige":11786,"uafhængige":11787,"udvæl":11788,"hale":11789,"rimelige":11790,"fjernvarme":11791,"sangen":11792,"olin":11793,"stikke":11794,"begaet":11795,"klipper":11796,"lses":11797,"folks":11798,"sinds":11799,"iret":11800,"variation":11801,"DAG":11802,"gødning":11803,"knog":11804,"klinisk":11805,"praktiserende":11806,"Øl":11807,"kronisk":11808,"sof":11809,"Jean":11810,"koncentration":11811,"opgørelsen":11812,"klet":11813,"slutte":11814,"suppe":11815,"sno":11816,"oprettelse":11817,"UG":11818,"ÆN":11819,"hing":11820,"omer":11821,"velkendte":11822,"kors":11823,"barer":11824,"hygiejne":11825,"Slut":11826,"fartøj":11827,"Ville":11828,"absor":11829,"ensborg":11830,"War":11831,"Valby":11832,"Haderslev":11833,"kup":11834,"konklusion":11835,"Nyborg":11836,"Jacobsen":11837,"agerne":11838,"125":11839,"1991":11840,"High":11841,"vandret":11842,"oppen":11843,"drik":11844,"malsætning":11845,"sjælden":11846,"hens":11847,"ern":11848,"Adam":11849,"vie":11850,"redig":11851,"omtalt":11852,"LL":11853,"Finn":11854,"halvar":11855,"attraktiv":11856,"tiviser":11857,"Selskabet":11858,"transa":11859,"Mail":11860,"kærlig":11861,"Kunden":11862,"sidstnævnte":11863,"gavekort":11864,"ates":11865,"kontingent":11866,"ultima":11867,"velfungerende":11868,"ambiti":11869,"SC":11870,"vanvit":11871,"motoren":11872,"King":11873,"spræ":11874,"sinstitu":11875,"https":11876,"Tand":11877,"gry":11878,"nationalt":11879,"Cal":11880,"atlet":11881,"kæmpede":11882,"højskole":11883,"deraf":11884,"aktiveret":11885,"nakke":11886,"Sønderjylland":11887,"forladt":11888,"bjæl":11889,"gevinster":11890,"elektriske":11891,"reformen":11892,"Schweiz":11893,"betingelse":11894,"BO":11895,"Gang":11896,"overtaget":11897,"vald":11898,"Bibel":11899,"brændte":11900,"filtr":11901,"krævende":11902,"Kateg":11903,"opstilling":11904,"voldsomme":11905,"KOM":11906,"perle":11907,"kigget":11908,"myr":11909,"stemt":11910,"pumper":11911,"rit":11912,"Konge":11913,"intens":11914,"konstateret":11915,"reagere":11916,"forholder":11917,"børste":11918,"Synes":11919,"reelle":11920,"ination":11921,"magasin":11922,"nd":11923,"omtalte":11924,"blø":11925,"skatter":11926,"UP":11927,"Read":11928,"videres":11929,"medfølger":11930,"organer":11931,"kreditkort":11932,"genre":11933,"just":11934,"Perfekt":11935,"terapeu":11936,"hobby":11937,"finale":11938,"fordelingen":11939,"ophav":11940,"brystet":11941,"flader":11942,"./":11943,"burger":11944,"chok":11945,"dernæst":11946,"Trods":11947,"Europ":11948,"Retten":11949,"afslappende":11950,"hs":11951,"trappe":11952,"olien":11953,"levelse":11954,"prioritet":11955,"power":11956,"menes":11957,"brændende":11958,"Livet":11959,"forarsaget":11960,"gril":11961,"ruder":11962,"ernæring":11963,"symbo":11964,"medicinske":11965,"indtjen":11966,"nyligt":11967,"stog":11968,"Parlamentet":11969,"handværkere":11970,"gennemførte":11971,"skjold":11972,"yge":11973,"forlag":11974,"bekræfter":11975,"Casino":11976,"overføres":11977,"slanke":11978,"Lit":11979,"HOL":11980,"gif":11981,"kastede":11982,"horison":11983,"ynder":11984,"overstaet":11985,"sour":11986,"lignede":11987,"wal":11988,"begejstret":11989,"bitter":11990,"egang":11991,"fornyelse":11992,"konceptet":11993,"honning":11994,"\u0000\u0000\u0000\u0000\u0000\u0000\u0000\u0000":11995,"sættere":11996,"installere":11997,"overtage":11998,"Inge":11999,"tilgode":12000,"Omrade":12001,"has":12002,"blikke":12003,"forhøjet":12004,"suge":12005,"typiske":12006,"ric":12007,"kvitter":12008,"dun":12009,"lerup":12010,"Bred":12011,"skerne":12012,"Barnet":12013,"varede":12014,"Slo":12015,"offen":12016,"Imp":12017,"telefonnummer":12018,"tyndt":12019,"organiseret":12020,"skinner":12021,"universitetet":12022,"regelmæssig":12023,"velfærds":12024,"karakterer":12025,"sexy":12026,"opfyldelse":12027,"prins":12028,"hæfter":12029,"LG":12030,"oste":12031,"tilrettelæg":12032,"EP":12033,"Historien":12034,"fokuseret":12035,"endet":12036,"glæden":12037,"iPad":12038,"stifter":12039,"lage":12040,"buffet":12041,"bagud":12042,"Deltag":12043,"æbler":12044,"Scan":12045,"Forsik":12046,"itu":12047,"Pernille":12048,"erstattet":12049,"forholds":12050,"sejlads":12051,"Norden":12052,"garanteret":12053,"list":12054,"specialiseret":12055,"landbrugs":12056,"frag":12057,"tungt":12058,"House":12059,"Efterfølgende":12060,"bekræftelse":12061,"erklæ":12062,"udstrækning":12063,"bjerge":12064,"Fuld":12065,"Horn":12066,"Brian":12067,"1989":12068,"strategiske":12069,"samfundets":12070,"sætnings":12071,"tise":12072,"TA":12073,"Gir":12074,"entreprenør":12075,"hyre":12076,"events":12077,"Android":12078,"Len":12079,"Baby":12080,"fremga":12081,"Albert":12082,"overført":12083,"fornemme":12084,"middelalder":12085,"forælder":12086,"selskabs":12087,"grov":12088,"Cit":12089,"istand":12090,"1945":12091,"1930":12092,"sejre":12093,"cocktail":12094,"ophæng":12095,"omtrent":12096,"gat":12097,"velvære":12098,"ligning":12099,"afrika":12100,"hængen":12101,"essenti":12102,"nøjagtig":12103,"falsk":12104,"redet":12105,"mørket":12106,"rot":12107,"bæredygtighed":12108,"Thomsen":12109,"anbefaling":12110,"Bestil":12111,"snakkede":12112,"Colle":12113,"agent":12114,"Lyn":12115,"hylder":12116,"flix":12117,"lets":12118,"anser":12119,"depo":12120,"jæle":12121,"akademi":12122,"bte":12123,"Set":12124,"silke":12125,"autoriseret":12126,"lysende":12127,"falske":12128,"bagsiden":12129,"iki":12130,"ont":12131,"Uddannelses":12132,"aktivitets":12133,"tileg":12134,"forbrugerne":12135,"medit":12136,"centi":12137,"deløb":12138,"Psyk":12139,"ado":12140,"bredte":12141,"Tit":12142,"Nedenfor":12143,"roser":12144,"will":12145,"1940":12146,"Union":12147,"forsynings":12148,"forretningen":12149,"erhvervslivet":12150,"fornuftig":12151,"naboer":12152,"dagsordenen":12153,"varigt":12154,"Moder":12155,"arkitek":12156,"meddelt":12157,"Opr":12158,"mentalt":12159,"bekræftet":12160,"nedad":12161,"Idræts":12162,"stilstand":12163,"fundament":12164,"ambassa":12165,"siddet":12166,"Vend":12167,"Mex":12168,"steds":12169,"Julie":12170,"ikkede":12171,"ssund":12172,"fronten":12173,"bevarer":12174,"user":12175,"nervøs":12176,"titler":12177,"indstille":12178,"udtrykker":12179,"ghan":12180,"parametre":12181,"værge":12182,"udgiver":12183,"snakket":12184,"undertøj":12185,"omkringliggende":12186,"this":12187,"demokratisk":12188,"affel":12189,"dynamisk":12190,"udgjorde":12191,"Fx":12192,"Disk":12193,"tug":12194,"køres":12195,"skæg":12196,"Via":12197,"købs":12198,"Fit":12199,"midlertidigt":12200,"bronze":12201,"bydel":12202,"Kristensen":12203,"udstedt":12204,"...]":12205,"maleri":12206,"forhindrer":12207,"Nan":12208,"kontrast":12209,"Group":12210,"opdræ":12211,"bolle":12212,"offentligheden":12213,"ficer":12214,"Træn":12215,"Stra":12216,"Ska":12217,"Okt":12218,"olet":12219,"Spørgsmalet":12220,"organis":12221,"Press":12222,"350":12223,"beund":12224,"forhandlere":12225,"oral":12226,"indtag":12227,"CVR":12228,"hvertfald":12229,"dateret":12230,"tænkes":12231,"spriser":12232,"undere":12233,"takke":12234,"Prem":12235,"Syddanmark":12236,"analysere":12237,"aland":12238,"ansvars":12239,"frik":12240,"Camilla":12241,"kompet":12242,"trænge":12243,"booke":12244,"røven":12245,"Undga":12246,"bjergene":12247,"forudsig":12248,"værelses":12249,"oftere":12250,"Nicola":12251,"analysen":12252,"nyttige":12253,"Nikola":12254,"Meto":12255,"radgivere":12256,"kobber":12257,"Tech":12258,"statens":12259,"gøring":12260,"ype":12261,"Alder":12262,"''":12263,"Gun":12264,"timi":12265,"designs":12266,"civil":12267,"udkast":12268,"ventar":12269,"kryp":12270,"allerup":12271,"sommerferien":12272,"talende":12273,"krimi":12274,"passagerer":12275,"Klar":12276,"indlagt":12277,"spids":12278,"neret":12279,"Fødevare":12280,"Lys":12281,"kvæl":12282,"dessert":12283,"vande":12284,"forbindelsen":12285,"Camping":12286,"orter":12287,"Kred":12288,"cing":12289,"terrassen":12290,"LA":12291,"hemmelige":12292,"gennemsnitlig":12293,"knal":12294,"range":12295,"servicen":12296,"hvortil":12297,"ugh":12298,"Vind":12299,"grebet":12300,"bagage":12301,"sauce":12302,"skrevne":12303,"omegn":12304,"seje":12305,"pers":12306,"færreste":12307,"digheden":12308,"overholder":12309,"diesel":12310,"bekymre":12311,"lars":12312,"uafhængig":12313,"hjerter":12314,"informere":12315,"Ryg":12316,"ENT":12317,"drop":12318,"helm":12319,"vedligeholde":12320,"Udgivet":12321,"væsentligste":12322,"Fed":12323,"forstod":12324,"Rol":12325,"Grækenland":12326,"Anton":12327,"frisør":12328,"puder":12329,"indvandrere":12330,"Def":12331,"udbetales":12332,"gyp":12333,"Tror":12334,"omtale":12335,"detalje":12336,"kv":12337,"alifor":12338,"fængslet":12339,"minus":12340,"tilværelse":12341,"separ":12342,"facade":12343,"erektion":12344,"netværks":12345,"registreres":12346,"Stal":12347,"mht":12348,"sas":12349,"trau":12350,"key":12351,"støder":12352,"konkurs":12353,"Turen":12354,"overleve":12355,"hullet":12356,"stabilt":12357,"kling":12358,"tallene":12359,"Standard":12360,"præster":12361,"teknologiske":12362,"klædning":12363,"Alminde":12364,"slim":12365,"børnet":12366,"bækken":12367,"rydde":12368,"kulturer":12369,"produktivitet":12370,"melodi":12371,"skran":12372,"Rock":12373,"Teen":12374,"udste":12375,"varetager":12376,"inddrages":12377,"naz":12378,"angives":12379,"jurs":12380,"aden":12381,"naar":12382,"los":12383,"afslapning":12384,"cat":12385,"ording":12386,"zoner":12387,"betydelige":12388,"condition":12389,"Dyre":12390,"uri":12391,"bekæmpe":12392,"reform":12393,"Marianne":12394,"robust":12395,"tast":12396,"NOR":12397,"underlagt":12398,"LP":12399,"Mort":12400,"komsten":12401,"returret":12402,"helte":12403,"handsker":12404,"Amal":12405,"farverne":12406,"Anmel":12407,"Ferie":12408,"kvo":12409,"Glad":12410,"vage":12411,"løj":12412,"alde":12413,"stronom":12414,"pist":12415,"tilpasses":12416,"Sundhedsstyrelsen":12417,"bekve":12418,"Step":12419,"fastlagt":12420,"terr":12421,"strakt":12422,"aftales":12423,"alisering":12424,"lid":12425,"gensidig":12426,"sigte":12427,"Brasil":12428,"krone":12429,"skilsmisse":12430,"Mig":12431,"Barcelona":12432,"overstiger":12433,"fremskridt":12434,"ae":12435,"sexede":12436,"teat":12437,"budt":12438,"seminar":12439,"ston":12440,"roen":12441,"prise":12442,"\"-":12443,"flet":12444,"rensning":12445,"erfaren":12446,"aktionen":12447,"Nørrebro":12448,"hjælpere":12449,"Flens":12450,"iko":12451,"kvinders":12452,"arer":12453,"blet":12454,"Nordic":12455,"dnings":12456,"ologer":12457,"oprindelig":12458,"Asien":12459,"ledt":12460,"sættelser":12461,"medbringe":12462,"kæresten":12463,"udvalgets":12464,"Bibliotek":12465,"Møde":12466,"shirt":12467,"vd":12468,"bogstaver":12469,"parla":12470,"tigheds":12471,"Magnus":12472,"blid":12473,"fleksible":12474,"materiel":12475,"indslag":12476,"livskvalitet":12477,"Eksempelvis":12478,"russisk":12479,"optages":12480,"spræng":12481,"armene":12482,"argument":12483,"trænere":12484,"centimeter":12485,"herved":12486,"kvæ":12487,"esult":12488,"smetode":12489,"inva":12490,"meddelelser":12491,"gammeldags":12492,"beslutningen":12493,"Gl":12494,"mærkes":12495,"Erotisk":12496,"udnævnt":12497,"nordisk":12498,"direktor":12499,"navnlig":12500,"brid":12501,"strikket":12502,"dannede":12503,"fineste":12504,"orienterede":12505,"temperaturer":12506,"Rab":12507,"skep":12508,"ISK":12509,"midter":12510,"regerings":12511,"auti":12512,"Louis":12513,"tidspension":12514,"affære":12515,"dok":12516,"bang":12517,"Dvs":12518,"skyldig":12519,"holdbarhed":12520,"gruppens":12521,"kompleks":12522,"brands":12523,"sklasse":12524,"herinde":12525,"dokumenteret":12526,"kærligheds":12527,"ML":12528,"Virkelig":12529,"negativt":12530,"nuancer":12531,"register":12532,".),":12533,"Forsikring":12534,"abenraa":12535,"forsvaret":12536,"norsk":12537,"trædende":12538,"skamp":12539,"ledig":12540,"handtag":12541,"emperatur":12542,"indskud":12543,"ægterne":12544,"drengen":12545,"esen":12546,"BA":12547,"graviditeten":12548,"tle":12549,"pels":12550,"ideelle":12551,"længer":12552,"Flot":12553,"krøl":12554,"Enheds":12555,"Allan":12556,"bredden":12557,"usse":12558,"kedelig":12559,"Ori":12560,"kanon":12561,"bien":12562,"UV":12563,"FE":12564,"NAT":12565,"smyndighed":12566,"receptionen":12567,"Gruppen":12568,"gæn":12569,"udflugt":12570,"nakken":12571,"faglighed":12572,"kostumer":12573,"MT":12574,"japansk":12575,"kulhydr":12576,"supplement":12577,"Hammer":12578,"smalle":12579,"appetit":12580,"Ske":12581,"Lut":12582,"Medicin":12583,"tænde":12584,"afdøde":12585,"arbejdning":12586,"pant":12587,"Egen":12588,"detek":12589,"ME":12590,"klippet":12591,"booking":12592,"andene":12593,"sprocesser":12594,"sug":12595,"reduceres":12596,"landene":12597,"vandring":12598,"holden":12599,"lanceret":12600,"Ringkøbing":12601,"kendetegnet":12602,"videnskabelig":12603,"æstinen":12604,"parforhold":12605,"Gren":12606,"bibel":12607,"otter":12608,"fortolkning":12609,"afsluttende":12610,"Evalu":12611,"Arne":12612,"Scho":12613,"prøves":12614,"brødre":12615,"Bekendtgørelse":12616,"spray":12617,"OBS":12618,"konger":12619,"Elsker":12620,"vator":12621,"skibs":12622,"handlen":12623,"business":12624,"opføre":12625,"anbefalede":12626,"pump":12627,"trussel":12628,"Landbrug":12629,"sygdoms":12630,"projektets":12631,"bebyg":12632,"egaard":12633,"CC":12634,"groft":12635,"aroma":12636,"Ax":12637,"loy":12638,"kalenderen":12639,"Titel":12640,"betydningen":12641,"Tryg":12642,"jack":12643,"keren":12644,"Verdenskrig":12645,"ikone":12646,"Fores":12647,"seriøse":12648,"MAR":12649,"tilitet":12650,"Skandinavi":12651,"inklusiv":12652,"Tønder":12653,"Stockholm":12654,"tarm":12655,"sorganisa":12656,"nærvær":12657,"destination":12658,"musikere":12659,"ombord":12660,"gymnasiet":12661,"hoto":12662,"ancen":12663,"aldrende":12664,"summer":12665,"justere":12666,"lejen":12667,"sorter":12668,"action":12669,"Norde":12670,"ignor":12671,"teorier":12672,"Trip":12673,"internt":12674,"Dra":12675,"høf":12676,"ruller":12677,"evigt":12678,"tennis":12679,"Form":12680,"vederlag":12681,"tilstedeværelse":12682,"opp":12683,"supple":12684,"engageret":12685,"svømm":12686,"arde":12687,"klyn":12688,"Trin":12689,"parkerings":12690,"mmets":12691,"Ida":12692,"SFO":12693,"procedurer":12694,"skærer":12695,"studere":12696,"berørte":12697,"produceres":12698,"overskueligt":12699,"laks":12700,"Fonden":12701,"vibr":12702,"aktivere":12703,"Ribe":12704,"jour":12705,"Nyheder":12706,"hersker":12707,"Gentofte":12708,"dronning":12709,"forsikringer":12710,"rine":12711,"anbefalet":12712,"----":12713,"syrer":12714,"tæpper":12715,"bjerget":12716,"az":12717,"dyk":12718,"opstillet":12719,"teligt":12720,"rykket":12721,"plejehjem":12722,"stive":12723,"rand":12724,"egnen":12725,"Lud":12726,"fran":12727,"galleri":12728,"LER":12729,"food":12730,"arbejdsopgaver":12731,"spraksis":12732,"ther":12733,"nose":12734,"hospi":12735,"ungerne":12736,"cykle":12737,"Dæk":12738,"Susanne":12739,"aluminium":12740,"Dol":12741,"sklub":12742,"nøglen":12743,"indfri":12744,"foræld":12745,"ligestilling":12746,"krudt":12747,"sigende":12748,"juice":12749,"slund":12750,"træl":12751,"handlingen":12752,"effektiviser":12753,"trykket":12754,"Lil":12755,"afrikanske":12756,"vlen":12757,"Thisted":12758,"miljøer":12759,"Organisa":12760,"ami":12761,"præmier":12762,"erhvervet":12763,"vigtigere":12764,"menneskeret":12765,"kompetent":12766,"BT":12767,"ylle":12768,"citater":12769,"gigt":12770,"Rene":12771,"velkomst":12772,"Størr":12773,"Open":12774,"Videos":12775,"formede":12776,"straling":12777,"demokrat":12778,"NO":12779,"Sar":12780,"Arbejde":12781,"bedømmelse":12782,"bagte":12783,"afbrudt":12784,"BIL":12785,"Erfar":12786,"vækker":12787,"brik":12788,"hof":12789,"cking":12790,"krystal":12791,"udsmyk":12792,"Pension":12793,"ledte":12794,"fordybe":12795,"holdnings":12796,"IGT":12797,"indtage":12798,"instrument":12799,"ekn":12800,"skaden":12801,"stævner":12802,"forældrem":12803,"Samt":12804,"Oversigt":12805,"nøgler":12806,"Up":12807,"sats":12808,"kaptaj":12809,"eksam":12810,"henvise":12811,"Adresse":12812,"bis":12813,"ota":12814,"cirkel":12815,"kartoffel":12816,"Lem":12817,"oc":12818,"vic":12819,"Gade":12820,"skriter":12821,"symboler":12822,"Cykel":12823,"websteder":12824,"Tillæg":12825,"øvet":12826,"Bryster":12827,"hyd":12828,"tidigt":12829,"KUN":12830,"klinikker":12831,"Ægte":12832,"Fokus":12833,"visuelle":12834,"servering":12835,"museer":12836,"forkæle":12837,"leasing":12838,"medvirkende":12839,"Skagen":12840,"bestemmelsen":12841,"udarbejder":12842,"pote":12843,"case":12844,"William":12845,"malene":12846,"havende":12847,"glatte":12848,"?)":12849,"sænke":12850,"konkurrenc":12851,"forsøget":12852,"spul":12853,"afslag":12854,"lus":12855,"dørene":12856,"Chan":12857,"Løb":12858,"afprøve":12859,"?!":12860,"slange":12861,"tilmed":12862,"respektive":12863,"EA":12864,"indgreb":12865,"Nyd":12866,"avanceret":12867,"konsulenter":12868,"tyrk":12869,"heriblandt":12870,"Foruden":12871,"sødt":12872,"Herlev":12873,"abnings":12874,"republik":12875,":.":12876,"perler":12877,"udformning":12878,"knytter":12879,"overtrædelse":12880,"Otto":12881,"butikkerne":12882,"fortry":12883,"præsenterede":12884,"bønner":12885,"blandingen":12886,"aflevere":12887,"flugter":12888,"blidt":12889,"vanil":12890,"Dar":12891,"stager":12892,"lejet":12893,"ssager":12894,"ekspertise":12895,"accept":12896,"bemærket":12897,"kompa":12898,"knapper":12899,"overvejet":12900,"Sun":12901,"fremfor":12902,"Win":12903,"kontrollen":12904,"protokol":12905,"Pædagog":12906,"drenes":12907,"hvalp":12908,"jeans":12909,"intelle":12910,"muslimske":12911,"plakat":12912,"operationen":12913,"underlag":12914,"skød":12915,"lovede":12916,"trang":12917,"inerne":12918,"kuffer":12919,"Refer":12920,"NET":12921,"vindmøller":12922,"Netflix":12923,"udløbet":12924,"sygedag":12925,"kredse":12926,"beskrivelsen":12927,"kollektion":12928,"gyldne":12929,"isra":12930,"Varde":12931,"smilende":12932,"formelle":12933,"Værelset":12934,"selskaberne":12935,"Dagens":12936,"reducerer":12937,"skabelon":12938,"krydret":12939,"forblive":12940,"omme":12941,"Gay":12942,"Irak":12943,"brancher":12944,"Glæ":12945,"tørrer":12946,"sutter":12947,"lomme":12948,"kante":12949,"faser":12950,"Lise":12951,"smagte":12952,"sauna":12953,"udtalt":12954,"Teg":12955,"lægerne":12956,"smarked":12957,"teoretisk":12958,"Rikke":12959,"korrig":12960,"normer":12961,"BH":12962,"omkostning":12963,"Rud":12964,"Køber":12965,"kæden":12966,"beskæftiget":12967,"mænds":12968,"standar":12969,"Fem":12970,"KON":12971,"sejendom":12972,"bemærkes":12973,"terri":12974,"formance":12975,"forskningen":12976,"undvære":12977,"Aften":12978,"ENS":12979,"moderni":12980,"stant":12981,"iført":12982,"vække":12983,"lidenskab":12984,"Entre":12985,"Point":12986,"masker":12987,"køer":12988,"Coun":12989,"Konkurren":12990,"trusler":12991,"strategien":12992,"telig":12993,"Dronning":12994,"sværd":12995,"realkredit":12996,"selvmord":12997,"pulje":12998,"yld":12999,"mys":13000,"Partner":13001,"Koncer":13002,"oge":13003,"Fac":13004,"emballage":13005,"forbrænding":13006,"SEO":13007,"frustr":13008,"[...]":13009,"hd":13010,"indtager":13011,"ope":13012,"længste":13013,"landsbyen":13014,"vard":13015,"smykke":13016,"omhyggeligt":13017,"betegnes":13018,"sprede":13019,"varige":13020,"arn":13021,"bue":13022,"sgiver":13023,"ege":13024,"Forside":13025,"gradvist":13026,"edr":13027,"berømt":13028,"fortjent":13029,"DNA":13030,"AaB":13031,"ligegyldigt":13032,"risikere":13033,"Las":13034,"Interes":13035,"enty":13036,"gennemfører":13037,"Inte":13038,"maksimale":13039,"iteter":13040,"attraktivt":13041,"kels":13042,"nedlagt":13043,"sbehandling":13044,"FT":13045,"ression":13046,"feri":13047,"GPS":13048,"kulde":13049,"Multi":13050,"strale":13051,"kostede":13052,"ript":13053,"Kommer":13054,"strip":13055,"pikken":13056,"præmis":13057,"konkurrencer":13058,"moduler":13059,"darligere":13060,"bolde":13061,"halvleg":13062,"sundere":13063,"drup":13064,"tilsendt":13065,"stien":13066,"skaberne":13067,"ekso":13068,"bb":13069,"blogger":13070,"Well":13071,"tægt":13072,"hm":13073,"tilsluttet":13074,"egler":13075,"eta":13076,"fordøj":13077,"pod":13078,"Dernæst":13079,"sproglige":13080,"optagelser":13081,"kirt":13082,"Skat":13083,"interviews":13084,"teenager":13085,"ummen":13086,"begrundet":13087,"ius":13088,"minton":13089,"CR":13090,"strømper":13091,"ændringen":13092,"Dejlig":13093,"tw":13094,"vans":13095,"tilbøj":13096,"],":13097,"udløsning":13098,"jævne":13099,"betegnelsen":13100,"Download":13101,"lukkes":13102,"præsten":13103,"Billig":13104,"Best":13105,"vivl":13106,"udtalelser":13107,"fordr":13108,"Fog":13109,"kvæg":13110,"pastand":13111,"celæn":13112,"tang":13113,"anmeldt":13114,"Søl":13115,"Ungdoms":13116,"strakte":13117,"dagligdagen":13118,"maksimal":13119,"glans":13120,"Forud":13121,"karet":13122,"troen":13123,"oprettes":13124,"Grunden":13125,"KV":13126,"Cle":13127,"indlægget":13128,"kinesisk":13129,"Kre":13130,"ints":13131,"betragter":13132,"nordjylland":13133,"værkstedet":13134,"freds":13135,"LO":13136,"salderen":13137,"Fik":13138,"udgivelser":13139,"røret":13140,"batteriet":13141,"Tæn":13142,"sprisen":13143,"Skjern":13144,"prinsesse":13145,"motorvejen":13146,"sammenhængen":13147,"Schmidt":13148,"skæbne":13149,"PO":13150,"jung":13151,"Sankt":13152,"Lokala":13153,"forsendelse":13154,"tilgængelighed":13155,"Borg":13156,"østen":13157,"Mathi":13158,"benyttede":13159,"Advisor":13160,"afbry":13161,"kurv":13162,"outfit":13163,"Hjemmes":13164,"renoveret":13165,"antik":13166,"tisse":13167,"ulovligt":13168,"syr":13169,"hastigheden":13170,"container":13171,"sim":13172,"etooth":13173,"EK":13174,"Samfund":13175,"Blue":13176,"grimme":13177,"Syrien":13178,"skak":13179,"tn":13180,"massag":13181,"ferenti":13182,"ænge":13183,"forsvundet":13184,"kæmpet":13185,"margin":13186,"afdelings":13187,"jakker":13188,"Pludsel":13189,"medalje":13190,"Amer":13191,"grupperne":13192,"Oplysninger":13193,"kulturen":13194,"undtagen":13195,"kelser":13196,"ømning":13197,"vali":13198,"Nil":13199,"fastsatte":13200,"Bedre":13201,"opdateringer":13202,"ejede":13203,"ydende":13204,"eliv":13205,"udførte":13206,"Smit":13207,"arrangere":13208,"Kræft":13209,"SØ":13210,"isser":13211,"festivalen":13212,"eksamens":13213,"Gruppe":13214,"baret":13215,"Cook":13216,"sned":13217,"lesbisk":13218,"negl":13219,"afvist":13220,"redes":13221,"menneskelig":13222,"cience":13223,"indtaste":13224,"indhente":13225,"born":13226,"Radets":13227,"ors":13228,"Formal":13229,"ternes":13230,"kontrakten":13231,"flæ":13232,"skeden":13233,"hyper":13234,"gatur":13235,"Isla":13236,"Lærer":13237,"indgik":13238,"tykt":13239,"iluft":13240,"ee":13241,"tov":13242,"Handels":13243,"færdes":13244,"Resultat":13245,"begrundelse":13246,"Christina":13247,"Kommunalbestyrelsen":13248,"bestyrelsesmedlemmer":13249,"slettet":13250,"talerne":13251,"oversat":13252,"Ful":13253,"kater":13254,"udenom":13255,"1700":13256,"væggene":13257,"ivoli":13258,"vejledende":13259,"forklarede":13260,"angriber":13261,"albummet":13262,"word":13263,"tankeg":13264,"esi":13265,"sans":13266,"dab":13267,"rækket":13268,"rejsning":13269,"vellykket":13270,"ington":13271,"menigheds":13272,"organisering":13273,"smider":13274,"undersøges":13275,"elektronik":13276,"seriøs":13277,"stadion":13278,"saft":13279,"spændings":13280,"legeplads":13281,"hentning":13282,"veret":13283,"blæser":13284,"vert":13285,"lejren":13286,"Sports":13287,"Mest":13288,"Georg":13289,"sløj":13290,"kombinerer":13291,"spejder":13292,"timerne":13293,"støb":13294,"Time":13295,"Unit":13296,"ørem":13297,"ventetid":13298,"Klima":13299,"ukendte":13300,"Anti":13301,"Sygehus":13302,"STR":13303,"kontaktet":13304,"Not":13305,"tavs":13306,"tiderne":13307,"GT":13308,"Love":13309,"dræn":13310,"pile":13311,"jødiske":13312,"gypten":13313,"Dk":13314,"frygter":13315,"drede":13316,"ømmet":13317,"Tina":13318,"come":13319,"junior":13320,"cur":13321,"førtidspension":13322,"Tivoli":13323,"Køn":13324,"Hæld":13325,"Lasse":13326,"komfortable":13327,"ideel":13328,"zar":13329,"planlægningen":13330,"Kop":13331,"vas":13332,"Hr":13333,"Resten":13334,"glasset":13335,"udledning":13336,"appen":13337,"øvre":13338,"erob":13339,"sektoren":13340,"zonen":13341,"fremadrettet":13342,"George":13343,"DEL":13344,"udenlandsk":13345,"børnehaven":13346,"sporten":13347,"fremmer":13348,"dykker":13349,"Nøgen":13350,"slave":13351,"duer":13352,"tapet":13353,"opsat":13354,"rækning":13355,"told":13356,"ændene":13357,"Sur":13358,"girls":13359,"afholdelse":13360,"præsent":13361,"Oli":13362,"eklin":13363,"ament":13364,"hæfte":13365,"pærer":13366,"رررررررررررررررر":13367,":-":13368,"sygeplejersker":13369,"tilsat":13370,"strukturer":13371,"rækkevidde":13372,"ART":13373,"næstformand":13374,"Bebo":13375,"borgerlige":13376,"synspunkter":13377,"Kirken":13378,"lyng":13379,"skruer":13380,"konfirma":13381,"dyn":13382,"friheden":13383,"fluen":13384,"Neder":13385,"poker":13386,"pom":13387,"udkommer":13388,"antages":13389,"Altid":13390,"overflader":13391,"Bos":13392,"scar":13393,"\",\"":13394,"neutr":13395,"SY":13396,"procedure":13397,"nært":13398,"udtalte":13399,"EV":13400,"Navnet":13401,"skjule":13402,"Forum":13403,"abon":13404,"rediger":13405,"Andel":13406,"asiatiske":13407,"Ten":13408,"tendenser":13409,"afslutningen":13410,"Krig":13411,"høn":13412,"undgas":13413,"marat":13414,"advarsel":13415,"ugens":13416,"Lufthavn":13417,"genrer":13418,"Derimod":13419,"ytr":13420,"angiveligt":13421,"læreren":13422,"kæder":13423,"Califor":13424,"chili":13425,"stræber":13426,"BU":13427,"koncentrere":13428,"styper":13429,"Baggrund":13430,"BI":13431,"Fisk":13432,"baneg":13433,"inal":13434,"altan":13435,"Kle":13436,"mentor":13437,"sejren":13438,"tilbageven":13439,"Klaus":13440,"pressen":13441,"aktuel":13442,"BER":13443,"besøget":13444,"fascinerende":13445,"Bestemm":13446,"forhandlingerne":13447,"beskatning":13448,"bevares":13449,"olde":13450,"Glostrup":13451,"modstander":13452,"Ib":13453,"Lone":13454,"gentagne":13455,"kit":13456,"vamp":13457,"afgive":13458,"hytte":13459,"karri":13460,"gerning":13461,"regnskabs":13462,"decideret":13463,"flittigt":13464,"Salg":13465,"angivne":13466,"Dø":13467,"Knudsen":13468,"testen":13469,"cykelt":13470,"strede":13471,"spore":13472,"fremhæver":13473,"styres":13474,"tydelige":13475,"farverige":13476,"skonsul":13477,"Kommentar":13478,"palæstinen":13479,"Office":13480,"tilkende":13481,"Bod":13482,"kørslen":13483,"viborg":13484,"Hvide":13485,"amme":13486,"Hunde":13487,"favoritter":13488,"hensigtsmæssig":13489,"overvældende":13490,"Blog":13491,"kugler":13492,"aks":13493,"that":13494,"gui":13495,"heri":13496,"fornyet":13497,"frederiks":13498,"Lokalavisen":13499,"kanalen":13500,"Anbefal":13501,"Fodbold":13502,"dukkede":13503,"formidler":13504,"slagsen":13505,"slægt":13506,"Holdet":13507,"Ros":13508,"ordrer":13509,"turneringen":13510,"hammer":13511,"Cap":13512,"forsvare":13513,"fornuft":13514,"ktoren":13515,"invitere":13516,"Sty":13517,"broder":13518,"missionens":13519,"ÆRK":13520,"medtage":13521,"annul":13522,"produktioner":13523,"Fø":13524,"jagten":13525,"porteføl":13526,"rupper":13527,"sløn":13528,"guider":13529,"skæres":13530,"trade":13531,"tænderne":13532,"1988":13533,"pabegyndt":13534,"massen":13535,"højttaler":13536,"soda":13537,"sprang":13538,"skabelse":13539,"tterne":13540,"Die":13541,"styrede":13542,"tillykke":13543,"Donald":13544,"soveværelset":13545,"Sikkerheds":13546,"forlænget":13547,"ary":13548,"tatover":13549,"Rødovre":13550,"Klubben":13551,"overføre":13552,"hjulet":13553,"Trine":13554,"Middelfart":13555,"Sovjetuni":13556,"amel":13557,"tomat":13558,"download":13559,",...":13560,"sommerferie":13561,"papiret":13562,"demens":13563,"milde":13564,"black":13565,"udtale":13566,"specialister":13567,"MC":13568,"konstruktioner":13569,"Pig":13570,"sministeriets":13571,"ian":13572,"foreslas":13573,"Netto":13574,"pix":13575,"pragt":13576,"malede":13577,"skattel":13578,"bindende":13579,"skyldige":13580,"erhvervsdrivende":13581,"uddanne":13582,"nytars":13583,"Udlænd":13584,"kunstneriske":13585,"kvalifikationer":13586,"hvalpe":13587,"retningen":13588,"konen":13589,"Tiden":13590,"Jesu":13591,"world":13592,"slagter":13593,"fremstille":13594,"skjorte":13595,"Anvendelse":13596,"smagt":13597,"opgjort":13598,"away":13599,"direktivet":13600,"eksistens":13601,"matrik":13602,"selvtillid":13603,"klaret":13604,"røver":13605,"overbevis":13606,"apparater":13607,"Gitte":13608,"Derved":13609,"vidunderlig":13610,"Shar":13611,"atten":13612,"tropper":13613,"skiftende":13614,"sæder":13615,"jævnt":13616,"uenig":13617,"falt":13618,"indeklima":13619,"folder":13620,"klass":13621,"nægter":13622,"ultimative":13623,"sebær":13624,"selvværd":13625,"Amerik":13626,"Nap":13627,"stænger":13628,"trailer":13629,"premier":13630,"bestaet":13631,"Arbejder":13632,"kontekst":13633,"lunge":13634,"markante":13635,"kontinuer":13636,"rengørings":13637,"afdrag":13638,"dannelsen":13639,"appelsin":13640,"psykologi":13641,"overskuelig":13642,"forpligtelse":13643,"opstart":13644,"Lim":13645,"musikalske":13646,"vejledninger":13647,"portræ":13648,"Kender":13649,"handfuld":13650,"hovedstaden":13651,"Fas":13652,"stegt":13653,"bureauer":13654,"Gymnasium":13655,"dor":13656,"Radet":13657,"glimt":13658,"Taastrup":13659,"Væ":13660,"instrueret":13661,"Ansøg":13662,"bryllups":13663,"Landet":13664,"interesserer":13665,"potentielt":13666,"stærkeste":13667,"bagved":13668,"robot":13669,"fibre":13670,"Jose":13671,"tegl":13672,"forudsat":13673,"fodboldspiller":13674,"hentede":13675,"ysten":13676,"suveræn":13677,"Ford":13678,"ryn":13679,"PER":13680,"linie":13681,"1986":13682,"krydser":13683,"borgerskab":13684,"madlavning":13685,"skrivninger":13686,"dækkede":13687,"gæves":13688,"stuer":13689,"geni":13690,"Luder":13691,"erstatnings":13692,"mineraler":13693,"Bjarne":13694,"sæsoner":13695,"holdbar":13696,"gennemgaende":13697,"bryn":13698,"selig":13699,"ejendomsmægler":13700,"forarsager":13701,"reference":13702,"Pul":13703,"modstands":13704,"bekræfte":13705,"Clo":13706,"VAR":13707,"strenge":13708,"imødekomme":13709,"plantet":13710,"opsparing":13711,"rav":13712,"stadigt":13713,"honor":13714,"Kurset":13715,"afslutte":13716,"aet":13717,"aldeles":13718,"sovjet":13719,"blinde":13720,"elektr":13721,"biologiske":13722,"vulkan":13723,"enlige":13724,"læben":13725,"Portug":13726,"asyl":13727,"herning":13728,"Sant":13729,"Vægt":13730,"content":13731,"Kalundborg":13732,"itor":13733,"fædre":13734,"RK":13735,"angaende":13736,"eksemplarer":13737,"pligtig":13738,"problematik":13739,"Strateg":13740,"vurderinger":13741,"tværtimod":13742,"ath":13743,"efør":13744,"May":13745,"Mindre":13746,"intensitet":13747,"hjelm":13748,"opfatter":13749,"Senior":13750,"bogens":13751,"inventar":13752,"tern":13753,"novelle":13754,"touch":13755,"poolen":13756,"hæftet":13757,"Kors":13758,"kvindelig":13759,"tech":13760,"aftener":13761,"Effek":13762,"neutral":13763,"talmodighed":13764,"merede":13765,"Forbruger":13766,"Maler":13767,"kontrakter":13768,"stamente":13769,"Støv":13770,"apoteket":13771,"optræden":13772,"1987":13773,"bælte":13774,"stjalet":13775,"sluk":13776,"narko":13777,"jorde":13778,"accepteret":13779,"ækker":13780,"guiden":13781,"impor":13782,"endog":13783,"Udviklingen":13784,"Mul":13785,"Værelserne":13786,"sættet":13787,"rednings":13788,"skruet":13789,"bemærkelses":13790,"hængt":13791,"operationer":13792,"omdrejning":13793,"blæk":13794,"krydderier":13795,"indsættes":13796,"nerve":13797,"unø":13798,"træthed":13799,"teknologien":13800,"Møn":13801,"Masser":13802,"NU":13803,"mande":13804,"Sorø":13805,"okse":13806,"ilder":13807,"Hau":13808,"bølger":13809,"streaming":13810,"neth":13811,"følt":13812,"usædvanligt":13813,"bænk":13814,"Sikkerhed":13815,"Rob":13816,"vinding":13817,"Dengang":13818,"regions":13819,"kærester":13820,"færen":13821,"Stedet":13822,"Patient":13823,"pikke":13824,"evangel":13825,"planerne":13826,"folketings":13827,"farts":13828,"Atlan":13829,"manager":13830,"talrige":13831,"Mus":13832,"jernbane":13833,"bæredygtige":13834,"maer":13835,"hopper":13836,"garderobe":13837,"omi":13838,"andens":13839,"oga":13840,"funktionelle":13841,"silkeborg":13842,"Sku":13843,"cyklus":13844,"pli":13845,"anfald":13846,"kampagner":13847,"Fisker":13848,"Alexander":13849,"SEL":13850,"frekven":13851,"opsigelse":13852,"Twitter":13853,"fjernelse":13854,"forestiller":13855,"musklerne":13856,"Hum":13857,"tjent":13858,"kobling":13859,"egu":13860,"nødne":13861,"Hurtig":13862,"sydelse":13863,"afhængighed":13864,"kloster":13865,"Herfra":13866,"fryse":13867,"Sat":13868,"Pludselig":13869,"sier":13870,"retnings":13871,"tagelsen":13872,"kommercielle":13873,"strømme":13874,"privatliv":13875,"anvisninger":13876,"Tusind":13877,"stave":13878,"Aller":13879,"kvælstof":13880,"nedgang":13881,"fonde":13882,"spiritu":13883,"Wh":13884,"palæg":13885,"sserne":13886,"Street":13887,"Gla":13888,"skir":13889,"imponeret":13890,"anholdt":13891,"Ballerup":13892,"anmelder":13893,"certificeret":13894,"Billund":13895,"ængden":13896,"erstatus":13897,"teoretiske":13898,"smøn":13899,"ferier":13900,"alar":13901,"overholdes":13902,"kemikalier":13903,"buske":13904,"sandwich":13905,"semester":13906,"rykkede":13907,"Forskning":13908,"vesy":13909,"Tids":13910,"Introdu":13911,"util":13912,"montere":13913,"opkaldt":13914,"objekter":13915,"udsendelse":13916,"Jun":13917,"Pleje":13918,"Artikel":13919,"kedelige":13920,"Mr":13921,"hormoner":13922,"Ann":13923,"lokalet":13924,"yen":13925,"glemte":13926,"garanterer":13927,"Kæmpe":13928,"djurs":13929,"tricks":13930,"samarbejdspartner":13931,"biskop":13932,"opholdet":13933,"oversky":13934,"forskerne":13935,"anførte":13936,"1985":13937,"sassi":13938,"oly":13939,"efteruddannelse":13940,"fornødne":13941,"stamme":13942,"Øresund":13943,"ledighed":13944,"forgæves":13945,"træerne":13946,"hash":13947,"pit":13948,"ørken":13949,"søm":13950,"opfattes":13951,"Dels":13952,"ægtefæl":13953,"1984":13954,"Hørsholm":13955,"Folket":13956,"Nak":13957,"opfordring":13958,"ikraft":13959,"gyldigt":13960,"betydet":13961,"deltagende":13962,"vagner":13963,"df":13964,"klassik":13965,"infektioner":13966,"Tex":13967,"bombe":13968,"prioritere":13969,"Skol":13970,"deller":13971,"hvorimod":13972,"elsens":13973,"Gylden":13974,"manuelt":13975,"defini":13976,"istedet":13977,"cafeer":13978,"kontrolleret":13979,"kogni":13980,"ATION":13981,"fortiden":13982,"112":13983,"Kin":13984,"gets":13985,"kabler":13986,"Type":13987,"klagenævnet":13988,"ansøgnings":13989,"beklager":13990,"rar":13991,"anken":13992,"snarest":13993,"lejemal":13994,"Pap":13995,"unødven":13996,"hyp":13997,"gravet":13998,"blæst":13999,"oplag":14000,"turisme":14001,"pausen":14002,"færge":14003,"Teknik":14004,"buds":14005,"rutin":14006,"resulterer":14007,"roskilde":14008,"landbruget":14009,"MAS":14010,"profi":14011,"elsket":14012,"ISO":14013,"stralende":14014,"afvikling":14015,"fantasien":14016,"virkningen":14017,"tjenesten":14018,"horsens":14019,"forleden":14020,"temaet":14021,"allermest":14022,"sinstitutioner":14023,"afstanden":14024,"koncern":14025,"smuse":14026,"meldinger":14027,"Bef":14028,"aftryk":14029,"udveks":14030,"udgangspunktet":14031,"Ejendommen":14032,"udgiften":14033,"steron":14034,"mpoo":14035,"dsm":14036,"Organ":14037,"konsult":14038,"like":14039,"løste":14040,"alternativer":14041,"agter":14042,"Greve":14043,"ligende":14044,"tømmer":14045,"Alli":14046,"shøj":14047,"sho":14048,"workshops":14049,"Ene":14050,"PE":14051,"ydelsen":14052,"øves":14053,"arsregnskab":14054,"ligeglad":14055,"madras":14056,"æson":14057,"Skøn":14058,"Mikkelsen":14059,"indstilles":14060,"Harald":14061,"midlertidige":14062,"rygning":14063,"kvalificerede":14064,"pic":14065,"Veg":14066,"Bas":14067,"tilbringe":14068,"famili":14069,"Sene":14070,"TH":14071,"Smukke":14072,"orm":14073,"lednings":14074,"kontoen":14075,"alsi":14076,"mægtig":14077,"Sjo":14078,"Lauri":14079,"rib":14080,"Berg":14081,"amager":14082,"Slet":14083,"køret":14084,"forlig":14085,"kriminelle":14086,"sulten":14087,"Margrethe":14088,"fortegnelse":14089,"ordbog":14090,"FM":14091,"uli":14092,"lagerstatus":14093,"udfordret":14094,"tvil":14095,"xen":14096,"drab":14097,"petence":14098,"render":14099,"heim":14100,"jøder":14101,"røget":14102,"Aabenraa":14103,"dug":14104,"esti":14105,"Sted":14106,"branch":14107,"Generalforsamling":14108,"Græn":14109,"pakning":14110,"faktur":14111,"Januar":14112,"hævder":14113,"ærgerligt":14114,"Birgitte":14115,"Dort":14116,"Lider":14117,"Ideen":14118,"tour":14119,"vationer":14120,"mir":14121,"tredjedel":14122,"betragte":14123,"retfærdighed":14124,"dybden":14125,"politikken":14126,"pur":14127,"kollektive":14128,"besidder":14129,"Smer":14130,"fjernsyn":14131,"cyl":14132,"Enkel":14133,"pend":14134,"outube":14135,"Hon":14136,"intu":14137,"Gol":14138,"silikone":14139,"toilettet":14140,"strukt":14141,"indrette":14142,"førsteklasses":14143,"omfanget":14144,"formaet":14145,"oman":14146,"bruse":14147,"kredsløb":14148,"Dyb":14149,"lel":14150,"Løg":14151,"oks":14152,"Dokument":14153,"plantning":14154,"ficeres":14155,"spærre":14156,"messe":14157,"Billedet":14158,"ass":14159,"read":14160,"sensu":14161,"forsigtig":14162,"hoveder":14163,"vaku":14164,"sejlede":14165,"arbejdsgiveren":14166,"maks":14167,"fleks":14168,"afvise":14169,"tydeligvis":14170,"myndig":14171,"sprogrammer":14172,"MR":14173,"borgernes":14174,"udnyttet":14175,"Gennemsnit":14176,"intellektu":14177,"skræk":14178,"valider":14179,"reflekter":14180,"kristen":14181,"forklaringer":14182,"sons":14183,"malsætninger":14184,"undervisere":14185,"frekvens":14186,"disposi":14187,"vævet":14188,"Mom":14189,"satel":14190,"elovens":14191,"kollegi":14192,"vilkarene":14193,"Temp":14194,"1200":14195,"Galler":14196,"meninger":14197,"anke":14198,"escortpiger":14199,"færdsel":14200,"ous":14201,"bladene":14202,"klient":14203,"betydnings":14204,"gun":14205,"personerne":14206,"associ":14207,"underskrevet":14208,"style":14209,"plakater":14210,"indsamlet":14211,"tagelser":14212,"Marked":14213,"Sexy":14214,"rabte":14215,"EUR":14216,"Week":14217,"stødt":14218,"raber":14219,"overnatnings":14220,"stræning":14221,"tian":14222,"3000":14223,"Evt":14224,"SH":14225,"hundred":14226,"pludseligt":14227,"MER":14228,"sejer":14229,"lerings":14230,"Skift":14231,"griner":14232,"blodsukker":14233,"lind":14234,"Sik":14235,"Bygger":14236,"cap":14237,"lovlig":14238,"planet":14239,"udlan":14240,"vanskelige":14241,"Bestille":14242,"Stop":14243,"eksisteret":14244,"henover":14245,"Væg":14246,"lesbiske":14247,"ikop":14248,"forsør":14249,"Odder":14250,"ст":14251,"Penge":14252,"umper":14253,"kaka":14254,"forestil":14255,"lommer":14256,"sammenlignes":14257,"malgruppen":14258,"Afhæng":14259,"protest":14260,"parfume":14261,"timen":14262,"konkurrencedyg":14263,"syning":14264,"binder":14265,"trup":14266,"tømrer":14267,"uel":14268,"arve":14269,"energik":14270,"Forsvar":14271,"ordren":14272,"ORG":14273,"Flensborg":14274,"fuldkommen":14275,"Private":14276,"Direkt":14277,"Videnskab":14278,"øgelse":14279,"squ":14280,"Belgien":14281,"erg":14282,"Prin":14283,"dollars":14284,"Laur":14285,"danmarks":14286,"365":14287,"Shi":14288,"skatten":14289,"abningen":14290,"Lange":14291,"Tv":14292,"Jyllands":14293,"spises":14294,"Zo":14295,"nic":14296,"Mur":14297,"differenti":14298,"vaskes":14299,"Personer":14300,"mejer":14301,"bacon":14302,"login":14303,"sjovere":14304,"Herred":14305,"Patri":14306,"vennerne":14307,"1968":14308,"stest":14309,"knogle":14310,"kvarteret":14311,"???":14312,"ladelse":14313,"føreren":14314,"delene":14315,"derover":14316,"sygt":14317,"fremhæve":14318,"karakteristiske":14319,"notat":14320,"Lotte":14321,"indiske":14322,"territor":14323,"udbredelse":14324,"ssæt":14325,"sorien":14326,"usale":14327,"Vild":14328,"væd":14329,"forbedrer":14330,"slemt":14331,"gemmes":14332,"Tøj":14333,"Hall":14334,"Dahl":14335,"Hitler":14336,"Iran":14337,"fordeles":14338,"cana":14339,"mud":14340,"stribe":14341,"Mexico":14342,"afsender":14343,"hve":14344,"forsvinde":14345,"udnytter":14346,"Isa":14347,"ryddet":14348,"folkene":14349,"cs":14350,"Udgifter":14351,"Finansi":14352,"slottet":14353,"Ordet":14354,"allerbedste":14355,"ressen":14356,"erstattes":14357,"platforme":14358,"betjent":14359,"omstilling":14360,"pointer":14361,"organisations":14362,"naturens":14363,"Lat":14364,"indsætte":14365,"Aren":14366,"Kul":14367,"strukturen":14368,"pinde":14369,"damerika":14370,"skrævende":14371,"ambitioner":14372,"smiler":14373,"Vording":14374,"forbeholder":14375,"hie":14376,"agner":14377,"Trans":14378,"forstærker":14379,"Krav":14380,"romaner":14381,"kollektiv":14382,"aser":14383,"æle":14384,"Tilmeld":14385,"myndigheden":14386,"armband":14387,"bilens":14388,"lilla":14389,"fugtig":14390,"fortællingen":14391,"klassiker":14392,"Vordingborg":14393,"afgøres":14394,"entligt":14395,"Status":14396,"stype":14397,"rykning":14398,"investorer":14399,"Olie":14400,"grød":14401,"alter":14402,"administrationen":14403,"andelige":14404,"talenter":14405,"sekven":14406,"stævnet":14407,"overskriften":14408,"vativ":14409,"Samsø":14410,"did":14411,"HEL":14412,"ssikring":14413,"rygende":14414,"bukserne":14415,"abenhed":14416,"mattet":14417,"helvede":14418,"rødvin":14419,"Skj":14420,"Had":14421,"Sikke":14422,"forsikrede":14423,"justeres":14424,"katolske":14425,"tilværelsen":14426,"allesammen":14427,"vorter":14428,"krisen":14429,"bekendtskab":14430,"gennembrud":14431,"afløb":14432,"imper":14433,"ssalt":14434,"postk":14435,"untain":14436,"leren":14437,"energien":14438,"manipu":14439,"stilsynet":14440,"introduceret":14441,"indu":14442,"Halv":14443,"stitutter":14444,"BD":14445,"Elisa":14446,"rører":14447,"strene":14448,"klod":14449,"lampen":14450,"Leverand":14451,"spejle":14452,"sforhold":14453,"1979":14454,"Arsagen":14455,"Mars":14456,"alyse":14457,"reception":14458,"Sne":14459,"besat":14460,"edan":14461,"knyttede":14462,"TripAdvisor":14463,"indeks":14464,"yp":14465,"vanti":14466,"swe":14467,"teenage":14468,"madra":14469,"indbetaling":14470,"instruktion":14471,"reste":14472,"city":14473,"videnskabeligt":14474,"snap":14475,"ween":14476,"straffe":14477,"Oslo":14478,"regningen":14479,"signi":14480,"Kru":14481,"kongelige":14482,"aritet":14483,"Tol":14484,"udformet":14485,"sog":14486,"nutidens":14487,"udbuddet":14488,"storby":14489,"1973":14490,"United":14491,"spekt":14492,"uset":14493,"skommun":14494,"opdaterede":14495,"definere":14496,"Sorte":14497,"ulemper":14498,"udmøn":14499,"afgiften":14500,"styrelse":14501,"Kommunikation":14502,"modi":14503,"luksu":14504,"dalen":14505,"indeni":14506,"sensi":14507,"usyn":14508,"pressemeddelelse":14509,"spisning":14510,"iter":14511,"følsomhed":14512,"Bold":14513,"Danne":14514,"Vesterbro":14515,"Smag":14516,"Java":14517,"vinger":14518,"Excel":14519,"manedlige":14520,"odds":14521,"Sab":14522,"agende":14523,"eftersyn":14524,"direktøren":14525,"saxe":14526,"fordyb":14527,"1982":14528,"mile":14529,"direktoratet":14530,"Universitets":14531,"lers":14532,"mormor":14533,"aktiviteterne":14534,"koblet":14535,"size":14536,"desper":14537,"grænserne":14538,"midlet":14539,"ila":14540,"værdifulde":14541,"Analyse":14542,"rog":14543,"spejlet":14544,"Ok":14545,"drig":14546,"beregne":14547,"omgange":14548,"Brasilien":14549,"terapeuter":14550,"analsex":14551,"ideelt":14552,"ranger":14553,"skontor":14554,"sædvanlig":14555,"Jane":14556,"stander":14557,"udfør":14558,"Højde":14559,"gælde":14560,"fremtrædende":14561,"……":14562,"pusle":14563,"kontorer":14564,"Klok":14565,"blikket":14566,"Guide":14567,"faderen":14568,"konsekvenserne":14569,"klas":14570,"makker":14571,"kik":14572,"selige":14573,"ogs":14574,"Kongelige":14575,"Dor":14576,"indikerer":14577,"ission":14578,"holdenhed":14579,"mex":14580,"variant":14581,"pse":14582,"informeret":14583,"distan":14584,"etape":14585,"dobbel":14586,"1972":14587,"bevist":14588,"fremstilles":14589,"overvæg":14590,"radgive":14591,"overflø":14592,"spredning":14593,"py":14594,"tiltrækker":14595,"Særlige":14596,"motorcykel":14597,"hardere":14598,"sønnen":14599,"Formanden":14600,"skæve":14601,"foreslog":14602,"skæde":14603,"Viagra":14604,"brusk":14605,"face":14606,"fordring":14607,"synder":14608,"gynge":14609,"slukke":14610,"inspektør":14611,"strøg":14612,"lukning":14613,"oter":14614,"indikator":14615,"magi":14616,"lovforslag":14617,"uforgle":14618,"meddele":14619,"igar":14620,"stemnings":14621,"assistance":14622,"amm":14623,"Rose":14624,"ael":14625,"Nex":14626,"Rønne":14627,"jomfru":14628,"beskeden":14629,"Jeres":14630,"feldt":14631,"indrø":14632,"fattigdom":14633,"cli":14634,"skultur":14635,"landsbyer":14636,"vækket":14637,"strækningen":14638,"gartner":14639,"nelse":14640,"erhvervsliv":14641,"tten":14642,"flyder":14643,"forsinket":14644,"andedræ":14645,"Rel":14646,"hag":14647,"Inger":14648,"bælt":14649,"værkerne":14650,"ytten":14651,"sie":14652,"menneskes":14653,"markere":14654,"demar":14655,"ansigts":14656,"lines":14657,"buket":14658,"delserne":14659,"aktivering":14660,"berørt":14661,
[...]
