{"version":"1.0","truncation":null,"padding":null,"added_tokens":[{"id":0,"special":true,"content":"<unk>","single_word":false,"lstrip":false,"rstrip":false,"normalized":false}],"normalizer":{"type":"Sequence","normalizers":[{"type":"NFD"},{"type":"StripAccents"}]},"pre_tokenizer":{"type":"Whitespace"},"post_processor":null,"decoder":{"type":"Metaspace","replacement":"▁","str_rep":"▁","add_prefix_space":true},"model":{"type":"BPE","dropout":null,"unk_token":null,"continuing_subword_prefix":null,"end_of_word_suffix":null,"fuse_unk":false,"vocab":{"<unk>":0,"\u0000":1,"\u0001":2,"\u0003":3,"\u0006":4,"\u0007":5,"\b":6,"\u0013":7,"!":8,"\"":9,"#":10,"$":11,"%":12,"&":13,"'":14,"(":15,")":16,"*":17,"+":18,",":19,"-":20,".":21,"/":22,"0":23,"1":24,"2":25,"3":26,"4":27,"5":28,"6":29,"7":30,"8":31,"9":32,":":33,";":34,"<":35,"=":36,">":37,"?":38,"@":39,"A":40,"B":41,"C":42,"D":43,"E":44,"F":45,"G":46,"H":47,"I":48,"J":49,"K":50,"L":51,"M":52,"N":53,"O":54,"P":55,"Q":56,"R":57,"S":58,"T":59,"U":60,"V":61,"W":62,"X":63,"Y":64,"Z":65,"[":66,"\\":67,"]":68,"^":69,"_":70,"`":71,"a":72,"b":73,"c":74,"d":75,"e":76,"f":77,"g":78,"h":79,"i":80,"j":81,"k":82,"l":83,"m":84,"n":85,"o":86,"p":87,"q":88,"r":89,"s":90,"t":91,"u":92,"v":93,"w":94,"x":95,"y":96,"z":97,"{":98,"|":99,"}":100,"~":101,"":102,"":103,"":104,"":105,"":106,"":107,"":108,"":109,"":110,"¡":111,"¢":112,"£":113,"¤":114,"¥":115,"¦":116,"§":117,"¨":118,"©":119,"ª":120,"«":121,"¬":122,"­":123,"®":124,"°":125,"±":126,"²":127,"³":128,"´":129,"µ":130,"¶":131,"·":132,"¸":133,"¹":134,"º":135,"»":136,"¼":137,"½":138,"¾":139,"¿":140,"Æ":141,"×":142,"Ø":143,"Þ":144,"ß":145,"æ":146,"ð":147,"÷":148,"ø":149,"þ":150,"Đ":151,"đ":152,"ı":153,"Ł":154,"ł":155,"ŋ":156,"Œ":157,"œ":158,"ƒ":159,"ɑ":160,"ə":161,"ɛ":162,"ˆ":163,"ˇ":164,"ˈ":165,"ː":166,"˚":167,"˜":168,"Α":169,"Γ":170,"Δ":171,"Ε":172,"Ι":173,"Κ":174,"Μ":175,"Ο":176,"Π":177,"Σ":178,"Τ":179,"Ω":180,"α":181,"β":182,"γ":183,"δ":184,"ε":185,"ζ":186,"η":187,"θ":188,"ι":189,"κ":190,"λ":191,"μ":192,"ν":193,"ξ":194,"ο":195,"π":196,"ρ":197,"ς":198,"σ":199,"τ":200,"υ":201,"φ":202,"χ":203,"ψ":204,"ω":205,"Ѕ":206,"А":207,"Б":208,"В":209,"Г":210,"Д":211,"Е":212,"Ж":213,"З":214,"И":215,"К":216,"Л":217,"М":218,"Н":219,"О":220,"П":221,"Р":222,"С":223,"Т":224,"У":225,"Ф":226,"Х":227,"Ц":228,"Ч":229,"Ш":230,"Э":231,"Я":232,"а":233,"б":234,"в":235,"г":236,"д":237,"е":238,"ж":239,"з":240,"и":241,"к":242,"л":243,"м":244,"н":245,"о":246,"п":247,"р":248,"с":249,"т":250,"у":251,"ф":252,"х":253,"ц":254,"ч":255,"ш":256,"щ":257,"ъ":258,"ы":259,"ь":260,"э":261,"ю":262,"я":263,"ѕ":264,"і":265,"ј":266,"Ґ":267,"ա":268,"א":269,"ב":270,"ג":271,"ד":272,"ה":273,"ו":274,"ז":275,"ח":276,"ט":277,"י":278,"כ":279,"ל":280,"ם":281,"מ":282,"ן":283,"נ":284,"ס":285,"ע":286,"פ":287,"צ":288,"ק":289,"ר":290,"ש":291,"ת":292,"،":293,"ء":294,"ا":295,"ب":296,"ة":297,"ت":298,"ث":299,"ج":300,"ح":301,"خ":302,"د":303,"ذ":304,"ر":305,"ز":306,"س":307,"ش":308,"ص":309,"ض":310,"ط":311,"ع":312,"غ":313,"ـ":314,"ف":315,"ق":316,"ك":317,"ل":318,"م":319,"ن":320,"ه":321,"و":322,"ى":323,"ي":324,"ٱ":325,"پ":326,"ک":327,"گ":328,"ی":329,"क":330,"त":331,"न":332,"प":333,"म":334,"य":335,"र":336,"ल":337,"स":338,"ह":339,"ক":340,"ত":341,"ন":342,"ব":343,"য":344,"র":345,"স":346,"க":347,"క":348,"త":349,"ద":350,"న":351,"ప":352,"ర":353,"ల":354,"వ":355,"ก":356,"ค":357,"ง":358,"ด":359,"ต":360,"ท":361,"น":362,"บ":363,"ป":364,"พ":365,"ม":366,"ย":367,"ร":368,"ล":369,"ว":370,"ส":371,"ห":372,"อ":373,"ะ":374,"า":375,"฿":376,"เ":377,"แ":378,"ไ":379,"ა":380,"ე":381,"ი":382,"ღ":383,"ᄀ":384,"ᄂ":385,"ᄃ":386,"ᄅ":387,"ᄆ":388,"ᄇ":389,"ᄉ":390,"ᄋ":391,"ᄌ":392,"ᄎ":393,"ᄏ":394,"ᄐ":395,"ᄑ":396,"ᄒ":397,"ᅡ":398,"ᅢ":399,"ᅥ":400,"ᅦ":401,"ᅧ":402,"ᅩ":403,"ᅪ":404,"ᅭ":405,"ᅮ":406,"ᅲ":407,"ᅳ":408,"ᅴ":409,"ᅵ":410,"ᆨ":411,"ᆫ":412,"ᆯ":413,"ᆷ":414,"ᆸ":415,"ᆻ":416,"ᆼ":417,"​":418,"‌":419,"‍":420,"‎":421,"‐":422,"‑":423,"‒":424,"–":425,"—":426,"―":427,"‘":428,"’":429,"‚":430,"“":431,"”":432,"„":433,"†":434,"•":435,"…":436,"‪":437,"‬":438,"‰":439,"′":440,"″":441,"‹":442,"›":443,"⁄":444,"⁠":445,"₂":446,"₨":447,"€":448,"℃":449,"℉":450,"™":451,"←":452,"↑":453,"→":454,"↓":455,"−":456,"∙":457,"≈":458,"≤":459,"≥":460,"⋅":461,"─":462,"├":463,"╕":464,"■":465,"□":466,"▫":467,"►":468,"▻":469,"◆":470,"○":471,"●":472,"☀":473,"★":474,"☆":475,"☺":476,"♀":477,"♂":478,"♡":479,"♣":480,"♥":481,"♦":482,"✅":483,"✓":484,"✔":485,"✚":486,"✨":487,"❄":488,"❤":489,"❾":490,"➢":491,"➧":492,"⠀":493,"⭐":494,"、":495,"。":496,"「":497,"」":498,"【":499,"】":500,"あ":501,"い":502,"う":503,"え":504,"お":505,"か":506,"き":507,"く":508,"け":509,"こ":510,"さ":511,"し":512,"す":513,"せ":514,"そ":515,"た":516,"ち":517,"っ":518,"つ":519,"て":520,"と":521,"な":522,"に":523,"の":524,"は":525,"ひ":526,"へ":527,"ま":528,"み":529,"め":530,"も":531,"や":532,"よ":533,"ら":534,"り":535,"る":536,"れ":537,"わ":538,"を":539,"ん":540,"ア":541,"ィ":542,"イ":543,"ウ":544,"ェ":545,"エ":546,"オ":547,"カ":548,"キ":549,"ク":550,"ケ":551,"コ":552,"サ":553,"シ":554,"ス":555,"セ":556,"ソ":557,"タ":558,"チ":559,"ッ":560,"ツ":561,"テ":562,"ト":563,"ナ":564,"ニ":565,"ヌ":566,"ネ":567,"ハ":568,"ヒ":569,"フ":570,"ヘ":571,"ホ":572,"マ":573,"ミ":574,"ム":575,"メ":576,"モ":577,"ャ":578,"ュ":579,"ョ":580,"ラ":581,"リ":582,"ル":583,"レ":584,"ロ":585,"ワ":586,"ン":587,"・":588,"ー":589,"一":590,"七":591,"万":592,"三":593,"上":594,"下":595,"不":596,"与":597,"世":598,"业":599,"东":600,"两":601,"个":602,"中":603,"为":604,"主":605,"么":606,"之":607,"九":608,"也":609,"买":610,"了":611,"事":612,"二":613,"于":614,"五":615,"交":616,"产":617,"京":618,"人":619,"今":620,"他":621,"仙":622,"代":623,"以":624,"们":625,"件":626,"任":627,"会":628,"传":629,"位":630,"体":631,"作":632,"使":633,"供":634,"保":635,"信":636,"元":637,"先":638,"光":639,"免":640,"入":641,"全":642,"八":643,"公":644,"六":645,"其":646,"典":647,"内":648,"円":649,"准":650,"凤":651,"出":652,"分":653,"创":654,"利":655,"到":656,"制":657,"前":658,"力":659,"加":660,"动":661,"動":662,"化":663,"北":664,"区":665,"十":666,"单":667,"南":668,"原":669,"县":670,"及":671,"双":672,"发":673,"取":674,"句":675,"可":676,"台":677,"号":678,"司":679,"各":680,"合":681,"同":682,"名":683,"后":684,"和":685,"品":686,"商":687,"啊":688,"啥":689,"器":690,"四":691,"回":692,"国":693,"图":694,"圓":695,"在":696,"地":697,"场":698,"址":699,"坛":700,"城":701,"基":702,"堂":703,"報":704,"場":705,"士":706,"外":707,"多":708,"大":709,"天":710,"头":711,"奇":712,"奖":713,"女":714,"好":715,"姐":716,"婆":717,"子":718,"字":719,"学":720,"安":721,"官":722,"定":723,"宝":724,"实":725,"客":726,"家":727,"富":728,"对":729,"将":730,"小":731,"少":732,"就":733,"尾":734,"展":735,"山":736,"川":737,"州":738,"工":739,"市":740,"平":741,"年":742,"广":743,"库":744,"店":745,"度":746,"建":747,"开":748,"式":749,"当":750,"彩":751,"律":752,"得":753,"心":754,"必":755,"快":756,"思":757,"性":758,"情":759,"意":760,"感":761,"成":762,"我":763,"所":764,"手":765,"技":766,"报":767,"持":768,"挂":769,"指":770,"提":771,"救":772,"教":773,"数":774,"文":775,"料":776,"新":777,"方":778,"无":779,"日":780,"时":781,"明":782,"星":783,"是":784,"時":785,"更":786,"曾":787,"最":788,"月":789,"有":790,"服":791,"期":792,"本":793,"机":794,"杀":795,"来":796,"東":797,"果":798,"格":799,"業":800,"機":801,"正":802,"比":803,"民":804,"氓":805,"気":806,"水":807,"江":808,"法":809,"波":810,"活":811,"流":812,"海":813,"港":814,"点":815,"然":816,"片":817,"版":818,"牌":819,"牛":820,"物":821,"特":822,"狗":823,"玄":824,"王":825,"玩":826,"现":827,"球":828,"理":829,"生":830,"用":831,"田":832,"电":833,"画":834,"白":835,"百":836,"的":837,"目":838,"直":839,"相":840,"看":841,"県":842,"真":843,"着":844,"知":845,"码":846,"社":847,"神":848,"福":849,"科":850,"程":851,"空":852,"立":853,"站":854,"第":855,"等":856,"算":857,"管":858,"精":859,"系":860,"红":861,"线":862,"经":863,"结":864,"网":865,"美":866,"老":867,"者":868,"而":869,"肖":870,"能":871,"自":872,"色":873,"花":874,"英":875,"蓝":876,"行":877,"表":878,"装":879,"西":880,"要":881,"見":882,"规":883,"解":884,"言":885,"語":886,"计":887,"论":888,"设":889,"诗":890,"说":891,"财":892,"费":893,"资":894,"赌":895,"赛":896,"起":897,"跑":898,"路":899,"车":900,"这":901,"进":902,"通":903,"道":904,"部":905,"都":906,"酶":907,"里":908,"重":909,"野":910,"量":911,"金":912,"钱":913,"错":914,"長":915,"长":916,"間":917,"门":918,"限":919,"院":920,"集":921,"電":922,"面":923,"香":924,"马":925,"高":926,"黄":927,"龙":928,"":929,"":930,"":931,"":932,"":933,"":934,"":935,"":936,"":937,"":938,"":939,"":940,"":941,"":942,"":943,"":944,"":945,"":946,"":947,"":948,"":949,"":950,"":951,"":952,"":953,"":954,"ﬀ":955,"ﬁ":956,"ﬂ":957,"﻿":958,"！":959,"（":960,"）":961,"，":962,"：":963,"？":964,"ﾆ":965,"ﾊ":966,"ﾟ":967,"￼":968,"�":969,"🏻":970,"🏼":971,"👌":972,"👍":973,"👏":974,"👩":975,"💕":976,"💪":977,"💲":978,"😀":979,"😁":980,"😂":981,"😃":982,"😄":983,"😅":984,"😆":985,"😉":986,"😊":987,"😍":988,"😎":989,"😛":990,"😦":991,"🙁":992,"🙂":993,"🙄":994,"🙈":995,"🙌":996,"🙏":997,"🤔":998,"🤗":999,"🤩":1000,"er":1001,"en":1002,"et":1003,"in":1004,"or":1005,"an":1006,"ar":1007,"st":1008,"el":1009,"og":1010,"il":1011,"om":1012,"at":1013,"sk":1014,"re":1015,"for":1016,"al":1017,"ed":1018,"ing":1019,"de":1020,"li":1021,"le":1022,"av":1023,"te":1024,"on":1025,"til":1026,"ik":1027,"det":1028,"se":1029,"pa":1030,"som":1031,"ra":1032,"un":1033,"ke":1034,"ter":1035,"ig":1036,"sa":1037,"ut":1038,"ne":1039,"ene":1040,"med":1041,"vi":1042,"der":1043,"sj":1044,"ør":1045,"eg":1046,"pp":1047,"ver":1048,"den":1049,"ler":1050,"ag":1051,"si":1052,"men":1053,"lig":1054,"ol":1055,"ti":1056,"be":1057,"har":1058,"var":1059,"and":1060,"ri":1061,"opp":1062,"ser":1063,"ak":1064,"sjon":1065,"gj":1066,"sp":1067,"inn":1068,"ste":1069,"ge":1070,"sen":1071,"mer":1072,"tt":1073,"ro":1074,"ett":1075,"ru":1076,"ning":1077,"du":1078,"no":1079,"ikke":1080,"ær":1081,"ek":1082,"ker":1083,"fra":1084,"ur":1085,"kan":1086,"ap":1087,"ss":1088,"kj":1089,"Det":1090,"di":1091,"ble":1092,"del":1093,"enn":1094,"man":1095,"ma":1096,"het":1097,"ul":1098,"ske":1099,"ok":1100,"id":1101,"att":1102,"ha":1103,"me":1104,"ang":1105,"sl":1106,"kom":1107,"ve":1108,"sam":1109,"tet":1110,"bli":1111,"vil":1112,"ere":1113,"tr":1114,"jeg":1115,"la":1116,"ikk":1117,"eller":1118,"før":1119,"seg":1120,"gi":1121,"ot":1122,"etter":1123,"over":1124,"ende":1125,"kt":1126,"na":1127,"øy":1128,"bru":1129,"gg":1130,"es":1131,"20":1132,"bar":1133,"am":1134,"ved":1135,"ent":1136,"dag":1137,"ære":1138,"kon":1139,"pro":1140,"dig":1141,"sel":1142,"sy":1143,"eng":1144,"per":1145,"unn":1146,"ny":1147,"sø":1148,"vel":1149,"hol":1150,"kl":1151,"ann":1152,"ord":1153,"hel":1154,"hv":1155,"ten":1156,"by":1157,"ster":1158,"fø":1159,"ogsa":1160,"dt":1161,"ling":1162,"is":1163,"skal":1164,"elig":1165,"skap":1166,"gr":1167,"lan":1168,"ell":1169,"us":1170,"tid":1171,"all":1172,"skj":1173,"vik":1174,"dat":1175,"ba":1176,"ort":1177,"min":1178,"ta":1179,"da":1180,"arbe":1181,"kk":1182,"alt":1183,"go":1184,"ens":1185,"øn":1186,"han":1187,"under":1188,"dde":1189,"fa":1190,"it":1191,"ly":1192,"far":1193,"mat":1194,"bil":1195,"øp":1196,"yr":1197,"legg":1198,"lag":1199,"po":1200,"være":1201,"em":1202,"vis":1203,"ff":1204,"andre":1205,"sin":1206,"noen":1207,"ho":1208,"Vi":1209,"kr":1210,"val":1211,"..":1212,"dette":1213,"vær":1214,"inne":1215,"tak":1216,"ber":1217,"isk":1218,"ingen":1219,"gang":1220,"ft":1221,"hj":1222,"sm":1223,"stor":1224,"ven":1225,"else":1226,"øre":1227,"sli":1228,"sta":1229,"201":1230,"Nor":1231,"alle":1232,"dre":1233,"ale":1234,"dr":1235,"sik":1236,"noe":1237,"hadde":1238,"nett":1239,"hand":1240,"ennom":1241,"For":1242,"art":1243,"nor":1244,"gen":1245,"sten":1246,"00":1247,"blir":1248,"rett":1249,"stil":1250,"ger":1251,"ir":1252,"fre":1253,"vært":1254,"um":1255,"tig":1256,"jen":1257,"lige":1258,"to":1259,"str":1260,"mot":1261,"lere":1262,"gjør":1263,"asjon":1264,"my":1265,"kun":1266,"gjennom":1267,"selv":1268,"sse":1269,"ob":1270,"føl":1271,"led":1272,"son":1273,"uten":1274,"he":1275,"nar":1276,"tre":1277,"sted":1278,"ud":1279,"elt":1280,"spil":1281,"dere":1282,"ans":1283,"met":1284,"vet":1285,"arbeid":1286,"sker":1287,"mu":1288,"mo":1289,"br":1290,"inger":1291,"gjøre":1292,"bet":1293,"hold":1294,"ier":1295,"pr":1296,"land":1297,"her":1298,"set":1299,"ga":1300,"bare":1301,"ket":1302,"høy":1303,"elle":1304,"ner":1305,"net":1306,"St":1307,"19":1308,"ken":1309,"deg":1310,"mun":1311,"iske":1312,"denne":1313,"dating":1314,"ien":1315,"like":1316,"hver":1317,"ant":1318,"In":1319,"De":1320,"fikk":1321,"Norge":1322,"gar":1323,"pre":1324,"hun":1325,"par":1326,"hen":1327,"fort":1328,"Den":1329,"tter":1330,"kke":1331,"lo":1332,"skri":1333,"fe":1334,"meg":1335,"litt":1336,"mal":1337,"beg":1338,"inter":1339,"Jeg":1340,"frem":1341,"bo":1342,"mange":1343,"oss":1344,"mye":1345,"iser":1346,"ine":1347,"grunn":1348,"inner":1349,"yl":1350,"ksjon":1351,"yn":1352,"siden":1353,"dom":1354,"fer":1355,"fil":1356,"En":1357,"star":1358,"tte":1359,"ko":1360,"hvor":1361,"pe":1362,"sammen":1363,"sjek":1364,"ie":1365,"mø":1366,"va":1367,"mel":1368,"sn":1369,"ati":1370,"søk":1371,"ka":1372,"vir":1373,"mar":1374,"ret":1375,"lighet":1376,"ned":1377,"bed":1378,"Dette":1379,"tur":1380,"tra":1381,"flere":1382,"utvik":1383,"lø":1384,"ige":1385,"ninger":1386,"im":1387,"van":1388,"let":1389,"fri":1390,"valg":1391,"fol":1392,"nes":1393,"pla":1394,"hva":1395,"Men":1396,"pri":1397,"ellom":1398,"styr":1399,"bruk":1400,"slo":1401,"kommun":1402,"mil":1403,"slik":1404,"tek":1405,"annet":1406,"ert":1407,"kv":1408,"finne":1409,"ings":1410,"stem":1411,"ele":1412,"satt":1413,"første":1414,"org":1415,"viktig":1416,"person":1417,"mellom":1418,"enk":1419,"arbei":1420,"god":1421,"ad":1422,"ram":1423,"lu":1424,"nær":1425,"atte":1426,"nye":1427,"An":1428,"dem":1429,"gge":1430,"reg":1431,"as":1432,"bruker":1433,"enger":1434,"bade":1435,"dri":1436,"ningen":1437,"jene":1438,"ist":1439,"ch":1440,"kjøp":1441,"ull":1442,"kunne":1443,"bruke":1444,"produ":1445,"svar":1446,"sex":1447,"mann":1448,"rad":1449,"ordan":1450,"syn":1451,"fj":1452,"hjel":1453,"tar":1454,"res":1455,"kommer":1456,"fin":1457,"run":1458,"ia":1459,"sier":1460,"ty":1461,"of":1462,"igjen":1463,"utt":1464,"disse":1465,"je":1466,"rik":1467,"itet":1468,"itt":1469,"mp":1470,"200":1471,"spe":1472,"din":1473,"sert":1474,"erne":1475,"løp":1476,"helt":1477,"akti":1478,"stør":1479,"mid":1480,"sent":1481,"ry":1482,"akt":1483,").":1484,"lang":1485,"stu":1486,"kre":1487,"plan":1488,"skje":1489,"godt":1490,"hus":1491,"kur":1492,"sje":1493,"masjon":1494,"virk":1495,"gir":1496,"hele":1497,"ulle":1498,"Al":1499,"ød":1500,"lem":1501,"slag":1502,"ran":1503,"Og":1504,"øm":1505,"sett":1506,"ater":1507,"stre":1508,"bygg":1509,"vek":1510,"rak":1511,"lant":1512,"vare":1513,"fatt":1514,"elsen":1515,"bak":1516,"klar":1517,"so":1518,"job":1519,"sep":1520,"sko":1521,"ce":1522,"bl":1523,"sjoner":1524,"try":1525,"sti":1526,"oner":1527,"hvordan":1528,"su":1529,"formasjon":1530,"lær":1531,"ønn":1532,"Pa":1533,"heter":1534,"Ar":1535,"Han":1536,"pen":1537,"sser":1538,"ede":1539,"10":1540,"fly":1541,"store":1542,"nytt":1543,"tatt":1544,"18":1545,"tal":1546,"len":1547,"...":1548,"hjem":1549,"jø":1550,"lever":1551,"atur":1552,"rom":1553,"gru":1554,"des":1555,"hi":1556,"barn":1557,"poli":1558,"gav":1559,"off":1560,"blant":1561,"sv":1562,"ssen":1563,"ligere":1564,"ca":1565,"innen":1566,"prosjek":1567,"ben":1568,"spesi":1569,"sjonen":1570,"sak":1571,"ab":1572,"samme":1573,"norske":1574,"stilling":1575,"funn":1576,"blitt":1577,"rundt":1578,"bake":1579,"folk":1580,"ets":1581,"tro":1582,"handling":1583,"aller":1584,"Her":1585,"tes":1586,"nok":1587,"dan":1588,"menn":1589,"regi":1590,"bok":1591,"sine":1592,"kjent":1593,"fag":1594,"pet":1595,"informasjon":1596,"mor":1597,"begyn":1598,"tere":1599,"olog":1600,"tu":1601,"kker":1602,"omra":1603,"forhold":1604,"heten":1605,"dra":1606,"fun":1607,"ban":1608,"skulle":1609,"tilbake":1610,"menne":1611,"siste":1612,"ni":1613,"jo":1614,"klu":1615,"ate":1616,"Der":1617,"Du":1618,"tillegg":1619,"bud":1620,"søker":1621,"veldig":1622,"bedre":1623,"verden":1624,"mark":1625,"organ":1626,"Sk":1627,"ting":1628,"bu":1629,"egen":1630,"utvikling":1631,"fyl":1632,"gikk":1633,"ju":1634,"ei":1635,"por":1636,"venn":1637,"bi":1638,"ult":1639,"stø":1640,"ev":1641,"ønsker":1642,"spør":1643,"mest":1644,"les":1645,"Oslo":1646,"norsk":1647,"full":1648,"Da":1649,"følge":1650,"lik":1651,"jer":1652,"kar":1653,"side":1654,"grupp":1655,"gre":1656,"beste":1657,"anse":1658,"gjen":1659,"gjel":1660,"bør":1661,"viser":1662,"dene":1663,"stat":1664,"mulig":1665,"nings":1666,"app":1667,"Med":1668,"tiv":1669,"atis":1670,"stand":1671,"ment":1672,"15":1673,"forskj":1674,"kjen":1675,"oll":1676,"sitt":1677,"fl":1678,"bel":1679,"slut":1680,"ung":1681,"syk":1682,"fle":1683,"øk":1684,"vok":1685,"nasjon":1686,"ug":1687,"elser":1688,"prø":1689,"legge":1690,"tok":1691,"are":1692,"semp":1693,"stra":1694,"ck":1695,"mulighet":1696,"hos":1697,"tjene":1698,"ren":1699,"ører":1700,"Etter":1701,"ska":1702,"vur":1703,"liv":1704,"videre":1705,"Nar":1706,"ds":1707,"Sa":1708,"medlem":1709,"veg":1710,"ulike":1711,"smal":1712,"dal":1713,"mens":1714,"ring":1715,"lok":1716,"kket":1717,"delig":1718,"red":1719,"io":1720,"bin":1721,"møte":1722,"fram":1723,"følg":1724,"ogram":1725,"ener":1726,"stri":1727,"sikker":1728,"eksemp":1729,"eder":1730,"ført":1731,"kri":1732,"elige":1733,"plass":1734,"verk":1735,"skapet":1736,"gam":1737,"est":1738,"tall":1739,"dy":1740,"spill":1741,"isa":1742,"12":1743,"und":1744,"kvinner":1745,"lagt":1746,"pu":1747,"vin":1748,"gode":1749,"sene":1750,"opple":1751,"tidligere":1752,"Til":1753,"kval":1754,"kontak":1755,"tiden":1756,"sc":1757,"gratis":1758,"Se":1759,"arbeidet":1760,"fi":1761,"forsk":1762,"bra":1763,"føre":1764,"kam":1765,"leder":1766,"Man":1767,"ide":1768,"hvert":1769,"heng":1770,"form":1771,"Ut":1772,"kor":1773,"od":1774,"ultur":1775,"hav":1776,"17":1777,"Pro":1778,"innlegg":1779,"),":1780,"inst":1781,"hoved":1782,"ark":1783,"nav":1784,"bid":1785,"hjelp":1786,"bilder":1787,"ekt":1788,"kra":1789,"30":1790,"fter":1791,"løs":1792,"skole":1793,"sal":1794,"anske":1795,"mate":1796,"ville":1797,"lys":1798,"sol":1799,"politi":1800,"søke":1801,"gener":1802,"holde":1803,"komme":1804,"hy":1805,"mi":1806,"fall":1807,"laget":1808,"op":1809,"annen":1810,"derfor":1811,"sette":1812,"ansvar":1813,"ise":1814,"helse":1815,"landet":1816,"fordi":1817,"amil":1818,"klok":1819,"vitet":1820,"histor":1821,"kjø":1822,"konom":1823,"vn":1824,"senter":1825,"bor":1826,"skol":1827,"natur":1828,"deres":1829,"ski":1830,"gjort":1831,"kla":1832,"aler":1833,"jenter":1834,"Un":1835,"tekn":1836,"tor":1837,"proble":1838,"gt":1839,"tidig":1840,"Kj":1841,"16":1842,"hvis":1843,"elen":1844,"løpet":1845,"atter":1846,"get":1847,"lav":1848,"ic":1849,"holder":1850,"kanskje":1851,"vann":1852,"skre":1853,"ering":1854,"Na":1855,"svært":1856,"ps":1857,"Sam":1858,"dagen":1859,"oen":1860,"14":1861,"bestem":1862,"entlig":1863,"samt":1864,"ssa":1865,"vide":1866,"vol":1867,"finnes":1868,"Har":1869,"alv":1870,"hag":1871,"stedet":1872,"Re":1873,"dager":1874,"eksempel":1875,"finner":1876,"ofte":1877,"000":1878,"mber":1879,"Mar":1880,"tren":1881,"vart":1882,"fot":1883,"gjelder":1884,"skjer":1885,"mennesker":1886,"ativ":1887,"kter":1888,"forel":1889,"asjoner":1890,"hu":1891,"samfunn":1892,"but":1893,"oku":1894,"barne":1895,"ute":1896,"utfor":1897,"sept":1898,"endr":1899,"pl":1900,"hvil":1901,"Sp":1902,"os":1903,"fr":1904,"kjøpe":1905,"kte":1906,"Ved":1907,"mus":1908,"bre":1909,"beho":1910,"ham":1911,"steder":1912,"hø":1913,"enes":1914,"gitt":1915,"eri":1916,"Ber":1917,"bla":1918,"mindre":1919,"ften":1920,"Jo":1921,"sek":1922,"sere":1923,"behandling":1924,"anger":1925,"famil":1926,"miljø":1927,"Kon":1928,"50":1929,"spørsmal":1930,"stad":1931,"delse":1932,"felle":1933,"sty":1934,"ding":1935,"2017":1936,"matte":1937,"kli":1938,"unnskap":1939,"kontakt":1940,"oppgav":1941,"fører":1942,"utvalg":1943,"sky":1944,"11":1945,"Tr":1946,"større":1947,"result":1948,"skelig":1949,"uni":1950,"lov":1951,"vise":1952,"Sel":1953,"program":1954,"sma":1955,"lin":1956,"ighet":1957,"krav":1958,"prosent":1959,"først":1960,"trenger":1961,"Denne":1962,"utter":1963,"kes":1964,"øker":1965,"brukes":1966,"vei":1967,"agra":1968,"vurder":1969,"dø":1970,"ferdig":1971,"uro":1972,"forskjel":1973,"fan":1974,"aret":1975,"tisk":1976,"Hun":1977,"kvalitet":1978,"Som":1979,"rask":1980,"sikt":1981,"kontr":1982,"enkelt":1983,"gjeng":1984,"dire":1985,"ond":1986,"13":1987,"alltid":1988,"Opp":1989,"vak":1990,"organisa":1991,"ikken":1992,"erte":1993,"kort":1994,"arene":1995,"ille":1996,"kraft":1997,"eff":1998,"ikker":1999,"dd":2000,"mener":2001,"kjør":2002,"studi":2003,"resept":2004,"ball":2005,"lett":2006,"funksjon":2007,"porno":2008,"vendig":2009,"ligger":2010,"Et":2011,"hans":2012,"fast":2013,"ER":2014,"økonom":2015,"kultur":2016,"sport":2017,"deler":2018,"Er":2019,"ekte":2020,"menter":2021,"opprett":2022,"ganger":2023,"ærlighet":2024,"sider":2025,"sku":2026,"Be":2027,"SA":2028,"byg":2029,"unkt":2030,"Ha":2031,"arbeids":2032,"sosi":2033,"data":2034,"sh":2035,"mene":2036,"verdi":2037,"marked":2038,"milli":2039,"fore":2040,"Hvis":2041,"iden":2042,"sør":2043,"kommune":2044,"sitet":2045,"Nord":2046,"sat":2047,"ci":2048,"ttet":2049,"pper":2050,"Ma":2051,"rekke":2052,"ign":2053,"øl":2054,"spiller":2055,"hør":2056,"ditt":2057,"stille":2058,"behov":2059,"undersøk":2060,"blog":2061,"sann":2062,"enkel":2063,"jør":2064,"nøy":2065,"line":2066,"utdan":2067,"ard":2068,"vanlig":2069,"ssi":2070,"iner":2071,"Gr":2072,"aldri":2073,"kjenn":2074,"El":2075,"pris":2076,"vanskelig":2077,"snak":2078,"kvel":2079,"kommen":2080,"virksom":2081,"langt":2082,"ars":2083,"tan":2084,"kost":2085,"erfar":2086,"sing":2087,"posi":2088,"rapp":2089,"hap":2090,"kunnskap":2091,"sær":2092,"olle":2093,"fortsatt":2094,"syke":2095,"trykk":2096,"co":2097,"sket":2098,"hatt":2099,"stru":2100,"ateg":2101,"setter":2102,"lite":2103,"enter":2104,"viagra":2105,"topp":2106,"velse":2107,"stort":2108,"nød":2109,"livet":2110,"ov":2111,"best":2112,"ike":2113,"grad":2114,"Inn":2115,"neste":2116,"veien":2117,"kjære":2118,"dustri":2119,"interes":2120,"skil":2121,"merk":2122,"sdag":2123,"fon":2124,"alen":2125,"mini":2126,"forskjellige":2127,"Kom":2128,"skolen":2129,"sjons":2130,"tilby":2131,"tiske":2132,"likt":2133,"iv":2134,"aten":2135,"apen":2136,"video":2137,"brukt":2138,"liten":2139,"Kri":2140,"føring":2141,"rel":2142,"prak":2143,"registr":2144,"hot":2145,"produksjon":2146,"berg":2147,"skaper":2148,"Norges":2149,"kjærlighet":2150,"støtte":2151,"Ny":2152,"skud":2153,"Bar":2154,"dar":2155,"Om":2156,"atet":2157,"beny":2158,"bety":2159,"fleste":2160,"rig":2161,"feil":2162,"aktivitet":2163,"bef":2164,"mentet":2165,"virkelig":2166,"konkur":2167,"ina":2168,"gla":2169,"samarbeid":2170,"tale":2171,"tert":2172,"idler":2173,"dine":2174,"Av":2175,"redu":2176,"omradet":2177,"ktet":2178,"spesielt":2179,"199":2180,"gjerne":2181,"heller":2182,"unge":2183,"norge":2184,"sentr":2185,"mang":2186,"legger":2187,"AS":2188,"perio":2189,"Mo":2190,"bygge":2191,"mere":2192,"besøk":2193,"personer":2194,"ja":2195,"tering":2196,"øv":2197,"bidra":2198,"bry":2199,"teg":2200,"part":2201,"ore":2202,"Po":2203,"bedri":2204,"2016":2205,"ite":2206,"fiser":2207,"anlegg":2208,"nødvendig":2209,"stet":2210,"gatt":2211,"orde":2212,"25":2213,"pul":2214,"gamle":2215,"utstyr":2216,"saken":2217,"kjem":2218,"kroner":2219,"tror":2220,"rer":2221,"tiltak":2222,"prosjekt":2223,"asjonen":2224,"ple":2225,"utfordr":2226,"bilde":2227,"riktig":2228,"ust":2229,"alder":2230,"leng":2231,"klub":2232,"kropp":2233,"ori":2234,"allerede":2235,"situ":2236,"dyr":2237,"skjed":2238,"ungdom":2239,"bær":2240,"hjemme":2241,"fisk":2242,"kir":2243,"massa":2244,"bolig":2245,"kken":2246,"nord":2247,"lene":2248,"alis":2249,"saker":2250,"lenge":2251,"betyr":2252,"the":2253,"sset":2254,"egne":2255,"doku":2256,"vert":2257,"handler":2258,"etab":2259,"tilgjeng":2260,"gra":2261,"skrive":2262,"avheng":2263,"do":2264,"Alle":2265,"erer":2266,"forsta":2267,"fire":2268,"søn":2269,"IN":2270,"senere":2271,"Hv":2272,"Le":2273,"spro":2274,"».":2275,"kjente":2276,"største":2277,"hjelpe":2278,"fakti":2279,"mott":2280,"minst":2281,"ansatte":2282,"byen":2283,"vende":2284,"gjorde":2285,"sis":2286,"sommer":2287,"læring":2288,"2015":2289,"By":2290,"enda":2291,"internasjon":2292,"kompet":2293,"effek":2294,"bur":2295,"foret":2296,"likevel":2297,"vit":2298,"post":2299,"fte":2300,"felles":2301,"gangen":2302,"aly":2303,"tallet":2304,"stan":2305,"skriver":2306,"ftet":2307,"online":2308,"ningene":2309,"aliser":2310,"økt":2311,"ummer":2312,"Hva":2313,"forskning":2314,"slutt":2315,"Norsk":2316,"40":2317,"fem":2318,"drag":2319,"studen":2320,"henne":2321,"ffe":2322,"lage":2323,"mask":2324,"opplys":2325,"Fa":2326,"sto":2327,"Dat":2328,"satte":2329,"ganske":2330,"ingene":2331,"kunst":2332,"lese":2333,"ikt":2334,"Ne":2335,"bort":2336,"nesten":2337,"eres":2338,"publi":2339,"syste":2340,"fjor":2341,"orte":2342,"tilf":2343,"tran":2344,"klart":2345,"dighet":2346,"kal":2347,"lat":2348,"tern":2349,"EN":2350,"Bru":2351,"rige":2352,"100":2353,"mon":2354,"industri":2355,"sikre":2356,"holdet":2357,"Noen":2358,"holdt":2359,"huset":2360,"itu":2361,"navn":2362,"heim":2363,"Ba":2364,"dte":2365,"utdanning":2366,"ennende":2367,"niva":2368,"materi":2369,"faktisk":2370,"mess":2371,"aut":2372,"gjer":2373,"rette":2374,"tikk":2375,"ppe":2376,"dersom":2377,"fanta":2378,"pav":2379,"ktor":2380,"timer":2381,"forbin":2382,"ologi":2383,"sikkerhet":2384,"midler":2385,"inklu":2386,"skrift":2387,"spr":2388,"jan":2389,"Selv":2390,"Var":2391,"elev":2392,"stoff":2393,"Arbe":2394,"Ch":2395,"anbef":2396,"ekstra":2397,"Dag":2398,"afil":2399,"Kan":2400,"delt":2401,"seson":2402,"ons":2403,"isse":2404,"sende":2405,"sykdom":2406,"Mer":2407,"ator":2408,"mak":2409,"nyttet":2410,"oper":2411,"Fre":2412,"ress":2413,"Ikke":2414,"natt":2415,"Per":2416,"sne":2417,"damer":2418,"prosjektet":2419,"kje":2420,"nevn":2421,"gren":2422,"kamp":2423,"kontroll":2424,"fritt":2425,"gjøres":2426,"arbeider":2427,"drift":2428,"22":2429,"forv":2430,"strøm":2431,"tive":2432,"penger":2433,"mannen":2434,"repre":2435,"kjønn":2436,"vice":2437,"eget":2438,"spor":2439,"kn":2440,"forslag":2441,"alet":2442,"Ro":2443,"elefon":2444,"vist":2445,"vekt":2446,"spille":2447,"deling":2448,"Ja":2449,"annon":2450,"24":2451,"we":2452,"Or":2453,"retning":2454,"one":2455,"kil":2456,"The":2457,"prøve":2458,"skyl":2459,"2014":2460,"eldre":2461,"Ho":2462,"Før":2463,"massasje":2464,"gift":2465,"samtidig":2466,"myn":2467,"Under":2468,"venner":2469,"pap":2470,"salg":2471,"ansett":2472,"oppdat":2473,"reise":2474,"høyere":2475,"pasi":2476,"lære":2477,"fatter":2478,"hverandre":2479,"antall":2480,"slike":2481,"prose":2482,"iendom":2483,"rolig":2484,"imidler":2485,"millioner":2486,"skudd":2487,"nak":2488,"barna":2489,"Gj":2490,"vite":2491,"egg":2492,"rum":2493,"poeng":2494,"imidlertid":2495,"event":2496,"avtal":2497,"knyttet":2498,"foren":2499,"energi":2500,"egentlig":2501,"fjell":2502,"enkelte":2503,"enten":2504,"Bo":2505,"musikk":2506,"samling":2507,"priv":2508,"oslo":2509,"pi":2510,"velge":2511,"altsa":2512,"gu":2513,"risik":2514,"sper":2515,"basert":2516,"skrevet":2517,"ay":2518,"tjenester":2519,"Sy":2520,"synes":2521,"sil":2522,"ein":2523,"medlemmer":2524,"Reg":2525,"Bil":2526,"født":2527,"jobb":2528,"snitt":2529,"giver":2530,"Vel":2531,"mine":2532,"uler":2533,"serte":2534,"sjø":2535,"uke":2536,"kvinne":2537,"utenfor":2538,"spennende":2539,"Mange":2540,"tilgjengelig":2541,"fy":2542,"com":2543,"plasser":2544,"lede":2545,"dige":2546,"omrader":2547,"parti":2548,"etabler":2549,"grav":2550,"sprak":2551,"tru":2552,"atene":2553,"spek":2554,"Hel":2555,"kompetanse":2556,"mobil":2557,"følger":2558,"kart":2559,"lege":2560,"dermed":2561,"nem":2562,"møter":2563,"Sør":2564,"særlig":2565,"ves":2566,"60":2567,"beveg":2568,"øst":2569,"ogra":2570,"selskap":2571,"ansen":2572,"mai":2573,"ky":2574,"forteller":2575,"øye":2576,"eren":2577,"mag":2578,"tap":2579,"betal":2580,"begr":2581,"hin":2582,"film":2583,"TV":2584,"høye":2585,"La":2586,"funnet":2587,"rappor":2588,"skog":2589,"ative":2590,"fav":2591,"start":2592,"Fra":2593,"tilbud":2594,"begge":2595,"jente":2596,"klær":2597,"lar":2598,"stene":2599,"sagt":2600,":)":2601,"utvikle":2602,"dens":2603,"popul":2604,"vem":2605,"cialis":2606,"kret":2607,"maten":2608,"føres":2609,"eier":2610,"jord":2611,"Euro":2612,"innenfor":2613,"okus":2614,"up":2615,"sjef":2616,"inkluder":2617,"startet":2618,"kene":2619,"idrett":2620,"alene":2621,"21":2622,"trening":2623,"nr":2624,"2013":2625,"otek":2626,"forb":2627,"halv":2628,"via":2629,"varer":2630,"Inter":2631,"forbindelse":2632,"Dersom":2633,"eneste":2634,"sist":2635,"tradi":2636,"sjett":2637,"hennes":2638,"tom":2639,"øver":2640,"Gud":2641,"kap":2642,"sle":2643,"OR":2644,"styret":2645,"følgende":2646,"tasjon":2647,"isin":2648,"lyst":2649,"gruppe":2650,"klare":2651,"tidlig":2652,"fjer":2653,"barnehag":2654,"fantast":2655,"akk":2656,"tri":2657,"ital":2658,"23":2659,"Go":2660,"kommet":2661,"jent":2662,"tot":2663,"nad":2664,"mitt":2665,"avhengig":2666,"Kar":2667,"jobber":2668,"liker":2669,"fo":2670,"begynte":2671,"krig":2672,"bran":2673,"Fot":2674,"virksomhet":2675,"ikasjon":2676,"ressur":2677,"qu":2678,"lønn":2679,"kjenner":2680,"model":2681,"alvor":2682,"velser":2683,"ire":2684,"»,":2685,"ktur":2686,"analy":2687,"tene":2688,"insp":2689,"Disse":2690,"log":2691,"direkte":2692,"Ser":2693,"To":2694,"Li":2695,"øte":2696,"itter":2697,"sjen":2698,"ferd":2699,"region":2700,"akkur":2701,"merik":2702,"skape":2703,"pt":2704,"tivt":2705,"vern":2706,"date":2707,"dende":2708,"hom":2709,"konkurran":2710,"akkurat":2711,"verdens":2712,"synlig":2713,"favor":2714,"forut":2715,"ian":2716,"versitet":2717,"oms":2718,"stol":2719,"kjøre":2720,"fant":2721,"oppr":2722,"stein":2723,"alitet":2724,"begynner":2725,"spen":2726,"butikk":2727,"bakgrunn":2728,"øs":2729,"tema":2730,"lenger":2731,"arr":2732,"ong":2733,"klokker":2734,"nen":2735,"fokus":2736,"USA":2737,"2018":2738,"rasjon":2739,"minutter":2740,"vest":2741,"regel":2742,"book":2743,"2012":2744,"dør":2745,"deltak":2746,"lott":2747,"!!":2748,"kveld":2749,"Te":2750,"avgjør":2751,"regn":2752,"eter":2753,"dagens":2754,"pavir":2755,"gangsp":2756,"apr":2757,"nov":2758,"jul":2759,"tids":2760,"ST":2761,"tør":2762,"malt":2763,"ks":2764,"sla":2765,"bon":2766,"meter":2767,"altern":2768,"øke":2769,"verket":2770,"chat":2771,"aker":2772,"enga":2773,"uker":2774,"hotell":2775,"fint":2776,"passer":2777,"spla":2778,"ssy":2779,"hvilke":2780,"Bergen":2781,"former":2782,"ill":2783,"Andre":2784,"blo":2785,"80":2786,"bøker":2787,"budsjett":2788,"mt":2789,"stopp":2790,"tenke":2791,"maned":2792,"serer":2793,"letter":2794,"ht":2795,"forsvar":2796,"lands":2797,"melig":2798,"dning":2799,"use":2800,"terer":2801,"høyt":2802,"vne":2803,"ast":2804,"Sex":2805,"darlig":2806,"motor":2807,"parte":2808,"age":2809,"iddel":2810,"splan":2811,"bal":2812,"brukere":2813,"oppgaver":2814,"melding":2815,"divi":2816,"produkter":2817,"Tor":2818,"fel":2819,"gjenopprett":2820,"entlige":2821,"fu":2822,"innhold":2823,"eks":2824,"verre":2825,"avtale":2826,"th":2827,"legges":2828,"vedtak":2829,"imot":2830,"slett":2831,"tred":2832,"aug":2833,"alist":2834,"rø":2835,"uelle":2836,"skom":2837,"opplysninger":2838,"profil":2839,"psyk":2840,"nettsteder":2841,"fornøy":2842,"problemer":2843,"spillet":2844,"forsik":2845,"utrolig":2846,"Stat":2847,"ktøy":2848,"AN":2849,"kere":2850,"bri":2851,"iet":2852,"uar":2853,"ton":2854,"70":2855,"kkel":2856,"ion":2857,"styre":2858,"kry":2859,"viktigste":2860,"ation":2861,"spar":2862,"historie":2863,"stadig":2864,"bevis":2865,"benytte":2866,"lit":2867,"time":2868,"Les":2869,"behand":2870,"ager":2871,"næring":2872,"viste":2873,"foran":2874,"duksjon":2875,"plassen":2876,"voksne":2877,"nø":2878,"system":2879,"barnet":2880,"funger":2881,"førte":2882,"revi":2883,"finan":2884,"amp":2885,"profe":2886,"2011":2887,"foreldre":2888,"bildet":2889,"stillinger":2890,"tem":2891,"ou":2892,"maskin":2893,"jenester":2894,"oten":2895,"Ver":2896,"tv":2897,"disku":2898,"delser":2899,"eksp":2900,"ind":2901,"alte":2902,"utgangsp":2903,"At":2904,"int":2905,"eld":2906,"tilbyr":2907,"ges":2908,"ess":2909,"Arbeid":2910,"unktet":2911,"deles":2912,"za":2913,"masse":2914,"vand":2915,"selskapet":2916,"opplæring":2917,"\".":2918,"vinner":2919,"Ra":2920,"grupper":2921,"apne":2922,"muligheter":2923,"familie":2924,"denafil":2925,"fine":2926,"Fri":2927,"utviklet":2928,"Hol":2929,"ønsket":2930,"merksom":2931,"moder":2932,"bart":2933,"sig":2934,"vd":2935,"høre":2936,"26":2937,"juni":2938,"pal":2939,"ativt":2940,"defin":2941,"fart":2942,"messig":2943,"død":2944,"tilpa":2945,"merket":2946,"verige":2947,"meld":2948,"Br":2949,"meste":2950,"No":2951,"verktøy":2952,"Sol":2953,"klarer":2954,"ww":2955,"fotball":2956,"rei":2957,"Mat":2958,"telefon":2959,"hal":2960,"datter":2961,"setning":2962,"28":2963,"gammel":2964,"vde":2965,"komp":2966,"delen":2967,"bærer":2968,"kning":2969,"Kun":2970,"oppmerksom":2971,"Si":2972,"urn":2973,"Over":2974,"nemlig":2975,"sjonene":2976,"partementet":2977,"innlegget":2978,"tilgang":2979,"naturlig":2980,"ikkje":2981,"Su":2982,"avslut":2983,"valgt":2984,"ET":2985,"jobbe":2986,"handel":2987,"prosjekter":2988,"27":2989,"sosiale":2990,"kel":2991,"mis":2992,"tas":2993,"fysi":2994,"mand":2995,"strateg":2996,"hvem":2997,"klokke":2998,"selig":2999,"Kr":3000,"kombin":3001,"lager":3002,"haper":3003,"dro":3004,"erfaring":3005,"Trond":3006,"NT":3007,"Pri":3008,"ane":3009,"lek":3010,"meng":3011,"kkes":3012,"punkt":3013,"lokale":3014,"forsøk":3015,"AR":3016,"vekst":3017,"gruppen":3018,"merke":3019,"bidr":3020,"gjennomført":3021,"søkt":3022,"vant":3023,"arbeide":3024,"kroppen":3025,"dele":3026,"Derfor":3027,"radet":3028,"ømme":3029,"band":3030,"besky":3031,"design":3032,"olje":3033,"ku":3034,"oppdrag":3035,"visning":3036,"urt":3037,"tron":3038,"raskt":3039,"problem":3040,"oven":3041,"sendt":3042,"oppna":3043,"døde":3044,"trafikk":3045,"IT":3046,"ytter":3047,"anser":3048,"fakt":3049,"igheter":3050,"ming":3051,"2010":3052,"maneder":3053,"fang":3054,"spillere":3055,"Co":3056,"sjer":3057,"ega":3058,"bygget":3059,"Par":3060,"sler":3061,"størr":3062,"endringer":3063,"malet":3064,"bygging":3065,"autom":3066,"NA":3067,"høyre":3068,"vurdering":3069,"sino":3070,"blogg":3071,"Europa":3072,"tjeneste":3073,"viktige":3074,"løse":3075,"Ste":3076,"følgelig":3077,"tredje":3078,"vinter":3079,"kurs":3080,"tips":3081,"kommunen":3082,"ero":3083,"Ta":3084,"fiske":3085,"nummer":3086,"nettet":3087,"inneholder":3088,"igur":3089,"velger":3090,"kirke":3091,"Kjøp":3092,"sikkert":3093,"orien":3094,"skorte":3095,"29":3096,"sens":3097,"nader":3098,"rep":3099,"ssel":3100,"gro":3101,"Kommun":3102,"smil":3103,"ali":3104,"batt":3105,"flott":3106,"struktur":3107,"settes":3108,"arets":3109,"Foto":3110,"forskjell":3111,"sats":3112,"oppdag":3113,"stats":3114,"felt":3115,"stav":3116,"januar":3117,"lærer":3118,"apotek":3119,"prøver":3120,"Ty":3121,"Stor":3122,"spo":3123,"stikk":3124,"resten":3125,"Nett":3126,"styrke":3127,"eiendom":3128,"meto":3129,"mester":3130,"nere":3131,"gende":3132,"kant":3133,"single":3134,"medisin":3135,"cebook":3136,"EU":3137,"Alt":3138,"forven":3139,"Gjennom":3140,"befolk":3141,"perioden":3142,"con":3143,"sar":3144,"otte":3145,"fry":3146,"ful":3147,"leve":3148,"tradisjon":3149,"Vest":3150,"slatt":3151,"oversikt":3152,"leverand":3153,"tember":3154,"inve":3155,"offentlig":3156,"leser":3157,"klubb":3158,"grunnlag":3159,"mater":3160,"morgen":3161,"ordin":3162,"Uni":3163,"muligheten":3164,"nytte":3165,"vinne":3166,"amerik":3167,"omrade":3168,"Finn":3169,"fru":3170,"uelt":3171,"lør":3172,"kampen":3173,"way":3174,"bilen":3175,"ært":3176,"terte":3177,"mek":3178,"undersøkelse":3179,"deretter":3180,"oller":3181,"praksis":3182,"hvorfor":3183,"slags":3184,"samlet":3185,"glad":3186,"EL":3187,"krever":3188,"løsninger":3189,"organiser":3190,"Pr":3191,"kontor":3192,"opptatt":3193,"Helse":3194,"luft":3195,"budet":3196,"IS":3197,"smak":3198,"minister":3199,"orden":3200,"Far":3201,"ana":3202,"mør":3203,"dess":3204,"veil":3205,"plikt":3206,"198":3207,"Hen":3208,"iva":3209,"skikk":3210,"skon":3211,"Kristi":3212,"hjer":3213,"leie":3214,"bane":3215,"tross":3216,"synet":3217,"utviklingen":3218,"Hvor":3219,"ledd":3220,"sitter":3221,"IK":3222,"markedet":3223,"sav":3224,"aner":3225,"nene":3226,"Høy":3227,"forvalt":3228,"nærmere":3229,"vember":3230,"helst":3231,"utvalget":3232,"akter":3233,"Min":3234,"prin":3235,"bord":3236,"valgte":3237,"føler":3238,"jek":3239,"kjæreste":3240,"obb":3241,"sammenheng":3242,"aktiv":3243,"IL":3244,"gave":3245,"Hj":3246,"daglig":3247,"stid":3248,"delige":3249,"virke":3250,"sjel":3251,"detal":3252,"internasjonale":3253,"Ad":3254,"Fr":3255,"kob":3256,"Bjør":3257,"service":3258,"ologisk":3259,"hor":3260,"fold":3261,"lokal":3262,"løsning":3263,"test":3264,"samfunnet":3265,"2009":3266,"turen":3267,"xx":3268,"Sc":3269,"pass":3270,"esc":3271,"ppet":3272,"hai":3273,"server":3274,"Johan":3275,"Dan":3276,"endre":3277,"bat":3278,"gl":3279,"fir":3280,"fest":3281,"Øst":3282,"september":3283,"NO":3284,"ktør":3285,"kunder":3286,"gene":3287,"annonser":3288,"Chri":3289,"reseptfritt":3290,"ys":3291,"Dating":3292,"snø":3293,"ette":3294,"lende":3295,"Str":3296,"interess":3297,"hjelper":3298,"iker":3299,"legging":3300,"Ol":3301,"produkt":3302,"burde":3303,"unnga":3304,"institu":3305,"ollen":3306,"stillingen":3307,"mes":3308,"perf":3309,"tydelig":3310,"systemet":3311,"bestar":3312,"elsk":3313,"risiko":3314,"Norske":3315,"Hvordan":3316,"sember":3317,"range":3318,"resultater":3319,"dato":3320,"brudd":3321,"sister":3322,"Hu":3323,"uansett":3324,"datingside":3325,"\",":3326,"ksjoner":3327,"bered":3328,"anti":3329,"fullt":3330,"elever":3331,"departementet":3332,"april":3333,"skjema":3334,"statt":3335,"snart":3336,"orer":3337,"bladet":3338,"anner":3339,"somt":3340,"invi":3341,"rør":3342,"Ru":3343,"hn":3344,"Por":3345,"disk":3346,"høyde":3347,"endelig":3348,"kvinn":3349,"skade":3350,"Mil":3351,"opprinn":3352,"ep":3353,"fik":3354,"Ga":3355,"So":3356,"organisasjon":3357,"nede":3358,"andel":3359,"web":3360,"hensyn":3361,"tilsvar":3362,"Land":3363,"mars":3364,"navnet":3365,"ansvarlig":3366,"bestille":3367,"politiet":3368,"rygg":3369,"transport":3370,"eit":3371,"sammenlig":3372,"middel":3373,"NR":3374,"taler":3375,"fornøyd":3376,"king":3377,"spise":3378,"lyd":3379,"fantastisk":3380,"Sak":3381,"fla":3382,"kkelig":3383,"iør":3384,"rettet":3385,"hets":3386,"gis":3387,"kommunikasjon":3388,"Eller":3389,"begrens":3390,"dei":3391,"sven":3392,"desember":3393,"tekst":3394,"kolle":3395,"familien":3396,"henhold":3397,"sielle":3398,"november":3399,"hev":3400,"90":3401,"stiller":3402,"vold":3403,"fat":3404,"Sen":3405,"arrang":3406,"ppen":3407,"varet":3408,"ped":3409,"45":3410,"tekt":3411,"elek":3412,"nettopp":3413,"tion":3414,"Tid":3415,"Fol":3416,"undet":3417,"artikk":3418,"kse":3419,"hygg":3420,"lille":3421,"tober":3422,"hvilken":3423,"tann":3424,"rolle":3425,"aget":3426,"slutten":3427,"Fran":3428,"viten":3429,"generisk":3430,"Trom":3431,"Mal":3432,"reguler":3433,"typer":3434,"bære":3435,"LE":3436,"egge":3437,"sterke":3438,"sfor":3439,"egnet":3440,"makt":3441,"middag":3442,"lettere":3443,"Trondheim":3444,"rene":3445,"tab":3446,"varme":3447,"glede":3448,"hil":3449,"plu":3450,"treff":3451,"kateg":3452,"gifter":3453,"regjer":3454,"inget":3455,"borg":3456,"ifølge":3457,"biler":3458,"oktober":3459,"atisk":3460,"sliv":3461,"vurdere":3462,"loven":3463,"selvfølgelig":3464,"seksu":3465,"oppe":3466,"ilig":3467,"fylke":3468,"kommende":3469,"presenter":3470,"2008":3471,"gul":3472,"Siden":3473,"trygg":3474,"staur":3475,"Stu":3476,"identi":3477,"offentlige":3478,"Stav":3479,"nevnt":3480,"35":3481,"snakke":3482,"Ban":3483,"dokumen":3484,"retten":3485,"opplevelse":3486,"He":3487,"kreft":3488,"grader":3489,"markeds":3490,"privat":3491,"aland":3492,"vent":3493,"stede":3494,"Hans":3495,"alog":3496,"innebærer":3497,"vilkar":3498,"meget":3499,"folke":3500,"teknologi":3501,"tivitet":3502,"seier":3503,"neg":3504,"digheter":3505,"drene":3506,"bidrar":3507,"Fin":3508,"papir":3509,"minist":3510,"lingen":3511,"kat":3512,"tett":3513,"iene":3514,"slipp":3515,"Stort":3516,"august":3517,"Ag":3518,"kontra":3519,"oppfølg":3520,"dame":3521,"delag":3522,"radene":3523,"enfor":3524,"kalt":3525,"radi":3526,"høst":3527,"instru":3528,"virker":3529,"ansk":3530,"delta":3531,"økonomi":3532,"Di":3533,"arked":3534,"sed":3535,"represent":3536,"skjul":3537,"skjøn":3538,"fungerer":3539,"farge":3540,"starter":3541,"gjennomsnitt":3542,"Vil":3543,"ue":3544,"fjord":3545,"omsorg":3546,"øse":3547,"filmer":3548,"bedrift":3549,"ity":3550,"partner":3551,"interesse":3552,"ct":3553,"OL":3554,"male":3555,"Mor":3556,"rommet":3557,"utfordringer":3558,"stin":3559,"AL":3560,"Ingen":3561,"nende":3562,"till":3563,"regler":3564,"banen":3565,"tige":3566,"fler":3567,"ider":3568,"fyr":3569,"stilt":3570,"slin":3571,"organisasjoner":3572,"anter":3573,"km":3574,"Prosjek":3575,"brev":3576,"brukte":3577,"takk":3578,"tenker":3579,"grep":3580,"formal":3581,"betydning":3582,"Eg":3583,"Ogsa":3584,"rut":3585,"kraftig":3586,"bestemt":3587,"henger":3588,"boka":3589,"seks":3590,"ønske":3591,"inkludert":3592,"møtet":3593,"kamer":3594,"New":3595,"My":3596,"diske":3597,"indivi":3598,"sentrum":3599,"tilfeller":3600,"euro":3601,"pan":3602,"Ge":3603,"invester":3604,"Del":3605,"arder":3606,"elses":3607,"eskorte":3608,"presen":3609,"staende":3610,"programmet":3611,"blikk":3612,"kjenne":3613,"bro":3614,"sykehus":3615,"tin":3616,"aktiviteter":3617,"vedlike":3618,"31":3619,"resultat":3620,"forhand":3621,"bruar":3622,"velsen":3623,"uttrykk":3624,"kul":3625,"imp":3626,"stasjon":3627,"varen":3628,"avvik":3629,"sjekke":3630,"Ju":3631,"nevnte":3632,"RE":3633,"hodet":3634,"flotte":3635,"urer":3636,"kjøper":3637,"vind":3638,"sesongen":3639,"blod":3640,"mm":3641,"nettstedet":3642,"klasse":3643,"driver":3644,"hører":3645,"uft":3646,"resp":3647,"interv":3648,"brann":3649,"beslut":3650,"enting":3651,"utvi":3652,"polit":3653,"Car":3654,"ING":3655,"ikere":3656,"forrige":3657,"vitenskap":3658,"ube":3659,"oppfyl":3660,"type":3661,"....":3662,"litter":3663,"Pre":3664,"san":3665,"197":3666,"ania":3667,"møtte":3668,"boken":3669,"øya":3670,"rav":3671,"yngre":3672,"Spe":3673,"midt":3674,"lengre":3675,"enkle":3676,"apnet":3677,"innbygg":3678,"ena":3679,"kjøkken":3680,"enner":3681,"leg":3682,"lørdag":3683,"tvil":3684,"faglig":3685,"stig":3686,"kjempe":3687,"betale":3688,"hovedsak":3689,"skoler":3690,"studenter":3691,"nasjonale":3692,"Styr":3693,"avtalen":3694,"bom":3695,"venstre":3696,"myndighet":3697,"sesong":3698,"Hei":3699,"au":3700,"elsene":3701,"kjæresten":3702,"Flere":3703,"naken":3704,"bedrifter":3705,".[":3706,"ex":3707,"gan":3708,"ata":3709,"tanke":3710,"trekk":3711,"Sverige":3712,"Produksjon":3713,"kommentar":3714,"inten":3715,"registrert":3716,"trent":3717,"terr":3718,"glem":3719,"serv":3720,"moderne":3721,"arrange":3722,"elsker":3723,"farger":3724,"universitet":3725,"frivil":3726,"godkjent":3727,"gje":3728,"begynne":3729,"uer":3730,"nettapotek":3731,"slar":3732,"2007":3733,"skriften":3734,"blom":3735,"reiser":3736,"studie":3737,"sannsynlig":3738,"NRK":3739,"søndag":3740,"anled":3741,"digit":3742,"Ti":3743,"æring":3744,"eli":3745,"fulle":3746,"feltet":3747,"jevn":3748,"langs":3749,"lei":3750,"Rom":3751,"Hoved":3752,"oppleve":3753,"Samtidig":3754,"politiske":3755,"prisen":3756,"cir":3757,"drer":3758,"Sand":3759,"kalle":3760,"relig":3761,"jern":3762,"starte":3763,"februar":3764,"russi":3765,"hem":3766,"fortelle":3767,"vari":3768,"eksister":3769,"priori":3770,"opplever":3771,"tusen":3772,"bytte":3773,"Bu":3774,"rul":3775,"poten":3776,"Vis":3777,"sosial":3778,"cm":3779,"lavere":3780,"billig":3781,"smer":3782,"høsten":3783,"klarte":3784,"Stavanger":3785,"etablert":3786,"kjøpt":3787,"Ek":3788,"filmen":3789,"redusere":3790,"sterk":3791,"itte":3792,"situasjonen":3793,"Kanskje":3794,"fortsette":3795,"selve":3796,"sykkel":3797,"gjennomføre":3798,"ith":3799,"hundre":3800,"Ka":3801,"Jes":3802,"publik":3803,"ini":3804,"team":3805,"restaur":3806,"osv":3807,"Fyl":3808,"konkurranse":3809,"ving":3810,"okt":3811,"Facebook":3812,"oppgave":3813,"slaget":3814,"ses":3815,"delingen":3816,"økonomisk":3817,"trinn":3818,"isen":3819,"drøm":3820,"Slik":3821,"God":3822,"iks":3823,"personlig":3824,"situasjon":3825,"profesjon":3826,"utsatt":3827,"grønn":3828,"ministr":3829,"populære":3830,"drett":3831,"holdning":3832,"omfatt":3833,"SK":3834,"Gener":3835,"jobben":3836,"super":3837,"gli":3838,"tillit":3839,"vitra":3840,"priser":3841,"Mon":3842,"gere":3843,"svart":3844,"opphold":3845,"valget":3846,"livs":3847,"favoritter":3848,"forholdet":3849,"sang":3850,"repet":3851,"ringer":3852,"Val":3853,"Ve":3854,"veis":3855,"Hand":3856,"II":3857,"forfatter":3858,"egaende":3859,"skader":3860,"Fil":3861,"elevene":3862,"gn":3863,"sland":3864,"lange":3865,"periode":3866,"politikk":3867,"innvand":3868,"lub":3869,"sloven":3870,"innsats":3871,"Jan":3872,"fredag":3873,"vesen":3874,"overfor":3875,"journ":3876,"skikkelig":3877,"sterkt":3878,"bunn":3879,"bloggen":3880,"freds":3881,"Res":3882,"MS":3883,"ac":3884,"ferie":3885,"formid":3886,"økonomiske":3887,"stander":3888,"unna":3889,"overrask":3890,"Side":3891,"talt":3892,"videoer":3893,"Hø":3894,"Sko":3895,"private":3896,"bestemmel":3897,"ressurser":3898,"rike":3899,"sielt":3900,"øt":3901,"stati":3902,"Poli":3903,"rapport":3904,"Ly":3905,"stendig":3906,"jule":3907,"byr":3908,"OS":3909,"inntekt":3910,"heldig":3911,"Kn":3912,"muse":3913,"Ham":3914,"ete":3915,"intervju":3916,"stitu":3917,"Dr":3918,"spre":3919,"bol":3920,"Like":3921,"skjedde":3922,"utgjør":3923,"nærings":3924,"vanlige":3925,"ellers":3926,"inspir":3927,"betaling":3928,"pat":3929,"Bok":3930,"enklere":3931,"gri":3932,"veiled":3933,"skrev":3934,"fug":3935,"greit":3936,"pol":3937,"stival":3938,"vannet":3939,"karakter":3940,"regjeringen":3941,"sukker":3942,"meldinger":3943,"John":3944,"fett":3945,"Ander":3946,"nettverk":3947,"treng":3948,"juli":3949,"Ca":3950,"RA":3951,"oppfølging":3952,"ologiske":3953,"foretak":3954,"leggende":3955,"500":3956,"slapp":3957,"kjøtt":3958,"øvrig":3959,"bildene":3960,"fen":3961,"sektor":3962,"uk":3963,"ins":3964,"Mag":3965,"mist":3966,"pasient":3967,"seres":3968,"hjerte":3969,"taket":3970,"gard":3971,"hard":3972,"refer":3973,"debatt":3974,"medier":3975,"fek":3976,"selskaper":3977,"øren":3978,"varier":3979,"vises":3980,"igj":3981,"jobbet":3982,"tol":3983,"ifiser":3984,"ika":3985,"peratur":3986,"skatt":3987,"nasjonal":3988,"uly":3989,"utd":3990,"aksjon":3991,"direktør":3992,"klubben":3993,"serien":3994,"forstaelse":3995,"kten":3996,"fortsetter":3997,"sexy":3998,"slikt":3999,"seri":4000,"Erik":4001,"slivet":4002,"utøver":4003,"somme":4004,"tø":4005,"smø":4006,"):":4007,"ppa":4008,"takt":4009,"nelsen":4010,"casino":4011,"gaende":4012,"vinn":4013,"betydelig":4014,"kommunene":4015,"trekke":4016,"straff":4017,"veier":4018,"stabil":4019,"tilsvarende":4020,"teres":4021,"San":4022,"nettsted":4023,"formen":4024,"forening":4025,"196":4026,"porn":4027,"gutter":4028,"hyggelig":4029,"oppfor":4030,"inntil":4031,"utover":4032,"frik":4033,"bus":4034,"iso":4035,"finn":4036,"levitra":4037,"klima":4038,"regj":4039,"jenesten":4040,"195":4041,"tver":4042,"kna":4043,"Forsk":4044,"Ul":4045,"standard":4046,"utgangspunkt":4047,"feng":4048,"Bruk":4049,"mennesk":4050,"bevisst":4051,"enhver":4052,"dokumenter":4053,"2006":4054,"beløp":4055,"We":4056,"-)":4057,"ramme":4058,"Con":4059,"PS":4060,"ID":4061,"samfunns":4062,"lak":4063,"36":4064,"inge":4065,"Møte":4066,"Plan":4067,"ink":4068,"kjøret":4069,"beskri":4070,"Ifølge":4071,"parten":4072,"vitt":4073,"vider":4074,"flyttet":4075,"raft":4076,"skommun":4077,"falt":4078,"politisk":4079,"Hot":4080,"konto":4081,"utvikler":4082,"hvit":4083,"avgjørende":4084,"Service":4085,"sor":4086,"gull":4087,"kjører":4088,"matisk":4089,"fran":4090,"homo":4091,"usen":4092,"TE":4093,"rykk":4094,"internett":4095,"kunde":4096,"Ung":4097,"foku":4098,"ivaret":4099,"stral":4100,"ald":4101,"Kultur":4102,"tilstre":4103,"Bi":4104,"SE":4105,"Des":4106,"Bygg":4107,"isere":4108,"prinsi":4109,"kring":4110,"free":4111,"pil":4112,"oppgjør":4113,"ony":4114,"sken":4115,"utført":4116,"agen":4117,"fak":4118,"engelsk":4119,"inte":4120,"lest":4121,"gutt":4122,"fordel":4123,"che":4124,"invol":4125,"utslipp":4126,"Is":4127,"enhet":4128,"On":4129,"lot":4130,"butikken":4131,"bank":4132,"Off":4133,"toppen":4134,"rettel":4135,"innov":4136,"Bli":4137,"milit":4138,"grunnleggende":4139,"bestemte":4140,"merker":4141,"fro":4142,"nev":4143,"menneske":4144,"Eng":4145,"arbeidere":4146,"Kli":4147,"ledelse":4148,"parker":4149,"Lo":4150,"prosessen":4151,"voksen":4152,"representer":4153,"pasitet":4154,"trad":4155,"okr":4156,"ønne":4157,"regnskap":4158,"gøy":4159,"absol":4160,"wn":4161,"skul":4162,"aksep":4163,"studier":4164,"effekt":4165,"kvelden":4166,"ledes":4167,"uken":4168,"tider":4169,"stoffer":4170,"aktig":4171,"opti":4172,"klassi":4173,"slet":4174,"Barn":4175,"ogn":4176,"okk":4177,".»":4178,"mma":4179,"apner":4180,"amerikanske":4181,"pensjon":4182,"Videre":4183,"ara":4184,"vedtatt":4185,"rent":4186,"bransjen":4187,"ote":4188,"konf":4189,"bakken":4190,"escort":4191,"regjering":4192,"jakt":4193,"tenkt":4194,"vakre":4195,"ekteskap":4196,"hardt":4197,"funksjoner":4198,"uri":4199,"Bla":4200,"soli":4201,"rettigheter":4202,"pasienter":4203,"engasj":4204,"forbundet":4205,"sson":4206,"Aker":4207,"ogle":4208,"orier":4209,"siv":4210,"Hi":4211,"sprosjek":4212,"Mid":4213,"ssene":4214,"spi":4215,"ytterligere":4216,"flytte":4217,"benyttes":4218,"tekter":4219,"konse":4220,"størrelse":4221,"omradene":4222,"gjenoppretting":4223,"historien":4224,"totalt":4225,"Tre":4226,"sørge":4227,"vekk":4228,"kast":4229,"bjør":4230,"endret":4231,"Jon":4232,"verdier":4233,"havet":4234,"dia":4235,"sniva":4236,"endring":4237,"anbefal":4238,"Person":4239,"sentral":4240,"vapen":4241,"forsv":4242,"smo":4243,"redning":4244,"erfaringer":4245,"isering":4246,"stod":4247,"Søk":4248,"planen":4249,"gjøring":4250,"ssert":4251,"kvar":4252,"festival":4253,"pene":4254,"oppdatert":4255,"unnet":4256,"konkret":4257,"vesent":4258,"Bak":4259,"steg":4260,"ekstre":4261,"stak":4262,"stund":4263,"vs":4264,"batter":4265,"bibli":4266,"gte":4267,"Bade":4268,"rader":4269,"venter":4270,"vindu":4271,"sommeren":4272,"jf":4273,"spunkt":4274,"Dagbladet":4275,"jak":4276,"høyeste":4277,",-":4278,"hens":4279,"tilsyn":4280,"publikum":4281,"2005":4282,"trolig":4283,"2000":4284,"trener":4285,"administr":4286,"Mart":4287,"gut":4288,"ork":4289,"forvaltning":4290,"selvsagt":4291,"skar":4292,"avn":4293,"alla":4294,"sho":4295,"planer":4296,"undersøkelsen":4297,"lignende":4298,"smiljø":4299,"PC":4300,"sign":4301,"kommuner":4302,"vedlikehold":4303,"ies":4304,"rere":4305,"ister":4306,"klin":4307,"rael":4308,"alisering":4309,"kym":4310,"titt":4311,"33":4312,"liste":4313,"tøy":4314,"ino":4315,"ordet":4316,"Mu":4317,"sønn":4318,"snakker":4319,"bekre":4320,"utselig":4321,"Ko":4322,"bygger":4323,"æren":4324,"dalen":4325,"presiden":4326,"konstru":4327,"bekym":4328,"folket":4329,"enna":4330,"selen":4331,"dommer":4332,"Dess":4333,"ungdoms":4334,"Kir":4335,"løy":4336,"tog":4337,"partiet":4338,"dagene":4339,"Vik":4340,"sidene":4341,"Skal":4342,"Result":4343,"arbeidsgiver":4344,"sprogram":4345,"befolkningen":4346,"miljøet":4347,"butikker":4348,"interessant":4349,"forbed":4350,"krist":4351,"undersøkelser":4352,"fotogra":4353,"setting":4354,"ure":4355,"Mic":4356,"presse":4357,"sitte":4358,"IF":4359,"forum":4360,"rød":4361,"linger":4362,"tilfreds":4363,"aktuelle":4364,"Bare":4365,"ente":4366,"Bank":4367,"fysisk":4368,"andid":4369,"byra":4370,"atør":4371,"turer":4372,"ON":4373,"engene":4374,"generelt":4375,"selger":4376,"ledet":4377,"tilrettel":4378,"Inst":4379,"mening":4380,"perfekt":4381,"retningslin":4382,"sul":4383,"forvent":4384,"ffet":4385,"besøke":4386,"Fo":4387,"ventet":4388,"old":4389,"hindre":4390,"søknad":4391,"ola":4392,"hente":4393,"starten":4394,"alternativ":4395,"relativt":4396,"fron":4397,"innom":4398,"legen":4399,"vanligvis":4400,"Dermed":4401,"drik":4402,"ki":4403,"last":4404,"latelse":4405,"asjons":4406,"beskjed":4407,"diag":4408,"stemmer":4409,"tel":4410,"drikke":4411,"hentet":4412,"materiale":4413,"virkning":4414,"Organ":4415,"SS":4416,"tegn":4417,"Ex":4418,"spa":4419,"normalt":4420,"dekke":4421,"dresse":4422,"Tysk":4423,"borte":4424,"gs":4425,"port":4426,"helset":4427,"mas":4428,"spilt":4429,"sukse":4430,"møn":4431,"favoritt":4432,"vene":4433,"ante":4434,"ppene":4435,"europe":4436,"Gratis":4437,"elektron":4438,"Internett":4439,"sildenafil":4440,"avær":4441,"refle":4442,"vente":4443,"administ":4444,"uell":4445,"komite":4446,"skjønn":4447,"kamera":4448,"ingenting":4449,"isert":4450,"cy":4451,"circa":4452,"desig":4453,"absolutt":4454,"Øy":4455,"kjærligheten":4456,"laste":4457,"omfattende":4458,"bred":4459,"skrifter":4460,"uavhengig":4461,"oppdaget":4462,"handle":4463,"lun":4464,"ass":4465,"flyt":4466,"sprose":4467,"von":4468,"virksomheten":4469,"nordmenn":4470,"nyte":4471,"spilte":4472,"plik":4473,"allen":4474,"Ele":4475,"Ak":4476,"revisjon":4477,"Sammen":4478,"Me":4479,"Tran":4480,"Tek":4481,"verdt":4482,"sinn":4483,".)":4484,"aktør":4485,"undervisning":4486,"sentrale":4487,"holdes":4488,"gjent":4489,"opplevelser":4490,"75":4491,"Lar":4492,"ordningen":4493,"serie":4494,"OM":4495,"mente":4496,"ekom":4497,"temperatur":4498,"bygd":4499,"34":4500,"ild":4501,"myndigheter":4502,"grense":4503,"Universitet":4504,"fare":4505,"ittel":4506,"dekk":4507,"Jesus":4508,"agt":4509,"UN":4510,"omtrent":4511,"www":4512,"umiddel":4513,"inspi":4514,"eland":4515,"Th":4516,"shem":4517,"staten":4518,"status":4519,"tiver":4520,"derimot":4521,"spørsmalet":4522,"roman":4523,"ledere":4524,"yt":4525,"videregaende":4526,"tilstrekkelig":4527,"nærheten":4528,"konser":4529,"valu":4530,"evne":4531,"rede":4532,"yo":4533,"Com":4534,"hjul":4535,"avgift":4536,"vo":4537,"eta":4538,"bruken":4539,"sur":4540,"ssor":4541,"smøte":4542,"liggende":4543,"rammen":4544,"oppmerksomhet":4545,"styring":4546,"kjøring":4547,"Uten":4548,"listen":4549,"As":4550,"Ole":4551,"itutt":4552,"hum":4553,"dam":4554,"delsen":4555,"kne":4556,"messige":4557,"sling":4558,"tiet":4559,"haug":4560,"sjelden":4561,"deilig":4562,"strand":4563,"drive":4564,"Sport":4565,"Ap":4566,"fred":4567,"jentene":4568,"anbefaler":4569,"dret":4570,"09":4571,"bereg":4572,"Lille":4573,"ikler":4574,"hl":4575,"fremover":4576,"forsker":4577,"organisasjonen":4578,"Lu":4579,"rus":4580,"minn":4581,"sjøen":4582,"dring":4583,"figur":4584,"skatte":4585,"hit":4586,"røy":4587,"grun":4588,"troll":4589,"fremst":4590,"Sal":4591,"arbeidspla":4592,"defini":4593,"Ungdom":4594,"personlige":4595,"angrep":4596,"tyn":4597,"godkjen":4598,"Skj":4599,"ordning":4600,"Tjenester":4601,"39":4602,"vennlig":4603,"naden":4604,"smarked":4605,"Kor":4606,"flu":4607,"innholdet":4608,"sja":4609,"begynnelsen":4610,"interessert":4611,"kron":4612,"skyld":4613,"tta":4614,"eker":4615,"musk":4616,"garden":4617,"resultatet":4618,"avdeling":4619,"opptak":4620,"hopp":4621,"mote":4622,"Føl":4623,"Hau":4624,"turi":4625,"utgifter":4626,"32":4627,"kol":4628,"prote":4629,"apent":4630,"agog":4631,"sun":4632,"gleder":4633,"avtaler":4634,"trene":4635,"edra":4636,"ellet":4637,"zz":4638,"kjøretøy":4639,"Stortinget":4640,"App":4641,"uren":4642,"gjeldende":4643,"sendes":4644,"01":4645,"skilt":4646,"usikker":4647,"aktive":4648,"analyse":4649,"194":4650,"mede":4651,"Anne":4652,"Russ":4653,"alvorlig":4654,"fatte":4655,"spørre":4656,"integr":4657,"havn":4658,"kvalifiser":4659,"Hver":4660,"nylig":4661,"vat":4662,"forand":4663,"konklu":4664,"Google":4665,"Bjørn":4666,"engt":4667,"mamma":4668,"Fj":4669,"kontin":4670,"Au":4671,"kny":4672,"ærer":4673,"riks":4674,"bler":4675,"smar":4676,"følelse":4677,"rapporten":4678,"//":4679,"praktisk":4680,"spesielle":4681,"mandag":4682,"forbund":4683,"adcirca":4684,"Fe":4685,"Vare":4686,"Hjem":4687,"MA":4688,"løst":4689,"olf":4690,"Tromsø":4691,"skjedd":4692,"mangler":4693,"byer":4694,"barnehage":4695,"fremdeles":4696,"OG":4697,"firma":4698,"thai":4699,"føle":4700,"Utdan":4701,"vanza":4702,"aktører":4703,"tjenesten":4704,"ansvaret":4705,"eto":4706,"foreg":4707,"syl":4708,"løper":4709,"urte":4710,"saks":4711,"svis":4712,"Grunn":4713,"levere":4714,"stjer":4715,"Nordland":4716,"forbruk":4717,"elekt":4718,"spra":4719,"tadal":4720,"skue":4721,"tadalafil":4722,"igjennom":4723,"homofil":4724,"student":4725,"nt":4726,"jeneste":4727,"standen":4728,"cam":4729,"37":4730,"handlinger":4731,"sia":4732,"dekket":4733,"stilte":4734,"matikk":4735,"38":4736,"Tyskland":4737,"konfer":4738,"Ter":4739,"tten":4740,"redusert":4741,"posisjon":4742,"vardenafil":4743,"minne":4744,"fantastiske":4745,"informasjonen":4746,"bruket":4747,"situasjoner":4748,"samle":4749,"enor":4750,"retts":4751,"glass":4752,"demokr":4753,"supp":4754,"Log":4755,"levert":4756,"tilfel":4757,"posten":4758,"opply":4759,"Trøn":4760,"FOR":4761,"lave":4762,"Rad":4763,"systemer":4764,"relev":4765,"Gar":4766,"with":4767,"kle":4768,"rimelig":4769,"Fredrik":4770,"ip":4771,"foreldrene":4772,"pleier":4773,"ærlig":4774,"russiske":4775,"hverdag":4776,"VG":4777,"tung":4778,"arlig":4779,"sering":4780,"litteratur":4781,"runde":4782,"Først":4783,"glob":4784,"fal":4785,"sjekk":4786,"plutselig":4787,"ender":4788,"grunnen":4789,"Bra":4790,"ior":4791,"olen":4792,"Mas":4793,"tilskudd":4794,":-)":4795,"TO":4796,"spesial":4797,"unntak":4798,"Nasjon":4799,"misjon":4800,"spart":4801,".\"":4802,"dessverre":4803,"him":4804,"utgangspunktet":4805,"fremme":4806,"yre":4807,"Tra":4808,"høg":4809,"kristne":4810,"Rei":4811,"krigen":4812,"sir":4813,"ers":4814,"hørt":4815,"sender":4816,"Mens":4817,"fød":4818,"ksjonen":4819,"begrenset":4820,"volu":4821,"stj":4822,"siktig":4823,"sekven":4824,"sym":4825,"fjerne":4826,"bidrag":4827,"hvite":4828,"betalt":4829,"Noe":4830,"Øv":4831,"Nil":4832,"gass":4833,"inspirasjon":4834,"2004":4835,"eventuelt":4836,"omfatter":4837,"Kunst":4838,"anledning":4839,"ettersom":4840,"helhet":4841,"forsknings":4842,"ari":4843,"ight":4844,"kapasitet":4845,"søket":4846,"aring":4847,"nei":4848,"Barne":4849,"kvens":4850,"motiv":4851,"leverandør":4852,"bum":4853,"symp":4854,"finansier":4855,"uttry":4856,"anmel":4857,"Fag":4858,"areal":4859,"opprettet":4860,"svarte":4861,"lom":4862,"brukerne":4863,"nettsiden":4864,"tanker":4865,"live":4866,"dialog":4867,"Pla":4868,"løpe":4869,"Skog":4870,"torsdag":4871,"ktoratet":4872,"Pu":4873,"fremtiden":4874,"diagno":4875,"arti":4876,"hek":4877,"eksisterende":4878,"apning":4879,"vivanza":4880,"Ri":4881,"vidt":4882,"foner":4883,"skyldes":4884,"ellen":4885,"Run":4886,"erende":4887,"Tru":4888,"tekniske":4889,"ørt":4890,"arm":4891,"ledende":4892,"positive":4893,"digitale":4894,"bredt":4895,"økte":4896,"Red":4897,"nyheter":4898,"ani":4899,"økning":4900,"benytter":4901,"entre":4902,"fulgt":4903,"US":4904,"setninger":4905,"behovet":4906,"bevar":4907,"bland":4908,"VM":4909,"Danmark":4910,"frisk":4911,"etc":4912,"døm":4913,"okker":4914,"nettsider":4915,"skip":4916,"sive":4917,"sled":4918,"versjon":4919,"faglige":4920,"begynt":4921,"Sta":4922,"smøtet":4923,"Data":4924,"sikring":4925,"Rø":4926,"elektri":4927,"not":4928,"fjellet":4929,"verdig":4930,"Eli":4931,"unkter":4932,"indre":4933,"Tom":4934,"Bolig":4935,"frihet":4936,"kong":4937,"behandlet":4938,"Fort":4939,"individu":4940,"lover":4941,"kalles":4942,"detaljer":4943,"steret":4944,"Berg":4945,"kjøpte":4946,"CO":4947,"minner":4948,"08":4949,"økene":4950,"shus":4951,"gjennomføring":4952,"bø":4953,"dit":4954,"flykt":4955,"Eiendom":4956,"NM":4957,"kamper":4958,"lim":4959,"senteret":4960,"dik":4961,"Bet":4962,"ferdigheter":4963,"ape":4964,"tir":4965,"kka":4966,"habil":4967,"Hy":4968,"kandid":4969,"strategi":4970,"utenland":4971,"atiske":4972,"las":4973,"sakene":4974,"distr":4975,"sum":4976,"nedenfor":4977,"Guds":4978,"fylt":4979,"offi":4980,"tenkte":4981,"pengene":4982,"etiske":4983,"elefoner":4984,"erotiske":4985,"els":4986,"hud":4987,"pren":4988,"ile":4989,"gjennomføres":4990,"sant":4991,"bøl":4992,"umu":4993,"dykt":4994,"ls":4995,"idretts":4996,"faste":4997,"ander":4998,"yen":4999,"samsvar":5000,"uen":5001,"aktivt":5002,"Blant":5003,"resultatene":5004,"All":5005,"modell":5006,"late":5007,"maskiner":5008,"kontroller":5009,"frist":5010,"anlegget":5011,"hyl":5012,"Takk":5013,"nam":5014,"bordet":5015,"”.":5016,"LO":5017,"latt":5018,"mangel":5019,"Statens":5020,"landets":5021,"NS":5022,"etten":5023,"mail":5024,"suksess":5025,"redd":5026,"internasjonalt":5027,"kjørt":5028,"real":5029,"Do":5030,"helgen":5031,"utlandet":5032,"frukt":5033,"press":5034,"AP":5035,"Søker":5036,"forbered":5037,"forbedre":5038,"tilpasset":5039,"oritet":5040,"match":5041,"Informasjon":5042,"Sve":5043,"als":5044,"ødel":5045,"Riks":5046,"urs":5047,"ws":5048,"prosess":5049,"muler":5050,"kjed":5051,"Olav":5052,"Ven":5053,"Kvinner":5054,"stemme":5055,"Lin":5056,"dyp":5057,"bit":5058,"vesentlig":5059,"arter":5060,"dikt":5061,"bert":5062,"identifiser":5063,"media":5064,"iz":5065,"dokumentasjon":5066,"revolu":5067,"slam":5068,"alko":5069,"mende":5070,"føringen":5071,"mottak":5072,"Økonom":5073,"fylkeskommun":5074,"vennskap":5075,"artikkelen":5076,"religi":5077,"avsl":5078,"helg":5079,"personell":5080,"you":5081,"FO":5082,"stam":5083,"solgt":5084,"farlig":5085,"Design":5086,"automatisk":5087,"htt":5088,"forsikring":5089,"Trøndelag":5090,"Lars":5091,"øpig":5092,"trygt":5093,"snakket":5094,"rekr":5095,"benyttet":5096,"tilhør":5097,"endte":5098,"siske":5099,"støy":5100,"boliger":5101,"later":5102,"Wil":5103,"forplikt":5104,"fabr":5105,"hei":5106,"ondon":5107,"--":5108,"55":5109,"nads":5110,"Russland":5111,"IG":5112,"inntrykk":5113,"lurt":5114,"bransje":5115,"enheter":5116,"flest":5117,"nu":5118,"president":5119,"gaver":5120,"Styret":5121,"oren":5122,"ach":5123,"skrav":5124,"ED":5125,"deltok":5126,"FN":5127,"300":5128,"alternati":5129,"kjørte":5130,"rim":5131,"svenske":5132,"dessuten":5133,"teknisk":5134,"utføre":5135,"beskytt":5136,"Hus":5137,"EM":5138,"stasjoner":5139,"avfall":5140,"illu":5141,"omgang":5142,"format":5143,"hensikt":5144,"intro":5145,"Kristians":5146,"støtter":5147,"dyre":5148,"bergen":5149,"plassert":5150,"Organisa":5151,"stal":5152,"ris":5153,"Spør":5154,"syns":5155,"vurdert":5156,"hode":5157,"Gu":5158,"aga":5159,"sykdommer":5160,"programmer":5161,"veiledning":5162,"Israel":5163,"drept":5164,"nyttig":5165,"relasjoner":5166,"Mot":5167,"effektiv":5168,"Skole":5169,"eksempler":5170,"annerledes":5171,"Christi":5172,"initi":5173,"retter":5174,"artikler":5175,"faller":5176,"vere":5177,"vakt":5178,"esel":5179,"ometer":5180,"grenser":5181,"svare":5182,"etil":5183,"alisert":5184,"relevant":5185,"krimin":5186,"samarbeidet":5187,"vakker":5188,"grunnlaget":5189,"linje":5190,"rekla":5191,"levende":5192,"Hadde":5193,"preget":5194,"trekker":5195,"sand":5196,"bad":5197,"PR":5198,"tic":5199,"bygning":5200,"kobling":5201,"tilfelle":5202,"marker":5203,"48":5204,"borger":5205,"sub":5206,"produksjonen":5207,"forklar":5208,"understre":5209,"deren":5210,"trenings":5211,"istikk":5212,"2003":5213,"økende":5214,"problemet":5215,"Deretter":5216,"skaffe":5217,"hotellet":5218,"teste":5219,"jener":5220,"minste":5221,"bokstav":5222,"05":5223,"mig":5224,"dis":5225,"99":5226,"møtt":5227,"onsdag":5228,"uttet":5229,"kunstner":5230,"Store":5231,"gas":5232,"mill":5233,"bedriften":5234,"-,":5235,"Gre":5236,"egenskaper":5237,"mentene":5238,"milliarder":5239,"Mel":5240,"pedagog":5241,"Knut":5242,"ES":5243,"umiddelbart":5244,"kirken":5245,"dørs":5246,"opprette":5247,"Forskning":5248,"behandlingen":5249,"forskrift":5250,"positivt":5251,"Ski":5252,"forelig":5253,"kg":5254,"Regjer":5255,"Første":5256,"Ni":5257,"Lang":5258,"Foren":5259,"platt":5260,"65":5261,"aper":5262,"AT":5263,"://":5264,"smiddel":5265,"lykkes":5266,"oppgaven":5267,"Rog":5268,"søl":5269,"tning":5270,"slekt":5271,"fær":5272,"talen":5273,"fortalte":5274,"hverdagen":5275,"hagen":5276,"Vir":5277,"NU":5278,"Likevel":5279,"karri":5280,"nakne":5281,"valitet":5282,"album":5283,"leverer":5284,"nødvendige":5285,"foto":5286,"maskinen":5287,"Litt":5288,"dert":5289,"engasje":5290,"fjorden":5291,"gjest":5292,"planlagt":5293,"forekom":5294,"trodde":5295,"umulig":5296,"bodde":5297,"forholdene":5298,"Arne":5299,"stisk":5300,"sikkerhets":5301,"Kontakt":5302,"planlegging":5303,"vning":5304,"øynene":5305,"fravær":5306,"argu":5307,"Fylkes":5308,"vante":5309,"Bruker":5310,"opplevd":5311,"bul":5312,"omkring":5313,"mik":5314,"sivil":5315,"Ark":5316,"nøye":5317,"ctor":5318,"sju":5319,"forsiktig":5320,"aka":5321,"skjerm":5322,"oppstar":5323,"demon":5324,"siktet":5325,"ya":5326,"interesser":5327,"tradisjonelle":5328,"retningslinjer":5329,"oo":5330,"scen":5331,"spesif":5332,"Bri":5333,"ekster":5334,"rek":5335,"hund":5336,"gud":5337,"produsert":5338,"driv":5339,"skogen":5340,"Gi":5341,"kostnader":5342,"følelser":5343,"tilnær":5344,"kristen":5345,"Tot":5346,"foreningen":5347,"oni":5348,"baten":5349,"forskjellig":5350,"Industri":5351,"Malet":5352,"uka":5353,"mottatt":5354,"Bat":5355,"SV":5356,"fengsel":5357,"personen":5358,"uttal":5359,"summer":5360,"selge":5361,"Massa":5362,"bøkene":5363,"dog":5364,"leverandører":5365,"sekvenser":5366,"lærere":5367,"modeller":5368,"yrkes":5369,"06":5370,"seil":5371,"kastet":5372,"Bø":5373,"løpende":5374,"Kjem":5375,"gruppa":5376,"utel":5377,"huske":5378,"øvrige":5379,"idet":5380,"naturen":5381,"NTB":5382,"bisk":5383,"viss":5384,"alkohol":5385,"svak":5386,"Transport":5387,"velsene":5388,"back":5389,"Næring":5390,"site":5391,"HF":5392,"ringen":5393,"Ale":5394,"maler":5395,"Krist":5396,"bruks":5397,"psykisk":5398,"fukt":5399,"gy":5400,"weg":5401,"sleder":5402,"indu":5403,"melde":5404,"jenta":5405,"hjemmet":5406,"forbi":5407,"leke":5408,"aringen":5409,"artikkel":5410,"tyske":5411,"Arbeids":5412,"ulti":5413,"base":5414,"vedkommende":5415,"historier":5416,"aen":5417,"internasjonal":5418,"Peder":5419,"Mi":5420,"forstar":5421,"radio":5422,"leil":5423,"positiv":5424,"hevder":5425,"Petter":5426,"ikal":5427,"rets":5428,"Vær":5429,"Anlegg":5430,"still":5431,"ambi":5432,"overfl":5433,"typen":5434,"speil":5435,"trom":5436,"myndighetene":5437,"tirsdag":5438,"rele":5439,"London":5440,"symptom":5441,"47":5442,"sasjon":5443,"eleg":5444,"kategorier":5445,"tlig":5446,"AB":5447,"forsøker":5448,"ze":5449,"innbyggere":5450,"kaller":5451,"eksa":5452,"munn":5453,"svik":5454,"arkite":5455,"klassen":5456,"Porno":5457,"frie":5458,"ansatt":5459,"terier":5460,"ging":5461,"prem":5462,"ksi":5463,"angen":5464,"fortel":5465,"budsjettet":5466,"ura":5467,"wer":5468,"Kjøpe":5469,"regionen":5470,"Bor":5471,"klokken":5472,"inkluderer":5473,"rense":5474,"fanget":5475,"reglene":5476,"Ben":5477,"feir":5478,"sit":5479,"visst":5480,"spare":5481,"plast":5482,"lam":5483,"rakt":5484,"brett":5485,"avsluttet":5486,"Hvorfor":5487,"ømmer":5488,"ideer":5489,"utdann":5490,"bandet":5491,"avis":5492,"levering":5493,"rift":5494,"nærmeste":5495,"1000":5496,"medlemmene":5497,"Bre":5498,"ellene":5499,"visste":5500,"ledelsen":5501,"gate":5502,"smessig":5503,"Gro":5504,"nabo":5505,"svaret":5506,"bringe":5507,"dommen":5508,"blomster":5509,"ligge":5510,"Mol":5511,"stasjonen":5512,"ande":5513,"tide":5514,"manns":5515,"lokalt":5516,"MC":5517,"arena":5518,"ffer":5519,"Bro":5520,"istand":5521,"metoder":5522,"sakalte":5523,"Hal":5524,"maling":5525,"kundene":5526,"bevil":5527,"Lag":5528,"lete":5529,"kaffe":5530,"Stein":5531,"himmel":5532,"Sm":5533,"Thom":5534,"Høyre":5535,"pavirke":5536,"lette":5537,"apt":5538,"europeiske":5539,"opprinnelig":5540,"passe":5541,"frykt":5542,"forskjeller":5543,"ovenfor":5544,"ryd":5545,"kravene":5546,"omen":5547,"44":5548,"typ":5549,"ktiv":5550,"seliv":5551,"vokat":5552,"svarer":5553,"slan":5554,"krevende":5555,"bot":5556,"etisk":5557,"Nye":5558,"ettet":5559,"eventyr":5560,"anten":5561,"AD":5562,"forny":5563,"Telefon":5564,"vask":5565,"fylle":5566,"etablere":5567,"spesiell":5568,"IV":5569,"sperio":5570,"normal":5571,"master":5572,"tilpasse":5573,"Klikk":5574,"Martin":5575,"Sil":5576,"avstand":5577,"sover":5578,"slipper":5579,"krike":5580,"eksk":5581,"fullstendig":5582,"opplegg":5583,"skam":5584,"løsningen":5585,"Utvik":5586,"foredra":5587,"total":5588,"orig":5589,"datingsider":5590,"kok":5591,"forslaget":5592,"Uansett":5593,"spoli":5594,"avisen":5595,"varm":5596,"Jenter":5597,"alderen":5598,"mistet":5599,"raskere":5600,"konsul":5601,"stilles":5602,"gangs":5603,"foss":5604,"erstat":5605,"kampan":5606,".,":5607,"Sti":5608,"minim":5609,"feb":5610,"Rapp":5611,"elske":5612,"studentene":5613,"faren":5614,"giftet":5615,"operasjon":5616,"distri":5617,"Studi":5618,"mengder":5619,"forskere":5620,"evalu":5621,"melder":5622,"Agder":5623,"07":5624,"wegian":5625,"nadene":5626,"sterkere":5627,"iki":5628,"bjørn":5629,"etterhvert":5630,"attrak":5631,"dekker":5632,"nest":5633,"2001":5634,"Nei":5635,"edre":5636,"jun":5637,"søster":5638,"forret":5639,"perspek":5640,"Fer":5641,"enige":5642,"ye":5643,"juster":5644,"hau":5645,"Norway":5646,"informasjonskap":5647,"Fly":5648,"grunner":5649,"lie":5650,"gaven":5651,"pakke":5652,"ish":5653,"moro":5654,"Van":5655,"eventuelle":5656,"Tidligere":5657,"sverige":5658,"Am":5659,"nasjonalt":5660,"skritt":5661,"innovasjon":5662,"statistikk":5663,"appen":5664,"beting":5665,"out":5666,"fli":5667,"Hav":5668,"stall":5669,"etterpa":5670,"fet":5671,"virksomheter":5672,"Gru":5673,"spillerne":5674,"Akershus":5675,"skifte":5676,"omgi":5677,"alders":5678,"baserte":5679,"radgiver":5680,"hjemmel":5681,"repar":5682,"erst":5683,"sion":5684,"oteket":5685,"innspill":5686,"barnehagen":5687,"passa":5688,"garan":5689,"2002":5690,"Nyheter":5691,"opptil":5692,"siell":5693,"innstilling":5694,"Jer":5695,"ssyste":5696,"fungere":5697,"Husk":5698,"servert":5699,"følte":5700,"Super":5701,"habili":5702,"rammer":5703,"utform":5704,"kvaliteten":5705,"huden":5706,"origin":5707,"prim":5708,"mengde":5709,"Tel":5710,"NAV":5711,"skru":5712,"innkjøp":5713,"soldat":5714,"hjertet":5715,"sw":5716,"tida":5717,"publisert":5718,"Mari":5719,"overnatt":5720,"leir":5721,"KS":5722,"forn":5723,"vilje":5724,"snu":5725,"kombinasjon":5726,"Anders":5727,"dvs":5728,"skriftlig":5729,"tilgjengelige":5730,"deltakere":5731,"salt":5732,"Sing":5733,"Bio":5734,"gel":5735,"gyl":5736,"nøyaktig":5737,"Frem":5738,"melse":5739,"cook":5740,"Sto":5741,"færre":5742,"sentralt":5743,"verd":5744,"undersøke":5745,"pyn":5746,"fleksi":5747,"medarbeidere":5748,"parkering":5749,"vurderes":5750,"Olsen":5751,"nærmest":5752,"samlingen":5753,"kritikk":5754,"tidspunkt":5755,"installa":5756,"underveis":5757,"ligheten":5758,"samty":5759,"rang":5760,"banken":5761,"Økonomi":5762,"oppen":5763,"rings":5764,"blan":5765,"PP":5766,"strid":5767,"skiller":5768,"NB":5769,"hendelser":5770,"opplysningene":5771,"turner":5772,"søkere":5773,"utstilling":5774,"asi":5775,"konsekvenser":5776,"rester":5777,"avan":5778,"representant":5779,"brukeren":5780,"rutiner":5781,"sekret":5782,"presentere":5783,"Sch":5784,"bestemmelser":5785,"hage":5786,"sf":5787,"ded":5788,"registrering":5789,"møtes":5790,"bevegelse":5791,"hur":5792,"meldt":5793,"oppfat":5794,"trer":5795,"Gam":5796,"spon":5797,"scor":5798,"beskrevet":5799,"Utdanning":5800,"vondt":5801,"pavirker":5802,"beskrivelse":5803,"skinn":5804,"vic":5805,"tillatelse":5806,"dringer":5807,"nevne":5808,"skrig":5809,"juri":5810,"PA":5811,"opprettholde":5812,"Paul":5813,"draget":5814,"appar":5815,"hat":5816,"Miljø":5817,"Vart":5818,"urder":5819,"hvilket":5820,"kni":5821,"klo":5822,"fartøy":5823,"kommunale":5824,"skjermen":5825,"hull":5826,"Hvil":5827,"forsøke":5828,"Veg":5829,"hjør":5830,"mulige":5831,"ium":5832,"Figur":5833,"Kina":5834,"utte":5835,"reag":5836,"Prosjekt":5837,"park":5838,"Vide":5839,"sannsynligvis":5840,"klikk":5841,"ave":5842,"splikt":5843,"Pal":5844,"Studen":5845,"sikten":5846,"fylkes":5847,"midten":5848,"England":5849,"Beg":5850,"Ry":5851,"manglende":5852,"beskrive":5853,"smu":5854,"komst":5855,"regulering":5856,"sikrer":5857,"erot":5858,"Lan":5859,"Frankrike":5860,"02":5861,"øpt":5862,"tvang":5863,"teknolog":5864,"verse":5865,"gin":5866,"utro":5867,"forskriften":5868,"pause":5869,"fulgte":5870,"lært":5871,"besøkende":5872,"kreditt":5873,"gled":5874,"strikk":5875,"markedsføring":5876,"46":5877,"innr":5878,"kilder":5879,"tvers":5880,"væ":5881,"aksjoner":5882,"ønner":5883,"Ital":5884,"detalj":5885,"fellesskap":5886,"kreves":5887,"rekker":5888,"stren":5889,"tilkny":5890,"ph":5891,"kreve":5892,"tilbudet":5893,"dimen":5894,"snakk":5895,"…]":5896,"engasjement":5897,"delvis":5898,"400":5899,"institusjoner":5900,"blikket":5901,"vernet":5902,"Idrett":5903,"utmerket":5904,"egn":5905,"Peter":5906,"skjønner":5907,"isme":5908,"ld":5909,"konflikt":5910,"utgitt":5911,"familier":5912,"alister":5913,"søkte":5914,"klager":5915,"Selskapet":5916,"utarbeidet":5917,"atri":5918,"Finnmark":5919,"bren":5920,"Bod":5921,"belast":5922,"faget":5923,"relevante":5924,"samtale":5925,"fysiske":5926,"42":5927,"forventet":5928,"deltar":5929,"budt":5930,"[…]":5931,"sløs":5932,"slippe":5933,"vurderinger":5934,"Begge":5935,"Felle":5936,"grønne":5937,"Nav":5938,"penis":5939,"sølv":5940,"kjer":5941,"anal":5942,"kapittel":5943,"Menn":5944,"lagene":5945,"ensen":5946,"øyne":5947,"drifts":5948,"iger":5949,"konkurransen":5950,"teksten":5951,"asyl":5952,"bun":5953,"naturlige":5954,"terreng":5955,"grensen":5956,"arer":5957,"fitte":5958,"Universitetet":5959,"ttene":5960,"tidige":5961,"sisjon":5962,"stress":5963,"frivillig":5964,"serti":5965,"wo":5966,"ford":5967,"iel":5968,"uta":5969,"vurderer":5970,"behandler":5971,"tilfeldig":5972,"tant":5973,"kontrakt":5974,"enig":5975,"raske":5976,"trø":5977,"foreløpig":5978,"AV":5979,"galt":5980,"elementer":5981,"Din":5982,"just":5983,"Nær":5984,"Ed":5985,"kningen":5986,"tekster":5987,"somrader":5988,"handtere":5989,"rade":5990,"univer":5991,"avdel":5992,"utøvere":5993,"Kat":5994,"setningen":5995,"obbelt":5996,"skapt":5997,"ts":5998,"fødsel":5999,"representanter":6000,"Jør":6001,"finalen":6002,"Rett":6003,"varsel":6004,"støv":6005,"svensk":6006,"fjerde":6007,"somhet":6008,"ffek":6009,"tral":6010,"smel":6011,"Esc":6012,"Produ":6013,"Prosjektet":6014,"ballen":6015,"kontaktannonser":6016,"fordeler":6017,"overvak":6018,"pga":6019,"bibliotek":6020,"slu":6021,"cu":6022,"erotikk":6023,"klage":6024,"Mye":6025,"eksklu":6026,"landene":6027,"kommentarer":6028,"aa":6029,"Jak":6030,"gjeld":6031,"general":6032,"feste":6033,"retur":6034,"utføres":6035,"sjøl":6036,"drar":6037,"Lø":6038,"utenlandske":6039,"drø":6040,"tysk":6041,"regnet":6042,"kvinnen":6043,"kilometer":6044,"entrepren":6045,"sentra":6046,"03":6047,"bb":6048,"nettside":6049,"amatør":6050,"Dessuten":6051,"Sven":6052,"velly":6053,"tilstede":6054,"ii":6055,"modu":6056,"UT":6057,"vinteren":6058,"mg":6059,"drevet":6060,"??":6061,"kilde":6062,"Hed":6063,"kommunens":6064,"praktiske":6065,"Bel":6066,"engang":6067,"IM":6068,"dels":6069,"husker":6070,"følelsen":6071,"tilstand":6072,"ærende":6073,"koselig":6074,"motta":6075,"komfor":6076,"spunktet":6077,"finansiering":6078,"verne":6079,"AM":6080,"leket":6081,"sisk":6082,"lagg":6083,"dags":6084,"NOK":6085,"Hos":6086,"erotisk":6087,"trykket":6088,"utvek":6089,"beskriver":6090,"HO":6091,"herunder":6092,"indik":6093,"iller":6094,"heldigvis":6095,"sosialt":6096,"string":6097,"alli":6098,"gifte":6099,"skapene":6100,"maksi":6101,"Kristiansand":6102,"optimal":6103,"gjennomgang":6104,"sial":6105,"representerer":6106,"gruppene":6107,"hr":6108,"prøvd":6109,"pappa":6110,"edes":6111,"Qu":6112,"effektivt":6113,"ommet":6114,"04":6115,"arsaker":6116,"spiser":6117,"ice":6118,"skiftet":6119,"utfordring":6120,"treffe":6121,"vid":6122,"Elek":6123,"Hele":6124,"bater":6125,"para":6126,"episo":6127,"historiske":6128,"professor":6129,"kunnskaps":6130,"kaste":6131,"Haper":6132,"unike":6133,"idi":6134,"Bon":6135,"frika":6136,";)":6137,"øyeblikk":6138,"Fiske":6139,"britann":6140,"inde":6141,"150":6142,"stoppe":6143,"nettbutikk":6144,"orten":6145,"kjønns":6146,"produktet":6147,"ørte":6148,"mennene":6149,"bein":6150,"opplevelsen":6151,"frivillige":6152,"Kunnskap":6153,"Mann":6154,"idag":6155,"bedt":6156,"deltag":6157,"bile":6158,"annonse":6159,"ønt":6160,"prøvde":6161,"ordnet":6162,"Leg":6163,"veit":6164,"ano":6165,"rid":6166,"Tri":6167,"bistand":6168,"rop":6169,"matiske":6170,"distribu":6171,"solid":6172,"iP":6173,"leste":6174,"Hansen":6175,"Kjø":6176,"Medisin":6177,"ligheter":6178,"styrker":6179,"hast":6180,"ulov":6181,"Ero":6182,"grens":6183,"Thomas":6184,"inntekter":6185,"rud":6186,"rekrutter":6187,"alj":6188,"ums":6189,"omin":6190,"kontinuer":6191,"spurte":6192,"beskytte":6193,"settelse":6194,"identitet":6195,"soft":6196,"skille":6197,"distrikt":6198,"morsomt":6199,"Sig":6200,"Nød":6201,"visse":6202,"hunder":6203,"arki":6204,"anden":6205,"deltakelse":6206,"foreligger":6207,"foregar":6208,"behandle":6209,"Ellers":6210,"gjester":6211,"forklarer":6212,"ash":6213,"virkninger":6214,"ilde":6215,"Ener":6216,"Mus":6217,"irri":6218,"skjel":6219,"haret":6220,"pleie":6221,"semin":6222,"buss":6223,"rasjonen":6224,"EF":6225,"NTNU":6226,"flin":6227,"Vol":6228,"ryggen":6229,"Mø":6230,"Drammen":6231,"prosesser":6232,"fril":6233,"garanti":6234,"egner":6235,"Jobb":6236,"motiver":6237,"sliter":6238,"IP":6239,"fond":6240,"andelen":6241,"95":6242,"objek":6243,"blad":6244,"Trykk":6245,"utforske":6246,"Spesielt":6247,"regne":6248,"lurer":6249,"utvidet":6250,"Øn":6251,"observ":6252,"været":6253,"Sjek":6254,"vokser":6255,"renn":6256,"godkjenning":6257,"Spørsmal":6258,"natten":6259,"mn":6260,"arrangert":6261,"skuddet":6262,"konkrete":6263,"trav":6264,"sove":6265,"brun":6266,"utsikt":6267,"standar":6268,"kled":6269,"sunn":6270,"tingene":6271,"Thai":6272,"igh":6273,"handtering":6274,"kritisk":6275,"smerte":6276,"plikter":6277,"samtaler":6278,"sørger":6279,"yllu":6280,"øvelse":6281,"York":6282,"virket":6283,"bonus":6284,"opplær":6285,"kompon":6286,"likhet":6287,"belen":6288,"nydelig":6289,"wa":6290,"Helt":6291,"negative":6292,"rollen":6293,"ansene":6294,"tegne":6295,"verken":6296,"wor":6297,"undervis":6298,"opper":6299,"produktene":6300,"igheten":6301,"Pris":6302,"Amerik":6303,"kapital":6304,"Bir":6305,"Bes":6306,"teknologisk":6307,"befinner":6308,"Program":6309,"Tren":6310,"Arbeider":6311,"skaps":6312,"emark":6313,"besøker":6314,"Politiet":6315,"ley":6316,"info":6317,"altfor":6318,"likte":6319,"Ein":6320,"leketøy":6321,"øpet":6322,"riktige":6323,"syntes":6324,"redde":6325,"institusjon":6326,"fisert":6327,"koster":6328,"leter":6329,"ational":6330,"erklær":6331,"beskyttelse":6332,"Gran":6333,"ressurs":6334,"Kong":6335,"ollar":6336,"blogger":6337,"veksten":6338,"klat":6339,"førsel":6340,"Win":6341,"vansk":6342,"daglige":6343,"ida":6344,"oli":6345,"forklare":6346,"dreier":6347,"Troms":6348,"Andreas":6349,"terror":6350,"asin":6351,"modellen":6352,"hagelig":6353,"istiske":6354,"leveres":6355,"respon":6356,"opprinnelige":6357,"avdelingen":6358,"Medlem":6359,"Dagens":6360,"yrk":6361,"Folke":6362,"dobbelt":6363,"reiste":6364,"faktorer":6365,"AK":6366,"materialer":6367,"lønns":6368,"Regjeringen":6369,"journalist":6370,"sports":6371,"brød":6372,"stiden":6373,"Kre":6374,"pping":6375,"Sek":6376,"nettdating":6377,"Gra":6378,"rettferdig":6379,"fortsatte":6380,"utgave":6381,"lagte":6382,"regnes":6383,"herlig":6384,"Ac":6385,"Lok":6386,"Dav":6387,"sendte":6388,"ona":6389,"stadi":6390,"veggen":6391,"pum":6392,"profesjonelle":6393,"minutt":6394,"staker":6395,"næringsliv":6396,"arbeidstak":6397,"produsent":6398,"urens":6399,"spenning":6400,"amin":6401,"funksjonen":6402,"Midt":6403,"85":6404,"ryg":6405,"partene":6406,"can":6407,"størst":6408,"garn":6409,"49":6410,"alvorlige":6411,"respekt":6412,"Free":6413,"koordin":6414,"ighets":6415,"bror":6416,"sluttet":6417,"boks":6418,"Natur":6419,"strak":6420,"smidler":6421,"ansikt":6422,"oppover":6423,"sjefen":6424,"IC":6425,"ifra":6426,"dets":6427,"AG":6428,"resul":6429,"forskjellen":6430,"deltakerne":6431,"Generisk":6432,"Bør":6433,"hovedsakelig":6434,"yer":6435,"halvparten":6436,".-":6437,"gevin":6438,"Ord":6439,"ytre":6440,"trygge":6441,"”,":6442,"Thor":6443,"orter":6444,"kone":6445,"registrere":6446,"forretning":6447,"kravet":6448,"Forsikring":6449,"korte":6450,"tildelt":6451,"mulighetene":6452,"vag":6453,"frastruktur":6454,"Col":6455,"tilknytning":6456,"intern":6457,"ole":6458,"døgn":6459,"akon":6460,"kurset":6461,"røde":6462,"tivet":6463,"fattet":6464,"forstyr":6465,"Elektron":6466,"ose":6467,"fordelt":6468,"hemmelig":6469,"menneskene":6470,"malene":6471,"sammenlignet":6472,"balanse":6473,"Dere":6474,"teknikk":6475,"wi":6476,"bryter":6477,"spurt":6478,"Christian":6479,"singel":6480,"ordfører":6481,"rart":6482,"henven":6483,"Post":6484,"digital":6485,"Øvrige":6486,"konsekvens":6487,"anses":6488,"onen":6489,"ms":6490,"involvert":6491,"iere":6492,"pupper":6493,"presentert":6494,"bestemmer":6495,"sambo":6496,"glade":6497,"Klær":6498,"leger":6499,"penge":6500,"barns":6501,"informasjonskapsler":6502,"britannia":6503,"innsikt":6504,"eiere":6505,"billetter":6506,"Syn":6507,"koble":6508,"Tekn":6509,"43":6510,"svin":6511,"ogen":6512,"jap":6513,"arkiv":6514,"armer":6515,"oppgavene":6516,"preg":6517,"villig":6518,"IKT":6519,"mørke":6520,"Ui":6521,"alisere":6522,"motstand":6523,"designet":6524,"korre":6525,"kkelen":6526,"interessante":6527,"morsom":6528,"bestilling":6529,"67":6530,"inen":6531,"Søn":6532,"eldste":6533,"SP":6534,"vaske":6535,"kvinnene":6536,"inngar":6537,"avhengige":6538,"grundig":6539,"visjon":6540,"punkter":6541,"Massasje":6542,"rammet":6543,"Østfold":6544,"Histor":6545,"sies":6546,"kontinuerlig":6547,"selskapene":6548,"velkommen":6549,"user":6550,"Kvinne":6551,"utnytte":6552,"medisinsk":6553,"jet":6554,"befolkning":6555,"kvartal":6556,"sberg":6557,"stemning":6558,"potet":6559,"Antall":6560,"melt":6561,"tjenestene":6562,"oblig":6563,"ventil":6564,"produsere":6565,"yng":6566,"lesere":6567,"utgi":6568,"klag":6569,"sjansen":6570,"Bud":6571,"orientering":6572,"arrangement":6573,"xxx":6574,"tilsynet":6575,"Ann":6576,"Interiør":6577,"kontoret":6578,"øvelser":6579,"Akk":6580,"Ram":6581,"innført":6582,"føles":6583,"Bodø":6584,"41":6585,"Høg":6586,"jor":6587,"oftest":6588,"Morten":6589,"metode":6590,"rapporter":6591,"prisene":6592,"hetene":6593,"DE":6594,"igang":6595,"cookies":6596,"hoteller":6597,"fattig":6598,"Wor":6599,"mekan":6600,"Karl":6601,"profiler":6602,"naværende":6603,"kode":6604,"salgs":6605,"angi":6606,"teater":6607,"api":6608,"inav":6609,"historisk":6610,"Henrik":6611,"osof":6612,"alternativer":6613,"industrien":6614,"kine":6615,"trukket":6616,"smart":6617,"ost":6618,"Skjønn":6619,"minimum":6620,"motsetning":6621,"Arets":6622,"Pe":6623,"nyhets":6624,"dollar":6625,"varig":6626,"dil":6627,"Folk":6628,"Inge":6629,"ferien":6630,"Legg":6631,"skraft":6632,"rehabili":6633,"karriere":6634,"fjern":6635,"kjennelse":6636,"risikoen":6637,"samler":6638,"sites":6639,"sevne":6640,"sjanse":6641,"mod":6642,"Net":6643,"Mand":6644,"testet":6645,"søknaden":6646,"perfekte":6647,"masøy":6648,"que":6649,"bestemme":6650,"ands":6651,"Mad":6652,"skolene":6653,"dømt":6654,"inspirert":6655,"Nak":6656,"kjemp":6657,"seksuelle":6658,"kose":6659,"samarbeidspart":6660,"vegg":6661,"administrasjon":6662,"fta":6663,"istr":6664,"vedlegg":6665,"militær":6666,"yd":6667,"pluss":6668,"basis":6669,"Kap":6670,"grepet":6671,"derer":6672,"matt":6673,"bøy":6674,"Sjø":6675,"meldingen":6676,"Ola":6677,"prog":6678,"Aut":6679,"pus":6680,"Gunn":6681,"parter":6682,"stolt":6683,"Sn":6684,"lane":6685,"medfører":6686,"its":6687,"bygde":6688,"Paris":6689,"oppgrader":6690,"senior":6691,"anven":6692,"oppstart":6693,"islam":6694,"iverk":6695,"stjenester":6696,"bryllu":6697,"CD":6698,"petanse":6699,"ingre":6700,"utse":6701,"hone":6702,"aksjonen":6703,"organisert":6704,"chel":6705,"ekk":6706,"faktor":6707,"telefoner":6708,"infor":6709,"Fro":6710,"oter":6711,"øve":6712,"betaler":6713,"Ren":6714,"delene":6715,"fortalt":6716,"facebook":6717,"ikerne":6718,"døds":6719,"66":6720,"Spania":6721,"ekstremt":6722,"sjekket":6723,"prom":6724,"klasser":6725,"kopi":6726,"kompli":6727,"andinav":6728,"Eid":6729,"bygninger":6730,"anbefale":6731,"Gjør":6732,"forventninger":6733,"plassering":6734,"OK":6735,"tørr":6736,"interiør":6737,"mønster":6738,"Afrika":6739,"behandles":6740,"alp":6741,"beregnet":6742,"Vin":6743,"skriv":6744,"britiske":6745,"kva":6746,"ction":6747,"søvn":6748,"apenbart":6749,"protok":6750,"kortet":6751,"Fun":6752,"stekn":6753,"hytte":6754,"rot":6755,"festet":6756,"aks":6757,"Hvem":6758,"studio":6759,"Italia":6760,"utenom":6761,"Nasjonal":6762,"innga":6763,"tonn":6764,"derte":6765,"produsenter":6766,"religion":6767,"søte":6768,"utbygging":6769,"behør":6770,"generelle":6771,"spraket":6772,"finansi":6773,"darlige":6774,"elektronisk":6775,"rens":6776,"AF":6777,"Je":6778,"kvinnelige":6779,"hop":6780,"mund":6781,"spis":6782,"KE":6783,"mengden":6784,"vill":6785,"nedover":6786,"verdenskrig":6787,"komple":6788,"deleg":6789,"prosed":6790,"spilleren":6791,"opplyser":6792,"vake":6793,"kvalitets":6794,"arbeidsmiljø":6795,",.":6796,"henge":6797,"1990":6798,"flertall":6799,"nærmer":6800,"restaurant":6801,"innsat":6802,"Web":6803,"City":6804,"ivareta":6805,"grat":6806,"sannsyn":6807,"hurtig":6808,"Alex":6809,"urat":6810,"Drikke":6811,"Liv":6812,"antallet":6813,"skjemaet":6814,"forsøkt":6815,"Ci":6816,"Porn":6817,"respek":6818,"hunden":6819,"sykl":6820,"flytt":6821,"ssing":6822,"Reiseliv":6823,"spørsel":6824,"Trump":6825,"88":6826,"premi":6827,"mikro":6828,"Tenk":6829,"konsentra":6830,"cel":6831,"camp":6832,"arranger":6833,"Tw":6834,"temaet":6835,"Detalj":6836,"Maria":6837,"iland":6838,"oppbevar":6839,"Gul":6840,"visor":6841,"arsa":6842,"infek":6843,"utelu":6844,"%.":6845,"tasjonen":6846,"sov":6847,"opplevde":6848,"Landbruk":6849,"vokst":6850,"Star":6851,"Offentlige":6852,"Marie":6853,"utforming":6854,"lister":6855,"aksjer":6856,"Part":6857,"misten":6858,"hammer":6859,"oppdrett":6860,"regionale":6861,"million":6862,"veter":6863,"emo":6864,"begrepet":6865,"ssenter":6866,"stoppet":6867,"nødvendigvis":6868,"norway":6869,"forretnings":6870,"materialet":6871,"adre":6872,"lavt":6873,"sjok":6874,"effektive":6875,"yst":6876,"kkene":6877,"nært":6878,"diverse":6879,"ics":6880,"anada":6881,"Medier":6882,"entur":6883,"Lov":6884,"ikon":6885,"Don":6886,"ora":6887,"don":6888,"andres":6889,"Kjærlighet":6890,"You":6891,"ordninger":6892,"arsaken":6893,"pel":6894,"sekunder":6895,"tester":6896,"døpt":6897,"arbeidslivet":6898,"infrastruktur":6899,"ørende":6900,"show":6901,"Spar":6902,"spesialist":6903,"innskudd":6904,"gros":6905,"if":6906,"reist":6907,"Velg":6908,"imple":6909,"tverr":6910,"sykehuset":6911,"stykke":6912,"debatten":6913,"vennlige":6914,"reduksjon":6915,"overgrep":6916,"Pen":6917,"IR":6918,"bevegelsen":6919,"streng":6920,"Syke":6921,"sykdommen":6922,"bilitet":6923,"besøkte":6924,"søt":6925,"Fritid":6926,"Veldig":6927,"hender":6928,"vensjon":6929,"Odd":6930,"leker":6931,"Aften":6932,"selskapets":6933,"forurens":6934,"samlinger":6935,"løfte":6936,"anbefales":6937,"redig":6938,"Char":6939,"studiet":6940,"1999":6941,"øret":6942,"Ing":6943,"informasjons":6944,"skift":6945,"nivaet":6946,"Ukjent":6947,"spekter":6948,"adresse":6949,"abon":6950,"skum":6951,"lansert":6952,"ødelag":6953,"fjernet":6954,"cer":6955,"menneskerett":6956,"Logistikk":6957,"Hom":6958,"ighetene":6959,"ikten":6960,"Engros":6961,"stedene":6962,"stiltak":6963,"inngatt":6964,"programvare":6965,"slutte":6966,"herre":6967,"skaff":6968,"Heldig":6969,"handlet":6970,"Tan":6971,"populært":6972,"medal":6973,"kropps":6974,"klubber":6975,"utfører":6976,"gulv":6977,"rur":6978,"mottar":6979,"milf":6980,"ssystem":6981,"forbruker":6982,"givning":6983,"Start":6984,"initiativ":6985,"fien":6986,"eksamen":6987,"parken":6988,"NOR":6989,"Team":6990,"varmt":6991,"ppel":6992,"lengde":6993,"runn":6994,"organisering":6995,"HD":6996,"imponer":6997,"rende":6998,"stolen":6999,"skost":7000,"arlige":7001,"skad":7002,"dob":7003,"sanger":7004,"revisjonens":7005,"likestilling":7006,"skrem":7007,"værende":7008,"klokka":7009,"takket":7010,"skadet":7011,"oppfordrer":7012,"ettermiddag":7013,"sidig":7014,"our":7015,"gal":7016,"føringer":7017,"lings":7018,"gravid":7019,"viktigere":7020,"institutt":7021,"VE":7022,"istan":7023,"skrimin":7024,"Tusen":7025,"konsert":7026,"kunden":7027,"frokost":7028,"189":7029,"holm":7030,"bryte":7031,"ultet":7032,"karet":7033,"gutta":7034,"Storbritannia":7035,"filosof":7036,"eloven":7037,"holdninger":7038,"Hjel":7039,"politikere":7040,"ferdsel":7041,"verdien":7042,"ague":7043,"tillits":7044,"kjerne":7045,"hjemmeside":7046,"stengt":7047,"rulle":7048,"vellykket":7049,"Publi":7050,"forholde":7051,"fattes":7052,"Akkurat":7053,"sikret":7054,"drømmer":7055,"effekten":7056,"otter":7057,"oppgitt":7058,"konge":7059,"vilkarene":7060,"forbe":7061,"inga":7062,"friluft":7063,"Sann":7064,"katt":7065,"rettes":7066,"David":7067,"ato":7068,"tusenvis":7069,"etning":7070,"car":7071,"human":7072,"Skri":7073,"Kort":7074,"noens":7075,"vunnet":7076,"TER":7077,"spørsmalene":7078,"Dy":7079,"Fi":7080,"same":7081,"metall":7082,"tim":7083,"Senter":7084,"inder":7085,"forsy":7086,"Rus":7087,"Kommune":7088,"danske":7089,"undertøy":7090,"bunnen":7091,"Dig":7092,"yrke":7093,"versjonen":7094,"Eksemp":7095,"allmenn":7096,"tenk":7097,"pasienten":7098,"magen":7099,"FF":7100,"panel":7101,"Air":7102,"diskusjon":7103,"øyet":7104,"trygghet":7105,"foreslar":7106,"fase":7107,"moen":7108,"brud":7109,"day":7110,"seksjon":7111,"advokat":7112,"utviklings":7113,"Heldigvis":7114,"Norwegian":7115,"nettleser":7116,"cke":7117,"Organisasjoner":7118,"ited":7119,"informer":7120,"knappen":7121,"presenterer":7122,"Rogaland":7123,"driften":7124,"mangfold":7125,"personopplysninger":7126,"Harald":7127,"tanken":7128,"muskel":7129,"komiteen":7130,"fakta":7131,"aktuelt":7132,"eleder":7133,"srett":7134,"cher":7135,"varierer":7136,"festivalen":7137,"Sist":7138,"baby":7139,"skred":7140,"forsin":7141,"forhandling":7142,"liksom":7143,"vanskelige":7144,"dres":7145,"trengte":7146,"materiell":7147,"engasjert":7148,"slas":7149,"grønnsaker":7150,"Kommunen":7151,"Mang":7152,"Hotel":7153,"Elektronikk":7154,"oppdage":7155,"anta":7156,"øyen":7157,"fasen":7158,"involver":7159,"kjøkkenet":7160,"Aller":7161,"cks":7162,"Skjønnhet":7163,"Arbeidsmarked":7164,"bassen":7165,"ala":7166,"diser":7167,"Tab":7168,"løk":7169,"Handverk":7170,"Kjemisk":7171,"totale":7172,"fordeling":7173,"verste":7174,"beholde":7175,"nus":7176,"forbud":7177,"Underholdning":7178,"utfordrende":7179,"Rik":7180,"kanten":7181,"sving":7182,"Telemark":7183,"punktet":7184,"presset":7185,"depre":7186,"rente":7187,"museum":7188,"ledning":7189,"vegne":7190,"snar":7191,"Riksrevisjonens":7192,"etikk":7193,"smeto":7194,"stjerner":7195,"magasin":7196,"oppført":7197,"kyst":7198,"vig":7199,"arch":7200,"elva":7201,"stift":7202,"byggingen":7203,"lunsj":7204,"dans":7205,"perioder":7206,"Pol":7207,"64":7208,"heve":7209,"kjøle":7210,"Dato":7211,"Neste":7212,"tegnet":7213,"styrer":7214,"sapass":7215,"masøytisk":7216,"stjerne":7217,"agram":7218,"moren":7219,"ografi":7220,"rute":7221,"beløpet":7222,"Island":7223,"opphav":7224,"medie":7225,"billett":7226,"smy":7227,"franske":7228,"Sø":7229,"lubb":7230,"XX":7231,"tit":7232,"hytta":7233,"rund":7234,"Strøm":7235,"yndighet":7236,"Stand":7237,"ordinære":7238,"utgift":7239,"separ":7240,"Ønsker":7241,"atert":7242,"stavanger":7243,"Micro":7244,"planter":7245,"sprosessen":7246,"Kristian":7247,"buk":7248,"overrasket":7249,"somrade":7250,"apper":7251,"Ned":7252,"onym":7253,"tempo":7254,"hørte":7255,"stopper":7256,"knytte":7257,"velig":7258,"saktivitet":7259,"direktoratet":7260,"kro":7261,"gress":7262,"eringer":7263,"krefter":7264,"1800":7265,"Johannes":7266,"null":7267,"miste":7268,"ØS":7269,"sgjer":7270,"dekning":7271,"52":7272,"dukker":7273,"reklame":7274,"Jac":7275,"56":7276,"Kur":7277,"Krav":7278,"Jens":7279,"splanen":7280,"entene":7281,"Sommer":7282,"inni":7283,"barhet":7284,"Lei":7285,"ulik":7286,"Ki":7287,"Molde":7288,"byttet":7289,"bygges":7290,"barnevern":7291,"motivasjon":7292,"dum":7293,"kontrol":7294,"nødt":7295,"bia":7296,"bebo":7297,"samtykke":7298,"Online":7299,"musikken":7300,"gata":7301,"59":7302,"vesenet":7303,"tyder":7304,"overraskende":7305,"virkeligheten":7306,"vanskeligere":7307,"telefonen":7308,"blø":7309,"etablerte":7310,"staden":7311,"Engroshandel":7312,"Skogbruk":7313,"skr":7314,"innføring":7315,"Velvære":7316,"syv":7317,"perspektiv":7318,"unik":7319,"gesund":7320,"maneden":7321,"utvalgte":7322,"jel":7323,"somradet":7324,"League":7325,"analyser":7326,"attra":7327,"Foreninger":7328,"samarbeide":7329,"smodel":7330,"Region":7331,"hamp":7332,"foreta":7333,"overføring":7334,"sem":7335,"ituttet":7336,"Bed":7337,"ØR":7338,"Agentur":7339,"57":7340,"fylte":7341,"Sky":7342,"dows":7343,"massage":7344,"sperson":7345,"Bus":7346,"Næringsmiddel":7347,"velg":7348,"Totalt":7349,"innflyt":7350,"foretatt":7351,"ukene":7352,"bio":7353,"pensjons":7354,"http":7355,"ally":7356,"Farmasøytisk":7357,"bygda":7358,"Port":7359,"asjonene":7360,"sakalt":7361,"sund":7362,"Vestfold":7363,"scenen":7364,"Telefoni":7365,"psykiske":7366,"nettverket":7367,"dispen":7368,"Dra":7369,"bekreftet":7370,"anda":7371,"Finne":7372,"darligere":7373,"ørene":7374,"Lær":7375,"Byg":7376,"vie":7377,"divisjon":7378,"Kla":7379,"evt":7380,"vass":7381,"vokse":7382,"Dom":7383,"mister":7384,"begrunn":7385,"Bioteknologisk":7386,"aterte":7387,"Proble":7388,"Blir":7389,"Fu":7390,"hon":7391,"lyn":7392,"skjær":7393,"plate":7394,"myk":7395,"dio":7396,"atorer":7397,"tenn":7398,"bærekraftig":7399,"investeringer":7400,"lyset":7401,"stitusjon":7402,"industi":7403,"tillate":7404,"prosjektene":7405,"Nødnummer":7406,"58":7407,"Intern":7408,"UR":7409,"hapentlig":7410,"utvide":7411,"nære":7412,"Detaljvarer":7413,"brygg":7414,"innvandrere":7415,"utdannet":7416,"Bæ":7417,"sikte":7418,"faktum":7419,"forkant":7420,"paret":7421,"begrav":7422,"nomin":7423,"ule":7424,"ktene":7425,"generell":7426,"uter":7427,"seng":7428,"kasser":7429,"registrerte":7430,"Felles":7431,"ungene":7432,"mosf":7433,"kysten":7434,"arv":7435,"fersk":7436,"oppsummer":7437,"betyd":7438,"KrF":7439,"kop":7440,"utfordringene":7441,"papeker":7442,"datert":7443,"mannens":7444,"planlegger":7445,"rørende":7446,"øyeblikket":7447,"cup":7448,"peker":7449,"mani":7450,"avløp":7451,"sektoren":7452,"Apple":7453,"600":7454,"strekk":7455,"flyktninger":7456,"iko":7457,"grov":7458,"ssystemet":7459,"tilbakemelding":7460,"jar":7461,"Kol":7462,"offisielle":7463,"muslim":7464,"tøff":7465,"fyller":7466,"ministeren":7467,"noensinne":7468,"øyene":7469,"bidratt":7470,"forsvarlig":7471,"Solberg":7472,"hallen":7473,"atom":7474,"ria":7475,"dekor":7476,"mannskapet":7477,"Resultatet":7478,"forventer":7479,"Univer":7480,"volum":7481,"Svein":7482,"døren":7483,"brak":7484,"Arkiv":7485,"kake":7486,"regner":7487,"Fredrikstad":7488,"oppfatning":7489,"gran":7490,"Fylkesmannen":7491,"beth":7492,"osi":7493,"kollega":7494,"stur":7495,"NE":7496,"blanding":7497,"kostnad":7498,"oga":7499,"Nes":7500,"inerende":7501,"garder":7502,"fusjon":7503,"speed":7504,"byene":7505,"bygningen":7506,"Ofte":7507,"MO":7508,"77":7509,"yrer":7510,"Undersøk":7511,"ica":7512,"populær":7513,"oppdatering":7514,"gradvis":7515,"Mac":7516,"flink":7517,"Sar":7518,"gjennomsnittlig":7519,"danse":7520,"utdanningen":7521,"fristen":7522,"hvertfall":7523,"nøkkel":7524,"188":7525,"kjennet":7526,"Enkel":7527,"Em":7528,"tillatt":7529,"teori":7530,"dyktige":7531,"Fl":7532,"lyse":7533,"Best":7534,"gnet":7535,"profesjonell":7536,"tun":7537,"presi":7538,"fokusere":7539,"fallet":7540,"ukjent":7541,"bryst":7542,"fritid":7543,"imellom":7544,"beredskap":7545,"servere":7546,"pix":7547,"risk":7548,"utendørs":7549,"svek":7550,"Forel":7551,"seksuell":7552,"lovlig":7553,"tilbakemeldinger":7554,"næringslivet":7555,"klassisk":7556,"Famil":7557,"Venn":7558,"tunn":7559,"sopp":7560,"ssyke":7561,"homofile":7562,"Vann":7563,"inske":7564,"atferd":7565,"planlegge":7566,"fasc":7567,"splass":7568,"alu":7569,"temaer":7570,"gjestene":7571,"trafikken":7572,"!!!":7573,"diskrimin":7574,"søknader":7575,"ulovlig":7576,"your":7577,"arbeidsplasser":7578,"smerter":7579,"62":7580,"medi":7581,"ødelagt":7582,"famili":7583,"Leder":7584,"kryss":7585,"utdannelse":7586,"trakk":7587,"utbytte":7588,"fornuft":7589,"51":7590,"jevnt":7591,"finger":7592,"eksper":7593,"skipet":7594,"tis":7595,"stoffet":7596,"systematisk":7597,"idar":7598,"multi":7599,"midlertidig":7600,"barnehager":7601,"ordene":7602,"spesifikke":7603,"Ei":7604,"ales":7605,"Blu":7606,"sete":7607,"hjelpem":7608,"aksj":7609,"lykke":7610,"Eskorte":7611,"Stil":7612,"Dessverre":7613,"henholdsvis":7614,"gjørelse":7615,"kontrollere":7616,"skøy":7617,"Can":7618,"aringer":7619,"guide":7620,"UD":7621,"symbol":7622,"plett":7623,"stillende":7624,"54":7625,"mannskap":7626,"Ble":7627,"verdige":7628,"pad":7629,"spilleautom":7630,"kalen":7631,"Tak":7632,"scene":7633,"ssik":7634,"Mun":7635,"Sett":7636,"omtalt":7637,"Led":7638,"stige":7639,"ungdommer":7640,"how":7641,"Hall":7642,"symptomer":7643,"statlige":7644,"arrangementer":7645,"Valg":7646,"enheten":7647,"byggende":7648,"foredrag":7649,"passet":7650,"badet":7651,"seth":7652,"bredde":7653,"Nytt":7654,"fransk":7655,"endringene":7656,"Tro":7657,"Damer":7658,"straffe":7659,"utgaven":7660,"pent":7661,"1998":7662,"istisk":7663,"introdu":7664,"ingeniør":7665,"Sw":7666,"inene":7667,"angrepet":7668,"inere":7669,"tallene":7670,"spillene":7671,"end":7672,"aliteten":7673,"varian":7674,"Fisk":7675,"inneholde":7676,"plante":7677,"atmosf":7678,"diskutere":7679,"boksen":7680,"skapte":7681,"delte":7682,"friske":7683,"strasjon":7684,"heldige":7685,"Aug":7686,"Jap":7687,"1997":7688,"tunge":7689,"Svar":7690,"klikke":7691,"Andersen":7692,"bøn":7693,"fornøyde":7694,"burg":7695,"talte":7696,"omtale":7697,"miljøer":7698,"fotograf":7699,"applik":7700,"edel":7701,"hell":7702,"strekker":7703,"eksperi":7704,"forsøkte":7705,"misjonen":7706,"Slike":7707,"68":7708,"atch":7709,"parørende":7710,"tilhørende":7711,"utvikles":7712,"EØS":7713,"Kl":7714,"sønnen":7715,"Tur":7716,"Kari":7717,"ron":7718,"kortere":7719,"levde":7720,"akadem":7721,"selvstendig":7722,"reisen":7723,"bursdag":7724,"trengs":7725,"høres":7726,"iness":7727,"TIL":7728,"beslutning":7729,"handlingen":7730,"ømte":7731,"Ris":7732,"innvil":7733,"Institutt":7734,"kens":7735,"koste":7736,"Kristin":7737,"tilhører":7738,"ansiktet":7739,"allikevel":7740,"overbe":7741,"vedtaket":7742,"utfør":7743,"medlemskap":7744,"Lør":7745,"dype":7746,"2019":7747,"kvi":7748,"enke":7749,"amerikansk":7750,"forber":7751,"partnere":7752,"tungt":7753,"velferd":7754,"hapet":7755,"fastsatt":7756,"Larsen":7757,"cker":7758,"gay":7759,"helsetjenesten":7760,"Nort":7761,"RO":7762,"angst":7763,"Ska":7764,".”":7765,"filer":7766,"ringe":7767,"nysgjer":7768,"Barna":7769,"latter":7770,"satsing":7771,"framover":7772,"hydr":7773,"Il":7774,"Godt":7775,"sofa":7776,"oppdatere":7777,"satse":7778,"rekord":7779,"Energi":7780,"Viagra":7781,"69":7782,"edi":7783,"escorte":7784,"forval":7785,"konkurr":7786,"definitivt":7787,"demokrati":7788,"støttet":7789,"opplæringen":7790,"forskningen":7791,"møteplass":7792,"tapt":7793,"Brann":7794,"vinning":7795,"edag":7796,"Fjell":7797,"kapit":7798,"fargen":7799,"gram":7800,"boligen":7801,"Jensen":7802,"irektoratet":7803,"Innov":7804,"Tore":7805,"medlems":7806,"register":7807,"lokaler":7808,"kull":7809,"hvitt":7810,"tag":7811,"Christ":7812,"tilbehør":7813,"celler":7814,"front":7815,"Stør":7816,"Sjekk":7817,"byens":7818,"arbeidstaker":7819,"invitert":7820,"Event":7821,"museet":7822,"konsentr":7823,"trans":7824,"skutt":7825,"Unn":7826,"stua":7827,"beina":7828,"cial":7829,"Date":7830,"Frp":7831,"Nils":7832,"biter":7833,"BE":7834,"meldte":7835,"250":7836,"installer":7837,"satser":7838,"iserer":7839,"Black":7840,"sprosjekt":7841,"egging":7842,"HR":7843,"utstyret":7844,"Fikk":7845,"Venstre":7846,"kalling":7847,"slutter":7848,"Mc":7849,"shopp":7850,"Velkommen":7851,"Anna":7852,"pavirket":7853,"ingredi":7854,"glemme":7855,"enta":7856,"alistisk":7857,"presentasjon":7858,"stilbud":7859,"stiler":7860,"etablering":7861,"formidle":7862,"spark":7863,"trist":7864,"politikken":7865,"trykke":7866,"korn":7867,"lande":7868,"medisinske":7869,"dinger":7870,"hailand":7871,"nevnes":7872,"utstyrt":7873,"Park":7874,"Sandnes":7875,"rengjøring":7876,"humor":7877,"tittelen":7878,"Kam":7879,"now":7880,"lagring":7881,"endres":7882,"hapentligvis":7883,"evaluering":7884,"brø":7885,"AC":7886,"Ring":7887,"nivaer":7888,"strikke":7889,"videoen":7890,"Windows":7891,"ruter":7892,"Video":7893,"»-":7894,"serier":7895,"Sikker":7896,"kjennskap":7897,"Oper":7898,"tilfellet":7899,"from":7900,"poster":7901,"Sande":7902,"motsatt":7903,"fotografer":7904,"sting":7905,"gjengen":7906,"vitne":7907,"sproble":7908,"hest":7909,"mord":7910,"Bestille":7911,"understreker":7912,"anpix":7913,"hip":7914,"Vurder":7915,"forebygge":7916,"ønsberg":7917,"Lever":7918,"regelverket":7919,"danmark":7920,"skyte":7921,"effekter":7922,"reaksjoner":7923,"trær":7924,"Amerika":7925,"kelig":7926,"militære":7927,"forster":7928,"53":7929,"Cor":7930,"peke":7931,"stry":7932,"pes":7933,"oppleves":7934,"muligens":7935,"rev":7936,"adgang":7937,"hvile":7938,"regelverk":7939,"brutt":7940,"kikk":7941,"Saken":7942,"kompen":7943,"eventuell":7944,"lert":7945,"Kontroll":7946,"trond":7947,"istene":7948,"betingelser":7949,"sentre":7950,"Ob":7951,"fing":7952,"utseende":7953,"sporet":7954,"Geir":7955,"medføre":7956,"lytte":7957,"unde":7958,"Full":7959,"Bærum":7960,"miner":7961,"jur":7962,"statist":7963,"erstatning":7964,"vilt":7965,"uth":7966,"Navn":7967,"gulvet":7968,"ykt":7969,"senten":7970,"gjenstander":7971,"matematikk":7972,"identifisere":7973,"ssende":7974,"ware":7975,"oppvar":7976,"studere":7977,"betrakt":7978,"gun":7979,"potensielle":7980,"ilt":7981,"autor":7982,"Hor":7983,"astro":7984,"hoppe":7985,"ffen":7986,"samarbeids":7987,"vegen":7988,"ytelse":7989,"typisk":7990,"Pl":7991,"psy":7992,"nordiske":7993,"frø":7994,"kongen":7995,"oppgjøret":7996,"flytter":7997,"BI":7998,"cen":7999,"forutsetninger":8000,"synd":8001,"Hedmark":8002,"ekon":8003,"rosa":8004,"fange":8005,"Tar":8006,"tankene":8007,"kommunisere":8008,"Met":8009,"forarsa":8010,"Formalet":8011,"97":8012,"følges":8013,"stralia":8014,"revolusjon":8015,"angel":8016,"morsomme":8017,"betong":8018,"kjedelig":8019,"navig":8020,"Ab":8021,"sjafør":8022,"iditet":8023,"sykler":8024,"melige":8025,"anne":8026,"UL":8027,"Just":8028,"CO2":8029,"tasjoner":8030,"fremtid":8031,"oppfylle":8032,"ordaland":8033,"overgang":8034,"bes":8035,"bevare":8036,"betales":8037,"Jacob":8038,"KK":8039,"tenaring":8040,"spolitikk":8041,"skerud":8042,"tabel":8043,"1980":8044,"sammenligne":8045,"DS":8046,"oppdrags":8047,"dypt":8048,"produserer":8049,"generasjon":8050,"rapportering":8051,"funksjonshem":8052,"Kjell":8053,"hjernen":8054,"ico":8055,"forvente":8056,"barnets":8057,"Escort":8058,"sporten":8059,"rehabilitering":8060,"ønsk":8061,"høyest":8062,"800":8063,"kino":8064,"forutsetning":8065,"rup":8066,"bens":8067,"falle":8068,"siktige":8069,"eper":8070,"Tror":8071,"biske":8072,"Møt":8073,"kyn":8074,"samtlige":8075,"kilo":8076,"formidling":8077,"organisasjonene":8078,"belig":8079,"Fotball":8080,"sunt":8081,"klem":8082,"neppe":8083,"avgi":8084,"flo":8085,"Son":8086,"apps":8087,"relatert":8088,"slutning":8089,"dukket":8090,"forfatteren":8091,"eiendommen":8092,"representert":8093,"TS":8094,"hastighet":8095,"Fordi":8096,"strøk":8097,"hendene":8098,"knapt":8099,"investering":8100,"krit":8101,"stipen":8102,"biblioteket":8103,"trondheim":8104,"oppfylt":8105,"jorden":8106,"Sim":8107,"Microsoft":8108,"nedsatt":8109,"unget":8110,"kosthold":8111,"neder":8112,"iserte":8113,"**":8114,"sdepartementet":8115,"ase":8116,"kunnskaper":8117,"pon":8118,"Pedersen":8119,"moral":8120,"utredning":8121,"fødte":8122,"fremmed":8123,"italien":8124,"kjønnsle":8125,"Jørgen":8126,"box":8127,"sic":8128,"sida":8129,"beman":8130,"dannet":8131,"tilknyttet":8132,"lærings":8133,"norges":8134,"skolens":8135,"nert":8136,"lesbisk":8137,"onom":8138,"brut":8139,"bortsett":8140,"Sogn":8141,"behø":8142,"mentar":8143,"foreslatt":8144,"eksplo":8145,"bevege":8146,"egger":8147,"medarbeider":8148,"mur":8149,"mnd":8150,"teknologien":8151,"vokste":8152,"ordentlig":8153,"ulykker":8154,"liter":8155,"kler":8156,"Rør":8157,"sms":8158,"lia":8159,"pin":8160,"fondet":8161,"mulere":8162,"kjendiser":8163,"kontakte":8164,"øverste":8165,"bryt":8166,"kategori":8167,"Terje":8168,"lagre":8169,"olu":8170,"forsvinner":8171,"iteen":8172,"inntak":8173,"that":8174,"120":8175,"ney":8176,"sna":8177,"haha":8178,"deri":8179,"fugl":8180,"Beste":8181,"flinke":8182,"illustr":8183,"treffer":8184,"ferdige":8185,"konst":8186,"inviterer":8187,"krise":8188,"galler":8189,"more":8190,"dansk":8191,"illet":8192,"stiftet":8193,"Registr":8194,"høyden":8195,"problemene":8196,"pedia":8197,"overnatting":8198,"styrets":8199,"manedene":8200,"termin":8201,"størrelsen":8202,"timen":8203,"1900":8204,"hall":8205,"lass":8206,"Magnus":8207,"sok":8208,"midlene":8209,"hild":8210,"sivt":8211,"disi":8212,"Ke":8213,"sprosjekter":8214,"World":8215,"sakte":8216,"ryt":8217,"stk":8218,"rydde":8219,"helga":8220,"sjokola":8221,"Forsvar":8222,"styrt":8223,"legi":8224,"endrer":8225,"Johansen":8226,"forleng":8227,"arige":8228,"givende":8229,"arbeidstakere":8230,"utnytt":8231,"nyeste":8232,"opptre":8233,"elighet":8234,"soldater":8235,"Kjære":8236,"begrep":8237,"kulturelle":8238,"klassiske":8239,"das":8240,"sorg":8241,"høring":8242,"ovn":8243,"gleden":8244,"finale":8245,"tjener":8246,"Hit":8247,"reis":8248,"apnes":8249,"forventes":8250,"moden":8251,"runder":8252,"russisk":8253,"grunnet":8254,"Pi":8255,"Senere":8256,"lagets":8257,"Øster":8258,"dals":8259,"dokument":8260,"filter":8261,"vaksin":8262,"Lund":8263,"landskap":8264,"stret":8265,"apningen":8266,"enorme":8267,"kirur":8268,"72":8269,"Hamar":8270,"63":8271,"offer":8272,"kurran":8273,"asen":8274,"Hør":8275,"sekretær":8276,"1970":8277,"gjelde":8278,"sity":8279,"relasjon":8280,"konver":8281,"nedgang":8282,"forstatt":8283,"Stati":8284,"veileder":8285,"skra":8286,"hape":8287,"Carl":8288,"kjøpes":8289,"chi":8290,"underholdning":8291,"hjerne":8292,"fullført":8293,"Finland":8294,"col":8295,"spent":8296,"søkemotor":8297,"stanse":8298,"jevnlig":8299,"religiøse":8300,"aver":8301,"ideen":8302,"etasje":8303,"Gir":8304,"Forfatter":8305,"søkonom":8306,"Forslag":8307,"igen":8308,"øyer":8309,"kate":8310,"Casino":8311,"Gen":8312,"arsmøtet":8313,"aren":8314,"Marit":8315,"globale":8316,"xi":8317,"avhengighet":8318,"domin":8319,"hul":8320,"Twitter":8321,"ingers":8322,"skrives":8323,"Bur":8324,"ordre":8325,"studien":8326,"samarbeider":8327,"Siste":8328,"arbeides":8329,"Aftenposten":8330,"forelsket":8331,"straks":8332,"riske":8333,"Analy":8334,"avgjørelse":8335,"førings":8336,"kostnadene":8337,"Ger":8338,"Vet":8339,"treet":8340,"sning":8341,"frig":8342,"strategier":8343,"ografiske":8344,"medvirkning":8345,"mobile":8346,"arab":8347,"ollege":8348,"beveger":8349,"Kart":8350,"oil":8351,"kking":8352,"havnet":8353,"vitenskapelige":8354,"møbler":8355,"isiner":8356,"harde":8357,"kaldt":8358,"sone":8359,"Real":8360,"plattform":8361,"støt":8362,"garantert":8363,"spri":8364,"slit":8365,"mage":8366,"ismen":8367,"formalet":8368,"forberedt":8369,"https":8370,"otika":8371,"destin":8372,"61":8373,"guttene":8374,"forbruket":8375,"tari":8376,"entu":8377,"hensiktsmessig":8378,"personlighet":8379,"ella":8380,"samlede":8381,"leilighet":8382,"kkende":8383,"kontakter":8384,"atører":8385,"oppsta":8386,"Rek":8387,"oppvekst":8388,"oppskrift":8389,"Doku":8390,"imponerende":8391,"helsepersonell":8392,"dynam":8393,"Wi":8394,"tiar":8395,"Tall":8396,"smartt":8397,"fremfor":8398,"engelske":8399,"Chat":8400,"dømme":8401,"glemt":8402,"arsmøte":8403,"Ør":8404,"sad":8405,"innsatsen":8406,"temp":8407,"Rune":8408,"vika":8409,"rust":8410,"linjer":8411,"gutten":8412,"vogn":8413,"avgjøre":8414,"besluttet":8415,"settet":8416,"ssiv":8417,"Fire":8418,"dører":8419,"overskudd":8420,"anset":8421,"gjennomførte":8422,"Play":8423,"gaard":8424,"ric":8425,"vedrørende":8426,"fenomen":8427,"Asker":8428,"fyll":8429,"tau":8430,"naturligvis":8431,"Cat":8432,"Muse":8433,"banker":8434,"Roms":8435,"hevet":8436,"DF":8437,"traff":8438,"liden":8439,"agg":8440,"avdelinger":8441,"palit":8442,"løser":8443,"blok":8444,"Gl":8445,"øverst":8446,"intervjuet":8447,"innflytelse":8448,"vri":8449,"Hens":8450,"senest":8451,"regnskapet":8452,"anke":8453,"iken":8454,"Høgskolen":8455,"sees":8456,"essen":8457,"langsiktig":8458,"dyb":8459,"laks":8460,"protein":8461,"endel":8462,"leggingen":8463,"mentere":8464,"Arbeidet":8465,"balan":8466,"Haug":8467,"fisering":8468,"farlige":8469,"vog":8470,"celle":8471,"omsetning":8472,"helseforetak":8473,"skudds":8474,"kontrollen":8475,"drives":8476,"gjød":8477,"lærte":8478,"renter":8479,"poker":8480,"kafe":8481,"hevdet":8482,"ec":8483,"ghan":8484,"stere":8485,"definert":8486,"akutt":8487,"regelmessig":8488,"Buskerud":8489,"flyplassen":8490,"kunn":8491,"spir":8492,"sag":8493,"omgivelser":8494,"medisiner":8495,"laveste":8496,"unt":8497,"Robert":8498,"utstillingen":8499,"metoden":8500,"finans":8501,"IA":8502,"top":8503,"forbedring":8504,"livsstil":8505,"Fram":8506,"kollektiv":8507,"Boken":8508,"tube":8509,"havner":8510,"BB":8511,"kø":8512,"ras":8513,"behagelig":8514,"faring":8515,"represen":8516,"ilige":8517,"alternative":8518,"Stats":8519,"styrket":8520,"sped":8521,"ansvarlige":8522,"morgenen":8523,"bestand":8524,"brevet":8525,"æl":8526,"ferds":8527,"hypp":8528,"begrense":8529,"Rag":8530,"import":8531,"iligheten":8532,"Hvert":8533,"prosjektleder":8534,"posisjoner":8535,"Hvilke":8536,"forfat":8537,"bassa":8538,"Pet":8539,"stralende":8540,"lista":8541,"prat":8542,"menes":8543,"ual":8544,"varslet":8545,"helhetlig":8546,"kjenning":8547,"redaktør":8548,"avholdt":8549,"evner":8550,"menyen":8551,"toal":8552,"krets":8553,"stider":8554,"Lørdag":8555,"stimuler":8556,"dru":8557,"assist":8558,"uttak":8559,"Mannen":8560,"India":8561,"flate":8562,"forhindre":8563,"tilbys":8564,"yrkia":8565,"sort":8566,"samhandling":8567,"slappe":8568,"stue":8569,"Stø":8570,"Master":8571,"reduserer":8572,"størrelser":8573,"kraftige":8574,"1996":8575,"korrekt":8576,"søkes":8577,"bringer":8578,"Ron":8579,"tradisjonell":8580,"roller":8581,"variere":8582,"gjem":8583,"skilte":8584,"MEN":8585,"Cialis":8586,"ulerer":8587,"Innhold":8588,"dder":8589,"husk":8590,"arkitektur":8591,"vegger":8592,"ekspert":8593,"voll":8594,"rabatt":8595,"trives":8596,"sly":8597,"anskaff":8598,"takke":8599,"Ir":8600,"svanger":8601,"konsep":8602,"Mark":8603,"noveller":8604,"fikasjoner":8605,"Dem":8606,"landbruk":8607,"hvorvidt":8608,"impon":8609,"melk":8610,"evnen":8611,"konferanse":8612,"klipp":8613,"78":8614,"dann":8615,"eu":8616,"produksjons":8617,"innføre":8618,"aviser":8619,"sittende":8620,"kjøl":8621,"cre":8622,"FNs":8623,"Blog":8624,"Allerede":8625,"forebyggende":8626,"spilles":8627,"knulle":8628,"wood":8629,"erstatte":8630,"frat":8631,"UK":8632,"konferansen":8633,"eringen":8634,"prinsippet":8635,"lade":8636,"ikipedia":8637,"ments":8638,"posta":8639,"iatri":8640,"passende":8641,"munnen":8642,"Hil":8643,"Merk":8644,"sdatter":8645,"Sunn":8646,"Heg":8647,"antene":8648,"døgnet":8649,"tapte":8650,"syssel":8651,"stoler":8652,"ow":8653,"Møteplassen":8654,"kandidater":8655,"hov":8656,"forbudt":8657,"kjeller":8658,"bedriftene":8659,"gitar":8660,"elektriske":8661,"nemn":8662,"integrert":8663,"spiste":8664,"kommunal":8665,"bevegelser":8666,"koblet":8667,"veiene":8668,"rødt":8669,"ref":8670,"mert":8671,"armen":8672,"forsvaret":8673,"kunstnere":8674,"2020":8675,"kampene":8676,"reserv":8677,"Eldre":8678,"kreative":8679,"omet":8680,"1995":8681,"avtalt":8682,"tradisjoner":8683,"kunnskapen":8684,"skuespiller":8685,"Følg":8686,"oppgir":8687,"variasjon":8688,");":8689,"reduseres":8690,"Menne":8691,"stemmig":8692,"spons":8693,"omfang":8694,"oftere":8695,"forplik":8696,"mennesket":8697,"fortjener":8698,"bekrefter":8699,"mangfol":8700,"ødvendig":8701,"sperioden":8702,"spel":8703,"vestlige":8704,"skla":8705,"forsvant":8706,"odi":8707,"fiber":8708,"vurderingen":8709,"BM":8710,"hyggelige":8711,"styres":8712,"illa":8713,"spania":8714,"singler":8715,"minoritet":8716,"xt":8717,"ness":8718,"reisende":8719,"stykker":8720,"Bal":8721,"bussen":8722,"jordbær":8723,"samarbeidspartnere":8724,"Nok":8725,"ksjonene":8726,"gammelt":8727,"Gunnar":8728,"fester":8729,"sikter":8730,"ftes":8731,"løft":8732,"utleie":8733,"ankom":8734,"sjølv":8735,"shopping":8736,"tilgjengelighet":8737,"venninne":8738,"obbing":8739,"vakkert":8740,"stolte":8741,"turist":8742,"LES":8743,"asje":8744,"hob":8745,"verksted":8746,"foreninger":8747,"implementer":8748,"ions":8749,"besøkt":8750,"INN":8751,"kninger":8752,"komplett":8753,"pasientene":8754,"skvalitet":8755,"restauranter":8756,"hang":8757,"Kro":8758,"elat":8759,"pale":8760,"psykolog":8761,"forpliktelser":8762,"makten":8763,"beliggen":8764,"aldt":8765,"tilnærming":8766,"tilfredsstillende":8767,"standarder":8768,"arsak":8769,"salen":8770,"utveksling":8771,"Politi":8772,"reper":8773,"this":8774,"Cup":8775,"isted":8776,"varsler":8777,"Lek":8778,"interesserte":8779,"Kle":8780,"ekn":8781,"Prøv":8782,"!)":8783,"prakti":8784,"registeret":8785,"lesing":8786,"Refer":8787,"sprøy":8788,"skjønnhet":8789,"Deres":8790,"Japan":8791,"Lillehammer":8792,"element":8793,"forlate":8794,"individuelle":8795,"fekk":8796,"likter":8797,"Høye":8798,"iPhone":8799,"slov":8800,"virkelige":8801,"Lav":8802,"sikkerheten":8803,"dispensasjon":8804,"ktes":8805,"sinstitu":8806,"planene":8807,"-/":8808,"Tønsberg":8809,"sterett":8810,"hester":8811,"Bek":8812,"mv":8813,"belastning":8814,"brem":8815,"flyet":8816,"nektet":8817,"sjanser":8818,"erfarne":8819,"KL":8820,"anna":8821,"syre":8822,"eksempelvis":8823,"kkede":8824,"gjenstar":8825,"tillater":8826,"kjøpet":8827,"United":8828,"Helge":8829,"regnskaps":8830,"interne":8831,"fabrikk":8832,"smuligheter":8833,"ias":8834,"West":8835,"lederen":8836,"forklaring":8837,"offent":8838,"kende":8839,"rasjons":8840,"gjenopp":8841,"apital":8842,"veget":8843,"handels":8844,"blokker":8845,"tret":8846,"Ales":8847,"fisket":8848,"onering":8849,"mental":8850,"teor":8851,"AND":8852,"oppdraget":8853,"handen":8854,"urin":8855,"Marked":8856,"Fir":8857,"valuta":8858,"transa":8859,"Skulle":8860,"fghan":8861,"Sl":8862,"gjennomfører":8863,"Hell":8864,"Luft":8865,"kombinert":8866,"bekreft":8867,"yte":8868,"trekkes":8869,"gyldig":8870,"personvern":8871,"reaksjon":8872,"nevner":8873,"Neder":8874,"innbyggerne":8875,"mørket":8876,"sjokolade":8877,"bestemmelsene":8878,"mom":8879,"samboer":8880,"ations":8881,"Ev":8882,"konkurranser":8883,"sykehjem":8884,"premier":8885,"himmelen":8886,"solgte":8887,"dratt":8888,"dekkes":8889,"personal":8890,"anbefalt":8891,"Tema":8892,"alminn":8893,"tilsier":8894,"sammenlik":8895,"personene":8896,"fremtidige":8897,"strømmen":8898,"Tir":8899,"smin":8900,"opprør":8901,"onse":8902,"sensi":8903,"tabelt":8904,"slitt":8905,"hindrer":8906,"Stock":8907,"partier":8908,"bakgrunnen":8909,"ME":8910,"Op":8911,"sammenhenger":8912,"Dagen":8913,"oppfyller":8914,"salget":8915,"Hordaland":8916,"selges":8917,"forøvrig":8918,"slø":8919,"ego":8920,"Besøk":8921,"hd":8922,"sjeld":8923,"sykepleier":8924,"basen":8925,"utgangen":8926,"bilene":8927,"load":8928,"Kø":8929,"Pas":8930,"fakultet":8931,"erings":8932,"passord":8933,"skep":8934,"meninger":8935,"Mitt":8936,"vev":8937,"1994":8938,"hed":8939,"handball":8940,"pop":8941,"epost":8942,"ggen":8943,"JON":8944,".:":8945,"keeper":8946,"administrasjonen":8947,"149":8948,"Gjer":8949,"vendt":8950,"egler":8951,"velges":8952,"lf":8953,"mestring":8954,"underlagt":8955,"skontor":8956,"effektivitet":8957,"behandlings":8958,"Vok":8959,"foretrekker":8960,"forvaltnings":8961,"statsminister":8962,"etre":8963,"Jul":8964,"skan":8965,"regning":8966,"Statoil":8967,"isjon":8968,"kartlegging":8969,"eiendoms":8970,"vitenskapelig":8971,"tiltakene":8972,"Va":8973,"evig":8974,"aktørene":8975,"TR":8976,"primært":8977,"AU":8978,"bosatt":8979,"kommunikasjons":8980,"undersøkt":8981,"ativitet":8982,"tøffe":8983,"spist":8984,"Gode":8985,"kameraet":8986,"skerne":8987,"bundet":8988,"operasjoner":8989,"uttalelse":8990,"automat":8991,"fugler":8992,"Canada":8993,"potensi":8994,"oppvarming":8995,"fisker":8996,"Tabell":8997,"Nam":8998,"høytt":8999,"79":9000,"76":9001,"betrak":9002,"pte":9003,"sørget":9004,"cum":9005,"solen":9006,"intet":9007,"Pak":9008,"Enkelte":9009,"organer":9010,"tørre":9011,"present":9012,"iga":9013,"seter":9014,"svøm":9015,"drev":9016,"look":9017,"toget":9018,"fangst":9019,"elenor":9020,"eide":9021,"arrangementet":9022,"kjøttet":9023,"hvorav":9024,"Film":9025,"zen":9026,"Sted":9027,"lykkelig":9028,"zza":9029,"varianter":9030,"ila":9031,"onde":9032,"mobilen":9033,"arrangeres":9034,"lering":9035,"Sæ":9036,"ders":9037,"Fredag":9038,"Pasi":9039,"ces":9040,"smør":9041,"Topp":9042,"invest":9043,"bensin":9044,"gjaldt":9045,"etterkant":9046,"PL":9047,"perman":9048,"quiz":9049,"Gjen":9050,"smus":9051,"chen":9052,"noko":9053,"uvanlig":9054,"skur":9055,"Bilder":9056,"sprogrammet":9057,"deltatt":9058,"servic":9059,"scoret":9060,"fattige":9061,"kyl":9062,"eksterne":9063,"oth":9064,"71":9065,"parall":9066,"døra":9067,"OB":9068,"haugen":9069,"graviditet":9070,"Kra":9071,"avhenger":9072,"prinsipper":9073,"beløn":9074,"rykket":9075,"search":9076,"nyere":9077,"cro":9078,"kriterier":9079,"vinduet":9080,"Syria":9081,"paske":9082,"ikre":9083,"pakker":9084,"elektroniske":9085,"Phil":9086,"kolon":9087,"ago":9088,"krigs":9089,"anere":9090,"Alesund":9091,"jam":9092,"støtten":9093,"pafølgende":9094,"Motor":9095,"benhavn":9096,"ellig":9097,"stuen":9098,"sve":9099,"NING":9100,"kaker":9101,"Aren":9102,"splasser":9103,"oppgi":9104,"opplysning":9105,"role":9106,"HMS":9107,"sell":9108,"sliten":9109,"grønt":9110,"ukjente":9111,"aktiviteten":9112,"synlige":9113,"punktene":9114,"kommunestyret":9115,"making":9116,"billige":9117,"Særlig":9118,"middagen":9119,"samles":9120,"arbeidsliv":9121,"profilen":9122,"Asia":9123,"kule":9124,"ettertid":9125,"Endelig":9126,"forhapentligvis":9127,"jekt":9128,"aksje":9129,"fylket":9130,"dyktig":9131,"forutsig":9132,"dug":9133,"sekun":9134,"referanse":9135,"anga":9136,"allergi":9137,"SM":9138,"OD":9139,"aften":9140,"musikal":9141,"vennene":9142,"lidenskap":9143,"98":9144,"pool":9145,"rinn":9146,"unødvendig":9147,"mottok":9148,"Rosen":9149,"Jern":9150,"tendens":9151,"73":9152,"svømme":9153,"tidspunktet":9154,"psborg":9155,"kriti":9156,"ugh":9157,"Søknad":9158,"Innovasjon":9159,"Tube":9160,"innslag":9161,"zy":9162,"Hakon":9163,"Fal":9164,"musli":9165,"argumenter":9166,"elektrisk":9167,"kategorien":9168,"stilsynet":9169,"Nilsen":9170,"lagret":9171,"sanne":9172,"hende":9173,"vard":9174,"tilrettelegging":9175,"dusj":9176,"Kv":9177,"link":9178,"bratt":9179,"plom":9180,"edal":9181,"pakket":9182,"eleven":9183,"innrømme":9184,"skontroll":9185,"Hensikten":9186,"ografisk":9187,"intellig":9188,"generasjoner":9189,"rekruttering":9190,"batteri":9191,"Verdens":9192,"Sun":9193,"stjenesten":9194,"zi":9195,"ambassa":9196,"iktet":9197,"Musikk":9198,"tilleggs":9199,"etn":9200,"bivirkninger":9201,"forutsetter":9202,"flat":9203,"skjære":9204,"legemidler":9205,"seieren":9206,"aff":9207,"informere":9208,"Arbeiderpartiet":9209,"Fem":9210,"delsene":9211,"integ":9212,"have":9213,"obligator":9214,"Boka":9215,"teri":9216,"Instagram":9217,"dildo":9218,"rein":9219,"garde":9220,"girls":9221,"løn":9222,"svi":9223,"scener":9224,"Gamle":9225,"protokoll":9226,"Jakob":9227,"chelor":9228,"Blo":9229,"overalt":9230,"negativt":9231,"leiligheten":9232,"Cla":9233,"Romsdal":9234,"Telenor":9235,"apeut":9236,"handverk":9237,"premie":9238,"kyr":9239,"core":9240,"journalister":9241,"mektig":9242,"avslapp":9243,"elatende":9244,"Sten":9245,"Berlin":9246,"introduksjon":9247,"DR":9248,"VA":9249,"Norden":9250,"kartet":9251,"ødelegge":9252,"oppkobling":9253,"1960":9254,"Europe":9255,"mari":9256,"Følgende":9257,"æringen":9258,"dagers":9259,"Sukker":9260,"kjempet":9261,"foten":9262,"gde":9263,"Elisa":9264,"utarbeide":9265,"bryr":9266,"entreprenør":9267,"skuffet":9268,"Finans":9269,"fokuserer":9270,"orientert":9271,"Ekte":9272,"Jar":9273,"SSB":9274,"pkt":9275,"tabell":9276,"pøl":9277,"margin":9278,"Utvalg":9279,"relaterte":9280,"danne":9281,"ards":9282,"spy":9283,"komfort":9284,"aton":9285,"sola":9286,"undervisningen":9287,"demonstr":9288,"alem":9289,"behøver":9290,"eler":9291,"designer":9292,"katastro":9293,"danner":9294,"sjetter":9295,"1500":9296,"74":9297,"vekten":9298,"betydningen":9299,"skjønne":9300,"ml":9301,"overført":9302,"kjærester":9303,"passasjer":9304,"ah":9305,"tent":9306,"sso":9307,"orge":9308,"ordinær":9309,"dokumentert":9310,"revolusjonen":9311,"Cre":9312,"seren":9313,"Saks":9314,"menneskelige":9315,"enstemmig":9316,"gjenstand":9317,"drama":9318,"styrings":9319,"But":9320,"sengen":9321,"Sandefjord":9322,"immun":9323,"hael":9324,"ordnede":9325,"kta":9326,"retninger":9327,"Regn":9328,"plager":9329,"lengst":9330,"Frank":9331,"Stol":9332,"mannlige":9333,"utenriks":9334,"Kore":9335,"depresjon":9336,"forvaltningen":9337,"Grøn":9338,"innvandrer":9339,"næringen":9340,"terende":9341,"Tilbake":9342,"svake":9343,"lidelser":9344,"plater":9345,"teknikker":9346,"Mellom":9347,"deilige":9348,"negativ":9349,"forfattere":9350,"dimensjon":9351,"dringen":9352,"Møre":9353,"kalde":9354,"Bry":9355,"cle":9356,"Ur":9357,"CC":9358,"oppskrifter":9359,"tilsvarer":9360,"femte":9361,"hovedstaden":9362,"treningen":9363,"700":9364,"ping":9365,"datoen":9366,"drøy":9367,"Emil":9368,"oppnadd":9369,"funda":9370,"BL":9371,"nettbrett":9372,"utred":9373,"svinger":9374,"TA":9375,"Ansvar":9376,"Jonas":9377,"allet":9378,"Haugesund":9379,"variert":9380,"nedbør":9381,"vanligste":9382,"innvandring":9383,"problemstillinger":9384,"konsept":9385,"internt":9386,"gaten":9387,"usikkerhet":9388,"prøv":9389,"forskrifter":9390,"fremgar":9391,"ros":9392,"Einar":9393,"teriene":9394,"gjennomsiktig":9395,"liber":9396,"teamet":9397,"mobbing":9398,"Len":9399,"Kongs":9400,"fekt":9401,"pset":9402,"senga":9403,"anbefalinger":9404,"tariff":9405,"plukket":9406,"samleie":9407,"And":9408,"fisken":9409,"foster":9410,"vedtok":9411,"kjole":9412,"motoren":9413,"onning":9414,"angitt":9415,"Willi":9416,"løses":9417,"Tiltak":9418,"kanaler":9419,"lukket":9420,"Sma":9421,"lingene":9422,"oppdateringer":9423,"utal":9424,"billigere":9425,"ordinært":9426,"fylkeskommune":9427,"pot":9428,"forresten":9429,"tvunget":9430,"vansker":9431,"lure":9432,"feller":9433,"nyttige":9434,"skor":9435,"deltaker":9436,"vedt":9437,"kompetansen":9438,"lubben":9439,"oppholdet":9440,"forhandlinger":9441,"flytting":9442,"fantasi":9443,"ømt":9444,"hekte":9445,"fremstar":9446,"Tiden":9447,"cru":9448,"havne":9449,"Tyrkia":9450,"dic":9451,"gjennomgatt":9452,"krem":9453,"kos":9454,"elsket":9455,"kritiske":9456,"saledes":9457,"avslutter":9458,"voksende":9459,"konstruksjon":9460,"lovens":9461,"ytr":9462,"disipl":9463,"Australia":9464,"hjemmelaget":9465,"sære":9466,"fasil":9467,"Ten":9468,"Moss":9469,"Tem":9470,"emner":9471,"sirk":9472,"betenn":9473,"dokumentere":9474,"bakke":9475,"hilsen":9476,"seriøst":9477,"drømme":9478,"Sum":9479,"Ett":9480,"BU":9481,"new":9482,"bekymret":9483,"butikkene":9484,"cor":9485,"asiatiske":9486,"strenge":9487,"oppdager":9488,"verktøyet":9489,"Dri":9490,"utdannings":9491,"diff":9492,"kirurgi":9493,"Sexy":9494,"firmaet":9495,"arealer":9496,"Ali":9497,"oppmun":9498,"una":9499,"1992":9500,"fores":9501,"vara":9502,"drende":9503,"kaster":9504,"ekteskapet":9505,"dobbel":9506,"usa":9507,"Dei":9508,"grei":9509,"ji":9510,"pakken":9511,"Hur":9512,"kasino":9513,"rening":9514,"Standard":9515,"fullføre":9516,"Mandag":9517,"stjeneste":9518,"International":9519,"SU":9520,"HER":9521,"villige":9522,"USAs":9523,"kvalitetssik":9524,"spunkter":9525,"Spill":9526,"erstatt":9527,"sjekker":9528,"1993":9529,"Nø":9530,"Lof":9531,"henter":9532,"signal":9533,"Victor":9534,"skrivelse":9535,"avslutning":9536,"slene":9537,"storm":9538,"skilsm":9539,"send":9540,"konflikter":9541,"baner":9542,"fullmakt":9543,"seriøse":9544,"skin":9545,"avanserte":9546,"Kvalitet":9547,"bevissthet":9548,"digheten":9549,"FK":9550,"formuler":9551,"Rundt":9552,"antikk":9553,"klubbens":9554,"Finan":9555,"Rob":9556,"forberede":9557,"apenhet":9558,"DA":9559,"Not":9560,"raden":9561,"grunnlagt":9562,"slette":9563,"kriminalitet":9564,"skel":9565,"here":9566,"vinduer":9567,"Prin":9568,"Down":9569,"Kristus":9570,"arrangerer":9571,"FR":9572,"regelen":9573,"lement":9574,"kald":9575,"love":9576,"spinn":9577,"tein":9578,"høgskole":9579,"investor":9580,"varene":9581,"regjeringens":9582,"forvir":9583,"ongen":9584,"Line":9585,"blogge":9586,"Dire":9587,"København":9588,"verv":9589,"Valer":9590,"skriving":9591,"beliggenhet":9592,"skala":9593,"datteren":9594,"jazz":9595,"LED":9596,"dek":9597,"drap":9598,"gig":9599,"luften":9600,"omsten":9601,"Grand":9602,"iteter":9603,"endt":9604,"utvalgets":9605,"revet":9606,"BR":9607,"tilsynelatende":9608,"SMS":9609,"fortløpende":9610,"beslutninger":9611,"okken":9612,"verker":9613,"anerkjente":9614,"bakk":9615,"tapet":9616,"palagt":9617,"avgifter":9618,"tillat":9619,"utformet":9620,"Dam":9621,"Halvor":9622,"betydelige":9623,"verdiene":9624,"hjalp":9625,"MER":9626,"ates":9627,"snill":9628,"Hold":9629,"søy":9630,"anen":9631,"linjen":9632,"forhands":9633,"rase":9634,"ison":9635,"utgiftene":9636,"Nu":9637,"flagg":9638,"kommenter":9639,"ary":9640,"leier":9641,"ssyn":9642,"Fylke":9643,"sjekking":9644,"Eir":9645,"lovet":9646,"lesbiske":9647,"gjennomsnittet":9648,"labor":9649,"gards":9650,"bbe":9651,"bevilg":9652,"Lev":9653,"meir":9654,"bodd":9655,"ssikker":9656,"utløp":9657,"Elevene":9658,"plassere":9659,"hundrevis":9660,"oppbevaring":9661,"smaker":9662,"terings":9663,"bidro":9664,"overtok":9665,"tiltaket":9666,"sprodu":9667,"falske":9668,"rock":9669,"timers":9670,"motsatte":9671,"noksa":9672,"Svært":9673,"cia":9674,"Torsdag":9675,"farten":9676,"karbon":9677,"Jack":9678,"harmon":9679,"bønn":9680,"fargene":9681,"ssitu":9682,"instituttet":9683,"virkemidler":9684,"grensene":9685,"make":9686,"Sof":9687,"partiene":9688,"triv":9689,"jevne":9690,"Gren":9691,"oppskriften":9692,"klaget":9693,"hjerter":9694,"øvre":9695,"lad":9696,"Hem":9697,"ønskelig":9698,"Storting":9699,"valuer":9700,"nark":9701,"hendelsen":9702,"stiger":9703,"cirka":9704,"kraftverk":9705,"ats":9706,"stammer":9707,"forskerne":9708,"okku":9709,"merkelig":9710,"landskapet":9711,"kjekt":9712,"bruddet":9713,"zo":9714,"innblikk":9715,"marka":9716,"sending":9717,"Altern":9718,"Aust":9719,"smarkedet":9720,"Hammer":9721,"imøte":9722,"barnas":9723,"halvt":9724,"enighet":9725,"godkjente":9726,"Ivar":9727,"Fak":9728,"NY":9729,"gjentatte":9730,"junior":9731,"Cam":9732,"sau":9733,"pavirkning":9734,"kult":9735,"alistiske":9736,"Jord":9737,"symbo":9738,"Fle":9739,"Sha":9740,"døden":9741,"skuff":9742,"Pat":9743,"Brasil":9744,"resep":9745,"pag":9746,"disp":9747,"sistnevnte":9748,"blin":9749,"One":9750,"chester":9751,"bestilt":9752,"ava":9753,"Ukra":9754,"hunde":9755,"yout":9756,"Forsvaret":9757,"kjemper":9758,"Anbef":9759,"skjulte":9760,"University":9761,"dyrene":9762,"Larvik":9763,"tittel":9764,"vegvesen":9765,"gjennomføringen":9766,"Utvikling":9767,"nat":9768,"diskusjoner":9769,"levet":9770,"fantes":9771,"Kim":9772,"pig":9773,"opprinnelse":9774,"filen":9775,"økonomien":9776,"korrig":9777,"NL":9778,"festen":9779,"passasj":9780,"forfer":9781,"debut":9782,"menneskelig":9783,"Ettersom":9784,"utvidelse":9785,"Røde":9786,"ulykke":9787,"lyden":9788,"trett":9789,"anty":9790,"Tu":9791,"riktignok":9792,"Kors":9793,"stram":9794,"Roy":9795,"Problemet":9796,"søm":9797,"smitt":9798,"splassen":9799,"netto":9800,"kalte":9801,"fuktighet":9802,"hittil":9803,"vaner":9804,"sinformasjon":9805,"særskilt":9806,"ambisjoner":9807,"albumet":9808,"barnevernet":9809,"konsekvensene":9810,"utlen":9811,"dataene":9812,"fungerte":9813,"skjønte":9814,"arbeidstid":9815,"ating":9816,"tju":9817,"bedring":9818,"Idretts":9819,"lages":9820,"Test":9821,"stab":9822,"arkitekt":9823,"splaner":9824,"kore":9825,"drivstoff":9826,"Sj":9827,"oline":9828,"sterkeste":9829,"besøket":9830,"elag":9831,"III":9832,"akseptere":9833,"innbygger":9834,"ikop":9835,"loj":9836,"tolv":9837,"samisk":9838,"tjen":9839,"virkelighet":9840,"Try":9841,"nabol":9842,"begi":9843,"beskyttet":9844,"farget":9845,"EUs":9846,"flø":9847,"sløp":9848,"revisor":9849,"ota":9850,"Rød":9851,"aktige":9852,"isol":9853,"Big":9854,"flom":9855,"Virk":9856,"Søndag":9857,"derne":9858,"Daniel":9859,"Stra":9860,"William":9861,"bekken":9862,"Kunne":9863,"sekund":9864,"works":9865,"anvende":9866,"Rapporten":9867,"stabilitet":9868,"funksjonene":9869,"mesterskap":9870,"flam":9871,"SL":9872,"maltid":9873,"Sep":9874,"reflek":9875,"oppdragsgiver":9876,"kven":9877,"borgere":9878,"verdighet":9879,"happ":9880,"pressen":9881,"bryllup":9882,"tape":9883,"une":9884,"bestaende":9885,"reagerer":9886,"oler":9887,"nakenbilder":9888,"versjoner":9889,"play":9890,"kryp":9891,"sammenhengen":9892,"Viktig":9893,"Gjø":9894,"kolleger":9895,"omgivelsene":9896,"mesterskapet":9897,"skapende":9898,"Espen":9899,"montert":9900,"brøt":9901,"toler":9902,"jubile":9903,"Forbruker":9904,"Handel":9905,"appe":9906,"sult":9907,"hehe":9908,"skjeb":9909,"stensen":9910,"ressursene":9911,"jernbane":9912,"stendige":9913,"1991":9914,"antag":9915,"stole":9916,"innsamling":9917,"fit":9918,"Departementet":9919,"War":9920,"blei":9921,"snes":9922,"etid":9923,"atori":9924,"jorda":9925,"forstyrr":9926,"ely":9927,"værelse":9928,"langrenn":9929,"Alta":9930,"ili":9931,"stikke":9932,"Vedlegg":9933,"artister":9934,"sjakk":9935,"forpliktet":9936,"Drift":9937,"steng":9938,"Art":9939,"Dis":9940,"Ky":9941,"arig":9942,"baga":9943,"grave":9944,"avkast":9945,"cha":9946,"Spare":9947,"konserter":9948,"trenere":9949,"kutte":9950,"82":9951,"varmen":9952,"ulere":9953,"begrensninger":9954,"Skolen":9955,"ørret":9956,"mobiltelefoner":9957,"bene":9958,"erstattet":9959,"arar":9960,"faktura":9961,"3D":9962,"89":9963,"cing":9964,"budsjetter":9965,"Utvalget":9966,"list":9967,"abonne":9968,"generalfor":9969,"forandret":9970,"sjanger":9971,"konfir":9972,"feire":9973,"administrative":9974,"røyk":9975,"dul":9976,"Bakgrunn":9977,"installasjon":9978,"stemningen":9979,"Lou":9980,"løftet":9981,"spraklige":9982,"Arendal":9983,"hellig":9984,"blu":9985,"dokumentet":9986,"Lind":9987,"speriode":9988,"rest":9989,"Ting":9990,"omhandler":9991,"eksperter":9992,"interessen":9993,"mob":9994,"fagene":9995,"jøp":9996,"stortings":9997,"visninger":9998,"KOM":9999,"rakk":10000,"berre":10001,"alg":10002,"sykt":10003,"arrangere":10004,"kraften":10005,"trakt":10006,"tenner":10007,"stater":10008,"kanal":10009,"Bjer":10010,"avklar":10011,"berømte":10012,"Lønn":10013,"grafikk":10014,"vitamin":10015,"skostnader":10016,"instrumenter":10017,"Michael":10018,"Tinder":10019,"Hard":10020,"samtalen":10021,"Bildet":10022,"odds":10023,"utfordringen":10024,"prioritere":10025,"videreutvikle":10026,"shop":10027,"søppel":10028,"avslutte":10029,"myr":10030,"jød":10031,"betes":10032,"sykkelen":10033,"lagres":10034,"sprosjektet":10035,"Grunnen":10036,"KO":10037,"stimulere":10038,"mørk":10039,"fremste":10040,"opplyst":10041,"Sh":10042,"spredning":10043,"turister":10044,"Live":10045,"trol":10046,"maks":10047,"pasta":10048,"pose":10049,"organis":10050,"frigj":10051,"bibel":10052,"ambul":10053,"skort":10054,"anonym":10055,"konsesjon":10056,"stranden":10057,"avsnitt":10058,"hverken":10059,"dyrt":10060,"atoren":10061,"snivaet":10062,"saktiviteter":10063,"servering":10064,"snummer":10065,"oppløsning":10066,"tredjepart":10067,"support":10068,"overflate":10069,"trykker":10070,"regulert":10071,"golf":10072,"gebyr":10073,"lagde":10074,"Elisabeth":10075,"holt":10076,"mykje":10077,"Eidsv":10078,"cess":10079,"seminar":10080,"sofaen":10081,"Chi":10082,"filmene":10083,"smitte":10084,"kvart":10085,"semester":10086,"Iran":10087,"innkalling":10088,"faktiske":10089,"kostnads":10090,"uller":10091,"sannheten":10092,"NVE":10093,"produk":10094,"fløy":10095,"kontoen":10096,"pir":10097,"eksport":10098,"enorm":10099,"pedagogisk":10100,"attraktive":10101,"muslimske":10102,"motstander":10103,"snøen":10104,"aliserte":10105,"kartlegge":10106,"Ara":10107,"enden":10108,"camping":10109,"detaljert":10110,"inær":10111,"rov":10112,"table":10113,"ive":10114,"øvelsen":10115,"1950":10116,"Strand":10117,"college":10118,"møtene":10119,"oppførsel":10120,"slak":10121,"strategisk":10122,"forhandler":10123,"praksi":10124,"utelukkende":10125,"Foret":10126,"fremmer":10127,"Deltak":10128,"HA":10129,"palestin":10130,"statens":10131,"leverte":10132,"ruten":10133,"begj":10134,"smyndighet":10135,"graden":10136,"terapi":10137,"israel":10138,"Hagen":10139,"Pap":10140,"handelen":10141,"Student":10142,"alternativet":10143,"myke":10144,"unger":10145,"datamaskin":10146,"System":10147,"permisjon":10148,"Samme":10149,"savnet":10150,"budskap":10151,"Skjer":10152,"Thailand":10153,"godkjennes":10154,"Nederland":10155,"unntatt":10156,"parla":10157,"reflekter":10158,"atten":10159,"brede":10160,"pepper":10161,"registrerer":10162,"statlig":10163,"investere":10164,"vitner":10165,"overflaten":10166,"Kirke":10167,"Oppland":10168,"distribusjon":10169,"smid":10170,"søknads":10171,"Lil":10172,"Camp":10173,"Gri":10174,"webcam":10175,"skjøt":10176,"spørselen":10177,"Lands":10178,"Enten":10179,"mødre":10180,"kombinere":10181,"sannsynlighet":10182,"Bol":10183,"Generelt":10184,"sexleketøy":10185,"strene":10186,"pizza":10187,"Lyn":10188,"viet":10189,"arbeidsoppgaver":10190,"muntlig":10191,"anleggs":10192,"gym":10193,"temperaturen":10194,"slatte":10195,"antar":10196,"vekkende":10197,"innendørs":10198,"angri":10199,"truet":10200,"pilot":10201,"formu":10202,"pc":10203,"kreativitet":10204,"grid":10205,"Are":10206,"\":":10207,"glipp":10208,"onger":10209,"Fore":10210,"Model":10211,"cus":10212,"flaske":10213,"uel":10214,"komplisert":10215,"Nesten":10216,"tildeling":10217,"innspil":10218,"artig":10219,"strasjoner":10220,"prioritert":10221,"greier":10222,"strengt":10223,"sprosesser":10224,"Prem":10225,"frigjør":10226,"kjendis":10227,"fortjent":10228,"KR":10229,"Utfor":10230,"sias":10231,"fortrinn":10232,"greie":10233,"atmosfære":10234,"cas":10235,"sch":10236,"testen":10237,"stikker":10238,"bard":10239,"fronten":10240,"orgrad":10241,"Resultatene":10242,"tiviser":10243,"forsvars":10244,"nærhet":10245,"avansert":10246,"Polen":10247,"inntektene":10248,"transpor":10249,"klinisk":10250,"hjelpemidler":10251,"sselskap":10252,"Ani":10253,"møteplassen":10254,"Bibelen":10255,"VER":10256,"Lik":10257,"inspirere":10258,"forskjellene":10259,"aktisk":10260,"teller":10261,"datamaskiner":10262,"Spørsmalet":10263,"IKKE":10264,"vikt":10265,"Dahl":10266,"bygnings":10267,"Sarpsborg":10268,"troen":10269,"tabellen":10270,"kvalifisert":10271,"blandet":10272,"tillitsvalgte":10273,"samspill":10274,"unikt":10275,"eksemplar":10276,"ledige":10277,"Samfunn":10278,"sivile":10279,"statistikken":10280,"belys":10281,"forsvare":10282,"win":10283,"Kurset":10284,"universitetet":10285,"tradisjonelt":10286,"rt":10287,"rektor":10288,"lyder":10289,"fingrene":10290,"diskriminering":10291,"allere":10292,"abo":10293,"Inger":10294,"Dok":10295,"tykk":10296,"kulturen":10297,"NATO":10298,"settingen":10299,"konsern":10300,"Sv":10301,"tørke":10302,"brakt":10303,"utgjøre":10304,"Sval":10305,"helsen":10306,"økningen":10307,"berget":10308,"Anton":10309,"matchmaking":10310,"kona":10311,"Onsdag":10312,"ee":10313,"fanger":10314,"kinesiske":10315,"eth":10316,"begren":10317,"dispo":10318,"damene":10319,"vers":10320,"sonen":10321,"North":10322,"løpere":10323,"analysere":10324,"levd":10325,"cou":10326,"iler":10327,"Mak":10328,"avgjort":10329,"bestemmelsen":10330,"tele":10331,"terra":10332,"some":10333,"funksjonalitet":10334,"beregning":10335,"vner":10336,"eksisterer":10337,"nederst":10338,"Mai":10339,"udd":10340,"modne":10341,"Word":10342,"Flott":10343,"Ku":10344,"logg":10345,"zon":10346,"smarttelefoner":10347,"endelige":10348,"86":10349,"beskytter":10350,"nedlast":10351,"low":10352,"Kost":10353,"virus":10354,"bekymring":10355,"sinst":10356,"sluppet":10357,"aket":10358,"light":10359,"lukt":10360,"glatt":10361,"spilleautomater":10362,"Beskrivelse":10363,"ipp":10364,"foretas":10365,"inngrep":10366,"klærne":10367,"trapp":10368,"Ide":10369,"utsatte":10370,"flytende":10371,"varte":10372,"geland":10373,"Klar":10374,"BA":10375,"søsken":10376,"riket":10377,"….":10378,"yter":10379,"jakten":10380,"blader":10381,"Fast":10382,"utsted":10383,"ungen":10384,"støtt":10385,"kall":10386,"Wh":10387,"fremmet":10388,"røtter":10389,"rog":10390,"Gull":10391,"urett":10392,"selvmord":10393,"menighet":10394,"heft":10395,"vate":10396,"impor":10397,"prosjektering":10398,"plak":10399,"Kommer":10400,"ferske":10401,"sammensla":10402,"bir":10403,"modig":10404,"inkludere":10405,"stykket":10406,"selvtillit":10407,"Max":10408,"trau":10409,"ange":10410,"spissen":10411,"Os":10412,"omfattet":10413,"helikop":10414,"Vak":10415,"gent":10416,"assen":10417,"menings":10418,"regional":10419,"kandidat":10420,"flyktning":10421,"permanent":10422,"ansed":10423,"selige":10424,"vane":10425,"NHO":10426,"Vig":10427,"Wa":10428,"Cu":10429,"modern":10430,"bag":10431,"chatte":10432,"avgjørelsen":10433,"Skriv":10434,"balla":10435,"CE":10436,"Tirsdag":10437,"forbrukere":10438,"gjeste":10439,"strø":10440,"revisjonen":10441,"Kval":10442,"kja":10443,"brakte":10444,"iss":10445,"Perfekt":10446,"brid":10447,"utnyttelse":10448,"apet":10449,"ents":10450,"Trafikk":10451,"ombudet":10452,"stasjonene":10453,"arbeidskraft":10454,"nadd":10455,"fødselen":10456,"vinden":10457,"urik":10458,"verdiskap":10459,"cal":10460,"erob":10461,"nydelige":10462,"oversikten":10463,"knall":10464,"work":10465,"formelle":10466,"kulturer":10467,"Fanta":10468,"kors":10469,"enny":10470,"smake":10471,"oppsig":10472,"sagn":10473,"bela":10474,"undervisnings":10475,"timene":10476,"radgivning":10477,"plassene":10478,"engasjere":10479,"saft":10480,"tydeligvis":10481,"begiven":10482,"Vedtak":10483,"skatter":10484,"organisere":10485,"innsiden":10486,"fornuftig":10487,"debu":10488,"Altsa":10489,"Forsknings":10490,"innsyn":10491,"levelse":10492,"skjult":10493,"muslimer":10494,"suver":10495,"forpliktende":10496,"Aktivitet":10497,"lis":10498,"Arsaken":10499,"oping":10500,"sistens":10501,"dramatisk":10502,"individuell":10503,"ukra":10504,"kommand":10505,"hobby":10506,"stillatelse":10507,"Tok":10508,"Sov":10509,"Olje":10510,"energ":10511,"betalings":10512,"oppsett":10513,"konvensjon":10514,"romantisk":10515,"kontakten":10516,"die":10517,"VI":10518,"96":10519,"gjenger":10520,"midlertid":10521,"holden":10522,"friluftsliv":10523,"bestemmelse":10524,"robu":10525,"Styre":10526,"Angel":10527,"Media":10528,"TT":10529,"tone":10530,"plukke":10531,"ward":10532,"KF":10533,"Eirik":10534,"skolel":10535,"æv":10536,"yngste":10537,"veggene":10538,"Single":10539,"].":10540,"Aur":10541,"antas":10542,"økologisk":10543,"hool":10544,"Eva":10545,"stadion":10546,"Herren":10547,"Irak":10548,"dsen":10549,"unds":10550,"domstol":10551,"strik":10552,"Spesi":10553,"masser":10554,"møttes":10555,"Planen":10556,"Verdi":10557,"tilrettelagt":10558,"halsen":10559,"beholder":10560,"offen":10561,"forbindelser":10562,"operasjonen":10563,"valuering":10564,"juridisk":10565,"Liver":10566,"forespørsel":10567,"tomt":10568,"betalte":10569,"kniv":10570,"August":10571,"forsøket":10572,"trang":10573,"tømmer":10574,"brenner":10575,"hundene":10576,"kalender":10577,"derfra":10578,"Nic":10579,"trenge":10580,"haver":10581,"Eksempel":10582,"Stockholm":10583,"big":10584,"truffet":10585,"diskutert":10586,"Løs":10587,"lisens":10588,"utstillinger":10589,"drom":10590,"skredder":10591,"teringen":10592,"meny":10593,"etting":10594,"hellige":10595,"HP":10596,"barber":10597,"MD":10598,"brand":10599,"Inne":10600,"anerkjent":10601,"posisjonen":10602,"grø":10603,"anbud":10604,"1989":10605,"knapp":10606,"Vek":10607,"løfter":10608,"klinikk":10609,"will":10610,"konsulent":10611,"konstant":10612,"venne":10613,"tum":10614,"enser":10615,"dress":10616,"Andro":10617,"Sau":10618,"fagfolk":10619,"flaten":10620,"Mam":10621,"Øyvind":10622,"sprang":10623,"forlot":10624,"definisjon":10625,"Send":10626,"happy":10627,"orgen":10628,"gravide":10629,"reformen":10630,"ines":10631,"flør":10632,"runden":10633,"etaten":10634,"lomme":10635,"roll":10636,"hørings":10637,"skene":10638,"presenteres":10639,"fritids":10640,"palegg":10641,"Billig":10642,"ønskede":10643,"overføres":10644,"øres":10645,"avgjørelser":10646,"Byen":10647,"kontrollert":10648,"normale":10649,"forholdsvis":10650,"arhundre":10651,"overordnede":10652,"GE":10653,"anledninger":10654,"Budsjett":10655,"JE":10656,"uset":10657,"forløp":10658,"fed":10659,"smelding":10660,"hak":10661,"gia":10662,"alisme":10663,"porte":10664,"berett":10665,"foresatte":10666,"srud":10667,"produsenten":10668,"span":10669,"adop":10670,"Grønn":10671,"dokumentar":10672,"fleksibilitet":10673,"ateri":10674,"omsorgs":10675,"kvinners":10676,"Roma":10677,"ianne":10678,"Pass":10679,"partneren":10680,"keiser":10681,"overføre":10682,"diagnose":10683,"passasjerer":10684,"Gje":10685,"fjernes":10686,"prest":10687,"regiss":10688,"ksus":10689,"setningene":10690,"tto":10691,"Vanlig":10692,"enormt":10693,"Eriksen":10694,"forandring":10695,"oma":10696,"dukke":10697,"kredittkort":10698,"Kraft":10699,"sjeldne":10700,"Profe":10701,"iseres":10702,"ype":10703,"organisasjons":10704,"dahl":10705,"kredi":10706,"Smart":10707,"hals":10708,"Afghan":10709,"øring":10710,"antatt":10711,"melke":10712,"orgas":10713,"sløy":10714,"apenbar":10715,"frakt":10716,"legemiddel":10717,"tlige":10718,"spolit":10719,"vore":10720,"tasje":10721,"uch":10722,"Wal":10723,"Last":10724,"minnet":10725,"hendelse":10726,"bista":10727,"imponert":10728,"svindel":10729,"herlige":10730,"Power":10731,"sæ":10732,"?)":10733,"inse":10734,",\"":10735,"900":10736,"reddet":10737,"Selve":10738,"koke":10739,"idrettslag":10740,"semi":10741,"natta":10742,"''":10743,"iti":10744,"Ah":10745,"katol":10746,"veder":10747,"file":10748,"110":10749,"psyko":10750,"dypere":10751,"ther":10752,"husene":10753,"Imidlertid":10754,"bredden":10755,"halvdel":10756,"overordnet":10757,"innvendig":10758,"møl":10759,"hygi":10760,"alumini":10761,"tilstanden":10762,"basseng":10763,"esti":10764,"Rapport":10765,"arbeidsplassen":10766,"jog":10767,"ance":10768,"Sara":10769,"matvarer":10770,"forbedret":10771,"kontrakten":10772,"høyst":10773,"datamaskinen":10774,"juridiske":10775,"original":10776,"teren":10777,"Nasjonalt":10778,"pek":10779,"pagrepet":10780,"informert":10781,"Group":10782,"</":10783,"gitte":10784,"linken":10785,"Dyr":10786,"map":10787,"vassdrag":10788,"amet":10789,"Øystein":10790,"Android":10791,"personalet":10792,"cover":10793,"stiske":10794,"oppfattet":10795,"head":10796,"spredt":10797,"individer":10798,"teringer":10799,"høyskole":10800,"handlings":10801,"Korea":10802,"bestiller":10803,"Champ":10804,"strikket":10805,"ulem":10806,"ordne":10807,"katalog":10808,"Kal":10809,"Mine":10810,"bis":10811,"ikeren":10812,"pisk":10813,"pas":10814,"uttalte":10815,"reser":10816,"planet":10817,"Ford":10818,"arrester":10819,"skamp":10820,"hinder":10821,"vibr":10822,"92":10823,"sdagen":10824,"forandringer":10825,"forestillinger":10826,"komfortabel":10827,"skir":10828,"klø":10829,"stiv":10830,"Ric":10831,"leiligheter":10832,"Liverpool":10833,"krysset":10834,"sselskapet":10835,"diesel":10836,"poser":10837,"hytter":10838,"beskrives":10839,"mediene":10840,"Bang":10841,"fattigdom":10842,"objekter":10843,"ypt":10844,"skat":10845,"Høyesterett":10846,"Tech":10847,"UM":10848,"pavist":10849,"Stift":10850,"Tips":10851,"83":10852,"logistikk":10853,"apparatet":10854,"Kongsberg":10855,"oppi":10856,"uttrykke":10857,"stemte":10858,"talent":10859,"inngang":10860,"Manchester":10861,"arbeidsplass":10862,"Shar":10863,"refleksjon":10864,"84":10865,"Tone":10866,"oksy":10867,"avslag":10868,"rukket":10869,"NIF":10870,"fasa":10871,"porteføl":10872,"barndom":10873,"rednings":10874,"utsettes":10875,"May":10876,"avisa":10877,"observert":10878,"Skatte":10879,"avgiften":10880,"komne":10881,"bønder":10882,"Job":10883,"økes":10884,"elven":10885,"Hennes":10886,"kvitt":10887,"Økt":10888,"bely":10889,"attraksjoner":10890,"1940":10891,"jfr":10892,"Amer":10893,"istedenfor":10894,"Grat":10895,"standarden":10896,"los":10897,"DER":10898,"begravet":10899,"pleiere":10900,"Psyk":10901,"flukt":10902,"Spa":10903,"Ingrid":10904,"skilsmisse":10905,"kkelige":10906,"anmeldelser":10907,"sinstitusjoner":10908,"ikkel":10909,"logo":10910,"Brun":10911,"skurs":10912,"ng":10913,"forebygging":10914,"Sec":10915,"foreslas":10916,"klubbene":10917,"retningslinjene":10918,"verdenen":10919,"Dame":10920,"bytter":10921,"ience":10922,"eierne":10923,"FA":10924,"intervjuer":10925,"cell":10926,"kjøres":10927,"Kilde":10928,"emne":10929,"julen":10930,"pynt":10931,"plasseres":10932,"slok":10933,"ivaretatt":10934,"mellomrom":10935,"definere":10936,"Home":10937,"oppa":10938,"HS":10939,"skjell":10940,"hormon":10941,"stillingene":10942,"Press":10943,"NG":10944,"ktører":10945,"egges":10946,"pamelding":10947,"skytter":10948,"skremmende":10949,"nekter":10950,"skjev":10951,"installert":10952,"rikt":10953,"malinger":10954,"Oversikt":10955,"forlag":10956,"EA":10957,"friheten":10958,"skaffet":10959,"mestre":10960,"aktuell":10961,"bekjent":10962,"flyr":10963,"tast":10964,"nedre":10965,"Klok":10966,"dage":10967,"sangen":10968,"dybde":10969,"ged":10970,"gum":10971,"engde":10972,"Fø":10973,"arbeidene":10974,"klass":10975,"berettig":10976,"Green":10977,"markeder":10978,"kvadr":10979,"farts":10980,"tilrettelegge":10981,"oversett":10982,"montering":10983,"put":10984,"Vo":10985,"forsink":10986,"Innledning":10987,"Kjer":10988,"diabetes":10989,"varia":10990,"signaler":10991,"sirkul":10992,"Ida":10993,"Møtested":10994,"yoga":10995,"justere":10996,"uttrykket":10997,"orienterte":10998,"overgangen":10999,"ektefelle":11000,"kontaktet":11001,"muskler":11002,"serende":11003,"eieren":11004,"swingers":11005,"ington":11006,"episode":11007,"videok":11008,"plag":11009,"klatre":11010,"avdekket":11011,"rar":11012,"arden":11013,"asylsøkere":11014,"filosofi":11015,"Skien":11016,"stien":11017,"kasse":11018,"voldte":11019,"ypper":11020,"psykiatri":11021,"Apr":11022,"Alexander":11023,"Fy":11024,"varige":11025,"1700":11026,"sas":11027,"Illu":11028,"snur":11029,"balansen":11030,"Nærings":11031,"samiske":11032,"opplegget":11033,"Read":11034,"nyt":11035,"sjansene":11036,"material":11037,"ødelegg":11038,"Frode":11039,"sjeldent":11040,"tegninger":11041,"vor":11042,"smetoder":11043,"Foss":11044,"Sor":11045,"fellesskapet":11046,"kin":11047,"Utdannings":11048,"tros":11049,"overvaking":11050,"visningen":11051,"tynn":11052,"begrunnelse":11053,"utsette":11054,".....":11055,"nærliggende":11056,"hog":11057,"angre":11058,"velferds":11059,"lærerne":11060,"plagg":11061,"fortid":11062,"nerve":11063,"94":11064,"hjelpen":11065,"ligner":11066,"prester":11067,"Gol":11068,"brennende":11069,"Garder":11070,"skry":11071,"Holm":11072,"forumet":11073,"Funksjon":11074,"samvitt":11075,"effektiviser":11076,"leis":11077,"prosedyrer":11078,"Kjetil":11079,"Undersøkelsen":11080,"styrken":11081,"takle":11082,"artist":11083,"PI":11084,"Artikk":11085,"BK":11086,"apchat":11087,"James":11088,"trivsel":11089,"logge":11090,"Sosi":11091,"jøder":11092,"legget":11093,"Bygge":11094,"underlag":11095,"innstillinger":11096,"ots":11097,"sykefravær":11098,"Kompetanse":11099,"SF":11100,"Filmen":11101,"sd":11102,"henvendelser":11103,"eie":11104,"uttalt":11105,"finansielle":11106,"yren":11107,"sproblemer":11108,"forhandlingene":11109,"tain":11110,"ringte":11111,"langsiktige":11112,"slav":11113,"europeisk":11114,"kommersielle":11115,"Enk":11116,"Sat":11117,"fabrikken":11118,"fornybar":11119,"Nettdating":11120,"bik":11121,"inspirerende":11122,"sminke":11123,"forstand":11124,"Skandinav":11125,"stres":11126,"girl":11127,"vidde":11128,"bring":11129,"overleve":11130,"stas":11131,"briller":11132,"Svart":11133,"kutt":11134,"engasjerte":11135,"pressemelding":11136,"testing":11137,"apoteket":11138,"forsyning":11139,"EC":11140,"eien":11141,"trusler":11142,"global":11143,"uavhengige":11144,"nas":11145,"væske":11146,"merkede":11147,"folks":11148,"sammenligning":11149,"komponenter":11150,"utan":11151,"Sund":11152,"Grim":11153,"uheldig":11154,"veie":11155,"eriet":11156,"Out":11157,"Prisen":11158,"vesentlige":11159,"ekstrem":11160,"grunder":11161,"smarte":11162,"Gret":11163,"Simon":11164,"odden":11165,"styreleder":11166,"gunstig":11167,"slite":11168,"Fred":11169,"innover":11170,"Vinter":11171,"sykle":11172,"nettsidene":11173,"forurensning":11174,"HT":11175,"ssystemer":11176,"oppmerksomheten":11177,"drikker":11178,"politidistrikt":11179,"dørene":11180,"teppe":11181,"Viking":11182,"IST":11183,"skuespillere":11184,"gule":11185,"Halden":11186,"King":11187,"stakk":11188,"fokuset":11189,"skomiteen":11190,"figurer":11191,"slettet":11192,"Øvre":11193,"hesten":11194,"Grav":11195,"kampanje":11196,"fordelene":11197,"uther":11198,"konkurrere":11199,"tidens":11200,"formidler":11201,"assosi":11202,"Faktisk":11203,"sprosess":11204,"Juli":11205,"Fla":11206,"somheten":11207,"forelsk":11208,"konstruksjoner":11209,"forkyn":11210,"FoU":11211,"%)":11212,"kommentere":11213,"Lat":11214,"rutine":11215,"kylling":11216,"87":11217,"hverdags":11218,"seksualitet":11219,"oppdaterte":11220,"etterspørsel":11221,"gjensidig":11222,"tens":11223,"skis":11224,"Lise":11225,"DN":11226,"af":11227,"bekk":11228,"ombord":11229,"Vurdering":11230,"1945":11231,"distan":11232,"fleire":11233,"inert":11234,"politikerne":11235,"Programmet":11236,"lunge":11237,"brønn":11238,"restauranten":11239,"fasiliteter":11240,"shemale":11241,"Fru":11242,"dokt":11243,"has":11244,"karbo":11245,"lederne":11246,"SAS":11247,"infeksjon":11248,"Utrolig":11249,"eden":11250,"tilbudt":11251,"dimensjoner":11252,"pumpe":11253,"Skre":11254,"malrettet":11255,"kunsten":11256,"egnes":11257,"koden":11258,"installasjoner":11259,"Synes":11260,"seksuelt":11261,"olusjon":11262,"ubehag":11263,"ratt":11264,"hyppig":11265,"nyhet":11266,"Lillestrøm":11267,"sparer":11268,"kak":11269,"innimellom":11270,"Spillet":11271,"Sentral":11272,"prinse":11273,"kolli":11274,"planlagte":11275,"Afghanistan":11276,"Svalbard":11277,"DV":11278,"ligget":11279,"studiene":11280,"radisjon":11281,"stjernen":11282,"ulykken":11283,"misly":11284,"brukernavn":11285,"SC":11286,"konseptet":11287,"Book":11288,"cho":11289,"Tour":11290,"sekken":11291,"bronse":11292,"ryddet":11293,"rapportert":11294,"mul":11295,"brent":11296,"støp":11297,"gger":11298,"Coun":11299,"omfatte":11300,"bekjempe":11301,"Arild":11302,"ekstreme":11303,"sikk":11304,"fylles":11305,"invitere":11306,"eksklusive":11307,"omfanget":11308,"reell":11309,"lekka":11310,"dor":11311,"ror":11312,"Strateg":11313,"high":11314,"taus":11315,"bosted":11316,"romer":11317,"vas":11318,"Spr":11319,"Jesu":11320,"Nov":11321,"tilbringe":11322,"spanske":11323,"bakover":11324,"pende":11325,"Egypt":11326,"baserer":11327,"ekan":11328,"livskvalitet":11329,"PDF":11330,"strekning":11331,"ekort":11332,"afrik":11333,"Even":11334,"drepe":11335,"tette":11336,"vete":11337,"offisielt":11338,"grus":11339,"livets":11340,"cket":11341,"uttalelser":11342,"ux":11343,"begei":11344,"konven":11345,"smøter":11346,"jødiske":11347,"prestasjoner":11348,"installere":11349,"adressen":11350,"laser":11351,"originale":11352,"Avtalen":11353,"savner":11354,"hær":11355,"spekt":11356,"Osc":11357,"Naken":11358,"fremmede":11359,"vinneren":11360,"ledig":11361,"inngangen":11362,"ktivet":11363,"score":11364,"down":11365,"skit":11366,"mørkt":11367,"funksjonshemmede":11368,"revidert":11369,"FrP":11370,"veld":11371,"lyser":11372,"betennelse":11373,"omtaler":11374,"93":11375,"sjarmer":11376,"Nordic":11377,"bredere":11378,"DET":11379,"feiret":11380,"Kil":11381,"Ars":11382,"operativ":11383,"vandring":11384,"levetid":11385,"bakterier":11386,"Administ":11387,"sjet":11388,"uttale":11389,"detaljerte":11390,"administrerende":11391,"tennene":11392,"Prak":11393,"avgrens":11394,"petrole":11395,"kjennes":11396,"blind":11397,"oppgradering":11398,"skreddersy":11399,"oppføring":11400,"dose":11401,"desto":11402,"etterretning":11403,"førere":11404,"forutsatt":11405,"miljøvennlig":11406,"lurte":11407,"aværende":11408,"ssykehus":11409,"lytter":11410,"styrte":11411,"Vg":11412,"drivende":11413,"markert":11414,"bryster":11415,"ulære":11416,"merking":11417,"agement":11418,"Publisert":11419,"ologien":11420,"fjerning":11421,"betalinger":11422,"Rolf":11423,"Gjøvik":11424,"oppnar":11425,"eid":11426,"Sla":11427,"mera":11428,"emosjon":11429,"edyr":11430,"Europas":11431,"action":11432,"oversatt":11433,"universiteter":11434,"kundeservice":11435,"oppslag":11436,"ilsynet":11437,"Gruppen":11438,"frister":11439,"81":11440,"plat":11441,"ML":11442,"hentes":11443,"3000":11444,"Meto":11445,"lastet":11446,"dater":11447,"stabilt":11448,"kling":11449,"potensial":11450,"91":11451,"Ske":11452,"Mobil":11453,"orgasme":11454,"poly":11455,"ravarer":11456,"gjennomga":11457,"nestleder":11458,"bachelor":11459,"drakt":11460,"begynn":11461,"puter":11462,"fallende":11463,"statsbudsjettet":11464,"utviklere":11465,"omo":11466,"Røy":11467,"FL":11468,"konkurransed":11469,"Opplys":11470,"elite":11471,"stilen":11472,"sedirektoratet":11473,"formet":11474,"forandre":11475,"eierskap":11476,"Cro":11477,"dian":11478,"kabel":11479,"Hjelp":11480,"lans":11481,"gjenspeil":11482,"viktigheten":11483,"saman":11484,"TV2":11485,"OP":11486,"Siri":11487,"innvilget":11488,"ssyk":11489,"ulikt":11490,"stiftelsen":11491,"bod":11492,"svurder":11493,"respons":11494,"kjeder":11495,"gjødsel":11496,"KT":11497,"innse":11498,"advok":11499,"Samarbeid":11500,"Kristoffer":11501,"modi":11502,"sløsninger":11503,"samliv":11504,"utallige":11505,"billed":11506,"sidan":11507,"hevde":11508,"særdeles":11509,"konsentrasjon":11510,"ritu":11511,"tenaringer":11512,"inkl":11513,"Match":11514,"eselskap":11515,"Set":11516,"kjemiske":11517,"Sovjet":11518,"Bilde":11519,"barri":11520,"flater":11521,"livssyn":11522,"notat":11523,"Romer":11524,"Mex":11525,"Nat":11526,"Ori":11527,"teknologiske":11528,"bølge":11529,"Hanne":11530,"Vei":11531,"Bestem":11532,"fortelling":11533,"Ang":11534,"novel":11535,"Im":11536,"Meld":11537,"samlivs":11538,"Para":11539,"Harstad":11540,"sakk":11541,"Donald":11542,"Digital":11543,"langvarig":11544,"spensjon":11545,"reen":11546,"poenget":11547,"rist":11548,"ungdommene":11549,"utførelse":11550,"NN":11551,"prøven":11552,"Harry":11553,"vaknet":11554,"rekkefølge":11555,"Konklu":11556,"lider":11557,"beskrivelser":11558,"Premier":11559,"pur":11560,"OPP":11561,"stevne":11562,"begreper":11563,"Mattilsynet":11564,"investerings":11565,"formelt":11566,"varierte":11567,"There":11568,"Pil":11569,"Utt":11570,"tilpasses":11571,"ogni":11572,"humør":11573,"Hilde":11574,"fans":11575,"hjørnet":11576,"Viser":11577,"kopier":11578,"bebygg":11579,"klasses":11580,"Kenn":11581,"Glob":11582,"ont":11583,"gatene":11584,"Lykke":11585,"GPS":11586,"180":11587,"angrer":11588,"blodet":11589,"Hov":11590,"kreativ":11591,"toalett":11592,"medhold":11593,"kles":11594,"beretning":11595,"Sag":11596,"Rel":11597,"vester":11598,"reparasjon":11599,"formell":11600,"brettet":11601,"tjent":11602,"brenne":11603,"diplom":11604,"stell":11605,"intensitet":11606,"saret":11607,"egenk":11608,"Pam":11609,"seffek":11610,"Hellas":11611,"bekreftelse":11612,"hite":11613,"republi":11614,"utbredt":11615,"sium":11616,"trodd":11617,"setet":11618,"Møtet":11619,"uriktige":11620,"anvendelse":11621,"besta":11622,"talls":11623,"Journ":11624,"damp":11625,"innene":11626,"?»":11627,"varighet":11628,"ktoren":11629,"liknende":11630,"roms":11631,"arrestert":11632,"telt":11633,"etableres":11634,"spansk":11635,"edato":11636,"sitater":11637,"Riktig":11638,"nadde":11639,"Syste":11640,"Lam":11641,"prate":11642,"olj":11643,"popular":11644,"It":11645,"coach":11646,"vul":11647,"Unge":11648,"database":11649,"budskapet":11650,"forarsaket":11651,"skips":11652,"DNA":11653,"tydelige":11654,"overraskelse":11655,"nettleseren":11656,"board":11657,"postadresse":11658,"flag":11659,"Sveits":11660,"pakt":11661,"falsk":11662,"jæv":11663,"asiatisk":11664,"seinere":11665,"modellene":11666,"institusjonen":11667,"spenn":11668,"ekstern":11669,"df":11670,"Ret":11671,"tegning":11672,"belysning":11673,"skjeden":11674,"MR":11675,"tilhørighet":11676,"skandinav":11677,"Bedre":11678,"ix":11679,"tøft":11680,"fjerner":11681,"drømmen":11682,"Hjer":11683,"fascinerende":11684,"selgere":11685,"jakke":11686,"aling":11687,"hjert":11688,"flyplass":11689,"konsernet":11690,"finansiert":11691,"fineste":11692,"1988":11693,"pse":11694,"tilfredsstille":11695,"oppu":11696,"kjær":11697,"spris":11698,"Gun":11699,"skjø":11700,"benken":11701,"desper":11702,"spreng":11703,"trussel":11704,"forfall":11705,"arbeidelse":11706,"elevenes":11707,"Lab":11708,"progno":11709,"ssikkerhet":11710,"jenestene":11711,"puste":11712,"lengden":11713,"ym":11714,"kirker":11715,"Business":11716,"Veil":11717,"ated":11718,"kas":11719,"tverrfaglig":11720,"Lofoten":11721,"utroskap":11722,"føde":11723,"Rock":11724,"Club":11725,"Godkjenning":11726,"refusjon":11727,"hoppet":11728,"yrker":11729,"ASA":11730,"tegnede":11731,"deltagere":11732,"frustr":11733,"utslippene":11734,"GR":11735,"kanalen":11736,"objekt":11737,"ican":11738,"hjulpet":11739,"1600":11740,"baser":11741,"høyder":11742,"bestatt":11743,"sos":11744,"Venner":11745,"listene":11746,"anledningen":11747,"pagaende":11748,"ativet":11749,"bly":11750,"very":11751,"mentasjon":11752,"strategiske":11753,"skultur":11754,"----":11755,"lisen":11756,"Sur":11757,"cast":11758,"Elite":11759,"Kyst":11760,"brua":11761,"tenberg":11762,"ingredienser":11763,"Victoria":11764,"akterer":11765,"grill":11766,"frykter":11767,"avsluttes":11768,"oppfattes":11769,"130":11770,"gater":11771,"reelle":11772,"lidelse":11773,"enslige":11774,"skli":11775,"nettbutikken":11776,"innovative":11777,"avvist":11778,"akseptert":11779,"godtgjørelse":11780,"seriøs":11781,"Total":11782,"Marianne":11783,"kanter":11784,"Eier":11785,"intim":11786,"dun":11787,"Bergens":11788,"palitelig":11789,"seringen":11790,"norwegian":11791,"EP":11792,"bonuser":11793,"observasjoner":11794,"Vag":11795,"elektro":11796,"dir":11797,"Turen":11798,"char":11799,"forekommer":11800,"ssive":11801,"Nik":11802,"Ster":11803,"aliforn":11804,"arkivet":11805,"ankomst":11806,"føttene":11807,"Forum":11808,"primær":11809,"Rand":11810,"heste":11811,"smøn":11812,"aps":11813,"oly":11814,"dren":11815,"Ukraina":11816,"cation":11817,"steknologi":11818,"lev":11819,"youtube":11820,"Teknisk":11821,"variasjoner":11822,"produseres":11823,"ivrig":11824,"angaende":11825,"endet":11826,"Johnsen":11827,"Selvfølgelig":11828,"Juni":11829,"Livet":11830,"kkere":11831,"kjede":11832,"gevinst":11833,"Kommentar":11834,"kristi":11835,"hemmelige":11836,"radik":11837,"syd":11838,"borett":11839,"conta":11840,"nese":11841,"Mest":11842,"Marius":11843,"heving":11844,"folkehelse":11845,"Klubb":11846,"key":11847,"konserv":11848,"innet":11849,"boy":11850,"lywood":11851,"antik":11852,"kvarter":11853,"oppfatter":11854,"lenker":11855,"HE":11856,"giv":11857,"statsborger":11858,"Los":11859,"luksus":11860,"ofre":11861,"varsling":11862,"fokusert":11863,"kriminelle":11864,"Lys":11865,"realisere":11866,"bena":11867,"kledd":11868,"idretten":11869,"apparat":11870,"lon":11871,"ordane":11872,"deriblant":11873,"ado":11874,"nysgjerrig":11875,"Pan":11876,"pine":11877,"gavene":11878,"rem":11879,"Kristiansen":11880,"følelsene":11881,"fradrag":11882,"kontant":11883,"sammensetning":11884,"presenterte":11885,"talet":11886,"rommene":11887,"bekrefte":11888,"mottaker":11889,"indirekte":11890,"kjønnslepper":11891,"Turi":11892,"shore":11893,"stemmerett":11894,"Egen":11895,"læreren":11896,"antagelig":11897,"350":11898,"sno":11899,"tilsku":11900,"evaluer":11901,"read":11902,"stes":11903,"personale":11904,"biologiske":11905,"ogner":11906,"utfyl":11907,"lund":11908,"konkurransedykt":11909,"Forlagets":11910,"sjokk":11911,"digitalt":11912,"varierende":11913,"tidene":11914,"CV":11915,"alifornia":11916,"Elekt":11917,"strukturen":11918,"Kamp":11919,"avdekke":11920,"endringen":11921,"diskusjonen":11922,"strer":11923,"modus":11924,"MED":11925,"Laget":11926,"avkastning":11927,"right":11928,"Tun":11929,"yp":11930,"tørket":11931,"antak":11932,"Igjen":11933,"indikerer":11934,"elementene":11935,"narkotika":11936,"megler":11937,"orget":11938,"IKK":11939,"synge":11940,"føtter":11941,"host":11942,"tryggere":11943,"Bakgrunnen":11944,"%,":11945,"utsikten":11946,"foregikk":11947,"gjekk":11948,"1920":11949,"zer":11950,"bonde":11951,"field":11952,"Fest":11953,"come":11954,"1985":11955,"kjærlighets":11956,"minutters":11957,"aktiver":11958,"skjønt":11959,"rekk":11960,"krevde":11961,"Cle":11962,"dok":11963,"egenskapene":11964,"realistisk":11965,"holdende":11966,"opptrer":11967,"møt":11968,"fortellinger":11969,"Ken":11970,"formiddag":11971,"lend":11972,"traden":11973,"eies":11974,"steiner":11975,"skadelig":11976,"frekvens":11977,"fremtidig":11978,"armene":11979,"drepte":11980,"knu":11981,"voldtekt":11982,"møre":11983,"YouTube":11984,"'.":11985,"LA":11986,"elg":11987,"løypa":11988,"engen":11989,"ømmet":11990,"RHF":11991,"folkene":11992,"allefall":11993,";-)":11994,"oppfordret":11995,"aksepterer":11996,"kampanjen":11997,"Stoltenberg":11998,"reflektere":11999,"Kristine":12000,"kvalifiserte":12001,"dretter":12002,"integrering":12003,"Adam":12004,"5000":12005,"Wo":12006,"Pop":12007,"førsteklasses":12008,"Ball":12009,"mattet":12010,"eksjon":12011,"cellene":12012,"kjøringen":12013,"Evaluering":12014,"steget":12015,"Gjennomsnitt":12016,"væp":12017,"landske":12018,"boende":12019,"koser":12020,"alarm":12021,"unngar":12022,"Ulle":12023,"vanns":12024,"bokser":12025,"berørte":12026,"utfordre":12027,"ami":12028,"arn":12029,"holdere":12030,"maker":12031,"Disk":12032,"nytter":12033,"Resten":12034,"abort":12035,"analysen":12036,"kostet":12037,"well":12038,"videos":12039,"baren":12040,"Nina":12041,"samferdsel":12042,"flertallet":12043,"NP":12044,"fjellene":12045,"Open":12046,"bevart":12047,"Wikipedia":12048,"kontorer":12049,"ethvert":12050,"kontaktannonse":12051,"non":12052,"scanpix":12053,"stillings":12054,"cking":12055,"kjapt":12056,"distriktet":12057,"minus":12058,"ihvertfall":12059,"Selskap":12060,"detaljene":12061,"stipend":12062,"kkelt":12063,"sisten":12064,"berørt":12065,"dedik":12066,"journal":12067,"kontrakter":12068,"Flor":12069,"feltene":12070,"institusjonene":12071,"helikopter":12072,"aktivitetene":12073,"strekke":12074,"datoer":12075,"attest":12076,"svikt":12077,"nyter":12078,"pastand":12079,"ubehagelig":12080,"sidige":12081,"1930":12082,"mønstre":12083,"az":12084,"AFP":12085,"Fokus":12086,"arenaer":12087,"py":12088,"gangene":12089,"arke":12090,"halvar":12091,"koder":12092,"prefer":12093,"ETT":12094,"Scanpix":12095,"Museum":12096,"restrik":12097,"Innen":12098,"japanske":12099,"ullet":12100,"Kristen":12101,"George":12102,"Aa":12103,"Elver":12104,"tidlige":12105,"males":12106,"Ze":12107,"uttere":12108,"dyrere":12109,"heimen":12110,"aliserer":12111,"Senior":12112,"stier":12113,"glø":12114,"ckey":12115,"telle":12116,"skjørt":12117,"BT":12118,"ader":12119,"publisering":12120,"partiets":12121,"strategien":12122,"sannhet":12123,"skatten":12124,"amilla":12125,"skoene":12126,"cs":12127,"gods":12128,"kopp":12129,"strakt":12130,"malte":12131,"gevinster":12132,"rettighetene":12133,"fungerende":12134,"batene":12135,"abel":12136,"General":12137,"rive":12138,"tales":12139,"broren":12140,"Trav":12141,"knytter":12142,"ips":12143,"beregninger":12144,"SD":12145,"tabl":12146,"bombe":12147,"sapp":12148,"demokratiske":12149,"ining":12150,"ftt":12151,"Begyn":12152,"Hotellet":12153,"Office":12154,"toll":12155,"Eksempler":12156,"idt":12157,"Erna":12158,"edager":12159,"Middel":12160,"jørdal":12161,"Høst":12162,"arbeidsled":12163,"strekningen":12164,"matikken":12165,"knyttes":12166,"Gjel":12167,"foreles":12168,"gripe":12169,"turneringen":12170,"landslag":12171,"nøytr":12172,"mannlig":12173,"trakasser":12174,"Time":12175,"utsiden":12176,"nyttar":12177,"oppretter":12178,"aggres":12179,"sver":12180,"Erfar":12181,"ventilasjon":12182,"kliniske":12183,"uføre":12184,"typiske":12185,"bærekraft":12186,"utten":12187,"kompati":12188,"agte":12189,"1986":12190,"solide":12191,"hrine":12192,"tilbudene":12193,"bestillinger":12194,"Vestlandet":12195,"høgskolen":12196,"sape":12197,"hyper":12198,"Amat":12199,"skjermer":12200,"mentale":12201,"Ditt":12202,"misbruk":12203,"angs":12204,"strening":12205,"kno":12206,"was":12207,"unionen":12208,"ula":12209,"Omradet":12210,"signert":12211,"Kjønn":12212,"gjenta":12213,"klet":12214,"celona":12215,"globalt":12216,"individuelt":12217,"rytter":12218,"skifter":12219,"kommunest":12220,"Ran":12221,"ektor":12222,"revisjons":12223,"Oba":12224,"operatør":12225,"Statistisk":12226,"tunnel":12227,"forferdelig":12228,"legene":12229,"utkikk":12230,"1987":12231,"Høsten":12232,"maksimal":12233,"rammene":12234,"spesifikt":12235,"Entre":12236,"dødsfall":12237,"utnevnt":12238,"stoffene":12239,"risikerer":12240,"piller":12241,"skjule":12242,"Jose":12243,"Dre":12244,"KJ":12245,"krone":12246,"feiring":12247,"gjennomgaende":12248,"Narvik":12249,"vint":12250,"Lie":12251,"bour":12252,"isasjon":12253,"infeksjoner":12254,"Champions":12255,"grensesnitt":12256,"spesifikk":12257,"saksbehandling":12258,"Avi":12259,"forstyrrelser":12260,"DEL":12261,"Eidsvoll":12262,"forbehold":12263,"bere":12264,"][":12265,"mobiltelefon":12266,"resulterte":12267,"140":12268,"vederlag":12269,"slovens":12270,"unnskyl":12271,"vald":12272,"MIN":12273,"Valerenga":12274,"virkemiddel":12275,"Leverand":12276,"løsningene":12277,"arhun":12278,"maksimalt":12279,"ategori":12280,"stian":12281,"naz":12282,"skitt":12283,"innredning":12284,"produsentene":12285,"oksygen":12286,"særlige":12287,"sammensatt":12288,"feber":12289,"Che":12290,"forbedringer":12291,"lekker":12292,"hjørne":12293,"aku":12294,"prof":12295,"kosm":12296,"skop":12297,"tenkning":12298,"tilfellene":12299,"aluminium":12300,"regioner":12301,"Etab":12302,"elin":12303,"sykling":12304,"utenlandsk":12305,"Ville":12306,"sviger":12307,"rd":12308,"spore":12309,"sgrunn":12310,"nærme":12311,"anerkjennelse":12312,"svakt":12313,"skompetanse":12314,"Teamet":12315,"teen":12316,"Jakten":12317,"(«":12318,"Kvinn":12319,"CR":12320,"prinsipp":12321,"ulv":12322,"retningen":12323,"behandlinger":12324,"emnet":12325,"Vidar":12326,"japansk":12327,"times":12328,"ligg":12329,"musikere":12330,"konkurrent":12331,"karakterer":12332,"mistanke":12333,"Trenger":12334,"\"-":12335,"ending":12336,"suger":12337,"Daglig":12338,"ston":12339,"take":12340,"arsakene":12341,"Oscar":12342,"Sverre":12343,"henting":12344,"kvadrat":12345,"obligatorisk":12346,"hever":12347,"bekymringer":12348,"Konkurran":12349,"VAR":12350,"tw":12351,"skyting":12352,"lens":12353,"Tryg":12354,"dise":12355,"brenning":12356,"MØ":12357,"messe":12358,"stemt":12359,"nordover":12360,"pikk":12361,"melsen":12362,"oke":12363,"serne":12364,"overta":12365,"biologisk":12366,"maraton":12367,"øster":12368,"dekkende":12369,"korrup":12370,"Stortingets":12371,"SFO":12372,"utgjorde":12373,"ALL":12374,"virtu":12375,"aliteter":12376,"kampanjer":12377,"utbetaling":12378,"bransjer":12379,"tradte":12380,"tilnærmet":12381,"Mør":12382,"inneholdt":12383,"Forrige":12384,"did":12385,"systemene":12386,"menneskerettigheter":12387,"yper":12388,"eliv":12389,"sinne":12390,"ject":12391,"arrangerte":12392,"ical":12393,"provin":12394,"summen":12395,"stens":12396,"manglet":12397,"mesteparten":12398,"skjæring":12399,"tting":12400,"opererer":12401,"Apen":12402,"flinkere":12403,"provo":12404,"grunnskolen":12405,"skyldig":12406,"Gardermoen":12407,"Iver":12408,"Bad":12409,"Forslaget":12410,"hosp":12411,"pagar":12412,"doktorgrad":12413,"Dog":12414,"ferden":12415,"politiets":12416,"vurderte":12417,"Dal":12418,"nyhetsbrev":12419,"kvele":12420,"lønner":12421,"blatt":12422,"oppdateres":12423,"helsetil":12424,"word":12425,"sjette":12426,"italienske":12427,"Jun":12428,"lakse":12429,"Smith":12430,"HV":12431,"return":12432,"tynne":12433,"Magne":12434,"fjær":12435,"cur":12436,"tlf":12437,"Østlandet":12438,"smaken":12439,"isolasjon":12440,"fos":12441,"latin":12442,"kjøpere":12443,"Imp":12444,"alternativene":12445,"Karen":12446,"num":12447,"messen":12448,"formene":12449,"coun":12450,"valgene":12451,"influ":12452,"Logg":12453,"lipp":12454,"verter":12455,"bero":12456,"skadd":12457,"Klubben":12458,"turene":12459,"Center":12460,"merverdi":12461,"papirer":12462,"kortene":12463,"sammenhengende":12464,"finansiere":12465,"ideelle":12466,"elv":12467,"Arn":12468,"kvinnelig":12469,"skygge":12470,"chan":12471,"bølger":12472,"rich":12473,"holmen":12474,"Ama":12475,"utre":12476,"departe":12477,"orke":12478,"skarp":12479,"klimag":12480,"stinget":12481,"applikasjoner":12482,"ernæring":12483,"trøtt":12484,"sparti":12485,"Gleder":12486,"tørt":12487,"bankene":12488,"pulver":12489,"etterfulgt":12490,"lagmanns":12491,"ISO":12492,"ingens":12493,"Hydro":12494,"reiseliv":12495,"Sigur":12496,"forblir":12497,"tat":12498,"antrekk":12499,"skinner":12500,"lufta":12501,"arealet":12502,"oppsikt":12503,"takker":12504,"hann":12505,"trøn":12506,"makter":12507,"Salt":12508,"flørte":12509,"samfunnets":12510,"fiserte":12511,"utvendig":12512,"Rasmus":12513,"dumt":12514,"kassen":12515,"alisten":12516,"forlatt":12517,"statene":12518,"pers":12519,"itære":12520,"instruktør":12521,"ferdighet":12522,"fryktelig":12523,"BO":12524,"heilt":12525,"forestilling":12526,"fjorarets":12527,"hs":12528,"IO":12529,"britisk":12530,"House":12531,"valt":12532,"saus":12533,"evangel":12534,"redaksjon":12535,"Atlan":12536,"prestasjon":12537,"oljen":12538,"tradisjonen":12539,"adresser":12540,"sio":12541,"Tim":12542,"HEL":12543,"givelse":12544,"konserten":12545,"verst":12546,"syrer":12547,"innebære":12548,"landslaget":12549,"svarene":12550,"nemnda":12551,"Ton":12552,"tromsø":12553,"forbudet":12554,"Amund":12555,"Link":12556,"Bort":12557,"reng":12558,"Arbeidsgiver":12559,"forklart":12560,"prostitu":12561,"ENT":12562,"setnings":12563,"lengste":12564,"tingen":12565,"tyngre":12566,"økter":12567,"Download":12568,"Nedre":12569,"fastsettes":12570,"avnet":12571,"bling":12572,"Cec":12573,"bian":12574,"Seksjon":12575,"medalje":12576,"Mexico":12577,"leken":12578,"tantra":12579,"testa":12580,":-":12581,"Mette":12582,"pdf":12583,"Forskrift":12584,"fugle":12585,"grunnskole":12586,"filtr":12587,"ors":12588,"Haugen":12589,"List":12590,"Mes":12591,"ulering":12592,"folketryg":12593,"magasinet":12594,"flybilletter":12595,"massevis":12596,"gne":12597,"natte":12598,"forsikre":12599,"elimin":12600,"romanen":12601,"veig":12602,"Xxx":12603,"vies":12604,"ids":12605,"pornofilmer":12606,"Verden":12607,"glemmer":12608,"byraet":12609,"kinesisk":12610,"troller":12611,"Ragn":12612,"rose":12613,"klæring":12614,"ople":12615,"massiv":12616,"HL":12617,"pak":12618,"borti":12619,"snor":12620,"DU":12621,"Yo":12622,"smodell":12623,"katolske":12624,"Aud":12625,"regimet":12626,"hopper":12627,"Stem":12628,"Syl":12629,"topper":12630,"sliste":12631,"ekspedi":12632,"maet":12633,"Egil":12634,"følelses":12635,"signer":12636,"tilsendt":12637,"pens":12638,"kjemi":12639,"see":12640,"tarn":12641,"terrenget":12642,"visende":12643,"marine":12644,"Phot":12645,"ial":12646,"funksjonsevne":12647,"enkeltpersoner":12648,"Privat":12649,"inviterte":12650,"ytelser":12651,"fortvil":12652,"FOTO":12653,"160":12654,"Brønn":12655,"splay":12656,"fisere":12657,"avi":12658,"Radmannen":12659,"xy":12660,"Kombin":12661,"Matt":12662,"plattformen":12663,"bydel":12664,"komplekse":12665,"overbevist":12666,"beregne":12667,"kursen":12668,"problematisk":12669,"israelske":12670,"cord":12671,"liga":12672,"konklusjon":12673,"redskap":12674,"bitt":12675,"1200":12676,"Være":12677,"eiendommer":12678,"befolknings":12679,"Hotell":12680,"Heidi":12681,"Foreldre":12682,"Stiftelsen":12683,"nynorsk":12684,"bind":12685,"tilpasning":12686,"baller":12687,"Formannskapet":12688,"Hvilken":12689,"tions":12690,"flyttes":12691,"ytrings":12692,"sløse":12693,"world":12694,"nasjoner":12695,"ssekret":12696,"Avdeling":12697,",-.":12698,"attraktiv":12699,"Kommunestyret":12700,"undersøkelsene":12701,"leses":12702,"leverandøren":12703,"aldre":12704,"Barcelona":12705,"stran":12706,"Dar":12707,"innhente":12708,"mandat":12709,"keland":12710,"smeld":12711,"sele":12712,"Bay":12713,"utviklingshem":12714,"hengere":12715,"Brei":12716,"leiet":12717,"GG":12718,"coin":12719,"nerv":12720,"forstaelsen":12721,"Que":12722,"beite":12723,"Helsedirektoratet":12724,"Deg":12725,"beskrivelsen":12726,"ligaen":12727,"manager":12728,"vasker":12729,"ivaretar":12730,"Roger":12731,"domstolen":12732,"stranda":12733,"standardi":12734,"involverte":12735,"normer":12736,"kristians":12737,"tilbak":12738,"registreres":12739,"hvitløk":12740,"Up":12741,"formann":12742,"Rosenborg":12743,"CH":12744,"kosten":12745,"nordisk":12746,"avl":12747,"Snø":12748,"smykker":12749,"?\"":12750,"markere":12751,"tivert":12752,"prioritering":12753,"fantasier":12754,"Stian":12755,"gid":12756,"innstilt":12757,"botn":12758,"arsverk":12759,"Personlig":12760,"kum":12761,"æk":12762,"max":12763,"avgjøres":12764,"serverer":12765,"tilfredshet":12766,"forega":12767,"avgang":12768,"Trine":12769,"foretar":12770,"jordbruk":12771,"leiren":12772,"hovedstad":12773,"Pra":12774,"blokk":12775,"asfalt":12776,"tokoll":12777,"spraksis":12778,"drøyt":12779,"Cap":12780,"konkurrer":12781,"spesialisert":12782,"opptreden":12783,"foreningens":12784,"katter":12785,"Sir":12786,"Materi":12787,"brosj":12788,"terri":12789,"Nakne":12790,"skapes":12791,"open":12792,"ÆR":12793,"Sus":12794,"departementets":12795,"grunne":12796,"itz":12797,"polen":12798,"usalem":12799,"arrangør":12800,"escorts":12801,"ressen":12802,"pra":12803,"sensor":12804,"kopiere":12805,"Flat":12806,"komfortabelt":12807,"forsikrings":12808,"pedagogiske":12809,"Fjordane":12810,"komplek":12811,"report":12812,"Fortsatt":12813,"ties":12814,"Snak":12815,"oppgra":12816,"bevisste":12817,"Sprak":12818,"Alf":12819,"fiskeri":12820,"styremøte":12821,"Ask":12822,"HET":12823,"vedtekt":12824,"ologer":12825,"Trygg":12826,"Clo":12827,"dringene":12828,"sarbare":12829,"sponsor":12830,"Bjar":12831,"beslag":12832,"Gab":12833,"stro":12834,"dump":12835,"soverom":12836,"optimalisering":12837,"AA":12838,"angar":12839,"egenkapital":12840,"sekretari":12841,"Sports":12842,"Oppdrag":12843,"temaene":12844,"middels":12845,"​​":12846,"skjem":12847,"domen":12848,"Silje":12849,"produserte":12850,"say":12851,"redigere":12852,"dommere":12853,"eled":12854,"menigheten":12855,"Stre":12856,"fas":12857,"Cecil":12858,"Kommunikasjon":12859,"arbeidsgivere":12860,"Wash":12861,"meta":12862,"distanse":12863,"Navnet":12864,"universitets":12865,"ular":12866,"sons":12867,"bob":12868,"IB":12869,"!»":12870,"Defin":12871,"konkurs":12872,"Hvit":12873,"sorti":12874,"samvær":12875,"sjarmerende":12876,"terapeut":12877,"flasker":12878,"brannen":12879,"Enkelt":12880,"Endre":12881,"Nr":12882,"potensielt":12883,"skran":12884,"kenes":12885,"belt":12886,"knytt":12887,"utøvelse":12888,"kondi":12889,"pati":12890,"arabiske":12891,"usikre":12892,"rettslige":12893,"leid":12894,"forstaelig":12895,"leseren":12896,"Okt":12897,"Tal":12898,"krydder":12899,"omfattes":12900,"Stok":12901,"observasjon":12902,"kvaliteter":12903,"Tør":12904,"innvirkning":12905,"iører":12906,"spolitikken":12907,"ture":12908,"Varen":12909,"brystet":12910,"beregnes":12911,"ela":12912,"krang":12913,"trend":12914,"animasjon":12915,"ktorat":12916,"bund":12917,"Helgeland":12918,"dressen":12919,"skaret":12920,"bestilte":12921,"konflikten":12922,"rettslig":12923,"email":12924,"blande":12925,"stabile":12926,"artene":12927,"ansvars":12928,"soner":12929,"Kry":12930,"bue":12931,"begrunnet":12932,"abonnement":12933,"__":12934,"pik":12935,"Ordfører":12936,"PRO":12937,"Siv":12938,"ey":12939,"elling":12940,"heile":12941,"fysioter":12942,"ruset":12943,"Bedri":12944,"pinne":12945,"kering":12946,"Ib":12947,"utenlands":12948,"klikker":12949,"strukturer":12950,"Jerusalem":12951,"mit":12952,"anony":12953,"oppstatt":12954,"utvil":12955,"Troll":12956,"Hjemme":12957,"elet":12958,"kjemikal":12959,"krysse":12960,"fordøy":12961,"iklene":12962,"utbygg":12963,"Mathi":12964,"Søl":12965,"undersøker":12966,"foretaket":12967,"house":12968,"Administr":12969,":.":12970,"air":12971,"mingen":12972,"tilstander":12973,"ungdomsskole":12974,"Foreløpig":12975,"forvalter":12976,"Elverum":12977,"stream":12978,"universell":12979,"Presen":12980,"hakk":12981,"forklarte":12982,"Forskj":12983,"sprodukter":12984,"ritt":12985,"tenkelige":12986,"bloggere":12987,"instrument":12988,"Bedrift":12989,"atret":12990,"rafikk":12991,"fysikk":12992,"beboere":12993,"kroppens":12994,"Sea":12995,"kombinasjoner":12996,"cra":12997,"trender":12998,"utfordrer":12999,"ksen":13000,"sjene":13001,"Veien":13002,"bber":13003,"naboer":13004,"tics":13005,"oppfører":13006,"overhodet":13007,"kronisk":13008,"ekor":13009,"sunne":13010,"Handels":13011,"cruise":13012,"splikten":13013,"Human":13014,"framtid":13015,"aldrende":13016,"belte":13017,"dirig":13018,"sint":13019,"iPad":13020,"Street":13021,"Lokal":13022,"Mennesker":13023,"Skar":13024,"Effek":13025,"Aldri":13026,"ORT":13027,"alando":13028,"innrømmer":13029,"Love":13030,"dent":13031,"1984":13032,"øper":13033,"geby":13034,"erklæring":13035,"aspekter":13036,"foregaende":13037,"løping":13038,"ovnen":13039,"ulin":13040,"spesialister":13041,"hjemmesiden":13042,"andeler":13043,"løype":13044,"Matte":13045,"Blom":13046,"m2":13047,"Mjø":13048,"presidenten":13049,"SIN":13050,"belegg":13051,"nøkkelen":13052,"inspek":13053,"kosty":13054,"savidt":13055,"Mur":13056,"bød":13057,"turnering":13058,"oget":13059,"ology":13060,"Behandling":13061,"deltagelse":13062,"kuk":13063,"introdusert":13064,"Mr":13065,"inntekts":13066,"hylle":13067,"vasket":13068,"Borg":13069,"overkant":13070,"ath":13071,"prise":13072,"GB":13073,"Ellen":13074,"prepar":13075,"kommisjonen":13076,"aksel":13077,"News":13078,"strømmer":13079,"faser":13080,"Ungdoms":13081,"Stig":13082,"melen":13083,"alminnelig":13084,"vede":13085,"høyttal":13086,"Møl":13087,"diagnosen":13088,"E6":13089,"enhetene":13090,"taper":13091,"folker":13092,"senke":13093,"ettermiddagen":13094,"nominert":13095,"byrakr":13096,"bedrifts":13097,"vekter":13098,"symptomene":13099,"Gal":13100,"dominerende":13101,"ober":13102,"Berit":13103,"kommunes":13104,"room":13105,"eiendeler":13106,"besto":13107,"vender":13108,"salat":13109,"kompis":13110,"avsløre":13111,"symboler":13112,"Isa":13113,"temperaturer":13114,"husdyr":13115,"Personer":13116,"poteter":13117,"oppsøke":13118,"Haha":13119,"samvittighet":13120,"seir":13121,"...]":13122,"tiltrekke":13123,"moh":13124,"ew":13125,"High":13126,"gale":13127,"Lis":13128,"National":13129,"bbw":13130,"MI":13131,"power":13132,"synspunkter":13133,"bomull":13134,"faktur":13135,"prioritet":13136,"cken":13137,"øvelsene":13138,"sertifisert":13139,"forsinket":13140,"nettcasino":13141,"pynte":13142,"representere":13143,"radets":13144,"renner":13145,"tastatur":13146,"FT":13147,"oppsto":13148,"emon":13149,"aksjek":13150,"segru":13151,"enkleste":13152,"mum":13153,"tekstene":13154,"Kontrollutvalget":13155,"Unnga":13156,"anker":13157,"dødelig":13158,"regionalt":13159,"Golf":13160,"smann":13161,"California":13162,"tettere":13163,"avhør":13164,"Maten":13165,"hindret":13166,"Lene":13167,"halve":13168,"emarked":13169,"viktigst":13170,"sprer":13171,"inkluderende":13172,"overnattings":13173,"samlivsbrudd":13174,"skand":13175,"tolke":13176,"gat":13177,"sever":13178,"utøv":13179,"Kampen":13180,"Camilla":13181,"angir":13182,"attraktivt":13183,"Kapittel":13184,"ansettelse":13185,"Radio":13186,"Steinar":13187,"reagere":13188,"fylkene":13189,"Hag":13190,"kombinasjonen":13191,"screen":13192,"anbefaling":13193,"ones":13194,"traly":13195,"Richard":13196,"maneders":13197,"ssenteret":13198,"splitt":13199,"innfri":13200,"søkeren":13201,"Od":13202,"ignor":13203,"Cru":13204,"Markeds":13205,"porten":13206,"Escorte":13207,"Bit":13208,"mønsteret":13209,"anleggene":13210,"helsetjenester":13211,"fritak":13212,"oppdretter":13213,"polske":13214,"rapportere":13215,"spersoner":13216,"ous":13217,"elast":13218,"forman":13219,"overens":13220,"storting":13221,"Kare":13222,"Lier":13223,"rapporterer":13224,"stigning":13225,"Sle":13226,"utbetalt":13227,"bas":13228,"ence":13229,"Leif":13230,"adet":13231,"grove":13232,"kommunalt":13233,"jammen":13234,"innpa":13235,"Poker":13236,"about":13237,"utnyttet":13238,"Market":13239,"meters":13240,"cent":13241,"dritt":13242,"agenda":13243,"toris":13244,"koblinger":13245,"Kristiansund":13246,"Vanligvis":13247,"dus":13248,"utskrift":13249,"Historien":13250,"denes":13251,"programmene":13252,"bidragsy":13253,"Helene":13254,"Teater":13255,"Nordre":13256,"skapen":13257,"moderat":13258,"olet":13259,"utslag":13260,"pedagogikk":13261,"forlater":13262,"Cha":13263,"Heller":13264,"ory":13265,"inna":13266,"Tele":13267,"baksiden":13268,"Brand":13269,"smiler":13270,"Løp":13271,"spartiet":13272,"netter":13273,"simp":13274,"osisjon":13275,"sprø":13276,"hensikten":13277,"Rev":13278,"brenn":13279,"INE":13280,"renten":13281,"trenden":13282,"omer":13283,"drøft":13284,"Utover":13285,"Edvard":13286,"lednings":13287,"utøve":13288,"skaden":13289,"krenk":13290,"fikse":13291,"canada":13292,"reduserte":13293,"maj":13294,"bai":13295,"babyen":13296,"ovennevnte":13297,"prioriteringer":13298,"Age":13299,"velkjente":13300,"ksu":13301,"oversettelse":13302,"okkupa":13303,"skrekk":13304,"popularitet":13305,"Stjørdal":13306,"FS":13307,"eksponering":13308,"balansert":13309,"BY":13310,"dry":13311,"Mulig":13312,"Østerrike":13313,"Sigurd":13314,"KV":13315,"gril":13316,"krevd":13317,"oljer":13318,"sørg":13319,",,":13320,"omfru":13321,"onser":13322,"tingrett":13323,"massen":13324,"Lett":13325,"tilliten":13326,"Ago":13327,"Gutt":13328,"sjømat":13329,"bemanning":13330,"kjoler":13331,"tasjons":13332,"Johanne":13333,"igar":13334,"foresla":13335,"egnelsen":13336,"vedtar":13337,"flatt":13338,"Ekstra":13339,"Lyng":13340,"Klasse":13341,"edom":13342,"Indre":13343,"avklart":13344,"sittet":13345,"oral":13346,"likasjoner":13347,"musklene":13348,"rettferdighet":13349,"Ler":13350,"ktive":13351,"vinnere":13352,"vang":13353,"insi":13354,"vnet":13355,"resterende":13356,"avslørt":13357,"variant":13358,"foreslo":13359,"fremtidens":13360,"tarm":13361,"fylker":13362,"justert":13363,"Redu":13364,"klippe":13365,"behovene":13366,"kollegaer":13367,"skva":13368,"rikelig":13369,"rare":13370,"BER":13371,"Retning":13372,"Anti":13373,"prakt":13374,"impul":13375,"rettede":13376,"Mamma":13377,"Pettersen":13378,"Fon":13379,"kontrast":13380,"lignet":13381,"MP":13382,"protest":13383,"Lud":13384,"1917":13385,"Barnet":13386,"bokstaver":13387,"Sent":13388,"sof":13389,"mangfoldet":13390,"Las":13391,"linjene":13392,"Oslos":13393,"Nordisk":13394,"gresk":13395,"enestaende":13396,"vinkel":13397,"holdenhet":13398,"nekte":13399,"Lyd":13400,"She":13401,"samlingene":13402,"skulder":13403,"kvote":13404,"Kunden":13405,"Resultat":13406,"scoo":13407,"setaten":13408,"pekt":13409,"nyheten":13410,"lanet":13411,"ingrediens":13412,"Møtedato":13413,"utarbeides":13414,"turne":13415,"Annet":13416,"Sørlandet":13417,"gardin":13418,"sykepleiere":13419,"Isak":13420,"360":13421,"vedtekter":13422,"allag":13423,"Olavs":13424,"utvinning":13425,"SI":13426,"bnr":13427,"Mis":13428,"scorer":13429,"synliggjøre":13430,"Top":13431,"leserne":13432,"Videos":13433,"utkast":13434,"rekruttere":13435,"Michel":13436,"Idag":13437,"lukke":13438,"ulert":13439,"jack":13440,"forme":13441,"Erotisk":13442,"Vennlig":13443,"pli":13444,"prøving":13445,"utvilsomt":13446,"Trening":13447,"bing":13448,"matlag":13449,"fylkeskommunen":13450,"regjerings":13451,"hensynet":13452,"samarbeidspartner":13453,"polar":13454,"korps":13455,"stun":13456,"ditet":13457,"differen":13458,"forbrukslan":13459,"vera":13460,"smat":13461,"malsetting":13462,"forvand":13463,"smakt":13464,"blodtrykk":13465,"forestillingen":13466,"fordelingen":13467,"panne":13468,"prinsippene":13469,"sannsynligheten":13470,"Grun":13471,"individ":13472,"elegant":13473,"radgivere":13474,"porter":13475,"utland":13476,"sakkyn":13477,"omega":13478,"sparken":13479,"tip":13480,"Levanger":13481,"omstilling":13482,"respektive":13483,"radmannen":13484,"fikasjon":13485,"Mangler":13486,"merkes":13487,"trivelig":13488,"Forvalt":13489,"publisere":13490,"Fortsett":13491,"Gratulerer":13492,"planlegges":13493,"forsket":13494,"itær":13495,"landbruket":13496,"utbyggingen":13497,"justering":13498,"Vit":13499,"nøtter":13500,"styremedlem":13501,"aria":13502,"kriteriene":13503,"oppnas":13504,"betinget":13505,"brus":13506,"profesjonelt":13507,"Klima":13508,"Ombudet":13509,"mers":13510,"kulturell":13511,"Avvik":13512,"1979":13513,"virksomhetens":13514,"organiserte":13515,"UiO":13516,"spins":13517,"Mini":13518,"spray":13519,"medika":13520,"anbefalte":13521,"studium":13522,"hørsel":13523,"Sistnevnte":13524,"lokalisert":13525,"svekket":13526,"frisør":13527,"NC":13528,"Samlet":13529,"business":13530,"Reise":13531,"Sønn":13532,"greske":13533,"Yr":13534,"arbeiding":13535,"tante":13536,"asy":13537,"ambulanse":13538,"optimalt":13539,"portal":13540,"spilling":13541,"Erling":13542,"minuttene":13543,"issen":13544,"rap":13545,"hygiene":13546,"Vester":13547,"Personal":13548,"understreke":13549,"(\"":13550,"Sem":13551,"realiteten":13552,"fuck":13553,"Kjøper":13554,"Partner":13555,"Justin":13556,"daværende":13557,"leggings":13558,"Fs":13559,"utdannede":13560,"Tol":13561,"overvel":13562,"tropp":13563,"somradene":13564,"opprykk":13565,"marsj":13566,"talene":13567,"vendte":13568,"VR":13569,"unst":13570,"motorer":13571,"styrkene":13572,"sørover":13573,"universet":13574,"aksjene":13575,"busser":13576,"Feil":13577,"gisk":13578,"Sola":13579,"Entrepren":13580,"forholder":13581,"sein":13582,"drikk":13583,"ween":13584,"egget":13585,"taushet":13586,"dagsorden":13587,"passerer":13588,"uklart":13589,"lokalene":13590,"!\"":13591,"Oppfølg":13592,"kogni":13593,"æra":13594,"innstillingene":13595,"Astrid":13596,"ekke":13597,"doping":13598,"sammenslaing":13599,"snarere":13600,"tilhenger":13601,"affære":13602,"Bid":13603,"nyhetene":13604,"isolert":13605,"temmelig":13606,"feilen":13607,"ambisi":13608,"dap":13609,"blet":13610,"klum":13611,"Mona":13612,"svangerskapet":13613,"Washington":13614,"mektige":13615,"1982":13616,"cougar":13617,"Sop":13618,"inal":13619,"malen":13620,"oppsummering":13621,"Blue":13622,"ekso":13623,"hoo":13624,"Halv":13625,"hockey":13626,"song":13627,"disposisjon":13628,"avholdes":13629,"Plutselig":13630,"GL":13631,"jødene":13632,"Aas":13633,"Resultater":13634,"Obama":13635,"studiepoeng":13636,"batterier":13637,"phot":13638,"kvalifisering":13639,"diagnost":13640,"Sikkerhet":13641,"biskop":13642,"Erotikk":13643,"klient":13644,"Jacobsen":13645,"omtales":13646,"betingelsene":13647,"Pay":13648,"sident":13649,"andra":13650,"Watch":13651,"Uke":13652,"hæren":13653,"pert":13654,"kalk":13655,"ruller":13656,"investorer":13657,"beun":13658,"telefonnummer":13659,"fraktet":13660,"lanserte":13661,"Cook":13662,"elleve":13663,"stegn":13664,"dyret":13665,"erver":13666,"ungdommen":13667,"Portug":13668,"Størr":13669,"verner":13670,"elly":13671,"Ep":13672,"enget":13673,"tredj":13674,"Agoda":13675,"resjon":13676,"høyskolen":13677,"1975":13678,"fleksibel":13679,"Vinner":13680,"Point":13681,"tyrk":13682,"Shi":13683,"hverandres":13684,"stans":13685,"romantiske":13686,"gjenopprette":13687,"rustet":13688,"ballasje":13689,"overvekt":13690,"meldes":13691,"1978":13692,"premium":13693,"Sofie":13694,"svei":13695,"Status":13696,"aman":13697,"mir":13698,"krim":13699,"barer":13700,"kammer":13701,"vandre":13702,"Baby":13703,"definerer":13704,"magnet":13705,"sløpet":13706,"sdager":13707,"scenar":13708,"kompensasjon":13709,"dramatiske":13710,"sertifik":13711,"eple":13712,"visstnok":13713,"titler":13714,"mane":13715,"ivrige":13716,"ст":13717,"beret":13718,"renhold":13719,"kvan":13720,"binde":13721,"DI":13722,"eløs":13723,"oppfordres":13724,"omstendigheter":13725,"ettene":13726,"Sco":13727,"body":13728,"lokk":13729,"ART":13730,"1981":13731,"main":13732,"prøvene":13733,"røm":13734,"stresset":13735,"gd":13736,"Aar":13737,"oversiktlig":13738,"satel":13739,"Lunde":13740,"dannelse":13741,"stokk":13742,"innleggene":13743,"1983":13744,"auten":13745,"horn":13746,"overtatt":13747,"kilden":13748,"sklasse":13749,"forbrukerne":13750,"medium":13751,"ograf":13752,"sproduksjon":13753,"regulere":13754,"kommunestyre":13755,"DNB":13756,"stafett":13757,"yndigheten":13758,"Rol":13759,"stenge":13760,"stemmen":13761,"seksjonen":13762,"handlingene":13763,"spraklig":13764,"apos":13765,"triks":13766,"horison":13767,"DRE":13768,"Mate":13769,"call":13770,"navnene":13771,"krysser":13772,"innholds":13773,"bassenget":13774,"Retningslin":13775,"Slett":13776,"uli":13777,"forsiden":13778,"Restaur":13779,"ødelegger":13780,"Fli":13781,"utøverne":13782,"helseforetakene":13783,"UNE":13784,"ønnet":13785,"aliseringen":13786,"Arena":13787,"SER":13788,"høf":13789,"teoretisk":13790,"strender":13791,"tilkobling":13792,"Masse":13793,"skule":13794,"treningsøkt":13795,"femin":13796,"kjønnsleppene":13797,"fins":13798,"separat":13799,",»":13800,"ade":13801,"lenke":13802,"[...]":13803,"Kjenner":13804,"Røros":13805,"egister":13806,"svakere":13807,"Kontaktannonser":13808,"potensiale":13809,"sjokker":13810,"stek":13811,"kapp":13812,"umiddelbar":13813,"avik":13814,"feransen":13815,"nærmet":13816,"kadem":13817,"apningstider":13818,"selva":13819,"mild":13820,"stang":13821,"syndrom":13822,"Lokale":13823,"elver":13824,"takknemlig":13825,"protester":13826,"dispon":13827,"Hege":13828,"plata":13829,"rand":13830,"spektak":13831,"Nob":13832,"plattformer":13833,"paragra":13834,"Kron":13835,"dering":13836,"entreprenører":13837,"1972":13838,"ombud":13839,"stilskudd":13840,"stemp":13841,"Bibli":13842,"funker":13843,"FC":13844,"Lære":13845,"rikk":13846,"indiske":13847,"novelle":13848,"uttaler":13849,"etnisk":13850,"Cra":13851,"svangerskap":13852,"fotografering":13853,"ameter":13854,"studenten":13855,"skriftlige":13856,"Ulike":13857,"varmere":13858,"romantikk":13859,"meldings":13860,"velvære":13861,"forarsake":13862,"bryn":13863,"aturen":13864,"Tidlig":13865,"betraktelig":13866,"spøk":13867,"teorien":13868,"masker":13869,"framfor":13870,"demokratisk":13871,"smatt":13872,"pod":13873,"kommunik":13874,"IE":13875,"kuttet":13876,"Ordet":13877,"løste":13878,"ufor":13879,"oppgang":13880,"okse":13881,"fiskere":13882,"linker":13883,"tilstedeværelse":13884,"utskift":13885,"gara":13886,"?!":13887,"etterforskning":13888,"platen":13889,"bekymre":13890,"kunnet":13891,"ulette":13892,"møteplasser":13893,"bedriftens":13894,"utgaver":13895,"vekker":13896,"Basert":13897,"MT":13898,"dypet":13899,"motivere":13900,"Sosial":13901,"sme":13902,"varende":13903,"pels":13904,"dial":13905,"Linda":13906,"hager":13907,"universitetssykehus":13908,"salderen":13909,"blast":13910,"straling":13911,"pun":13912,"Formal":13913,"aktivere":13914,"glemte":13915,"fordeles":13916,"laster":13917,"adferd":13918,"opprettholdes":13919,"dyrket":13920,"etics":13921,"forske":13922,"satsingen":13923,"Nedenfor":13924,"Halvorsen":13925,"opplyste":13926,"energien":13927,"avisene":13928,"utfordret":13929,"glim":13930,"holdnings":13931,"garasje":13932,"barnehagene":13933,"tolkning":13934,"Skandinavia":13935,"Holmen":13936,"spiss":13937,"Foretaket":13938,"Hum":13939,"Bildene":13940,"trakassering":13941,"ampen":13942,"produktivitet":13943,"fedre":13944,"motivert":13945,"Autom":13946,"sche":13947,"Ses":13948,"skrik":13949,"historiene":13950,"kunstig":13951,"Irland":13952,"musikalske":13953,"intelle":13954,"short":13955,"Rana":13956,"dsm":13957,"lod":13958,"landbruks":13959,"Jor":13960,"ENE":13961,"kjøleskapet":13962,"skall":13963,"tannlege":13964,"nedlasting":13965,"forsvinne":13966,"vre":13967,"vister":13968,"profet":13969,"bestanden":13970,"Kate":13971,"giske":13972,"uendelig":13973,"eliste":13974,"tomme":13975,"sles":13976,"manuelt":13977,"mellomtiden":13978,"anmeldelse":13979,"dies":13980,"bydelen":13981,"taxi":13982,"utførte":13983,"ussen":13984,"pavirkes":13985,"veterinær":13986,"korrespon":13987,"jing":13988,"svenn":13989,"fortere":13990,"blene":13991,"tralyd":13992,"fleksible":13993,"ifikasjoner":13994,"geografisk":13995,"fargerike":13996,"Dø":13997,"inas":13998,"Barents":13999,"Torbjørn":14000,"manu":14001,"territor":14002,"villa":14003,"innlagt":14004,"foreldr":14005,"sarbeid":14006,"oppførte":14007,"videreutdanning":14008,"latene":14009,"sarbar":14010,"forelskelse":14011,"nedlagt":14012,"episoder":14013,"trekket":14014,"rekkevidde":14015,"nade":14016,"Forhold":14017,"helm":14018,"premiere":14019,"harete":14020,"transaksjoner":14021,"blikkelig":14022,"ingeniører":14023,"Oli":14024,"Registrer":14025,"talmo":14026,"Apne":14027,"tort":14028,"meningen":14029,"politiker":14030,"VED":14031,"Tekst":14032,"svarende":14033,"administrasjons":14034,"signi":14035,"miss":14036,"religiøs":14037,"iver":14038,"antakelig":14039,"gledet":14040,"oc":14041,"betjen":14042,"Sentr":14043,"Alltid":14044,"koordinator":14045,"severdigheter":14046,"synger":14047,"skilde":14048,"Porsgrunn":14049,"referanser":14050,"betegn":14051,"Gil":14052,"prøvet":14053,"boller":14054,"Band":14055,"Size":14056,"forventningene":14057,"ogh":14058,"spring":14059,"Skan":14060,"elaget":14061,"ily":14062,"Tant":14063,"benk":14064,"tjue":14065,"tidenes":14066,"Kop":14067,"oppsigelse":14068,"kaptein":14069,"tz":14070,"æs":14071,"venninner":14072,"Madrid":14073,"Brønnøy":14074,"forbryt":14075,"arbeidsmarkedet":14076,"misjons":14077,"aksept":14078,"retnings":14079,"milliard":14080,"henvisning":14081,"informat":14082,"psykologi":14083,"1968":14084,"fremgangs":14085,"merkene":14086,"Sort":14087,"kombinerer":14088,"hval":14089,"frekven":14090,"kjøps":14091,"midlertidige":14092,"datering":14093,"Hitler":14094,"Times":14095,"kulturminner":14096,"visjonen":14097,"volds":14098,"Folket":14099,"Abra":14100,"vedtas":14101,"Forsvarets":14102,"CT":14103,"drapet":14104,"Skje":14105,"ace":14106,"ups":14107,"life":14108,"oran":14109,"avslører":14110,"snr":14111,"debatter":14112,"trim":14113,"firmaer":14114,"ukers":14115,"Jernbane":14116,"booking":14117,"Fug":14118,"Klin":14119,"dition":14120,"utbre":14121,"toleranse":14122,"drøfte":14123,"sendelse":14124,"igger":14125,"verdifulle":14126,"Liker":14127,"lakk":14128,"ANG":14129,"antibi":14130,"Vestre":14131,"Ari":14132,"SAK":14133,"Natt":14134,"vakne":14135,"nettstedene":14136,"sikres":14137,"case":14138,"ffekt":14139,"flørting":14140,"melodi":14141,"helsevern":14142,"varsle":14143,"kvalit":14144,"anvendes":14145,"uønsket":14146,"sekk":14147,"Sørg":14148,"tech":14149,"Servic":14150,"portalen":14151,"arbeiderne":14152,"leverandørene":14153,"beklager":14154,"Pale":14155,"Gyl":14156,"hjørner":14157,"Bul":14158,"gry":14159,"senger":14160,"stønad":14161,"ssist":14162,"ivaretas":14163,"Zalando":14164,"komprom":14165,"aking":14166,"minnes":14167,"suge":14168,"cli":14169,"stasjons":14170,"vett":14171,"avtalene":14172,"minimal":14173,"Israels":14174,"opplærings":14175,"avdøde":14176,"maltider":14177,"spenningen":14178,"forbeholder":14179,"elektrisitet":14180,"Herre":14181,"begatt":14182,"advent":14183,"Ner":14184,"synte":14185,"skapasitet":14186,"Ok":14187,"pastander":14188,"merknader":14189,"aminer":14190,"Clin":14191,"øko":14192,"realitet":14193,"overvake":14194,"oppvask":14195,"rykte":14196,"Ove":14197,"syr":14198,"tyver":14199,"skeptisk":14200,"viking":14201,"Represent":14202,"etterspørselen":14203,"ansattes":14204,"geir":14205,"karrieren":14206,"dynamisk":14207,"google":14208,"vedta":14209,"Multi":14210,"ental":14211,"SEO":14212,"Sin":14213,"Professor":14214,"More":14215,"konsentrere":14216,"vatnet":14217,"Lite":14218,"Lak":14219,"farg":14220,"kole":14221,"Vennskap":14222,"IDE":14223,"etilbud":14224,"stjalet":14225,"grunnene":14226,"Fry":14227,"tildeles":14228,"School":14229,"Music":14230,"ssektoren":14231,"igt":14232,"vell":14233,"funnene":14234,"Meg":14235,"slim":14236,"Syd":14237,"fuglene":14238,"utdeling":14239,"kapasiteten":14240,"saklig":14241,"avviser":14242,"Ingenting":14243,"Fakultet":14244,"middelalderen":14245,"Studie":14246,"erfarings":14247,"Midtø":14248,"speilet":14249,"sprinsi":14250,"Ringer":14251,"gransk":14252,"pote":14253,"Midtøsten":14254,"Kurs":14255,"robust":14256,"Tjenesten":14257,"RS":14258,"skadelige":14259,"Aret":14260,"Essen":14261,"cri":14262,"kid":14263,"mva":14264,"paført":14265,"ome":14266,"underliggende":14267,"iverksette":14268,"presentasjonen":14269,"eksklusivt":14270,"ytt":14271,"hater":14272,"fristende":14273,"misser":14274,"berører":14275,"vakreste":14276,"møy":14277,"litterære":14278,"Global":14279,"ns":14280,"utfall":14281,"Elin":14282,"ranger":14283,"stigheten":14284,"cat":14285,"uønskede":14286,"Mars":14287,"stilig":14288,"guiden":14289,"Sykkel":14290,"skulp":14291,"etts":14292,"destinasjoner":14293,"smessige":14294,"lyktes":14295,"bevist":14296,"Arkivdel":14297,"overskri":14298,"tang":14299,"kvelder":14300,"sentralbyra":14301,"used":14302,"planleggingen":14303,"handlingsplan":14304,"skjebne":14305,"karbohydr":14306,"Ulleval":14307,"pust":14308,"slitasje":14309,"Ute":14310,"oppmøte":14311,"inntrykket":14312,"Løren":14313,"koll":14314,"lagrer":14315,"American":14316,"Auto":14317,"kontro":14318,"kreftene":14319,"onerer":14320,"fs":14321,"amme":14322,"garanterer":14323,"kledde":14324,"uventet":14325,"handa":14326,"Skol":14327,"tvinge":14328,"1976":14329,"club":14330,"kjelleren":14331,"voldt":14332,"bespar":14333,"Finnes":14334,"Sver":14335,"Elsker":14336,"terskel":14337,"underlig":14338,"solo":14339,"kunstnerisk":14340,"hemmelighet":14341,"eksemplarer":14342,"Gli":14343,"mant":14344,"bygningsloven":14345,"Cas":14346,"This":14347,"pos":14348,"tjenestet":14349,"klinikken":14350,"Amatør":14351,"Fjord":14352,"værelsen":14353,"1973":14354,"Sykehuset":14355,"Ray":14356,"dol":14357,"anerne":14358,"snavn":14359,"Styrets":14360,"hengt":14361,".).":14362,"Chelse":14363,"velden":14364,"forlenge":14365,"Utviklingen":14366,"kjernen":14367,"vakten":14368,"Sli":14369,"artner":14370,"tyskerne":14371,"bondage":14372,"Elev":14373,"tilsatt":14374,"Bonde":14375,"Myr":14376,"atia":14377,"stanset":14378,"tilhengere":14379,"konfron":14380,"hengende":14381,"Støtte":14382,"orker":14383,"Stal":14384,"dronning":14385,"slettes":14386,"allierte":14387,"omsorgen":14388,"raser":14389,"KOMM":14390,"ito":14391,"overvakning":14392,"oppfinn":14393,"Kunde":14394,"merte":14395,"avklaring":14396,"avgarde":14397,"opposisjon":14398,"høydepunkt":14399,"Familien":14400,"muskul":14401,"aksjonene":14402,"vekke":14403,"billigste":14404,"betjene":14405,"bredband":14406,"Posted":14407,"vnen":14408,"rønt":14409,"tiarene":14410,"any":14411,"mpen":14412,"kjemikalier":14413,"lelse":14414,"Kirken":14415,"egenhand":14416,"Kreft":14417,"Nettavisen":14418,"heves":14419,"Nap":14420,"Staten":14421,"black":14422,"evaku":14423,"skjeg":14424,"filme":14425,"Step":14426,"TEF":14427,"flørt":14428,"Cli":14429,"selvstendige":14430,"tekstil":14431,"fengslet":14432,"Kjør":14433,"ØK":14434,"arane":14435,"Put":14436,"cis":14437,"Retten":14438,"øyeblikkelig":14439,"napp":14440,"ledninger":14441,"Bestill":14442,"NSB":14443,"Marte":14444,"mentalt":14445,"iht":14446,"inerer":14447,"lapp":14448,"125":14449,"etat":14450,"hjemmek":14451,"Paulus":14452,"bokstavelig":14453,"virksomhetene":14454,"LIG":14455,"Oppsummer":14456,"Bran":14457,"tenden":14458,"OT":14459,"potensialet":14460,"tilbrakte":14461,"provi":14462,"Prose":14463,"tarer":14464,"julaften":14465,"konfirmasjon":14466,"italiensk":14467,"Flo":14468,"slings":14469,"other":14470,"fiender":14471,"hotellets":14472,"cupen":14473,"intellekt":14474,"Hon":14475,"sextreff":14476,"bang":14477,"kjeden":14478,"bass":14479,"skarpe":14480,"jula":14481,"Drø":14482,"FE":14483,"opphavsrett":14484,"Day":14485,"utbrudd":14486,"Folkehelse":14487,"Huset":14488,"cin":14489,"rolige":14490,"ethe":14491,"))":14492,"NH":14493,"irriterende":14494,"familiens":14495,"gong":14496,"opprettes":14497,"blr":14498,"salder":14499,"Jente":14500,"lid":14501,"utlan":14502,"Viet":14503,"Fagforbundet":14504,"menneskers":14505,"==":14506,"bakgrunns":14507,"rumpa":14508,"Kunnskapsdepartementet":14509,"Valle":14510,"presti":14511,"prins":14512,"identifisert":14513,"verifiser":14514,"uforpliktende":14515,"absor":14516,"Ragnhild":14517,"wal":14518,"eig":14519,"brygge":14520,"kassa":14521,"Cal":14522,"Noreg":14523,"kundens":14524,"utvides":14525,"motivasjonen":14526,"fastsette":14527,"miljøene":14528,"nik":14529,"SEN":14530,"Hill":14531,"Støre":14532,"Portugal":14533,"gummi":14534,"helser":14535,"Vegas":14536,"Krig":14537,"retor":14538,"UNN":14539,"fremmende":14540,"Egentlig":14541,"tav":14542,"visuelle":14543,"landsbyen":14544,"Smak":14545,"cts":14546,"Festival":14547,"figuren":14548,"seller":14549,"framtiden":14550,"Knud":14551,"tvert":14552,"px":14553,"vibrator":14554,"trase":14555,"kamerat":14556,"Stab":14557,"uttrykker":14558,"Trans":14559,"Margr":14560,"oppet":14561,"flekker":14562,"løyper":14563,"tennis":14564,"ritet":14565,"alismen":14566,"atoriske":14567,"smug":14568,"beholdt":14569,"tilpas":14570,"Fager":14571,"Bl":14572,"snudde":14573,"Bard":14574,"eiendomsm":14575,"bygningene":14576,"intens":14577,"høn":14578,"Referat":14579,"arbeidsforhold":14580,"sorte":14581,"iket":14582,"ssur":14583,"forventning":14584,"dannes":14585,"bukser":14586,"glans":14587,"home":14588,"\u0000\u0000":14589,"Lun":14590,"lunde":14591,"elli":14592,"unner":14593,"tilfeldige":14594,"bestod":14595,"ummen":14596,"regissør":14597,"skriftet":14598,"bjel":14599,"økologiske":14600,"utgivelse":14601,"Hauge":14602,"komment":14603,"party":14604,"samfunnsøkonom":14605,"bs":14606,"manus":14607,"underholdende":14608,"tilskudds":14609,"aksjonær":14610,"util":14611,"sjo":14612,"Eksp":14613,"forhandlere":14614,"ox":14615,"wh":14616,"klitoris":14617,"iverksatt":14618,"føltes":14619,"skummelt":14620,"næringsdrivende":14621,"Kongen":14622,"plaget":14623,"betraktning":14624,"Pakistan":14625,"Fine":14626,"suppe":14627,"godtar":14628,"gon":14629,"orm":14630,"skunnskap":14631,"snille":14632,
[...]
