[PAD]
[unused0]
[unused1]
[unused2]
[unused3]
[unused4]
[unused5]
[unused6]
[unused7]
[unused8]
[unused9]
[unused10]
[unused11]
[unused12]
[unused13]
[unused14]
[unused15]
[unused16]
[unused17]
[unused18]
[unused19]
[unused20]
[unused21]
[unused22]
[unused23]
[unused24]
[unused25]
[unused26]
[unused27]
[unused28]
[unused29]
[unused30]
[unused31]
[unused32]
[unused33]
[unused34]
[unused35]
[unused36]
[unused37]
[unused38]
[unused39]
[unused40]
[unused41]
[unused42]
[unused43]
[unused44]
[unused45]
[unused46]
[unused47]
[unused48]
[unused49]
[unused50]
[unused51]
[unused52]
[unused53]
[unused54]
[unused55]
[unused56]
[unused57]
[unused58]
[unused59]
[unused60]
[unused61]
[unused62]
[unused63]
[unused64]
[unused65]
[unused66]
[unused67]
[unused68]
[unused69]
[unused70]
[unused71]
[unused72]
[unused73]
[unused74]
[unused75]
[unused76]
[unused77]
[unused78]
[unused79]
[unused80]
[unused81]
[unused82]
[unused83]
[unused84]
[unused85]
[unused86]
[unused87]
[unused88]
[unused89]
[unused90]
[unused91]
[unused92]
[unused93]
[unused94]
[unused95]
[unused96]
[unused97]
[unused98]
[unused99]
[UNK]
[CLS]
[SEP]
[MASK]
##!
##"
###
##$
##%
##&
##'
##(
##)
##*
##+
##,
##-
##.
##/
##0
##1
##2
##3
##4
##5
##6
##7
##8
##9
##:
##;
##=
##?
##@
##A
##B
##C
##D
##E
##F
##G
##H
##I
##J
##K
##L
##M
##N
##O
##P
##Q
##R
##S
##T
##U
##V
##W
##X
##Y
##Z
##[
##\
##]
##^
##_
##`
##a
##b
##c
##d
##e
##f
##g
##h
##i
##j
##k
##l
##m
##n
##o
##p
##q
##r
##s
##t
##u
##v
##w
##x
##y
##z
##{
##|
##}
##~
##¡
##£
##§
##¨
##«
##­
##®
##°
##±
##²
##³
##´
##µ
##·
##¹
##º
##»
##¼
##½
##¾
##Æ
##Ð
##×
##Ø
##Þ
##ß
##æ
##ð
##÷
##ø
##þ
##Đ
##đ
##Ħ
##ħ
##ı
##Ł
##ł
##ŋ
##Œ
##œ
##Ə
##ƒ
##ɐ
##ɑ
##ɒ
##ɓ
##ɔ
##ɕ
##ə
##ɛ
##ɡ
##ɣ
##ɨ
##ɪ
##ɲ
##ɽ
##ɾ
##ʁ
##ʃ
##ʉ
##ʊ
##ʒ
##ʔ
##ʰ
##ʲ
##ʹ
##ʻ
##ʼ
##ʾ
##ʿ
##ˈ
##ˌ
##ː
##΄
##Α
##Β
##Γ
##Δ
##Ε
##Ζ
##Η
##Θ
##Ι
##Κ
##Λ
##Μ
##Ν
##Ξ
##Ο
##Π
##Ρ
##Σ
##Τ
##Υ
##Φ
##Χ
##Ψ
##Ω
##α
##β
##γ
##δ
##ε
##ζ
##η
##θ
##ι
##κ
##λ
##μ
##ν
##ξ
##ο
##π
##ρ
##ς
##σ
##τ
##υ
##φ
##χ
##ψ
##ω
##І
##Ј
##А
##Б
##В
##Г
##Д
##Е
##Ж
##З
##И
##К
##Л
##М
##Н
##О
##П
##Р
##С
##Т
##У
##Ф
##Х
##Ц
##Ч
##Ш
##Щ
##Э
##Ю
##Я
##а
##б
##в
##г
##д
##е
##ж
##з
##и
##к
##л
##м
##н
##о
##п
##р
##с
##т
##у
##ф
##х
##ц
##ч
##ш
##щ
##ъ
##ы
##ь
##э
##ю
##я
##ђ
##є
##і
##ј
##љ
##њ
##ћ
##қ
##ү
##ә
##ө
##Ա
##Հ
##Մ
##Ս
##ա
##բ
##գ
##դ
##ե
##զ
##թ
##ի
##լ
##կ
##ղ
##մ
##յ
##ն
##ո
##ս
##վ
##տ
##ր
##ւ
##א
##ב
##ג
##ד
##ה
##ו
##ז
##ח
##ט
##י
##כ
##ל
##ם
##מ
##ן
##נ
##ס
##ע
##ף
##פ
##צ
##ק
##ר
##ש
##ת
##ء
##ا
##ب
##ة
##ت
##ث
##ج
##ح
##خ
##د
##ذ
##ر
##ز
##س
##ش
##ص
##ض
##ط
##ظ
##ع
##غ
##ف
##ق
##ك
##ل
##م
##ن
##ه
##و
##ى
##ي
##پ
##چ
##ک
##گ
##ھ
##ہ
##ۇ
##ی
##ە
##ܐ
##ܒ
##ܕ
##ܘ
##ܝ
##ܠ
##ܡ
##ܢ
##ܪ
##ܬ
##अ
##क
##ख
##ग
##च
##ज
##ट
##ड
##ण
##त
##द
##ध
##न
##प
##ब
##भ
##म
##य
##र
##ल
##व
##श
##ष
##स
##ह
##॥
##ক
##জ
##ত
##দ
##ন
##প
##ব
##ম
##য
##র
##ল
##শ
##স
##হ
##ਅ
##ਆ
##ਇ
##ਈ
##ਉ
##ਐ
##ਕ
##ਖ
##ਗ
##ਚ
##ਜ
##ਣ
##ਤ
##ਥ
##ਦ
##ਧ
##ਨ
##ਪ
##ਬ
##ਭ
##ਮ
##ਰ
##ਲ
##ਵ
##ਸ
##ਹ
##લ
##க
##ச
##ட
##த
##ன
##ப
##ம
##ர
##ல
##வ
##ర
##ల
##ರ
##ಲ
##ก
##ค
##ง
##จ
##ช
##ด
##ต
##ท
##ธ
##น
##บ
##ป
##พ
##ม
##ย
##ร
##ล
##ว
##ส
##ห
##อ
##ะ
##า
##ำ
##เ
##แ
##ไ
##་
##།
##ཀ
##ཁ
##ག
##ང
##ཅ
##ཆ
##ཉ
##ཐ
##ད
##ན
##པ
##ཕ
##བ
##མ
##ཚ
##ཞ
##འ
##ཡ
##ར
##ལ
##ཤ
##ས
##ა
##ბ
##გ
##დ
##ე
##ვ
##თ
##ი
##კ
##ლ
##მ
##ნ
##ო
##რ
##ს
##ტ
##უ
##ხ
##ᄀ
##ᄂ
##ᄃ
##ᄅ
##ᄆ
##ᄇ
##ᄉ
##ᄋ
##ᄌ
##ᄎ
##ᄐ
##ᄑ
##ᄒ
##ᅡ
##ᅢ
##ᅥ
##ᅦ
##ᅧ
##ᅩ
##ᅪ
##ᅭ
##ᅮ
##ᅯ
##ᅲ
##ᅳ
##ᅴ
##ᅵ
##ᆨ
##ᆫ
##ᆯ
##ᆷ
##ᆸ
##ᆼ
##ក
##ត
##ទ
##ន
##ប
##ព
##ម
##រ
##ស
##​
##‌
##‎
##‏
##‐
##‑
##–
##—
##‘
##’
##“
##”
##„
##†
##•
##…
##‰
##′
##″
##‹
##›
##⁄
##₁
##€
##℃
##ℓ
##⅍
##⅓
##⅔
##↑
##→
##∂
##∇
##∈
##−
##√
##∞
##∧
##≈
##≤
##≥
##⋅
##─
##│
##├
##●
##♠
##♣
##♥
##♦
##♭
##♯
##⟨
##⟩
##、
##い
##う
##か
##き
##し
##た
##と
##の
##り
##ん
##ア
##イ
##ウ
##カ
##キ
##ク
##コ
##サ
##シ
##ス
##タ
##ッ
##テ
##ト
##ハ
##ヒ
##フ
##ホ
##マ
##ュ
##ラ
##リ
##ル
##ロ
##ン
##・
##ー
##一
##丁
##七
##万
##三
##上
##下
##不
##世
##东
##中
##丰
##临
##丹
##主
##义
##之
##乐
##九
##乡
##书
##事
##二
##云
##五
##井
##京
##人
##仁
##仙
##代
##会
##伯
##佛
##作
##保
##信
##元
##光
##克
##全
##八
##公
##六
##共
##关
##兴
##军
##刘
##利
##前
##劉
##力
##化
##北
##区
##十
##千
##华
##南
##博
##原
##县
##口
##古
##台
##史
##司
##合
##吉
##同
##名
##后
##君
##吳
##吴
##周
##和
##哈
##唐
##嘉
##四
##园
##国
##國
##園
##土
##地
##场
##址
##城
##堂
##塔
##墓
##士
##夏
##多
##大
##天
##太
##夫
##女
##子
##字
##孝
##学
##孫
##學
##宁
##安
##宋
##宗
##官
##定
##宝
##宮
##家
##富
##寺
##小
##尔
##居
##山
##岩
##岭
##岳
##峰
##島
##川
##州
##工
##巴
##市
##布
##帝
##平
##年
##广
##庄
##庆
##庙
##府
##康
##廣
##建
##式
##张
##張
##徐
##德
##心
##志
##忠
##成
##战
##戦
##戰
##所
##拉
##摩
##政
##故
##教
##文
##斯
##新
##方
##族
##旗
##日
##旧
##昌
##明
##星
##春
##昭
##時
##普
##景
##智
##曲
##書
##曹
##會
##月
##有
##朝
##木
##本
##朱
##李
##村
##杨
##東
##松
##林
##株
##格
##桥
##梁
##梅
##楼
##正
##武
##氏
##民
##水
##永
##汉
##江
##沙
##河
##治
##泉
##法
##波
##泰
##洞
##津
##洪
##浦
##海
##清
##港
##湖
##湾
##源
##溪
##漢
##物
##特
##玄
##玉
##王
##理
##生
##田
##电
##白
##百
##皇
##県
##真
##石
##社
##祖
##神
##福
##秀
##秋
##科
##秦
##空
##立
##章
##經
##红
##罗
##羅
##美
##群
##義
##老
##聖
##胡
##自
##航
##般
##良
##花
##苏
##若
##英
##茶
##華
##藏
##藤
##行
##街
##西
##記
##話
##語
##論
##话
##赵
##趙
##路
##軍
##通
##道
##遗
##郎
##部
##郭
##都
##里
##重
##野
##金
##铁
##镇
##長
##长
##門
##门
##阳
##阿
##陈
##院
##陳
##陵
##陽
##隆
##集
##青
##韓
##音
##香
##馬
##马
##高
##魏
##黃
##黄
##龍
##龙
##﻿
##，
##er
##en
##et
##an
##ar
##st
##in
##or
##og
##el
##om
##sk
##il
##le
##re
##av
##al
##on
##de
##at
##ed
##for
##te
##ra
##un
##li
##ing
##til
##som
##den
##ik
##pa
##se
##ter
##var
##am
##der
##det
##is
##ver
##med
##ol
##ne
##it
##19
##ut
##and
##ør
##ig
##as
##ene
##ble
##ag
##ke
##pp
##id
##ste
##ske
##men
##ler
##sen
##kt
##ge
##sp
##fra
##ur
##han
##be
##20
##jon
##ad
##ri
##ro
##us
##si
##ve
##del
##ot
##har
##inn
##sa
##ru
##opp
##ok
##ang
##lig
##ul
##ere
##ap
##gj
##ist
##me
##by
##sl
##ning
##ær
##før
##ikk
##kom
##ak
##ann
##mer
##ved
##ell
##ant
##sam
##ett
##ir
##att
##ser
##je
##all
##ord
##over
##etter
##ber
##øy
##isk
##Han
##dt
##es
##kon
##art
##ia
##Det
##kk
##gen
##land
##he
##iske
##00
##um
##18
##ent
##under
##enn
##per
##fø
##unn
##tid
##gr
##asjon
##ster
##lag
##os
##ein
##200
##kj
##St
##seg
##adde
##br
##Den
##of
##kr
##pl
##ogsa
##bli
##tt
##iv
##itt
##eller
##ma
##yr
##ende
##ch
##ert
##ort
##ger
##kl
##sin
##kan
##hadde
##da
##ft
##bru
##ens
##mot
##man
##yn
##son
##fe
##tr
##pro
##skap
##ly
##met
##ien
##201
##eng
##het
##eg
##bl
##ho
##ny
##byg
##di
##leg
##ks
##ikke
##ei
##au
##tre
##vart
##spil
##no
##mar
##ingen
##alt
##to
##andre
##ane
##net
##sel
##rik
##ker
##hol
##mun
##dre
##ie
##vis
##ic
##min
##ran
##ion
##pre
##sj
##ba
##).
##ige
##199
##op
##sø
##od
##are
##Nor
##nes
##stor
##ab
##ellom
##første
##ven
##An
##gar
##sy
##elt
##vik
##De
##dø
##ale
##la
##ek
##dag
##sten
##nor
##im
##lan
##vi
##mellom
##tter
##ss
##ust
##vil
##ling
##fin
##lige
##ha
##rett
##fj
##else
##reg
##ty
##mat
##198
##val
##),
##ud
##ov
##na
##kun
##ass
##ten
##kommun
##født
##lere
##tok
##hun
##po
##ket
##grunn
##ære
##ele
##ast
##gang
##197
##ti
##arbe
##Ar
##ner
##pr
##fre
##mal
##fikk
##vor
##mber
##bet
##lø
##yl
##elig
##In
##get
##En
##",
##ier
##ken
##fly
##196
##rad
##17
##dei
##Al
##øn
##ob
##org
##hen
##stat
##eit
##vin
##siden
##nord
##jer
##elle
##iser
##fol
##hav
##ært
##mann
##stil
##ire
##ret
##hans
##isjon
##par
##rev
##Un
##ug
##sta
##ans
##hand
##nav
##far
##mp
##ennom
##itet
##akt
##alen
##".
##sammen
##ub
##amp
##fer
##ansk
##rek
##ned
##sjon
##io
##du
##lang
##tur
##mil
##ry
##15
##sør
##omra
##ck
##fil
##her
##alle
##anske
##rom
##16
##Pa
##tet
##dom
##bar
##set
##beg
##Norge
##sted
##sv
##gjennom
##ull
##istor
##run
##uli
##iet
##gru
##dette
##ban
##annet
##194
##tall
##stør
##mo
##bre
##slag
##ski
##skri
##Jo
##tal
##ningen
##est
##vest
##høy
##ga
##flere
##For
##195
##ind
##føl
##kar
##frem
##ater
##skj
##denne
##elsen
##end
##Etter
##str
##hvor
##ka
##dig
##olog
##bil
##10
##blir
##mus
##iver
##lit
##lik
##ron
##blant
##lem
##pet
##form
##amil
##slut
##sitt
##vert
##Ch
##Mar
##meter
##ogra
##fa
##ds
##tidlig
##dem
##stad
##uten
##styr
##vel
##va
##bum
##let
##sent
##mange
##ben
##jen
##ham
##sti
##ine
##amer
##oll
##fl
##ball
##kjent
##ta
##inter
##part
##tallet
##ksjon
##off
##byen
##The
##ina
##pe
##dene
##hus
##senter
##».
##store
##gjer
##mid
##ong
##bak
##km
##van
##kommune
##ings
##des
##Ber
##193
##Hun
##grupp
##nasjon
##norsk
##stem
##skul
##verden
##res
##slo
##plass
##atter
##hoved
##atte
##fram
##und
##fle
##skapet
##Sk
##gi
##ard
##spiller
##Le
##død
##inger
##stu
##fort
##famil
##star
##ligger
##my
##ay
##ue
##atur
##blitt
##Som
##12
##arbei
##kte
##Dette
##nær
##14
##kes
##tte
##krig
##isse
##US
##ce
##mel
##øm
##sine
##Ne
##hal
##medlem
##fot
##ate
##sjø
##kor
##landet
##kra
##sle
##ister
##øst
##tek
##album
##være
##legg
##erte
##mark
##000
##Re
##bo
##bu
##Nord
##13
##orden
##amerik
##histor
##OL
##elen
##gje
##kir
##tidligere
##ole
##ment
##brit
##Ro
##selv
##ttet
##satt
##gikk
##gre
##rig
##kunne
##kje
##jø
##lagt
##sep
##svar
##senere
##vært
##repre
##tro
##rundt
##polit
##syn
##Fran
##mest
##ninger
##like
##fri
##tra
##kur
##spe
##skrev
##hel
##aug
##hø
##tak
##jan
##laget
##vant
##begyn
##utvik
##uar
##mens
##bygg
##ow
##noen
##utg
##verk
##skulle
##ca
##vok
##arbeid
##inner
##skal
##bade
##gam
##mu
##fyl
##Ut
##USA
##forb
##vir
##vet
##dri
##len
##dere
##dra
##samme
##person
##fjell
##sn
##»,
##sett
##ton
##ivers
##lin
##ofte
##red
##berg
##192
##sol
##uni
##noe
##ande
##valg
##")
##ida
##tig
##fatt
##dr
##sak
##bok
##ført
##tatt
##rak
##organ
##sker
##inga
##Ma
##kv
##okt
##Fra
##ff
##vann
##hj
##bare
##plan
##tar
##januar
##II
##inne
##ite
##aret
##pt
##kraft
##Oslo
##ike
##Ho
##Sp
##norske
##lu
##orde
##skil
##nye
##les
##bake
##bruk
##dal
##ark
##perio
##sisk
##navn
##pu
##ond
##musikk
##lands
##ung
##eter
##kket
##kker
##kel
##sje
##pen
##ja
##stre
##bas
##tilbake
##Mo
##produ
##anger
##uro
##innen
##asjonen
##mø
##fire
##ril
##Da
##øya
##gren
##nar
##plas
##sert
##iker
##hold
##spel
##folk
##start
##Sam
##fran
##delse
##kul
##juni
##sc
##funn
##vat
##rat
##gjorde
##siste
##slik
##ko
##11
##lege
##30
##deltok
##mester
##august
##ktet
##kten
##stru
##Stor
##mai
##mars
##klub
##nok
##ian
##største
##the
##Be
##190
##els
##representer
##Co
##fem
##ligg
##vn
##Man
##ober
##Ty
##mon
##stand
##omradet
##kamp
##disse
##Her
##ska
##veg
##("
##sland
##menn
##so
##førte
##su
##nings
##ill
##stø
##delt
##bor
##ide
##eder
##kjø
##lok
##oppr
##By
##hør
##skole
##Kar
##sær
##sty
##seson
##stra
##Sør
##lv
##familien
##try
##nytt
##søn
##juli
##arr
##mor
##Th
##vit
##fi
##navnet
##engel
##fotball
##tember
##yd
##eld
##50
##publi
##september
##ou
##rø
##olen
##bur
##hn
##spesi
##go
##fatter
##ive
##tor
##siske
##ation
##em
##kunst
##ikkje
##ighet
##tillegg
##oktober
##april
##ftet
##lo
##Or
##Ge
##erne
##aten
##ville
##arene
##bruar
##sky
##stein
##februar
##ara
##gjen
##dese
##nam
##kalt
##egen
##desember
##igjen
##gav
##jem
##kke
##sik
##konkur
##rekke
##kter
##enes
##ogram
##New
##rus
##viktig
##brukt
##ets
##vember
##gende
##ente
##ult
##finnes
##klas
##først
##oner
##november
##bi
##bø
##Euro
##isen
##dist
##ener
##189
##hver
##iden
##elige
##arbeidet
##milli
##25
##ac
##kong
##liv
##usjon
##eneste
##Med
##utt
##ring
##gener
##Se
##El
##Der
##risti
##Under
##Gr
##iversitet
##lingen
##havet
##albumet
##ionen
##mindre
##Sver
##lav
##menne
##sprak
##kil
##dd
##isert
##Par
##full
##ekse
##hele
##samt
##arar
##kommer
##tiden
##Sommer
##grav
##Dan
##rist
##Rom
##int
##Hans
##ps
##spilte
##lat
##alder
##kort
##film
##leng
##døde
##2008
##heng
##mpel
##kultur
##vanlig
##vei
##ys
##idrett
##kat
##leder
##sven
##hjem
##2010
##Ved
##dat
##Bo
##komp
##dus
##holdt
##beste
##ses
##hos
##trad
##jord
##gjør
##rit
##VM
##Ba
##ich
##ky
##bel
##Me
##Tysk
##regjer
##if
##ars
##La
##Sch
##aler
##2011
##Sa
##alist
##Wil
##amerikanske
##medal
##halv
##stan
##gu
##ulike
##lever
##2007
##Denne
##sma
##større
##øv
##slaget
##skrevet
##ummer
##side
##ppen
##Kon
##etab
##Eng
##2006
##øver
##kring
##sønn
##aren
##co
##gra
##kre
##forskj
##rer
##Har
##stort
##ativ
##begynte
##ity
##ott
##He
##bra
##2012
##Ste
##tes
##Car
##stilling
##24
##John
##188
##dyr
##sh
##delen
##ess
##tyske
##matte
##ologi
##fest
##kro
##kene
##asjoner
##oly
##ondon
##olle
##kirke
##skrig
##terte
##tred
##London
##lertid
##natur
##Europa
##21
##Hen
##alla
##perioden
##heten
##pun
##iner
##representerte
##blei
##pop
##barn
##ile
##dan
##satte
##ffe
##bandet
##hov
##ving
##gt
##band
##old
##gjort
##slatt
##Men
##2005
##elv
##løpet
##Vest
##eksp
##ania
##Per
##lert
##lov
##Tyskland
##konom
##jør
##hy
##23
##gitt
##ori
##Andre
##deres
##teg
##forsk
##heter
##Dei
##nevn
##hvert
##ore
##tert
##Histor
##lar
##pri
##2009
##ins
##Te
##følge
##krigen
##bed
##studi
##topp
##klar
##sil
##dy
##elser
##up
##bane
##rike
##22
##ital
##minist
##kam
##heim
##ise
##pav
##Bar
##fun
##gamle
##jet
##hjel
##opprett
##Frankr
##apen
##gull
##fug
##tysk
##lær
##organis
##fleste
##Kom
##Sverige
##100
##milit
##arrang
##provin
##oper
##opprinn
##ikken
##jern
##ev
##bestar
##bygget
##Johan
##eres
##stit
##internasjon
##utgitt
##Fil
##mulig
##fjer
##kal
##deler
##stedet
##annen
##nummer
##fast
##ral
##program
##minister
##Mon
##Ver
##ful
##187
##skog
##So
##god
##ganger
##Po
##Bergen
##tredje
##Frankrike
##anna
##amerikansk
##2004
##ktør
##syk
##2000
##lev
##sesongen
##Pro
##forfatter
##kny
##Kr
##mi
##spor
##middel
##28
##aust
##versjon
##seks
##sing
##stats
##sang
##forsø
##gruppe
##slekt
##eksempel
##ip
##bert
##skip
##prof
##eren
##partiet
##derne
##60
##Et
##las
##Hol
##oen
##svært
##one
##produksjon
##Til
##fjorden
##frik
##our
##staten
##pas
##tj
##økonom
##ct
##startet
##rum
##27
##helt
##Inn
##eri
##sport
##40
##At
##klu
##sto
##Lu
##rasjon
##mye
##bygd
##Om
##stod
##Sc
##ram
##ope
##fekk
##Li
##sentr
##fall
##isi
##kant
##ku
##2016
##mand
##isjonen
##ald
##26
##ika
##kap
##øre
##ris
##dte
##finalen
##presiden
##tap
##produs
##gruppen
##fyr
##videre
##derfor
##havn
##grad
##Rus
##ikt
##kken
##Fre
##Land
##borg
##slutten
##føre
##forskjel
##stam
##dert
##sm
##kjente
##omrade
##mentet
##langs
##nett
##fører
##burg
##verdens
##2013
##popul
##Før
##lam
##sosi
##engelsk
##Con
##Ad
##ata
##fore
##fag
##aktiv
##2014
##innbygg
##litt
##rel
##England
##sommer
##TV
##hører
##handling
##sig
##Ha
##()
##ib
##funnet
##ikker
##historie
##høg
##felt
##Tr
##Gu
##spilt
##syste
##led
##britiske
##brukes
##alli
##dar
##ustri
##Com
##1990
##bry
##annia
##ges
##imid
##ktur
##Storbrit
##Bl
##serien
##enskap
##distrik
##imidlertid
##løp
##renn
##th
##fleire
##luft
##Norges
##fter
##ledet
##29
##tett
##derte
##oss
##2015
##foren
##Amer
##staden
##innbyggere
##kalla
##oren
##ana
##veien
##Col
##Ed
##virk
##folket
##forsvar
##fisk
##bla
##tidleg
##hu
##bestem
##olymp
##bus
##isme
##sal
##begge
##hennes
##lange
##bin
##riere
##qu
##deretter
##mene
##delig
##Tor
##inklu
##oppdag
##ovjet
##Mid
##mes
##mag
##sket
##angre
##klubben
##Aust
##cke
##Bak
##holder
##lys
##Opp
##ønn
##Bra
##ød
##forbin
##1980
##Ra
##slutt
##riks
##dermed
##elekt
##ius
##Ital
##Sy
##Storbritannia
##friidrett
##langt
##ørs
##186
##Br
##viser
##beny
##ju
##talet
##vid
##elva
##stasjon
##orn
##2003
##lene
##deling
##kol
##forskjellige
##kret
##urope
##filmen
##arter
##2001
##administ
##særlig
##mate
##kine
##tradisjon
##igh
##1970
##gift
##tidig
##ium
##ider
##franske
##mas
##kse
##kyr
##fordi
##bid
##nelsen
##lot
##dens
##sølv
##anse
##ting
##godt
##use
##atet
##Ny
##felle
##bron
##che
##Can
##Av
##ille
##kval
##ork
##konkurran
##Fol
##.-
##iva
##Fin
##sist
##pos
##basert
##president
##port
##verdenskrig
##hatt
##Ein
##meste
##fart
##fransk
##selskap
##titt
##tekn
##gir
##spr
##sia
##Su
##fan
##2002
##ogn
##mis
##arrangert
##aland
##fylke
##idae
##flyttet
##krit
##Sen
##gjerne
##folke
##bro
##selskapet
##iversitetet
##vise
##Kina
##nasjonal
##kontr
##job
##tale
##sat
##gard
##sjøen
##valgt
##Ham
##app
##lite
##hi
##Nav
##sid
##ep
##1960
##2017
##tere
##sit
##dannet
##litter
##2019
##Tron
##dann
##gg
##liten
##enk
##entet
##Historie
##sein
##skue
##but
##fant
##hovud
##Russland
##samling
##utbre
##dia
##Ale
##ni
##regionen
##plasser
##Disse
##Italia
##veit
##skolen
##støtte
##iserte
##provinsen
##ren
##statt
##avheng
##verket
##gel
##pol
##bisk
##Mal
##2018
##makt
##div
##offent
##banen
##vær
##spill
##ers
##skrive
##tru
##ktiv
##saman
##nad
##ya
##ada
##git
##huset
##sag
##radet
##Lo
##Is
##bronse
##pass
##aller
##ografi
##industri
##datter
##eldre
##ollen
##isering
##Bu
##fjord
##Nar
##akter
##Danmark
##oli
##Trond
##arane
##sette
##ator
##befolk
##mm
##moderne
##styre
##menter
##bat
##innbyg
##dende
##millioner
##Dav
##1999
##igur
##dde
##kont
##ula
##hær
##nevnt
##185
##utøver
##Kommun
##Noreg
##brun
##nadde
##vekt
##Christi
##vist
##hil
##tot
##Mag
##aner
##vinne
##konge
##kongen
##Paris
##ferdig
##trykk
##Pre
##kvinner
##offisi
##Kong
##31
##Lar
##hard
##italien
##ingar
##Pr
##skje
##Bro
##gte
##jar
##svensk
##kast
##test
##Byen
##kli
##aen
##kjem
##result
##konser
##delag
##mit
##personer
##bud
##zz
##Ser
##Kristi
##skrift
##parte
##ino
##forhold
##Coun
##vek
##imot
##San
##viste
##sluttet
##ometer
##Mus
##utvikling
##skar
##To
##sens
##muse
##livet
##ts
##..
##hundre
##utviklet
##lokal
##romer
##tidlegare
##80
##parti
##vapen
##1992
##Peter
##fon
##utgav
##Er
##seende
##ekte
##erer
##nesten
##hjelp
##sju
##1996
##motor
##steder
##Char
##biller
##Je
##garden
##Norsk
##pra
##vol
##kalle
##høye
##plassen
##1994
##byr
##lerede
##ci
##Sel
##rask
##Afrik
##betyd
##myn
##Utbre
##serie
##kysten
##rid
##184
##Island
##areal
##sida
##enkel
##omrader
##gjøre
##aut
##sne
##Karl
##spun
##opprettet
##holm
##hev
##Ol
##omfatt
##gy
##70
##ppe
##ansvar
##Univers
##gammel
##henne
##europe
##omkring
##internasjonale
##gangen
##AS
##1998
##døm
##følger
##rolle
##vinter
##mennesker
##radi
##lub
##kilometer
##age
##hopp
##Ta
##rekte
##mang
##dagen
##dalen
##Jan
##relig
##keiser
##undet
##ons
##Ve
##Øst
##proble
##ames
##utan
##olf
##medlemmer
##arbeider
##ped
##pper
##departe
##Mil
##York
##samfunn
##ppa
##kri
##kn
##russisk
##vern
##beveg
##ali
##stav
##ley
##etablert
##neder
##tem
##spesielt
##represent
##gjekk
##do
##Kir
##fang
##hin
##1997
##mesterskapet
##fortsatt
##ank
##kompon
##bruker
##1991
##Utbredelse
##familie
##ola
##hovedsak
##Inter
##unge
##bod
##Mart
##venn
##beteg
##ette
##general
##Go
##ern
##Tid
##essor
##Ja
##via
##tu
##miljø
##eig
##namn
##sla
##ograf
##Paul
##EM
##ungdom
##disk
##pris
##svenske
##bort
##kommunen
##trent
##iste
##1995
##mør
##klubb
##innenfor
##Mc
##1988
##valget
##biskop
##følgende
##vene
##Liv
##1993
##antall
##skjed
##rag
##øk
##knyttet
##kamper
##sentral
##ford
##effe
##ama
##jap
##berre
##35
##serte
##direkte
##dels
##ica
##vore
##retning
##prosje
##sch
##system
##utenfor
##Willi
##medalje
##punkt
##grens
##turner
##kjør
##verd
##lett
##Stat
##ytter
##forbindelse
##interes
##skuespiller
##okrat
##seier
##kart
##innbyggj
##bos
##seinare
##Val
##delstaten
##ock
##Afrika
##pan
##likevel
##ational
##grupper
##Gre
##region
##ame
##1989
##finner
##politiske
##vitenskap
##fte
##former
##model
##oku
##ansen
##1800
##tids
##arkite
##holde
##tol
##ick
##aldri
##sym
##strøm
##barne
##kalles
##deles
##poeng
##funksjon
##sli
##ute
##dire
##vak
##Hø
##ager
##apnet
##musik
##alderen
##ete
##Mer
##wa
##Mot
##Fred
##gitar
##divisjon
##1984
##instru
##søk
##isten
##County
##Gar
##kjenn
##My
##bøker
##staende
##90
##øyene
##Utseende
##aste
##ander
##istiske
##samtidig
##same
##regjering
##.»
##nem
##professor
##opprinnelig
##sentrum
##drift
##periode
##Sle
##sar
##ligere
##bety
##Mor
##vare
##systemet
##Sand
##Hand
##2020
##mannen
##von
##Lin
##dager
##jørn
##neste
##Trondheim
##pat
##ias
##Amerika
##vansk
##tilhører
##fakt
##Sal
##hl
##1900
##karriere
##kjøp
##prisen
##500
##Mel
##Og
##gresk
##onen
##ash
##fen
##kirken
##Arbe
##Antar
##1950
##kvar
##Am
##kta
##tida
##fr
##ongen
##ckey
##hv
##foran
##inget
##somhet
##angrep
##(«
##We
##ico
##poli
##bol
##kjend
##setning
##songen
##Mange
##Ka
##vite
##jur
##Thom
##borger
##midt
##Don
##stendig
##rael
##Hel
##Fri
##skol
##sjølv
##Mich
##felles
##pal
##andet
##Ul
##Austral
##William
##enten
##Ti
##spelte
##allerede
##drag
##kraftverk
##landsk
##virke
##University
##omtrent
##iks
##skipet
##hvil
##fjellet
##Berlin
##malt
##vari
##agen
##engelske
##namnet
##fjerde
##ero
##bom
##forhol
##kvart
##ologiske
##sendt
##sek
##bon
##Kn
##Fj
##eldste
##meir
##brukte
##olusjon
##ordan
##figur
##sister
##ktor
##tene
##ismen
##kvalif
##Hal
##1987
##1972
##alet
##slav
##Stort
##skriver
##Universitetet
##lei
##sidan
##1986
##politisk
##nev
##omin
##bror
##Du
##opphav
##din
##yrk
##tv
##Ir
##1945
##stjer
##inkludert
##øl
##skjer
##ærer
##Bre
##inske
##eleg
##Kj
##asjons
##studen
##eget
##endte
##departementet
##1985
##kampen
##Sol
##tran
##lerte
##180
##opprør
##utbredt
##alte
##litteratur
##spillet
##ningene
##riket
##fabr
##nest
##urt
##Bru
##nordvest
##grunnlagt
##Di
##song
##Pri
##aka
##ice
##elder
##tittelen
##Bel
##flyt
##kolon
##dansk
##kroppen
##ærende
##kontor
##cu
##lokale
##iz
##Jon
##mask
##400
##uth
##militær
##mere
##medan
##1968
##Fyl
##vand
##nøy
##roman
##strid
##aksjon
##vanligvis
##meng
##Jap
##doku
##katol
##ala
##risk
##rale
##Selv
##arab
##dik
##landske
##fortsatte
##akk
##løs
##kinesisk
##olympiske
##egne
##ding
##begynnelsen
##1940
##gl
##utnevnt
##samarbeid
##ganske
##spille
##insk
##Gru
##skom
##Sovjet
##angen
##Trom
##midten
##osof
##blom
##sann
##universitet
##mess
##1920
##Album
##stene
##innbyggjarar
##Bakgrunn
##hockey
##Pe
##niva
##skre
##spro
##fru
##betyr
##nytta
##ativt
##Stock
##sende
##republi
##sikt
##sku
##gatt
##ferd
##Gra
##Noen
##Ag
##tta
##formann
##ves
##III
##tjeneste
##stal
##oster
##tri
##Fl
##defin
##ologisk
##liste
##kle
##Bi
##møtte
##sene
##nende
##leker
##fir
##anten
##Neder
##NR
##por
##saker
##krigs
##Spania
##FC
##kontra
##Stu
##45
##politiker
##krav
##bør
##gro
##Vi
##As
##37
##Tur
##ksess
##sterk
##regis
##enkelte
##1964
##za
##vingene
##kraftig
##Robert
##Roma
##klarte
##mak
##sterkt
##tilsvar
##kry
##vere
##feng
##").
##iti
##sørvest
##1976
##sanger
##dro
##Bla
##Alle
##inen
##tilf
##tildelt
##we
##ish
##natt
##komme
##Stav
##studerte
##bygge
##ona
##fas
##tenn
##1973
##dagens
##36
##minst
##unionen
##1983
##vevis
##sesong
##kvinn
##ze
##skyl
##teater
##riske
##finne
##klart
##forening
##bia
##Port
##meister
##1979
##unnet
##1982
##spir
##snitt
##russiske
##regel
##britisk
##Over
##tan
##servat
##Brasil
##1975
##istisk
##svart
##1974
##stilt
##asjer
##enkelt
##brø
##karakter
##spesial
##peratur
##marked
##jing
##ony
##1981
##ensjon
##forskning
##Min
##blad
##Ander
##Tom
##Christian
##alter
##produsert
##moh
##spra
##"-
##utdan
##Olav
##bis
##tren
##Do
##uavheng
##dyn
##mater
##Sh
##1969
##Reg
##»)
##direktør
##myndig
##synlig
##iteten
##stri
##kjemp
##ood
##ney
##Wh
##fylkes
##levde
##dikt
##lenger
##inneholder
##Bay
##oppgav
##Bur
##Hell
##løy
##1978
##prest
##India
##Stockholm
##utter
##ath
##bruke
##Kø
##"),
##vide
##best
##David
##sentrale
##suksess
##ming
##konstru
##raft
##dam
##mist
##af
##No
##danske
##stoff
##Japan
##Canada
##Høy
##NRK
##noko
##Var
##lenge
##Ben
##kombin
##finst
##Gro
##spelar
##way
##desse
##Mun
##ømmer
##33
##iene
##instit
##1977
##filosof
##ago
##kron
##likt
##debu
##gruppa
##erstatt
##demokrat
##orien
##Bor
##ph
##1967
##Ju
##pin
##Arten
##benyttet
##gate
##regnes
##jene
##europeiske
##trom
##gud
##delser
##Part
##okk
##Siden
##post
##NM
##runde
##aly
##Kun
##Qu
##benhavn
##fred
##kontroll
##verdi
##giftet
##]]
##Str
##formen
##resten
##Ke
##dater
##valgte
##bot
##bakken
##1971
##fiske
##hert
##refer
##dekk
##sper
##konkurransen
##maler
##viktigste
##Mad
##høyde
##styret
##Carl
##syke
##[[
##39
##døy
##Senere
##sson
##Air
##Tre
##1930
##hovedsakelig
##uelle
##Levevis
##festiv
##indiv
##iss
##dommer
##spre
##rich
##Eli
##sutøver
##København
##ora
##Øster
##ato
##merk
##hjemme
##Vik
##mur
##flag
##malet
##City
##dommen
##sider
##vig
##prin
##atene
##kommand
##Trøn
##parlam
##talte
##Blant
##omfatter
##Fo
##fulgte
##tross
##Finn
##fron
##Kor
##heller
##regi
##kas
##fy
##Dag
##meget
##hum
##organisasjon
##legger
##38
##ach
##svarte
##Geor
##sekret
##vo
##eks
##hverandre
##1948
##Ga
##Gud
##nasjonale
##ords
##1965
##own
##gjeng
##stral
##con
##Au
##ourn
##Thomas
##krist
##allen
##tekst
##Australia
##32
##sberg
##voksne
##rift
##ppet
##Hoved
##gent
##øse
##komite
##vikt
##hva
##Georg
##artene
##Angel
##egg
##toppen
##avis
##Cor
##klassen
##senteret
##nia
##Wor
##Ger
##handels
##dsvis
##asje
##ode
##Norske
##saken
##rekord
##vinn
##1956
##ellet
##34
##mente
##gode
##Henrik
##ign
##skaps
##lengre
##alene
##Fer
##reise
##Fa
##1966
##Gi
##reiste
##fugl
##slekten
##revolusjon
##grense
##Tra
##tyn
##bygde
##handler
##Vil
##Navnet
##stiftet
##Mellom
##kropp
##debuterte
##Trøndelag
##ova
##eksister
##parten
##Alex
##Beg
##bøl
##ninga
##cm
##aget
##finn
##Gj
##lista
##medis
##fal
##Vol
##Rec
##West
##pres
##slags
##Albumet
##Cl
##tom
##ettersom
##elses
##lt
##utfor
##stillingen
##Ric
##farge
##lærer
##fotballspiller
##rene
##Na
##ordet
##politi
##styrker
##flate
##Ven
##orig
##Sveit
##gjeve
##raskt
##romerske
##landets
##fett
##standen
##Filmen
##foret
##struktur
##fold
##Rad
##regjeringen
##psyk
##seil
##75
##skriv
##olje
##dess
##stab
##Lou
##talt
##Kat
##Brit
##leik
##sivil
##overtok
##elven
##sjekk
##eksped
##føring
##offentlig
##Hall
##Ze
##nordlige
##pisk
##skaper
##redus
##Ni
##Sveits
##itz
##nene
##retts
##plassert
##Bil
##hvordan
##nomin
##angel
##tein
##status
##bedre
##Nam
##inntil
##fyrste
##daktør
##utstyr
##forv
##besky
##Vinter
##Martin
##Sovjetunionen
##delsen
##Stavanger
##faren
##flu
##forsøk
##plate
##befolkningen
##distriktet
##ringer
##ras
##bolig
##minne
##1963
##tapte
##hang
##legget
##ano
##inform
##kunn
##Fr
##sovjet
##møte
##Van
##Rog
##journ
##sjef
##enda
##ight
##drept
##Gl
##mykje
##Song
##offiser
##Ter
##øs
##rim
##vinner
##rollen
##kyrkje
##ordenen
##militære
##helm
##isere
##matisk
##Kro
##Hau
##administrasjon
##oret
##rød
##historiske
##omat
##arten
##irk
##Fredrik
##misjon
##nevnte
##delingen
##byer
##Christ
##Ko
##Kommunen
##garn
##sosial
##stant
##Nederland
##Phil
##ega
##chen
##feil
##studio
##Ex
##ønsket
##Jer
##betydelig
##sørlige
##1962
##trekk
##bevis
##varte
##Finland
##rør
##Asia
##bodde
##esjon
##hit
##Aker
##vende
##cy
##tør
##skr
##ilt
##bygning
##Si
##gul
##linje
##James
##300
##Ly
##fler
##maet
##bygging
##antar
##Nil
##temperatur
##kja
##rapp
##ikere
##ric
##giv
##okku
##als
##ited
##unt
##forbund
##høyeste
##Byg
##lage
##Stortinget
##ering
##hets
##Ab
##sikker
##samlet
##stopp
##itter
##Berg
##ini
##handel
##brev
##Lang
##iel
##origin
##George
##inae
##ingene
##olympisk
##trafikk
##statsminister
##kost
##sub
##katolske
##hei
##lant
##nordøst
##Mex
##museum
##Tele
##tilhør
##ogen
##oppdaget
##ple
##Erik
##indre
##Fylkes
##ensi
##jo
##leis
##ria
##resultat
##unnen
##Jac
##Ru
##stander
##1952
##enter
##regist
##hau
##iør
##sekretær
##menneske
##redaktør
##vanleg
##falt
##betydning
##utgiv
##sangen
##ales
##boken
##anlegg
##prosent
##øyer
##vanskelig
##eien
##vokste
##kunstner
##Lille
##Lan
##rert
##størr
##otball
##forel
##grensen
##spørs
##flaten
##Id
##endret
##Roy
##bakgrunn
##publik
##eden
##rock
##verds
##spelt
##ome
##ellen
##strek
##posisjon
##65
##Slekten
##kvinne
##filmer
##songar
##ld
##dige
##materi
##Ski
##oppført
##Los
##religi
##nød
##1958
##asen
##bord
##deira
##1961
##ømme
##can
##Hu
##rette
##gn
##delige
##greske
##heile
##lagd
##ward
##stilte
##relativt
##helse
##hæren
##profesjon
##Sammen
##gjeven
##grenser
##ari
##sir
##lyd
##eier
##varier
##aster
##vunnet
##viktige
##radio
##Bon
##italiensk
##strand
##kanskje
##skot
##fær
##kere
##forbundet
##alltid
##brudd
##Vic
##iret
##Maria
##Sant
##derimot
##begre
##klasse
##nø
##samle
##Sjø
##dynast
##omradene
##ros
##Polen
##Krist
##Cap
##duksjon
##funger
##1946
##stadig
##ita
##Bei
##179
##type
##Bir
##48
##konf
##omen
##Aug
##ade
##Grand
##skon
##NA
##arer
##bred
##kontin
##ith
##orth
##sakalte
##Met
##breen
##bass
##."
##Mas
##Ogsa
##talen
##legge
##iale
##slike
##trener
##lære
##fat
##sja
##kontakt
##55
##debut
##event
##oller
##kloster
##regnet
##odi
##ktene
##klok
##tegnet
##avdeling
##styrke
##væ
##søkte
##prakt
##ktig
##1936
##mennene
##formula
##Gam
##stasjonen
##offisielle
##kop
##stafett
##ative
##utgjør
##delvis
##formula_
##Øy
##venstre
##igheter
##erstattet
##ryg
##atom
##terr
##sørøst
##Oper
##dob
##Pla
##andid
##varen
##otum
##anter
##peri
##merke
##1500
##lengde
##ctic
##Ky
##erobr
##skjedde
##ella
##Famil
##programmet
##hetene
##Ry
##rester
##istan
##skilt
##bygningen
##Israel
##deltak
##orten
##inte
##varme
##Sim
##journalist
##høyere
##rerer
##sannsynlig
##sterke
##okus
##setter
##Skott
##Del
##maneder
##Ca
##United
##jor
##Cali
##que
##1957
##motstand
##oppkalt
##1947
##historisk
##sessen
##Rio
##hvite
##1939
##somra
##ronning
##sem
##staur
##japansk
##Bill
##1944
##totalt
##uler
##Egy
##Run
##ordfører
##47
##iger
##vent
##arbeids
##uel
##oc
##1959
##nen
##Mu
##spillere
##ansett
##privat
##pot
##korte
##ington
##blio
##belt
##Mexico
##nokre
##udd
##All
##kka
##representant
##hvis
##distrikt
##formet
##Ifølge
##ttes
##etten
##ffer
##merket
##konsert
##hertug
##Records
##arbeide
##populær
##fel
##eth
##brann
##leve
##ønt
##kristne
##grensa
##rekna
##produsent
##ani
##ugh
##kyst
##sand
##Johannes
##opprinnelige
##snak
##italienske
##etablerte
##ild
##jeg
##Bern
##ører
##Egypt
##kommet
##Franc
##bere
##fengsel
##ipp
##spunkt
##leir
##arts
##herre
##Fly
##solgt
##Muse
##Irland
##ards
##landsby
##Pal
##inspir
##Sent
##ji
##semi
##utdanning
##stillinger
##artist
##rettet
##itler
##medaljer
##bart
##Bok
##loven
##nas
##kroner
##Califor
##stol
##stall
##døydde
##hem
##laga
##drev
##aga
##ye
##vesen
##personlig
##derer
##drene
##rang
##reis
##Kore
##bladet
##verne
##National
##range
##ansatt
##IV
##klær
##Des
##trolig
##Far
##fu
##stid
##vind
##henhold
##økonomiske
##1949
##nab
##rul
##søster
##ordin
##sign
##Sha
##aktivitet
##ledes
##hens
##Lud
##You
##kinesiske
##spanske
##1941
##Bade
##røy
##vendig
##sier
##spraket
##anser
##mede
##MS
##mt
##strekk
##akadem
##vers
##Hus
##California
##tif
##lagene
##rekk
##attende
##tog
##sess
##nr
##ions
##trakk
##bevegelsen
##Hav
##Mosk
##siv
##gan
##1700
##Freder
##vass
##Kol
##mund
##Skottland
##Ek
##soldater
##nede
##Hellas
##MW
##dannelse
##Jes
##fjern
##kjen
##økonomisk
##utvi
##sommeren
##Mat
##ael
##maten
##asin
##latin
##Ele
##esel
##bour
##ømmet
##66
##ledende
##individ
##utdannet
##ague
##publikken
##vur
##how
##800
##.,
##utgang
##million
##fokus
##dokt
##World
##hode
##Jack
##akon
##Spe
##eland
##yng
##pil
##49
##mos
##hvorav
##lad
##ston
##innsjø
##hr
##starten
##Tri
##1954
##singel
##blod
##1955
##symbol
##stift
##Sur
##snø
##vard
##kjønn
##ison
##skrigen
##femte
##Bjørn
##rykket
##landslaget
##park
##Flere
##150
##mod
##Selskapet
##oft
##Deretter
##oide
##mennesk
##latt
##sjel
##skøy
##stille
##behandling
##midlertid
##Instit
##sif
##erke
##1942
##aker
##mottok
##innan
##spen
##øp
##Pat
##Beijing
##trebu
##politikk
##feltet
##marker
##deleg
##1938
##SS
##følg
##jobbet
##stammer
##Mol
##altsa
##betra
##liggende
##Angeles
##unde
##oppdrag
##uelt
##nerte
##innflyt
##høyre
##gis
##vestlige
##1928
##konkurrerer
##kandid
##transport
##Klub
##tittel
##Super
##dessuten
##sdal
##64
##vekst
##85
##preget
##bank
##orke
##Red
##1912
##obser
##søra
##manns
##Os
##dis
##myr
##lignende
##effekt
##cel
##Arbeider
##Tro
##kkel
##Michael
##intro
##col
##høsten
##øye
##vatn
##vision
##Vin
##Hot
##energi
##iseringen
##Fal
##egent
##Sil
##nærings
##ktis
##com
##fugler
##Ram
##On
##bestemt
##domin
##ultur
##slov
##restaur
##problemer
##stjerne
##Ungarn
##kristen
##Anton
##ix
##halvøya
##1918
##fos
##moder
##sats
##arke
##League
##mesterskap
##nere
##allierte
##fulgt
##offer
##Sing
##elsene
##bestemte
##uttrykk
##aktig
##dekket
##alvor
##biblio
##anda
##uk
##munn
##studier
##CD
##Juli
##samfunnet
##skreiv
##smal
##cher
##kjøpte
##plante
##ht
##bul
##pir
##bruks
##publikum
##Ole
##tusen
##yer
##CA
##fulle
##utviklingen
##bærer
##administrat
##hor
##rige
##dor
##iat
##Richard
##Frem
##spunktet
##sendte
##historien
##arhundre
##held
##August
##ena
##Fe
##særleg
##gon
##Charles
##NT
##fløy
##versjonen
##giver
##løst
##Tek
##arkitekt
##horn
##messig
##inse
##1953
##Res
##spart
##virksomhet
##1924
##Nap
##spo
##1943
##ikkel
##44
##tilkny
##krev
##anen
##vegen
##informasjon
##sset
##skade
##Hy
##base
##san
##universitetet
##ure
##Cer
##.)
##Lei
##gass
##taler
##Frank
##bland
##sav
##Østerrike
##ikeren
##stig
##tilsvarende
##Victor
##tning
##flagg
##alp
##Bow
##Kristians
##Sogn
##jakt
##forteller
##viet
##omfattende
##offisielt
##Mac
##hoff
##hur
##Antarctic
##syv
##vald
##Gjennom
##1919
##bilde
##1000
##punktet
##finan
##Folke
##Tran
##Stein
##ress
##mik
##øren
##hund
##pave
##utvidet
##Omradet
##uta
##bein
##male
##1600
##ungdoms
##varer
##darlig
##situ
##fortell
##forlot
##hodet
##jazz
##strat
##aver
##løper
##retten
##epis
##øyane
##fremdeles
##Tu
##friidrettsutøver
##Pan
##orer
##Moskva
##plat
##Kunst
##beskrevet
##Pet
##jef
##Sven
##organisasjonen
##landsbyen
##ansatte
##vorte
##mekan
##Magn
##jorden
##uer
##Harald
##populære
##1933
##onia
##ærlig
##yngre
##standard
##jente
##1951
##preste
##dokument
##Dy
##danna
##kjende
##wood
##Knut
##Songen
##oversikt
##log
##46
##elektron
##FA
##tyder
##virket
##turneringen
##sterrik
##vannet
##pene
##turne
##posit
##skiftet
##ønne
##høyt
##møter
##spørsmal
##interesse
##hvit
##betegnelsen
##him
##deri
##uttry
##Stil
##Mur
##musikken
##oder
##King
##passasjer
##arme
##planter
##178
##oden
##styrkene
##ifølge
##ies
##bal
##skapen
##spansk
##lie
##fordelt
##byrja
##endørs
##Dist
##ender
##delta
##stortings
##ool
##Il
##gas
##naværende
##pavir
##1932
##amt
##bestod
##nemn
##Louis
##fry
##wn
##engt
##ikar
##ost
##ose
##vs
##tunn
##prø
##uther
##hevdet
##samisk
##prim
##vold
##vakt
##otter
##stemmer
##Like
##dømes
##Intern
##ledelse
##Zealand
##Gran
##Stad
##vanlige
##Ku
##spis
##forsøkte
##byens
##drevet
##42
##gong
##avsluttet
##Lars
##mistet
##hot
##offentlige
##middels
##Kin
##dekker
##1937
##BC
##utført
##IS
##vas
##Ali
##vatnet
##fien
##78
##tering
##hovedstaden
##ary
##kjer
##aud
##forfatt
##Korea
##skips
##befolkning
##utslatt
##late
##hou
##field
##tele
##obje
##innført
##Belg
##Pu
##andreplass
##Mens
##boka
##avtale
##lim
##ors
##pian
##uen
##Tromsø
##jert
##jernbane
##grenset
##jevn
##cupen
##Lag
##matikk
##undervis
##data
##rieren
##hjul
##idge
##plassering
##Osc
##advok
##ffet
##regn
##bidrag
##Fort
##henger
##arv
##naden
##ura
##ytterligere
##praks
##tolv
##Riks
##kjøpt
##rar
##forsker
##underfamilien
##Lam
##gin
##ingeniør
##sul
##68
##omtalt
##alam
##1934
##samlingen
##hjer
##dets
##unntak
##mpl
##rop
##kardin
##Royal
##ae
##trebukker
##angrepet
##ical
##Finnmark
##ettet
##gjelder
##NS
##real
##kyrkja
##hab
##Antarktis
##støttet
##uker
##millimeter
##bjørn
##sjonen
##sagt
##Rø
##ikasjon
##sund
##67
##Sig
##Jose
##konkurranse
##Jacob
##mith
##berøm
##iserer
##Sar
##Midt
##materiale
##masse
##rykk
##spela
##ishockey
##Gener
##soldat
##altern
##cia
##600
##Bod
##maskin
##1910
##Nordland
##pasitet
##Fram
##hast
##gjeld
##renner
##58
##Eurovision
##Eg
##hjelpe
##analy
##aden
##tradte
##Larvene
##snart
##ledd
##Rock
##ah
##tyrk
##nominert
##ands
##stadion
##kull
##reist
##Dom
##170
##Mark
##lande
##fabrikk
##avvik
##retur
##eiro
##video
##idar
##egaende
##sor
##reser
##forsta
##ekstra
##sum
##veks
##ory
##Nic
##Jean
##teksten
##1935
##kaptein
##1917
##samen
##deb
##fritt
##vate
##vinteren
##ktes
##1908
##99
##board
##listen
##².
##invol
##Cat
##veis
##deren
##kg
##guvern
##famili
##gene
##Tot
##lest
##uly
##modell
##bisped
##dipl
##bygda
##mener
##1914
##kontrakt
##Pol
##cir
##kning
##bygninger
##forsv
##fødd
##Black
##føder
##fordel
##Bal
##Em
##bind
##lager
##inge
##Studi
##territ
##fylkesvei
##typer
##fødte
##oppdaga
##-,
##slet
##byggingen
##fjella
##Ei
##sed
##Sid
##list
##fremste
##Bus
##sken
##vinge
##ellers
##dynastiet
##lede
##medaljen
##gjev
##Kal
##shus
##Hill
##bun
##representerer
##Jak
##rerte
##later
##introdus
##ulkan
##ux
##atten
##spenn
##Saint
##handball
##spar
##fors
##orkester
##Ap
##eksempl
##skapte
##Ott
##1929
##spi
##Marie
##Hennes
##Arne
##internasjonal
##frig
##bad
##Anne
##danner
##krets
##musikal
##Max
##kin
##International
##kanten
##klare
##Wal
##metall
##Athen
##heilt
##ytre
##Park
##hovedstad
##Kan
##myt
##dersom
##pi
##bevart
##arabisk
##osisjon
##scu
##eta
##konged
##diske
##undersø
##Magnus
##nærheten
##nødvendig
##anke
##hust
##stede
##tradisjonelle
##produksjonen
##verda
##Gust
##sburg
##utdannelse
##ids
##retnings
##singelen
##57
##igheten
##delar
##bygger
##Store
##Oscar
##Ri
##formal
##alog
##bilder
##1922
##begynner
##Cast
##aktive
##finansi
##bokstav
##Nik
##embet
##overført
##wer
##gjenopp
##neg
##Gul
##tegn
##andin
##ivet
##tjene
##Cam
##diale
##byene
##ittel
##samband
##69
##solo
##alistiske
##motsetning
##kraftige
##følgje
##jinga
##Tyrk
##Yo
##foss
##sere
##grev
##1921
##Mi
##draget
##Agder
##Janeiro
##jel
##bereg
##forma
##festivalen
##etterhvert
##alitet
##minn
##behand
##Wa
##krys
##stun
##don
##CO
##Samtidig
##dømt
##"«
##typisk
##Kle
##War
##ogner
##41
##sikre
##mob
##museet
##fotballspelar
##Fotball
##lyst
##Tour
##59
##fød
##elles
##43
##foreg
##regissert
##Ned
##DS
##1931
##dent
##College
##driv
##komponist
##sey
##Belgia
##Fle
##Smith
##Dar
##ota
##Kultur
##verker
##zi
##ugo
##starta
##sped
##parlament
##freds
##Ark
##Første
##utgave
##62
##kateg
##Nasjon
##viss
##økonomi
##Dato
##Ara
##prosess
##plant
##legen
##tilgjeng
##los
##ink
##manske
##Gil
##praksis
##Thor
##Cent
##Wilhelm
##østlige
##stykke
##inv
##inspirert
##erstat
##1927
##177
##IL
##kommuner
##Dis
##Stra
##tennene
##aksep
##minutter
##lansert
##Tsjekk
##prosjektet
##kjempet
##Tar
##fullstendig
##blomster
##levende
##euro
##inndeling
##brede
##landene
##atør
##skudd
##Telemark
##Contest
##zo
##Cro
##cirka
##ms
##Josep
##generelt
##serer
##delene
##allet
##1925
##penger
##selve
##skoler
##møn
##institusjon
##edel
##andinav
##serier
##Francis
##sun
##føres
##prøv
##trær
##tel
##scen
##kelser
##mir
##inngar
##steg
##63
##kalte
##Lø
##mørke
##oven
##fødsel
##kilder
##Begge
##stallert
##etts
##tilknytning
##avholdt
##prefe
##Ron
##sovjetiske
##Fir
##middelalderen
##Kil
##Mak
##sete
##finsk
##Eit
##Sun
##verr
##strateg
##Vir
##hyl
##elege
##frukt
##delte
##heldt
##kopp
##piske
##avhengig
##vendte
##levert
##back
##medlemmene
##Henry
##enhet
##klassisk
##romersk
##Bas
##fullt
##innsats
##kommen
##vera
##vider
##chester
##Idrett
##roll
##ligaen
##Orden
##bit
##cker
##normalt
##forvalt
##japanske
##Gri
##skrifter
##EU
##størrelse
##planet
##uavhengig
##kore
##magasin
##super
##Que
##brøt
##bøn
##landskapet
##fylket
##»).
##sve
##junior
##skule
##FN
##bredt
##avtalen
##tilfeller
##dobbelt
##mpler
##Fest
##spekt
##rommet
##ivt
##fremst
##oftest
##Hed
##mane
##gal
##akia
##scoret
##fys
##Ind
##Joseph
##ave
##tredjeplass
##parken
##student
##inten
##Pron
##rest
##ikler
##Pra
##finale
##avslut
##hustru
##uell
##dronning
##avgjør
##king
##noksa
##Grøn
##1923
##kone
##ungar
##ologien
##Nes
##Øv
##stemme
##tonn
##røde
##Kristiania
##sjette
##Wien
##besøk
##tider
##forfatteren
##solgte
##forholdsvis
##øverste
##straff
##religiøse
##veldig
##1916
##istene
##blok
##ange
##Ant
##midler
##varierer
##1926
##Cu
##besto
##uke
##Portug
##Ur
##veier
##konservat
##demon
##tema
##prinsi
##Aleks
##ader
##sog
##elin
##Result
##cc
##vokal
##fjellene
##parall
##kvel
##sosiale
##Hov
##ddet
##pasi
##IF
##Syd
##Jar
##52
##uss
##skape
##fartøy
##ften
##timer
##Pas
##sko
##tegne
##innspil
##inkluderer
##Son
##artar
##rygg
##Dra
##160
##Anna
##benyttes
##idet
##opptak
##opptre
##konstruksjon
##jam
##Organ
##kampene
##hendelser
##publisert
##tilgjengelig
##detal
##Band
##Fjord
##fur
##Middel
##unna
##sønnen
##billene
##1905
##Love
##Lat
##dags
##Mount
##linjen
##normal
##Bandet
##Wash
##win
##økt
##skriven
##omet
##flytta
##spred
##etn
##1911
##grunnlag
##School
##Andreas
##egentlig
##hald
##typen
##hovudsak
##hardt
##cht
##blast
##ollar
##hurtig
##døds
##enden
##presenter
##88
##makten
##Gal
##innflytelse
##buset
##atret
##arkitektur
##fange
##Music
##utvikla
##Syste
##ont
##fjernsyn
##gjel
##organisert
##sok
##Antennene
##Aret
##illust
##iket
##orium
##Sunn
##religion
##private
##ktige
##elev
##";
##Jør
##Harry
##foreningen
##mitte
##bær
##olin
##nederlandske
##ij
##arlig
##yin
##velser
##hap
##Peder
##1913
##sykl
##oversett
##grunnla
##Søn
##gjennomsnitt
##syl
##Pronotum
##Bjør
##karrieren
##internasjonalt
##salg
##Tyrkia
##arrester
##østerrik
##gaende
##selvstendig
##israel
##drive
##interv
##union
##amby
##Sj
##Bri
##damp
##trer
##daglig
##kontrol
##initi
##kkes
##seri
##trakt
##61
##Polit
##austral
##hind
##Hansen
##musiker
##Bob
##Hor
##Nær
##bir
##smann
##slalam
##Dekk
##enheter
##Romsdal
##komiteen
##bedrift
##vulkan
##Hels
##olley
##Art
##kastet
##spring
##turist
##Øya
##spolit
##iro
##langrenn
##anne
##Dram
##meg
##arrange
##vogn
##matiske
##avisen
##strekker
##rute
##bukta
##Plan
##astron
##sykehus
##got
##videregaende
##Washington
##minner
##ES
##Hei
##sveit
##synes
##forut
##egy
##regissør
##somme
##ekspedisjon
##lek
##utover
##folketell
##resp
##Beat
##ødelag
##Ceramby
##nordaust
##Bul
##studenter
##Hard
##reform
##sekun
##rere
##uan
##Scott
##stiden
##forklar
##skjel
##byra
##identif
##1904
##Cerambyc
##innsjøen
##Leon
##rikt
##handlinger
##kvarter
##May
##enfor
##Rosen
##grader
##pensjon
##Kas
##opptil
##prosjekt
##skapt
##Dermed
##kanalen
##hentet
##framleis
##hindre
##kommersi
##Sted
##skildr
##gens
##format
##ppene
##rocke
##holdsvis
##rappor
##56
##somheten
##Af
##alistisk
##brune
##dele
##cent
##sørover
##bese
##plata
##1906
##okkupa
##islam
##kammer
##salt
##likhet
##tverr
##North
##protest
##Sangen
##Committe
##advokat
##South
##næring
##arder
##treng
##nordover
##sammenlig
##Arn
##Forsvar
##Namnet
##sommar
##anti
##Bet
##flat
##ensen
##forsy
##maned
##økte
##konger
##sons
##VI
##atak
##cus
##inene
##Ludvig
##produserte
##Tidligere
##Kam
##verdig
##Prix
##Committee
##organisasjoner
##Rob
##gjennomført
##løse
##Flor
##parlamentet
##rinn
##az
##Gunn
##oppmerk
##sykdom
##bildet
##ym
##Elva
##overfor
##Karriere
##fav
##bach
##Ce
##kritikk
##bb
##51
##hammer
##sur
##yo
##ior
##takt
##Jens
##USAs
##Ev
##desig
##Venstre
##54
##miner
##sitter
##elli
##annon
##elektrisk
##Administ
##sammenheng
##ati
##instrument
##filosofi
##lavere
##Stre
##agelig
##Sein
##Troms
##erobret
##Ring
##jødiske
##vidare
##rot
##driver
##skerne
##Mont
##opprinnelse
##Bis
##120
##77
##kjerne
##yret
##henholdsvis
##forslag
##rekkje
##RA
##profesjonell
##Handling
##nedlagt
##dekor
##skogen
##vag
##tydelig
##doktorg
##tidlige
##fotograf
##adel
##bydel
##oget
##inc
##1907
##front
##Dekkvingene
##semifinalen
##hai
##tung
##klassif
##Folkere
##kvad
##UN
##illa
##somrade
##stader
##God
##saks
##arabiske
##forsvars
##Gol
##unta
##endring
##Eid
##its
##elever
##erfar
##begrenset
##pinyin
##terer
##1915
##Sentral
##liber
##ekteskap
##Museum
##Ola
##alis
##itenskap
##tn
##klima
##stet
##Hann
##forsvaret
##punkter
##teori
##ellene
##kreft
##prøve
##osi
##representert
##Film
##Kristiansand
##løn
##Rol
##æren
##sjoner
##Pl
##Mary
##pte
##skikk
##vinger
##Sø
##Argent
##Bø
##Albert
##skij
##begrepet
##vokser
##ekspedisjonen
##problem
##Ør
##bidro
##imp
##Tan
##vey
##indiske
##passet
##kamer
##stikk
##forkort
##Chic
##700
##bered
##eksperi
##holdet
##begrav
##uch
##populært
##Hitler
##Cal
##enez
##dog
##cks
##...
##slett
##anled
##nelse
##Tex
##Sw
##besø
##Gruppen
##Hum
##forbed
##Statens
##Veien
##endringer
##hom
##tekster
##skiller
##søy
##sjen
##virkelig
##well
##bøkene
##enna
##hjør
##zen
##lanter
##hekk
##kane
##flyet
##Jim
##grunnet
##1909
##FL
##Konstant
##Ban
##Ukra
##Folkerepublikken
##53
##1890
##oni
##Olsen
##kvinnelige
##Høg
##gards
##prins
##republikken
##samarbeidet
##eiendom
##ekstre
##ødelagt
##angri
##ningar
##behov
##Lund
##Rag
##sikkerhet
##tvil
##erklær
##apo
##Helsing
##anlegget
##priser
##forsamling
##naturlig
##Radio
##nedbør
##forholdet
##Portugal
##skor
##prefektur
##jeneste
##Jakob
##reiser
##1200
##nærmere
##biler
##kors
##søraust
##Rogaland
##kne
##baten
##"(
##trekke
##spirasjon
##press
##vedtatt
##vad
##cer
##ов
##tidige
##linger
##Cup
##oppretta
##leiar
##Klubben
##Skj
##jev
##Munchen
##aer
##fo
##portug
##tilhørte
##ennar
##foreldre
##kadem
##faste
##medisin
##dominer
##yt
##konsul
##Folket
##gata
##Lie
##spele
##kapell
##dollar
##design
##revolusjonen
##ues
##provins
##nevnes
##prote
##Green
##pes
##98
##Skolen
##farger
##klass
##olleyball
##republikk
##ansvaret
##Teater
##elly
##OS
##elu
##deltatt
##indi
##overgang
##abel
##manus
##ili
##Anders
##teik
##underlagt
##Program
##Est
##Dal
##grep
##Otto
##arrestert
##major
##kok
##ringen
##separ
##Lands
##och
##Sve
##utstilling
##skatt
##haug
##foto
##ønsker
##terreng
##Nils
##forretnings
##scupen
##Lind
##politiet
##Musikk
##Off
##Tru
##tilknyttet
##administrasjons
##Ob
##She
##belte
##sannsynligvis
##aværende
##Person
##unnga
##lille
##isol
##Brun
##ival
##Mos
##kanon
##hellige
##Alexander
##orier
##oblast
##isa
##selen
##tapt
##utvikle
##Ass
##utny
##sion
##basis
##verte
##ressur
##mmelig
##ankom
##utgjorde
##Akershus
##Colum
##akul
##værende
##Ung
##uttet
##95
##svøm
##demokratiske
##øvre
##skrip
##Adam
##sive
##afrik
##aring
##føringen
##kjenner
##FI
##mikro
##tnant
##innlem
##vokalist
##amask
##Ang
##Compan
##redusert
##Venez
##gaste
##krimin
##diam
##McC
##kvalitet
##Harr
##Lit
##magnet
##papir
##ligste
##styrt
##Møre
##bys
##mørk
##avn
##avsl
##Fire
##distri
##ansvarlig
##kandidat
##dyp
##Samme
##mord
##oth
##dres
##ident
##erob
##lis
##fanter
##einaste
##iang
##aks
##settes
##una
##musikkalbum
##romanen
##omtale
##fik
##brig
##Lee
##serne
##forekommer
##72
##ghan
##innspel
##Ann
##okkuper
##metal
##skjold
##Edvard
##ule
##Kamp
##Johann
##hon
##ptur
##sentralt
##programmer
##datert
##oritet
##tempel
##Nasjonal
##Tak
##Ras
##urn
##nektet
##Fried
##Tok
##markedet
##registrert
##erkebiskop
##Les
##enta
##bater
##klat
##gran
##taket
##»),
##mier
##kilde
##apne
##reaksjon
##Vestfold
##present
##Dr
##norr
##Kra
##1903
##Desse
##guvernør
##Bol
##Billboard
##faktisk
##miljøet
##Lyn
##Kraft
##utsatt
##halvparten
##karet
##utvalg
##kanal
##1902
##Kap
##øvrig
##ssjef
##skisk
##inneheld
##Club
##amper
##sidene
##gyl
##trans
##hørte
##line
##truleg
##kunnskap
##avstand
##Dre
##NO
##nyere
##visjon
##NK
##dans
##Jesus
##Bodø
##atmos
##It
##Sl
##plater
##iar
##pag
##himmel
##gym
##drama
##uren
##cup
##korn
##gress
##ografisk
##ican
##gruppene
##jorda
##adisk
##borte
##systemer
##fantes
##tilsyn
##tromme
##ower
##Senter
##etapp
##fortsette
##Fu
##British
##Kyr
##Len
##syd
##Christiania
##omi
##frivil
##Names
##itu
##Gab
##representanter
##høgaste
##1901
##itte
##oppstod
##Dor
##kombinert
##86
##Mis
##æra
##installert
##slin
##minste
##Odd
##artsrike
##gerne
##klin
##skrives
##nederlandsk
##skytter
##Først
##kule
##alem
##enner
##halde
##songane
##reguler
##skriftet
##Sport
##utgaven
##ografiske
##planlagt
##arbeidde
##High
##send
##Grunn
##hovudsakleg
##ua
##97
##lass
##oversatt
##Dem
##Argentina
##jøder
##smy
##rov
##arets
##veget
##kvens
##argu
##egypt
##somradet
##spissen
##europa
##arm
##oppgaver
##bøy
##ubile
##landslag
##kjærlig
##Ukraina
##itten
##selskaper
##broren
##kelige
##lufthavn
##derkopp
##stilen
##Camp
##hage
##Matt
##laste
##revet
##stitusjon
##Hord
##sjeld
##Fær
##forand
##kirker
##Long
##EP
##Mand
##Tøn
##Viet
##hennar
##jordbruk
##grunnlaget
##diplomat
##vekk
##visse
##frie
##formelt
##Ses
##saledes
##elag
##Fro
##ls
##agog
##Napole
##effektiv
##flytte
##NU
##aton
##opplys
##ista
##utenriks
##sammenlagt
##Hvis
##styrte
##Georgia
##undersøk
##bosatt
##element
##1880
##hail
##bevegelse
##iter
##pool
##mad
##Ingen
##ussen
##beseiret
##tradisjonelt
##lende
##vitenskapelige
##ordre
##beholdt
##Wind
##nu
##Norden
##Rein
##konse
##Krig
##oph
##Fylkesveg
##ksjoner
##volleyball
##kjempe
##ira
##grønn
##bruket
##belg
##Star
##æres
##1898
##vingen
##mig
##boset
##opprøret
##alf
##øvrige
##millionar
##resul
##Bell
##Cas
##retter
##mengder
##cover
##stater
##Konstantin
##Hein
##eie
##læring
##byttet
##Sau
##Hil
##SA
##uri
##blin
##Company
##involvert
##formede
##UK
##antatt
##lave
##Barcel
##not
##Chicago
##roller
##sterne
##endal
##oslov
##perioder
##anerne
##radgiver
##formid
##sjelden
##ksik
##komple
##befinner
##deriblant
##øper
##hebra
##Got
##reservat
##omrada
##totale
##Familie
##Gustav
##die
##Wales
##etabler
##myndigheter
##Ford
##dir
##skraft
##sivile
##armen
##pafølgende
##forsknings
##Mes
##Bat
##Just
##)"
##iddel
##landhockey
##beth
##finske
##livs
##skadet
##cur
##grunnlegger
##bestaende
##ctor
##urop
##verv
##slott
##leiken
##hall
##daværende
##Inge
##lane
##Santa
##Navy
##mog
##ikkert
##forskere
##forhand
##kongelige
##tab
##Ordet
##Organis
##unds
##tiller
##tvun
##marine
##ics
##Middels
##bronsemedalje
##tvang
##antagelig
##Champ
##forble
##flest
##Serien
##Nok
##zhou
##asteroide
##slu
##stern
##blanding
##aw
##bidra
##fullførte
##gge
##skader
##polske
##ugoslav
##tunnel
##omfattet
##fungerte
##kardinal
##Spr
##grunnleg
##brakte
##komed
##Salt
##dru
##veksl
##jernen
##messige
##vensjon
##initiativ
##eid
##kjøret
##Edward
##vice
##flertall
##Hakon
##Uten
##sjakk
##Lake
##variant
##ingane
##utvikler
##Hamar
##sex
##brua
##presse
##General
##Frederik
##flekker
##Ros
##industrien
##Es
##ava
##portugis
##250
##ther
##klassiske
##96
##oppstar
##festet
##Sidan
##xi
##innvand
##oriet
##kjøpe
##stykket
##budd
##opphavleg
##Petter
##rettigheter
##tarn
##Hodet
##møtet
##Rei
##øres
##innendørs
##cand
##konflikt
##see
##bury
##Middelsstore
##dals
##Universitet
##zer
##lyktes
##abet
##utøvere
##starter
##mulighet
##riktig
##Juni
##tømmer
##avdel
##alko
##risten
##spesielle
##Hordaland
##chsen
##konfer
##hed
##Stan
##Atlant
##kommunist
##yre
##laus
##prøvde
##AP
##avdøde
##sølvmedalje
##Barcelona
##Young
##Drammen
##Aur
##zon
##Cle
##ns
##Luft
##92
##skipa
##fattig
##Spil
##helst
##White
##innte
##prosessen
##eventyr
##komman
##odok
##øyne
##undervisning
##vesent
##atnet
##Ib
##starte
##styres
##Plat
##ressen
##eitt
##kommunest
##Dam
##Fi
##war
##særs
##nak
##definert
##nordiske
##Bud
##voll
##assist
##Are
##statene
##ki
##1896
##studie
##venner
##Vel
##vokst
##sprogram
##trukket
##polsk
##færen
##87
##oppgave
##bruken
##bren
##bibliote
##Simon
##radik
##900
##dagar
##skinn
##flyg
##nov
##arch
##dyre
##bourg
##ots
##ksjonen
##River
##Biografi
##jak
##Bos
##slutning
##tten
##wan
##signerte
##Tidlig
##Nat
##bortsett
##Texas
##Arbeiderpartiet
##mottatt
##mønster
##vem
##Jerus
##manu
##Carol
##bard
##stjerner
##edderkopp
##Imidlertid
##ito
##naz
##tsjekk
##dør
##Manchester
##ulert
##gradvis
##ukjent
##jurid
##fylt
##kvadrat
##edyr
##Gull
##begynt
##lens
##bekre
##Fjell
##82
##middelalder
##egnet
##lyse
##rede
##aktige
##budt
##American
##gitarist
##1899
##kated
##Jern
##rud
##liga
##artikler
##melse
##forar
##Hon
##Kenn
##opptatt
##nadd
##ettere
##viter
##Vilhelm
##Pier
##Anlegget
##Pen
##live
##utga
##Cre
##Vas
##omer
##unne
##vika
##sporet
##Sjølv
##cil
##Videre
##enor
##moren
##lon
##Kirken
##eide
##ryt
##sche
##sporter
##bae
##høyrer
##Victoria
##adiske
##Arth
##pron
##bruddet
##lassen
##skulptur
##Rod
##ex
##How
##insekter
##Wer
##gaard
##fann
##antarkt
##Kjelder
##shire
##familier
##integr
##buss
##idd
##Kinas
##sekund
##«"
##marks
##Iran
##Kim
##skir
##verdskrigen
##eda
##kommunale
##Mounta
##has
##Che
##Cerambycidae
##bryt
##Vietnam
##ces
##Pak
##kulturen
##1870
##Valle
##hull
##nande
##vt
##skad
##lend
##Alt
##umiddel
##Od
##flykt
##ortodok
##skyld
##Pop
##Strøm
##Syria
##utanfor
##bene
##sprint
##jarl
##latinske
##Emil
##fremmet
##løsning
##europeisk
##Dess
##Jeg
##utgangspunkt
##høgd
##76
##lers
##kurs
##pavirket
##ukra
##beskriver
##gule
##yen
##banken
##arbeidere
##iana
##gonger
##Vo
##scenen
##Gram
##fronten
##ial
##akh
##ønske
##Friedrich
##cial
##mengde
##Litt
##rent
##komment
##brukar
##Atlanter
##Fylkesvei
##Sigur
##Øvre
##kjel
##fanger
##fro
##hog
##antas
##alternativ
##endra
##høve
##vidt
##høgskole
##tion
##Fjordane
##intervju
##Liver
##lokalt
##knytt
##automat
##originale
##avstem
##skotske
##bonde
##osmanske
##fjernet
##Høyre
##sult
##støt
##Ray
##Wood
##hvilket
##øys
##myndighetene
##Bæ
##nært
##chi
##opphold
##svømmer
##Elisa
##71
##ats
##Point
##konserter
##patri
##Rundt
##Jerusalem
##ianter
##Oly
##skilde
##halvdel
##gjøres
##symp
##Bulgar
##TA
##Bach
##utstyrt
##bille
##89
##kantonen
##inve
##une
##krevde
##premi
##studere
##misjonen
##skomite
##Poli
##dekkvingene
##gram
##Irak
##berømte
##1897
##tekter
##Blu
##Had
##car
##erklærte
##Mann
##iko
##romant
##tilfelle
##kontinent
##VG
##hunder
##mottak
##posten
##Bein
##Larsen
##skrivelse
##hastighet
##Day
##Las
##itch
##skarab
##monu
##resultatet
##Indi
##grunnen
##Sma
##App
##setningen
##Molde
##130
##ela
##Bry
##smak
##Natur
##mektig
##platt
##tag
##diag
##festival
##etterfulgt
##Arthur
##sperio
##Vis
##Tim
##kongens
##akultet
##kva
##meldte
##ryggen
##idens
##barnet
##Maur
##klosteret
##Nob
##Soc
##Ober
##teknisk
##fysikk
##elve
##planer
##74
##spek
##trykket
##Stille
##kapasitet
##platesel
##Dersom
##Gren
##Jørgen
##79
##lengste
##hevder
##Isa
##forlag
##Europe
##oppe
##kolle
##brutt
##Lillehammer
##Fur
##order
##skamp
##tilgang
##Befolk
##Survey
##elementer
##Ekse
##Kl
##Kval
##ift
##jul
##oppnadde
##master
##iga
##løpe
##Ox
##bran
##eksamen
##Ki
##Beatles
##samfunns
##opptreden
##væp
##antallet
##rollene
##Kort
##edal
##eleir
##hag
##dvs
##omgang
##Ken
##Andersen
##oppmerksomhet
##cha
##1895
##modellen
##kommunene
##skjær
##Tol
##potensi
##ante
##legging
##tradisjonell
##botn
##hug
##Liverpool
##plikt
##omot
##naut
##Rik
##harmon
##melodi
##ows
##tekniske
##sau
##teknologi
##finans
##bakke
##Jones
##unnelen
##opt
##ations
##spilleren
##besøkte
##skarabider
##istikk
##frø
##muslim
##Nan
##Slaget
##sønner
##dorf
##Prin
##tvunget
##110
##nik
##Olymp
##media
##styrken
##brasil
##1860
##sjanger
##astro
##viktigaste
##hamn
##betegnelse
##sonen
##ledere
##ottet
##fastlandet
##):
##mental
##ynor
##mert
##bryter
##Aleksander
##bombe
##gor
##ience
##83
##uttalte
##Distrik
##ligner
##klubber
##merker
##Ari
##sver
##konsep
##disku
##1300
##rekl
##ioner
##tynne
##inneholdt
##holdes
##ittet
##day
##hann
##holmen
##billed
##faktor
##bytte
##lings
##sykkel
##hire
##nærmest
##linjer
##dirig
##skilte
##Holly
##sideelv
##bebygg
##ugen
##Has
##flyktet
##dring
##Sande
##rammet
##besluttet
##jøen
##produkt
##Verdens
##ordnet
##stren
##Gor
##tanke
##orte
##beskytt
##hensyn
##terror
##kommunikasjon
##Mul
##jobber
##asjert
##frihet
##Arendal
##Sval
##skøyter
##Sul
##nader
##øke
##fersk
##Sav
##ila
##1100
##soli
##usen
##trinn
##festning
##Topp
##oppna
##asjonar
##isbre
##Tønsberg
##ordfør
##repet
##coun
##84
##endelig
##poet
##paret
##last
##maleri
##kkede
##elektriske
##apning
##Osl
##spilles
##Avis
##Fredrikstad
##East
##mul
##arden
##utvid
##ovo
##andel
##Valer
##Brown
##Napoleon
##ii
##avan
##ition
##ters
##slar
##organer
##dømme
##ruten
##sikret
##sakalt
##Derfor
##markerte
##artister
##gjent
##ums
##1814
##Die
##kortere
##gammal
##presidenten
##ørken
##æl
##kerne
##kreps
##teknikk
##olia
##Geografi
##Helsingfors
##leia
##spør
##artikkel
##lenker
##skyting
##hud
##meisterskapen
##sloven
##baner
##asjonene
##gri
##vara
##mangler
##skille
##Opprinn
##ologen
##ridder
##favor
##varig
##Romania
##glass
##Kur
##bassad
##katolsk
##beskrev
##svak
##Daniel
##aktivt
##landskap
##anere
##piano
##Dun
##IA
##Luc
##Borg
##stro
##infanter
##Greg
##tettsted
##fungerer
##personen
##73
##Bank
##Tal
##blet
##Sag
##elver
##1889
##ado
##lengst
##Street
##omo
##ship
##Skipet
##BA
##urch
##lund
##skutt
##avnet
##apt
##tyrkiske
##lekene
##prøver
##vendt
##utte
##time
##Ball
##Indre
##velge
##Lau
##palass
##doktorgrad
##ruter
##denes
##tronen
##komst
##zy
##teke
##Sak
##produkter
##forfattere
##Kirke
##strom
##mond
##sdag
##baserte
##elleve
##motiv
##personlige
##flukt
##brasili
##oms
##rader
##scene
##hval
##iges
##nasjoner
##Filipp
##tiltak
##Sin
##tann
##skommun
##VII
##refle
##hop
##individuelle
##81
##Bygg
##Ungdom
##maktene
##stiller
##løytnant
##Ye
##ction
##bunn
##jøl
##ase
##øyen
##firmaet
##Bulgaria
##opptrer
##Bang
##muligens
##Tam
##atar
##anlagt
##Østfold
##Rud
##Kli
##lette
##kav
##bibliotek
##forskjell
##sekunder
##telefon
##Div
##uavhengighet
##premiere
##94
##Live
##1892
##Water
##etterfølger
##karbon
##ødel
##verdenscupen
##Hver
##deg
##Virgin
##namngjeven
##fare
##kens
##1893
##Big
##Williams
##energ
##markeds
##fysisk
##BBC
##lagkonkurransen
##kretser
##Sta
##introdusert
##Beina
##dømmet
##fabrikken
##tev
##institutt
##fuglar
##ump
##tropp
##buddh
##Lil
##anmel
##handlingen
##sports
##minutt
##maksi
##intern
##høre
##Provin
##kartlagd
##rifter
##eigen
##Societ
##Ren
##naturlige
##1894
##tegninger
##nedre
##annan
##økende
##Jackson
##trommeslag
##etablere
##barna
##regionale
##Gunnar
##ruppen
##ios
##butikk
##nabo
##Gir
##spur
##marsj
##skipene
##keiseren
##Hos
##Hamburg
##kommende
##Roger
##abor
##misk
##gjande
##Scara
##sentrasjon
##enkle
##Open
##oul
##hemmelig
##Islands
##kommando
##FK
##litterære
##Corn
##Allerede
##Systematisk
##skulen
##Ris
##rundet
##akse
##anner
##olis
##yngste
##mytologi
##straffe
##fyrst
##inva
##Alfred
##kropps
##konvensjon
##bydelen
##Old
##invi
##Patri
##eksemplarer
##Bull
##Hur
##total
##bevisst
##irske
##administrative
##Scarabae
##planen
##jal
##skaffe
##oldt
##tidene
##Pi
##Francisco
##bridge
##utgivelser
##wig
##Ivar
##teborg
##stabil
##diameter
##DR
##eti
##gaten
##Sara
##versjoner
##idretts
##tettstedet
##galler
##irsk
##danne
##Win
##Lad
##pon
##Kristian
##TO
##lover
##ello
##Asker
##perman
##1891
##ining
##politikken
##Bærum
##mangel
##Not
##temperaturen
##folketellingen
##1400
##senten
##heil
##klasser
##Award
##grepet
##Syn
##Town
##Im
##jobb
##oppløst
##døpt
##ferdsel
##testam
##trommer
##pekt
##mentert
##Romer
##;/
##regler
##Byr
##bue
##Joe
##Heid
##monark
##prosjekter
##opera
##sistnevnte
##bryst
##Sem
##ssel
##ifra
##speil
##belig
##oten
##AB
##Artene
##milliarder
##Elisabeth
##lia
##blo
##opna
##resultater
##One
##kkene
##seieren
##varianter
##betale
##Ettersom
##fatte
##ance
##cadem
##McCart
##biner
##larver
##itar
##vannkraftverk
##tyskerne
##skop
##holdning
##rival
##moen
##iken
##poly
##fangst
##krefter
##sinne
##nasjonalpark
##ledelsen
##spartiet
##Foren
##stasjoner
##pse
##assistent
##jent
##1850
##trus
##vitenskapelig
##Pale
##Mik
##rektor
##larvene
##ambassad
##publiserte
##Lenn
##tron
##Hammer
##oppsto
##lau
##legges
##sterdam
##grat
##orgel
##Cha
##forbi
##forleng
##kompet
##graden
##Tsjekkoslov
##manager
##Liste
##rekt
##innhold
##gers
##Nu
##oma
##utenlandske
##Vegen
##Deres
##Step
##Adolf
##idde
##avgjort
##produserer
##bevar
##nasjonalt
##Dylan
##dit
##stin
##oka
##Amsterdam
##forfattar
##Lor
##farget
##prog
##hunn
##anbe
##Auster
##tilnær
##sident
##modern
##pedagog
##fanget
##1885
##tit
##produsere
##Ac
##Jugoslav
##splan
##alvorlig
##Lis
##avdelingen
##utgrav
##alkohol
##Coll
##røne
##selva
##godkjent
##bilen
##Lok
##fullført
##France
##Queen
##prefekturet
##virker
##egenskaper
##Jord
##skaffet
##NFL
##partier
##striper
##zab
##høv
##Oh
##PA
##Clau
##komposisjon
##SV
##natten
##sender
##rie
##filmene
##brett
##bispedømme
##140
##Afghan
##Por
##elat
##Law
##fjerne
##overtatt
##dukket
##kvinnen
##Union
##Eksterne
##93
##Regjer
##kapp
##tilstand
##hevet
##Wolf
##wich
##Sachsen
##utgangspunktet
##oga
##flytt
##morgen
##py
##skyldes
##geland
##inspirasjon
##Hay
##grønne
##opter
##utelu
##3000
##Group
##etisk
##konsentrasjon
##fremme
##Dahl
##paver
##erkl
##drepte
##likten
##ament
##Svalbard
##Ker
##løv
##rust
##engene
##1888
##Dø
##dialekt
##Ales
##blikk
##Time
##Lov
##skift
##forskjellig
##hersker
##Steve
##Bad
##Turner
##Olavs
##situasjonen
##MA
##Nort
##villa
##utlandet
##kjern
##nordlege
##fusjon
##sørlege
##okkupasjon
##Cra
##overflaten
##Wilson
##House
##fenomen
##Blo
##eksisterte
##Ross
##lese
##ylor
##nedenfor
##--
##anty
##skyte
##omkom
##programleder
##Bayern
##Football
##utry
##strekningen
##avgjørende
##representere
##Ten
##rund
##hydr
##dekke
##Mic
##forsik
##Gamle
##Partiet
##Middelhavet
##Sund
##faller
##ube
##pronotum
##pad
##row
##pok
##tun
##Pres
##koloni
##Kron
##Ern
##fattet
##sammensla
##Bart
##storm
##Johnson
##møre
##sler
##zig
##begynne
##kalde
##hvilken
##blues
##pig
##iseres
##now
##stev
##modeller
##metode
##spesif
##lagde
##handelen
##tone
##bust
##bjør
##sjøl
##levd
##konsentr
##Ing
##verdensmesterskapet
##fakultet
##Doug
##Familien
##rekorden
##Anti
##Preussen
##»-
##inngikk
##admir
##eies
##ensis
##kjennet
##odor
##tradisjonen
##sering
##profil
##datamask
##Nikola
##kalen
##vilkar
##fisker
##jule
##spedisjonen
##beina
##maskiner
##Pic
##oci
##forlate
##opplæring
##kos
##straling
##attra
##dighet
##forbered
##kjøre
##hest
##Einar
##ombord
##1884
##fril
##hvem
##spredt
##Dur
##søke
##Junior
##tilbyr
##dimen
##Bert
##pend
##henrettet
##Vig
##fiolin
##somt
##Blom
##fored
##verka
##utø
##Tun
##høyden
##91
##eksisterer
##foreslatt
##fortsetter
##Holm
##inndelt
##Ala
##kall
##virksomheten
##gutt
##sving
##Sot
##And
##berget
##stamme
##bri
##ois
##eli
##Bare
##Columbia
##Lom
##country
##tidspunkt
##his
##guverne
##samla
##Bran
##opprette
##Great
##alfabet
##Moss
##pur
##høyr
##magasinet
##kirkes
##aviser
##observ
##nemnd
##bent
##kab
##nautiske
##flyfoto
##truet
##foregar
##Distriktet
##fed
##Lev
##Melodi
##gjere
##strakt
##kjører
##figurer
##stolen
##nynor
##spital
##forstyr
##liknande
##fla
##forster
##Enkel
##størst
##bredere
##1883
##apent
##flyplass
##strøk
##antik
##anerkjent
##Walter
##kulturelle
##Laur
##bunnen
##aser
##metoder
##artiller
##aven
##1848
##anga
##Lew
##betal
##gli
##Road
##drikke
##Wei
##urner
##skild
##innførte
##forholdene
##Rot
##offensi
##Sydney
##Academ
##slottet
##øt
##Goteborg
##norrøne
##sommerfugler
##mitt
##vestover
##kryss
##virkning
##fysiske
##Estland
##Sveriges
##klokken
##analyse
##down
##ydro
##Pakistan
##itat
##iteter
##framført
##Akadem
##Va
##frit
##føde
##betraktet
##Jugoslavia
##Veg
##utgivelsen
##koll
##malte
##Sigurd
##troll
##tjenestegjorde
##returnerte
##aljon
##tilpas
##kongedømmet
##Sof
##tilhørende
##Tsjekkoslovakia
##raf
##rut
##Shang
##svitenskap
##Tokyo
##kjennelse
##Bag
##Skog
##Nepal
##gjennomførte
##Lux
##hvitt
##penge
##tilsvarer
##sjer
##kretsen
##vanlegvis
##hebraisk
##span
##chus
##krever
##sportsutøver
##Josef
##vedlike
##1886
##grunnlagd
##Laget
##just
##spesiell
##Grønland
##Gabri
##amo
##Cape
##vindu
##Gen
##kven
##setninger
##Oster
##sesse
##show
##konver
##perifer
##møl
##trening
##eksempelvis
##non
##leil
##Viken
##jødisk
##Faren
##fortalte
##gods
##budsj
##batter
##partiets
##innlemmet
##viterus
##Filip
##vedtok
##bulgar
##Alesund
##flyr
##Republikken
##Likevel
##Donald
##Stal
##kalk
##verdensmester
##Sus
##ansje
##familieg
##beve
##matematikk
##raske
##kome
##Stats
##1882
##1881
##Wo
##gifte
##trenger
##bergs
##døden
##Champion
##Taylor
##kolleg
##bære
##østover
##Post
##rings
##hof
##senior
##splass
##kaste
##historiker
##bedrifter
##fossen
##Associ
##Enkelte
##Skandinav
##Christop
##Ton
##hat
##lus
##%.
##verse
##Garden
##naturreservat
##Mike
##nytte
##radisjon
##debatt
##visst
##iserings
##aldt
##ape
##nemlig
##blokker
##sjuk
##Seinare
##tas
##neset
##observat
##ulik
##Horn
##fine
##budet
##stykker
##militært
##motorer
##Him
##sesonger
##melige
##musk
##reness
##brødrene
##republikan
##seremon
##engasjert
##synet
##imper
##gongen
##ular
##polar
##omfattar
##nat
##støy
##domen
##Bergens
##maling
##krysset
##konservative
##ratt
##Will
##busjon
##ami
##Kateg
##Sir
##teken
##fjerdeplass
##yting
##arig
##Kjell
##studioalbumet
##kelen
##tillat
##klet
##skildra
##oidea
##konstruert
##gymnas
##Afghanistan
##budde
##gravlagt
##ques
##Sud
##Ak
##Oli
##aki
##øyet
##slekter
##sort
##sklub
##Little
##kob
##Kos
##foruten
##Stone
##utspring
##merte
##mala
##arkiv
##medvirket
##Maked
##IT
##kjenne
##hjerte
##era
##enga
##sprang
##israelske
##stendige
##oberst
##igen
##ates
##lister
##human
##ao
##utform
##regjeringa
##":
##Best
##melt
##Skien
##riksvei
##Skar
##unntatt
##preg
##jernbanen
##protestant
##ortodokse
##Tit
##Alp
##leie
##Aar
##lokalisert
##tidspunktet
##Stør
##Liber
##sketball
##avisa
##kampan
##leddet
##interesser
##tennis
##hotell
##etiske
##rup
##Mars
##Johansen
##kontoret
##seter
##VD
##ørdag
##ulf
##retninger
##auton
##fund
##jud
##voks
##lærte
##fallet
##forarsa
##Bib
##bibel
##muligheter
##skihopp
##Fjellet
##malerier
##tjenester
##kontro
##на
##Fjorden
##kjærlighet
##Life
##BS
##celler
##ofon
##tarnet
##key
##spiss
##Kre
##wards
##aux
##stans
##varia
##Tidleg
##nettverk
##Cuba
##iere
##bratt
##ardin
##kunstnere
##skab
##etta
##ighetene
##sammenhen
##1878
##Sæ
##ørt
##auen
##prøys
##strekkjer
##stundes
##CC
##umen
##Boken
##slapp
##nie
##keis
##bek
##zabeth
##Blue
##tilheng
##ittene
##beord
##ikkelen
##forsamlingen
##fortel
##feste
##Franco
##forbindelser
##Florida
##umin
##studiet
##Top
##stoppe
##oter
##search
##Colom
##alsk
##Kent
##kombinasjon
##Elizabeth
##Nordre
##Tysklands
##markert
##sproduksjon
##grensene
##assosi
##antikken
##nivaet
##lyn
##ones
##stemmene
##presentant
##Society
##flok
##haugen
##styremedlem
##Hollywood
##grunnleggende
##dver
##Deut
##øynene
##Vlad
##popular
##bryg
##Rolf
##stund
##burde
##iki
##Monte
##ittelen
##statsrad
##skatte
##Brand
##middelsstor
##Holmen
##ordning
##rerende
##respekt
##mete
##nokon
##utbredelse
##forretning
##Aut
##Premier
##hensikt
##steinen
##Produksjon
##feltt
##Venezia
##pul
##mobil
##gjest
##ake
##Svein
##havnet
##Church
##Shi
##1875
##oppfat
##hellig
##1871
##Kommune
##egn
##gjaldt
##Alban
##Play
##kino
##opptradte
##eksil
##overflate
##Flo
##matt
##velly
##sørget
##uc
##ness
##stedene
##Ama
##betydelige
##Antwer
##lederen
##dominerende
##Penn
##turn
##volum
##Dronning
##hell
##kna
##rulle
##forny
##blandet
##interessert
##elberg
##omtales
##heste
##teorien
##derende
##hagen
##olas
##katastro
##sisten
##Alexand
##dokumentar
##gat
##linga
##produsenten
##Gjø
##IK
##PS
##skritt
##Tekn
##beregnet
##Hag
##Spor
##Nation
##østen
##Nye
##tidsskriftet
##musikere
##pset
##bredde
##Eric
##eds
##matikken
##funksjoner
##eliv
##Ernst
##marinen
##stjene
##undergrunn
##blokk
##tropper
##oke
##utgaver
##Begrepet
##1887
##Nov
##vens
##gs
##basen
##Hong
##Liban
##ai
##rekr
##Grim
##Bowl
##Hedmark
##svømming
##valet
##svoll
##benytter
##mesteparten
##gesund
##Brad
##lagte
##skala
##religiøs
##akademiet
##hailand
##invester
##æs
##isteden
##Sesongen
##Kategori
##munningen
##Massa
##firma
##beskyttelse
##Hart
##korps
##passasjerer
##oversettelse
##Brian
##flam
##hovedkvarter
##Fru
##vernet
##yrke
##Sosi
##turnering
##vesentlig
##Medlem
##spraklige
##innanfor
##terne
##arsak
##nærmeste
##røtter
##musikalske
##Brann
##Night
##regjerings
##Slik
##tror
##vises
##Sky
##Franz
##Administrat
##Guang
##Christopher
##datteren
##funne
##diktet
##avle
##Sandnes
##Hem
##verdien
##Vat
##wald
##1877
##pist
##drepe
##listene
##tiar
##helgen
##naturen
##utstillingen
##sommaren
##uvanlig
##opplevde
##dern
##urg
##bysant
##praktisk
##saka
##ines
##forhandling
##kvalifiserte
##profesjonelle
##sukker
##iber
##Peru
##flagget
##Stillehavet
##ensel
##odden
##NTNU
##Ener
##Slike
##kritiker
##Tw
##1879
##evne
##skotsk
##bekreftet
##bes
##Stand
##Mari
##østerrikske
##beskytte
##frat
##ceae
##rase
##begrep
##innvalgt
##Cy
##bakter
##organiserte
##hovudstaden
##resulterte
##landhockeyspiller
##Dire
##chan
##designet
##SK
##teres
##havne
##grunnlov
##Guine
##Antwerpen
##utendørs
##borgar
##lønn
##Knud
##Rich
##ardo
##Fos
##ads
##right
##strekning
##forsvant
##fell
##Davis
##humor
##veksten
##Larvik
##innslag
##Jensen
##eige
##maur
##selde
##buk
##koordin
##innledende
##Bjer
##vill
##kritisk
##Trondhjem
##Nielsen
##atre
##tekne
##regimet
##umiddelbart
##Serbia
##trett
##drives
##Graham
##Rør
##saret
##teoret
##tropiske
##veggen
##fjær
##samlinger
##hvilke
##vesenet
##oksy
##svinger
##Stedet
##Bun
##PC
##cken
##with
##worth
##Nedre
##dotter
##Klo
##guden
##Europ
##eleder
##etterpa
##styrer
##signal
##verks
##utbygging
##Margar
##Lim
##tilsku
##instrumenter
##ders
##utseende
##asi
##Fame
##deltag
##turneen
##vilje
##Cham
##boliger
##Tel
##midlertidig
##øverst
##graver
##stoppet
##'.
##Aften
##fargen
##Madrid
##byane
##hovedrollen
##ffen
##kaller
##Hert
##skjønn
##streng
##krysser
##Net
##konkurrerte
##NKP
##smale
##Institutt
##Research
##alls
##inkluderte
##endre
##alisme
##Ivan
##Team
##verdige
##skjønt
##Sat
##glas
##overlevde
##bodd
##atia
##gjenstander
##operativ
##cast
##dannar
##bredden
##avdelinger
##His
##tilbud
##jesu
##overfl
##utten
##Kroppen
##Operasjon
##kvalifiseringen
##hallen
##oy
##betydningen
##Bygningen
##McCartney
##sinn
##motoren
##oro
##ray
##Poly
##Viking
##tørr
##igj
##dahl
##ambassadør
##dato
##ralen
##eine
##Andrew
##Makedonia
##Dessuten
##jd
##Sverre
##lettere
##verdier
##musli
##jener
##cal
##ttene
##Alf
##Arets
##helik
##nyttar
##broen
##atorer
##alpin
##gde
##viking
##laten
##State
##Strand
##sogne
##Atlanterhavet
##Bruk
##kavaler
##Ah
##Petersburg
##vitskap
##elvene
##Kapp
##rol
##ppel
##britene
##Sic
##ventet
##beskjed
##utførte
##Chris
##overrask
##sangene
##myndighet
##gjeste
##adres
##motstander
##undersøkelser
##jernban
##Vag
##sies
##fylte
##biblioteket
##gruve
##Medal
##arrangeres
##Ash
##farts
##utfordr
##Dol
##Jordan
##hara
##divisjonen
##meld
##stengt
##skur
##Balt
##foten
##Bør
##aku
##embed
##eksempler
##Nokre
##slikt
##pus
##romaner
##Rolling
##rødt
##kjernen
##jup
##sji
##ск
##ence
##ally
##diagno
##reder
##ires
##Linux
##Gun
##driften
##Az
##Virginia
##Wis
##aman
##Henri
##stoffer
##Libanon
##AC
##betong
##invasjonen
##Gjer
##ER
##stran
##tilstrekk
##idag
##open
##sekven
##IX
##damer
##arlige
##arkeologiske
##Show
##1865
##Lewis
##sjubile
##Rand
##rytter
##Engel
##Sab
##egyptiske
##Organisasjonen
##unden
##Ep
##feir
##LP
##edy
##cle
##strø
##Føl
##regne
##original
##asiat
##besle
##Sn
##Resultater
##1876
##syklist
##nynorsk
##mengden
##igjennom
##tredende
##frid
##attedyr
##Stasjonen
##supp
##muligheten
##plu
##lita
##primær
##eininga
##innbyggerne
##skud
##benytte
##hild
##Sm
##likter
##Christen
##skerud
##jobben
##nære
##obal
##figuren
##from
##iktet
##sundet
##opplag
##yste
##formes
##kanoner
##evangel
##nedover
##Ikke
##opel
##nøyaktig
##offisiell
##ongol
##svik
##deltakere
##repar
##familiegruppen
##sikte
##foreslo
##inntekt
##Morten
##Nag
##Mester
##1864
##adi
##fasc
##frigjør
##redig
##Bibelen
##Klas
##kvalifisering
##detaljer
##tyrkisk
##undersøkelse
##omfru
##Kongen
##komedie
##skapasitet
##dannes
##Pom
##lisk
##aya
##fallende
##ulen
##innebærer
##opprettelsen
##borgerkrigen
##mannlige
##objekt
##belteasteroide
##char
##kontrover
##pli
##Bot
##Gene
##norges
##Py
##unst
##plast
##Alta
##Formel
##furt
##Out
##1840
##sone
##Baby
##Høsten
##kvarandre
##gjengel
##brut
##Pierre
##Upp
##atra
##redaksjon
##Tir
##nettopp
##Buskerud
##Arts
##vanligste
##Hovud
##Haug
##nylig
##melod
##Oppland
##komponert
##PD
##amen
##sosialistiske
##vegg
##Kh
##Landet
##anni
##vinkel
##givende
##spredte
##Gyl
##vede
##spillerne
##EF
##Rek
##ological
##vapenet
##muslimske
##Advis
##sitte
##utelukk
##aksje
##Falk
##Sarps
##Delt
##grevskapet
##bønder
##etasje
##menterte
##bryte
##Lav
##handlet
##team
##reklame
##Gott
##1861
##norrønt
##Center
##kurran
##Tang
##out
##tunge
##kona
##kunsten
##nadene
##Teksten
##tunnelen
##fuglene
##hvile
##aktiviteter
##konstant
##australske
##oge
##mansk
##nøytr
##appar
##amfi
##uavhengige
##Roll
##admiral
##harde
##kilden
##BM
##pros
##samtlige
##oppen
##etniske
##disi
##personar
##hoffet
##ødeleg
##framfor
##dokumenter
##Fug
##Lot
##slutta
##Golden
##Pap
##fung
##reformer
##ulov
##angripe
##trengte
##tilhengere
##bryl
##afrikanske
##Luxem
##Shar
##dron
##rumen
##brannen
##kapit
##materialet
##boli
##elet
##oppover
##Noregs
##kjønns
##beordret
##',
##Rød
##platen
##blan
##Chile
##somrader
##rein
##døgn
##1873
##Antonio
##Advisory
##tin
##avlange
##usikker
##garder
##vingespenn
##Nett
##landa
##1868
##saga
##inna
##Association
##Brother
##herrer
##tilsynelat
##olo
##Arkite
##Tony
##førsel
##presten
##anledning
##oksygen
##forbudt
##1866
##forbud
##eksisterende
##Jur
##Lof
##Jam
##ktar
##Utvik
##varm
##slekta
##Kongsberg
##heime
##høst
##atisk
##Herman
##argent
##vestsida
##dobbel
##Ran
##palest
##latskriver
##Frit
##kjørte
##festningen
##Seba
##kommunane
##forsøker
##stur
##skjol
##sveitsiske
##bilete
##rangert
##ittiske
##chn
##ideen
##inert
##Mountains
##trodde
##Sarpsborg
##kjede
##nederlag
##Asi
##kongelig
##Ferdin
##kjøtt
##utenriksminister
##ukrainsk
##ferskvann
##sluppet
##Abra
##paven
##vervet
##opper
##bandets
##møttes
##departement
##Kau
##celle
##plyn
##Service
##Tai
##apningen
##uttrykket
##forkortet
##rapport
##artistar
##vurder
##DVD
##utvalget
##agg
##skifte
##munner
##kspedisjonen
##Grav
##esi
##jurist
##vande
##kompetanse
##Ax
##basketball
##Motor
##skra
##eksperiment
##Fel
##wick
##geomet
##kompli
##redde
##rug
##regner
##cen
##offiserer
##Sao
##revisjon
##ische
##allmenn
##itsj
##eremon
##Ord
##hundret
##misly
##tettstaden
##spa
##Produ
##blader
##Bowie
##veker
##verksem
##diskusjon
##bourne
##Tett
##Tore
##Publi
##stry
##Spa
##titler
##jøde
##vie
##dekt
##say
##wart
##ighets
##stadt
##vogner
##hannen
##Main
##tilgjengel
##1874
##navnene
##erstatta
##portrett
##grensar
##ynt
##avviklet
##yards
##skjell
##vania
##Institute
##meteor
##borgere
##syre
##eksk
##Peak
##positiv
##Heinrich
##tala
##modi
##beløn
##Malt
##Dagens
##utstillinger
##Ofte
##politikar
##marka
##holds
##Good
##okkuperte
##1830
##ungarske
##orf
##kantet
##Ey
##ferge
##1872
##ikon
##Guinea
##Cla
##1863
##5000
##mouth
##fase
##suk
##Wars
##ertall
##odar
##delsene
##new
##geist
##visning
##Rose
##ktoratet
##Real
##uma
##atmosfæren
##ough
##landbruks
##fars
##Sty
##makta
##Helge
##1867
##Sankt
##byar
##lans
##likte
##prinsesse
##tilbak
##skjerm
##æk
##termin
##domstol
##brukere
##sovjetisk
##Way
##more
##øker
##mpe
##Historikk
##Huset
##gangs
##lærar
##kins
##pel
##formene
##bassa
##lufta
##kompleks
##fattige
##Luther
##Stift
##Gold
##havs
##ng
##ilia
##verkt
##indo
##produksjons
##Ori
##cou
##køy
##Douglas
##Wat
##bygningene
##geren
##Nilsen
##Industri
##Pedersen
##Sørøst
##pavirk
##Oxford
##Klubb
##statens
##posisjonen
##Eir
##Wol
##utføre
##bundet
##tilstede
##medførte
##slipp
##Nobel
##guvernement
##ος
##forlaget
##ferje
##sakalla
##Filippinene
##universitets
##fekt
##Erling
##semin
##Forsk
##Stefan
##redusere
##jus
##Chry
##arsjubile
##skapene
##merkelser
##Litauen
##Miss
##Slov
##forente
##flyv
##Uru
##forekom
##Central
##demningen
##funksjonen
##medisinsk
##mani
##turen
##verkene
##Place
##Sib
##teologi
##Fyr
##sterett
##itets
##soldatene
##pale
##Robin
##brot
##kommunistiske
##Johnny
##røm
##statlige
##lasser
##byrjinga
##australsk
##NH
##Slekt
##Ferdinand
##tern
##uset
##steng
##valde
##eventuelt
##institusjoner
##Glas
##permanent
##Bom
##IC
##ason
##essen
##minim
##erfaring
##System
##primært
##astronom
##Alan
##Hak
##igan
##brødre
##sending
##bølge
##Set
##ikes
##tidvis
##iction
##tekstil
##jun
##halvt
##Fem
##Atlanta
##sjølve
##Fron
##traktaten
##Pav
##Elekt
##Pon
##passerer
##selig
##sesser
##gjenværende
##distanse
##Hotel
##Hardanger
##Att
##bygges
##noensinne
##itteratur
##korleis
##Sor
##odd
##personell
##fli
##metoden
##Sten
##Nas
##kelt
##spise
##interess
##Troll
##gere
##tenkt
##skomiteen
##Ask
##Vann
##kov
##Lord
##1862
##Rhin
##uft
##talende
##internett
##danse
##tillatelse
##enke
##ordene
##enhver
##breid
##fugle
##Led
##beleir
##tang
##løste
##shi
##Cru
##Fv
##Innen
##erklært
##Pala
##underviste
##stoffet
##konkurranser
##1859
##Milit
##Barn
##episode
##ikan
##kande
##guddom
##skiskyting
##Squ
##etappe
##motiver
##Paus
##kommandør
##Haugesund
##tillit
##angiv
##server
##Spesi
##automatisk
##Bruce
##EC
##Lab
##klubbene
##fortellinger
##Austerrike
##touch
##sleder
##ledning
##allianse
##issen
##innviet
##Forfatter
##dikter
##avledet
##alske
##Mir
##hester
##sprosje
##forvand
##»"
##spiser
##kapital
##hale
##meinte
##slaver
##Bj
##adels
##bevarte
##presset
##FF
##tede
##oto
##Opprinnelig
##);
##Idrettslag
##talent
##Vestre
##sommerfugl
##symfon
##holt
##Programmet
##overbe
##leverte
##vadron
##tvers
##skode
##landbruk
##farten
##omstrid
##jenter
##søndag
##Amund
##umu
##strømmen
##kontinentet
##Skandinavia
##dannelsen
##sammenlignet
##Master
##fjellkj
##Shan
##innledet
##stridsv
##Tsjekkia
##Adri
##seng
##kontrollen
##ologer
##strakte
##motstands
##LO
##Your
##frykt
##Møl
##uansett
##maraton
##kaster
##kvelden
##samiske
##ego
##Danmarks
##havnen
##frivillig
##Pil
##parker
##forstaelse
##estad
##Arabia
##Bed
##utgjer
##chs
##Brat
##vev
##molek
##regiment
##Cur
##Sandefjord
##endeplass
##angelsak
##Voss
##Spart
##Syl
##aff
##elite
##Khan
##Fisk
##rekker
##molekyl
##Bog
##seth
##studert
##gave
##kode
##gammelt
##Jiang
##kompan
##folketel
##gratis
##,"
##ordningen
##Fun
##montert
##fordret
##spørsmalet
##Røde
##frag
##flytende
##seilte
##kryp
##etterkom
##velger
##panser
##Party
##spolitikk
##brasiliansk
##dad
##hjalp
##forsking
##spark
##døme
##situasjon
##kollektiv
##opposisjon
##straks
##skan
##Cambridge
##bakover
##tørre
##amikk
##bruka
##GA
##user
##XX
##ogne
##denburg
##Nordisk
##klaver
##Beste
##ision
##esti
##ivar
##provis
##gifter
##ан
##kjære
##dramat
##tidens
##hypp
##yrer
##Handels
##ressurser
##Leip
##eksport
##Who
##spenning
##belgiske
##Heidelberg
##anses
##overvak
##sniva
##generasjon
##Julius
##takket
##klo
##camp
##kub
##.).
##omgitt
##Færøyene
##oksid
##satel
##ain
##alders
##pap
##bataljon
##Kroatia
##brand
##skuespill
##pund
##sev
##hjemmet
##bladbiller
##sirkel
##Kjø
##behandlet
##utgivelse
##overgangen
##mine
##null
##arhun
##gja
##meksik
##kvartfinalen
##Festival
##Kjente
##skaret
##Brig
##univer
##minoritet
##Times
##amb
##utgava
##slanke
##digit
##Svart
##Range
##Thailand
##yrkes
##tettstad
##kjennes
##Fleire
##Vid
##bell
##Guds
##observert
##trafikken
##veksling
##lyset
##engasje
##konkurs
##flekk
##Geir
##forvaltning
##symptom
##Leng
##2021
##asj
##pattedyr
##landmal
##handverk
##parallell
##onkel
##bensin
##strup
##Jazz
##FNs
##AR
##demonstra
##arsaker
##antene
##betre
##ramme
##armeen
##Charlot
##indisk
##gle
##kompl
##Brus
##hvel
##prester
##invasjon
##feld
##prosti
##melding
##distribusjon
##Wes
##kallen
##nordisk
##Arch
##traff
##ettertid
##Region
##dominert
##Harris
##disipl
##parlamentar
##koreanske
##utelukkende
##Kv
##aria
##kvalifisert
##Rasmus
##Windows
##farens
##Kypros
##nordsida
##kton
##flyplassen
##Seoul
##kartlagt
##Tsj
##retningen
##Ever
##eten
##vurdert
##fiendt
##Valley
##øvelser
##enny
##Alger
##Free
##kjøring
##kvit
##møtt
##Jersey
##gjennomføre
##bob
##biografi
##Totalt
##hja
##amin
##Force
##individer
##spris
##reland
##skarp
##Gy
##arve
##Jud
##liggande
##Snor
##ambassa
##auka
##definisjon
##leiren
##produksjonskapasitet
##UNES
##Konstantinopel
##dimensjon
##krone
##imir
##tenner
##Fon
##Hj
##Sher
##veter
##spesialiserer
##stundom
##Blues
##Lennon
##geografiske
##minnes
##steiner
##sjan
##strukturen
##bringe
##vassdraget
##velt
##ross
##vinneren
##stok
##head
##nordmenn
##ulykke
##Wen
##hra
##tilpasset
##Broad
##America
##regul
##gjennombrudd
##operasjon
##Nærings
##Tall
##hamna
##partner
##Donau
##ال
##Guy
##sykling
##samtidige
##bukt
##edom
##amatør
##Kongens
##reisende
##Nel
##kjemper
##350
##partiene
##originalt
##vedtak
##mellomalderen
##eksist
##katoli
##Dagbladet
##sylind
##bajd
##brei
##lete
##foreldrene
##Luxembourg
##ual
##straum
##Boston
##episoder
##Gjøvik
##AT
##Bou
##albuma
##koreansk
##UE
##multi
##RS
##Rana
##snes
##ellemann
##Wang
##tju
##arn
##kurat
##solen
##ML
##svirk
##1857
##mill
##konflikten
##østerriksk
##Vor
##kontinuer
##inus
##opol
##tive
##Montre
##kunstnar
##sykdommer
##stammen
##borgermester
##Cho
##GS
##storslalam
##ønsk
##diverse
##mont
##øpet
##usa
##Verk
##sportsutøvere
##Jag
##utenom
##spesialiserte
##grunner
##jødene
##tidsskrift
##stemte
##kritisert
##landeveis
##touchdown
##115
##ror
##bevegelser
##But
##uck
##mannskapet
##tidligste
##alymp
##sic
##historikeren
##1869
##løsningen
##Finale
##fremført
##sleir
##Jonas
##volleyballspiller
##Ibsen
##skandinav
##forfølg
##canadisk
##drakt
##undergrunns
##sees
##manen
##nevner
##Leipzig
##medisinske
##trekker
##linja
##Line
##NATO
##vic
##absol
##bosatte
##Down
##Lig
##darleg
##Palest
##mongol
##²,
##iano
##derfra
##arth
##mologi
##ants
##effekten
##hunnen
##Helen
##Rav
##sogn
##stjeneste
##Svarte
##grøn
##iets
##generalsekretær
##arealet
##Side
##golf
##arige
##Dream
##kobber
##Feder
##Exped
##nabol
##juridisk
##Chan
##atiske
##seint
##krigstiden
##Folk
##Shanghai
##arrangement
##bryllu
##Well
##forrige
##ido
##heit
##Stab
##jobbe
##Fag
##Hele
##iinae
##Leo
##hytte
##kopi
##distrikter
##forsvare
##stripe
##Museet
##historia
##bokser
##sluttspillet
##attle
##vanlege
##Colombia
##Sebasti
##endelige
##Skil
##Fox
##ping
##05
##drap
##innebar
##otiske
##etableringen
##Utt
##raket
##konomi
##vitne
##Massachus
##tredj
##musikalsk
##Maud
##alia
##jr
##zu
##motstan
##syner
##Vestlandet
##Carolina
##DDR
##Sist
##talbum
##Roman
##DC
##Kirk
##1837
##presentert
##tyr
##Minnes
##rav
##play
##bler
##konstitusjon
##arrangerte
##rafikk
##nedgang
##prinsippet
##pistol
##inde
##oransje
##Konig
##matemat
##tilstrekkelig
##role
##steds
##Boy
##Soph
##landskamper
##Muham
##Sum
##spelet
##Beach
##Massachusetts
##aksel
##trygg
##reformen
##entene
##Villa
##koal
##spyd
##ulu
##akkurat
##burgh
##seire
##utøv
##innspilt
##svatnet
##høgt
##materialer
##sjeldne
##Qing
##issi
##Anth
##dyktig
##Narvik
##foregikk
##ferie
##erobra
##1815
##Lincol
##stiftelsen
##otte
##tropisk
##arkt
##kommersielle
##bød
##mineral
##Høgskolen
##Sv
##ude
##murer
##selge
##uttalt
##forlatt
##ador
##dale
##femteplass
##kh
##forsøkt
##Eksempler
##Ske
##Brook
##difor
##bestemmer
##Halv
##væske
##Apoll
##idene
##stog
##Prof
##snakket
##prøyssiske
##Games
##trag
##skvadron
##ressiv
##dratt
##oppgjør
##born
##jarn
##rykte
##Sommeren
##utbruddet
##Rail
##Hagen
##nark
##pson
##ET
##Anat
##poesi
##vestlege
##ikerer
##egentlige
##Rosenborg
##mannskap
##Sec
##Mr
##pasienter
##IM
##aksen
##kjemiske
##Varen
##lah
##aktuelle
##spektiv
##fylkeskommun
##Kraftverket
##melser
##Book
##ikkens
##Stadion
##Indone
##Scarabaeoidea
##1854
##ely
##Malmo
##nærleiken
##Trin
##deltar
##Blan
##Grun
##skrivar
##Juan
##konklu
##manglende
##antarktise
##kategori
##Administrasjon
##Konge
##pabegynt
##operasjoner
##tilfel
##lørdag
##mennesket
##bebyggelse
##tilsynelatende
##Befolkningen
##æle
##Jup
##støtter
##blanke
##regulert
##folketeljinga
##historikere
##lokaler
##icus
##debutalbumet
##mers
##flykte
##Fransk
##eigne
##reflekter
##gutter
##svapen
##horison
##skriften
##dret
##osv
##utviklings
##anim
##utv
##utkom
##inntekter
##gjenstand
##ASA
##Shet
##Midtøsten
##rog
##Gabriel
##bekken
##erstatning
##annonserte
##utpekt
##asjen
##heimen
##mening
##Armen
##passer
##plasserte
##skjoldet
##idea
##datab
##konserten
##beliggende
##innspelinga
##lade
##stads
##luften
##Dublin
##Ety
##brenn
##anerkjente
##skarriere
##Transport
##klarer
##territorium
##hindret
##kjøretøy
##kontroversi
##rekorder
##seinere
##menneskerett
##klubbens
##Sicilia
##fornøy
##sterkere
##Gas
##nit
##yang
##regelmessig
##Bac
##Napoli
##akust
##austsida
##Kvinner
##orks
##runden
##Gord
##09
##sittende
##innbyggjarane
##slave
##rane
##separat
##Station
##protester
##jol
##sie
##bakk
##guay
##ethe
##koret
##nevø
##zar
##selskapets
##verktøy
##Bes
##Ringer
##verksted
##fraktet
##opple
##generelle
##spraklig
##Lange
##ungarsk
##iten
##butikker
##refererer
##respon
##forbryt
##villig
##føret
##søker
##sjons
##palasset
##økonomien
##vante
##Corpor
##ideer
##vakre
##Studios
##bransjen
##helhet
##kningen
##unatak
##sakr
##tjue
##anklaget
##dype
##namngjeve
##Handball
##vinnere
##franskmennene
##Championship
##cell
##gruppespillet
##nøye
##Cli
##Wu
##Halden
##Sotsji
##DNA
##Foss
##VIII
##stell
##mans
##Høye
##Power
##framover
##positive
##oe
##selskapene
##ways
##søsken
##Mah
##Stadium
##cos
##sseremon
##Giov
##stortingsrepresentant
##betalt
##Samuel
##Stockholms
##Lamiinae
##pioner
##avhandling
##tilhenger
##veren
##legaste
##fint
##Schw
##oppnadd
##administrasjonen
##Uruguay
##Costa
##Milano
##kolonien
##orientering
##Bron
##Hugh
##Leg
##imago
##vennskap
##States
##Cir
##Vær
##sikkert
##referanse
##dreiv
##lokomot
##hovedkontor
##bergen
##sikkerhets
##Mong
##Valg
##fengslet
##navne
##hersk
##svømme
##lanserte
##shall
##ovenfor
##Eti
##Tiden
##fog
##cester
##Prisen
##stisk
##liter
##kirkens
##myrdet
##visepresident
##sjangeren
##alpint
##brød
##Sym
##Jesu
##kristendommen
##erobre
##landskaps
##formasjon
##drer
##Fylket
##kveld
##Ekte
##cor
##normann
##Verket
##Prosje
##kyn
##kla
##stedt
##historier
##Terje
##klokke
##Sloven
##Alli
##ibia
##Sibir
##UC
##ierne
##hals
##kommanderende
##konkurrert
##Billy
##ografer
##løpebiller
##verken
##overvin
##snakker
##mut
##sæ
##hein
##hindu
##Politisk
##bist
##stipend
##Amerik
##størrelsen
##Ska
##begravet
##Academy
##Lincoln
##sørsida
##vestkysten
##Metro
##stone
##smenn
##Øystein
##katedral
##ordførar
##Rett
##edikt
##Cross
##regioner
##Sebastian
##sfjorden
##ич
##Model
##1851
##sagn
##tjente
##høge
##høgre
##Hab
##miske
##medie
##asy
##prega
##statistikk
##1856
##zawa
##Torino
##været
##Jupiter
##LA
##jag
##plut
##Slovakia
##introduserte
##UEFA
##geografisk
##hender
##sopp
##1855
##gjeldende
##sylin
##Selve
##foretatt
##iens
##pum
##oppløy
##isjons
##reddet
##portugisiske
##favoritt
##baker
##hend
##dur
##sverd
##avgift
##nebb
##Heg
##beting
##1858
##marken
##Grande
##visa
##raud
##stekn
##ktive
##ulus
##betydnings
##tain
##berømt
##08
##Tab
##løft
##forbedret
##skin
##1849
##kommisjonen
##frivillige
##plateselskapet
##portugisisk
##Nidar
##beskrivelse
##drog
##doktor
##øyt
##meters
##mass
##okkupert
##forarsaket
##Dick
##konkl
##kontrollerte
##phil
##yrene
##prom
##Ragn
##Fas
##rive
##kredi
##rand
##tykk
##stipen
##breidda
##Satur
##strene
##seid
##Københavns
##muren
##Aktiv
##anes
##apar
##kledd
##motsatt
##agt
##freden
##demokratisk
##ев
##romerne
##møtes
##djup
##metro
##Idretts
##Singelen
##Sub
##flan
##spinn
##rennet
##fredet
##salme
##reag
##følte
##dustri
##skjeb
##tanker
##munnar
##Praha
##Brothers
##Siste
##studioalbum
##greve
##Ohio
##alminn
##menta
##Jemen
##had
##avskjed
##Kongo
##Potter
##elsker
##Fair
##Disk
##folketal
##færre
##jager
##skis
##avy
##sonom
##Grammy
##oppa
##lyr
##mart
##vestre
##oppdager
##skjedd
##antarktisekspedisjonen
##Eu
##vinden
##Beck
##Melbourne
##Kristus
##himmelen
##Gau
##beck
##fortalt
##rundede
##botan
##tempelet
##Haw
##Frankfurt
##hk
##cho
##Sea
##Provinsen
##bec
##spreng
##luther
##api
##tide
##sala
##ovic
##administrerende
##blatt
##Heart
##Pad
##utro
##vegne
##fris
##elius
##Marcus
##forskningen
##nemnde
##minnet
##øyar
##fortelling
##hjerne
##Disney
##Abraham
##kriger
##kreis
##Rub
##Vester
##zj
##forstand
##Stord
##sov
##Aqu
##Resultatet
##Shake
##Up
##enno
##ique
##svig
##banks
##Niels
##beslektet
##Indonesia
##BI
##chang
##forestillinger
##amester
##børs
##øft
##selvmord
##Johanne
##kolli
##pseud
##Galli
##was
##fasett
##modif
##flom
##Spellemann
##dypt
##okkupasjonen
##sviger
##provinsene
##stitu
##Ytre
##rakk
##darlige
##sletta
##Ner
##ypen
##samstundes
##psykologi
##Maxim
##tros
##autonome
##elast
##iven
##partil
##Innsjøen
##skuespilleren
##etterfulgte
##ffa
##utmerk
##vendige
##Media
##Zur
##reservo
##Kie
##høgare
##skolene
##Malay
##utløp
##kult
##Egil
##flatt
##smelt
##biske
##færøy
##brent
##feldt
##urs
##artium
##Geological
##programvare
##Kret
##foredrag
##Awards
##utnevnte
##drar
##Kors
##staande
##livia
##Diam
##utformet
##ology
##topps
##Boka
##ishockeyspiller
##barndom
##inngatt
##syssel
##eler
##SI
##finaler
##vitja
##dirigent
##Stjør
##greide
##kulturminner
##Boe
##dverg
##ody
##særskilt
##knapt
##erstatte
##ørene
##syriske
##Kongelige
##artikkelen
##intelle
##igang
##Abd
##Corporation
##Etiop
##amn
##hovet
##Boys
##ografien
##avsatt
##tradisjoner
##ekteskapet
##raden
##tabellen
##brygger
##sylvania
##Hof
##ampton
##statsborger
##fond
##sparken
##infra
##tallrike
##bassist
##stim
##Halvor
##foretak
##elighet
##Kampen
##idrettslag
##reformasjonen
##Stephen
##omgjort
##rande
##komponisten
##manuskrip
##arl
##autor
##misten
##Harrison
##top
##Enter
##Ath
##avla
##herad
##slutte
##Kri
##oppgitt
##sveitsisk
##svake
##ights
##missil
##1842
##Clark
##innholdet
##house
##marin
##storleik
##inntrykk
##name
##leser
##statlig
##1845
##kriminal
##medier
##Back
##kjemisk
##dessutan
##Bjar
##ruta
##kjemi
##distansen
##busett
##ektemann
##jiang
##alympiske
##Fis
##satsen
##zzo
##beskyttet
##Etymologi
##Dig
##bruck
##hjelper
##seksjon
##liberale
##mogleg
##Vaster
##gart
##bøndene
##oer
##pote
##portretter
##symboli
##overta
##Hi
##wal
##Menn
##kler
##ligge
##Damp
##onde
##tilbrakte
##agu
##alliansen
##Ludwig
##Capp
##Skane
##eksplo
##dagene
##innspilling
##Montreal
##antyder
##uavgjort
##stret
##engasjer
##havner
##Nash
##tilsammen
##bei
##blomstr
##Hvert
##arena
##1852
##gau
##Sound
##Kyrkja
##speriode
##Kommunesenteret
##ging
##forfremmet
##veil
##Anderson
##uminium
##walis
##linjene
##fylle
##elektro
##Dres
##Dave
##objekter
##overande
##indikerer
##Hills
##Chap
##Kristiansund
##Let
##lyden
##Kloster
##Wy
##bs
##itim
##arkitekten
##identifisert
##beskrives
##Color
##husene
##klubbane
##Drag
##Rid
##Za
##bidratt
##dynasti
##agent
##engasjement
##Pur
##leid
##1820
##biskopen
##brem
##Howard
##Glo
##smel
##.),
##toll
##avstanden
##hua
##identitet
##Australian
##forsvarte
##iment
##kvite
##Margr
##Opera
##klassifisert
##enorme
##enige
##manader
##Barbar
##Lyng
##Army
##anfor
##tole
##fleir
##mulige
##fuglen
##Michel
##Aas
##fs
##kers
##Jun
##quar
##tau
##splassen
##vannpol
##atus
##agnet
##mac
##kringkast
##intellekt
##Myr
##voksende
##kommandoen
##signert
##restaurert
##Zap
##risiko
##brigade
##DE
##utvide
##metalli
##onym
##føderale
##misjons
##Spillet
##weg
##haw
##tilfreds
##heiter
##wh
##omgiv
##alo
##verre
##President
##Hat
##ais
##skran
##kym
##hovudstad
##polen
##okko
##emig
##nads
##striden
##arsaken
##yeong
##bekk
##bevare
##karib
##steins
##hs
##ansa
##skall
##transpor
##pengene
##stida
##Albania
##Nordsjøen
##Try
##urens
##BU
##Fern
##abil
##mestere
##Benjam
##Ph
##besetning
##problemet
##Giovanni
##Nova
##eksemplar
##Alaska
##Hud
##TS
##uka
##hjemmebane
##katedralen
##sjok
##losjon
##tibet
##Chi
##Sommar
##Storting
##besøkende
##Gon
##Op
##herunder
##ballen
##hjert
##grønt
##kraften
##04
##gne
##utmerket
##monument
##redning
##massakr
##Rak
##etet
##litteraturen
##veksel
##omdøpt
##godset
##Aleksand
##ingham
##alvorlige
##asiatiske
##falle
##kommunal
##Jacobsen
##Søndre
##Pennsylvania
##Haakon
##kardinaler
##Niger
##Stol
##vertik
##massen
##svakt
##grener
##Pel
##Elvis
##sjuke
##pause
##skysten
##jury
##parlaments
##krepsdyr
##Grieg
##Kjer
##rine
##forhandlinger
##slippe
##nøkkel
##heat
##vegetasjon
##visste
##skyt
##Division
##dukker
##Soder
##bidrar
##assister
##hertugen
##Politi
##oftast
##etterkommere
##Hamil
##sting
##Utdan
##inskrip
##utenrik
##Lillestrøm
##hovedrollene
##gjester
##Moz
##fasen
##fungere
##vender
##tinget
##Vancou
##tillatt
##partis
##ordens
##frekvens
##atmosf
##Mod
##enting
##nærliggende
##kasus
##Vladimir
##opphørte
##demokrati
##Philip
##fetter
##østsiden
##fortellingen
##sad
##menighet
##støv
##vinterleker
##tilfellet
##bosetning
##stilles
##faglig
##Bonde
##ор
##Gerhard
##Fab
##elektris
##referere
##tilskuere
##neo
##Normand
##setting
##Mach
##Valerenga
##øde
##forhindre
##ylland
##ekspert
##Eidsvoll
##eper
##Vancouver
##utarbeidet
##beskrive
##grunnlegg
##kapittel
##eiendommen
##apest
##Firen
##mende
##oppfor
##Hom
##RE
##fremmed
##Barne
##Kyst
##samler
##turbiner
##Keiser
##opplysninger
##Francois
##kara
##fremfor
##utek
##vestsiden
##Observat
##Foreningen
##Kvalif
##gater
##bey
##setnad
##Stewart
##Hjel
##Krit
##Litteratur
##rettferdig
##uela
##European
##Oslof
##motsatte
##dyrket
##oping
##høyskole
##Techn
##familiens
##sokn
##Ege
##bant
##Verden
##Arbeidet
##Brussel
##Ful
##Wall
##ritt
##settelse
##distan
##generell
##distribu
##kommunestyre
##Sang
##sell
##alfabetet
##stjernen
##antrop
##Menne
##Castle
##Jimmy
##landslags
##medlemskap
##høgda
##hausten
##bystatus
##voksen
##hovu
##utviklinga
##opphavlege
##gæ
##temper
##iing
##ømet
##register
##lagets
##sjetteplass
##Order
##Landslaget
##friluft
##Wi
##teatret
##1839
##Walt
##psy
##abu
##There
##variere
##nestleder
##mektige
##hente
##patron
##kommisjon
##Europas
##kontrakten
##tredjedel
##06
##07
##Hend
##grus
##Boh
##Mill
##wen
##utbygd
##kommunestyret
##ype
##innom
##Journ
##Eva
##bles
##sakte
##atoren
##nei
##assi
##skjelv
##desh
##Studio
##Snorre
##ammun
##Tipp
##Benjamin
##Chang
##samsvar
##peker
##ferdige
##Gammar
##Aftenposten
##umulig
##Vass
##Arena
##prestegjeld
##bing
##allag
##Aser
##scener
##budsjett
##Tyr
##omhandler
##satellitt
##hier
##zan
##oppdater
##Høne
##Christensen
##Hjem
##rac
##skript
##innspillingen
##presjon
##demonstr
##Dagen
##hendelsen
##femten
##evaku
##1853
##sendinger
##ennet
##Østlandet
##innsjøer
##Vestland
##1838
##still
##nettet
##Miller
##blind
##kommunik
##hovedtrener
##stillinga
##vidde
##malm
##lovet
##kopier
##rende
##elektronisk
##feksjon
##science
##Isl
##oppvar
##vente
##Major
##varierende
##Shakespe
##Nidaros
##uteksam
##Dog
##fus
##bygnings
##vier
##betalte
##Moderne
##burn
##gradert
##Flag
##utsmy
##Utover
##Presley
##IN
##bestand
##allas
##juridiske
##inspe
##rose
##itime
##Fed
##Yu
##noverande
##rin
##wall
##økning
##kommersiell
##pleier
##Kru
##frekven
##hjørnet
##GWh
##lun
##styreleder
##Alpane
##!"
##IP
##Kab
##verb
##kontrollert
##differ
##Studen
##bly
##sele
##helikopter
##ер
##kalenderen
##sammenhengende
##Krim
##verande
##oppfattet
##borough
##tempo
##iller
##inngangen
##trene
##Brø
##Svenska
##ræ
##125
##bispedømmet
##Abu
##Jor
##skam
##itasjon
##Bour
##Cecil
##kongeriket
##pavirkning
##instrumental
##Hoff
##kling
##kraftverket
##Historisk
##pak
##auer
##konsekvens
##synd
##forskjeller
##autoritet
##Spring
##diskutert
##Firenze
##Log
##vnen
##folkemusikk
##pels
##ifisert
##givning
##Act
##rey
##bladene
##dømte
##kronologisk
##hydrogen
##relativ
##jevnbrede
##ilen
##Miljø
##Game
##etterlot
##foreninger
##Charlie
##variert
##ulykken
##ede
##persiske
##Burg
##Pors
##anset
##Beskrivelse
##sprakene
##inas
##utz
##Norway
##Marokko
##straumen
##Nelson
##fremover
##byprefekturet
##formelle
##Kari
##vitsj
##virkeligheten
##gum
##propag
##single
##eiendommer
##forgjen
##forøvrig
##sertif
##Langs
##ungdomsskole
##Kart
##Mans
##spon
##fartøyer
##fellesskap
##bekym
##Leir
##Oversiden
##Louise
##Norr
##Tommy
##Frogner
##Light
##filmat
##slekene
##negative
##Uppsala
##fiction
##kjøkken
##katal
##Gruppe
##materiell
##Sho
##stiske
##derav
##Arsen
##dyb
##individuelt
##periferi
##arina
##cies
##invaderte
##assosiert
##Eirik
##intet
##synlige
##mix
##Pass
##navig
##planene
##Olaf
##tilfeldig
##Clo
##Mang
##gult
##gifta
##Sunnmøre
##Warszawa
##ote
##varige
##gardene
##døtre
##popularitet
##""
##besitt
##handballspiller
##beslut
##gitaristen
##kontorer
##digital
##versjonar
##keisar
##Strat
##Tors
##menneskelige
##ekstrem
##Ped
##Unge
##ific
##seksamen
##landmalingar
##levet
##bling
##Saudi
##ødelegg
##Margaret
##tsj
##arki
##Orche
##furu
##utvida
##kuler
##Tem
##HMS
##arist
##oker
##øvelsen
##invitert
##Etiopia
##anskrit
##Para
##moske
##medlems
##samanheng
##ogi
##Hamilton
##varare
##faget
##Adel
##Morris
##parallelt
##finger
##reisen
##bratte
##Landsbyen
##rier
##ensid
##Latvia
##paverka
##Særlig
##Vok
##1821
##kravet
##tungt
##bulgarsk
##Pink
##ikum
##sløper
##krigens
##virksom
##friidretts
##Kans
##Orle
##vassdrag
##hekke
##forventet
##tegneserie
##arhundret
##austlege
##posisjoner
##finansiert
##Bosnia
##Rudolf
##113
##itiv
##karakteristiske
##mista
##bag
##sektor
##antenner
##skjøt
##vanns
##trykt
##klipp
##Frances
##Patrick
##delstat
##skirken
##angerer
##instituttet
##menneskelig
##Normandie
##Zim
##seen
##grunne
##vanskelige
##avvist
##illustrasjon
##fossil
##læ
##sekvenser
##ikarar
##arkivet
##arrangør
##stasjonert
##avanserte
##tilby
##kanter
##syvende
##iserende
##Frederiks
##Plant
##Us
##isch
##beite
##lages
##Lik
##øtter
##etikk
##spraka
##skontor
##Aud
##korset
##synte
##tildeles
##Leop
##Monro
##beholde
##germanske
##Vit
##Wright
##rednings
##Ret
##Røy
##avstemning
##entes
##phia
##loj
##gullmedalje
##hoppet
##snakke
##Ler
##handlar
##vesten
##sykehuset
##karibiske
##Wur
##Østre
##greiner
##Orleans
##sank
##bebo
##halvøy
##utbrudd
##1836
##demning
##diplom
##dos
##avik
##Samferdsel
##Senterpartiet
##utøvar
##ystemet
##ID
##hørt
##sporten
##ury
##paras
##sammenhenger
##See
##betydninger
##centi
##Ringerike
##bund
##alister
##alistene
##Distri
##tret
##sykdommen
##fluer
##engasjerte
##nan
##anker
##atert
##partik
##ivind
##Lær
##mandat
##trenings
##forslaget
##Malet
##busetnad
##seremoni
##Jama
##witz
##alar
##Rune
##leger
##fylker
##navngitt
##forlenget
##gale
##soren
##anta
##artane
##Stur
##bachel
##Flam
##fjellom
##kledt
##sivilis
##vellykket
##Mika
##hannene
##Gregor
##ppar
##Bort
##nis
##uklart
##hesten
##ikerne
##fjernsyns
##Skan
##urer
##antenn
##rads
##vektor
##dokumentert
##eu
##elevene
##anbef
##Dum
##prosa
##Budapest
##lom
##oppfølger
##kking
##dren
##punktert
##Armenia
##turnerte
##kullkraftverk
##teikna
##jesuitt
##teorier
##forandret
##bedriften
##forsyning
##Ide
##antikke
##busser
##vanskeleg
##narkot
##insekt
##Emp
##ution
##grave
##gow
##kjøpmann
##viterussland
##ен
##planeten
##energien
##Tj
##diesel
##fotballklubb
##pilot
##onne
##behovet
##eiere
##Adams
##tilbaket
##dekkjer
##Hongkong
##Slovenia
##oversetter
##kilo
##elektrom
##folker
##Mario
##henta
##ppi
##nordsiden
##bie
##daglige
##sekt
##malar
##oi
##busker
##kjørt
##Tidlegare
##etere
##ernes
##annekter
##AM
##Iver
##rockebandet
##kongene
##jordbruks
##tsjekkisk
##Minnesota
##Cæ
##risen
##tort
##tiende
##fargede
##antarktiske
##uken
##virkelige
##ordinære
##Nicola
##Følgende
##ace
##iler
##athen
##farlig
##Gylden
##Gard
##linois
##biologisk
##Michigan
##kontrast
##Forsvarets
##Amundsen
##avet
##rosa
##rikets
##gaver
##Sever
##strenge
##etasjer
##elaget
##forestilling
##1847
##samlede
##Kasakh
##oppfinn
##brunlige
##inspirerte
##CAN
##suksessen
##sløy
##Rey
##eiga
##ørte
##Jacques
##spin
##osisjonen
##cao
##Must
##hospital
##besøker
##Dresden
##biter
##akademi
##omstridt
##begrens
##rovdyr
##Math
##Rau
##edon
##forsøks
##Stanley
##Lady
##hausen
##Illinois
##450
##aksepterte
##arrangementer
##hett
##planlegging
##kamera
##Sophie
##RC
##yle
##fjelltopp
##siger
##Jane
##glem
##mberg
##Wild
##TC
##Valen
##sas
##røk
##turneringer
##Mye
##FO
##Fall
##Kvinn
##sørafrik
##phy
##kommunar
##meisterskap
##kkar
##Edin
##Kongsvinger
##kunngjorde
##føy
##kjær
##knytte
##konsertar
##Musik
##varaordfører
##dju
##omslaget
##ree
##komponerte
##Axel
##Cher
##velsene
##Annet
##anledninger
##Spellemannprisen
##lavt
##forbindelsen
##vandring
##kollap
##melodien
##Home
##anal
##sendes
##vokse
##akseptert
##Bast
##originaltittel
##vararepresentant
##Ay
##put
##fremtredende
##mynt
##varianten
##universiteter
##grovt
##selger
##tykke
##Spare
##frey
##utdød
##lederne
##innspillinger
##Arke
##savel
##hul
##bers
##mini
##teleg
##forurens
##slas
##egner
##forklaring
##Tob
##cas
##allikevel
##Fore
##kongressen
##mørkt
##Bli
##Pun
##spurt
##kunstig
##Elver
##kommandant
##uter
##margin
##troppen
##kostet
##Tradisjon
##sørge
##avfall
##reduserte
##artilleri
##oman
##kvinnene
##forhandlingene
##ansikt
##vete
##fet
##forent
##nordsamisk
##ffel
##dominerte
##reserve
##saksofon
##Clas
##Lunde
##Britisk
##konsulent
##Zurich
##fangenskap
##Meg
##hvorfor
##homof
##AF
##konson
##synge
##1844
##omsorg
##Jin
##Nich
##onn
##rakt
##adop
##referert
##Jarl
##istedenfor
##artet
##Inger
##fylkene
##Newton
##fabrik
##%,
##Pir
##Rab
##aluminium
##gullmedaljer
##hemmelige
##kategorien
##inkl
##iao
##yndig
##oo
##arken
##1841
##sørøstlige
##seie
##1846
##aco
##ministeren
##Orchestra
##Harstad
##mørkere
##Skole
##sola
##porten
##utsikt
##mordet
##naturgass
##AG
##avtaler
##latinsk
##landskamp
##aksjonen
##endres
##illi
##forval
##administrativt
##sseremonien
##Flat
##Vill
##videoen
##menneskene
##markerer
##Dak
##SC
##roten
##Gruppa
##uteksaminert
##Ble
##hip
##sammenslaing
##makter
##Neil
##motstandere
##round
##Balkan
##Wel
##beskri
##gjeving
##Pius
##skru
##oblig
##etnisk
##Collins
##Tos
##hre
##Stru
##ressive
##tekstene
##Holland
##Jos
##oppstatt
##forsket
##missær
##betegnet
##Ves
##skand
##øvelse
##porter
##judoka
##Cow
##Frans
##Rhinen
##Helse
##rix
##penden
##produseres
##stasjonene
##utnytter
##Theatre
##gjevne
##krøn
##feiret
##viken
##Dani
##ekstremt
##bysantinske
##01
##liknende
##Hawa
##klimaet
##betegner
##avviste
##alb
##framstilt
##Frid
##Hin
##fvt
##mum
##massiv
##Pitt
##Vang
##kupp
##batene
##regulering
##arving
##roer
##anny
##emner
##legendar
##rogram
##Historien
##Innlandet
##konsertalbum
##tsen
##gry
##luf
##Frankrikes
##Mø
##forklare
##allereie
##tynn
##norrøn
##Palestina
##Sie
##ingenting
##undersiden
##Carlos
##sogneprest
##gus
##labor
##oppvokst
##bring
##That
##ui
##segl
##rundene
##Ellers
##Sparta
##riv
##tretten
##maleren
##svin
##keiserlige
##Madaga
##positivt
##habili
##dou
##ey
##lunge
##koden
##Micros
##føra
##typiske
##Theodor
##følgde
##senket
##meiner
##perspektiv
##raskere
##CO2
##strategisk
##Bug
##plag
##]],
##bølger
##fiender
##negativ
##Ian
##sanskrit
##latskrivar
##ønnen
##Mest
##dekning
##persisk
##eksplosjon
##Morgen
##umann
##biologiske
##rade
##prop
##snar
##Bundes
##Vall
##gler
##mme
##motta
##End
##indik
##Marx
##Moon
##anerkjennelse
##isolert
##tilbød
##betjent
##ansjon
##jande
##pianist
##Hønefoss
##kus
##Philadel
##Koln
##Polar
##116
##øydelag
##risik
##retor
##Etterhvert
##Krog
##omfatta
##Malaysia
##Wag
##avgrensa
##Alice
##pert
##støtta
##1843
##serierunde
##glans
##splitt
##gransk
##storby
##høgde
##rørsla
##administrasjonssenteret
##Anthony
##dete
##Serie
##pileg
##')
##Pot
##skred
##grid
##dreier
##flyene
##adresse
##Cole
##betaling
##Glasgow
##adelen
##produsenter
##hydro
##marskal
##rapporterte
##Clar
##endel
##reakt
##1818
##middelhav
##Sli
##mom
##bryting
##trium
##konflikter
##ous
##ventil
##Cook
##presenterte
##Get
##Inc
##melig
##forfat
##lines
##festnings
##omtalte
##uld
##absor
##Karen
##mastergrad
##kompa
##turisme
##Holstein
##belgisk
##amesterskapet
##vang
##levere
##eksistert
##protok
##skribent
##gullbas
##lid
##Marc
##cep
##studiene
##centimeter
##alisering
##serbisk
##artisten
##Byrd
##hyppig
##baron
##Steen
##kvinnelig
##Gib
##arvet
##Regjeringen
##112
##Edu
##enighet
##soner
##Elite
##PR
##Pris
##arbeidd
##Solberg
##Turn
##Expedition
##ар
##brant
##stemt
##fristil
##brukast
##designer
##justis
##overflata
##halvdelen
##silke
##austerrik
##Chil
##svekket
##beveger
##Ytter
##Stok
##ktede
##Nev
##samlinga
##plattform
##Vog
##ws
##mellomtiden
##Allen
##Leif
##Ett
##rekningen
##øyeblikk
##lært
##messe
##Mercur
##utforming
##fordeling
##etterretning
##typar
##Bridge
##angivelig
##td
##ents
##reglene
##hunden
##fredag
##atel
##ningane
##Internett
##Nick
##Ui
##avei
##edia
##heatet
##iers
##effektivt
##tilgjengelige
##Chrysom
##Hop
##Hvor
##politikere
##forbinder
##konsernet
##Sad
##Discover
##fartøyet
##ødela
##Taiwan
##dedik
##dio
##impor
##ferds
##turbin
##bestemme
##stopper
##skøytel
##Hir
##valt
##inngang
##unnel
##vestlig
##Prince
##usikkert
##indust
##konferanse
##brenne
##radikale
##Ting
##stak
##Røros
##Aus
##Galler
##Aks
##følgjande
##resolusjon
##Sudan
##Kansas
##BW
##kai
##forsøket
##uts
##touren
##orax
##foretok
##Folkeparti
##Spiller
##Kurt
##bale
##kjempa
##hord
##temp
##emir
##dynam
##foreløp
##pressen
##misjonær
##næringsliv
##Kenya
##Pin
##utnemnd
##planla
##fysi
##Tennes
##Helt
##demar
##bemerket
##bab
##Brensel
##knute
##Bolivia
##Tids
##teateret
##karakteristisk
##stipendi
##omus
##Head
##bandy
##oppgaven
##innflytelses
##»".
##forløper
##asp
##fortjen
##stortingsmann
##fienden
##hers
##organismer
##nordvestlige
##Kring
##Rene
##stere
##avsnitt
##oppløsning
##beret
##dyret
##Omkring
##Aserbajd
##Philadelphia
##zel
##velde
##fundament
##gras
##Student
##Dale
##hir
##spinner
##Jerry
##kreert
##ulv
##IO
##eith
##lærere
##operaen
##Venezuela
##Chrysomel
##statue
##innehav
##Bam
##ktighet
##flø
##avlang
##fyrsted
##rence
##Fritz
##Gje
##Piet
##XII
##Viktor
##hastigheten
##osjon
##beltet
##Lys
##forveks
##nerve
##middelsstore
##teret
##grun
##drøm
##tette
##Ragnar
##MF
##territoriet
##Madagaskar
##stjern
##leksik
##kontrollere
##Gret
##korpset
##kildene
##Country
##Bush
##Inns
##Low
##Moren
##Kasakhstan
##Helle
##Iron
##tilsett
##Start
##episoden
##infanteri
##Mør
##Mort
##nedag
##Grimstad
##fjør
##Edinburgh
##Løv
##stende
##avgjer
##verna
##bevil
##canadiske
##Vei
##kjeller
##festa
##forretningsmann
##halsen
##retta
##Arm
##stadiet
##flyktninger
##opphavet
##roit
##Dyn
##Flan
##Tryg
##ikaren
##oppsta
##nødvendigvis
##ол
##overføring
##ennis
##Moore
##statsministeren
##Sok
##ksen
##nordre
##litau
##Centre
##sløs
##Arist
##korrekt
##Seks
##kreves
##moderat
##Trondhjems
##kontinuerlig
##rell
##entre
##bai
##Orkn
##ctric
##uttal
##sammensatt
##sprodu
##Klima
##veland
##hypote
##stifta
##kammeret
##rens
##befant
##oppholdt
##iverks
##Flyet
##sperioden
##Kung
##vileg
##bygginga
##stafetten
##Hunnen
##adis
##stemmerett
##selvstendighet
##administrasjonssenter
##trommeslager
##Charlotte
##æn
##ione
##offentleg
##Heim
##114
##ww
##ograd
##rettighetene
##kald
##sjukdom
##Amal
##produktet
##Svend
##ommun
##SD
##Sei
##Administrasjons
##RMS
##overlevende
##para
##Storm
##Helgeland
##svirksomhet
##Of
##residen
##rick
##slutter
##slekts
##Human
##Mind
##immun
##Landkreis
##hertugdømmet
##restaurant
##Even
##gol
##light
##Stones
##brakt
##kunstneren
##forstyrr
##rittet
##edalen
##opererer
##oa
##tus
##Sche
##Alexandria
##Cappelen
##cket
##cio
##ime
##dell
##plak
##keland
##bbet
##1833
##Tibet
##Steinkjer
##protestantiske
##samarbeide
##iskop
##ovel
##rets
##kompani
##Bent
##ystem
##forlet
##averande
##hak
##erende
##Serge
##miljøer
##Kennedy
##periferieininga
##omfang
##sambandet
##ople
##Moe
##feller
##evig
##sklubben
##Vatikan
##plet
##bragte
##evolusjon
##kvalifiserings
##nevne
##kred
##ondo
##Eksempel
##overraskende
##Gordon
##sis
##spion
##hittil
##Eriksen
##Deutsch
##Pia
##SE
##utløpet
##Found
##ammunisjon
##Eag
##Orig
##ekn
##opprettholde
##Social
##bbe
##jot
##jin
##vakte
##Spesielt
##avdekket
##dramatisk
##Hermann
##nordøstlige
##BK
##forum
##høyest
##velges
##forsin
##Apple
##Alber
##kristendom
##Mongolia
##Demografi
##islandske
##samtid
##opptredener
##ørkenen
##Ltd
##skat
##skolens
##Misso
##tortur
##castle
##Kiev
##Gur
##Vitenskap
##bestanden
##istar
##Same
##estimert
##work
##inar
##paa
##sirkul
##betraktes
##ønskte
##Discovery
##come
##sprinten
##mynter
##Tennessee
##Hit
##Ninten
##forsterk
##kanaler
##skiold
##maskinen
##ukjente
##fullmektig
##Inndeling
##Vanlig
##Cæsar
##utdanna
##utenlands
##Palmer
##Singap
##Rh
##any
##styring
##felttoget
##blas
##standene
##sosialt
##betrakt
##Tippelig
##Geneve
##haven
##flor
##stjenesten
##rering
##granitt
##patriark
##morgenen
##Ji
##glo
##oppmun
##undertegnet
##marx
##skuespillere
##symmet
##verdensrekord
##bomber
##konseptet
##num
##ares
##sium
##redet
##jordskjelv
##Lyd
##Deep
##ners
##høyrde
##jomfru
##oppfatning
##Innsbruck
##verste
##snur
##hyper
##hias
##Hannen
##krum
##betenn
##Dansk
##innsatt
##innløpet
##ferdigstilt
##BN
##avgang
##seld
##Buck
##ftig
##Ec
##integrert
##sling
##leverand
##Arnold
##arktiske
##Cav
##Hugo
##blank
##resultatene
##europamesterskapet
##Anatolia
##Aer
##Ida
##sære
##tidlege
##strengt
##velstaende
##KrF
##Whit
##Lofoten
##islav
##danser
##digitale
##arrest
##spillene
##melk
##landsbyer
##pasient
##Fy
##ungen
##pafallende
##prosesser
##Johans
##Coast
##annerledes
##heder
##low
##spare
##malvakt
##Hero
##Asbjørn
##Cry
##Carr
##Dyr
##Sunde
##Zam
##dekorert
##RT
##stum
##treet
##bog
##rap
##forskjellen
##tegner
##alth
##Alpene
##bakkroppen
##hinder
##kid
##hendelsene
##organisering
##Noe
##bakgrunnen
##plateselskap
##NG
##forvir
##islandsk
##1832
##Inndelingen
##industrielle
##Chrysomelidae
##bye
##Pow
##zona
##1812
##tydelige
##boa
##torped
##hevda
##Britannia
##resterende
##toget
##strategi
##Mob
##Mitch
##otisk
##gjær
##løfte
##Larven
##Rat
##stige
##skov
##drapet
##tegl
##prinsen
##Fordi
##you
##relatert
##faktum
##Levanger
##komplisert
##utslipp
##ando
##Fager
##Revol
##lengd
##alternative
##ACAN
##Hz
##Hog
##Detroit
##selvstendige
##inst
##omfatte
##praktiske
##etappen
##Microsoft
##inett
##plasseringer
##Buff
##militæret
##.–
##apner
##turister
##graven
##Heat
##registrerte
##plataet
##forsterket
##erto
##nyhets
##skjul
##ekspansjon
##Hydro
##komplekse
##Arsenal
##Hval
##Rig
##sse
##ии
##østre
##Moham
##orientert
##psykiat
##konstruksjonen
##angul
##garde
##Marian
##Campbell
##Stiftelsen
##metallisk
##Yorks
##ст
##itas
##Neu
##Sardin
##Verne
##hager
##oppfordret
##berger
##platene
##enklere
##Stortings
##Space
##Frei
##utnytte
##konsentrasjonsleir
##løslatt
##litterær
##opphevet
##farvann
##nedslags
##Baden
##offentliggjort
##Skjer
##kum
##vilt
##Foruten
##ments
##krystall
##utryd
##uste
##senator
##innover
##have
##skjult
##plassar
##Pyeong
##teneste
##etting
##prost
##Conc
##Ulle
##Mississi
##manad
##organist
##vietname
##rele
##Skul
##rakett
##lukket
##skrekk
##Kevin
##unionens
##ental
##revolusjonære
##dennes
##Age
##interiør
##tapet
##deltakelse
##Ming
##Mam
##ulerte
##sakadem
##First
##oler
##styrkane
##midtre
##forskeren
##assen
##skilles
##statssekretær
##brunt
##barnebarn
##filosofiske
##Airlines
##tjener
##delane
##Konkurran
##Hob
##stanse
##Stalin
##Vinner
##fans
##scup
##Musikken
##kontroller
##Algerie
##Stig
##planten
##Forbun
##kirkene
##imperiet
##hjorte
##tanken
##høvding
##Tittelen
##tøy
##ikat
##jevnt
##Fac
##Xian
##urbane
##provinser
##fabrikker
##skyldig
##Pant
##mote
##Science
##tverrband
##Malta
##Pac
##book
##vinning
##skrivne
##ppens
##trekte
##spelaren
##Kant
##Herc
##kasse
##angriper
##konferansen
##Din
##Relig
##Yng
##innføre
##artik
##slagene
##cept
##dyrene
##riften
##tvilling
##atferd
##1810
##nyare
##primit
##generalmajor
##absolutt
##hm
##tz
##varmt
##Valdres
##yu
##sop
##Kristoffer
##Boeing
##falen
##regjeringstid
##annonsert
##hevn
##ugene
##hjemlandet
##gitte
##Buen
##global
##afro
##ødelegge
##Forbunds
##Jen
##Ple
##frisk
##kjøl
##braut
##oppvarming
##fia
##ikten
##urus
##antikkens
##Johnsen
##kvadratkilometer
##Beng
##Ug
##Demo
##figurene
##innga
##krater
##belast
##evner
##styresmaktene
##Vad
##smerte
##mose
##vestad
##Bernard
##rapportert
##Egg
##Horten
##styrmann
##scor
##Rain
##faktorer
##Siv
##sius
##take
##kjever
##republikanske
##Mig
##hjernen
##nom
##kritiske
##leikane
##Operatør
##daverande
##attent
##haus
##Montene
##nordligste
##lengdehopp
##Romerriket
##Refer
##Floyd
##Bab
##ellev
##More
##uto
##treffer
##nop
##standarden
##pavist
##Kristen
##Ost
##Virk
##ombygd
##ittar
##ayer
##liberal
##smelte
##Gall
##bygdene
##105
##Harvard
##Philli
##vering
##ivalen
##Knudsen
##Pho
##monopol
##hytta
##sørvestlige
##herredømme
##administrativ
##enheten
##poder
##Herbert
##Munch
##Latin
##install
##klor
##systematisk
##ggen
##heavy
##likna
##syns
##Electric
##Sistnevnte
##anven
##flytter
##annias
##arsjubileum
##Pyeongchang
##Rho
##Yang
##orter
##varsel
##formell
##kriter
##frav
##1808
##Gustaf
##Girl
##Prosjektet
##Stjørdal
##Hawaii
##slinjer
##uga
##langvarig
##Forel
##sikten
##Ungdoms
##ulovlig
##Porsgrunn
##fele
##jab
##osa
##uston
##styrkar
##Paulo
##seiler
##ellig
##avrundet
##konkret
##befolknings
##Kare
##tillot
##Hospital
##lærde
##Muller
##Svartehavet
##Winter
##vitner
##Jeff
##løsninger
##sprosessen
##utvidelse
##lova
##vannpolo
##Hens
##forbunds
##Russell
##Arbeidar
##1807
##tyngde
##avstemningen
##Lawrence
##Mercury
##Fry
##Kul
##Tower
##løve
##begrense
##ianus
##avisene
##Walker
##xon
##funksjons
##bebyggelsen
##Stortingets
##02
##Golf
##1824
##Bobby
##Bret
##skriving
##mingham
##Hig
##Seg
##dekar
##Dec
##boe
##dyrking
##Scot
##slovak
##alpinist
##Aserbajdsjan
##Vide
##foster
##gamal
##Finalen
##soldatar
##Montenegro
##Hva
##oko
##byggj
##box
##torv
##gjennomsnittlig
##egyptisk
##rekrut
##regent
##itor
##brid
##busk
##Diamond
##lingvist
##meldt
##Canad
##løvtrær
##skandinaviske
##Sardinia
##vunne
##stj
##elland
##følelse
##personene
##informasjons
##kampar
##fengselet
##forveksles
##zburg
##forræ
##lednings
##Valent
##%)
##Halle
##Jay
##premier
##fisket
##forsyninger
##separate
##117
##Dion
##tim
##service
##Styr
##veiene
##Forsvaret
##blankt
##plankton
##seksuelle
##Foll
##1816
##tendens
##fiol
##slektene
##lak
##søkt
##="
##løfter
##uez
##trompet
##benevn
##"»
##stas
##Isle
##Westfalen
##opplysning
##Stam
##arbeiderne
##marmor
##Norweg
##synleg
##itære
##lykkes
##Thompson
##jordens
##protein
##ødsel
##Abbey
##!»
##ksi
##motstanden
##mesteren
##spesialist
##alliert
##Parken
##onsson
##borgerkrig
##1809
##langrennsløper
##Abo
##EN
##jubile
##oria
##itus
##bystyre
##slatte
##Saman
##intens
##Birmingham
##Anker
##kirkelige
##Newcastle
##Storbritannias
##kandidater
##arkeologi
##stigning
##Nintendo
##markant
##punk
##beskrivelser
##opplev
##verknad
##Missouri
##lisens
##underholdning
##Ptole
##medik
##kede
##othe
##handle
##banker
##Midd
##regjeringens
##dong
##fing
##stalt
##mora
##kritiserte
##beskytter
##qi
##henrett
##følelser
##jevnlig
##laveste
##Singapore
##svenskene
##What
##ierra
##reknar
##sørsiden
##barokk
##gongar
##kreditert
##U23
##smed
##tam
##Installert
##kampanje
##Intel
##partikler
##songaren
##Rac
##odene
##Instru
##Broadway
##yan
##leire
##Grant
##katalog
##universet
##iseringa
##lude
##spredning
##Antiok
##Mississippi
##lapp
##melde
##innenriks
##fiber
##temaet
##lisen
##kapellet
##Symp
##mobilt
##Swe
##Glom
##elektromagnet
##aft
##sinstitusjon
##territori
##bokstaven
##ereg
##kulturer
##musikar
##klede
##ocaust
##(),
##rater
##koblet
##kronet
##spanjol
##750
##Four
##hong
##iness
##onto
##tilnavnet
##gardbrukar
##regional
##kommunistpartiet
##vurdering
##verft
##menigheten
##befal
##1835
##kjelder
##ici
##ytterst
##Leonard
##jav
##levande
##fyller
##sjeldan
##romart
##fryktet
##Fen
##reduksjon
##Augustus
##drivstoff
##manuskript
##tevlinga
##imellom
##passerte
##ин
##oty
##Cooper
##Thur
##Quis
##testamente
##Falkland
##edet
##splasser
##jeger
##1827
##boende
##bokmal
##folkene
##Meyer
##Jamaica
##Mit
##Tig
##faglige
##Halling
##Ronald
##Tanz
##hersket
##synger
##barnehage
##manuel
##Sri
##kollen
##Leopold
##Rut
##sunn
##omon
##asia
##protot
##pasninger
##Evans
##Krigs
##Gli
##Gang
##teller
##eton
##ogene
##1828
##)".
##illeg
##isjoner
##medlemmar
##tyngre
##uthern
##Mountain
##Abel
##inklus
##Kvit
##Vind
##gatene
##brud
##ffi
##værelse
##kunstnerisk
##islamske
##forbrytelser
##Nab
##datidens
##1801
##Colorado
##Clin
##ittisk
##fjorten
##Spits
##nivaer
##Domin
##HF
##Pie
##impon
##boy
##Spen
##Norgesmesterskapet
##Arbeids
##strategiske
##Afri
##Data
##Now
##frakt
##ause
##iteen
##Hauge
##Forsvars
##ια
##slette
##heve
##væpnede
##Amazon
##nasjonen
##Diego
##hanner
##1829
##mour
##hovedrolle
##maker
##undersøke
##Ranger
##4000
##Tunnelen
##anslatt
##rehabili
##krins
##ansene
##that
##Kristin
##03
##1831
##bringer
##valuta
##Liby
##mangfold
##prestis
##embetet
##sorenskriver
##Bryg
##kvant
##ytt
##icks
##regelen
##Key
##Oliver
##Dus
##hunde
##svær
##fremtidige
##insula
##smalt
##skara
##utlend
##henge
##bildene
##fødselsar
##runder
##Western
##mekaniske
##tvangs
##uensis
##sonomi
##abbed
##distrikts
##renessanse
##mottar
##Alv
##følgjer
##bomull
##tallets
##styreformann
##arrangementet
##include
##amfipoder
##plutselig
##Vast
##omtaler
##muslimer
##arhundrer
##Rica
##News
##Pere
##forstad
##ismens
##Navn
##vell
##avbrutt
##falsk
##fordeler
##urter
##1813
##sommerfuglene
##Standard
##raels
##føringa
##sjefen
##Lyon
##brevet
##subje
##sokne
##skraftverk
##orps
##fortelle
##Bryn
##Canter
##Venus
##bidraget
##elektrisitet
##opot
##Hockey
##manglet
##tolket
##erobringen
##kommunens
##kafe
##Tau
##hengt
##nødvendige
##fuktig
##trussel
##Hanna
##Resten
##gjenvalgt
##orienterte
##verdsmeister
##semble
##Catal
##guvernøren
##Waters
##teologiske
##utkjempet
##søks
##ovre
##stranda
##Vincent
##aristokrat
##ovitsj
##forenklet
##bustad
##Natt
##Nansen
##anden
##igi
##intellig
##instruktør
##Elverum
##Lod
##jung
##lekam
##ligningen
##turer
##Baker
##Eugene
##mæle
##utbyggingen
##Møller
##dug
##distriktene
##Zappa
##jas
##tilstanden
##Franklin
##rekkefølge
##sprin
##Fabr
##spurte
##infrastruktur
##Kvar
##issa
##opprykk
##parentes
##gudene
##sos
##edag
##ekspor
##Finlands
##Wergeland
##mn
##eles
##raka
##bandene
##katt
##anatom
##ilo
##Here
##immig
##musikkvideo
##quarter
##marskalk
##Rel
##SO
##mud
##alisert
##ragende
##steori
##Forlag
##krigføring
##sangeren
##dreper
##Trass
##staben
##pokalen
##femti
##stammet
##smalere
##klatre
##angelsaksiske
##vap
##Span
##opererte
##deltaker
##økos
##Fla
##keberg
##angs
##hovedbelteasteroide
##byraet
##Brandenburg
##Nigeria
##reres
##frakte
##vedt
##import
##finalene
##verdenen
##Zu
##europ
##rium
##Marine
##strafikk
##usjonen
##Elven
##akademiske
##differensi
##Wik
##ringa
##stikker
##etterfølg
##fins
##Marit
##flater
##Barbara
##inspektør
##dae
##kulturell
##Barry
##gil
##ønner
##fremførte
##trass
##juster
##temaer
##Paret
##etc
##lighet
##kirk
##Lorent
##geometri
##Bond
##summer
##milliard
##brystet
##krise
##hapet
##Cerambycinae
##Spitsbergen
##MG
##Spar
##Vapen
##rifle
##Ingrid
##Mao
##mors
##regjerende
##Arizona
##amanuensis
##1825
##Chelse
##valgene
##arren
##produksjoner
##galleriet
##alv
##athan
##action
##nordøstregionen
##Dallas
##Gaten
##keramikk
##grov
##220
##jorde
##verts
##korrup
##underjord
##Bakgrunnen
##novelle
##bele
##huser
##forestillingen
##Mozart
##Listen
##drifts
##Hviterussland
##pastor
##oppdraget
##etty
##sjøs
##bronsemedaljer
##terrenget
##avlen
##harete
##Dead
##oldtidens
##forstatt
##radene
##heitte
##blikket
##indirekte
##univers
##utgjeve
##spons
##Derimot
##Brist
##ush
##transk
##israelsk
##Shetlands
##Tippeligaen
##Fast
##geril
##arrangerer
##biologi
##Israels
##polis
##rettssak
##tilsette
##grø
##konkluderte
##Mall
##atorium
##bassen
##maios
##pasiteten
##kyrkj
##sesongene
##Utdanning
##peng
##musling
##omfattande
##niende
##Handlingen
##kunstneriske
##utra
##grunnloven
##generasjoner
##Privat
##Hannover
##banksjef
##Yes
##glede
##Parti
##achim
##dame
##unike
##dialog
##cock
##sammenslaingen
##Foundation
##amnet
##geografi
##geologiske
##metam
##privileg
##Cant
##Lak
##uge
##roing
##etternavn
##Byens
##period
##kjenneteg
##AK
##tilflukt
##apet
##fargene
##Vinje
##Tanzania
##Krak
##Last
##ulere
##slank
##Englands
##mekanisk
##Sports
##Peninsula
##overra
##aterte
##forkant
##ware
##andene
##troppene
##borgen
##atorisk
##Ecu
##keeper
##nyttig
##klokka
##ekstreme
##onisk
##Stutt
##fisken
##musikarar
##rær
##sfjord
##ferden
##bonus
##argentinsk
##yi
##stes
##beskriv
##minal
##Republi
##presidentvalget
##prise
##betydde
##variasjon
##fløyte
##kommunikasjons
##bore
##huden
##rumensk
##Romanen
##aktiviteten
##Mold
##fortet
##ulikt
##kunstløp
##slektninger
##Nak
##orum
##agan
##tril
##bedt
##Hessen
##cru
##sw
##improvis
##kalif
##virkende
##Press
##pavirke
##Antall
##levetid
##gd
##vesle
##lagare
##klipper
##nederlaget
##ytelse
##Scarabaeidae
##lysere
##substant
##sorte
##hurtigløp
##ministeriet
##renessansen
##MC
##utføres
##Derby
##biskoper
##respektive
##Did
##vitt
##dea
##drevne
##dronningen
##mie
##rea
##Joachim
##skøyteløper
##pest
##endt
##adgang
##matematisk
##arit
##stua
##daler
##gardbruker
##behandlingen
##MT
##Ridge
##craft
##Henning
##ffekt
##Design
##doktorgraden
##roleum
##innløp
##strender
##jenesten
##diplomatiske
##Frode
##Avisen
##Beit
##Neste
##Base
##Rap
##Medan
##klippe
##Regionen
##vurderte
##Svensk
##eksistens
##foreløpig
##liker
##bede
##bralt
##ekvat
##emne
##ibal
##Gruppens
##Bernhard
##Canterbury
##IR
##Plate
##senatet
##eigenskap
##Tunis
##Nunatak
##organisere
##forvaltnings
##geolog
##hendelse
##stue
##fried
##beleiringen
##fødde
##dramatiske
##boksing
##Slesvig
##Diet
##ommet
##Alb
##familiene
##Førde
##ellevte
##ume
##omset
##antz
##sindustri
##Antallet
##definerer
##Herceg
##skatter
##minut
##Chie
##ritu
##zealand
##Norwegian
##rem
##Sey
##kortvarig
##pasning
##stammene
##Personene
##avslørt
##urneringen
##Dark
##gutten
##stinget
##Beau
##seksuell
##Russlands
##skildrer
##Athlet
##Mikael
##anvende
##revi
##herreland
##væpnet
##kyrkjer
##Istan
##Llo
##stemmen
##Felix
##Bjarne
##Ges
##Sju
##liske
##kronen
##Manuel
##singler
##strukturer
##personligheter
##forfattet
##Xi
##oval
##innvil
##skifer
##følgen
##Dance
##hui
##E6
##Via
##dum
##innov
##1819
##sønnene
##Konged
##Sovjetunionens
##vedlikehold
##Chelsea
##pluss
##kross
##Gary
##baseball
##illustrat
##Matthe
##Aga
##Ci
##etil
##utgangen
##1834
##kniv
##ytterste
##barneskole
##midtbane
##karakterisert
##Volda
##øverstkommanderende
##lektor
##beslutning
##This
##Ellen
##manedene
##ellow
##veldet
##eiendoms
##lyde
##sjak
##hovudbelteasteroide
##Monroe
##AD
##heid
##Skal
##snakk
##Kry
##armer
##reen
##etti
##kasta
##Moritz
##firkantet
##nødt
##Krigen
##Princ
##warte
##skirke
##slok
##dsson
##1826
##munt
##tenke
##organisk
##glatt
##diff
##360
##oppvekst
##uttale
##Santi
##Røn
##kreve
##toler
##koping
##fotografert
##hellen
##uz
##apolis
##odne
##makedon
##Semi
##HD
##kass
##ox
##sproble
##Byggverket
##cat
##hektar
##ovan
##følgj
##forfatterskap
##kritikere
##offentlege
##Deler
##Riksantik
##Kanalen
##gjentatte
##Sierra
##butt
##debutalbum
##undervisnings
##Isab
##skjebne
##avbil
##1822
##ovina
##bygningar
##pavirker
##Cum
##Sz
##Zhang
##dap
##FIFA
##Kamer
##Rena
##oriske
##treff
##ledetrad
##folketelling
##finansminister
##pollen
##till
##terning
##sleng
##fornøyd
##saktiv
##Southern
##Toronto
##Khal
##cz
##utdelt
##angir
##Istanbul
##GB
##idad
##Stuart
##Gibralt
##kjenning
##pla
##Emma
##skikkelse
##Deutsche
##traged
##Snø
##bio
##emp
##farao
##Kosovo
##Globe
##Gent
##jos
##lyste
##framførte
##krigene
##tolk
##1806
##Katarina
##listet
##orp
##ady
##Reser
##Steel
##bevaring
##hunnene
##teolog
##ssyn
##sykler
##kongedømme
##Klok
##aktør
##scorer
##Hold
##Inde
##regjerte
##priori
##bortimot
##punktene
##magnetiske
##Arkitekt
##Ptolemaios
##Fiske
##kut
##besta
##arbeidene
##effekter
##RAF
##optim
##Sofia
##fiende
##skyer
##inda
##Fremskritt
##Ordenen
##lob
##fords
##litur
##steretts
##kanadiske
##selges
##Christine
##Nobelprisen
##skyr
##utstilt
##mentere
##Samling
##kroppens
##feilaktig
##Demokrat
##hjertet
##Slot
##enburg
##inntok
##Theod
##forsøke
##Linda
##Arbeid
##skontrakt
##ал
##overlevd
##traktor
##Memor
##hotellet
##lyder
##riller
##Conne
##Nieder
##Landes
##gælisk
##Erich
##haret
##lignet
##luks
##Edgar
##propor
##Luis
##onymet
##AN
##Aven
##Pod
##klokker
##sultan
##Eivind
##Ot
##fjellkjede
##quist
##kategorier
##gymna
##edderkopper
##virksomheter
##Kay
##cin
##agne
##fekter
##bow
##angrepene
##Sporliste
##Dat
##Dir
##ður
##Sogndal
##komplett
##Bristol
##cto
##fremragende
##selvstyre
##kulturminne
##uttrykte
##jernbanestasjon
##stiger
##Theater
##særdeles
##patrul
##German
##summen
##beliggen
##gun
##reelle
##defen
##rammer
##kolonier
##besøkt
##Fana
##Staten
##sektoren
##Budd
##ient
##onna
##rip
##sivet
##datamaskiner
##kollega
##notert
##straffer
##ordinær
##Beteg
##bevege
##Xin
##menes
##fester
##veggene
##Rikard
##cephal
##eining
##minton
##astero
##Rover
##husdyr
##virtu
##Idrettskarriere
##teoretisk
##betennelse
##avi
##entus
##oversiden
##glad
##apningsseremonien
##Ted
##asse
##rikdom
##Andy
##fotografi
##verdensarv
##hebraiske
##databasen
##Gand
##utdelingen
##igu
##oppfatte
##interne
##]].
##Uttrykket
##Curt
##rugby
##inklusive
##Aber
##Amand
##utmerkelser
##rytme
##Chann
##Lier
##Nurn
##formasjonen
##distansel
##Frø
##Nad
##Tina
##forfed
##litz
##virus
##ungene
##prinsipp
##Energi
##Felles
##ftes
##eto
##eled
##Grunnen
##studentene
##Varanger
##sørøstregionen
##stituert
##minster
##Innenfor
##1811
##hern
##Berge
##batar
##hjørne
##Taksonom
##akseler
##:"
##Staden
##moral
##epi
##Paulus
##Kunstner
##Mjø
##Morgan
##partementet
##ST
##avskaffet
##skuespillerinne
##Phili
##plukket
##Flandern
##kW
##steret
##trur
##fakta
##Julie
##romantisk
##symptomer
##Uran
##bik
##eik
##freg
##chel
##gruppens
##smør
##kombinasjonen
##oppdatering
##hendene
##høyskolen
##240
##Blad
##Magne
##Murray
##bokstaver
##førsteplass
##Lac
##elefon
##manusforfatter
##Forening
##Wolfgang
##Espen
##apost
##suveren
##college
##palestinske
##globale
##Pent
##yton
##tilbudt
##oken
##malinger
##fotografer
##Houston
##mandag
##aksjoner
##personlighet
##Indian
##ælland
##Klasse
##instrumentet
##Panama
##1789
##Ingeborg
##mjøl
##spei
##kros
##semifinale
##batt
##filipp
##Formalet
##svarer
##strømmer
##RO
##SPD
##næs
##inane
##Temp
##wi
##prestasjon
##gjennomgar
##formel
##samlealbum
##galleri
##WoRMS
##"».
##orisk
##vekten
##innfødte
##orkesteret
##konsentrert
##attraksjon
##Zev
##orene
##jong
##1823
##holdninger
##Tilbake
##avslutta
##utgravninger
##Trygve
##Fot
##bytter
##havslekene
##Marshall
##gjerning
##brasilianske
##snarere
##doping
##kord
##adalen
##sim
##overlever
##konsekvenser
##imple
##herine
##Living
##debatten
##hia
##plassene
##Legen
##marsjerte
##spesifikke
##dybde
##Danske
##setet
##verdenscup
##regime
##belønnet
##SM
##sørkoreansk
##styrket
##inneholde
##tsar
##Cath
##bier
##kongress
##revy
##svovel
##kaffe
##Schle
##Persia
##Edmund
##oliven
##examen
##observasjoner
##Sich
##alu
##tegning
##stock
##Høgre
##Kai
##definisjonen
##Kaukasus
##Empire
##motsetnad
##blø
##medlemmane
##Holme
##NRKs
##skihopper
##Engelsk
##jut
##beund
##æret
##ches
##forenings
##sprisen
##demonstrasjon
##ibu
##bordet
##fullføre
##orient
##Ishockey
##krysse
##sunget
##Robinson
##Mau
##leste
##ingrad
##ject
##forbedre
##Eil
##mam
##høgskolen
##pser
##spore
##halvar
##arbeidsgiver
##tjen
##radar
##svag
##flaggbærer
##Ill
##ures
##stokk
##okar
##aket
##owa
##filmregissør
##Cab
##dødsfall
##romantiske
##pne
##stag
##utfører
##gig
##stens
##boks
##lengden
##kvinneland
##utdannings
##varierte
##fokuserer
##astronomi
##solid
##inviterte
##XIV
##kabel
##ße
##utkanten
##bystyret
##setnaden
##guder
##Politikk
##gut
##ellere
##myk
##yah
##skampen
##greg
##søvn
##vannkraft
##vaksin
##Bibli
##Bygget
##Camil
##Lagtinget
##cub
##undertrykk
##obo
##høves
##Ork
##analyt
##sprintløp
##Næ
##Sann
##Hey
##naturleg
##godkjente
##skarpe
##videospill
##Hammerfest
##datamaskin
##Seri
##Vingene
##Yam
##arin
##avbildet
##Stang
##Utmerkelser
##miste
##forklarer
##stres
##Andrea
##Council
##bispe
##psykisk
##mogeleg
##tsjekkiske
##Ontar
##progressiv
##Astrid
##Banen
##Gunder
##laur
##pleie
##katolikker
##ensidig
##influ
##ikanske
##utnevn
##ubat
##Leeds
##fiskeri
##effektive
##Laura
##utvand
##konsil
##pren
##mangekamp
##gravid
##Perio
##tribun
##SN
##inal
##talar
##tuber
##Kot
##Won
##ordnede
##overhode
##høyder
##vegger
##impul
##Betegnelsen
##tilrett
##mellomrom
##101
##owski
##jenester
##identisk
##heden
##eloven
##situasjoner
##Kvalifisering
##restene
##asyl
##kombinerte
##NSB
##sides
##doms
##1803
##Silver
##sias
##antak
##endemisk
##Row
##Office
##teren
##1790
##herr
##Berger
##morfol
##medaljar
##alpine
##Year
##Wiscon
##Gjen
##utsett
##althe
##kvitt
##Wisconsin
##ław
##forven
##tyskere
##komponister
##dammen
##stridsvogner
##Stuttgart
##grafikk
##skroget
##Bird
##stiftelse
##tretti
##AU
##Mog
##SF
##overens
##ektemannen
##intellektuelle
##-"
##Forum
##Paralympiske
##formula_1
##søsteren
##elektroniske
##kallenavnet
##Dependen
##Ecuador
##Cad
##yper
##inntak
##domstolen
##dialekter
##Libya
##Cale
##Kub
##NV
##avslo
##etterspør
##ovale
##Marius
##Skol
##Reidar
##storting
##sosialist
##systematikken
##Magaz
##utnyttet
##Page
##pom
##srud
##innføringen
##okon
##poster
##ED
##trykker
##operasjonen
##skjegg
##enorm
##//
##uttak
##lagring
##mare
##lokalpolitiker
##leksikon
##sorg
##georg
##kontak
##distin
##Tomas
##verdscupen
##konsertane
##hyllest
##detalj
##hordland
##seriene
##ettermid
##malere
##skriftlige
##deltakerne
##tjenesten
##Claude
##aro
##avhandlingen
##oppgradert
##reaksjoner
##spekul
##ekvator
##irak
##aking
##partene
##partikkel
##oldater
##varmekraftverk
##reisa
##pasienten
##grunnleggeren
##rustning
##rolla
##Fremskrittspartiet
##MP
##Torg
##kunder
##steparten
##slange
##oversatte
##Reed
##gudinnen
##Ekeberg
##Ster
##Øver
##apenbart
##Commun
##problemene
##trebukk
##radikalt
##Cos
##olde
##duoen
##forelsket
##Ral
##asa
##berett
##skillet
##Web
##blanda
##okkupasjonsma
##tennisspiller
##propaganda
##Cart
##Lon
##Vent
##cid
##evnen
##falske
##dominerer
##Born
##rasen
##pping
##ference
##leggingen
##Øyvind
##Chen
##Hare
##Jason
##ик
##Carter
##elinjen
##Channel
##Eide
##forbren
##Hovedstaden
##forvandling
##opotam
##fsen
##ørn
##elling
##skapa
##utanom
##Fergus
##undersøkt
##aguay
##stjernene
##?»
##Kings
##Kelly
##Forest
##sterkeste
##Gym
##vedkommende
##lasse
##Ryan
##symboler
##BMW
##raste
##iranske
##hao
##bronsefinalen
##Sarah
##fornyet
##Hamp
##Loren
##sveien
##sammensetning
##filmar
##gjera
##studium
##habitat
##ович
##HK
##Stø
##ofre
##rekning
##blomst
##fysik
##Rick
##baby
##Marin
##Sprak
##ocen
##uki
##grunnleggerne
##norden
##skive
##rapporter
##betydningsfulle
##Fau
##Rum
##Tin
##unik
##herjet
##gruved
##estisk
##Quebec
##Asl
##Lek
##landomrader
##predik
##skoger
##rektangul
##fortid
##pakke
##fremtiden
##fremstilt
##lata
##kulturelt
##Mitchell
##stjert
##orda
##uttrykt
##depor
##mern
##Warner
##imponer
##Fitz
##Trygg
##adet
##blog
##ferdigheter
##raskeste
##Hul
##Qatar
##Sap
##Sale
##delstats
##hvorvidt
##sjeldent
##egs
##Scene
##Liu
##hule
##representasjon
##lof
##innsatsen
##Special
##Lisboa
##Pictu
##stipendiat
##kled
##forfattaren
##respek
##Stykket
##tank
##hek
##drup
##kalender
##Churchill
##Gut
##yard
##konsern
##Puerto
##avvikla
##Gim
##innr
##kko
##Field
##Kvart
##nese
##utstrekning
##søstre
##streik
##teknikken
##singellista
##oppløyst
##ABC
##anus
##bukten
##skriftene
##busetnaden
##meksikanske
##kina
##kjert
##løftet
##sideelvane
##sien
##Elli
##Mottak
##sjokola
##550
##Død
##alger
##delinga
##kirkegard
##orianske
##Common
##endringar
##konsept
##komposisjoner
##tainment
##Jere
##lokomotiv
##Arag
##Ore
##arka
##skum
##skept
##sentre
##trol
##opphavs
##Østersjøen
##nemnt
##Gw
##Gest
##grand
##Dens
##kryd
##selt
##filmet
##pyram
##offensiven
##overleve
##Handel
##nag
##Økonomi
##uru
##Siri
##UNESCO
##Hunn
##angayer
##Joan
##fremmede
##smug
##bestemmelse
##sjølvstendig
##røyn
##Keith
##etterkommer
##ienne
##Danne
##bussen
##foreles
##newzealand
##Nurnberg
##Put
##Walla
##salen
##brotet
##urnering
##Stabæk
##Shakespeare
##320
##Zi
##dun
##fut
##ograph
##huske
##kvaliteten
##musikalen
##røret
##Walk
##Celt
##Nie
##pekte
##demo
##bay
##ylle
##illo
##kravene
##NHL
##IBM
##oppgavene
##Shac
##Kenneth
##Professor
##syndrom
##Arbeidarpartiet
##korrespon
##Lapp
##desi
##ammer
##understre
##likasjoner
##periodar
##konvensjonen
##legendariske
##Kiel
##kingen
##serbiske
##underarter
##halve
##lukk
##Beograd
##Karibia
##dynastiets
##frilufts
##fikt
##»;
##lastebil
##mol
##pent
##maneden
##Ferr
##klassis
##das
##skunst
##garter
##leverer
##avslutning
##syklus
##Nikolaj
##forekomster
##Hudson
##arven
##iland
##hekker
##fangene
##Tyn
##informer
##hana
##caster
##skogs
##tynt
##Lisa
##ifer
##destin
##urban
##opplever
##snu
##kommentator
##Abdul
##Dakota
##nym
##Ree
##eggene
##fungerende
##Trans
##melsen
##mem
##Poul
##Petersen
##ugu
##Spraket
##Trav
##leiaren
##grove
##Pave
##krisen
##kansler
##pavelige
##Drammens
##skadd
##felttog
##Helena
##Sed
##slø
##samein
##seksten
##Dampski
##Oak
##dyrka
##teknikker
##vakker
##Bladene
##AFC
##Cong
##RP
##Sogne
##stang
##only
##forlater
##asser
##behandler
##kjøn
##ustad
##singlar
##stammar
##flertallet
##lutherske
##dingen
##Milan
##maleriet
##Bard
##Flu
##Guar
##1770
##argumenter
##rukket
##chy
##hero
##prinsipper
##ils
##rekken
##flue
##Omtrent
##Louisiana
##skoleg
##minimum
##Aires
##Sort
##koma
##Braun
##Hercegovina
##Shacklet
##Pul
##nau
##halda
##Toten
##skyldtes
##Eliteserien
##CF
##Matte
##kjeden
##flyter
##krigsskip
##Shah
##Miami
##eringen
##nettverket
##krim
##spesialisert
##flokkur
##Dovre
##grenda
##spolitikken
##Universitets
##blodet
##Halvorsen
##mmer
##oppd
##1817
##gjennomgatt
##fjerna
##massivet
##betegnes
##argument
##Mandal
##etterfølgende
##Loven
##material
##Raymond
##MD
##bønn
##iff
##amar
##besetningen
##samarbeider
##religions
##Buenos
##Num
##Sene
##ikal
##gevær
##Elv
##arbeidar
##Konrad
##Haag
##bombefly
##verksemd
##Democ
##lidelse
##eley
##konkurrere
##løpere
##Utenriks
##Reich
##sammenhengen
##Referanser
##Ya
##olph
##ppestad
##Kreta
##COs
##forklarte
##Death
##formelen
##personleg
##hytter
##Ulf
##kommersielt
##tevling
##heilage
##water
##terende
##tyd
##Elles
##zza
##rangerte
##kulestøt
##Vinn
##uttales
##Fredriks
##snakka
##Zimbab
##pans
##tillater
##sjang
##defineres
##Dokt
##Jomfru
##statsvitenskap
##færøysk
##GT
##Leder
##ørne
##steen
##beslag
##normale
##myster
##acion
##latene
##mislyktes
##Clap
##CBS
##bott
##nobel
##riksvapen
##diktatur
##filosofen
##fiktive
##Gis
##With
##ores
##Sahara
##gotisk
##kalkstein
##Tettstedet
##Ontario
##ulle
##føreren
##herred
##bakkropp
##synkron
##austover
##Ernest
##Airways
##tørke
##eksperimenter
##Indiana
##stevnet
##)",
##anark
##rod
##metod
##fondet
##Løren
##zio
##irs
##manøv
##Hertug
##Claus
##Nør
##ibbut
##gudinne
##ckers
##birolle
##keyboard
##seminar
##Zevs
##Hær
##oney
##regionene
##peraturen
##Plata
##UNESCOs
##Brenselkilden
##Biskop
##SU
##Tian
##kvante
##oger
##levevis
##innstilt
##dius
##statist
##formue
##Nesten
##sakene
##passende
##mandater
##Utviklingen
##omring
##Anim
##Somme
##burger
##Georges
##Hipp
##omstendig
##sinstit
##barok
##flo
##Nordmøre
##festivaler
##stanset
##Næringsliv
##Care
##aus
##insen
##reper
##tresteg
##Loch
##Banks
##Weimar
##Rasmussen
##Bohmen
##ifa
##sant
##idi
##Bolig
##rapporten
##soloalbum
##periferien
##Kitt
##nyheter
##1660
##billett
##videreført
##Eddie
##asinet
##vinduer
##From
##befolket
##komprom
##hattan
##spedisjon
##Senteret
##Yr
##cl
##tiltradte
##agon
##karar
##Innspil
##kapte
##smitte
##ografen
##regulære
##utfør
##markere
##modellene
##definerte
##Namsos
##midlertidige
##bria
##kvin
##trekant
##framstilling
##Bonn
##krevende
##psyko
##dekte
##øyas
##tenberg
##sikra
##fantast
##barnebok
##1805
##Boris
##noveller
##double
##dedikert
##Parker
##pigg
##nig
##truffet
##Nina
##Ove
##paske
##komsten
##antise
##ugg
##elvane
##narkotika
##jast
##gjødsel
##firer
##vinnar
##skøyte
##Wurtte
##AL
##Kje
##tønne
##analog
##klang
##Challen
##Presiden
##bølgen
##visstnok
##Brom
##Anto
##Nytt
##1795
##efter
##nale
##sklubb
##skodespelar
##Entertainment
##Fø
##Jung
##sha
##utest
##ism
##chwitz
##eieren
##delege
##Northern
##rep
##bytt
##slutningen
##uniform
##tusenvis
##Panamerikanske
##kjøretøyer
##rumenske
##grek
##atti
##Internasjonale
##People
##rutene
##Dependencies
##Bek
##oz
##spli
##dringer
##Heil
##gotiske
##Avisa
##Tap
##1804
##inntektene
##Francesco
##Tradisjonelt
##Ralph
##cellene
##Bremen
##øytnant
##stredet
##skaja
##hekkar
##aposto
##Nationalthe
##bakterier
##Kvam
##Høyesterett
##cut
##wo
##Italias
##%),
##BO
##jingar
##nøyaktige
##Haugen
##sprogrammet
##medfører
##bana
##helset
##Jonathan
##ladning
##mislykket
##akustisk
##walisisk
##fortjenst
##Gron
##ariske
##gerø
##Sørensen
##meldinger
##Technology
##Miner
##sekul
##imi
##dukke
##tallene
##gjengjeld
##spennende
##sprosjekt
##hovudet
##Okl
##entlig
##medlemmet
##studiomus
##operatør
##erfaringer
##mølle
##Produksjonen
##gullbasser
##Rotter
##infeksjon
##trav
##USGS
##Rev
##Monaco
##interessant
##tent
##main
##Nordvest
##museer
##Bygda
##Dah
##symbolet
##angli
##hengende
##Elling
##koloniene
##Lloyd
##FM
##Tat
##arleg
##olds
##andelen
##vennlig
##analyser
##hviterus
##nell
##Java
##elvar
##plantar
##sjør
##Berk
##dyktige
##Evangel
##jagerfly
##visk
##akvar
##hoven
##testet
##skildrar
##kreftene
##Muhammed
##dagers
##matematiske
##skildring
##offensiv
##symfoni
##Glen
##temmelig
##ivrig
##Defen
##sso
##Inntil
##feltene
##Volks
##Orke
##skjelvet
##ressurs
##charter
##innvilget
##skapar
##innflytelsesrike
##Das
##HC
##fraksjon
##poke
##honning
##kjennetegn
##eløp
##begrunn
##essay
##brands
##Jernbane
##argentinske
##Administrasjonssenteret
##Damask
##Shen
##Ther
##Thess
##ffekten
##Werner
##møy
##olden
##bergarter
##ballett
##Titan
##Cros
##mea
##næringen
##Ørn
##stridsvogn
##pannen
##illy
##datoen
##Bratt
##sirkelen
##Flyplassen
##Systemet
##innlemma
##Pettersen
##Byggingen
##Dim
##Eien
##Pau
##moll
##prenn
##Konger
##Prins
##føderasjon
##vulkansk
##Cit
##Civ
##Kast
##arte
##medarbeider
##hamar
##tidenes
##Six
##Fleet
##flyging
##Tirol
##Studenter
##dede
##spøk
##Norman
##tenkte
##tradt
##støtt
##siktet
##Form
##sittet
##larven
##nummeret
##Finans
##Zepp
##Birger
##stallet
##badminton
##Galile
##('
##Wed
##øret
##brog
##dagleg
##haldet
##Geof
##gjenspeil
##relie
##Bakke
##Opphav
##sluttspill
##web
##teleskop
##konservativ
##Oklah
##Maler
##khan
##hoder
##kronprins
##Lanka
##kamerat
##høvesvis
##smer
##raude
##utal
##oppgir
##essa
##Arild
##arrangere
##darligere
##Westminster
##residens
##Yorkshire
##DJ
##kis
##ørret
##pps
##bekjempe
##oppdatert
##Alab
##utgiver
##Tilsvar
##Basel
##gyldig
##redigert
##)»
##Mj
##Ose
##jok
##geologi
##rettar
##Guate
##1802
##temperaturer
##Frederick
##involverte
##fenomenet
##Kine
##jefen
##feber
##amerikanere
##hjort
##planlagte
##emble
##sanne
##ISO
##kidna
##Kok
##innstiftet
##trelast
##farlige
##Filosof
##iktige
##komponenter
##kvalifisere
##bidragsy
##Ulike
##hende
##fiskere
##interessen
##afrikansk
##grundig
##kve
##leds
##ligak
##vikar
##asso
##endar
##Roose
##Avtalen
##Telen
##ced
##underveis
##icia
##stedelen
##fremstilling
##styrtet
##passe
##Karls
##tolvte
##Rodrig
##Kid
##Mum
##Wit
##hangar
##dommere
##flokk
##fotballklubben
##Bend
##Eugen
##russerne
##Kairo
##Gammaridea
##Damaskus
##kles
##ра
##omsetning
##delinger
##dokumentasjon
##primære
##Caroline
##Bagdad
##Isabella
##kø
##oppslutning
##verdenscu
##handlingene
##bestemmelser
##afghan
##sjafør
##Bortsett
##proporsjon
##næra
##sklasse
##rec
##plasserer
##faktiske
##Biblio
##Nicolas
##lensmann
##Tas
##medium
##Nordstrand
##syntes
##Sørlandet
##kirkegarden
##doble
##vurdere
##formidling
##opplevelser
##Say
##alge
##andreplassen
##Samfunn
##skygge
##prisvinnere
##bygt
##Priser
##maksimal
##Amazonas
##terningkast
##XI
##vegar
##bakre
##generalen
##1799
##fokuserte
##Strøms
##Mikhail
##tilnærmet
##Saturn
##hrer
##gruvene
##stuen
##knust
##divisjoner
##hemmelighet
##Santiago
##Roosevelt
##Akt
##Lise
##ла
##forbruk
##verdt
##parodi
##sørligste
##angreps
##Murdo
##romartal
##Event
##ides
##skatten
##Arsaken
##nasjonalsosialistiske
##natta
##gjevinga
##tilnærming
##Aleksandr
##korrupsjon
##Ene
##Mick
##ario
##varam
##1780
##135
##knytter
##ukrainske
##Wellington
##statsborgerskap
##antennene
##isot
##utstrakt
##bestyrer
##illustrert
##Wurttemberg
##Pete
##Æt
##atn
##sosialistisk
##flyktning
##investor
##650
##Cov
##Kath
##cop
##stiv
##hards
##farga
##hverken
##Konser
##vektklassen
##holdeplass
##Elias
##230
##utvist
##iska
##skifter
##nyttast
##ibn
##renover
##hunner
##Muhammad
##syrisk
##alekene
##curling
##Maurice
##gorod
##apparat
##Public
##touchdowns
##Sult
##quin
##kontinental
##Aten
##Sær
##ualitet
##atører
##politist
##trives
##dispon
##Quisling
##Wallace
##bjel
##jektiv
##jevo
##liknar
##Spir
##produktiv
##Sex
##eksklus
##Nationaltheatret
##Kum
##Lane
##Shu
##uf
##rimin
##udde
##Univer
##patent
##føderasjonen
##Nissen
##Sola
##forson
##formalet
##oppt
##sidige
##sprosess
##Trump
##Hilde
##Islam
##ampar
##dioksid
##plassere
##Rosa
##ekspan
##Historia
##vidda
##botnen
##vador
##Deltak
##meier
##osman
##iders
##bemerk
##sekretari
##øyeblikket
##Kyrkje
##Jørgensen
##utøvende
##Vanligvis
##Zen
##oppførsel
##Arsproduksjon
##aktører
##Seattle
##Vesten
##1792
##Dong
##rant
##utvalgte
##grekerne
##havniva
##mage
##avhengige
##1793
##Neg
##ле
##lykk
##rettssaken
##Mira
##Fuj
##Militær
##Know
##ating
##unions
##dødelig
##Schwar
##seiling
##indianer
##Fantas
##nert
##bery
##blande
##sommerleker
##jarvi
##interesserte
##akseptere
##etiop
##Palace
##Diskografi
##Rotterdam
##forelig
##innsamling
##folkets
##Smal
##tøm
##sjo
##malene
##strong
##skilsm
##Box
##Race
##Doctor
##Northum
##tuberkul
##NB
##Skr
##wson
##yon
##ordener
##rotasjon
##boys
##besøke
##showet
##deltagelse
##Perioden
##Zimbabwe
##Foster
##elivet
##ather
##edi
##forkyn
##liden
##oppførte
##byggje
##lysar
##sølvmedaljen
##snev
##Castilla
##skulpturer
##Margrethe
##Mater
##RCA
##vandre
##sklassen
##della
##festen
##begiv
##Darwin
##batteri
##Gallia
##arrekke
##atlon
##aksj
##Stri
##Admir
##innvandring
##kavaleri
##MO
##Vale
##ambul
##rekkevidde
##Terry
##rimelig
##soloartist
##Fog
##balt
##delgruppen
##auke
##estiske
##kjøper
##trykte
##lovene
##Martha
##sosialdemokratiske
##leilighet
##Hole
##Soft
##høydepunkt
##Kalmar
##Clinton
##splittet
##HS
##cco
##rolig
##ruppe
##sørger
##skilnad
##diktar
##byggerne
##Lombar
##Administrativ
##ious
##tidsskrifter
##Lambert
##forsvarsminister
##Benn
##pant
##rogen
##orkan
##handsam
##amerikan
##administrert
##Countys
##konstruerte
##kommunaleining
##GP
##NASA
##stup
##Sapp
##Julia
##Søndag
##argumenterte
##manuskriptet
##anvendt
##helten
##arkitekturen
##Zeppelin
##sare
##arta
##radisjonen
##Joel
##toner
##Valdemar
##slinje
##Cet
##Full
##Rib
##pike
##ded
##oppløsningen
##trekkes
##hym
##Pedro
##Cel
##Dia
##pik
##enger
##augh
##Innbygg
##variable
##Jø
##arre
##delstatene
##baret
##graf
##størrelser
##potet
##planteetere
##riktignok
##ll
##etre
##søt
##barken
##stuhl
##lukka
##hundrearet
##tilsvarande
##erkebiskopen
##Secret
##pilegrim
##speri
##slandet
##Rome
##Face
##Hitlers
##Eriks
##Mate
##hes
##svenn
##Cour
##Sverdrup
##Crom
##ckl
##utru
##opplevd
##timar
##nedrykk
##solsystemet
##mengd
##pipe
##Sesong
##atmosfære
##Auschwitz
##insister
##tilhøve
##andres
##dømet
##matar
##skulder
##Carlo
##Andersson
##Express
##flytting
##kjæreste
##meksikansk
##Phillips
##.&
##foregaende
##karos
##Nordic
##bombar
##onymt
##identifisere
##fasettøyne
##Dob
##Gog
##forplikt
##oppleve
##Harold
##tolkning
##akademisk
##uenighet
##behandle
##Sparebank
##Oklahoma
##handtere
##heldig
##jordbruket
##Steven
##grensesnitt
##Sjælland
##Dro
##Heller
##Sac
##domkirke
##innerst
##Brua
##Kilde
##bosetningen
##Oberst
##monarkiet
##orud
##avgjøre
##enget
##biletet
##slektning
##conom
##Gibraltar
##Eta
##ingev
##prokl
##1750
##Minas
##erobring
##primærfaktor
##Ragnhild
##Vidar
##urgi
##bestilt
##perfekt
##lovgivende
##opprettholdt
##black
##Valget
##sjølvstende
##pressa
##Institut
##oversettelser
##billedhug
##Guangdong
##Ile
##Mei
##valu
##gravd
##lengder
##Clapton
##EL
##innene
##handverks
##holdnings
##trykke
##toppet
##bispes
##dekkende
##SP
##hren
##arriket
##reich
##talsmann
##Herre
##Parlam
##gullet
##Record
##nedbørfelt
##Oslofjorden
##Fut
##Økonom
##baserer
##Jeffer
##strøket
##Minne
##Viden
##rass
##elton
##boik
##hopper
##Garcia
##fattigdom
##Sosial
##disiplin
##Bh
##endringene
##Network
##Railway
##Von
##Altern
##eventuelle
##isolerte
##Justin
##massakren
##gregorianske
##seller
##medarbeidere
##uran
##assdraget
##Cheng
##boer
##tempor
##Batt
##kusjon
##kromo
##kommunistisk
##Skip
##sporene
##foni
##Sølv
##Iversen
##Pam
##promo
##Nept
##Sek
##pater
##zin
##ettar
##chten
##opo
##forvent
##Glass
##valifisert
##filer
##Nordlands
##Philipp
##Atlantic
##bevissthet
##arius
##andro
##esdal
##legne
##mari
##tyve
##salget
##Amt
##NTH
##gasskraftverk
##dialekten
##kommentarer
##Cob
##Kristiansen
##Sprint
##Bolog
##Isak
##spisse
##føler
##flyselskap
##USS
##smag
##hundrevis
##Brem
##Hang
##oid
##ppo
##samtaler
##rigen
##politim
##spunkter
##.»"
##følgelig
##pagne
##Nice
##Yan
##illes
##sape
##konsesjon
##plyndret
##Lap
##abad
##tyding
##Berre
##melke
##redd
##pani
##Bernt
##Notodden
##Asialekene
##Nicolai
##Aden
##ligget
##fødselen
##Tha
##high
##ove
##ated
##fornu
##slang
##102
##kjelde
##Shackleton
##DP
##Tara
##Mack
##Tempel
##Holst
##relasjoner
##Final
##Flora
##referanser
##overbevist
##Magazine
##Korn
##MTV
##isitet
##sener
##inni
##Indiv
##ampen
##koron
##mestre
##franc
##forsvarer
##nemninga
##teikn
##ankomst
##cam
##munnen
##titu
##kommissær
##chilen
##Borger
##tillits
##Konigstuhl
##Alabama
##kromosom
##halen
##omvendt
##forhindret
##albumene
##Universitat
##palit
##røyk
##Hiro
##ogle
##avl
##kkelen
##statu
##Thore
##Nederlandene
##naken
##ivaret
##lich
##stegn
##søkonomi
##anska
##hemmede
##sitteplasser
##bryllup
##Yuan
##utskilt
##begeist
##settet
##leiande
##Kop
##gnet
##jn
##lish
##overlevert
##landbruket
##nedtegnet
##drener
##uropeiske
##vognene
##fordshire
##Genes
##Kit
##vekster
##religiøst
##spenningen
##utdødd
##Rangers
##prisene
##leies
##sternwarte
##Galt
##pagikk
##terapi
##utveksling
##menings
##løps
##folks
##radius
##Classic
##basseng
##hoppe
##forkortelse
##rekrutter
##cre
##urin
##skjule
##Never
##naturlege
##Pelop
##Eig
##storhet
##tah
##periodene
##Herak
##Augusta
##forandringer
##hedret
##Patriots
##Journal
##Vet
##beskyl
##jerne
##Type
##masser
##inosa
##variasjoner
##Gaz
##dramafilm
##metamorf
##foner
##høn
##adskilt
##opphøy
##trente
##straler
##iley
##oppdagelsen
##ksem
##Airport
##forvaltningen
##Novgorod
##Square
##fylkeskommune
##muslingkreps
##Landessternwarte
##pit
##unda
##sjanse
##Gudbrands
##snakkes
##forsvunnet
##Gilbert
##hiphop
##118
##Dennis
##KK
##iget
##synt
##ungs
##idrettsutøver
##History
##Prest
##sentralbyra
##næringslivet
##Lucas
##forsøksheatet
##Marianne
##Eur
##Pont
##Than
##verftet
##okrater
##fastsatt
##Kingdom
##stevne
##utfordringer
##ellingen
##kondens
##sosiologi
##prestasjoner
##stjenester
##moment
##bann
##avløst
##sakk
##kommunes
##syng
##bronsealderen
##planlegger
##FIS
##Hod
##cana
##Mai
##satse
##NSD
##Cri
##omgrep
##erede
##grein
##troen
##Grorud
##Wehr
##fuktige
##Fjern
##Klaus
##core
##plasseres
##sediment
##sekundar
##klassene
##innvandrere
##kappgang
##210
##Eik
##sters
##Aller
##demien
##myter
##sperson
##Zo
##slaviske
##ulykker
##ucky
##Hughes
##Dow
##Fris
##Sis
##sian
##overgrep
##bilene
##Japans
##attendeplass
##Sosialistisk
##Aristot
##prestisje
##langkirke
##framgang
##Court
##Haus
##Colin
##regisserte
##stedsnavn
##Hest
##etru
##verkande
##oprogram
##bassisten
##bestefar
##Schles
##stillings
##hevde
##søknad
##ities
##Steinar
##prøvd
##restrik
##Lokal
##partileder
##illustratør
##sjokolade
##nederste
##kjennskap
##borgerlige
##1798
##legenden
##permanente
##minnesmerke
##Fan
##Skue
##virvel
##koke
##Preste
##Bjørnson
##bosetninger
##flyvninger
##kogn
##elis
##sesjon
##gjennomgikk
##Roald
##kaldt
##foreningens
##publikasjoner
##tilpasse
##skuddet
##arkitekter
##Hallingdal
##Guatemala
##Fakt
##Pos
##aris
##søkonom
##Alive
##oversettelsen
##Dub
##Kav
##parter
##skyts
##hjembyen
##gjengitt
##forsvinner
##Sønder
##pakist
##beleiret
##Snow
##larvestad
##ktorat
##karakteren
##armenske
##Bid
##Jr
##UM
##avstam
##ols
##court
##skrigene
##Versa
##Scar
##Advent
##wait
##vinnende
##vinnerne
##misjonærer
##søyler
##gatan
##kompaniet
##spydkast
##oppgjøret
##antakelig
##Vannet
##jat
##leide
##opposisjonen
##eteik
##Terra
##potensial
##nøytral
##fiktiv
##tilbudet
##landing
##hima
##tomt
##Huang
##fløyen
##Tidende
##Nashville
##førre
##opne
##framtidige
##frank
##slipper
##assisterende
##anvendes
##Odin
##Larry
##organisasjonene
##Sichuan
##Gry
##Hatt
##Ice
##skamper
##øydel
##ansar
##Joy
##Chart
##scher
##Fav
##bull
##glø
##mister
##oire
##geir
##banes
##samtale
##Toul
##Kristelig
##finansiering
##forfølgelse
##tvinge
##jevel
##banan
##Haiti
##Høyres
##spreidde
##radikal
##minuttar
##Camer
##saleis
##lagret
##grunna
##stifter
##mentene
##kosty
##bibelske
##Hjemme
##lukkast
##Malcol
##bronsemedaljen
##herrelandslag
##syne
##skulda
##Paraguay
##Konstru
##verdenskrigen
##folkesetnaden
##opprørerne
##ulering
##SL
##kanske
##tiaret
##indal
##jah
##oppdage
##Viktige
##sover
##omgrepet
##ofil
##Chat
##Manhattan
##maskingev
##plantene
##Dampskib
##Hes
##Tør
##etz
##omme
##town
##Forbundet
##Frp
##skrog
##forandring
##oil
##utløste
##konkurrent
##grafisk
##psykolog
##tørt
##bukser
##Dit
##Oreg
##begatt
##Breiv
##behandles
##Roland
##forsikring
##Dussel
##Cord
##Cic
##Earth
##Labor
##inden
##Invest
##Hoch
##lvannet
##utbreidd
##regnskog
##wor
##intr
##ologier
##puppestad
##Markus
##forsikrings
##Hjal
##Jylland
##Um
##løkka
##barhet
##gravene
##plasseringen
##Kambod
##avansert
##flyvning
##Miguel
##Æthel
##cing
##ells
##unner
##motivet
##ladesh
##sønne
##verdensbasis
##folketallet
##Slottet
##Feng
##avdu
##rast
##restaurering
##Hensikten
##Agen
##Kvinne
##Rie
##eierne
##Syke
##forskerne
##realiteten
##sselskab
##Babylon
##øydelagd
##nedslagsfelt
##330
##Warren
##xt
##depresjon
##matr
##kunde
##skrin
##rømme
##dreie
##baser
##Karin
##vidd
##misbruk
##Davies
##byrjar
##radiok
##Acc
##Kvin
##Vak
##long
##løses
##statane
##krok
##balanse
##fiendtlige
##veiled
##knutepunkt
##Mov
##Oran
##cap
##enig
##etterkant
##utenlandsk
##eigent
##vanskeligheter
##tegnelser
##bebodd
##estyle
##ideologi
##dyrk
##Kragerø
##revisjonen
##Every
##filmatisert
##omdannet
##ilian
##resep
##mild
##skrevne
##brukeren
##Festivalen
##District
##kann
##pere
##agement
##armensk
##bistand
##Fridtj
##skost
##liket
##tiltale
##drikk
##Bakvingen
##Pacific
##asar
##eksisten
##dyra
##Soul
##atoriske
##sprinsi
##Aasen
##forretninger
##sei
##olet
##gradene
##Conrad
##Brønn
##schaft
##Grey
##Tiber
##overgangs
##Angola
##Women
##yuan
##ipedia
##Benedikt
##parallelle
##Olympic
##testamentet
##Cand
##Tub
##Zhu
##kete
##takk
##kjølvannet
##mønstre
##kriminalitet
##Stephan
##antisemitt
##Utre
##lidelser
##tref
##rhein
##ininga
##avfyr
##Forholdet
##systematiske
##butikken
##tidsrommet
##Front
##Jarlsberg
##Eagles
##Osaka
##øyte
##astad
##rune
##mesterskaps
##sesongar
##variabel
##Kentucky
##Jot
##mult
##udi
##ytr
##valut
##bragt
##glob
##fasil
##Bened
##Løven
##Ibsens
##Isaac
##Toppen
##knapp
##fæ
##ossa
##imore
##Arc
##binde
##Wayne
##Evert
##Esc
##uden
##fta
##Bahra
##Ulrik
##Metal
##kjønnsm
##arkeologisk
##bulgarske
##fiendtlig
##fravær
##Eisen
##Iris
##yren
##chin
##mande
##Them
##kaliber
##Take
##Bjørne
##anmelder
##aksjeselskap
##Senatet
##1797
##modus
##elementene
##Bald
##itol
##Tallinn
##alminnelig
##Oil
##stempel
##cheng
##typ
##gullmedaljen
##Proble
##tibetansk
##Lun
##ME
##OB
##seere
##føringer
##vedrør
##ckel
##personal
##Samstundes
##definere
##foreta
##Savo
##sylinder
##reir
##neppe
##førende
##stron
##kroatisk
##Kno
##mant
##statuen
##104
##kompens
##ekspon
##Karlsen
##Salvador
##journalisten
##maneders
##laborator
##Bau
##Hut
##statsku
##Nordfjord
##skalaen
##rakter
##kobling
##egenskapene
##ache
##Libr
##tsjekkoslov
##spinnere
##Fischer
##Dalen
##Kob
##hjelm
##ambassade
##abukta
##Ig
##Forvingen
##amerikanerne
##steinalder
##borgs
##Turist
##Avi
##Høst
##Tog
##uo
##konspirasjon
##venter
##betjener
##Vegas
##Medaljen
##rømte
##Cromwell
##rasende
##rikeste
##klusen
##gardsbruk
##eksklu
##Kunn
##Tana
##tast
##utgi
##vekslet
##direktoratet
##Sandvik
##begravelse
##fekting
##Aristoteles
##ekw
##Berry
##Roskilde
##øvinga
##teamet
##Labour
##koalisjon
##Nott
##statistisk
##eksistere
##Kate
##htt
##samles
##tiarene
##marknads
##sikter
##allis
##folketalet
##Dampskibsselskab
##Nis
##lab
##innføring
##overtak
##førsteamanuensis
##høydehopp
##kostnadene
##skihopping
##stranden
##Torshavn
##krydder
##Pes
##hyr
##torg
##omslag
##itive
##oversvøm
##gruver
##utgis
##Malm
##fengsels
##Gulen
##løfting
##utmerkelse
##Cort
##Nest
##spelarar
##busette
##leiing
##vikingtiden
##philos
##1775
##param
##sentralbanksjef
##Vardø
##cum
##omener
##urett
##mekanis
##ropte
##Tunisia
##dinger
##ikos
##Starr
##religionen
##hill
##angi
##Arna
##hovedfag
##gjengen
##Songs
##venta
##Generelt
##entrepren
##comeback
##Oce
##Zag
##slakt
##sjokk
##lesere
##Austin
##Olympia
##muskel
##Wagner
##vre
##handen
##mast
##Dean
##talls
##skjø
##Manu
##generasjonen
##gjørelse
##1794
##Tul
##vall
##seren
##konvo
##jetil
##laser
##Conference
##murene
##studioet
##APC
##poeten
##Gla
##osen
##wil
##ligning
##Dusseldorf
##feire
##Forbund
##nærmet
##jana
##stjerna
##Bruken
##spresident
##felter
##maksimalt
##Aja
##Summer
##Shin
##Ud
##ου
##adar
##mila
##disp
##elektronikk
##detaljert
##udt
##orlog
##allmen
##føtter
##China
##Project
##nettstedet
##datterselskap
##sjuande
##klatring
##Crosby
##CIA
##LE
##aktiver
##kirurg
##Rush
##broer
##emigrerte
##Malcolm
##Esp
##lies
##overnatt
##ettertiden
##osh
##malay
##vegs
##Burma
##Glenn
##kriminelle
##NOR
##nitt
##Strekningen
##eltet
##ieren
##startar
##fyret
##Friend
##Odda
##anbefal
##Bjerke
##modifisert
##onlyinclude
##6000
##Jæren
##Vie
##Was
##ikre
##ulin
##ulasjon
##maritime
##autoke
##systemene
##Oslos
##landeveissykling
##Cara
##Het
##U20
##systematikk
##introduksjon
##sammenligning
##Two
##parkering
##Dou
##Hok
##Test
##__
##avhenger
##atlant
##utstyret
##osfæren
##Dail
##thriller
##Rafa
##folkeavstemning
##nemning
##medisiner
##paverk
##kritikerne
##Sergej
##nordenden
##Gudbrandsdalen
##stikke
##Story
##fanst
##eigd
##individuell
##kategor
##Brooklyn
##tsjekkoslovak
##Aster
##verkar
##hetens
##Cruz
##fjellkjeden
##SAS
##dreide
##ctions
##Suz
##radioprogram
##skuff
##konsentrerte
##Brødrene
##bachelorg
##metamorfose
##Iz
##aa
##fene
##road
##Henriksen
##garnis
##Lærdal
##slit
##utnytt
##undervist
##fjor
##Roberts
##Urban
##forsiktig
##Telenor
##Lut
##Pse
##kende
##sstoff
##nade
##kapasiteten
##biot
##forfatterne
##Buffalo
##Grev
##inje
##innsiden
##øygruppen
##kvadratmeter
##vellykkede
##Forskning
##Schleswig
##Grø
##Tac
##Wim
##medi
##sløse
##perkusjon
##radhus
##hvorpa
##Beet
##Nilsson
##Kaptein
##katastrofe
##Teknisk
##symboliserer
##seile
##Denis
##visninger
##Allan
##organisasjons
##relaterte
##ledningen
##ize
##keltiske
##Matthew
##gruvedrift
##Tilsvarende
##DA
##Rhein
##lodd
##manland
##røyr
##finansielle
##Odys
##Administrative
##Arkitektur
##Oregon
##raser
##mole
##sykepleier
##Atte
##etningen
##ellan
##Strom
##førsteplassen
##Representant
##brakk
##Bladet
##informasjonen
##beinet
##negativt
##pensjonerte
##Nevada
##Nø
##Prom
##Riga
##ruiner
##oppnevnt
##akutt
##mals
##korpor
##leggene
##stabile
##Christmas
##middelalderens
##gummi
##KF
##Rico
##bret
##mao
##108
##Business
##Utenfor
##tilgjengeleg
##analys
##Pittsburg
##Danny
##bau
##konstituert
##aleine
##banene
##bakker
##stillingene
##Kombin
##Mathias
##debuten
##Cleveland
##begrensninger
##vamp
##stier
##altert
##treffe
##magas
##Peters
##Planen
##kontakter
##Sapporo
##Lia
##innlednings
##byl
##førti
##rikes
##langkyrkje
##grenen
##legeme
##Seil
##Thorvald
##avslørte
##markedsføring
##Kongeriket
##Jing
##zirk
##rif
##Unn
##buen
##basil
##Linde
##Bibel
##objektet
##Risør
##Geoffrey
##Bologna
##Wehrma
##kyl
##svikt
##stien
##nekta
##Stevens
##riksveg
##plasseringa
##undervisningen
##Fotballklubb
##vulkanen
##Mesopotam
##Digital
##beliggenhet
##jugoslav
##innsa
##døgnet
##india
##satset
##fordøy
##politikeren
##Cornelius
##Bin
##Io
##Kreis
##øvelsene
##elske
##strener
##katolis
##halvkule
##antenne
##Lenin
##monumentet
##budsjettet
##gary
##sørenden
##lukt
##Herr
##kongs
##Lock
##presteviet
##frittstaende
##Justis
##EA
##Homer
##omganger
##dekan
##forman
##etterretnings
##nyeste
##psykedel
##stabilitet
##Armstrong
##CH
##Cun
##etterlatt
##mannet
##due
##stifte
##plantet
##sylindrisk
##Tell
##tilløp
##keren
##ovner
##ansiktet
##mosa
##Vera
##Olof
##kartet
##buddhistiske
##Roth
##forkjemper
##Departementet
##mellomkrigstiden
##rykker
##Sevilla
##Mekan
##school
##Nanjing
##arsjubileet
##Burgund
##utstaende
##Chate
##nærliggande
##veiende
##levninger
##mangelen
##Mexic
##kjennetegnes
##Tres
##rib
##Somer
##Willy
##juris
##Halog
##skipsreder
##Folketinget
##Distriktets
##Holmenkollen
##Hv
##Mom
##alismen
##øyenes
##may
##egel
##fonten
##stavkirke
##fragmenter
##nalevende
##Kjetil
##seksjonen
##Arrang
##1760
##utdanningen
##rate
##seir
##veps
##nedbørs
##billig
##vaske
##kommunesenteret
##avslutte
##Saken
##Akademi
##Hjalmar
##Rug
##hman
##kert
##sdalen
##skrets
##lion
##trøn
##gymnastikk
##ml
##other
##øysund
##Inno
##torsdag
##Wester
##kontroversielle
##NSDAP
##Ces
##Wie
##Zhou
##jakk
##Shetlandsøyane
##pall
##innlandet
##abort
##flott
##høyesterett
##Hæren
##ombi
##lic
##tilsluttet
##alløytnant
##genetisk
##flyge
##Marco
##arbeidskraft
##landsbygda
##støtten
##siktige
##ricket
##Singles
##gripe
##Fang
##Zak
##Modern
##score
##mission
##Salzburg
##1776
##observatoriet
##dikteren
##austerrikske
##Ear
##If
##serklær
##lykke
##engang
##religioner
##etapper
##angaende
##Sax
##Ull
##bølgel
##Observatory
##forgjenger
##primitive
##liturg
##imponerende
##pei
##Æres
##anto
##skuldre
##jords
##keiserens
##nederst
##anklager
##Grace
##verdsmeisterskapen
##embets
##nazist
##kavaleriet
##Jefferson
##ел
##kran
##krans
##Lasse
##Ain
##overbevis
##Andor
##intensjon
##Trysil
##oppfattes
##MI
##seiere
##terings
##beveget
##myra
##arkeolog
##advokaten
##Ørsta
##jevne
##manuset
##etablering
##Slag
##omsett
##egenskap
##gjøring
##stasjons
##komponent
##verdifulle
##foreldr
##menneskets
##fredsavtale
##fritids
##verksemda
##Kirkenes
##beskrivelsen
##Siver
##ogno
##elskapet
##avgrenset
##verer
##adelige
##tral
##Andes
##tydeleg
##Bakkroppen
##Varm
##filosofisk
##kampanjen
##Oman
##øe
##edra
##English
##Elec
##observasjon
##PlayStation
##Baltimore
##frekvensen
##forræderi
##Gestapo
##Halogaland
##://
##Battle
##munk
##herald
##Vasil
##Bryst
##Skildring
##normanniske
##Shand
##tø
##Staf
##ordenens
##Søren
##folketall
##sarme
##gjelde
##innspelingar
##Creek
##skinne
##prege
##kraj
##inneheldt
##Board
##knyttes
##Senja
##vaksne
##Ulleval
##reperto
##260
##PO
##tende
##wana
##ætt
##forme
##ynte
##teknologien
##bolsje
##Global
##parlamentarisk
##-/
##søya
##forklart
##forbilde
##sørregionen
##vingens
##Universal
##Richards
##onnes
##veke
##innlegg
##retninga
##cure
##kraftigere
##vanskeligere
##Nig
##halt
##ird
##overføres
##gjevar
##puter
##Moses
##kompliserte
##jub
##oppfatt
##icum
##tius
##sjøiske
##ordent
##sensur
##Sigrid
##kines
##Calgary
##Columbus
##elimin
##hospitalet
##Lid
##Tred
##avklart
##aure
##todelt
##innerste
##juryen
##kjærlighets
##leiligheter
##Europavei
##Gruner
##Veiens
##Aal
##forbudet
##utvinning
##toppscorer
##embetsmann
##Bismar
##Holmenkoll
##Federation
##Glimt
##Ach
##Ling
##emer
##tester
##spalt
##nyskap
##Anita
##tyde
##livets
##Christie
##plattformen
##rederiet
##ffield
##Vastra
##flokkurin
##Jorden
##report
##seia
##match
##elsens
##skjermen
##Glad
##oniinae
##Mesterskapet
##skjulte
##Huse
##Nur
##Psy
##skans
##tillate
##agi
##spl
##sjansen
##utøverne
##demokratiet
##sivt
##Bislett
##Gundersen
##Gan
##uum
##avgjorde
##betegn
##kostnad
##skjelett
##besittelse
##Connectic
##Jav
##Mein
##ref
##atan
##brensel
##nac
##tonen
##Konsert
##fonso
##Olje
##finansiere
##Oldfield
##Oskar
##Ruth
##teologisk
##Stars
##ekene
##tenor
##Mesteparten
##Harbour
##pinse
##gassen
##salgs
##Frig
##dører
##gio
##usse
##sibir
##106
##husmann
##forvingen
##komedien
##frost
##kroppsbygning
##hestekrefter
##frigjøring
##Mesopotamia
##tiltalt
##Hanne
##sove
##hybrid
##ministre
##Sop
##Sula
##aske
##tei
##varende
##kjens
##stider
##soul
##innbyggertall
##Trent
##Guad
##nasjonalforsamlingen
##restauranter
##Crow
##forhandle
##Befolkning
##sevne
##Kamerun
##Cass
##gjensidig
##seringen
##ferda
##formasjoner
##drøyt
##siktig
##halvkul
##Innspel
##folkeslag
##amtmann
##Catherine
##Hast
##XIII
##ises
##sistor
##syster
##husa
##korstog
##utviklede
##IIs
##strale
##fantas
##ilin
##itær
##spot
##oppfunnet
##øygruppa
##meta
##Naz
##verneplikt
##spekter
##kvinnenavn
##Medlemmer
##pengar
##Kambodsja
##sapass
##rykke
##270
##stridende
##Giuse
##Leningrad
##Oden
##fordelingen
##syklusen
##Haral
##museums
##jegere
##Firmaet
##sydlige
##quarterback
##førings
##ekter
##herren
##gaande
##109
##flora
##operaer
##Merce
##oberstløytnant
##Auto
##mislykkede
##omgivelser
##kledde
##Democrat
##Diana
##Lus
##Tone
##skiske
##ransport
##mellomalder
##sjuende
##kassen
##Corps
##Basil
##bæk
##stel
##oniske
##livan
##oljer
##slass
##antok
##Defin
##jødar
##Moen
##høyesteretts
##trenar
##gorit
##Utenriksdepartementet
##Figur
##Lista
##Svan
##iformes
##inær
##tilhø
##okal
##ordninger
##mindret
##Holt
##Bruno
##Bangladesh
##ая
##utkast
##utsagn
##menigheter
##make
##parag
##Guer
##skuespillerne
##krigsfanger
##Himal
##kirkelig
##Econom
##Sønnen
##Zar
##barns
##messen
##Merk
##falne
##Mason
##Connecticut
##Gond
##verbet
##enty
##visuelle
##Ana
##organet
##regjeringer
##levering
##Rapp
##gitaren
##journalister
##hjulet
##gotland
##redaksjonen
##kjønnsmodne
##forlik
##spoli
##tenar
##vingenes
##foretrekker
##Vinteren
##Pittsburgh
##Hub
##Qa
##bels
##førere
##revyen
##settelsen
##Christians
##1796
##stadionet
##Emmy
##Lill
##deriver
##Albre
##forbød
##Undersiden
##Bros
##sekundær
##kommentar
##air
##nekter
##Mose
##gravitasjon
##Toy
##Peer
##Total
##Maryland
##))
##krang
##ivene
##kjegle
##biografien
##Mussol
##Five
##Pert
##Tju
##unnan
##obi
##ryd
##eigedom
##formannskapet
##Carlsen
##Passeri
##tunneler
##"*
##ρα
##inerne
##itur
##km2
##svare
##Schmidt
##qui
##Uganda
##Memorial
##regning
##Julian
##mekanikk
##1772
##fargerike
##fusjonerte
##fleirtal
##distribuert
##Antiokia
##DF
##eater
##jf
##slene
##endringen
##arbeida
##singlen
##sigende
##pleks
##Kilder
##konstruksjoner
##Konkurransen
##Spencer
##Kang
##PGA
##erter
##geologisk
##bruer
##Lyse
##observerte
##keltisk
##Brenn
##Svin
##glan
##reson
##onservat
##103
##fots
##Karpat
##fallskjerm
##Google
##Kaiser
##Valencia
##forvalter
##entusia
##ekwondo
##Nei
##cul
##qing
##skadde
##landss
##fremre
##trale
##skilje
##kunstige
##leveres
##Come
##hindi
##avslører
##klinisk
##Indias
##Sullivan
##Aragon
##Khar
##oline
##berne
##odz
##iffer
##lovlig
##dosent
##melodier
##veka
##germansk
##herfra
##magister
##Mesterligaen
##foreligger
##tuberkulose
##cklenburg
##Kvæ
##Meng
##trang
##imo
##slege
##apenbar
##gulvet
##Arbeiderparti
##stortingsvalget
##formatet
##Organisasjon
##Dannebrog
##Bahrain
##Giuseppe
##forbruker
##seille
##sauer
##Londons
##kritikken
##formula_2
##fotografier
##luksus
##Bap
##Yoko
##uti
##Stras
##hoe
##tysker
##elefant
##politan
##Prøy
##Kjel
##strekninger
##muslimsk
##Reykj
##etto
##bark
##Aviv
##ovenfra
##tegneserier
##slinjen
##helikop
##mobiltelefon
##Mercedes
##holom
##viktigere
##skriftlig
##reservoaret
##Gonz
##anbefalte
##Saga
##ianske
##elg
##prosed
##duett
##hamne
##schw
##lettvekt
##Blood
##Blin
##endrer
##fødsels
##sognet
##investeringer
##reservoar
##pion
##invent
##ogien
##begikk
##cem
##Utgiv
##Bonapar
##CDU
##Nathan
##Trinity
##hendingar
##manuskripter
##Jotun
##Vu
##dol
##plikter
##tera
##isj
##noregs
##280
##landsbyar
##symbolsk
##hart
##ettverk
##ittane
##Arte
##snudde
##kringkaster
##Montana
##Folkets
##vegetasjonen
##kontinentale
##pyramide
##Doku
##lod
##istrikt
##aksjer
##særskild
##massive
##Radi
##kringkastings
##agua
##landomrade
##femin
##kjøpet
##tettsteder
##ktivt
##Berlins
##regelmessige
##Borge
##Birkeland
##gylne
##mønsteret
##konklavet
##ibuarar
##Rju
##Slav
##vd
##eløse
##kratt
##søndre
##Knight
##Fjeld
##Munster
##Volga
##stigende
##Slott
##Epis
##speider
##Celtic
##vinkelen
##stadene
##Marseille
##vatmark
##ansvarlige
##spillefilm
##Kanal
##spesifikt
##Verdenscupen
##sopran
##Teleg
##onger
##Stange
##opus
##filmin
##arsskiftet
##Haf
##rødbrun
##Expl
##familiar
##æresmedlem
##Natal
##Atlanteren
##Library
##Emer
##innsikt
##Devel
##filmens
##atteren
##Thi
##Radet
##regionalt
##embetseksamen
##hjørner
##judo
##irakiske
##Utrecht
##vedrørende
##ikarane
##andelige
##komiker
##kkje
##nasjonalforsamling
##Hamsun
##Cetoniinae
##Fridtjof
##?"
##Lion
##Wade
##spat
##asted
##fortol
##Moder
##banda
##vidar
##EUs
##Kras
##Riv
##Tere
##ranger
##ornam
##utsiden
##gjenopprettet
##barndommen
##sagbruk
##panel
##mannsnavn
##Annie
##potensielle
##pingvin
##bakerste
##kreditt
##When
##niv
##uvanleg
##derved
##music
##tekstar
##forberede
##monte
##fangeleir
##psykiske
##avsluttes
##antydet
##Genova
##lord
##stakk
##amus
##ligne
##grunnstoff
##hjemmekamper
##fysiker
##kapellan
##vitskaplege
##mler
##xy
##garan
##tente
##vake
##skular
##vokalen
##energis
##beløp
##Kommunens
##Helene
##Trafikk
##1788
##kommenterte
##sponsor
##sameinte
##pine
##forver
##sabot
##samtiden
##rete
##nedlegg
##fleksi
##albumlista
##trofe
##passere
##posthum
##platina
##astronomiske
##larvestadiet
##Shandong
##vane
##heia
##Samet
##forskarar
##sidig
##rørsle
##Sheffield
##Maurit
##moskeen
##Cash
##svis
##skallet
##alig
##unger
##Elton
##kanton
##tomme
##Tekst
##Mosjøen
##Laurent
##stryke
##Gate
##lyng
##lerud
##forming
##spiral
##soga
##internt
##Girls
##Idrettsforening
##halvaret
##imer
##refr
##entlige
##slager
##fortsettelse
##halden
##Singh
##Totten
##Champions
##cruise
##oldenbor
##gger
##legare
##Marino
##Beir
##skiskytter
##anmeldelser
##Maximilian
##knop
##meint
##Deb
##flyttes
##likevekt
##leddene
##forsvarets
##Kongressen
##verdiene
##kostnader
##flaske
##laug
##»",
##rettes
##gjennomgaende
##festninger
##Perry
##fylkesveg
##somradene
##cupfinalen
##konverterte
##tilskrevet
##markeder
##landskampar
##Havard
##Queens
##Hannene
##skorset
##elvekraftverk
##Agu
##avir
##tilskudd
##Else
##romerriket
##omkringliggende
##egaande
##journalistikk
##Fant
##Watt
##jou
##kibbut
##wel
##demp
##overlot
##heva
##føttene
##Bergenhus
##glatte
##Wake
##opprettede
##Slam
##Tveit
##innbyr
##solist
##fenomener
##Bilen
##1774
##Moldova
##magasiner
##Fit
##arisk
##omdiskutert
##idt
##innstilling
##nordlig
##ckland
##kirchen
##Bee
##generalløytnant
##Borneo
##foretrakk
##forutsetning
##veteran
##Athletic
##dn
##jula
##sof
##steget
##1778
##svold
##rating
##Three
##tyng
##Vart
##],
##beger
##setnings
##orius
##Munthe
##skrav
##hormon
##Alexandra
##konsonant
##Phoen
##Bretagne
##Eger
##qvist
##ativer
##sevs
##used
##attande
##berto
##107
##organiske
##relasjon
##vitenskaps
##Fosen
##gasser
##Personer
##Powell
##arna
##ingo
##soma
##ammen
##vinyl
##nordkysten
##128
##marknaden
##Uller
##Agnes
##Vasa
##Sarajevo
##Utvikling
##angelsaksisk
##vertikale
##Svendsen
##Mant
##kinn
##overn
##krutt
##maner
##jarlen
##ografier
##Salme
##Gaus
##dypere
##pseudonymet
##Nicholas
##slovakisk
##Fay
##Fren
##HO
##Hier
##iblant
##overga
##ivirk
##byggjer
##Laos
##mørket
##1783
##Griff
##korsfar
##Ferguson
##3D
##cis
##tekt
##besatt
##altfor
##handtering
##Barents
##indianerne
##gjentok
##Fantasy
##Hopp
##ffin
##verta
##Porto
##Giants
##kontakten
##integra
##blinde
##Bryne
##volumet
##bassenget
##Brekke
##Tham
##uin
##berland
##Sto
##nybygg
##draps
##tingrett
##Afrikas
##Adrian
##nitrogen
##Kautoke
##Rest
##kampane
##moralsk
##initiativet
##Rjukan
##tildels
##pakt
##sement
##jevitsj
##kanadisk
##imus
##USD
##2500
##Lade
##beleiring
##cot
##ignor
##adin
##ript
##hovedsete
##historiens
##frar
##rullestol
##Medlemmene
##indoeuropeiske
##Berkeley
##NBC
##helle
##byrad
##1650
##Leicester
##islamsk
##animasjons
##overrasket
##Fars
##Ural
##utdannelsen
##opptradt
##spora
##binder
##utbreiing
##htis
##grevskap
##Holmestrand
##(=
##Call
##ил
##forstar
##utel
##braten
##brente
##proff
##Rocke
##Manus
##diskvalifisert
##organisasjonens
##Løpet
##grammatikk
##pedagogikk
##landeveissyklist
##lekt
##medley
##Foran
##sley
##Engine
##palagt
##mengda
##Borgen
##Tusen
##Polyne
##Ferrari
##Sik
##einingar
##uniformer
##standarder
##Konf
##larve
##Lost
##Volvo
##1791
##bærere
##sørafrikanske
##Kungliga
##Series
##Lørdag
##Nr
##stud
##omkr
##innsatte
##manag
##engde
##langvarige
##luftfart
##bokstavelig
##Plut
##indianere
##ships
##salmebok
##Ideen
##Beirut
##Bjor
##Gat
##cross
##austen
##dress
##gangene
##gade
##muskul
##trygt
##Steiner
##misnøye
##Claudius
##feiringen
##detaljerte
##Apollon
##grunnleggelsen
##Tou
##skott
##forvist
##veri
##males
##arsdagen
##giftige
##respons
##skifta
##omgivelsene
##Wig
##Yunnan
##jakter
##redi
##krona
##aude
##tiste
##hjemmel
##Verds
##Blod
##teoretiske
##norgesmester
##Sla
##itre
##asene
##blekk
##add
##jobba
##Placid
##forfatning
##Amar
##Cot
##Vard
##olig
##tiltre
##overføre
##1720
##Utan
##magiske
##Oppdal
##bosn
##forhandlet
##Rotten
##sønnesønn
##P3
##desper
##utslag
##Cohen
##brytes
##forbundets
##plattformer
##bemerkelses
##Nin
##Tet
##Tangen
##bitt
##tilsatt
##kombiner
##Inner
##Flying
##embete
##kvarteret
##Essex
##Police
##Grenland
##Kielland
##utformingen
##vietnamesiske
##ea
##vul
##atta
##Kanari
##innehaver
##moleky
##Erit
##Nou
##lyser
##morsmal
##Hede
##Meritter
##børster
##forstyrrelser
##%).
##Eck
##Ghana
##alon
##medverka
##Antig
##175
##skadene
##profet
##vapenhvile
##ektefelle
##prosessor
##Foreldrene
##algebra
##Lande
##MR
##skli
##mulighetene
##salmer
##renter
##værelsen
##Selskab
##Half
##Reichs
##Cornwall
##Himmel
##protesterte
##pagaende
##sjømann
##smellere
##thm
##Afrikamesterskapet
##Knutsen
##Rødt
##returnere
##walisiske
##maskingevær
##Bass
##CP
##sions
##auge
##milde
##synthe
##trapp
##Navar
##innspeling
##reservatet
##kallar
##annektert
##justisminister
##Passeriformes
##850
##Isted
##NAS
##less
##avstander
##anglo
##motto
##Norfolk
##veneti
##ampe
##syntet
##operative
##fellesskapet
##Johannessen
##prestegard
##programmerings
##Mannskapet
##fritid
##apeut
##Fart
##cli
##arsproduksjon
##teket
##medvirkende
##itions
##lingene
##ksjons
##arkiver
##onering
##dateres
##svenskan
##hundrear
##Lørenskog
##elia
##ride
##rupper
##oppbevart
##munker
##fremstar
##bidrog
##strids
##Kuwait
##verdighet
##Tottenham
##EBU
##Hull
##Ving
##gie
##uba
##rue
##lagen
##legitim
##personlege
##kortet
##Prote
##lufthamn
##hevdes
##Statoil
##Blomstene
##ambassaden
##Marcel
##kulde
##filmmusikk
##alands
##fanga
##dikta
##Nationale
##Tad
##ading
##oppholdet
##lagre
##Mecklenburg
##Holmes
##samanlikna
##kvinnelege
##Television
##Castro
##utlendinger
##babylon
##etid
##merka
##enson
##Norwich
##villige
##mygg
##Mosam
##soper
##krem
##verdensmesterskap
##bølgjer
##Frelse
##etappens
##ivareta
##forurensning
##triumf
##Hager
##here
##tilførsel
##igne
##Enge
##rondisse
##ationale
##konstruere
##Klubbens
##Job
##Mitt
##Tart
##nunatak
##stoget
##resjon
##erty
##arenes
##forskar
##jernalderen
##aldo
##nasjonalparken
##kvartett
##Idrettslaget
##Hannibal
##guttene
##illustrasjoner
##atelier
##brennevin
##nos
##vakter
##atz
##nebbet
##break
##illon
##fotballag
##arsdag
##Supp
##satser
##niendeplass
##Sentrum
##bibliotekar
##revidert
##bachelorgrad
##HL
##driven
##drakter
##signatur
##Santos
##rullet
##hindra
##Offisi
##Mission
##sendingen
##Pictures
##chtenstein
##Baptiste
##Easter
##enz
##beholder
##søl
##Marien
##industriell
##Myhre
##Bakgrunnsstoff
##behandlings
##herskere
##Morrison
##kuttet
##shan
##dek
##edd
##iences
##Harmon
##Purple
##Pseud
##Reykjavik
##AE
##Jans
##Slett
##yst
##utlan
##1723
##mile
##demokrater
##variantar
##Liege
##smygere
##tagelse
##Craig
##realistiske
##kjed
##riker
##skolan
##Gaza
##hyllet
##vokalisten
##Arealet
##ortodoks
##parallellsidige
##lojalitet
##Johansson
##sokneprest
##orlogs
##,»
##Viv
##olitt
##pøl
##tat
##stap
##tilbragte
##ishavet
##eledes
##stadium
##Europaparlamentet
##Lubeck
##McMurdo
##territorier
##homo
##utvidelsen
##aggressiv
##forele
##overlegen
##eiet
##bilet
##Chuck
##fylkesting
##Christiansen
##NRK1
##1773
##Heiberg
##Glomma
##omringet
##Asen
##Dame
##Pall
##gunst
##xa
##avslutt
##avatnet
##innverknad
##oppgis
##yrker
##typene
##myten
##helter
##fyrsten
##aktivist
##Lengde
##"&
##Mete
##cens
##omiteen
##olt
##marsjen
##Ardal
##leggs
##vapenskjold
##Gjennomsnitt
##Sofie
##ez
##hvete
##anje
##realistisk
##edire
##forbetra
##sekvens
##ries
##vester
##toer
##øvste
##budskap
##frukter
##straffespark
##Dort
##Tjø
##pastatt
##trø
##sjik
##haz
##Solheim
##Gloppen
##Petro
##1781
##avgjørelse
##Scottish
##Planten
##inskripsjon
##albansk
##Nim
##Pyrene
##Tinn
##igon
##sprø
##ulær
##sløp
##Maine
##kritikker
##Kongs
##Flekke
##bringende
##GNU
##Hope
##Nøtter
##jia
##xen
##bayer
##Lahtis
##bands
##friidrettsutøvar
##Genesis
##Chateau
##.:
##Djur
##Pus
##eff
##rd
##yar
##utfordret
##gjet
##legionen
##Skje
##strøms
##falz
##utforske
##genealog
##intervjuer
##ryttere
##usikkerhet
##Iowa
##LC
##kommunistene
##1740
##nordamerikanske
##byggverk
##suksessrike
##Auckland
##branner
##Arkivet
##oldtids
##Neptun
##dane
##ка
##anor
##deus
##vement
##samferdsel
##segla
##Mali
##Erke
##fokusere
##hjørnene
##FIDS
##skjæring
##Fernando
##Aberde
##aksjene
##Wehrmacht
##fis
##arskontrakt
##undersøkte
##fremgang
##skjære
##topper
##Magasinet
##harmoniske
##fakultetet
##vidaregaande
##sdatter
##tenkning
##nedslag
##drakten
##høgskule
##diskrimin
##Works
##Riksdagen
##basketballspiller
##eliteserien
##matematiker
##hjortebiller
##Hampshire
##Tredje
##skansler
##Asp
##SR
##tobakk
##statte
##mystiske
##Indiahavet
##Gerais
##overvintr
##Machine
##leverandør
##Selev
##blu
##1763
##parap
##dukka
##nederlen
##Breen
##kunnskapen
##pirat
##Klein
##Hassel
##Stoltenberg
##Ero
##Jul
##Nacion
##spp
##tik
##он
##sammenlik
##velkjent
##hama
##Karmøy
##stasjonar
##maser
##ekteparet
##Garder
##Judea
##sparti
##Energy
##Ecole
##Sign
##lakse
##tis
##forfall
##lering
##veig
##ruinene
##grend
##hovedpersonen
##Edwards
##nominerte
##moderate
##mottakelse
##Jenn
##stallen
##forpli
##lerne
##okommun
##lagmanns
##statusen
##Hunter
##grenses
##grabrun
##Pearl
##Frøya
##Pradesh
##Winchester
##dramatiker
##Romeo
##hitten
##arnet
##infl
##sletter
##houg
##opment
##rykter
##rommer
##Laus
##lokalene
##Kirkens
##Internasjonal
##skreps
##botten
##praktbiller
##kapteinen
##Linne
##jenta
##vort
##forene
##bekost
##eira
##virkninger
##Kommunal
##Rogers
##year
##Nagano
##katedralskole
##betingelser
##Kautokeino
##synthesi
##Sony
##irken
##konsu
##yna
##ods
##kulmin
##fotballtrener
##ouse
##Romas
##mangfol
##hviler
##yeo
##modig
##mineraler
##Montg
##okkupasjonsmakten
##Utah
##VP
##Venn
##stof
##skast
##oppfølg
##ikkene
##ofy
##string
##tradisjons
##tilføy
##elagt
##Wessel
##Ragnvald
##distanseløp
##stoppa
##sappar
##overskudd
##sørkoreanske
##Utdannelse
##hjemland
##Kvite
##gh
##unen
##nedsatt
##Command
##Silva
##Tarnet
##regissøren
##Oluf
##Vert
##kmen
##tamil
##itta
##kile
##1777
##skjelettet
##keisaren
##atmosfæ
##Amalie
##Bred
##Eiker
##Psyk
##roy
##Storhamar
##okkup
##Lancaster
##stegnet
##elinje
##vulkanske
##rockeband
##Døds
##Guyana
##Bugge
##Nid
##Wir
##galli
##reau
##avholdes
##alane
##konfron
##iseringer
##kaos
##bonden
##rødlige
##tilhørighet
##Susan
##Hendrix
##Rasen
##gutte
##vagen
##arver
##angitt
##gris
##feminist
##løser
##leton
##Seven
##idretten
##Myster
##produsentene
##Gyldendal
##opplevelse
##overensstem
##Dere
##Orange
##avkjø
##innlagt
##samtids
##lander
##Atlet
##zzi
##senest
##spreidd
##foreldra
##binding
##galak
##Vinneren
##340
##Gav
##Sja
##ango
##kantede
##møbel
##shau
##Blind
##Irene
##gulv
##eventuell
##herreds
##1784
##bevares
##risikoen
##Krag
##Løy
##elærer
##oppgrader
##etterkvart
##veldel
##snamn
##Macao
##støl
##trenge
##regimentet
##rødbrune
##Søra
##støtende
##laks
##Depart
##Arvid
##peke
##Vestbreidda
##signaler
##1787
##Vesteralen
##Politiet
##XVI
##uklar
##onar
##utgjeving
##kons
##setje
##dyrkes
##skonkurran
##nakne
##diagnost
##Montgomer
##Colle
##Lope
##Otta
##bam
##roste
##memo
##Arme
##østlig
##utbredte
##Belfast
##Vogt
##Sortland
##Asche
##Peg
##paten
##innvendig
##inngrep
##utvikles
##høgste
##ungdommer
##Kristine
##Family
##Giles
##Clement
##bjørk
##evakuert
##Finne
##Woman
##bitter
##algorit
##varslet
##gjennomføres
##skill
##kobl
##kuppet
##bombet
##menneskerettigheter
##legende
##paført
##innlands
##berge
##statuer
##bias
##livstid
##halvbror
##diktning
##handelsmenn
##Highway
##Letter
##Lein
##Sham
##øks
##omtala
##overordnede
##britane
##taksonom
##steinalderen
##ytterkanten
##hindrer
##Nancy
##Forfatteren
##tempererte
##Eich
##bone
##rio
##okse
##torget
##drifta
##uttrykke
##hjuls
##Schlesien
##ktil
##forgjeng
##utgjevinga
##ppy
##romarane
##banens
##stemning
##Verdal
##fjordarm
##Salomon
##universitetene
##Benz
##umiddelbar
##sadan
##sivilisasjon
##røynda
##posthumt
##Adal
##Edd
##stett
##lestad
##utgifter
##ordna
##yrket
##truga
##offentligheten
##forarsaker
##iberiske
##muslimar
##Næss
##skilsmisse
##Bismarck
##telt
##inere
##konfir
##krinsen
##pret
##ømmene
##snute
##kroatiske
##pensjonert
##Wonder
##bekostning
##Fund
##kveg
##uhell
##desto
##assyriske
##spent
##aper
##østkysten
##utgir
##moralske
##Romerike
##Døme
##belønning
##sørafrikansk
##Ule
##preges
##tai
##borett
##Bydelen
##etabole
##læren
##Hammar
##fortellingene
##Polens
##ekspedisjoner
##avdelinga
##stengte
##campus
##Riksantikvaren
##gigant
##Drø
##FBI
##fære
##rab
##asjøen
##holdig
##Trondheims
##alteret
##Shad
##monarki
##trusselen
##Pommern
##Cyr
##Nike
##jov
##tinn
##heks
##geri
##distanser
##avhengighet
##Falun
##fyrstedømmet
##Frelsesarme
##Lite
##atsj
##meninger
##Conf
##Canal
##samfunnsvitenskap
##Koch
##Santo
##optiske
##forberedt
##fjellkjeda
##digitalt
##sjukehus
##spanjolene
##Lub
##oppgang
##opplær
##undergruppe
##stemmig
##Kommand
##Soci
##prisar
##Shir
##mistenkt
##krønike
##Clarke
##(,
##Dio
##KO
##gos
##forsterke
##dier
##hundene
##netto
##stattholder
##brunlig
##nøytrale
##respond
##Chester
##arhundrene
##demonstrasjoner
##martyr
##||
##byte
##ertallet
##sini
##lava
##shu
##riktige
##dominerande
##Akk
##Rita
##Sind
##geit
##bekker
##rien
##nedanfor
##buer
##Kara
##Sean
##wehr
##Christina
##dokumentarfilm
##Guangzhou
##Chamber
##minoritets
##Mut
##pga
##leses
##reell
##inndelingen
##hob
##drepen
##backen
##folka
##Parsons
##Lah
##programmene
##Nyere
##fasaden
##hjulpet
##mongolske
##Krakow
##Kash
##forstørre
##varmere
##utstedt
##sakt
##Ettermæle
##planeter
##departementets
##konstruktør
##debatter
##Gilmour
##komplekset
##imponert
##Jas
##yne
##»:
##кс
##revol
##middag
##Miles
##registrer
##fratatt
##konklusjon
##TT
##iy
##pis
##sard
##uksess
##yte
##sielle
##lytt
##premie
##betet
##cture
##magi
##butter
##diskos
##lind
##bevise
##overveiende
##dommar
##demi
##lock
##Teatret
##skarpt
##Milton
##EMI
##Capitol
##mytologiske
##Sunnfjord
##rever
##forbli
##promin
##parad
##paralympiske
##Herøy
##engelskmennene
##Olga
##nevro
##pigger
##Tidsskriftet
##aspekter
##Oct
##bjer
##wagen
##gratt
##endemiske
##ubunden
##intercept
##urolig
##psykologiske
##progressive
##bysantinsk
##vannpolospiller
##Sweet
##Grat
##Suli
##fsn
##stillende
##vokter
##satsing
##strekninga
##akustiske
##Flekkefjord
##Rok
##utval
##ynet
##sva
##ømt
##morens
##emnet
##relik
##staven
##darligste
##Nobels
##buddhismen
##substantiv
##fortjenstmedalje
##Ocean
##Dmit
##oldat
##igar
##apnings
##svul
##lovgivning
##kvinners
##western
##hvileperiode
##betraktelig
##leier
##dering
##mania
##nova
##Carsten
##tape
##sati
##Broen
##busetnader
##hvelvet
##Habsburg
##fasettøynene
##muntlig
##avbild
##skolegang
##Jab
##istid
##sina
##talene
##fortelles
##redskap
##valgkrets
##møtene
##Heile
##Barrett
##ipal
##Edith
##Bucure
##samfunnets
##Tube
##terrengløp
##Befolknings
##Turneringen
##reagerte
##Canadas
##Himalaya
##Whe
##avlyst
##ettertra
##1730
##filtr
##Jules
##Delhi
##elands
##mekanisme
##found
##karbondioksid
##særegne
##Dietrich
##Fish
##LD
##Sod
##west
##ombygging
##meist
##bygden
##musikeren
##ografar
##offentliggjorde
##fokusert
##hornet
##Klepp
##redigerte
##Religion
##Bath
##Flem
##deport
##assis
##duo
##Ajax
##Bucuresti
##Tav
##Tali
##iae
##mah
##garar
##legemiddel
##kunstverk
##tredjeplassen
##Statistisk
##psykologisk
##Sigmund
##livsstil
##holometabole
##won
##sac
##oppfinner
##petroleum
##torp
##Derfra
##keiserinne
##lettare
##Gray
##innsjøar
##Dyre
##Dorothe
##Greatest
##Original
##rente
##øra
##pam
##rough
##genetiske
##brønn
##mphis
##godkjenning
##hærens
##motorar
##anleggene
##begreper
##atomvapen
##sparket
##druk
##Astrup
##Bale
##Bole
##reng
##alg
##isdekt
##innbe
##artusen
##osc
##sørsamisk
##gjennomslag
##drivende
##Cove
##arenaen
##videreutviklet
##holms
##formannskap
##boligen
##borgarkrigen
##operativsystem
##undergrunnsstasjon
##Apollo
##Jamt
##flik
##sans
##agn
##spy
##komet
##epig
##dokumenterte
##øntgen
##institusjonen
##Demningen
##edderkoppene
##mektigste
##Watson
##kontroversiell
##www
##Sne
##yp
##skring
##munne
##stores
##Inne
##facto
##myke
##aturen
##slede
##trase
##arsalderen
##agenter
##platekontrakt
##profesjonelt
##Days
##skildret
##Nepals
##skjønnhet
##view
##sindustrien
##Hale
##adia
##oversettes
##dagane
##Arkan
##fergen
##bilar
##icht
##vennene
##bestsel
##kunnskaper
##brytende
##Gamlebyen
##underjordiske
##Jonsson
##ypper
##им
##befestet
##roen
##preken
##ovn
##aktuelt
##kvist
##kulti
##funnen
##Tidlige
##Odense
##saft
##ivisjon
##hay
##poem
##koder
##messing
##hornbiller
##nazistene
##veiledning
##jort
##omsider
##lider
##odien
##stadige
##Skik
##Some
##inkludere
##Nicol
##hylla
##presenterer
##Hurum
##anatomi
##Belle
##Læ
##bærende
##αν
##varmen
##unders
##Streis
##tokt
##icz
##tenker
##farkt
##rome
##historiene
##forskings
##samlings
##Frie
##Instituttet
##Bøkene
##regulerer
##spekulert
##julen
##etterforskning
##proses
##ovs
##likasjon
##nærhet
##Oppvekst
##Mora
##vention
##Røa
##bachelor
##elds
##omy
##meningen
##bah
##studerer
##sprekker
##stralingen
##formidle
##statskupp
##Gad
##Ward
##overalt
##lags
##ieu
##134
##drende
##Monica
##epoken
##kjenneteik
##trio
##Mindre
##Sime
##Bygge
##Shaw
##Liechtenstein
##protestantisk
##Taksonomien
##Kiss
##Mannen
##Ou
##plaget
##ages
##sytt
##fremtid
##bill
##livssyn
##Innhald
##bussene
##Duck
##Fotballkrets
##Glam
##Trist
##UD
##Yi
##osse
##klø
##havskysten
##estim
##landsmannen
##ipel
##erstatter
##sendingene
##Mjøsa
##Presidenten
##ombygget
##beskje
##pling
##noterte
##storden
##styrings
##Herfra
##førstnevnte
##utgavene
##Peace
##suksessfulle
##logo
##uttrykker
##Buset
##vesentlige
##BWV
##"".
##Crist
##Rhode
##Want
##steorien
##oversikten
##skaffa
##demokratene
##Stranda
##Voice
##kryssar
##Hisp
##Video
##deportert
##erosjon
##dagbok
##flotte
##meland
##solokar
##fartøyene
##organisasjonar
##dampskip
##luftt
##Pietro
##Grad
##Niz
##underart
##Arve
##havar
##Hund
##Quin
##Frøy
##1782
##Wiener
##traktat
##geistlige
##Male
##etterkrigstiden
##ops
##gravlagd
##kristent
##fuglane
##atomer
##spolitiske
##vognen
##Vietnamkrigen
##potensialet
##deltagere
##Aschehoug
##Lena
##tilsk
##akkom
##flyvapen
##meleg
##skyter
##vernomrade
##Willie
##direktøren
##Ryfylke
##egyp
##hugget
##slovensk
##interessante
##morfologi
##Fat
##Funn
##Kansk
##Rw
##Vy
##forsky
##idel
##oppsyn
##skjærer
##street
##stypen
##Kommunistiske
##gros
##Clara
##dødsstraff
##EØ
##larene
##pastander
##oshi
##Nordrhein
##namna
##operere
##nettsted
##Ringsaker
##skyttere
##Grunnloven
##Galleri
##forsinket
##Steelers
##icansk
##rekne
##Lex
##Rex
##spraklege
##løpende
##Avdeling
##Murmansk
##Sonja
##Arrangør
##Jel
##wei
##inf
##ists
##mais
##opatra
##eksterne
##flyselskapet
##sleigh
##fangar
##registrering
##deltaet
##Opprinnelse
##infanteriet
##Morgenbladet
##Middle
##Antoine
##sarede
##cov
##ashi
##Denver
##Reyn
##folkelig
##suge
##seksuelt
##huse
##camping
##Halvdan
##importert
##forsterkninger
##Nøtterøy
##erings
##alm
##Omgrepet
##vektløfting
##volds
##seriekamper
##Burn
##vesener
##gunstig
##Schwarz
##Aver
##Eura
##templer
##præ
##flykta
##duk
##mentale
##tilleggs
##Lima
##teknologiske
##slagsvis
##innspelingane
##telegraf
##Witt
##peg
##sekk
##usikre
##mannlig
##111
##Regi
##tungvekt
##grøne
##Bonaparte
##Earl
##Tong
##døren
##preke
##badet
##bahn
##kommunalt
##fredelig
##høres
##kalsium
##borgerlig
##garnison
##jakten
##Magnusson
##Tabellen
##massene
##Bing
##lekten
##terras
##ranter
##fredaktør
##145
##Spy
##monarken
##sentrert
##samlingene
##delegasjon
##detektiv
##/"
##gres
##hing
##brung
##blene
##begynnelse
##Constant
##fukt
##Strømmen
##registeret
##anvendelse
##Sultan
##bolsjevik
##PP
##hka
##ima
##arrondisse
##unikt
##amentet
##ynam
##sonden
##lay
##Und
##Memphis
##Heath
##Høland
##Southampton
##magnetisk
##awi
##terminal
##kubikk
##konkrete
##jordsmon
##abd
##vade
##dalene
##biografiske
##sprengt
##sivilingeniør
##Have
##bryggeri
##Gong
##Hæ
##Pist
##Tus
##oppsikt
##tenaring
##Einstein
##ization
##Antonius
##identifiserte
##Ahmed
##Nacional
##zia
##agh
##metaller
##Nora
##1785
##Leik
##Somalia
##austkysten
##forekomme
##Dipl
##Robertson
##Vari
##Planet
##Trust
##Catalonia
##Individ
##Development
##Aston
##Hvit
##cellen
##kvil
##pende
##reporter
##merkene
##Skot
##sisteplass
##Luck
##kongefamilien
##Ulstein
##leiinga
##nordvestre
##danskene
##blodig
##utmerkelsen
##eigentleg
##kland
##ettene
##kreativ
##Tren
##Nygaard
##karakterer
##stabilt
##stolt
##Napoleons
##insisterte
##Lakse
##NF
##strøy
##slepp
##slektskap
##brytere
##Edwin
##divisjons
##Gammel
##parlamentariske
##beslutninger
##ettermiddagen
##angst
##lytter
##nyopprettede
##Devon
##ingers
##fjells
##hythm
##itaine
##Kampene
##hviterussisk
##Ding
##Qi
##Svar
##VA
##arame
##fortrinn
##utsted
##155
##gjennomgang
##mystisk
##Luigi
##polak
##Vefsn
##barnebøker
##politid
##frigjø
##anledningen
##Gullruten
##trusler
##Toscana
##forventes
##veldelekene
##Kanskje
##sole
##ingsvalget
##boksen
##kunnskaps
##stafettlaget
##signalet
##sifisering
##gjenopprette
##ordførere
##dimensjoner
##Shetland
##raktaten
##oppmuntret
##tønneformet
##Hits
##NL
##Pit
##cash
##wang
##øte
##anene
##ønna
##ideal
##alisten
##forsøkene
##athon
##gulbrune
##sankt
##slettene
##Gibson
##rise
##sørkysten
##ites
##Kommuner
##sandstein
##skinnende
##heilag
##seminaret
##tjukk
##homofile
##Renault
##Philippe
##Strømsgodset
##BL
##Dj
##adene
##latter
##vy
##skene
##urne
##iransk
##overtale
##grunt
##mina
##elevar
##stedfor
##klubbe
##disko
##punktrader
##soloalbumet
##beskjeden
##lojale
##Kongedømmet
##Cay
##Retts
##Rittet
##uoffisielle
##oppga
##sørlig
##friheten
##Karakter
##relative
##Aless
##Martine
##Stryn
##gulaktige
##nauds
##Nottingham
##Lopez
##Lister
##xian
##forkastet
##nektar
##bydistrikt
##medaljene
##Torstein
##Naval
##spennings
##spenner
##bokstavene
##astronomen
##skildringer
##Bryan
##Ahmad
##Rekorder
##UiO
##Flin
##Hjør
##aide
##este
##lunde
##tof
##ensem
##teringen
##innhald
##slettet
##toal
##aben
##fylgje
##Grunnet
##alkoho
##yndighetene
##oldenborrer
##Bara
##Ibra
##Sas
##oble
##andra
##gevin
##ensfarget
##taekwondo
##Management
##Heyer
##Johanna
##Holocaust
##Erlend
##reduserer
##avslutningen
##Leonardo
##sturne
##Mussolini
##Viker
##WW
##djevel
##hlen
##poll
##igo
##enestaende
##rukne
##vedtaket
##oped
##elignende
##barbar
##dringen
##mons
##Schne
##fastlagt
##Proven
##Lucan
##Edda
##voldelige
##samarbeidspart
##kunngjort
##bevegelsens
##Aurskog
##Collett
##observatør
##Wikipedia
##kombinerer
##Bene
##sval
##river
##veie
##umet
##maske
##kirka
##Secur
##kortare
##ifik
##Carab
##beregne
##æresdoktor
##jurisdik
##skel
##apart
##hefte
##rega
##nordlegaste
##taker
##innehar
##Advan
##ikkerhet
##sentralbanken
##slista
##beseire
##Klimaet
##Trinidad
##Qin
##Tic
##Xu
##од
##lement
##bevist
##ivod
##metikk
##taksonomi
##sikring
##shore
##Brow
##motorsykkel
##bispedømmer
##Jørn
##maksimum
##flaum
##hierark
##Orkester
##Diktet
##NCA
##cs
##ankommer
##amenter
##innad
##gend
##kvikk
##Cou
##Manning
##billedkunstner
##modernisert
##Amp
##etiden
##rasist
##uty
##inntatt
##allment
##brørne
##Chess
##partia
##frimurer
##franca
##gravlund
##grafiske
##Finan
##skriftsprak
##Linje
##Ulster
##Graubunden
##administrator
##After
##BR
##steatret
##sprag
##uman
##thorax
##finna
##Krohn
##mikroskop
##Kenny
##Lilles
##Hjort
##bonusspor
##katolisismen
##Zan
##ansert
##raine
##utbrot
##overgi
##heis
##jernet
##karane
##rona
##friske
##giftig
##sistnemnde
##kasakh
##forgjengeren
##Ili
##lil
##atius
##pafugl
##veide
##Torp
##juk
##Juvent
##Ronny
##Sunndal
##apotek
##klostre
##Symfoni
##ritualer
##EØS
##380
##Fres
##ICA
##Tis
##bingen
##knok
##genskaper
##finer
##fargar
##rekre
##midlene
##Hebei
##representantar
##Sieg
##hoteller
##feiring
##wski
##især
##innta
##aksi
##undervise
##kjell
##skogene
##blomstene
##fredspris
##sjefs
##ituasjonen
##numer
##protokoll
##Factor
##Dry
##OC
##Rust
##legat
##Mona
##Luster
##Burton
##YouTube
##forlengelse
##Richmond
##pumpe
##oppdrett
##Stern
##Teg
##utvalgt
##eios
##søstrene
##Enger
##Hunt
##drage
##Stora
##gospel
##Melhus
##trange
##Tross
##elektroner
##enormt
##pedagogisk
##tilstedeværelse
##Usbek
##Phoenix
##Meteor
##Our
##Rim
##Ts
##ahl
##tir
##beman
##1768
##møbler
##biologien
##datas
##Meister
##onsdag
##Minog
##vinnaren
##kandidaten
##avduket
##forstørrede
##nel
##bekjent
##oks
##Chong
##gjenvalg
##folkemunne
##verdsrekord
##vasall
##bottens
##omstendigheter
##Breivik
##Imp
##night
##viv
##utgjeven
##ropp
##flyvapenet
##Orland
##Syk
##plateprodusent
##Akers
##1786
##Aquitaine
##færøyske
##mistenkte
##beboere
##stjalet
##grekere
##globalt
##wy
##pers
##klanen
##kanonen
##Unix
##dyreliv
##jernalder
##varemerke
##Fristaten
##Madison
##Augustin
##kongedømet
##Ronnie
##romantikken
##blomstring
##Lombardia
##Sou
##klage
##melle
##steater
##oppgi
##diakon
##ustab
##dramaser
##tilbakegang
##dyktighet
##populasjonen
##slippene
##skipets
##reduseres
##sannsynlighet
##leddete
##propell
##newzealandsk
##Andorra
##forpliktet
##Hid
##NZ
##utforsket
##Guld
##ardinal
##bobsleigh
##Bennett
##Adres
##Umea
##smessig
##iting
##hare
##okjem
##165
##nasjonalistiske
##skulpt
##Manila
##morder
##Grønn
##autent
##lydtekn
##beregninger
##Skjold
##lineær
##tilpassa
##bryllupet
##KV
##Mikk
##kak
##ordbok
##bransje
##drepne
##bast
##asset
##langsomt
##organiseringen
##hydra
##blomstret
##forstaelsen
##Greenwich
##Simonsen
##Woods
##arsakene
##palestinsk
##handverkere
##Judas
##Sommaren
##Kabul
##Cowboys
##litauisk
##Mosambik
##Drøbak
##Eno
##Flø
##Gala
##forkast
##host
##imperi
##matvarer
##flod
##redskaper
##retningslinjer
##diplomatisk
##Lauritz
##Pompei
##fossiler
##Tsjer
##atha
##medføre
##metri
##Inder
##angeren
##Mother
##hypotesen
##Eritrea
##Jenny
##ła
##rah
##rij
##Normal
##duras
##herrene
##likheter
##Beveg
##funk
##litterært
##vitenskapen
##ground
##stabssjef
##ordinert
##colombi
##1779
##Virke
##obligatorisk
##XL
##pub
##itasjons
##oppfylle
##note
##Hoel
##Hausten
##konsertopptak
##Honduras
##kollapset
##Spanias
##119
##Lay
##hne
##sni
##Herod
##gjenforent
##operert
##vennen
##anders
##faser
##fuhrer
##blokken
##kolleger
##diskuterte
##hovedkvarteret
##Daily
##Department
##enhetene
##oppstart
##sjøsatt
##Scandinav
##forskningsinstit
##menneskeheten
##søyle
##Arbeiderpartiets
##trommeslagar
##Hurtig
##Second
##Peloponnes
##soft
##elvel
##alleg
##1769
##russ
##Magdalen
##Regist
##innrømmet
##statistikken
##cro
##pto
##innkjøpt
##tenden
##dose
##tørket
##skadedyr
##sump
##Ingebrig
##Rhone
##garnisonen
##Plassen
##Ville
##gien
##iak
##stunnelen
##innvirkning
##bydelene
##steinar
##Harvey
##trudde
##atoes
##frigjøringen
##Fleetwood
##utallige
##Arkansas
##Liga
##nitz
##kly
##state
##akten
##greven
##Maj
##pavelig
##embetsmenn
##øyeblikkelig
##Ullern
##Askøy
##Kel
##Patt
##maritim
##kurve
##Træ
##Alekse
##vigd
##Speed
##Rams
##frigjørings
##Eksempelvis
##paverknad
##Prøysen
##Montgomery
##sud
##lien
##joniske
##hemm
##tresult
##opolis
##gete
##henviser
##rone
##Reis
##Rauma
##fantasi
##økologisk
##Hovedrollene
##registrere
##kjønnene
##smalnende
##Youth
##normalbakken
##Flagget
##differensial
##Astron
##Chun
##OK
##Oks
##teste
##utpekte
##oppsummer
##Alfa
##sjøfolk
##ptiske
##krafta
##skaff
##Lukas
##quet
##Baku
##Østens
##Jura
##fluene
##1771
##Brooks
##særegen
##Cop
##HBW
##Lob
##Tag
##mmen
##oppsetninger
##Arktis
##fauna
##krigere
##lokk
##lavlandet
##Bakken
##myndigheten
##optisk
##europavei
##fasiliteter
##Themsen
##Barr
##Baten
##NC
##nal
##rh
##utsatte
##Stub
##holocaust
##veitunnel
##asteroidefamilien
##mottaker
##svakere
##Regjering
##konsertalbumet
##Heyerdahl
##Dru
##Fok
##Fjer
##dil
##jama
##irke
##bredd
##framom
##Mask
##Mons
##Syvert
##Ulrich
##karakteriseres
##dominans
##ostret
##Jenssen
##asiatisk
##African
##sproblemer
##Avenue
##vraket
##avsta
##idas
##german
##prestene
##viden
##høyst
##spesifikk
##inering
##verdas
##Simpson
##fuktighet
##eselskapet
##realisme
##Century
##tabell
##Nassau
##oppfølgeren
##Bundesliga
##litauiske
##Follo
##eksportert
##Jet
##Mare
##NBA
##cant
##anla
##forblir
##ligninger
##apro
##bydeler
##samansett
##drapene
##landsdelen
##hukom
##Kirsten
##Blackburn
##Voy
##Brady
##lyrikk
##tilstander
##oppfylt
##kvent
##lengda
##selskaps
##spilletid
##Selskapets
##spørre
##Vesle
##Children
##Benny
##glim
##nebu
##bestilte
##Kunstakademiet
##kryssa
##Toulouse
##Flight
##IG
##galt
##xter
##liters
##kontekst
##laster
##nordmennene
##korrespond
##sakprosa
##Samu
##sigd
##motorene
##Lindes
##filosofien
##rødliste
##byrakr
##AUF
##Lic
##Sett
##Uansett
##eskor
##fish
##ет
##libane
##odon
##lastet
##Unter
##ugge
##vask
##nattfly
##givningen
##vices
##Cliff
##utestengt
##480
##Bit
##Giske
##Toll
##zing
##overkant
##underside
##egrass
##Anmel
##Restaur
##Monu
##slavisk
##Klemens
##Afro
##blodt
##kollisjon
##kjelleren
##Innbyggertall
##innbyrdes
##Ade
##Bio
##Ok
##delstater
##ustabil
##hunger
##fyll
##Atle
##punktstriper
##sprosjekter
##bakerst
##transportert
##huskes
##basilika
##AA
##Make
##fylkets
##ystemer
##fragment
##Klosteret
##Kartago
##forfedre
##molekyler
##dekret
##adjektiv
##Heaven
##rammen
##Guill
##Village
##balansen
##Krogh
##byttedyr
##Søre
##almen
##forgift
##rada
##beat
##vifte
##folkes
##helbre
##Behandling
##Thunder
##generalguvernør
##teikne
##konvensjonelle
##skanalen
##Jotunheimen
##Add
##Kvern
##Svol
##nun
##sher
##varsler
##utu
##idretter
##innkalt
##slund
##sjangre
##Initi
##husets
##dykk
##seriens
##Pyth
##Bøm
##elsk
##skvinne
##ilyn
##ikter
##seerne
##ofrene
##løsl
##hending
##endorf
##ronen
##helium
##mona
##suff
##særskilte
##lojal
##husket
##miljøvern
##Graf
##Viborg
##Hallvard
##Maxwell
##isolasjon
##formidlet
##Area
##pokal
##sinstitusjoner
##Pots
##Sjo
##dry
##uventet
##utgjøre
##okomot
##klatret
##tipp
##nedsett
##svel
##størstedelen
##halvering
##verdslige
##Hubert
##blodige
##krevd
##kapellmester
##assistanse
##Vatikanet
##Racing
##Lorenzo
##Taliban
##ftene
##Alba
##kjøres
##straffet
##belys
##skommisjonen
##Minister
##Giro
##materielle
##skontroll
##beredskap
##Fiji
##sympat
##ambisjoner
##420
##Ome
##andelig
##kappe
##Copa
##Tyske
##Taip
##body
##Asane
##vanlegaste
##forsvann
##kongerike
##forberedte
##Hitra
##Fabrikken
##Bendik
##Borde
##Elev
##Hjer
##Rund
##Ulv
##Vare
##donia
##lur
##pier
##qa
##verset
##dic
##rans
##rettsvitenskap
##pry
##ømming
##theol
##Hanssen
##panne
##kostbare
##fossile
##inskripsjoner
##integrasjon
##IRA
##Mette
##Oz
##Tes
##cab
##Łodz
##anken
##atro
##ishi
##innet
##brus
##germus
##vikler
##Alfonso
##statisk
##streiken
##Sep
##fullstendige
##godseier
##lubb
##fenben
##sørvestover
##teinfarkt
##Øyene
##landsbyene
##forfattarar
##UCI
##attentatet
##Lorentz
##world
##Otte
##TR
##ija
##mento
##urfolk
##keram
##Ansvar
##finansk
##rekogno
##ideell
##sentralbank
##Tomatoes
##kasser
##bygningane
##attendedels
##utryddet
##Himmler
##Vadsø
##Vere
##aukande
##lemmer
##halsh
##Konsep
##Hadeland
##trommeslagaren
##bevarings
##gymnaset
##tyrkerne
##læra
##tildeling
##isc
##overførte
##feira
##radhuset
##1762
##talande
##sika
##naturvitenskapelige
##trua
##Irving
##tankene
##tilhørt
##representantene
##Egeer
##Bibliografi
##epos
##amas
##delstatens
##grunder
##brikke
##1718
##iserne
##1648
##breidde
##Boul
##dansen
##riksdagen
##Cannes
##vaksen
##patale
##Ship
##Operation
##ekspedisjons
##eksperimentelle
##Aval
##Kana
##zie
##inu
##leys
##olon
##site
##maori
##mara
##ugle
##skiver
##nærare
##biolog
##lærling
##nasjonalisme
##anleggs
##kontaktet
##mobile
##ymse
##tinental
##Buckingham
##Fauske
##adri
##skilling
##Medie
##Andresen
##Teigen
##Gaul
##NOK
##Platon
##herskeren
##rekruttert
##baltiske
##drenerer
##Poll
##Reit
##Trek
##Tull
##Yas
##spalte
##slau
##pole
##1536
##1640
##Chal
##Schon
##Suk
##riddere
##kommandanten
##arkitektonisk
##guddommelige
##Rafael
##ever
##etym
##berry
##1765
##Lec
##Roar
##selvbiografi
##femkamp
##Innbyggj
##Magic
##Prim
##Turisme
##holdssted
##reagerer
##Syvertsen
##Hass
##pod
##adskilte
##series
##fjeld
##kjøle
##Schu
##festninga
##Henan
##seksualitet
##TVNorge
##brukerne
##kvartalet
##kroppsleng
##Zambia
##Gymnas
##Aviation
##begrunnet
##kanseller
##bygder
##Nore
##illusjon
##Fylke
##Portland
##samlealbumet
##coverversjon
##bjørg
##Nikolai
##manipu
##Gia
##Kinn
##dørs
##vale
##anslas
##skikken
##forstas
##trona
##svoger
##bakvingen
##arbeidarar
##Coch
##kunstgress
##forskjellene
##godtok
##ungdommen
##groper
##Høyde
##Borch
##Hotell
##Larsson
##Heime
##intervjuet
##aserbajd
##Papua
##helikoptre
##Cold
##HP
##lekk
##aldrende
##ikom
##idane
##vepser
##samløpet
##visningen
##skjema
##refererte
##radgivere
##Størr
##beslektede
##Modellen
##Fujian
##Benedic
##Eids
##Gates
##Zhong
##dub
##sersj
##døpte
##1759
##sammenbrudd
##eksperter
##skogbruk
##Sciences
##biskopene
##Antarkt
##skyldige
##Hayes
##adelsmann
##225
##Klin
##lio
##kjeda
##ynd
##stress
##eigar
##hauger
##Auguste
##savisen
##vinduet
##kinoer
##navnekomite
##alminnelige
##Alberto
##artiklar
##Strasbourg
##Otter
##Peng
##hoppr
##røntgen
##anslagsvis
##døpe
##1690
##Maren
##Neill
##bekymret
##uria
##usann
##etternavnet
##brettet
##minus
##grunnskole
##kvartal
##nestformann
##passasjerene
##pulver
##athenske
##begrensede
##badmintonspiller
##Ike
##mingen
##muth
##edo
##lier
##ultra
##Stir
##oftere
##Dee
##nærvær
##Ref
##drakta
##Eld
##kronisk
##dommeren
##Krok
##taktikk
##kjelda
##ødeleggelse
##Cameron
##Somerset
##Aberdeen
##Orlando
##Wald
##kninger
##morg
##sna
##zong
##³/
##depre
##amal
##utsending
##hete
##astr
##korall
##drømmer
##planar
##sjefredaktør
##tradformede
##akkord
##formidler
##rehabilitering
##ambulanse
##Thoresen
##Domen
##Wan
##kløft
##132
##arbeidsle
##kompati
##industrial
##Territ
##objektiv
##spektakul
##klassifisering
##motstandsbevegelsen
##igangsatt
##Virksomheten
##French
##Bots
##Chem
##fford
##oppstand
##einer
##høytid
##myte
##Spill
##loo
##Lauren
##Britt
##utbredelsen
##Øvelsen
##begravd
##Statsminister
##Henriette
##neolitt
##Juventus
##Gill
##HV
##Vulkan
##uvanlige
##utsette
##Chr
##Audi
##tilknytte
##Stanford
##høyrte
##hvelvede
##transportere
##suverenitet
##EE
##tjern
##førar
##dian
##Arhus
##breitt
##innehadde
##gjenger
##Elle
##sangere
##kongepokalen
##Preston
##Myan
##flytande
##nakken
##Andrews
##Dragon
##utdødde
##kvinnelandslag
##Cr
##syr
##anstalt
##reb
##spist
##sitert
##bløt
##126
##Bye
##gjenforening
##Baham
##opprettelse
##kantene
##reguleres
##hullet
##sinns
##4x
##Gue
##latte
##reind
##avler
##atori
##senat
##geiter
##trekket
##mellomstore
##kadet
##fransisk
##Midgard
##Duke
##kompagn
##fiolett
##Wimble
##Ibrahim
##Sister
##Tho
##utmatt
##Harfag
##sigar
##snekker
##kopper
##invadere
##skytevapen
##Irish
##schweig
##Bøl
##Cub
##SPA
##cci
##gelse
##antikk
##samtidens
##statar
##Chau
##rill
##Saar
##sigra
##litteraturpris
##Taksonomi
##klatrer
##Amerikas
##Venner
##bords
##leif
##utdrag
##merksem
##unngikk
##miniat
##vindus
##Levi
##dødd
##Nymp
##hitlistene
##konsentrere
##Sturlas
##plagg
##Bengal
##Føn
##ese
##krangel
##ekstern
##stilbud
##Bea
##gjenkjenn
##verkets
##Sandvika
##Buddy
##Akademiet
##Smaland
##Krasno
##Gom
##ralt
##ρι
##inder
##brikker
##legion
##paradis
##1680
##kelsene
##spelarane
##vitnet
##Loire
##nominasjoner
##Bjørg
##kjernekraftverk
##europameister
##Napoleonskrigene
##adresser
##defensive
##sica
##veik
##oppdelt
##sletten
##konsoli
##Stian
##Beaut
##Torbjørn
##Brah
##Player
##beregning
##diskutere
##Micro
##autonom
##ATP
##adoptert
##NE
##Tort
##lea
##dessa
##hardrock
##Rocky
##Nicar
##maleriene
##diagnose
##fridom
##Metropolitan
##Challenge
##OR
##forseg
##reglar
##saksiske
##Bever
##Bygdøy
##avdelingene
##kommanderte
##dynamisk
##krateret
##Isma
##Kjem
##Tiger
##ðar
##undt
##andørs
##obel
##følges
##Avstanden
##japanerne
##Dubai
##Nilen
##formula_3
##landsbyane
##Trio
##ingeniøren
##Ørland
##avdelings
##Luftwa
##Duncan
##rettferdighet
##Mohammed
##Cele
##Sunder
##bæres
##elik
##omsyn
##avant
##oppsetning
##istane
##hette
##igede
##freda
##Skat
##Karn
##fagene
##Colts
##okrates
##regions
##tolkes
##Sjøen
##flasker
##Filosofi
##Fig
##Wander
##др
##ир
##idian
##mestad
##Code
##biografisk
##sesongens
##kapitu
##brygge
##wealth
##sosialismen
##skikkelser
##dalsnes
##buddhisme
##Piper
##stoppested
##geometriske
##kompakt
##Xia
##etat
##velkjente
##melsene
##Holsten
##sjuendeplass
##Internasjonalt
##tilsvarte
##Giuli
##berømmelse
##fruktbare
##Ibn
##harmoni
##ambisi
##tibetanske
##Braunschweig
##Representantenes
##Tømmer
##sark
##andi
##opphøyde
##power
##løpar
##flyplasser
##1716
##1758
##isera
##Sørvest
##generasjons
##fjernes
##studentar
##ignon
##majoriteten
##Orknøyane
##Herakles
##banesy
##splanten
##Any
##mio
##anfall
##inettet
##førselen
##ekv
##Lem
##Landskapet
##føremal
##fantasy
##Frost
##steknikk
##Vitenskapsaret
##illegale
##Grunerløkka
##8000
##Gynt
##Zeit
##dok
##forstander
##ikasjoner
##tero
##verge
##Stens
##vener
##velstand
##boerne
##Atlas
##stamfar
##borgerne
##izhou
##maks
##praktiserte
##dialektene
##Største
##fungert
##Føre
##Gast
##Hek
##MB
##kni
##но
##forlegger
##hane
##slyn
##regasjonen
##1764
##framtredende
##tante
##brigaden
##Popular
##hvalfangst
##reflekterer
##Concert
##hle
##smar
##ان
##arker
##innser
##storbakken
##nordmann
##aktuell
##feransen
##kake
##Rem
##stream
##kapsel
##smart
##nominasjon
##pianisten
##habit
##anbefalt
[...]
