{"version":"1.0","truncation":null,"padding":null,"added_tokens":[{"id":0,"special":true,"content":"<unk>","single_word":false,"lstrip":false,"rstrip":false,"normalized":false}],"normalizer":{"type":"Sequence","normalizers":[{"type":"NFD"},{"type":"StripAccents"}]},"pre_tokenizer":{"type":"Whitespace"},"post_processor":null,"decoder":{"type":"Metaspace","replacement":"▁","str_rep":"▁","add_prefix_space":true},"model":{"type":"BPE","dropout":null,"unk_token":null,"continuing_subword_prefix":null,"end_of_word_suffix":null,"fuse_unk":false,"vocab":{"<unk>":0,"\u0000":1,"\u0003":2,"\u0007":3,"\b":4,"\u001f":5,"!":6,"\"":7,"#":8,"$":9,"%":10,"&":11,"'":12,"(":13,")":14,"*":15,"+":16,",":17,"-":18,".":19,"/":20,"0":21,"1":22,"2":23,"3":24,"4":25,"5":26,"6":27,"7":28,"8":29,"9":30,":":31,";":32,"<":33,"=":34,">":35,"?":36,"@":37,"A":38,"B":39,"C":40,"D":41,"E":42,"F":43,"G":44,"H":45,"I":46,"J":47,"K":48,"L":49,"M":50,"N":51,"O":52,"P":53,"Q":54,"R":55,"S":56,"T":57,"U":58,"V":59,"W":60,"X":61,"Y":62,"Z":63,"[":64,"\\":65,"]":66,"^":67,"_":68,"`":69,"a":70,"b":71,"c":72,"d":73,"e":74,"f":75,"g":76,"h":77,"i":78,"j":79,"k":80,"l":81,"m":82,"n":83,"o":84,"p":85,"q":86,"r":87,"s":88,"t":89,"u":90,"v":91,"w":92,"x":93,"y":94,"z":95,"{":96,"|":97,"}":98,"~":99,"":100,"":101,"":102,"":103,"":104,"":105,"":106,"":107,"":108,"¡":109,"¢":110,"£":111,"¤":112,"¥":113,"¦":114,"§":115,"¨":116,"©":117,"«":118,"¬":119,"­":120,"®":121,"¯":122,"°":123,"±":124,"²":125,"³":126,"´":127,"µ":128,"¶":129,"·":130,"¹":131,"º":132,"»":133,"¼":134,"½":135,"¾":136,"¿":137,"Æ":138,"Ð":139,"×":140,"Ø":141,"Þ":142,"ß":143,"æ":144,"ð":145,"÷":146,"ø":147,"þ":148,"Đ":149,"đ":150,"ı":151,"Ł":152,"ł":153,"Œ":154,"œ":155,"ƒ":156,"ə":157,"ɛ":158,"ʹ":159,"ˆ":160,"ˈ":161,"ː":162,"˚":163,"ˮ":164,"ͼ":165,"Α":166,"Δ":167,"Ε":168,"Ι":169,"Κ":170,"Ο":171,"Π":172,"Σ":173,"Φ":174,"Ω":175,"α":176,"β":177,"γ":178,"δ":179,"ε":180,"η":181,"θ":182,"ι":183,"κ":184,"λ":185,"μ":186,"ν":187,"ξ":188,"ο":189,"π":190,"ρ":191,"ς":192,"σ":193,"τ":194,"υ":195,"φ":196,"χ":197,"ω":198,"Ђ":199,"Ѕ":200,"І":201,"Љ":202,"А":203,"Б":204,"В":205,"Г":206,"Д":207,"Е":208,"Ж":209,"З":210,"И":211,"К":212,"Л":213,"М":214,"Н":215,"О":216,"П":217,"Р":218,"С":219,"Т":220,"У":221,"Ф":222,"Х":223,"Ц":224,"Ч":225,"Ш":226,"Щ":227,"Ы":228,"Э":229,"Я":230,"а":231,"б":232,"в":233,"г":234,"д":235,"е":236,"ж":237,"з":238,"и":239,"к":240,"л":241,"м":242,"н":243,"о":244,"п":245,"р":246,"с":247,"т":248,"у":249,"ф":250,"х":251,"ц":252,"ч":253,"ш":254,"щ":255,"ъ":256,"ы":257,"ь":258,"э":259,"ю":260,"я":261,"ѕ":262,"і":263,"ј":264,"Ґ":265,"ґ":266,"һ":267,"ա":268,"ն":269,"ր":270,"א":271,"ב":272,"ג":273,"ד":274,"ה":275,"ו":276,"ח":277,"י":278,"כ":279,"ל":280,"ם":281,"מ":282,"ן":283,"נ":284,"ס":285,"ע":286,"פ":287,"ק":288,"ר":289,"ש":290,"ת":291,"،":292,"ء":293,"ا":294,"ب":295,"ة":296,"ت":297,"ث":298,"ج":299,"ح":300,"خ":301,"د":302,"ذ":303,"ر":304,"ز":305,"س":306,"ش":307,"ص":308,"ض":309,"ط":310,"ظ":311,"ع":312,"غ":313,"ـ":314,"ف":315,"ق":316,"ك":317,"ل":318,"م":319,"ن":320,"ه":321,"و":322,"ى":323,"ي":324,"پ":325,"چ":326,"ک":327,"گ":328,"ی":329,"ە":330,"क":331,"त":332,"द":333,"न":334,"प":335,"म":336,"य":337,"र":338,"ल":339,"व":340,"स":341,"ह":342,"ক":343,"ন":344,"ব":345,"র":346,"க":347,"த":348,"ன":349,"ப":350,"ம":351,"ர":352,"ก":353,"ข":354,"ค":355,"ง":356,"จ":357,"ช":358,"ด":359,"ต":360,"ท":361,"น":362,"บ":363,"ป":364,"พ":365,"ม":366,"ย":367,"ร":368,"ล":369,"ว":370,"ส":371,"ห":372,"อ":373,"ะ":374,"า":375,"เ":376,"แ":377,"โ":378,"ไ":379,"ა":380,"ე":381,"ი":382,"ლ":383,"ნ":384,"ო":385,"რ":386,"ს":387,"ᄀ":388,"ᄂ":389,"ᄃ":390,"ᄅ":391,"ᄆ":392,"ᄇ":393,"ᄉ":394,"ᄋ":395,"ᄌ":396,"ᄎ":397,"ᄐ":398,"ᄑ":399,"ᄒ":400,"ᅡ":401,"ᅢ":402,"ᅥ":403,"ᅦ":404,"ᅧ":405,"ᅩ":406,"ᅪ":407,"ᅭ":408,"ᅮ":409,"ᅳ":410,"ᅵ":411,"ᆨ":412,"ᆫ":413,"ᆯ":414,"ᆷ":415,"ᆸ":416,"ᆼ":417,"ᐈ":418,"​":419,"‌":420,"‍":421,"‎":422,"‐":423,"‑":424,"‒":425,"–":426,"—":427,"‘":428,"’":429,"‚":430,"“":431,"”":432,"„":433,"†":434,"‡":435,"•":436,"…":437,"‪":438,"‬":439,"′":440,"″":441,"‹":442,"›":443,"₨":444,"€":445,"℃":446,"№":447,"™":448,"←":449,"↑":450,"→":451,"↓":452,"⇒":453,"−":454,"√":455,"≤":456,"≥":457,"─":458,"■":459,"□":460,"▪":461,"▲":462,"▶":463,"►":464,"▻":465,"▼":466,"○":467,"●":468,"☀":469,"★":470,"☆":471,"☺":472,"♀":473,"♡":474,"♣":475,"♥":476,"♦":477,"✅":478,"✌":479,"✓":480,"✔":481,"✚":482,"✨":483,"✭":484,"✰":485,"❄":486,"❑":487,"❤":488,"➔":489,"⠀":490,"⭐":491,"Ⰰ":492,"、":493,"。":494,"「":495,"」":496,"【":497,"】":498,"あ":499,"い":500,"う":501,"え":502,"お":503,"か":504,"き":505,"く":506,"け":507,"こ":508,"さ":509,"し":510,"す":511,"せ":512,"そ":513,"た":514,"ち":515,"っ":516,"つ":517,"て":518,"と":519,"な":520,"に":521,"の":522,"は":523,"ま":524,"み":525,"め":526,"も":527,"や":528,"よ":529,"ら":530,"り":531,"る":532,"れ":533,"わ":534,"を":535,"ん":536,"ア":537,"ィ":538,"イ":539,"ウ":540,"ェ":541,"エ":542,"オ":543,"カ":544,"キ":545,"ク":546,"ケ":547,"コ":548,"サ":549,"シ":550,"ス":551,"セ":552,"タ":553,"チ":554,"ッ":555,"ツ":556,"テ":557,"ト":558,"ナ":559,"ニ":560,"ネ":561,"ハ":562,"ヒ":563,"フ":564,"ヘ":565,"ホ":566,"マ":567,"ミ":568,"ム":569,"メ":570,"ャ":571,"ュ":572,"ョ":573,"ラ":574,"リ":575,"ル":576,"レ":577,"ロ":578,"ン":579,"・":580,"ー":581,"䄀":582,"䈀":583,"䔀":584,"䜀":585,"䠀":586,"䤀":587,"䬀":588,"䰀":589,"䴀":590,"一":591,"万":592,"三":593,"上":594,"下":595,"不":596,"与":597,"世":598,"业":599,"东":600,"个":601,"中":602,"为":603,"主":604,"么":605,"之":606,"乐":607,"九":608,"也":609,"乡":610,"买":611,"了":612,"争":613,"事":614,"二":615,"于":616,"五":617,"交":618,"产":619,"京":620,"人":621,"什":622,"今":623,"他":624,"仙":625,"代":626,"以":627,"件":628,"伀":629,"会":630,"位":631,"体":632,"何":633,"作":634,"使":635,"保":636,"信":637,"元":638,"光":639,"免":640,"入":641,"全":642,"八":643,"公":644,"六":645,"关":646,"内":647,"准":648,"出":649,"刀":650,"分":651,"划":652,"利":653,"到":654,"制":655,"前":656,"力":657,"加":658,"务":659,"动":660,"势":661,"動":662,"匀":663,"化":664,"北":665,"区":666,"十":667,"单":668,"南":669,"博":670,"原":671,"县":672,"双":673,"发":674,"取":675,"口":676,"可":677,"台":678,"号":679,"司":680,"吀":681,"合":682,"同":683,"名":684,"后":685,"吗":686,"和":687,"品":688,"哪":689,"唀":690,"商":691,"器":692,"四":693,"回":694,"国":695,"图":696,"在":697,"地":698,"场":699,"址":700,"坛":701,"城":702,"場":703,"外":704,"多":705,"大":706,"天":707,"太":708,"头":709,"奖":710,"女":711,"好":712,"如":713,"姐":714,"娱":715,"婆":716,"子":717,"字":718,"学":719,"安":720,"官":721,"定":722,"宝":723,"实":724,"客":725,"家":726,"富":727,"对":728,"小":729,"少":730,"就":731,"尾":732,"展":733,"山":734,"川":735,"州":736,"工":737,"巧":738,"市":739,"平":740,"年":741,"广":742,"庆":743,"库":744,"店":745,"度":746,"建":747,"开":748,"式":749,"当":750,"录":751,"彩":752,"影":753,"律":754,"得":755,"微":756,"心":757,"必":758,"快":759,"怎":760,"思":761,"性":762,"情":763,"意":764,"感":765,"戏":766,"成":767,"我":768,"户":769,"所":770,"手":771,"打":772,"技":773,"投":774,"报":775,"拉":776,"挂":777,"提":778,"播":779,"教":780,"数":781,"文":782,"料":783,"斯":784,"新":785,"方":786,"无":787,"日":788,"时":789,"明":790,"星":791,"是":792,"時":793,"更":794,"最":795,"月":796,"有":797,"服":798,"期":799,"木":800,"本":801,"机":802,"杀":803,"村":804,"来":805,"東":806,"林":807,"枚":808,"果":809,"校":810,"样":811,"格":812,"業":813,"正":814,"比":815,"民":816,"氓":817,"水":818,"江":819,"河":820,"法":821,"波":822,"注":823,"活":824,"流":825,"测":826,"海":827,"港":828,"游":829,"湖":830,"澳":831,"点":832,"爱":833,"片":834,"版":835,"牌":836,"牛":837,"物":838,"特":839,"狗":840,"玄":841,"王":842,"玩":843,"现":844,"球":845,"理":846,"生":847,"用":848,"田":849,"电":850,"白":851,"百":852,"的":853,"目":854,"盲":855,"直":856,"相":857,"看":858,"県":859,"真":860,"知":861,"石":862,"码":863,"社":864,"神":865,"票":866,"福":867,"科":868,"程":869,"站":870,"第":871,"等":872,"算":873,"管":874,"精":875,"系":876,"红":877,"线":878,"组":879,"经":880,"结":881,"网":882,"美":883,"群":884,"老":885,"者":886,"肖":887,"能":888,"自":889,"色":890,"花":891,"行":892,"表":893,"西":894,"要":895,"规":896,"解":897,"计":898,"记":899,"论":900,"诗":901,"财":902,"费":903,"资":904,"赌":905,"赛":906,"赢":907,"走":908,"跑":909,"路":910,"车":911,"软":912,"载":913,"过":914,"这":915,"进":916,"送":917,"选":918,"通":919,"道":920,"部":921,"都":922,"里":923,"重":924,"金":925,"钱":926,"镇":927,"长":928,"门":929,"阳":930,"际":931,"限":932,"院":933,"集":934,"霸":935,"青":936,"面":937,"音":938,"预":939,"食":940,"香":941,"马":942,"高":943,"黄":944,"龙":945,"":946,"ﬁ":947,"ﬂ":948,"﻿":949,"！":950,"（":951,"）":952,"，":953,"：":954,"ｩ":955,"ﾞ":956,"�":957,"🌟":958,"🌸":959,"🎉":960,"🏻":961,"🏼":962,"👊":963,"👌":964,"👍":965,"👏":966,"💕":967,"💖":968,"💗":969,"💙":970,"💚":971,"💛":972,"💜":973,"💪":974,"😀":975,"😁":976,"😂":977,"😃":978,"😄":979,"😅":980,"😆":981,"😉":982,"😊":983,"😋":984,"😍":985,"😎":986,"😘":987,"😛":988,"😜":989,"😦":990,"😱":991,"😳":992,"🙁":993,"🙂":994,"🙄":995,"🙈":996,"🙌":997,"🙏":998,"🤔":999,"🤗":1000,"ar":1001,"en":1002,"er":1003,"an":1004,"or":1005,"in":1006,"et":1007,"at":1008,"ll":1009,"st":1010,"om":1011,"ag":1012,"de":1013,"oc":1014,"att":1015,"och":1016,"ig":1017,"sk":1018,"for":1019,"on":1020,"ti":1021,"al":1022,"ing":1023,"ed":1024,"sa":1025,"ra":1026,"pa":1027,"na":1028,"var":1029,"vi":1030,"av":1031,"som":1032,"det":1033,"te":1034,"all":1035,"re":1036,"un":1037,"med":1038,"li":1039,"den":1040,"ck":1041,"and":1042,"ut":1043,"el":1044,"till":1045,"har":1046,"ter":1047,"ta":1048,"lig":1049,"pp":1050,"ning":1051,"la":1052,"ri":1053,"ro":1054,"ver":1055,"der":1056,"man":1057,"ska":1058,"it":1059,"jag":1060,"ss":1061,"kt":1062,"kan":1063,"il":1064,"ka":1065,"ma":1066,"va":1067,"sta":1068,"ot":1069,"ol":1070,"da":1071,"ran":1072,"inte":1073,"ett":1074,"ell":1075,"ur":1076,"sp":1077,"be":1078,"kom":1079,"du":1080,"ang":1081,"men":1082,"le":1083,"are":1084,"ade":1085,"og":1086,"mer":1087,"se":1088,"upp":1089,"as":1090,"ati":1091,"sam":1092,"inn":1093,"si":1094,"ju":1095,"ande":1096,"het":1097,"nar":1098,"em":1099,"bar":1100,"am":1101,"ok":1102,"ser":1103,"dag":1104,"ho":1105,"Det":1106,"bor":1107,"lag":1108,"yck":1109,"far":1110,"sen":1111,"ga":1112,"per":1113,"del":1114,"..":1115,"ch":1116,"ock":1117,"gen":1118,"min":1119,"fran":1120,"eller":1121,"dig":1122,"bet":1123,"val":1124,"gi":1125,"fter":1126,"fa":1127,"mar":1128,"ha":1129,"ste":1130,"lar":1131,"ru":1132,"gar":1133,"ort":1134,"di":1135,"ba":1136,"dar":1137,"nag":1138,"under":1139,"ko":1140,"sig":1141,"bli":1142,"kon":1143,"alla":1144,"ann":1145,"ation":1146,"es":1147,"han":1148,"over":1149,"lan":1150,"gor":1151,"ligt":1152,"fi":1153,"od":1154,"tt":1155,"ull":1156,"ram":1157,"ny":1158,"pro":1159,"vara":1160,"ger":1161,"hel":1162,"itt":1163,"ber":1164,"sl":1165,"stor":1166,"mo":1167,"kti":1168,"ad":1169,"Vi":1170,"ster":1171,"ni":1172,"satt":1173,"ker":1174,"gr":1175,"bil":1176,"Jag":1177,"land":1178,"us":1179,"van":1180,"00":1181,"tra":1182,"nu":1183,"kar":1184,"me":1185,"ven":1186,"ve":1187,"dr":1188,"is":1189,"ul":1190,"je":1191,"jal":1192,"ex":1193,"ens":1194,"efter":1195,"red":1196,"kommer":1197,"lat":1198,"sin":1199,"yg":1200,"finn":1201,"ft":1202,"ja":1203,"mig":1204,"fl":1205,"ill":1206,"son":1207,"und":1208,"hall":1209,"igt":1210,"vid":1211,"bb":1212,"finns":1213,"stall":1214,"Den":1215,"vill":1216,"sy":1217,"tal":1218,"vis":1219,"hand":1220,"bara":1221,"ken":1222,"tid":1223,"ycket":1224,"vet":1225,"lo":1226,"po":1227,"mat":1228,"mot":1229,"liga":1230,"arna":1231,"fram":1232,"andra":1233,"gang":1234,"For":1235,"arbet":1236,"bra":1237,"lang":1238,"fe":1239,"star":1240,"kr":1241,"lite":1242,"20":1243,"vand":1244,"par":1245,"ling":1246,"tr":1247,"iga":1248,"um":1249,"so":1250,"jo":1251,"In":1252,"mycket":1253,"des":1254,"svar":1255,"hon":1256,"verk":1257,"era":1258,"ningen":1259,"sag":1260,"hem":1261,"ligen":1262,"tar":1263,"spel":1264,"ud":1265,"mal":1266,"sti":1267,"tan":1268,"ocksa":1269,"ord":1270,"bo":1271,"aven":1272,"En":1273,"jt":1274,"fin":1275,"kun":1276,"vag":1277,"of":1278,"allt":1279,"erna":1280,"slut":1281,"tre":1282,"ble":1283,"met":1284,"vil":1285,"din":1286,"hade":1287,"nat":1288,"ratt":1289,"hur":1290,"ningar":1291,"ulle":1292,"ten":1293,"ner":1294,"ingen":1295,"19":1296,"veck":1297,"edan":1298,"tro":1299,"An":1300,"fol":1301,"Men":1302,"tor":1303,"tag":1304,"ty":1305,"vad":1306,"mi":1307,"skri":1308,"genom":1309,"bl":1310,"lika":1311,"bi":1312,"skulle":1313,"De":1314,"ne":1315,"skt":1316,"lu":1317,"mor":1318,"jan":1319,"ket":1320,"blir":1321,"ci":1322,"ge":1323,"kv":1324,"dan":1325,"utan":1326,"fr":1327,"str":1328,"ater":1329,"ce":1330,"ds":1331,"pr":1332,"dom":1333,"...":1334,"led":1335,"kna":1336,"fall":1337,"fil":1338,"201":1339,"kla":1340,"kor":1341,"form":1342,"anvand":1343,"person":1344,"sok":1345,"klar":1346,"beho":1347,"sjal":1348,"jar":1349,"hog":1350,"jer":1351,"pre":1352,"ingar":1353,"nagon":1354,"gora":1355,"sn":1356,"saker":1357,"fatt":1358,"stan":1359,"sex":1360,"hu":1361,"oss":1362,"Ar":1363,"dejt":1364,"kra":1365,"maste":1366,"digt":1367,"orr":1368,"Har":1369,"pen":1370,"ala":1371,"os":1372,"ske":1373,"fort":1374,"forsta":1375,"nagot":1376,"vs":1377,"mun":1378,"manga":1379,"ent":1380,"sla":1381,"vin":1382,"barn":1383,"inne":1384,"pri":1385,"detta":1386,"plat":1387,"run":1388,"yr":1389,"lin":1390,"dat":1391,"opp":1392,"kten":1393,"samt":1394,"sten":1395,"dejting":1396,"he":1397,"skap":1398,"hi":1399,"ppa":1400,"tva":1401,"fick":1402,"hal":1403,"gj":1404,"sedan":1405,"dem":1406,"bland":1407,"ende":1408,"St":1409,"ke":1410,"ktion":1411,"nings":1412,"fri":1413,"lla":1414,"rikt":1415,"blev":1416,"by":1417,"byg":1418,"tion":1419,"dre":1420,"Sa":1421,"kel":1422,"hol":1423,"gan":1424,"verig":1425,"frag":1426,"ilj":1427,"olika":1428,"helt":1429,"heter":1430,"batt":1431,"kter":1432,"ott":1433,"sjalv":1434,"atis":1435,"vit":1436,"las":1437,"no":1438,"Om":1439,"hela":1440,"ari":1441,"spe":1442,"heten":1443,"fy":1444,"skar":1445,"mm":1446,"hor":1447,"igen":1448,"rum":1449,"Pa":1450,"hus":1451,"ats":1452,"hjal":1453,"aren":1454,"ets":1455,"ellan":1456,"latt":1457,"Sverig":1458,"nagra":1459,"lad":1460,"itta":1461,"ans":1462,"res":1463,"br":1464,"rad":1465,").":1466,"nam":1467,"sven":1468,"Var":1469,"Nar":1470,"ts":1471,"huv":1472,"ff":1473,"age":1474,"vatt":1475,"nya":1476,"varit":1477,"do":1478,"utom":1479,"denna":1480,"samma":1481,"ult":1482,"moj":1483,"Och":1484,"cer":1485,"tern":1486,"etag":1487,"sal":1488,"fun":1489,"holm":1490,"tran":1491,"skor":1492,"cka":1493,"inom":1494,"ella":1495,"ligger":1496,"samman":1497,"bru":1498,"mellan":1499,"kommun":1500,"Du":1501,"skol":1502,"stra":1503,"Li":1504,"ssi":1505,"kop":1506,"bu":1507,"ki":1508,"tyck":1509,"ly":1510,"ia":1511,"eder":1512,"slag":1513,"su":1514,"tem":1515,"bild":1516,"runt":1517,"reg":1518,"medel":1519,"ssa":1520,"bro":1521,"op":1522,"ata":1523,"mass":1524,"bord":1525,"yd":1526,"innan":1527,"idag":1528,"10":1529,"hen":1530,"sna":1531,"ski":1532,"foretag":1533,"ings":1534,"kta":1535,"annat":1536,"yn":1537,"ca":1538,"pel":1539,"anda":1540,"18":1541,"dagen":1542,"huvud":1543,"eter":1544,"sson":1545,"ant":1546,"bju":1547,"sar":1548,"fam":1549,"ef":1550,"cen":1551,"produ":1552,"ks":1553,"plan":1554,"ban":1555,"lagg":1556,"vikt":1557,"ym":1558,"eri":1559,"200":1560,"Nu":1561,"stu":1562,"egen":1563,"vilket":1564,"uren":1565,"ockholm":1566,"sju":1567,"ir":1568,"mana":1569,"nas":1570,"kanske":1571,"bok":1572,"ham":1573,"utveck":1574,"stand":1575,"vax":1576,"lam":1577,"eg":1578,"mitt":1579,"full":1580,"Sverige":1581,"meter":1582,"yt":1583,"we":1584,"sma":1585,"nog":1586,"dra":1587,"gra":1588,"Han":1589,"sina":1590,"aldr":1591,"itet":1592,"namn":1593,"hos":1594,"gratis":1595,"bade":1596,"bygg":1597,"tiden":1598,"stad":1599,"gall":1600,"ov":1601,"dessa":1602,"varl":1603,"iska":1604,"orn":1605,"onen":1606,"gick":1607,"manni":1608,"stora":1609,"snitt":1610,"kort":1611,"ung":1612,"behover":1613,"kunna":1614,"ote":1615,"vart":1616,"dor":1617,"kli":1618,"ug":1619,"Ma":1620,"erade":1621,"kl":1622,"fore":1623,"plats":1624,"ederbord":1625,"berg":1626,"vt":1627,"skil":1628,"ns":1629,"alt":1630,"drag":1631,"sager":1632,"ment":1633,"basta":1634,"gran":1635,"ring":1636,"ali":1637,"sch":1638,"kat":1639,"else":1640,"hav":1641,"id":1642,"alltid":1643,"borg":1644,"to":1645,"nen":1646,"mu":1647,"bel":1648,"familj":1649,"fast":1650,"kvar":1651,"pass":1652,"sitt":1653,"lighet":1654,"kvall":1655,"akt":1656,"co":1657,"Med":1658,"Un":1659,"pu":1660,"kte":1661,"nad":1662,"pi":1663,"ina":1664,"pe":1665,"ror":1666,"stam":1667,"Re":1668,"tress":1669,"liv":1670,"tu":1671,"sko":1672,"visa":1673,"komma":1674,"sak":1675,"flera":1676,"perat":1677,"valdigt":1678,"uni":1679,"ele":1680,"just":1681,"riktigt":1682,"mil":1683,"15":1684,"grund":1685,"god":1686,"kade":1687,"varje":1688,"fot":1689,"enda":1690,"sor":1691,"Jo":1692,"ast":1693,"Sk":1694,"sol":1695,"stod":1696,"ren":1697,"Att":1698,"lik":1699,"gjor":1700,"dess":1701,"formation":1702,"ps":1703,"oner":1704,"km":1705,"!!":1706,"hy":1707,"pl":1708,"pan":1709,"talet":1710,"tog":1711,"hitta":1712,"poli":1713,"battre":1714,"fan":1715,"ellt":1716,"sida":1717,"innor":1718,"deras":1719,"ofta":1720,"tje":1721,"tycker":1722,"haller":1723,"skon":1724,"gram":1725,"intress":1726,"tidig":1727,"spar":1728,"job":1729,"Efter":1730,"grupp":1731,"Da":1732,"akti":1733,"vatten":1734,"mark":1735,"erar":1736,"rekt":1737,"nor":1738,"bilder":1739,"ars":1740,"gre":1741,"kommen":1742,"empel":1743,"temperat":1744,"verkligen":1745,"eftersom":1746,"Man":1747,"Ja":1748,"mmar":1749,"kost":1750,"omra":1751,"kro":1752,"30":1753,"gam":1754,"Stockholm":1755,"lever":1756,"im":1757,"skall":1758,"rel":1759,"kring":1760,"blog":1761,"Sex":1762,"dock":1763,"sit":1764,"mina":1765,"alog":1766,"jobb":1767,"alen":1768,"ic":1769,"annan":1770,"sammans":1771,"Detta":1772,"svart":1773,"ej":1774,"morg":1775,"stem":1776,"ien":1777,"stallet":1778,"borj":1779,"ue":1780,"galler":1781,"regi":1782,"bort":1783,"erbju":1784,"manniskor":1785,"sm":1786,"tack":1787,"tjan":1788,"kunde":1789,"kall":1790,"satta":1791,"syn":1792,"landet":1793,"fon":1794,"handling":1795,"mest":1796,"delen":1797,"manaden":1798,"tera":1799,"12":1800,"film":1801,"baka":1802,"Al":1803,"porr":1804,"lek":1805,"ller":1806,"svenska":1807,"konst":1808,"verksam":1809,"ationer":1810,"ktet":1811,"san":1812,"lju":1813,"dri":1814,"gjort":1815,"staden":1816,"garna":1817,"bri":1818,"folj":1819,"bol":1820,"konta":1821,"hjalp":1822,"fo":1823,"sett":1824,"exempel":1825,"enkel":1826,"snabb":1827,"aldrig":1828,"skre":1829,"tror":1830,"temperaturen":1831,"kri":1832,"klart":1833,"dagar":1834,"go":1835,"tidigt":1836,"ering":1837,"arbete":1838,"kni":1839,"tidigare":1840,"gifter":1841,"information":1842,"beratt":1843,"speci":1844,"ik":1845,"redan":1846,"Ett":1847,"ades":1848,"gjorde":1849,"mang":1850,"Som":1851,"lyck":1852,"enligt":1853,"aste":1854,"Gen":1855,"ons":1856,"app":1857,"line":1858,"soker":1859,"net":1860,"ost":1861,"halla":1862,"nytt":1863,"ute":1864,"tillsammans":1865,"ditt":1866,"folk":1867,"massage":1868,"fler":1869,"dags":1870,"sidan":1871,"medeltemperaturen":1872,"50":1873,"honom":1874,"ighet":1875,"jam":1876,"Till":1877,"varlden":1878,"erad":1879,"yl":1880,"ktiskt":1881,"hemma":1882,"tillbaka":1883,"familjen":1884,"vide":1885,"),":1886,"betal":1887,"Sven":1888,"dina":1889,"proble":1890,"17":1891,"Mar":1892,"kur":1893,"rak":1894,"kvinnor":1895,"agen":1896,"klu":1897,"llar":1898,"natt":1899,"proc":1900,"orna":1901,":)":1902,"Gr":1903,"mindre":1904,"hans":1905,"cker":1906,"nederbord":1907,"lit":1908,"soka":1909,"oci":1910,"ys":1911,"storre":1912,"kil":1913,"lista":1914,"atte":1915,"ganska":1916,"komp":1917,"Be":1918,"isk":1919,"direkt":1920,"pun":1921,"lev":1922,"nes":1923,"skolan":1924,"16":1925,"mma":1926,"nade":1927,"ku":1928,"sty":1929,"tryck":1930,"cort":1931,"fle":1932,"Kan":1933,"markna":1934,"tit":1935,"Ta":1936,"All":1937,"Hon":1938,"pt":1939,"skyd":1940,"saga":1941,"tade":1942,"webb":1943,"ier":1944,"jor":1945,"andel":1946,"bla":1947,"sommar":1948,"Under":1949,"presen":1950,"fors":1951,"sjuk":1952,"kanner":1953,"ultat":1954,"fru":1955,"lor":1956,"hop":1957,"000":1958,"rik":1959,"haft":1960,"ton":1961,"morgon":1962,"cis":1963,"kalla":1964,"forst":1965,"fel":1966,"dal":1967,"faktiskt":1968,"La":1969,"cy":1970,"lle":1971,"sadan":1972,"vning":1973,"mon":1974,"Mo":1975,"natur":1976,"sion":1977,"olog":1978,"vard":1979,"ppas":1980,"Ba":1981,"stat":1982,"kul":1983,"band":1984,"anvanda":1985,"infor":1986,"ometer":1987,"program":1988,"liten":1989,"utveckling":1990,"her":1991,"kande":1992,"sikt":1993,"tv":1994,"medle":1995,"vann":1996,"anga":1997,"14":1998,"delar":1999,"snar":2000,"Kom":2001,"bas":2002,"match":2003,"tik":2004,"konom":2005,"Pro":2006,"les":2007,"ssen":2008,"Sam":2009,"verkar":2010,"utbild":2011,"beslut":2012,"lok":2013,"ationen":2014,"hitt":2015,"oteborg":2016,"Genom":2017,"uro":2018,"Bo":2019,"samhall":2020,"sidor":2021,"sat":2022,"kval":2023,"personer":2024,"sattning":2025,"lade":2026,"enkelt":2027,"pengar":2028,"uter":2029,"11":2030,"ena":2031,"trakten":2032,"kva":2033,"lange":2034,"kilometer":2035,"vare":2036,"derna":2037,"henne":2038,"the":2039,"ick":2040,"mid":2041,"ara":2042,"jul":2043,"ffar":2044,"ember":2045,"pla":2046,"Kon":2047,"enhet":2048,"bon":2049,"null":2050,"ativ":2051,"Dar":2052,"tur":2053,"los":2054,"bart":2055,"ator":2056,"problem":2057,"underar":2058,"via":2059,"eng":2060,"igaste":2061,"Va":2062,"pris":2063,"ned":2064,"Mal":2065,"havet":2066,"ry":2067,"mera":2068,"Vad":2069,"histor":2070,"SA":2071,"inget":2072,"fly":2073,"effe":2074,"ate":2075,"langre":2076,"kropp":2077,"rar":2078,"ron":2079,"visar":2080,"por":2081,"borjar":2082,"jur":2083,"foren":2084,"kanns":2085,"gift":2086,"ie":2087,"erat":2088,"Se":2089,"bin":2090,"stort":2091,"Ut":2092,"stru":2093,"ow":2094,"Le":2095,"tas":2096,"arbets":2097,"organ":2098,"roligt":2099,"nan":2100,"disk":2101,"tat":2102,"blivit":2103,"Ha":2104,"get":2105,"gu":2106,"gangen":2107,"Hur":2108,"Ro":2109,"tav":2110,"bolag":2111,"bud":2112,"ide":2113,"Na":2114,"risk":2115,"Upp":2116,"mit":2117,"behov":2118,"minst":2119,"typ":2120,"Inga":2121,"13":2122,"terna":2123,"tex":2124,"kraft":2125,"ler":2126,"fanta":2127,"Kar":2128,"darfor":2129,"ygg":2130,"mt":2131,"Val":2132,"ree":2133,"kopa":2134,"online":2135,"nastan":2136,"skog":2137,"lug":2138,"system":2139,"farande":2140,"resultat":2141,"ffa":2142,"borjade":2143,"ansvar":2144,"sang":2145,"fragor":2146,"kron":2147,"innebar":2148,"Sen":2149,"hun":2150,"Per":2151,"svensk":2152,"skapa":2153,"inga":2154,"uppgifter":2155,"besok":2156,"bed":2157,"ekonom":2158,"Hel":2159,"aga":2160,"vat":2161,"ansi":2162,"Tra":2163,"centr":2164,"musi":2165,"precis":2166,"stol":2167,"fem":2168,"intern":2169,"jekt":2170,"Cat":2171,"Idag":2172,"ligare":2173,"ben":2174,"trad":2175,"hopp":2176,"stri":2177,"my":2178,"funktion":2179,"nara":2180,"senaste":2181,"uari":2182,"stallning":2183,"skatt":2184,"agg":2185,"ine":2186,"fer":2187,"ou":2188,"hai":2189,"drar":2190,"storsta":2191,"bran":2192,"senare":2193,"verksamhet":2194,"tjejer":2195,"Nor":2196,"skrevs":2197,"Stor":2198,"tillgang":2199,"lasa":2200,"farg":2201,"dro":2202,"forsk":2203,"funger":2204,"Ny":2205,"back":2206,"gott":2207,"regn":2208,"skriva":2209,"annu":2210,"dare":2211,"sing":2212,"25":2213,"Fran":2214,"handlar":2215,"miljo":2216,"vagen":2217,"com":2218,"istallet":2219,"drat":2220,"jut":2221,"extra":2222,"januari":2223,"Life":2224,"vande":2225,"vidare":2226,"ret":2227,"hennes":2228,"soci":2229,"ux":2230,"vanligt":2231,"stalla":2232,"milj":2233,"troll":2234,"kontakt":2235,"slaktet":2236,"mini":2237,"alltsa":2238,"fortfarande":2239,"Min":2240,"asin":2241,"ergi":2242,"rang":2243,"kam":2244,"kopp":2245,"aret":2246,"livet":2247,"glad":2248,"AR":2249,"Ju":2250,"\".":2251,"beskrevs":2252,"dens":2253,"gav":2254,"mode":2255,"log":2256,"kred":2257,"tekni":2258,"vilken":2259,"dejtingsa":2260,"lara":2261,"Av":2262,"parti":2263,"one":2264,"sista":2265,"ktor":2266,"ville":2267,"ocker":2268,"bak":2269,"hittar":2270,"underarter":2271,"tligen":2272,"aldre":2273,"listade":2274,"pra":2275,"invan":2276,"tele":2277,"sarskil":2278,"ihop":2279,"Ch":2280,"klader":2281,"alogue":2282,"Catalogue":2283,"sj":2284,"vissa":2285,"bad":2286,"arti":2287,"strom":2288,"skan":2289,"tills":2290,"vilka":2291,"ifran":2292,"So":2293,"100":2294,"tell":2295,"inner":2296,"anns":2297,"tiska":2298,"slapp":2299,"bal":2300,"io":2301,"satter":2302,"gatt":2303,"ganger":2304,"styr":2305,"illi":2306,"bestam":2307,"elser":2308,"fred":2309,"filmer":2310,"studi":2311,"nande":2312,"genomsnitt":2313,"sv":2314,"timmar":2315,"Alla":2316,"hang":2317,"IN":2318,"helst":2319,"handel":2320,"fli":2321,"gamla":2322,"samtidigt":2323,"endast":2324,"jd":2325,"tyd":2326,"skriver":2327,"Te":2328,"hin":2329,"anvander":2330,"eras":2331,"nasta":2332,"oku":2333,"hjar":2334,"produkter":2335,"materi":2336,"blogg":2337,"199":2338,"skal":2339,"forut":2340,"fantasti":2341,"ak":2342,"fina":2343,"ww":2344,"ses":2345,"fod":2346,"skin":2347,"oli":2348,"gri":2349,"framfor":2350,"ER":2351,"mojligt":2352,"40":2353,"bety":2354,"salj":2355,"utfor":2356,"lagga":2357,"port":2358,"snart":2359,"huvudstaden":2360,"Lin":2361,"platser":2362,"tagit":2363,"invanare":2364,"teck":2365,"rade":2366,"procent":2367,"ore":2368,"flesta":2369,"ont":2370,"juli":2371,"posi":2372,"ac":2373,"styrel":2374,"spela":2375,"sport":2376,"lun":2377,"lagen":2378,"The":2379,"vecka":2380,"snabbt":2381,"miss":2382,"skick":2383,"Ber":2384,"fyll":2385,"kommit":2386,"ab":2387,"fint":2388,"ogra":2389,"inlagg":2390,"unga":2391,"borja":2392,"dit":2393,"bit":2394,"dej":2395,"fyra":2396,"mojlig":2397,"indi":2398,"verka":2399,"kredit":2400,"ard":2401,"tri":2402,"xx":2403,"publi":2404,"sjalva":2405,"AN":2406,"sitter":2407,"ytter":2408,"mamma":2409,"veckan":2410,"behandling":2411,"ibland":2412,"Las":2413,"kare":2414,"tel":2415,"aka":2416,"ugu":2417,"bred":2418,"oka":2419,"hotell":2420,"kok":2421,"huset":2422,"iskt":2423,"ovr":2424,"ting":2425,"Or":2426,"ktiv":2427,"viktigt":2428,"kanna":2429,"boll":2430,"altern":2431,"kult":2432,"eta":2433,"hoppas":2434,"dessutom":2435,"vice":2436,"nyg":2437,"egna":2438,"stads":2439,"mojlighet":2440,"Bar":2441,"tot":2442,"kant":2443,"edel":2444,"escort":2445,"Porr":2446,"minuter":2447,"massa":2448,"valja":2449,"varfor":2450,"EN":2451,"emot":2452,"tering":2453,"Goteborg":2454,"Gratis":2455,"smar":2456,"bill":2457,"skade":2458,"spro":2459,"rat":2460,"....":2461,"lon":2462,"num":2463,"trev":2464,"igar":2465,"brukar":2466,"mande":2467,"kvadrat":2468,"ins":2469,"rack":2470,"andet":2471,"nord":2472,"borde":2473,"natet":2474,"omradet":2475,"rapp":2476,"Ho":2477,"atta":2478,"Par":2479,"gat":2480,"roll":2481,"rom":2482,"Bil":2483,"fta":2484,"nov":2485,"ssion":2486,"Ars":2487,"fraga":2488,"bada":2489,"raste":2490,"Ni":2491,"lands":2492,"60":2493,"Vid":2494,"djur":2495,"langt":2496,"material":2497,"fik":2498,"skort":2499,"musik":2500,"passa":2501,"ovan":2502,"24":2503,"egentligen":2504,"oppen":2505,"valt":2506,"Fa":2507,"tanka":2508,"sade":2509,"Ty":2510,"flyt":2511,"pper":2512,"set":2513,"dating":2514,"terar":2515,"Aven":2516,"borjan":2517,"ob":2518,"tes":2519,"dy":2520,"traff":2521,"sakerhet":2522,"don":2523,"perfe":2524,"sall":2525,"kunder":2526,"organis":2527,"sli":2528,"fanns":2529,"fra":2530,"gillar":2531,"allman":2532,"dent":2533,"kyr":2534,"kap":2535,"utbildning":2536,"flyg":2537,"Denna":2538,"Si":2539,"arbetar":2540,"skola":2541,"ledning":2542,"Ex":2543,"nader":2544,"video":2545,"inter":2546,"bast":2547,"stockholm":2548,"erfar":2549,"nit":2550,"trots":2551,"varmaste":2552,"ori":2553,"hogsta":2554,"AB":2555,"rev":2556,"ppar":2557,"Ra":2558,"kallaste":2559,"milli":2560,"finansi":2561,"ots":2562,"Mi":2563,"alls":2564,"Car":2565,"lom":2566,"alder":2567,"Arsmedeltemperaturen":2568,"anal":2569,"kill":2570,"forsa":2571,"inna":2572,"erbjuder":2573,"kronor":2574,"hund":2575,"ffe":2576,"klimat":2577,"halv":2578,"Inte":2579,"ugusti":2580,"sto":2581,"ank":2582,"vast":2583,"niva":2584,"medan":2585,"tjej":2586,"heller":2587,"2018":2588,"millimeter":2589,"tillfall":2590,"brott":2591,"platt":2592,"energi":2593,"samling":2594,"kvadratkilometer":2595,"Genomsnitt":2596,"xa":2597,"unt":2598,"”.":2599,"skill":2600,"anser":2601,"tips":2602,"Ri":2603,"tom":2604,"sign":2605,"anden":2606,"Euro":2607,"dejta":2608,"bero":2609,"dera":2610,"vux":2611,"projekt":2612,"spir":2613,"Ska":2614,"tisk":2615,"lilla":2616,"meri":2617,"ander":2618,"tiker":2619,"igenom":2620,"Ne":2621,"arsn":2622,"snyg":2623,"igheter":2624,"das":2625,"Genomsnittlig":2626,"augusti":2627,"Sedan":2628,"koping":2629,"vanliga":2630,"torraste":2631,"even":2632,"Svenska":2633,"OR":2634,"up":2635,"regnigaste":2636,"arsnederbord":2637,"medlem":2638,"antal":2639,"natdejting":2640,"art":2641,"illa":2642,"hjalpa":2643,"varandra":2644,"kontroll":2645,"ero":2646,"orer":2647,"spann":2648,"Fin":2649,"tim":2650,"huvudsak":2651,"tavling":2652,"Di":2653,"vack":2654,"bilen":2655,"Nag":2656,"hast":2657,"22":2658,"cept":2659,"forvan":2660,"est":2661,"Tro":2662,"splat":2663,"omen":2664,"Sveriges":2665,"passar":2666,"foljande":2667,"jatte":2668,"vanner":2669,"vall":2670,"rader":2671,"rym":2672,"forslag":2673,"Vil":2674,"haha":2675,"sagt":2676,"utanfor":2677,"dec":2678,"maj":2679,"xi":2680,"dela":2681,"alskar":2682,"vers":2683,"casin":2684,"fu":2685,"mis":2686,"gard":2687,"matt":2688,"elsen":2689,"resa":2690,"uld":2691,"hander":2692,"Bor":2693,"ften":2694,"sfor":2695,"fragan":2696,"spelare":2697,"ST":2698,"cir":2699,"spri":2700,"\",":2701,"chef":2702,"sason":2703,"gla":2704,"jord":2705,"qu":2706,"sep":2707,"staende":2708,"juni":2709,"spelar":2710,"knull":2711,"bun":2712,"myn":2713,"arbetet":2714,"gemen":2715,"nars":2716,"manad":2717,"blom":2718,"ogon":2719,"ager":2720,"prat":2721,"aler":2722,"dels":2723,"fla":2724,"gym":2725,"varde":2726,"jol":2727,"sakert":2728,"fora":2729,"70":2730,"hit":2731,"gron":2732,"thai":2733,"laget":2734,"Vill":2735,"Ko":2736,"affar":2737,"ini":2738,"Co":2739,"80":2740,"veckor":2741,"Ti":2742,"fav":2743,"dade":2744,"narheten":2745,"rut":2746,"dod":2747,"2017":2748,"last":2749,"nummer":2750,"gol":2751,"trott":2752,"dition":2753,"malt":2754,"unge":2755,"sarskilt":2756,"krav":2757,"gener":2758,"tanker":2759,"igh":2760,"boken":2761,"aa":2762,"ong":2763,"hag":2764,"veta":2765,"21":2766,"Gu":2767,"leva":2768,"elever":2769,"serna":2770,"let":2771,"Allt":2772,"kning":2773,"th":2774,"sprak":2775,"manader":2776,"ations":2777,"Es":2778,"Ka":2779,"platsen":2780,"kal":2781,"ess":2782,"orter":2783,"sera":2784,"anti":2785,"forhall":2786,"bestar":2787,"klass":2788,"vari":2789,"amp":2790,"maskin":2791,"vaxt":2792,"forstar":2793,"forra":2794,"dju":2795,"redo":2796,"telefon":2797,"wa":2798,"off":2799,"avslut":2800,"drom":2801,"stil":2802,"registr":2803,"out":2804,"ress":2805,"server":2806,"mag":2807,"uti":2808,"akte":2809,"forand":2810,"anvands":2811,"norr":2812,"omfatt":2813,"Far":2814,"otter":2815,"rost":2816,"steg":2817,"Dan":2818,"rangen":2819,"bedom":2820,"23":2821,"varr":2822,"rist":2823,"Dess":2824,"forsoka":2825,"Mari":2826,"viss":2827,"rekommen":2828,"traning":2829,"ktur":2830,"verket":2831,"AL":2832,"slo":2833,"Su":2834,"knapp":2835,"givning":2836,"fullt":2837,"stau":2838,"varande":2839,"upplev":2840,"styrelsen":2841,"jter":2842,"jobbet":2843,"yss":2844,"ocka":2845,"ljus":2846,"kund":2847,"service":2848,"bur":2849,"bat":2850,"skont":2851,"pot":2852,"kand":2853,"betala":2854,"skra":2855,"okt":2856,"Mer":2857,"klara":2858,"con":2859,"Johan":2860,"uppdrag":2861,"dagens":2862,"derar":2863,"skydd":2864,"beroende":2865,"free":2866,"etter":2867,"mars":2868,"befol":2869,"rott":2870,"rummet":2871,"kvalitet":2872,"kultur":2873,"dde":2874,"super":2875,"tio":2876,"koll":2877,"ober":2878,"fungerar":2879,"grun":2880,"reger":2881,"tember":2882,"stit":2883,"inspir":2884,"sh":2885,"kvinna":2886,"foraldr":2887,"mand":2888,"essa":2889,"ytterligare":2890,"bank":2891,"Jon":2892,"varm":2893,"lyss":2894,"bruari":2895,"Sy":2896,"USA":2897,"skott":2898,"terat":2899,"lut":2900,"sker":2901,"gas":2902,"post":2903,"iden":2904,"litet":2905,"ativt":2906,"lopp":2907,"sc":2908,"Bra":2909,"veten":2910,"bot":2911,"skriv":2912,"gel":2913,"arbeta":2914,"garden":2915,"popu":2916,"oppet":2917,"december":2918,"ungdom":2919,"sjo":2920,"taget":2921,"rag":2922,"ningarna":2923,"TV":2924,"install":2925,"spannande":2926,"medlemmar":2927,"ckar":2928,"forbatt":2929,"naden":2930,"innehaller":2931,"iner":2932,"minn":2933,"stund":2934,"februari":2935,"EU":2936,"barnen":2937,"klubb":2938,"Hall":2939,"pati":2940,"dern":2941,"data":2942,"avsett":2943,"tin":2944,"situ":2945,"dater":2946,"bakom":2947,"middag":2948,"radet":2949,"beror":2950,"holl":2951,"liksom":2952,"bocker":2953,"modell":2954,"ktig":2955,"mote":2956,"ek":2957,"gro":2958,"kunskap":2959,"hogre":2960,"september":2961,"jen":2962,"forsok":2963,"porn":2964,"span":2965,"Nat":2966,"respe":2967,"Eller":2968,"kans":2969,"helgen":2970,"Pri":2971,"punkten":2972,"folja":2973,"kolla":2974,"Tje":2975,"glas":2976,"stang":2977,"cm":2978,"terade":2979,"2016":2980,"date":2981,"aktivit":2982,"igang":2983,"kvallen":2984,"Ga":2985,"kol":2986,"Escort":2987,"ital":2988,"perfekt":2989,"sse":2990,"traffa":2991,"skyl":2992,"tred":2993,"tjanster":2994,"2015":2995,"Sta":2996,"jobba":2997,"kem":2998,"stag":2999,"alternativ":3000,"kolle":3001,"goda":3002,"tankte":3003,"Ander":3004,"Fri":3005,"anstall":3006,"AT":3007,"Dessutom":3008,"Ter":3009,"personal":3010,"lugn":3011,"ras":3012,"ockan":3013,"SE":3014,"fjar":3015,"mannen":3016,"hjalper":3017,"start":3018,"sov":3019,"stans":3020,"varen":3021,"dighet":3022,"Lu":3023,"lander":3024,"vem":3025,"ordning":3026,"dning":3027,"nation":3028,"demok":3029,"november":3030,"Ku":3031,"bilden":3032,"spa":3033,"ity":3034,"ativa":3035,"Manga":3036,"vist":3037,"positi":3038,"valjer":3039,"Dessa":3040,"hl":3041,"stav":3042,"Malmo":3043,"orit":3044,"fisk":3045,"fal":3046,"psy":3047,"ringar":3048,"pat":3049,"dejtingsajt":3050,"Karl":3051,"au":3052,"restau":3053,"che":3054,"satte":3055,"ped":3056,"flytt":3057,"kommande":3058,"bered":3059,"oster":3060,"slutet":3061,"skaper":3062,"ktioner":3063,"90":3064,"vinna":3065,"titta":3066,"vacker":3067,"pril":3068,"later":3069,"detal":3070,"oktober":3071,"tol":3072,"garder":3073,"vilja":3074,"We":3075,"lagt":3076,"On":3077,"glom":3078,"omkring":3079,"hora":3080,"eln":3081,"anmal":3082,"visning":3083,"any":3084,"ssy":3085,"engel":3086,"fortsatta":3087,"varld":3088,";)":3089,"vitt":3090,"eget":3091,"Ste":3092,"forsalj":3093,"hot":3094,"cent":3095,"tredje":3096,"forsoker":3097,"27":3098,"26":3099,"mju":3100,"diga":3101,"dam":3102,"poang":3103,"Sw":3104,"28":3105,"Knull":3106,"tvatt":3107,"aker":3108,"forande":3109,"ckor":3110,"prin":3111,"Go":3112,"knas":3113,"lamna":3114,"tta":3115,"kroppen":3116,"2014":3117,"rin":3118,"varder":3119,"undersok":3120,"begran":3121,"handla":3122,"luft":3123,"sas":3124,"nads":3125,"livs":3126,"mobil":3127,"ungefar":3128,"dio":3129,"SK":3130,"him":3131,"fte":3132,"ers":3133,"provin":3134,"syd":3135,"prov":3136,"doku":3137,"bygga":3138,"book":3139,"annon":3140,"undan":3141,"ktionen":3142,"pet":3143,"Fol":3144,"marknaden":3145,"innehall":3146,"njut":3147,"can":3148,"dorr":3149,"Trakten":3150,"tids":3151,"vester":3152,"mog":3153,"vaster":3154,"nedan":3155,"ivag":3156,"kas":3157,"hort":3158,"cep":3159,"fredag":3160,"lata":3161,"deles":3162,"komst":3163,"liknande":3164,"casino":3165,"Del":3166,"kombin":3167,"viktig":3168,"part":3169,"jav":3170,"miljoner":3171,"zz":3172,":-":3173,"tyckte":3174,"tyg":3175,"solut":3176,"placer":3177,"cken":3178,"El":3179,"nod":3180,"speciellt":3181,"sav":3182,"198":3183,"merikan":3184,"anta":3185,"laga":3186,"historia":3187,"soder":3188,"villkor":3189,"Fil":3190,"titt":3191,"jobbar":3192,"Tack":3193,"inge":3194,"internet":3195,"reda":3196,"still":3197,"samband":3198,"kommunen":3199,"vik":3200,"varldens":3201,"oro":3202,"uella":3203,"29":3204,"fritt":3205,"skrev":3206,"avtal":3207,"He":3208,"Hen":3209,"favorit":3210,"sats":3211,"hets":3212,"peri":3213,"sjukdom":3214,"otroligt":3215,"hard":3216,"anvandas":3217,"filmen":3218,"versitet":3219,"langa":3220,"asi":3221,"splan":3222,"utru":3223,"ure":3224,"omraden":3225,"forvar":3226,"kes":3227,"stran":3228,"klassi":3229,"Mat":3230,"Kanske":3231,"dejtingsidor":3232,"april":3233,"ET":3234,"flo":3235,"Runt":3236,"defin":3237,"behovs":3238,"svara":3239,"effekti":3240,"regler":3241,"imorgon":3242,"inklu":3243,"Ca":3244,"visade":3245,"betyder":3246,"lov":3247,"forfatt":3248,"Europa":3249,"ution":3250,"papper":3251,"finner":3252,"ana":3253,"dad":3254,"gruppen":3255,"samhalle":3256,"indivi":3257,"Gud":3258,"markt":3259,"bilar":3260,"behova":3261,"sala":3262,"topp":3263,"ey":3264,"samtal":3265,"prova":3266,"internation":3267,"45":3268,"cykel":3269,"Fast":3270,"mentet":3271,"vol":3272,"skapet":3273,"teras":3274,"sur":3275,"dubb":3276,"mojligheter":3277,"Ver":3278,"foljer":3279,"Her":3280,"recept":3281,"alldeles":3282,"deltag":3283,"gal":3284,"prakti":3285,"ligtvis":3286,"Enligt":3287,"provinsen":3288,"gren":3289,"artikel":3290,"tjanst":3291,"rod":3292,"vanlig":3293,"tis":3294,"dla":3295,"oftast":3296,"Pre":3297,"sterna":3298,"absolut":3299,"verkan":3300,"massor":3301,"kora":3302,"rig":3303,"annars":3304,"ct":3305,"jarn":3306,"wid":3307,"tifi":3308,"Mon":3309,"kommentar":3310,"sked":3311,"bundet":3312,"seme":3313,"grad":3314,"sitta":3315,"Fi":3316,"link":3317,"staller":3318,"mare":3319,"tankt":3320,"tradition":3321,"lunch":3322,"antor":3323,"fang":3324,"gaende":3325,"Lo":3326,"aget":3327,"als":3328,"IT":3329,"bruk":3330,"Arbet":3331,"ora":3332,"kravs":3333,"bbar":3334,"enter":3335,"vant":3336,"ringa":3337,"len":3338,"vita":3339,"pack":3340,"menar":3341,"vaxer":3342,"Ser":3343,"varme":3344,"tanke":3345,"kompis":3346,"privat":3347,"berattar":3348,"sent":3349,"invester":3350,"mysig":3351,"namligen":3352,"erfarenhet":3353,"snygg":3354,"testa":3355,"atten":3356,"fysi":3357,"okus":3358,"gammal":3359,"intressant":3360,"forklar":3361,"vader":3362,"larare":3363,"dejtingsajter":3364,"lagger":3365,"medic":3366,"pappa":3367,"goteborg":3368,"sattningar":3369,"riks":3370,"Svensk":3371,"Hu":3372,"omrade":3373,"bidrag":3374,"bransch":3375,"marken":3376,"197":3377,"klockan":3378,"fest":3379,"hamn":3380,"gatan":3381,"”,":3382,"enor":3383,"ensam":3384,"sant":3385,"//":3386,"iser":3387,"omo":3388,"icke":3389,"intresse":3390,"scen":3391,"host":3392,"punkt":3393,"wit":3394,"nojd":3395,"regel":3396,"foretaget":3397,"gymna":3398,"present":3399,"Mu":3400,"halsa":3401,"rek":3402,"handa":3403,"betyd":3404,"takt":3405,"utman":3406,"semester":3407,"ledare":3408,"www":3409,"Bu":3410,"fotboll":3411,"Hem":3412,"Dag":3413,"vel":3414,"borjat":3415,"Mass":3416,"kansla":3417,"Intern":3418,"Just":3419,"losa":3420,"tillrack":3421,"finnas":3422,"lager":3423,"resten":3424,"eventu":3425,"darmed":3426,"lia":3427,"spelet":3428,"delse":3429,"smal":3430,"Kli":3431,"beskri":3432,"our":3433,"Kv":3434,"uppgift":3435,"prata":3436,"lack":3437,"2013":3438,"kad":3439,"uppe":3440,"pol":3441,"ale":3442,"blod":3443,"sommaren":3444,"sad":3445,"Darfor":3446,"text":3447,"35":3448,"ranger":3449,"SM":3450,"exempelvis":3451,"ies":3452,"Ge":3453,"ansen":3454,"grepp":3455,"Eftersom":3456,"cebook":3457,"fodd":3458,"indu":3459,"sova":3460,"tider":3461,"anslut":3462,"kry":3463,"famil":3464,"hant":3465,"befolkat":3466,"kyl":3467,"kopte":3468,"tand":3469,"Hog":3470,"laser":3471,"Kommun":3472,"No":3473,"Sjal":3474,"visas":3475,"til":3476,"halso":3477,"marknads":3478,"delning":3479,"Fred":3480,"varden":3481,"Joh":3482,"foraldrar":3483,"paket":3484,"zny":3485,"Mil":3486,"centrala":3487,"defini":3488,"Van":3489,"vo":3490,"stning":3491,"leder":3492,"Hej":3493,"anych":3494,"owanych":3495,"zalog":3496,"oczny":3497,"sand":3498,"widoczny":3499,"zalogowanych":3500,"kontor":3501,"Tan":3502,"stik":3503,"konto":3504,"enbart":3505,"cirka":3506,"utveckla":3507,"hemsida":3508,"sadana":3509,"sel":3510,"krig":3511,"ON":3512,"kurs":3513,"seende":3514,"grader":3515,"rande":3516,"oper":3517,"vald":3518,"Bi":3519,"ktyg":3520,"ika":3521,"teknik":3522,"spen":3523,"bry":3524,"hoppa":3525,"kate":3526,"framst":3527,"odra":3528,"allvar":3529,"stiska":3530,"meto":3531,"amerikan":3532,"viktiga":3533,"Oster":3534,"vackra":3535,"forskning":3536,"dis":3537,"uppdater":3538,"personliga":3539,"oppna":3540,"stro":3541,"sokan":3542,"okar":3543,"forening":3544,"sprun":3545,"dator":3546,"vanta":3547,"31":3548,"ovriga":3549,"Hal":3550,"ges":3551,"bete":3552,"produkt":3553,"Gar":3554,"Lat":3555,"universitet":3556,"design":3557,"boende":3558,"motor":3559,"vantar":3560,"Norr":3561,"fas":3562,"IS":3563,"bba":3564,"vetenskap":3565,"falt":3566,"offent":3567,"sann":3568,"ytt":3569,"2012":3570,"starka":3571,"uttryck":3572,"vagar":3573,"poj":3574,"knade":3575,"engelska":3576,"agar":3577,"ish":3578,"Vide":3579,"helg":3580,"mea":3581,"kategor":3582,"karna":3583,"drog":3584,"Po":3585,"sym":3586,"ljud":3587,"Lar":3588,"riktning":3589,"htt":3590,"eskort":3591,"fortsatter":3592,"social":3593,"aliser":3594,"rent":3595,"fotogra":3596,"Tor":3597,"stid":3598,"lex":3599,"profil":3600,"sokt":3601,"promen":3602,"ernas":3603,"IK":3604,"daligt":3605,"sasom":3606,"sist":3607,"hoj":3608,"oker":3609,"arnas":3610,"sno":3611,"huvu":3612,"ange":3613,"ssar":3614,"pote":3615,"trygg":3616,"typer":3617,"Sch":3618,"eten":3619,"New":3620,"tiken":3621,"lage":3622,"utred":3623,"Star":3624,"mesta":3625,"Pu":3626,"Er":3627,"moti":3628,"varu":3629,"verksamheten":3630,"lamp":3631,"tyvarr":3632,"??":3633,"visst":3634,"namnet":3635,"uppmark":3636,"uppskatt":3637,"urn":3638,"skit":3639,"framgang":3640,"grupper":3641,"givningarna":3642,"mul":3643,"lop":3644,"antalet":3645,"styck":3646,"cera":3647,"profe":3648,"brost":3649,"enskil":3650,"gors":3651,"oavsett":3652,"ING":3653,"2010":3654,"Com":3655,"jon":3656,"stal":3657,"kott":3658,"Terrangen":3659,"sprung":3660,"tillhor":3661,"Sol":3662,"hittade":3663,"sper":3664,"LA":3665,"Gam":3666,"fokus":3667,"frukt":3668,"anvandning":3669,"skom":3670,"fria":3671,"bolaget":3672,"bloggen":3673,"tj":3674,"mail":3675,"behor":3676,"Fot":3677,"kallas":3678,"Tjejer":3679,"formaga":3680,"skillnad":3681,"ork":3682,"standigt":3683,"stader":3684,"forlor":3685,"farger":3686,"kanda":3687,"kaffe":3688,"ligheten":3689,"sverig":3690,"vig":3691,"Ham":3692,"Th":3693,"kontakta":3694,"sorg":3695,"mp":3696,"hart":3697,"jektet":3698,"priser":3699,"Over":3700,"enheter":3701,"lart":3702,"Lund":3703,"kn":3704,"rid":3705,"verktyg":3706,"kostnader":3707,"atiska":3708,"karlek":3709,"marker":3710,"samarbete":3711,"lyckas":3712,"nodvand":3713,"skapar":3714,"minska":3715,"int":3716,"perio":3717,"brev":3718,"skrivit":3719,"vanster":3720,"sydo":3721,"meddel":3722,"leksaker":3723,"katt":3724,"laggning":3725,"betalning":3726,"bund":3727,"test":3728,"Me":3729,"framtiden":3730,"mjol":3731,"serien":3732,"ach":3733,"allra":3734,"196":3735,"://":3736,"botten":3737,"Res":3738,"forsvar":3739,"Dejt":3740,"frukost":3741,"Igar":3742,"dejtingsida":3743,"Mot":3744,"sum":3745,"dande":3746,"vinter":3747,"dagarna":3748,"hoga":3749,"dress":3750,"fika":3751,"fen":3752,"fakt":3753,"emal":3754,"motsvar":3755,"smak":3756,"stig":3757,"butik":3758,"Nej":3759,"timme":3760,"Mag":3761,"Str":3762,"rapport":3763,"totalt":3764,"arets":3765,"sadant":3766,"nr":3767,"fix":3768,"kraver":3769,"leverantor":3770,"bekva":3771,"sart":3772,"ategi":3773,"Gor":3774,"ratten":3775,"ekonomiska":3776,"vattnet":3777,"ovrigt":3778,"utrym":3779,"lingen":3780,"funder":3781,"2011":3782,"RA":3783,"mej":3784,"nej":3785,"medicin":3786,"ris":3787,"saval":3788,"stallningar":3789,"pal":3790,"ratta":3791,"anledning":3792,"forvalt":3793,"paverka":3794,"Vaster":3795,"ftet":3796,"beratta":3797,"fallet":3798,"IF":3799,"spelade":3800,"klipp":3801,"Dare":3802,"tun":3803,"arer":3804,"trafik":3805,"sociala":3806,"II":3807,"forel":3808,"Con":3809,"ye":3810,"eden":3811,"banan":3812,"vir":3813,"utifran":3814,"lunda":3815,"autom":3816,"hogt":3817,"Person":3818,"upptack":3819,"tors":3820,"Stockholms":3821,"Ingen":3822,"ologi":3823,"ktive":3824,"klam":3825,"wi":3826,"bj":3827,"hoger":3828,"orsa":3829,"kandes":3830,"sst":3831,"programmet":3832,"Erik":3833,"roliga":3834,"ight":3835,"!!!":3836,"sek":3837,"elekt":3838,"bonus":3839,"priset":3840,"Sp":3841,"Lang":3842,"Anvand":3843,"antligen":3844,"fastighet":3845,"dalig":3846,"Varfor":3847,"smart":3848,"lock":3849,"tala":3850,"trodde":3851,"sangen":3852,"euro":3853,"pul":3854,"Anna":3855,"bostads":3856,"centrum":3857,"respektive":3858,"OM":3859,"arki":3860,"parker":3861,"500":3862,"Thai":3863,"za":3864,"lokal":3865,"Jam":3866,"borta":3867,"klad":3868,"Sjalv":3869,"sil":3870,"struktur":3871,"sasongen":3872,"serie":3873,"avsnitt":3874,"njuta":3875,"To":3876,"ube":3877,"flytta":3878,"stade":3879,"mast":3880,"Tran":3881,"himla":3882,"princi":3883,"Porn":3884,"jamfor":3885,"produktion":3886,"gymnasi":3887,"erbjuda":3888,"af":3889,"llen":3890,"Uppsala":3891,"atgarder":3892,"spra":3893,"trak":3894,"dotter":3895,"samhallet":3896,"tals":3897,"skicka":3898,"samhet":3899,"bod":3900,"brit":3901,"lakare":3902,"plug":3903,"sva":3904,"skul":3905,"Ad":3906,"lust":3907,"sioner":3908,"press":3909,"sluta":3910,"uell":3911,"rika":3912,"strategi":3913,"Bland":3914,"varmt":3915,"slaget":3916,"instru":3917,"satser":3918,"Sc":3919,"uppfatt":3920,"Dom":3921,"arbetare":3922,"losning":3923,"kompl":3924,".”":3925,"datum":3926,"position":3927,"--":3928,"nagonsin":3929,"slang":3930,"SS":3931,"resur":3932,"publicer":3933,"byta":3934,"lattare":3935,"bag":3936,"ordforande":3937,"fyller":3938,"regionen":3939,"natten":3940,"sverige":3941,"trana":3942,"lans":3943,"anpassa":3944,"fiken":3945,"underhall":3946,"betyg":3947,"vastra":3948,"miljon":3949,"Jan":3950,"forsakr":3951,"diska":3952,"sjon":3953,"gallande":3954,"Hans":3955,"extre":3956,"genomfor":3957,"bror":3958,"mangd":3959,"kommunik":3960,"hamta":3961,"36":3962,"hat":3963,"ya":3964,"blad":3965,"vuxna":3966,"darna":3967,"fulla":3968,"serv":3969,"marknad":3970,"tacka":3971,"Skan":3972,"premi":3973,"Lag":3974,"Spel":3975,"chi":3976,"rygg":3977,"ordent":3978,"jatt":3979,"lagre":3980,"Massage":3981,"solen":3982,"foring":3983,"makt":3984,"sug":3985,"Mycket":3986,"byggnad":3987,"givare":3988,"osv":3989,"ledningen":3990,"plus":3991,"garan":3992,"storlek":3993,"lare":3994,"stark":3995,"forstas":3996,"jas":3997,"former":3998,"ikvall":3999,"lana":4000,"valet":4001,"ningsvis":4002,"konkur":4003,"Dejting":4004,"ningsom":4005,"trevlig":4006,"interv":4007,"hum":4008,"flu":4009,"ssel":4010,"At":4011,"brand":4012,"tillrackligt":4013,"oga":4014,"larna":4015,"Soder":4016,"trevligt":4017,"kata":4018,"sakra":4019,"kansl":4020,"ona":4021,"bliote":4022,"skoter":4023,"seri":4024,"Bet":4025,"Kvinnor":4026,"tet":4027,"fag":4028,"fores":4029,"raden":4030,"ungen":4031,"partner":4032,"hud":4033,"ist":4034,"ministr":4035,"atiskt":4036,"Varje":4037,"aring":4038,"skada":4039,"okat":4040,"mas":4041,"tum":4042,"skland":4043,"region":4044,"erande":4045,"oo":4046,"sive":4047,"rabatt":4048,"Stora":4049,"guld":4050,"kunnat":4051,"Hoppas":4052,"strand":4053,"andras":4054,"loss":4055,"inns":4056,"darefter":4057,"samtliga":4058,"mala":4059,"forbi":4060,"Pi":4061,"stalle":4062,"Je":4063,"ryck":4064,"represen":4065,"Trots":4066,"vika":4067,"tankar":4068,"stamm":4069,"ssystem":4070,"otsligt":4071,"karakt":4072,"goras":4073,"bom":4074,"75":4075,"Au":4076,"EL":4077,"staten":4078,"Dat":4079,"how":4080,"annonser":4081,"skjut":4082,"ump":4083,"Soci":4084,"kille":4085,"onskar":4086,"dusch":4087,"33":4088,"you":4089,"lay":4090,"Tank":4091,"huvudet":4092,"webbplats":4093,"Helsing":4094,"San":4095,"195":4096,"sexiga":4097,"fonster":4098,"bestall":4099,"2009":4100,"sionen":4101,"knappt":4102,"bygger":4103,"Stu":4104,"lande":4105,"ked":4106,"svag":4107,"leda":4108,"lagenhet":4109,"agare":4110,"Finland":4111,"ald":4112,"varor":4113,"organisation":4114,"Free":4115,"analy":4116,"olja":4117,"debatt":4118,"idrott":4119,"studie":4120,"yngre":4121,"cha":4122,"sed":4123,"soff":4124,"lokala":4125,"vas":4126,"systemet":4127,"knulla":4128,"forutom":4129,"matchen":4130,"process":4131,"starkt":4132,"skning":4133,"fantastisk":4134,"Bara":4135,"Peter":4136,"sajt":4137,"givet":4138,"roc":4139,"ligga":4140,"rot":4141,"mitten":4142,"strack":4143,"otal":4144,"stati":4145,"neg":4146,"smi":4147,"IG":4148,"skam":4149,"gad":4150,"roman":4151,"cit":4152,"stre":4153,"inred":4154,"ihag":4155,"Tom":4156,"iaf":4157,"alien":4158,"foreningen":4159,"utnytt":4160,".\"":4161,"tida":4162,"senast":4163,"ED":4164,"Mor":4165,"aktiviteter":4166,"ID":4167,"sjalvklart":4168,"mottag":4169,"middagen":4170,"studen":4171,"starta":4172,"kvalit":4173,"fantastiskt":4174,"sland":4175,"skrift":4176,"punkter":4177,"fordon":4178,"tok":4179,"hosten":4180,"vars":4181,"fardig":4182,"08":4183,"orlunda":4184,"kemedel":4185,"Hi":4186,"enkla":4187,"ky":4188,"saknar":4189,"saklart":4190,"Kri":4191,"sjukt":4192,"ekonomi":4193,"stin":4194,"accep":4195,"Uni":4196,"ssan":4197,"promenad":4198,"Berg":4199,"CH":4200,"behand":4201,"but":4202,"talar":4203,"muse":4204,"partiet":4205,"utmarkt":4206,"vision":4207,"klare":4208,"djup":4209,"kompet":4210,"ls":4211,"studier":4212,"grunden":4213,"kostnad":4214,"fordel":4215,"bell":4216,"Ero":4217,"framat":4218,"box":4219,"igare":4220,"dans":4221,"fart":4222,"rakt":4223,"Din":4224,"ursprung":4225,"Hote":4226,"fett":4227,"ssor":4228,"Eng":4229,"Fram":4230,"vinner":4231,"kret":4232,"seg":4233,"IL":4234,"cu":4235,"tillstand":4236,"vardering":4237,"agog":4238,"onsk":4239,"vind":4240,"foku":4241,"Bli":4242,"fantastiska":4243,"butiker":4244,"lordag":4245,"konsu":4246,"lank":4247,"Kop":4248,"tusen":4249,"riktig":4250,"exakt":4251,"Vara":4252,"inal":4253,"fortsatt":4254,"gir":4255,"stival":4256,"Lite":4257,"Fl":4258,"akta":4259,"upplevelse":4260,"mom":4261,"forsakring":4262,"betydelse":4263,"chok":4264,"lys":4265,"ansokan":4266,"ze":4267,"glo":4268,"dubbel":4269,"Mitt":4270,"Barn":4271,"Am":4272,"nagonting":4273,"OS":4274,"xxx":4275,"sled":4276,"ingenting":4277,"ev":4278,"undrar":4279,"Sal":4280,"datorn":4281,"bergs":4282,"etc":4283,"essen":4284,"vanda":4285,"lyckades":4286,"imp":4287,"slags":4288,"anstallda":4289,"kre":4290,"myndig":4291,"SV":4292,"mandag":4293,"hojd":4294,"slos":4295,"Gi":4296,"tillverk":4297,"sot":4298,"monster":4299,"Gra":4300,"sub":4301,"2008":4302,"betydligt":4303,"fylla":4304,"rit":4305,"forhallande":4306,"sms":4307,"Ibland":4308,"bibliote":4309,"morgonen":4310,"slar":4311,"intervju":4312,"Hade":4313,"recen":4314,"bruks":4315,"slog":4316,"faktor":4317,"narmare":4318,"vaxter":4319,"detaljer":4320,"sut":4321,"stjar":4322,"hals":4323,"effekt":4324,"ax":4325,"Wi":4326,"listan":4327,"Anders":4328,"dack":4329,"verkade":4330,"Umea":4331,"olyck":4332,"Tva":4333,"Kor":4334,"dryg":4335,"ppen":4336,"stret":4337,"lund":4338,"igheten":4339,"ack":4340,"09":4341,"thaimassage":4342,"blick":4343,"PR":4344,"jakt":4345,"sekven":4346,"bum":4347,"producer":4348,"exp":4349,"info":4350,"Regi":4351,"daremot":4352,"viktigaste":4353,"John":4354,"javla":4355,"Lake":4356,"kostar":4357,"exi":4358,"litar":4359,"char":4360,"sken":4361,"sens":4362,"skad":4363,"ism":4364,"Bok":4365,"resultatet":4366,"Kat":4367,"leken":4368,"valde":4369,"manniska":4370,"okies":4371,"Hitta":4372,"amator":4373,"digit":4374,"99":4375,"drabb":4376,"enti":4377,"skolor":4378,"socker":4379,"blo":4380,"svang":4381,"konstru":4382,"tydligt":4383,"kapital":4384,"pension":4385,"vuxen":4386,"malmo":4387,"demokrat":4388,"Mog":4389,"kontra":4390,"regeringen":4391,"moder":4392,"34":4393,"snygga":4394,"modern":4395,"Dock":4396,"chat":4397,"brist":4398,"tyr":4399,"fat":4400,"satts":4401,"dokument":4402,"Hand":4403,"stral":4404,"Andra":4405,"bostad":4406,"tionen":4407,"Lind":4408,"serar":4409,"not":4410,"kvinn":4411,"sasong":4412,"tank":4413,"pade":4414,"utvecklingen":4415,"lea":4416,"ind":4417,"planer":4418,"period":4419,"2000":4420,"oni":4421,"Svar":4422,"nyck":4423,"Bes":4424,"uppen":4425,"vore":4426,"disku":4427,"forsaljning":4428,"igur":4429,"klag":4430,"fortro":4431,"lyssna":4432,"stift":4433,"sund":4434,"budget":4435,"live":4436,"entre":4437,"politiska":4438,"By":4439,"fing":4440,"plotsligt":4441,"pratar":4442,"sw":4443,"industri":4444,"allafall":4445,"iteten":4446,"sis":4447,"bilj":4448,"Eskort":4449,"intresserad":4450,"rus":4451,"kopt":4452,"hone":4453,"korde":4454,"finansiella":4455,"gande":4456,"skador":4457,"55":4458,"stitut":4459,"videos":4460,"fixa":4461,"valkom":4462,"sodra":4463,"regl":4464,"mel":4465,"avgift":4466,"ada":4467,"prote":4468,"kram":4469,"gladje":4470,"TE":4471,"mens":4472,"http":4473,"Post":4474,"svi":4475,"lamnar":4476,"Lon":4477,"etabl":4478,"skratt":4479,"Ore":4480,"lats":4481,"ostra":4482,"Carl":4483,"minister":4484,"forsamling":4485,"harlig":4486,"brun":4487,"lash":4488,"funktioner":4489,"vor":4490,"rolig":4491,"resan":4492,"38":4493,"kamer":4494,"politiker":4495,"kompetens":4496,"losningar":4497,"made":4498,"Narmaste":4499,"diskut":4500,"rea":4501,"iz":4502,"vinst":4503,"dyr":4504,"visste":4505,"kg":4506,"kara":4507,"spara":4508,"kallt":4509,"gy":4510,"pas":4511,"utbud":4512,"journ":4513,"fir":4514,"bili":4515,"mg":4516,"Tur":4517,"stick":4518,"media":4519,"ologiska":4520,"klan":4521,"mansk":4522,"Maria":4523,"Internet":4524,"desig":4525,"kuper":4526,"stopp":4527,"team":4528,"stian":4529,"beskrivning":4530,"skogen":4531,"web":4532,"bordet":4533,"Gun":4534,"spoli":4535,"dyg":4536,"inten":4537,"mus":4538,"dvs":4539,"sammanhang":4540,"traffar":4541,"ass":4542,"sondag":4543,"antingen":4544,"sags":4545,"sky":4546,"forutsattningar":4547,"enden":4548,"Nil":4549,"demokr":4550,"Spe":4551,"sjukvar":4552,"dia":4553,"Land":4554,"tak":4555,"exper":4556,"projektet":4557,"Br":4558,"07":4559,"splats":4560,"atisk":4561,"cam":4562,"misstan":4563,"nordvast":4564,".)":4565,"aten":4566,"chans":4567,"=)":4568,"Nord":4569,"otta":4570,"strax":4571,"ep":4572,"musk":4573,"resor":4574,"radd":4575,"odligen":4576,"lasare":4577,"AD":4578,"Ben":4579,"gett":4580,"jamfort":4581,"ht":4582,"Tre":4583,"koper":4584,"standard":4585,"Facebook":4586,"givande":4587,"ding":4588,"ratts":4589,"site":4590,"siska":4591,"Samtidigt":4592,"skur":4593,"32":4594,"kuperad":4595,"sman":4596,"Ul":4597,"utrustning":4598,"stisk":4599,"fton":4600,"funnit":4601,"stjan":4602,"slutade":4603,"norra":4604,"ktiga":4605,"Amat":4606,"stas":4607,"alko":4608,"vr":4609,"sprogram":4610,"bjuder":4611,"Ol":4612,"pad":4613,"minstone":4614,"dades":4615,"relig":4616,"special":4617,"194":4618,"kyrkan":4619,"05":4620,"annorlunda":4621,"festival":4622,"kallade":4623,"maten":4624,"39":4625,"ordentligt":4626,"salt":4627,"tittar":4628,"kons":4629,"amnen":4630,"spektiv":4631,"brod":4632,"Bill":4633,"ES":4634,"Bro":4635,"gg":4636,"hallen":4637,"lakemedel":4638,"bakgrund":4639,"danden":4640,"ranta":4641,"klicka":4642,"ric":4643,"visat":4644,"kuk":4645,"tant":4646,"gles":4647,"blommor":4648,"lost":4649,"oren":4650,"Nagra":4651,"eli":4652,"gravid":4653,"01":4654,"hyr":4655,"Finns":4656,"jande":4657,"hyll":4658,"bre":4659,"Red":4660,"Gran":4661,"station":4662,"bestamm":4663,"malet":4664,"restaurang":4665,"buss":4666,"delas":4667,"underbara":4668,"obe":4669,"marke":4670,"dow":4671,"rikta":4672,"flykt":4673,"stress":4674,"appar":4675,"ppade":4676,"iel":4677,"tube":4678,"Skulle":4679,"anger":4680,"vila":4681,"bandet":4682,"Forsta":4683,"65":4684,"Do":4685,"supp":4686,"vardag":4687,"rejal":4688,"okad":4689,"dret":4690,"paverkar":4691,"giv":4692,"Hol":4693,"iet":4694,"undersokning":4695,"kallar":4696,"strikt":4697,"mjuk":4698,"hittat":4699,"bilderna":4700,"langs":4701,"personlig":4702,"motet":4703,"splatsen":4704,"Pen":4705,"Forst":4706,"personuppgifter":4707,"gorande":4708,"Ac":4709,"pig":4710,"utvecklas":4711,"Ski":4712,"jda":4713,"ografi":4714,"harligt":4715,"antag":4716,"matcher":4717,"terad":4718,"straff":4719,"37":4720,"kterna":4721,"naturligtvis":4722,"plast":4723,"modeller":4724,"max":4725,"arm":4726,"Matt":4727,"damer":4728,"forbundet":4729,"US":4730,"ura":4731,"Bon":4732,"Gre":4733,"ani":4734,"2007":4735,"situation":4736,"pool":4737,"gards":4738,"ng":4739,"tivt":4740,"drygt":4741,"skydds":4742,"smor":4743,"spon":4744,"riar":4745,"soffan":4746,"sjun":4747,"ungdomar":4748,"skatte":4749,"underklader":4750,"metoder":4751,"medvet":4752,"Nya":4753,"ago":4754,"choklad":4755,"06":4756,"vinn":4757,"Ru":4758,"tecken":4759,"pedagog":4760,"morse":4761,"FOR":4762,"Knulla":4763,"IC":4764,"vattendrag":4765,"sprang":4766,"vardags":4767,"forbattra":4768,"mota":4769,"ledande":4770,"belopp":4771,"salja":4772,"syster":4773,"bio":4774,"uto":4775,"dol":4776,"skli":4777,"syfte":4778,"uten":4779,"ficer":4780,"juk":4781,"lugnt":4782,"cookies":4783,"cin":4784,"App":4785,"branschen":4786,"frisk":4787,"endet":4788,"fro":4789,"burg":4790,"delta":4791,"huvudsakligen":4792,"tving":4793,"numera":4794,"ersattning":4795,"besvar":4796,"Vart":4797,"klarar":4798,"Sexiga":4799,"syns":4800,"ktigt":4801,"fored":4802,"posta":4803,"ycker":4804,"OL":4805,"rattigheter":4806,"fack":4807,"uellt":4808,"with":4809,"MA":4810,"domstol":4811,"banken":4812,"hantera":4813,"hundar":4814,"ssatt":4815,"administr":4816,"Orebro":4817,"transport":4818,"fici":4819,"lingar":4820,"killar":4821,"populara":4822,"ordin":4823,"Ah":4824,"skapen":4825,"300":4826,"Sund":4827,"langd":4828,"IP":4829,"inklusive":4830,"stycken":4831,"Col":4832,"konstigt":4833,"bull":4834,"befolk":4835,"Poli":4836,"ferens":4837,"normalt":4838,"04":4839,"rim":4840,"My":4841,"nordost":4842,"hallbar":4843,"psyki":4844,"sallan":4845,"inse":4846,"Ki":4847,"latta":4848,"Natur":4849,"fet":4850,"orkar":4851,"svarta":4852,"utbil":4853,"hogst":4854,"mans":4855,"stallen":4856,"rull":4857,"halls":4858,"glada":4859,"bestamt":4860,"vun":4861,"Basta":4862,"omedel":4863,"konstnar":4864,"anses":4865,"Kung":4866,"kunskaper":4867,"aktie":4868,"stallningen":4869,"omgivningarna":4870,"Fort":4871,"Toppen":4872,"Char":4873,"kran":4874,"nuvarande":4875,"renover":4876,"Fy":4877,"yrkes":4878,"sattningen":4879,"ii":4880,"tad":4881,"feren":4882,"lanet":4883,"Foretag":4884,"myndighet":4885,"underbart":4886,"politik":4887,"barnet":4888,"grym":4889,"Fal":4890,"racker":4891,"stitution":4892,"attra":4893,"iallafall":4894,"saljer":4895,"reklam":4896,"internationella":4897,"byte":4898,"skuld":4899,"slakt":4900,"anvande":4901,"natverk":4902,"pengarna":4903,"atminstone":4904,"Kal":4905,"cia":4906,"lass":4907,"profession":4908,"Hus":4909,"ringer":4910,"laste":4911,"bedri":4912,"Jes":4913,"stanna":4914,"bis":4915,"personen":4916,"hjul":4917,"Online":4918,"Vet":4919,"vata":4920,"Son":4921,"medarbetare":4922,"detalj":4923,"sallskap":4924,"forhopp":4925,"Valkommen":4926,"likt":4927,"fog":4928,"forandring":4929,"drift":4930,"02":4931,"tiskt":4932,"Tri":4933,"porrfilm":4934,"formen":4935,"lyckats":4936,"bert":4937,"ladda":4938,"diag":4939,"vitet":4940,"Skol":4941,"rosa":4942,"mojliga":4943,"begrepp":4944,"kampan":4945,"vaga":4946,"forum":4947,"Social":4948,"utgor":4949,"stats":4950,"Tyvarr":4951,"amerikanska":4952,"fj":4953,"Forutom":4954,"2006":4955,"Dal":4956,"kanslor":4957,"UN":4958,"springa":4959,"mojligheten":4960,"grann":4961,"magen":4962,"Span":4963,"album":4964,"ckan":4965,"funkar":4966,"avan":4967,"fotograf":4968,"yta":4969,"Vissa":4970,"klubben":4971,"karen":4972,"varlds":4973,"shopp":4974,"sort":4975,"faller":4976,"formodligen":4977,"Hy":4978,"Kommer":4979,"juster":4980,"que":4981,"para":4982,"forhallanden":4983,"inkomst":4984,"kommunikation":4985,"cks":4986,"sydvast":4987,"jun":4988,"varken":4989,"Pol":4990,"nos":4991,"uta":4992,"anner":4993,"frihet":4994,"sattet":4995,"forsokte":4996,"hantering":4997,"batteri":4998,"alkohol":4999,"ryg":5000,"tioner":5001,"Pe":5002,"besoka":5003,"ktar":5004,"smarta":5005,"Krist":5006,"tagen":5007,"ome":5008,"okej":5009,"forbund":5010,"skot":5011,"betalar":5012,"glesbefolkat":5013,"fungera":5014,"Vilken":5015,"Visst":5016,"Aldre":5017,"xor":5018,"relativt":5019,"fattar":5020,"dex":5021,"bana":5022,"golv":5023,"Nam":5024,"gud":5025,"marna":5026,"…]":5027,"grav":5028,"tart":5029,"kommuner":5030,"ction":5031,"forelas":5032,"Tyskland":5033,"forandringar":5034,"mysigt":5035,"jobbigt":5036,"startade":5037,"piskt":5038,"sif":5039,"hemmet":5040,"styrka":5041,"polisen":5042,"namnden":5043,"nere":5044,"olf":5045,"roda":5046,"tve":5047,"saken":5048,"emang":5049,"got":5050,"Lars":5051,"varna":5052,"backen":5053,"kamera":5054,"traffade":5055,"skole":5056,"ordet":5057,"artiklar":5058,"tunn":5059,"oll":5060,"?!":5061,"pande":5062,"forr":5063,"underbar":5064,"Lan":5065,"bler":5066,"sydost":5067,"laggande":5068,"metod":5069,"lamnade":5070,"[…]":5071,"Valj":5072,"perioden":5073,"Anal":5074,"radi":5075,"konsekven":5076,"organisationer":5077,"AG":5078,"its":5079,"tren":5080,"God":5081,"rapporter":5082,"Frankri":5083,"kvali":5084,"mjolk":5085,"sover":5086,"vak":5087,"Bol":5088,"tydligen":5089,"minns":5090,"foljd":5091,"48":5092,"singlar":5093,"Fick":5094,"bjod":5095,"ert":5096,"opti":5097,"anvandare":5098,"dorren":5099,"tju":5100,"spo":5101,"princip":5102,"ringen":5103,"vackert":5104,"vida":5105,"slagen":5106,"klin":5107,"langi":5108,"kademi":5109,"wo":5110,"finansiering":5111,"handlingar":5112,"adress":5113,"sugen":5114,"Ur":5115,"cancer":5116,"sock":5117,"central":5118,"anne":5119,"skull":5120,"fabri":5121,"Norge":5122,"popular":5123,"fjaril":5124,"Ed":5125,"gast":5126,"sorti":5127,"nyheter":5128,"ideer":5129,"stiskt":5130,"fragade":5131,"snabba":5132,"Cam":5133,"Kuh":5134,"bott":5135,"invand":5136,"prom":5137,"lapp":5138,"analys":5139,"levande":5140,"varre":5141,"OK":5142,"bus":5143,"tyst":5144,"landska":5145,"hunnit":5146,"initi":5147,"behovde":5148,"Kron":5149,"aktuella":5150,"foto":5151,"alle":5152,"angen":5153,"kus":5154,"byn":5155,"betalnings":5156,"Bygg":5157,"motstand":5158,"chansen":5159,"Skri":5160,"hindra":5161,"befinner":5162,"tip":5163,"pren":5164,"ms":5165,"snarare":5166,"tillverka":5167,"undvika":5168,"ogle":5169,"Nagon":5170,"etten":5171,"EM":5172,"Sand":5173,"Produ":5174,"Sna":5175,"omsorg":5176,"Andersson":5177,"familje":5178,"Andre":5179,"Resultat":5180,"Tel":5181,"relation":5182,"uer":5183,"Alex":5184,"kanslan":5185,"stalld":5186,"jung":5187,"anska":5188,"avgifter":5189,"vapen":5190,"gli":5191,"SEK":5192,"derat":5193,"humor":5194,"CK":5195,"varo":5196,"risken":5197,"boka":5198,"Kra":5199,"forsikt":5200,"Dating":5201,"forfattare":5202,"Helt":5203,"Jen":5204,"formed":5205,"car":5206,"Pal":5207,"litterat":5208,"overra":5209,"Vag":5210,"Bri":5211,"format":5212,"tanken":5213,"tillfalle":5214,"erades":5215,"version":5216,"lie":5217,"moten":5218,"ash":5219,"enklare":5220,"forman":5221,"dire":5222,"lader":5223,"atit":5224,"skrifter":5225,"Tu":5226,"Ve":5227,"utgang":5228,"bedomning":5229,"gaster":5230,"varan":5231,"Super":5232,"rekommenderar":5233,"integr":5234,"narings":5235,"use":5236,"kod":5237,"korta":5238,"SD":5239,"toppen":5240,"rens":5241,"harliga":5242,"bestalla":5243,"Vol":5244,"mogna":5245,"termin":5246,"uppleva":5247,"linjer":5248,"perspektiv":5249,"Hos":5250,"jarna":5251,"Ital":5252,"tranings":5253,"tvungen":5254,"regering":5255,"Met":5256,"givetvis":5257,"oer":5258,"Vin":5259,"OT":5260,"rorelse":5261,"derade":5262,"FF":5263,"alis":5264,"hinner":5265,"inspiration":5266,"maktig":5267,"fortroende":5268,"sle":5269,"telef":5270,"Bru":5271,"jorden":5272,"cell":5273,"dae":5274,"mol":5275,"hamnar":5276,"Mann":5277,"ila":5278,"vade":5279,"broll":5280,"koket":5281,"delade":5282,"delningen":5283,"omoj":5284,"individu":5285,"ordningen":5286,"kommentarer":5287,"definitivt":5288,"ctor":5289,"ford":5290,"hann":5291,"anlagg":5292,"omfattande":5293,"ultur":5294,"berattade":5295,"resurser":5296,"dog":5297,"PA":5298,"Frankrike":5299,"ox":5300,"inta":5301,"brollop":5302,"riktiga":5303,"Art":5304,"VM":5305,"kors":5306,"ld":5307,"flickor":5308,"begar":5309,"lamnat":5310,"hundra":5311,"vander":5312,"klo":5313,"Hor":5314,"NA":5315,"agera":5316,"hov":5317,"alsk":5318,"Amator":5319,"tydlig":5320,"rele":5321,"Martin":5322,"03":5323,"Nakna":5324,"mentar":5325,"foret":5326,"vadret":5327,"Fredrik":5328,"vakt":5329,"hinder":5330,"erbjudanden":5331,"agra":5332,"master":5333,"skaffa":5334,"block":5335,"Ele":5336,"ters":5337,"zi":5338,"HD":5339,"landst":5340,"Gav":5341,"peiska":5342,"ftel":5343,"arranger":5344,"grona":5345,"Skane":5346,"London":5347,"ela":5348,"slutar":5349,"kaka":5350,"pratade":5351,"hansyn":5352,"ockey":5353,"lot":5354,"plocka":5355,"Sar":5356,"Tot":5357,"stranden":5358,"eld":5359,"Indi":5360,"Slut":5361,"Daniel":5362,"uppratt":5363,"spun":5364,"Por":5365,"moter":5366,"spi":5367,"Innan":5368,"varma":5369,"ogonen":5370,"perfekta":5371,"figur":5372,"44":5373,"bisk":5374,"tillgangliga":5375,"Nagot":5376,"bera":5377,"besokare":5378,"samre":5379,"95":5380,"ular":5381,"konser":5382,"IV":5383,"ette":5384,"kurser":5385,"medier":5386,"moderna":5387,"orig":5388,"cel":5389,"Video":5390,"tung":5391,"arens":5392,"ual":5393,":-)":5394,"journali":5395,"Information":5396,"singel":5397,"overens":5398,"flash":5399,"sklimat":5400,"Mam":5401,"torr":5402,"atet":5403,"bloggar":5404,"nytta":5405,"Plan":5406,"day":5407,"framforallt":5408,"Rom":5409,"butiken":5410,"bidra":5411,"seger":5412,"haret":5413,"Got":5414,"finna":5415,"arran":5416,"gemensamma":5417,"patienter":5418,"ige":5419,"daliga":5420,"Utan":5421,"ledde":5422,"Is":5423,"miljar":5424,"here":5425,"egenskaper":5426,"dricka":5427,"fitta":5428,"varav":5429,"stammer":5430,"tea":5431,"ytan":5432,"sia":5433,"skru":5434,"betra":5435,"skraft":5436,"nart":5437,"gin":5438,"js":5439,"jobbat":5440,"webbplatsen":5441,"vagg":5442,"golvet":5443,"reser":5444,"Lagg":5445,"samla":5446,"outube":5447,"ah":5448,"domen":5449,"separ":5450,"lyx":5451,"motsvarande":5452,"tidningen":5453,"Vem":5454,"Inne":5455,"religi":5456,"Annars":5457,"aning":5458,"mening":5459,"2005":5460,"mangder":5461,"anges":5462,"klassen":5463,"bevis":5464,"tekniska":5465,"titel":5466,"utrymme":5467,"RE":5468,"iland":5469,"potenti":5470,"bidrar":5471,"innov":5472,"Verk":5473,"fakta":5474,"tatbefolkat":5475,"allmanna":5476,"arbetat":5477,"unika":5478,"dil":5479,"grill":5480,"rakna":5481,"chatt":5482,"nack":5483,"vintern":5484,"ji":5485,"snabbare":5486,"meddelande":5487,"46":5488,"hjarta":5489,"Vilket":5490,"trakigt":5491,"krist":5492,"eleverna":5493,"framgangs":5494,"mos":5495,"bladet":5496,"gay":5497,"Kur":5498,"Haha":5499,"driver":5500,"webbplatser":5501,"Hela":5502,"militar":5503,"Klicka":5504,"hotellet":5505,"gangar":5506,"godis":5507,"grundlaggande":5508,"kontin":5509,"deltagare":5510,"avseende":5511,"intressanta":5512,"extremt":5513,"hastar":5514,"offer":5515,"garanti":5516,"Sara":5517,"!)":5518,"vera":5519,"distrikt":5520,"svarar":5521,"enskilda":5522,"kombination":5523,"alskade":5524,"kamp":5525,"nyligen":5526,"Medel":5527,"enten":5528,"alli":5529,"Casin":5530,"Kanada":5531,"ftar":5532,"Mina":5533,"ilt":5534,"total":5535,"planen":5536,"narvarande":5537,"tanter":5538,"Jesus":5539,"siv":5540,"Vax":5541,"naderna":5542,"tillhanda":5543,"aventyr":5544,"hande":5545,"problemet":5546,"delsed":5547,"insatser":5548,"lankar":5549,"vaknade":5550,"forran":5551,"horn":5552,"AND":5553,"videor":5554,"Sten":5555,"fyr":5556,"olikt":5557,"hallet":5558,"City":5559,"liggande":5560,"framtid":5561,"identifi":5562,"naturen":5563,"bestammelser":5564,"ium":5565,"400":5566,"styrelse":5567,"-,":5568,"fiske":5569,"ssionen":5570,"aktiva":5571,"utbildningen":5572,"sonder":5573,"licer":5574,"Sim":5575,"bestamde":5576,"tittade":5577,"forekommer":5578,"Wil":5579,"Pl":5580,"flyttade":5581,"ino":5582,"ingarna":5583,"hyres":5584,"erfarenheter":5585,"Folk":5586,"refle":5587,"PS":5588,"die":5589,"jus":5590,"hell":5591,"lim":5592,"pga":5593,"porno":5594,"ond":5595,"koppling":5596,"forbered":5597,"sadar":5598,"atik":5599,"ologisk":5600,"linje":5601,"Mel":5602,"tjanste":5603,"nare":5604,"arbeten":5605,"Danmark":5606,"billigt":5607,"aktivitet":5608,"utav":5609,"syr":5610,"skyldig":5611,"positivt":5612,"trade":5613,"bussen":5614,"pon":5615,"funnits":5616,"lant":5617,"Samman":5618,"amne":5619,"Black":5620,"ink":5621,"utlan":5622,"1000":5623,"Sil":5624,"center":5625,"Kina":5626,"hjartat":5627,"avstand":5628,"ior":5629,"Visa":5630,"Kun":5631,"orten":5632,"letar":5633,"arkite":5634,"qvist":5635,"priori":5636,"nodvandigt":5637,"statistik":5638,"David":5639,"aktivt":5640,"pasta":5641,"Tid":5642,"inlagget":5643,"stolt":5644,"aktiv":5645,"driv":5646,"tjansten":5647,"beskriver":5648,"fard":5649,"relat":5650,"ledar":5651,"motiv":5652,"underlag":5653,"lax":5654,"bostader":5655,"modellen":5656,"spelat":5657,"Pat":5658,"avslo":5659,"tillfallen":5660,"sproc":5661,"oerhort":5662,"Gro":5663,"Frag":5664,"snyggt":5665,"elektron":5666,"svall":5667,"forutsattning":5668,"arie":5669,"tillganglig":5670,"familjer":5671,"sien":5672,"gjord":5673,"kollade":5674,"texten":5675,"huden":5676,"assi":5677,"Film":5678,"miner":5679,"kallad":5680,"Chri":5681,"Bred":5682,"fjarde":5683,"Led":5684,"unda":5685,"mad":5686,"lekar":5687,"Johansson":5688,"Eli":5689,"vie":5690,"tyska":5691,"kyrka":5692,"sprodu":5693,"student":5694,"restauranger":5695,"lagar":5696,"slappa":5697,"fit":5698,"ational":5699,"Ryss":5700,"radda":5701,"nio":5702,"ansvarig":5703,"tic":5704,"mord":5705,"exklu":5706,"lagom":5707,"lyft":5708,".[":5709,"effektivt":5710,"una":5711,"ava":5712,"sexuella":5713,"massigt":5714,"smatt":5715,"dekor":5716,"symbol":5717,"karaktar":5718,"metall":5719,"Opp":5720,"market":5721,"skvall":5722,"troller":5723,"fragar":5724,"standet":5725,"faktum":5726,"leta":5727,"Foren":5728,"karl":5729,"ktiva":5730,"offici":5731,"Bel":5732,"TA":5733,"ono":5734,"SL":5735,"Nasta":5736,"livsmedel":5737,"basen":5738,"privata":5739,"Riks":5740,"nj":5741,"150":5742,"silver":5743,"individer":5744,"folket":5745,"Marie":5746,"glob":5747,"Bj":5748,"valda":5749,"Daremot":5750,"ved":5751,"lof":5752,"sering":5753,"Foto":5754,"hailand":5755,"forstor":5756,"okade":5757,"ategor":5758,"potatis":5759,"raknas":5760,"Ater":5761,"pil":5762,"normal":5763,"britann":5764,"certifi":5765,"latar":5766,"von":5767,"kalen":5768,"Bilder":5769,"horde":5770,"park":5771,"ern":5772,"forandra":5773,"intresserade":5774,"varsta":5775,"Max":5776,"amal":5777,"ph":5778,"fullmaktig":5779,"temperatur":5780,"tillvaxt":5781,"Speci":5782,"Italien":5783,"Win":5784,"fodelsed":5785,"chen":5786,"anvant":5787,"ley":5788,"major":5789,"wer":5790,"ringde":5791,"Jar":5792,"trodu":5793,"konstater":5794,"sim":5795,"litteratur":5796,"positiva":5797,"Imorgon":5798,"NING":5799,"bodde":5800,"hittills":5801,"2004":5802,"Vast":5803,"rinningsom":5804,"eventuella":5805,"jet":5806,"illar":5807,"statt":5808,"klassiska":5809,"VD":5810,"torsdag":5811,"amo":5812,"visningen":5813,"landa":5814,"49":5815,"lamnas":5816,"undantag":5817,"handlade":5818,"skickar":5819,"kast":5820,"bryt":5821,"Musi":5822,"stalls":5823,"isar":5824,"rappor":5825,"bock":5826,"siffr":5827,"syfta":5828,"balans":5829,"nagonstans":5830,"way":5831,"minskar":5832,"Tror":5833,"startar":5834,"amen":5835,"halften":5836,"zonen":5837,"Dig":5838,"ckade":5839,"somn":5840,"skat":5841,"Svart":5842,"forskare":5843,"85":5844,"AA":5845,"billiga":5846,"handen":5847,"nationella":5848,"rora":5849,"valkommen":5850,"hunden":5851,"sser":5852,"grej":5853,"ille":5854,"sspel":5855,"Ob":5856,"anmalan":5857,"rubri":5858,"pagar":5859,"karriar":5860,"fasta":5861,"tillam":5862,"eu":5863,"peppar":5864,"utover":5865,"hanga":5866,"teater":5867,"kompisar":5868,"bildning":5869,"langst":5870,"leverans":5871,"wor":5872,"rock":5873,"frasch":5874,"speri":5875,"Thaimassage":5876,"befint":5877,"ee":5878,"ano":5879,"Darefter":5880,"maskiner":5881,"sjukhus":5882,"hushall":5883,"rena":5884,"serade":5885,"studenter":5886,"tning":5887,"ratter":5888,"genomfora":5889,"Swed":5890,"tradgard":5891,"anmark":5892,"flashback":5893,"inkop":5894,"stjarnor":5895,"mogen":5896,"skickas":5897,"nojda":5898,"Sav":5899,"tycka":5900,"kakor":5901,"kursen":5902,"show":5903,"Ann":5904,"framtida":5905,"herr":5906,"passade":5907,"Helsingborg":5908,"hjart":5909,"berak":5910,"fortsatte":5911,"Storbritann":5912,"skarm":5913,"massan":5914,"Google":5915,"git":5916,"47":5917,"naturliga":5918,"kapa":5919,"Fo":5920,"stallt":5921,"your":5922,"tavlingen":5923,"siva":5924,"king":5925,"gyn":5926,"knappa":5927,"AS":5928,"sota":5929,"gill":5930,"loppet":5931,"fyn":5932,"positiv":5933,"elle":5934,"Ovr":5935,"els":5936,"radio":5937,"andes":5938,"stiden":5939,"agemang":5940,"Thom":5941,"presentation":5942,"Kro":5943,"ledig":5944,"fordelar":5945,"anslutning":5946,"gul":5947,"agna":5948,"%.":5949,"agerar":5950,"ktorn":5951,"overallt":5952,"ile":5953,"hanger":5954,"vaxa":5955,"mam":5956,"Log":5957,"hypote":5958,"sakerhets":5959,"Bir":5960,"tema":5961,"vanligtvis":5962,"desto":5963,"bredvid":5964,"langivare":5965,"Bade":5966,"Sma":5967,"osa":5968,"glass":5969,"kung":5970,"bekvam":5971,"apote":5972,"nyckel":5973,"vagn":5974,"digitala":5975,"behalla":5976,"jordbruks":5977,"Gavle":5978,"oso":5979,"personalen":5980,"urval":5981,"duktig":5982,"digare":5983,"tillfallet":5984,"Qu":5985,"matte":5986,"ias":5987,"Fe":5988,"japan":5989,"logg":5990,"Casino":5991,"rund":5992,"Kontakt":5993,"Fam":5994,"sili":5995,"sions":5996,"AM":5997,"faktorer":5998,"befolkad":5999,"Bal":6000,"hyra":6001,"resul":6002,"nyhet":6003,"skydda":6004,"kostnads":6005,"Inom":6006,"hinna":6007,"oppnar":6008,"byggt":6009,"Ton":6010,"grat":6011,"driva":6012,"utsikt":6013,"psyk":6014,"byra":6015,"publik":6016,"ags":6017,"vaxtart":6018,"naturligt":6019,"langsikt":6020,"koncentr":6021,"bitar":6022,"inre":6023,"Konta":6024,"satsen":6025,"itu":6026,"biska":6027,"slipper":6028,"forklara":6029,"sval":6030,"handelser":6031,"nakna":6032,"strin":6033,"bben":6034,"old":6035,"betalas":6036,"Sig":6037,"badrum":6038,"flytande":6039,"Dagens":6040,"Air":6041,"put":6042,"utomhus":6043,"42":6044,"utfora":6045,"pin":6046,"kass":6047,"Reg":6048,"juri":6049,"gjordes":6050,"julkla":6051,"rekry":6052,"kasin":6053,"bekra":6054,"polis":6055,"bestammer":6056,"mormor":6057,"Blir":6058,"bestamma":6059,"demokraterna":6060,"vunnit":6061,"uppna":6062,"narmaste":6063,"Ek":6064,"fron":6065,"Tex":6066,"heta":6067,"Precis":6068,"lly":6069,"somraden":6070,"falla":6071,"nus":6072,"mobilen":6073,"minne":6074,"Kultur":6075,"varv":6076,"fukt":6077,"cre":6078,"hej":6079,"budet":6080,"Saker":6081,"mall":6082,"skost":6083,"Totalt":6084,"runda":6085,"nerv":6086,"Chi":6087,"Maste":6088,"relationer":6089,"upplys":6090,"mann":6091,"sarskilda":6092,"grejer":6093,"benen":6094,"kryd":6095,"kin":6096,"facebook":6097,"minut":6098,"fira":6099,"sajter":6100,"this":6101,"behandlas":6102,"iosa":6103,"Cor":6104,"sortiment":6105,"fry":6106,"motion":6107,"alltfor":6108,"leverantorer":6109,"allmant":6110,"oxa":6111,"Soker":6112,"minsta":6113,"ambi":6114,"skram":6115,"gemensamt":6116,"lita":6117,"ral":6118,"Les":6119,"uttal":6120,"rese":6121,"mikro":6122,"byxor":6123,"omfattar":6124,"Vilka":6125,"andring":6126,"lokaler":6127,"Stefan":6128,"Bild":6129,"Ofta":6130,"ryggen":6131,"gransen":6132,"erotisk":6133,"kameran":6134,"tillbehor":6135,"inredning":6136,"presi":6137,"real":6138,"besvi":6139,"ryska":6140,"framsta":6141,"utbildningar":6142,"karta":6143,"rida":6144,"Bjor":6145,"parte":6146,"gna":6147,"Wa":6148,"slott":6149,"PP":6150,"gom":6151,"flick":6152,"jamn":6153,"fs":6154,"upplever":6155,"gum":6156,"kvan":6157,"OB":6158,"Mogna":6159,"Sport":6160,"forhoppningsvis":6161,"drott":6162,"prag":6163,"kull":6164,"situationer":6165,"Sag":6166,"nom":6167,"Sofi":6168,"guide":6169,"vd":6170,"fre":6171,"citet":6172,"stallde":6173,"andamal":6174,"iP":6175,"kerna":6176,"gru":6177,"fann":6178,"Sty":6179,"Lam":6180,"foremal":6181,"franska":6182,"visor":6183,"atan":6184,"laten":6185,"mobler":6186,"offentlig":6187,"avgorande":6188,"servera":6189,"Ry":6190,"myndigheter":6191,"saknas":6192,"konfli":6193,"marknadsforing":6194,"dos":6195,"Lad":6196,"Fu":6197,"Cy":6198,"Mic":6199,"Storbritannien":6200,"Tim":6201,"stry":6202,"iv":6203,"brom":6204,"verse":6205,"Tillsammans":6206,"dollar":6207,"final":6208,"somradet":6209,"forpack":6210,"skolans":6211,"funderar":6212,"gratt":6213,"Alltsa":6214,"verkligheten":6215,"ALL":6216,"mata":6217,"forstaelse":6218,"Don":6219,"kyck":6220,"ersatt":6221,"lagstift":6222,"Sok":6223,"aktier":6224,"Oavsett":6225,"paverkan":6226,"dras":6227,"assa":6228,"Japan":6229,"York":6230,"Cla":6231,"bjuda":6232,"byggnaden":6233,"gjorda":6234,"sigt":6235,"maxi":6236,"forskott":6237,"Cer":6238,"Skar":6239,"Jonas":6240,"inen":6241,"bbe":6242,"foreningar":6243,"play":6244,"forsor":6245,"baserad":6246,"sokande":6247,"berom":6248,"byggnader":6249,"Flera":6250,"shi":6251,"Paul":6252,"Varm":6253,"automatiskt":6254,"naturlig":6255,"trivs":6256,"64":6257,"mork":6258,"miljarder":6259,"foretagen":6260,"Ali":6261,"onsdag":6262,"anord":6263,"processen":6264,"fara":6265,"Net":6266,"slot":6267,"dot":6268,"Ly":6269,"avancer":6270,"Play":6271,"korrekt":6272,"gon":6273,"zon":6274,"flexi":6275,"repar":6276,"Tycker":6277,"happ":6278,"hastighet":6279,"Nilsson":6280,"Rad":6281,"historien":6282,"ytor":6283,"engagemang":6284,"skiljer":6285,"Bjorn":6286,"original":6287,"Christ":6288,"traffat":6289,"Sweden":6290,"foder":6291,"lagenheten":6292,"produkten":6293,"status":6294,"XX":6295,"pag":6296,"Fli":6297,"riska":6298,"situationen":6299,"Forsa":6300,"langtar":6301,"damm":6302,"kslan":6303,"Ryssland":6304,"jade":6305,"beslutet":6306,"Emma":6307,"vardet":6308,"satsa":6309,"skug":6310,"departe":6311,"papp":6312,"Che":6313,"offentliga":6314,"foll":6315,"jack":6316,"somrade":6317,"verkliga":6318,"kommunens":6319,"ssioner":6320,"SP":6321,"obefolkad":6322,"fagel":6323,"sydostra":6324,"byggd":6325,"utredning":6326,"enlighet":6327,"naken":6328,"hypotekslan":6329,"ustr":6330,"knik":6331,"Paris":6332,"Fru":6333,"noga":6334,"italien":6335,"Arets":6336,"sexleksaker":6337,"ica":6338,"skrivning":6339,"HA":6340,"cus":6341,"skrig":6342,"gt":6343,"siga":6344,"bett":6345,"konkurren":6346,"kunden":6347,"nivaer":6348,"vav":6349,"raka":6350,"England":6351,"upplevelser":6352,"tillamp":6353,"argu":6354,"besked":6355,"avlon":6356,"Ken":6357,"Region":6358,"strang":6359,"tjock":6360,"fyllt":6361,"onskemal":6362,"snall":6363,"iter":6364,"Ror":6365,"(\"":6366,"atch":6367,"Skon":6368,"skaff":6369,"vete":6370,"bilitet":6371,"teor":6372,"sprut":6373,"cce":6374,"aldern":6375,"avser":6376,"sekunder":6377,"helhet":6378,"brett":6379,"landets":6380,"namnda":6381,"sid":6382,"kopings":6383,"ip":6384,"barns":6385,"\u0000\u0000":6386,"anter":6387,"parla":6388,"eringen":6389,"ands":6390,"diskutera":6391,"byt":6392,"tranar":6393,"ces":6394,"pum":6395,"Spanien":6396,"UT":6397,"smin":6398,"Ban":6399,"stugan":6400,"**":6401,"belys":6402,"socialt":6403,"Port":6404,"Que":6405,"trapp":6406,"publiken":6407,"shopping":6408,"ave":6409,"fundera":6410,"sporter":6411,"You":6412,"sjukdomar":6413,"black":6414,"kristna":6415,"mod":6416,"Ag":6417,"ingred":6418,"Kata":6419,"enskom":6420,"unik":6421,"tage":6422,"Blev":6423,"69":6424,"angel":6425,"premiar":6426,"Goteborgs":6427,"amot":6428,"insats":6429,"anlaggning":6430,"lt":6431,"Ron":6432,"Gay":6433,"tliga":6434,"avfall":6435,"balkon":6436,"Ung":6437,"harda":6438,"eventuellt":6439,"rep":6440,"make":6441,"forsakrings":6442,"ifall":6443,"skona":6444,"Vastra":6445,"pyss":6446,"Mad":6447,"inkom":6448,"diet":6449,"luften":6450,"Gamla":6451,"Kontakta":6452,"erotiska":6453,"aktorer":6454,"delvis":6455,"forsokt":6456,"kart":6457,"halva":6458,"vent":6459,"bokstav":6460,"intill":6461,"vaggen":6462,"traffas":6463,"olik":6464,"synd":6465,"ansvarar":6466,"cro":6467,"upptacka":6468,"erings":6469,"stack":6470,"frakt":6471,"formag":6472,"samverkan":6473,"88":6474,"beskriva":6475,"hehe":6476,"rike":6477,"skriven":6478,"tillagg":6479,"appen":6480,"lip":6481,"Ratt":6482,"texter":6483,"konsumen":6484,"grans":6485,"introdu":6486,"yo":6487,"Kam":6488,"support":6489,"ktions":6490,"Gustav":6491,"Omgivningarna":6492,"sallad":6493,"organisationen":6494,"totala":6495,"baserade":6496,"svarare":6497,"2003":6498,"Miljo":6499,"samhalls":6500,"orden":6501,"smyck":6502,"togs":6503,"!!!!":6504,"forts":6505,"golf":6506,"effektiv":6507,"kannas":6508,"sinn":6509,"utslapp":6510,"rov":6511,"mask":6512,"trevliga":6513,"nyss":6514,"noll":6515,"blandning":6516,"oken":6517,"fullmaktige":6518,"asy":6519,"spins":6520,"bryg":6521,"fekt":6522,"\")":6523,"baserat":6524,"flicka":6525,"framover":6526,"kortare":6527,"emi":6528,"ml":6529,"allting":6530,"naring":6531,"sjuka":6532,"favori":6533,"lyssnar":6534,"savgift":6535,"bore":6536,"kontrollera":6537,"verksamheter":6538,"hr":6539,"aktor":6540,"gifta":6541,"uppstar":6542,"uppmarksamhet":6543,"Ci":6544,"ssons":6545,"fortjan":6546,"lagenheter":6547,"Exempel":6548,"historiska":6549,"lider":6550,"vanligaste":6551,"kanal":6552,"LO":6553,"omedelbart":6554,"arr":6555,"pizz":6556,"rads":6557,"panel":6558,"sannolikt":6559,"nis":6560,"issa":6561,"Bla":6562,"elev":6563,"belon":6564,"col":6565,"toal":6566,"Huv":6567,"nast":6568,"inslag":6569,"kontakter":6570,"arter":6571,"sarskild":6572,"gien":6573,"skiva":6574,"fartyg":6575,"framgar":6576,"nyfiken":6577,"lone":6578,"given":6579,"Fun":6580,"mani":6581,"Kanns":6582,"bul":6583,"stagram":6584,"omstand":6585,"vards":6586,"odi":6587,"189":6588,"Cen":6589,"FS":6590,"teckning":6591,"aller":6592,"sned":6593,"affars":6594,"valkomna":6595,"rejalt":6596,"kritik":6597,"bestallning":6598,"ise":6599,"byggande":6600,"66":6601,"Pet":6602,"skapat":6603,"lane":6604,"plock":6605,"Thomas":6606,"foljde":6607,"iker":6608,"kanten":6609,"tokoll":6610,"delstaten":6611,"ekonomisk":6612,"legi":6613,"fatta":6614,"dyker":6615,"traningen":6616,"asikter":6617,"leka":6618,"trycket":6619,"ney":6620,"sale":6621,"skogs":6622,"erbjudande":6623,"standig":6624,"Vasteras":6625,"Mamma":6626,"Mellan":6627,"karn":6628,"Fr":6629,"effekter":6630,"strum":6631,"leks":6632,"mental":6633,"bryta":6634,"inser":6635,"institution":6636,"kine":6637,"stot":6638,"jning":6639,"Wor":6640,"tapp":6641,"amnet":6642,"Lyck":6643,"patient":6644,"ial":6645,"imponer":6646,"ful":6647,"lades":6648,"if":6649,"KT":6650,"varmen":6651,"undervisning":6652,"tral":6653,"utomlands":6654,"nyhets":6655,"Sjo":6656,"utbildnings":6657,"vardera":6658,"versit":6659,"villa":6660,"lada":6661,"utvecklings":6662,"kollektiv":6663,"gardar":6664,"omojligt":6665,"dell":6666,"Sing":6667,"uppfattning":6668,"tig":6669,"spelas":6670,"mmel":6671,"Antalet":6672,"ae":6673,"Seri":6674,"arbetade":6675,"ekonomiskt":6676,"emp":6677,"order":6678,"girl":6679,"sovrum":6680,"utbred":6681,"lod":6682,"itter":6683,"fylld":6684,"ums":6685,"visningar":6686,"veter":6687,"klatt":6688,"EG":6689,"svam":6690,"tner":6691,"utmaningar":6692,"Istallet":6693,"tisdag":6694,"sakna":6695,"Magnus":6696,"fyllda":6697,"Mc":6698,"Lor":6699,"war":6700,"HL":6701,"boreala":6702,"debut":6703,"Inget":6704,"uppfolj":6705,"redu":6706,"innehallet":6707,"Geor":6708,"lyfta":6709,"klimatzonen":6710,"beteende":6711,"ingsdag":6712,"41":6713,"dialog":6714,"forber":6715,"styrelsens":6716,"mastare":6717,"Sti":6718,"youtube":6719,"dryck":6720,"strid":6721,"AV":6722,"farligt":6723,"kvalitets":6724,"43":6725,"pask":6726,"hemsidan":6727,"valj":6728,"System":6729,"Len":6730,"Egen":6731,"flyttar":6732,"Jack":6733,"Vatten":6734,"Histor":6735,"sakta":6736,"skans":6737,"Henrik":6738,"pic":6739,"gemensam":6740,"that":6741,"Redan":6742,"mix":6743,"stralien":6744,"Of":6745,"sted":6746,"SVT":6747,"presentera":6748,"celler":6749,"Klimat":6750,"fargen":6751,"Bur":6752,"Sko":6753,"tagna":6754,"stoppa":6755,"tavla":6756,"blogga":6757,"Djur":6758,"rorelsen":6759,"Angel":6760,"Kl":6761,"kortet":6762,"happy":6763,"allmanhet":6764,".,":6765,"doda":6766,"porrfilmer":6767,"Fore":6768,"atter":6769,"levt":6770,"intakter":6771,"arenden":6772,"tabell":6773,"betalningar":6774,"uc":6775,"narmast":6776,"fiska":6777,"tillverkar":6778,"angest":6779,"tydliga":6780,"67":6781,"svenskar":6782,"stimul":6783,"lott":6784,"Lou":6785,"behandlingen":6786,"domin":6787,"Mika":6788,"usen":6789,"rekord":6790,"Stra":6791,"ovanligt":6792,"schef":6793,"stuga":6794,"Webb":6795,"Vidare":6796,"isol":6797,"teringen":6798,"stracker":6799,"okning":6800,"aterigen":6801,"Arbets":6802,"Bad":6803,"koncept":6804,"kraftigt":6805,"ap":6806,"anpass":6807,"doft":6808,"Posted":6809,"stannar":6810,"felakt":6811,"gjorts":6812,"fjarilsart":6813,"inled":6814,"nick":6815,"iken":6816,"landerna":6817,"stabil":6818,"tycks":6819,"Ke":6820,"uttar":6821,"avtalet":6822,"uri":6823,"Tar":6824,"svarade":6825,"troligen":6826,"rarna":6827,"tter":6828,"berattelse":6829,"strackning":6830,"yp":6831,"ola":6832,"shop":6833,"Olof":6834,"klas":6835,"600":6836,"jamfora":6837,"planering":6838,"Ger":6839,"forsvinner":6840,"CD":6841,"vies":6842,"tvav":6843,"oma":6844,"Beng":6845,"Ren":6846,"Inter":6847,"Are":6848,"billig":6849,"parkering":6850,"Ax":6851,"tomt":6852,"Sor":6853,"sahar":6854,"Ring":6855,"rollen":6856,"andringar":6857,"ockade":6858,"byggda":6859,"vark":6860,"manskliga":6861,"register":6862,"fjall":6863,"Can":6864,"national":6865,"Micro":6866,"stycket":6867,".....":6868,"objekt":6869,"lett":6870,"semin":6871,"bby":6872,"filoso":6873,"avloningsdag":6874,"Bank":6875,"delarna":6876,"svard":6877,"stadens":6878,"utseende":6879,"250":6880,"tidning":6881,"redovisning":6882,"dows":6883,"Publi":6884,"jordbruksmark":6885,"saledes":6886,"flertal":6887,"sso":6888,"hamnade":6889,"losen":6890,"lask":6891,"motiver":6892,"skillnaden":6893,"akten":6894,"viken":6895,"billigare":6896,"ments":6897,"marks":6898,"kontroller":6899,"givaren":6900,"lasning":6901,"lings":6902,"Kalmar":6903,"skop":6904,"Ab":6905,"irri":6906,"Erotisk":6907,"splatser":6908,"nivan":6909,"prest":6910,"UR":6911,"erbjuds":6912,"kvinnan":6913,"2002":6914,"Linkoping":6915,"Hotell":6916,"jattebra":6917,"ierna":6918,"Kram":6919,"departementet":6920,"planerar":6921,"mkt":6922,"typen":6923,"dum":6924,"kollegor":6925,"win":6926,"tradgarden":6927,"fritids":6928,"ea":6929,"Eva":6930,"sjukvard":6931,"kreter":6932,"knappast":6933,"skorter":6934,"klock":6935,"kalas":6936,"formular":6937,"titet":6938,"onym":6939,"Sun":6940,"Hjal":6941,"gripande":6942,"slu":6943,"mstad":6944,"anstallning":6945,"artikeln":6946,"lycka":6947,"Akti":6948,"hellre":6949,"Lok":6950,"faltet":6951,"ball":6952,"foregaende":6953,"now":6954,"Kort":6955,"olution":6956,"ice":6957,"59":6958,"forlang":6959,"57":6960,"OCH":6961,"fysiska":6962,"kristen":6963,"bila":6964,"ansiktet":6965,"dd":6966,"komplet":6967,"vens":6968,"Brun":6969,"traditionella":6970,"speciella":6971,"Gusta":6972,"manniskan":6973,"Pris":6974,"skulder":6975,"laddning":6976,"svenskt":6977,"vardagen":6978,"tjana":6979,"inbju":6980,"succe":6981,"digital":6982,"miljoer":6983,"bibliotek":6984,"gront":6985,"pigg":6986,"bevil":6987,"borgar":6988,"2001":6989,"tranare":6990,"jamforelse":6991,"MS":6992,"EA":6993,"skorna":6994,"sket":6995,"informationen":6996,"angaende":6997,"undersoka":6998,"milf":6999,"tavlingar":7000,"hoppade":7001,"UC":7002,"slosa":7003,"freds":7004,"emellan":7005,"kollar":7006,"Blu":7007,"kets":7008,"gymnasie":7009,"lopande":7010,"sche":7011,"planera":7012,"ligheter":7013,"slippa":7014,"Isra":7015,"Enda":7016,"kassa":7017,"tillbr":7018,"ros":7019,"pitel":7020,"Syftet":7021,"annons":7022,"speciell":7023,"etiska":7024,"Guds":7025,"efterat":7026,"rekommendera":7027,"alist":7028,"medveten":7029,"hamtade":7030,"cafe":7031,"vaska":7032,"utstallning":7033,"lanser":7034,"diskussion":7035,"eftermiddagen":7036,"intressen":7037,"handelse":7038,"fond":7039,"Big":7040,"Konst":7041,"bakat":7042,"evenemang":7043,"jobbade":7044,"dildo":7045,"spelen":7046,"Reger":7047,"baten":7048,"berattelser":7049,"Live":7050,"forvant":7051,"erier":7052,"spin":7053,"hatt":7054,"kommunal":7055,"from":7056,"PC":7057,"skron":7058,"Bre":7059,"skaps":7060,"bubb":7061,"koncer":7062,"aut":7063,"egendom":7064,"klanning":7065,"ingredien":7066,"varda":7067,"mekan":7068,"Wal":7069,"Hennes":7070,"uppmarksamma":7071,"68":7072,"vac":7073,"fragorna":7074,"plugga":7075,"Snart":7076,"svaret":7077,"ider":7078,"?)":7079,"fragas":7080,"tillag":7081,"verklighet":7082,"Los":7083,"ganis":7084,"biljetter":7085,"smut":7086,"darifran":7087,"bekant":7088,"stannade":7089,"finalen":7090,"Varl":7091,"Kul":7092,"lanken":7093,"postadress":7094,"Syn":7095,"glomma":7096,"bunden":7097,"Program":7098,"Otta":7099,"fonder":7100,"Samma":7101,"kropps":7102,"Island":7103,"trygghet":7104,"overenskom":7105,"engag":7106,"58":7107,"synner":7108,"Kyr":7109,"Tidigare":7110,"stera":7111,"affarer":7112,"bek":7113,"78":7114,"Dam":7115,"kud":7116,"omgivande":7117,"kannande":7118,"dram":7119,"deltog":7120,"umgas":7121,"inspe":7122,"120":7123,"styra":7124,"Beslut":7125,"https":7126,"ansok":7127,"koppla":7128,"Tjan":7129,"ativet":7130,"oberoende":7131,"Mats":7132,"Lac":7133,"Ottawa":7134,"foretags":7135,"aspe":7136,"serier":7137,"andas":7138,"kelse":7139,"188":7140,"dna":7141,"knappen":7142,"Utover":7143,"trar":7144,"inska":7145,"rats":7146,"utgar":7147,"core":7148,"betrakta":7149,"parken":7150,"foljt":7151,"Pla":7152,"finan":7153,"stallda":7154,"festivalen":7155,"gronsaker":7156,"besoker":7157,"forslaget":7158,"Gir":7159,"drommar":7160,"gymnasiet":7161,"skivor":7162,"andan":7163,"ckning":7164,"mage":7165,"bia":7166,"Karin":7167,"behovet":7168,"utmar":7169,"lur":7170,"Jonkoping":7171,"snur":7172,"reserv":7173,"spor":7174,"tvi":7175,"Ram":7176,"ktivt":7177,"Sodra":7178,"girls":7179,"vention":7180,"demon":7181,"Helsingfors":7182,"ingeart":7183,"soft":7184,"tvavingeart":7185,"examen":7186,"Stat":7187,"glomt":7188,"cake":7189,"pann":7190,"rakning":7191,"umer":7192,"side":7193,"Cha":7194,"rt":7195,"sperson":7196,"Jer":7197,"krafter":7198,"yrke":7199,"sprodukter":7200,"Cre":7201,"illustr":7202,"Huvud":7203,"skrivna":7204,"kiska":7205,"Norra":7206,"starkare":7207,"illiam":7208,"light":7209,"erligen":7210,"planerat":7211,"tolv":7212,"frika":7213,"fredags":7214,"arg":7215,"antagligen":7216,"Satt":7217,"snu":7218,"begrans":7219,"havare":7220,"platta":7221,"antar":7222,"Jul":7223,"coach":7224,"Xxx":7225,"behandla":7226,"explo":7227,"datorer":7228,"sidorna":7229,"distri":7230,"bjorn":7231,"oblig":7232,"hantverk":7233,"registrera":7234,"1800":7235,"kyckling":7236,"planet":7237,"velat":7238,"berget":7239,"overva":7240,"skottet":7241,"museum":7242,"cyklar":7243,"utsatt":7244,"OD":7245,"talje":7246,"begransad":7247,"reglerna":7248,"foton":7249,"vinster":7250,"bs":7251,"gras":7252,"organiser":7253,"aringar":7254,"2019":7255,"fattning":7256,"hett":7257,"raknar":7258,"dagligen":7259,"infe":7260,"utvecklar":7261,"Lans":7262,"1990":7263,"Mark":7264,"mys":7265,"meny":7266,"motsvarar":7267,"cykla":7268,"onska":7269,"befolkningen":7270,"UL":7271,"veget":7272,"Kall":7273,"surf":7274,"Wall":7275,"ister":7276,"inomhus":7277,"rutiner":7278,"56":7279,"index":7280,"zo":7281,"wood":7282,"mn":7283,"Hotel":7284,"knullar":7285,"paus":7286,"regelbundet":7287,"kontrakt":7288,"samlar":7289,"moment":7290,"Strom":7291,"uppgifterna":7292,"bakter":7293,"Allman":7294,"ffer":7295,"akademi":7296,"forlust":7297,"instrument":7298,"insag":7299,"Gustaf":7300,"andina":7301,"diverse":7302,"ian":7303,"krimin":7304,"spraket":7305,"Kanner":7306,"granser":7307,"ventil":7308,"respekt":7309,"behandlar":7310,"utstrackning":7311,"Anni":7312,"borgare":7313,"legat":7314,"rare":7315,"avrinningsom":7316,"Forra":7317,"dygn":7318,"gilt":7319,"Tube":7320,"effektiva":7321,"hasten":7322,"ugh":7323,"trafiken":7324,"ugg":7325,"Syd":7326,"atorer":7327,"skoj":7328,"bron":7329,"kriget":7330,"wn":7331,"frek":7332,"mangden":7333,"unta":7334,"lycklig":7335,"stres":7336,"varierar":7337,"lic":7338,"Vis":7339,"musiken":7340,"Sjalvklart":7341,"mission":7342,"redig":7343,"tunga":7344,"komplicer":7345,"oden":7346,"sterande":7347,"ordna":7348,"Robert":7349,"Eric":7350,"kabel":7351,"aktuell":7352,"specifika":7353,"disp":7354,"Skog":7355,"uttag":7356,"ugnen":7357,"galla":7358,"avses":7359,"forvaltning":7360,"fonstret":7361,"tall":7362,"ktivet":7363,"foddes":7364,"77":7365,"gemang":7366,"installning":7367,"materialet":7368,"mentera":7369,"praktiskt":7370,"tusentals":7371,"registrering":7372,"sinstitut":7373,"ordinarie":7374,"liter":7375,"more":7376,"recensioner":7377,"kunn":7378,"BB":7379,"TT":7380,"Park":7381,"tabl":7382,"FN":7383,"hallas":7384,"Goran":7385,"Kost":7386,"krets":7387,"Full":7388,"kryss":7389,"kontoret":7390,"storlekar":7391,"klubbar":7392,"fiber":7393,":(":7394,"taket":7395,"eftermiddag":7396,"Larsson":7397,"fantasi":7398,"dium":7399,"provning":7400,"Titta":7401,"erotik":7402,"alisering":7403,"Ovriga":7404,"terande":7405,"camp":7406,"tika":7407,"Australien":7408,"holmen":7409,"laggs":7410,"William":7411,"oppnade":7412,"munnen":7413,"primar":7414,"syftar":7415,"Spar":7416,"idat":7417,"kampa":7418,"utlaning":7419,"versionen":7420,"ving":7421,"own":7422,"stallande":7423,"__":7424,"ellertid":7425,"witter":7426,"IM":7427,"Spa":7428,"Mexi":7429,"Dri":7430,"ingom":7431,"kontinuer":7432,"RF":7433,"Ikvall":7434,"larande":7435,"seminari":7436,"fritid":7437,"skrack":7438,"Dagen":7439,"ologiskt":7440,"rings":7441,"vett":7442,"storp":7443,"uppat":7444,"Andreas":7445,"dt":7446,"syssel":7447,"sakerstalla":7448,"Run":7449,"ledsen":7450,"uppenbar":7451,"fokusera":7452,"logga":7453,"ovningar":7454,"siffror":7455,"alternativt":7456,"tron":7457,"president":7458,"domar":7459,"sjukskoter":7460,"Kvinna":7461,"Mac":7462,"utnyttja":7463,"Energi":7464,"roligare":7465,"deltar":7466,"fastigheter":7467,"handlingen":7468,"fiskar":7469,"belysning":7470,"Back":7471,"iller":7472,"Kopa":7473,"Micha":7474,"spelarna":7475,"ansvart":7476,"tagits":7477,"inriktning":7478,"volym":7479,"byggnads":7480,"GR":7481,"morka":7482,"gangs":7483,"innebara":7484,"djupt":7485,"minnen":7486,"arig":7487,"Bengt":7488,"feber":7489,"52":7490,"presenter":7491,"standar":7492,"Hell":7493,"pry":7494,"handeln":7495,"tiv":7496,"rengor":7497,"landsting":7498,"osaker":7499,"uu":7500,"Ytter":7501,"grymt":7502,"talade":7503,"best":7504,"intryck":7505,"800":7506,"ere":7507,"brut":7508,"lipp":7509,"homo":7510,"europeiska":7511,"motte":7512,"Handel":7513,"stada":7514,"Skriv":7515,"utmaning":7516,"ATT":7517,"ariga":7518,"tret":7519,"Beho":7520,"slin":7521,"emo":7522,"Tryck":7523,";-":7524,"repp":7525,"Iran":7526,"skett":7527,"skriget":7528,"Victor":7529,"jacka":7530,"beva":7531,"besikt":7532,"amerikansk":7533,"sivt":7534,"Bada":7535,"skinn":7536,"trader":7537,"lub":7538,"suttit":7539,"lediga":7540,"duk":7541,"ningsomrade":7542,"forkyl":7543,"genast":7544,"avslapp":7545,"byggdes":7546,"mes":7547,"akut":7548,"otro":7549,"Stre":7550,"initiativ":7551,"have":7552,"fodelsedag":7553,"matem":7554,"ansikte":7555,"somnade":7556,",,":7557,"city":7558,"enormt":7559,"elegan":7560,"Sommar":7561,"Arti":7562,"dods":7563,"vasent":7564,"West":7565,"forlag":7566,"lordags":7567,"somna":7568,"sajten":7569,"enheten":7570,"kulture":7571,"Fro":7572,"dygnet":7573,"whi":7574,"Damer":7575,"igger":7576,"springer":7577,"INTE":7578,"lamplig":7579,"ene":7580,"forklarar":7581,"halsen":7582,"leverera":7583,"forvand":7584,"forny":7585,"formul":7586,"bekym":7587,"bockerna":7588,"pape":7589,"likadan":7590,"chefen":7591,"bebis":7592,"Rum":7593,"personligt":7594,"vartom":7595,"protein":7596,"uppman":7597,"resen":7598,"ovning":7599,"forare":7600,"Antal":7601,"Sitter":7602,"Deras":7603,"smaningom":7604,"inspel":7605,"kru":7606,"konferens":7607,"rikes":7608,"terings":7609,"sagare":7610,"lis":7611,"Ord":7612,"alders":7613,"Cree":7614,"inkluderar":7615,"praktiken":7616,"Videos":7617,"Lju":7618,"turner":7619,"scenen":7620,"vandring":7621,"Hav":7622,"Karlsson":7623,"misstag":7624,"signal":7625,"revolution":7626,"terrangen":7627,"foretagare":7628,"forsknings":7629,"Swedish":7630,"Jose":7631,"medlems":7632,"anvandar":7633,"avsug":7634,"medfor":7635,"):":7636,"1900":7637,"Lilla":7638,"spelaren":7639,"negativa":7640,"fodda":7641,"professor":7642,"hundrat":7643,"favoriter":7644,"lakar":7645,"new":7646,"stant":7647,"Bus":7648,"befintliga":7649,"kosten":7650,"stuna":7651,"standiga":7652,"Perfekt":7653,"sexuell":7654,"fuck":7655,"VA":7656,"Alskar":7657,"try":7658,"1999":7659,"foreslar":7660,"Nyheter":7661,"Gri":7662,"lovar":7663,"Ost":7664,"vikten":7665,"starten":7666,"stock":7667,"LE":7668,"farre":7669,"praktiska":7670,"arv":7671,"kos":7672,"gag":7673,"SC":7674,"forsaljare":7675,"Lulea":7676,"rorelser":7677,"Fre":7678,"sorts":7679,"duktiga":7680,"bens":7681,"cher":7682,"days":7683,"kit":7684,"kladd":7685,"skapade":7686,"denne":7687,"partier":7688,"vantade":7689,"forandras":7690,"vistelse":7691,"revi":7692,"utgangspun":7693,"Boras":7694,"beloppet":7695,"Lena":7696,"hallare":7697,"rapporten":7698,"skarmen":7699,"maskinen":7700,"filer":7701,"arbetslos":7702,"fotter":7703,"snack":7704,"syra":7705,"telefonen":7706,"draget":7707,"foreskrifter":7708,"medborgare":7709,"armen":7710,"Elin":7711,"ION":7712,"hette":7713,"ida":7714,"trycka":7715,"vana":7716,"kyrk":7717,"stamma":7718,"retur":7719,"datera":7720,"kir":7721,"terror":7722,"blandade":7723,"Nov":7724,"traden":7725,"Styrel":7726,"uppmun":7727,"placering":7728,"anmala":7729,"Sha":7730,"fardiga":7731,"funktions":7732,"erats":7733,"dagis":7734,"foretagets":7735,"big":7736,"ljuset":7737,"hjalpte":7738,"Pan":7739,"uppmarksam":7740,"konsult":7741,"pod":7742,"arbetsgivare":7743,"stilla":7744,"Linda":7745,"rok":7746,"skilstuna":7747,"uth":7748,"tonaring":7749,"OP":7750,"telefonnummer":7751,"sop":7752,"Mobil":7753,"grunder":7754,"gig":7755,"lille":7756,"paga":7757,"eriet":7758,"dandet":7759,"rekommend":7760,"samlade":7761,"rutin":7762,"Creek":7763,"drabbas":7764,"komplett":7765,"Pra":7766,"fota":7767,"betes":7768,"minuters":7769,"skrona":7770,"kategorin":7771,"efon":7772,"blan":7773,"Norrkoping":7774,"troja":7775,"vagnen":7776,"54":7777,"71":7778,"51":7779,"riskerar":7780,"kreterare":7781,"smidigt":7782,"flugor":7783,"sakerna":7784,"pop":7785,"Fler":7786,"stanga":7787,"Hun":7788,"malm":7789,"myndigheten":7790,"79":7791,"blem":7792,"vetenskapliga":7793,"allergi":7794,"banker":7795,"Mikael":7796,"vaggar":7797,"ighets":7798,"GB":7799,"annonsen":7800,"bollen":7801,"Windows":7802,"stiga":7803,"Nedan":7804,"servi":7805,"lakaren":7806,"escorts":7807,"alu":7808,"tekniker":7809,"Tav":7810,"trang":7811,"penhamn":7812,"kny":7813,"Boken":7814,"Medan":7815,"uel":7816,"funktionen":7817,"drivs":7818,"sikten":7819,"AP":7820,"ston":7821,"vager":7822,"Trafik":7823,"War":7824,"stom":7825,"mur":7826,"dru":7827,"informer":7828,"digheten":7829,"emat":7830,"Vaxjo":7831,"lill":7832,"djupa":7833,"internationell":7834,"mjuka":7835,"karleken":7836,"skots":7837,"verkets":7838,"Naken":7839,"skum":7840,"utsatta":7841,"framme":7842,"ladd":7843,"53":7844,"mers":7845,"kampanj":7846,"Gron":7847,"levererar":7848,"Plus":7849,"FC":7850,"stjarn":7851,"menyn":7852,"ower":7853,"bryr":7854,"slapper":7855,"spanning":7856,"tvingas":7857,"paverkas":7858,"ete":7859,"fallen":7860,"Porrfilm":7861,"emellertid":7862,"lordagen":7863,"tatt":7864,"hands":7865,"vaxande":7866,"inger":7867,"webben":7868,"aterial":7869,"gubbar":7870,"Grund":7871,"balanser":7872,"Lagen":7873,"samlat":7874,"varier":7875,"Asi":7876,"proff":7877,"pump":7878,"dies":7879,"ledningar":7880,"Mun":7881,"63":7882,"minnes":7883,"hoja":7884,"Rod":7885,"himmel":7886,"prenor":7887,"ationerna":7888,"vardighet":7889,"Ten":7890,"forskolan":7891,"kallor":7892,"uppsala":7893,"trosor":7894,"vaningen":7895,"hack":7896,"Tankte":7897,"suger":7898,"diagno":7899,"72":7900,"matta":7901,"Dem":7902,"Center":7903,"forhindra":7904,"kasta":7905,"Hanna":7906,"tans":7907,"hd":7908,"SB":7909,"semi":7910,"Batt":7911,"frivill":7912,"ence":7913,"tillfor":7914,"penning":7915,"nami":7916,"katastro":7917,"edom":7918,"Fanta":7919,"cle":7920,"TR":7921,"affaren":7922,"scar":7923,"62":7924,"husen":7925,"slit":7926,"gillade":7927,"skrimin":7928,"tai":7929,"temot":7930,"Hit":7931,"ming":7932,"Hot":7933,"betydande":7934,"packa":7935,"Ange":7936,"turi":7937,"dimen":7938,"medal":7939,"vanligen":7940,"forsen":7941,"Fly":7942,"klassisk":7943,"Brost":7944,"tions":7945,"Mig":7946,"roster":7947,"….":7948,"forsvann":7949,"forvaltningen":7950,"floden":7951,"andinavi":7952,"foredrar":7953,"eventuell":7954,"ogonblick":7955,"dagliga":7956,"anhor":7957,"aktiver":7958,"gerna":7959,"priserna":7960,"avdelning":7961,"beskriv":7962,"pli":7963,"hors":7964,"handerna":7965,"manniskors":7966,"kvinnliga":7967,"Rapp":7968,"Af":7969,"skande":7970,"oth":7971,"kvarter":7972,"Cham":7973,"kostnaden":7974,"linjen":7975,"check":7976,"overenskomm":7977,"amoter":7978,"konsument":7979,"ova":7980,"skurs":7981,"ifragas":7982,"ula":7983,"Bak":7984,"presenteras":7985,"hallit":7986,"top":7987,"invig":7988,"ceae":7989,"formagan":7990,"skepp":7991,"Avs":7992,"has":7993,"jort":7994,"Cu":7995,"cas":7996,"grov":7997,"promena":7998,"fangelse":7999,"hed":8000,"uppfyller":8001,"rosta":8002,"prog":8003,"spre":8004,"arch":8005,"Fer":8006,"Johanna":8007,"oron":8008,"politiskt":8009,"CC":8010,"sprida":8011,"levde":8012,"farliga":8013,"deklar":8014,"beraknas":8015,"bekvamt":8016,"Lisa":8017,"industrin":8018,"filter":8019,"kreditkort":8020,"plagg":8021,"arrangemang":8022,"bokning":8023,"ness":8024,"krediter":8025,"aner":8026,"time":8027,"larar":8028,"doktor":8029,"kraven":8030,"Anmal":8031,"aldsta":8032,"arliga":8033,"bransle":8034,"risker":8035,"loser":8036,"hogskolan":8037,"ite":8038,"uppdraget":8039,"vibr":8040,"weiz":8041,"varenda":8042,"njuter":8043,"doms":8044,"flode":8045,"Fem":8046,"kommunala":8047,"uppfor":8048,"cool":8049,"\":":8050,"sedd":8051,"1998":8052,"1980":8053,"recension":8054,"chanser":8055,"umea":8056,"etik":8057,"gava":8058,"house":8059,"tram":8060,"stolen":8061,"tillater":8062,"hallning":8063,"hemi":8064,"ves":8065,"brotts":8066,"baks":8067,"foreningens":8068,"Kommunen":8069,"annes":8070,"Hard":8071,"VAR":8072,"Blom":8073,"medlemskap":8074,"World":8075,"byran":8076,"biljett":8077,"will":8078,"beskrivs":8079,"��":8080,"ansvaret":8081,"sinne":8082,"riktlinjer":8083,"produktionen":8084,"uppre":8085,"ismen":8086,"fysisk":8087,"bekan":8088,"ungdoms":8089,"forlorade":8090,"Filmer":8091,"tillfreds":8092,"merika":8093,"forfattaren":8094,"Bran":8095,"Gol":8096,"brister":8097,"anen":8098,"Medle":8099,"Eriksson":8100,"experi":8101,"Snyg":8102,"nomin":8103,"spendera":8104,"analyser":8105,"Jord":8106,"studera":8107,"pam":8108,"snon":8109,"lampligt":8110,"varderingar":8111,"pressa":8112,"stjanst":8113,"view":8114,"stallas":8115,"olje":8116,"omvand":8117,"tru":8118,"zy":8119,"bolagets":8120,"Dra":8121,"vakna":8122,"betalningsanmark":8123,"krang":8124,"Rock":8125,"One":8126,"narna":8127,"mosfar":8128,"Glo":8129,"domstolen":8130,"Stall":8131,"Anda":8132,"paren":8133,"Hed":8134,"foran":8135,"ramen":8136,"testat":8137,"stiger":8138,"Resultatet":8139,"stodja":8140,"innehalla":8141,"Persson":8142,"rutan":8143,"Mid":8144,"undersokningar":8145,"As":8146,"farmor":8147,"Porno":8148,"locka":8149,"halvar":8150,"skonhet":8151,"cal":8152,"mering":8153,"rekommenderas":8154,"Smar":8155,"betalt":8156,"Sundsvall":8157,"tekniken":8158,"internationellt":8159,"Besok":8160,"tillverkare":8161,"Kuk":8162,"sklass":8163,"Vux":8164,"fur":8165,"praktik":8166,"kningar":8167,"samarbet":8168,"blin":8169,"Glom":8170,"baby":8171,"larm":8172,"vy":8173,"ally":8174,"Malin":8175,"Kla":8176,"sparar":8177,"Tag":8178,"landskapet":8179,"kej":8180,"hjarnan":8181,"%)":8182,"foral":8183,"visserligen":8184,"markte":8185,"vaxtlighet":8186,"pojkar":8187,"orien":8188,"samhallen":8189,"orolig":8190,"Thailand":8191,"forsakra":8192,"stamning":8193,"lampa":8194,"astad":8195,"Namn":8196,"kanon":8197,"ongen":8198,"landsbyg":8199,"Mol":8200,"politisk":8201,"tysk":8202,"apotek":8203,"samlas":8204,"hemale":8205,"stolar":8206,"skilda":8207,"multi":8208,"dikt":8209,"Lill":8210,"lakt":8211,"hungr":8212,"Tal":8213,"deltagarna":8214,"forvantningar":8215,"tuff":8216,"borgs":8217,"forvag":8218,"Em":8219,"Bredden":8220,"anledningen":8221,"sprojekt":8222,"stenar":8223,"DN":8224,"kategorier":8225,"kvalite":8226,"serios":8227,"investeringar":8228,"Vit":8229,"individ":8230,"midsommar":8231,"gull":8232,"natter":8233,"integri":8234,"Vard":8235,"skickade":8236,"98":8237,"sokte":8238,"Dis":8239,"riksdagen":8240,"snalla":8241,"mojligen":8242,"lyser":8243,"danska":8244,"vaxte":8245,"1970":8246,"Tekni":8247,"Kolla":8248,"Tjej":8249,"LED":8250,"Ons":8251,"belast":8252,"losningen":8253,"slanga":8254,"sambo":8255,"ovre":8256,"resultaten":8257,"vags":8258,"avse":8259,"timmars":8260,"ygga":8261,"festen":8262,"skid":8263,"ktade":8264,"listor":8265,"ders":8266,"Ji":8267,"museet":8268,"flaska":8269,"stel":8270,"Fitta":8271,"socken":8272,"Fragan":8273,"casinon":8274,"avvi":8275,"ansikt":8276,"hogskola":8277,"Sov":8278,"moln":8279,"dorrar":8280,"obje":8281,"katalog":8282,"Start":8283,"dop":8284,"kommersi":8285,"kontant":8286,"anten":8287,"jamstalld":8288,"diskt":8289,"gummi":8290,"konferen":8291,"Ce":8292,"forbju":8293,"komple":8294,"anstrang":8295,"CO":8296,"DE":8297,"leg":8298,"Sum":8299,"Rel":8300,"FA":8301,"coun":8302,"trans":8303,"konsert":8304,"glasogon":8305,"eftea":8306,"ladan":8307,"ycke":8308,"malen":8309,"Anton":8310,"atal":8311,"brot":8312,"fungerande":8313,"gymmet":8314,"reson":8315,"tempo":8316,"avsugning":8317,"debatten":8318,"end":8319,"kika":8320,"specifik":8321,"Vall":8322,"Folj":8323,"fastigheten":8324,"blank":8325,"pressen":8326,"area":8327,"Hakan":8328,"flyttat":8329,"Ditt":8330,"Real":8331,"tidningar":8332,"cur":8333,"Trad":8334,"list":8335,"sterar":8336,"ogen":8337,"saaa":8338,"fenomen":8339,"stroms":8340,"Gener":8341,"konomi":8342,"overlag":8343,"kondition":8344,"bomull":8345,"atur":8346,"finska":8347,"IB":8348,"lektion":8349,"ssiv":8350,"konsum":8351,"pamin":8352,"tyder":8353,"meddelanden":8354,"kandidat":8355,"hatar":8356,"vaccin":8357,"titeln":8358,"stjarna":8359,"tillgod":8360,"helsing":8361,"come":8362,"ath":8363,"Petter":8364,"sjukhuset":8365,"jaren":8366,"anstalld":8367,"blanda":8368,"backa":8369,"skillnader":8370,"emplar":8371,"himlen":8372,"demokrati":8373,"presenterar":8374,"byter":8375,"iness":8376,"Linne":8377,"rante":8378,"Utveck":8379,"daren":8380,"sticka":8381,"ward":8382,"forstod":8383,"Kol":8384,"Michael":8385,"stationen":8386,"Isa":8387,"vinkel":8388,"batar":8389,"behandlingar":8390,"underlatta":8391,"Alexander":8392,"anlaggningar":8393,"poker":8394,"undra":8395,"yttre":8396,"muskel":8397,"entu":8398,"finaste":8399,"alska":8400,"konsekvenser":8401,"IR":8402,"edi":8403,"recep":8404,"norska":8405,"ikapp":8406,"hamna":8407,"Flyg":8408,"overty":8409,"Sofia":8410,"Ake":8411,"anvandes":8412,"kapacitet":8413,"kust":8414,"koks":8415,"femte":8416,"uppehall":8417,"kapitel":8418,"Jenny":8419,"svamp":8420,"jakla":8421,"Radio":8422,"Telefon":8423,"bords":8424,"look":8425,"Bas":8426,"atera":8427,"ors":8428,"svarigheter":8429,"agaren":8430,"nyar":8431,"skapas":8432,"riktad":8433,"politiken":8434,"valla":8435,"tunnel":8436,"skrav":8437,"kanaler":8438,"imorse":8439,"reducer":8440,"jamt":8441,"slutligen":8442,"kne":8443,"inar":8444,"besokte":8445,"arlig":8446,"telefoner":8447,"generellt":8448,"blon":8449,"76":8450,"Kristian":8451,"uppvarm":8452,"veckorna":8453,"Lever":8454,"Out":8455,"seffe":8456,"galet":8457,"UM":8458,"cra":8459,"foraldrarna":8460,"hemiboreala":8461,"gammalt":8462,"avlopp":8463,"Master":8464,"separat":8465,"forlu":8466,"Hammar":8467,"Emil":8468,"infra":8469,"oft":8470,"dl":8471,"Israel":8472,"Kr":8473,"koden":8474,"langsamt":8475,"cho":8476,"lampor":8477,"movies":8478,"ulti":8479,"trum":8480,"Milf":8481,"mangfal":8482,"skiv":8483,"ague":8484,"bergig":8485,"korv":8486,"Bay":8487,"fardigt":8488,"----":8489,"steget":8490,"sonen":8491,"utlandska":8492,"kompletter":8493,"bestaende":8494,"spegel":8495,"Mote":8496,"slots":8497,"kategori":8498,"Sida":8499,"forskar":8500,"dyrt":8501,"yoga":8502,"pizza":8503,"tjejerna":8504,";-)":8505,"fotterna":8506,"Plat":8507,"levereras":8508,"stern":8509,"forbin":8510,"attack":8511,"bullar":8512,"insattning":8513,"iten":8514,"landsk":8515,"atgard":8516,"verkat":8517,"hlm":8518,"faktura":8519,"vantat":8520,"julklapp":8521,"blatt":8522,"tapet":8523,"BA":8524,"givningen":8525,"Sv":8526,"tillverkning":8527,"fynd":8528,"heder":8529,"allmanheten":8530,"institut":8531,"Bod":8532,"Ass":8533,"inflytande":8534,"ytte":8535,"fyllde":8536,"variant":8537,"Data":8538,"Infor":8539,"talat":8540,"forvantas":8541,"begav":8542,"atmosfar":8543,"fanga":8544,"ftonbladet":8545,"ily":8546,"Endast":8547,"spartner":8548,"hovs":8549,"forbud":8550,"ningens":8551,"personlighet":8552,"uppdatera":8553,"Ant":8554,"missa":8555,"hn":8556,"event":8557,"Phi":8558,"finans":8559,"valp":8560,"kampar":8561,"61":8562,"reha":8563,"videon":8564,"eti":8565,"rakar":8566,"forsiktigt":8567,"staka":8568,"gula":8569,"forskola":8570,"gradde":8571,"avsluta":8572,"bolagen":8573,"overgripande":8574,"tvatta":8575,"faglar":8576,"Indien":8577,"medans":8578,"forstatt":8579,"org":8580,"omi":8581,"work":8582,"atgar":8583,"broder":8584,"moms":8585,"ingenjor":8586,"Ir":8587,"SO":8588,"74":8589,"bonusar":8590,"gade":8591,"landskap":8592,"posten":8593,"tillat":8594,"Mogen":8595,"sannolik":8596,"aldrar":8597,"liber":8598,"bian":8599,"uk":8600,"Sad":8601,"matning":8602,"bredd":8603,"tacksam":8604,"wiki":8605,"tander":8606,"talets":8607,"less":8608,"ovanfor":8609,"Tips":8610,"ener":8611,"sovit":8612,"upplevelsen":8613,"pratat":8614,"ego":8615,"angs":8616,"titlar":8617,"ILL":8618,"odling":8619,"Holm":8620,"riket":8621,"seriosa":8622,"medlemmarna":8623,"meddela":8624,"ungar":8625,"synpunkter":8626,"elva":8627,"metoden":8628,"anpassade":8629,"minskning":8630,"formar":8631,"syss":8632,"utbredningsomrade":8633,"halt":8634,"holms":8635,"atag":8636,"distribu":8637,"klarade":8638,"cor":8639,"kusten":8640,"ration":8641,"Ing":8642,"juren":8643,"ansoka":8644,"Riktigt":8645,"Premi":8646,"Team":8647,"protokoll":8648,"HAR":8649,"manaderna":8650,"vinnare":8651,"omfattas":8652,"logi":8653,"tillskott":8654,"paminner":8655,"OBS":8656,"insekt":8657,"Apple":8658,"store":8659,"pir":8660,"hagen":8661,"auktor":8662,"slam":8663,"frikan":8664,"populart":8665,"Foretaget":8666,"karleks":8667,"Jamfor":8668,"blandskog":8669,"faktur":8670,"Ulf":8671,"syskon":8672,"Ker":8673,"obehag":8674,"non":8675,"laggas":8676,"diskuter":8677,"stadning":8678,"skilt":8679,"Berlin":8680,"Moj":8681,"kommunerna":8682,"Ani":8683,"dricker":8684,"vaknar":8685,"dic":8686,"suga":8687,"skala":8688,"Gunnar":8689,"Bostad":8690,"uppskattar":8691,"utvecklat":8692,"sokning":8693,"avgora":8694,"statliga":8695,"konstruktion":8696,"plom":8697,"sack":8698,"makten":8699,"behag":8700,"morkt":8701,"livsstil":8702,"Lud":8703,"bildades":8704,"stillstand":8705,"Artens":8706,"Green":8707,"jog":8708,"summa":8709,"ild":8710,"anvan":8711,"sondagen":8712,"missat":8713,"stiken":8714,"prenumer":8715,"Samtliga":8716,"knar":8717,"jeans":8718,"begreppet":8719,"ursa":8720,"besviken":8721,"ugn":8722,"rop":8723,"ole":8724,"kosta":8725,"kallat":8726,"expert":8727,"Intress":8728,"ghan":8729,"variera":8730,"sele":8731,"skivan":8732,"hockey":8733,"utredningen":8734,"budskap":8735,"ius":8736,"transporter":8737,"sej":8738,"forresten":8739,"informations":8740,"funktionsned":8741,"efterfragan":8742,"forklaring":8743,"outfit":8744,"MEN":8745,"isen":8746,"perman":8747,"teori":8748,"vitamin":8749,"3D":8750,"influ":8751,"bytt":8752,"sling":8753,"relaterade":8754,"Tropiskt":8755,"udd":8756,"upptackte":8757,"rullar":8758,"iPhone":8759,"slappte":8760,"erkanna":8761,"Typ":8762,"utt":8763,"party":8764,"Prin":8765,"slok":8766,"serat":8767,"Valdigt":8768,"Tog":8769,"avsnittet":8770,"anna":8771,"argument":8772,"finger":8773,"provat":8774,"benam":8775,"sexig":8776,"Olsson":8777,"skara":8778,"varianter":8779,"forbereda":8780,"tekn":8781,"MP":8782,"katter":8783,"lagstiftning":8784,"sakr":8785,"phone":8786,"serad":8787,"ingo":8788,"Sel":8789,"73":8790,"spanska":8791,"tam":8792,"dun":8793,"Simon":8794,"Hag":8795,"styrning":8796,"soli":8797,"noje":8798,"cke":8799,"diskrimin":8800,"hogskole":8801,"godkanner":8802,"minskat":8803,"ares":8804,"minium":8805,"ktera":8806,"vinden":8807,"dokumen":8808,"ssystemet":8809,"officiella":8810,"Sve":8811,"acceptera":8812,"brittiska":8813,"arkiv":8814,"teknisk":8815,"Karlstad":8816,"dena":8817,"konkurrens":8818,"distans":8819,"Norden":8820,"Rosen":8821,"tillampas":8822,"kris":8823,"Instagram":8824,"redi":8825,"''":8826,"spets":8827,"nitt":8828,"rasi":8829,"biblioteket":8830,"jonkoping":8831,"nervos":8832,"lappar":8833,"Antligen":8834,"yndigheten":8835,"700":8836,"Mand":8837,"barnens":8838,"Malet":8839,"grundades":8840,"body":8841,"banor":8842,"planerade":8843,"hundarna":8844,"huvudtaget":8845,"sexual":8846,"strar":8847,"Im":8848,"flor":8849,"GA":8850,"handels":8851,"ode":8852,"1500":8853,"Sexleksaker":8854,"very":8855,"works":8856,"temat":8857,"tidiga":8858,"farsk":8859,"skedde":8860,"pase":8861,"Augu":8862,"sprocessen":8863,"Klimatet":8864,"kvalificer":8865,"SN":8866,"lockar":8867,"tvartom":8868,"tillgangar":8869,"miga":8870,"ingredienser":8871,"phi":8872,"enorma":8873,"skrivs":8874,"gent":8875,"colle":8876,"symt":8877,"tungt":8878,"konsumenter":8879,"doo":8880,"Kontroll":8881,"kinesiska":8882,"Brand":8883,"fastighets":8884,"teen":8885,"varg":8886,"obligator":8887,"nut":8888,"abo":8889,"utgifter":8890,"forbru":8891,"betong":8892,"producera":8893,"negativt":8894,"Forsvar":8895,"handlare":8896,"dagars":8897,"pagaende":8898,"storst":8899,"policy":8900,"kostnaderna":8901,"load":8902,"forvir":8903,"enorm":8904,"Love":8905,"pojkvan":8906,"vokat":8907,"ogat":8908,"julen":8909,"snor":8910,"Latt":8911,"korning":8912,"ssiva":8913,"Gotland":8914,"processer":8915,"Brasili":8916,"direktor":8917,"inspirerande":8918,"exemplar":8919,"!\"":8920,"Snabb":8921,"sledare":8922,"speriod":8923,"svenskan":8924,"bundna":8925,"religion":8926,"Whi":8927,"hjalpmedel":8928,"nogra":8929,"restaurangen":8930,"professionell":8931,"ftelse":8932,"Stads":8933,"lagsta":8934,"dok":8935,"merad":8936,"varldskriget":8937,"utvecklats":8938,"citron":8939,"forvaring":8940,"Adam":8941,"veckans":8942,"sekund":8943,"arbetsplats":8944,"varumarken":8945,"neut":8946,"element":8947,"Ven":8948,"talas":8949,"aterstall":8950,"kasinon":8951,"forlora":8952,"allvarligt":8953,"delat":8954,"Kungs":8955,"done":8956,"fakti":8957,"general":8958,"League":8959,"bryter":8960,"sanningen":8961,"vandra":8962,"ktorer":8963,"nel":8964,"Service":8965,"Nils":8966,"Press":8967,"1997":8968,"Harry":8969,"Fon":8970,"skiftet":8971,"serveras":8972,"torka":8973,"dring":8974,"fonden":8975,"forloss":8976,"tillganglighet":8977,"skylt":8978,"Stort":8979,"small":8980,"1960":8981,"relevant":8982,"killen":8983,"fullstandigt":8984,"VI":8985,"Asa":8986,"satsar":8987,"nordiska":8988,"Grek":8989,"tradgards":8990,"delad":8991,"iens":8992,"bytte":8993,"ledaren":8994,"utform":8995,"Sju":8996,"ssjuk":8997,"dustri":8998,"foten":8999,"Avsug":9000,"Design":9001,"forvarva":9002,"Volvo":9003,"AC":9004,"stedt":9005,"klassiker":9006,"orts":9007,"koka":9008,"omsattning":9009,"trag":9010,"Let":9011,"larde":9012,"ketter":9013,"fjarr":9014,"deltagande":9015,"splanen":9016,"spet":9017,"villkoren":9018,"aver":9019,"Pop":9020,"Flor":9021,"kollat":9022,"cht":9023,"fysiskt":9024,"uppfoljning":9025,"upplysning":9026,"Wo":9027,"Herr":9028,"Ljung":9029,"centralen":9030,"istan":9031,"hult":9032,"orsak":9033,"yng":9034,"vagnar":9035,"trafi":9036,"avdelningen":9037,"derande":9038,"Lika":9039,"passet":9040,"stun":9041,"anvants":9042,"manus":9043,"Gillar":9044,"dage":9045,"undersokningen":9046,"urin":9047,"sana":9048,"fredagen":9049,"gallde":9050,"BR":9051,"jta":9052,"py":9053,"hojden":9054,"tjanar":9055,"ursprungliga":9056,"missionen":9057,"redovisas":9058,"framja":9059,"tagande":9060,"lampliga":9061,"intervall":9062,"Cerro":9063,"svett":9064,"klippa":9065,"avlag":9066,"Trev":9067,"FR":9068,"fattig":9069,"saljs":9070,"begransat":9071,"traditionell":9072,"1994":9073,"Halmstad":9074,"sve":9075,"stapp":9076,"Behover":9077,"Anne":9078,"SMS":9079,"omstandigheter":9080,"stunder":9081,"viktigare":9082,"investering":9083,"icera":9084,"fars":9085,"slutat":9086,"hjarn":9087,"mots":9088,"taxi":9089,"Ell":9090,"pus":9091,"nie":9092,"Beg":9093,"Arki":9094,"smet":9095,"ony":9096,"transa":9097,"urer":9098,"speg":9099,"Sista":9100,"utgangspunkt":9101,"igheterna":9102,"Bolaget":9103,"bevar":9104,"sons":9105,"fruktansvart":9106,"godkand":9107,"cip":9108,"tjejen":9109,"klickar":9110,"garn":9111,"ersatta":9112,"Musik":9113,"aktenskap":9114,"samlingen":9115,"muskler":9116,"viagra":9117,"konstatera":9118,"experter":9119,"Christian":9120,"banklan":9121,"nodvandiga":9122,"enskild":9123,"Web":9124,"Gratt":9125,"skilja":9126,"Vas":9127,"loc":9128,"harmon":9129,"Bry":9130,"ssions":9131,"riktar":9132,"definition":9133,"myr":9134,"tz":9135,"kulle":9136,"slapptes":9137,"skapande":9138,"lacker":9139,"Top":9140,"utfar":9141,"tacker":9142,"namns":9143,"ado":9144,"sem":9145,"gotland":9146,"Tanken":9147,"gitarr":9148,"hihi":9149,"skadespelare":9150,"huru":9151,"Kopenhamn":9152,"Ostersund":9153,"patienten":9154,"skilj":9155,"arbetsmiljo":9156,"skjuta":9157,"dik":9158,"strat":9159,"rakningar":9160,"lova":9161,"aktuellt":9162,"Camp":9163,"losenord":9164,"drack":9165,"efterhand":9166,"globala":9167,"Familj":9168,"Sjuk":9169,"sattnings":9170,"ombud":9171,"paborj":9172,"vaxten":9173,"Tors":9174,"kungen":9175,"unikt":9176,"vaxel":9177,"like":9178,"mojligheterna":9179,"hallbarhet":9180,"konsul":9181,"svan":9182,"Dy":9183,"usch":9184,"89":9185,"intresset":9186,"enstaka":9187,"nal":9188,"raddar":9189,"forebyggande":9190,"Foreningen":9191,"fungerade":9192,"billigaste":9193,"radgivning":9194,"helsingborg":9195,"skyddar":9196,"Gotal":9197,"modu":9198,"rest":9199,"love":9200,"identitet":9201,"depre":9202,"gardin":9203,"orebro":9204,"imor":9205,"Svensson":9206,"tarta":9207,"meningen":9208,"informera":9209,"historier":9210,"forsakringen":9211,"Blanda":9212,"Twitter":9213,"Ric":9214,"urs":9215,"Hou":9216,"roller":9217,"gilla":9218,"belt":9219,"lokalt":9220,"ilda":9221,"some":9222,"National":9223,"omfattning":9224,"ary":9225,"skyddet":9226,"lyfter":9227,"Filmen":9228,"III":9229,"narhet":9230,"tang":9231,"allvarliga":9232,"sites":9233,"PD":9234,"Spi":9235,"beslutade":9236,"^^":9237,"gemenskap":9238,"riktade":9239,"Kap":9240,"Kim":9241,"galen":9242,"turist":9243,"Oppna":9244,"Carol":9245,"arbetstag":9246,"oman":9247,"jes":9248,"komponen":9249,"beth":9250,"skatter":9251,"omal":9252,"farten":9253,"kilo":9254,"TS":9255,"komplex":9256,"handlat":9257,"motorn":9258,"forval":9259,"forsam":9260,"Chat":9261,"Kategor":9262,"skidor":9263,"narvaro":9264,"Ras":9265,"Skapa":9266,"utvalda":9267,"storm":9268,"namna":9269,"manniskorna":9270,"ytterst":9271,"dyra":9272,"hamtning":9273,"kladerna":9274,"ose":9275,"Box":9276,"front":9277,"redit":9278,"plattform":9279,"oj":9280,"aaaa":9281,"filmerna":9282,"lagd":9283,"fokuserar":9284,"egas":9285,"blix":9286,"ith":9287,"Axel":9288,"Manni":9289,"spot":9290,"saft":9291,"TER":9292,"Unga":9293,"alitet":9294,"installation":9295,"jamna":9296,"anvandningen":9297,"bestod":9298,"ameter":9299,"James":9300,"paret":9301,"parall":9302,"usa":9303,"sondags":9304,"Oscar":9305,"idrotts":9306,"torp":9307,"bonne":9308,"holls":9309,"navig":9310,"gur":9311,"bang":9312,"bekvama":9313,"Senaste":9314,"proje":9315,"skyldighet":9316,"gs":9317,"givna":9318,"inerande":9319,"oty":9320,"troligt":9321,"kammar":9322,"kriter":9323,"Robin":9324,"head":9325,"stanger":9326,"svarig":9327,"cum":9328,"room":9329,"Mr":9330,"kvart":9331,"kastning":9332,"Stand":9333,"Avsugning":9334,"rap":9335,"Lik":9336,"identifiera":9337,"satsning":9338,"rich":9339,"Motor":9340,"firma":9341,"Registr":9342,"maende":9343,"uthyr":9344,"kalender":9345,"operation":9346,"cirkel":9347,"Utbild":9348,"varumarke":9349,"smarker":9350,"Blo":9351,"upphandling":9352,"Spr":9353,"Material":9354,"badoo":9355,"hindrar":9356,"atervin":9357,"onskade":9358,"tradde":9359,"poster":9360,"anteck":9361,"onde":9362,"yog":9363,"kunderna":9364,"savtal":9365,"NY":9366,"spons":9367,"garanterat":9368,"Innehall":9369,"ition":9370,"utbudet":9371,"tive":9372,"hylla":9373,"lease":9374,"eskorter":9375,"havs":9376,"Ze":9377,"forsakringar":9378,"kompeten":9379,"pinn":9380,"orth":9381,"Bat":9382,"terape":9383,"rand":9384,"ledamot":9385,"tvek":9386,"EC":9387,"forenings":9388,"1995":9389,"regeringens":9390,"paketet":9391,"grati":9392,"klick":9393,"integritet":9394,"saljare":9395,"aterstar":9396,"noggran":9397,"tings":9398,"chefer":9399,"potential":9400,"aterforsaljare":9401,"Mattias":9402,"Arten":9403,"sjunga":9404,"rubriken":9405,"raknat":9406,"mestadels":9407,"Savann":9408,"Grand":9409,"sweden":9410,"Jonsson":9411,"begaran":9412,"koppar":9413,"distriktet":9414,"sattas":9415,"Smal":9416,"bagg":9417,"stider":9418,"givar":9419,"frage":9420,"entrum":9421,"Proc":9422,"doden":9423,"befolkning":9424,"minus":9425,"86":9426,"tuttar":9427,"diskussioner":9428,"Gick":9429,"dets":9430,"Universit":9431,"stek":9432,"vaken":9433,"operat":9434,"nett":9435,"vagarna":9436,"grattis":9437,"spelautom":9438,"xid":9439,"Gott":9440,"Skicka":9441,"nien":9442,"narm":9443,"dubbla":9444,"Barnen":9445,"1996":9446,"gest":9447,"vitlok":9448,"Tele":9449,"liknar":9450,"uppgick":9451,"Traffa":9452,"utforska":9453,"anfall":9454,"vegetari":9455,"jula":9456,"normala":9457,"pulver":9458,"Skont":9459,"bec":9460,"Savannklimat":9461,"ekonomin":9462,"janst":9463,"utrymmen":9464,"uteslut":9465,"dalen":9466,"verklig":9467,"kturen":9468,"down":9469,"avdrag":9470,"skrivet":9471,"sprocess":9472,"rater":9473,"mats":9474,"rantor":9475,"hammar":9476,"andelen":9477,"tagare":9478,"Dina":9479,"sjunger":9480,"Livet":9481,"smycken":9482,"Risk":9483,"medvetna":9484,"hemskt":9485,"kvallar":9486,"rem":9487,"etta":9488,"hh":9489,"bollar":9490,"komfort":9491,"harom":9492,"konver":9493,"Proble":9494,"kolhy":9495,"decen":9496,"unds":9497,"veri":9498,"sedda":9499,"ledarskap":9500,"mosa":9501,"ogram":9502,"underhallning":9503,"entreprenor":9504,"rien":9505,"Regeringen":9506,"cs":9507,"Grekland":9508,"forvaltnings":9509,"placeras":9510,"ganget":9511,"ledigt":9512,"Nastan":9513,"asikt":9514,"?\"":9515,"lagda":9516,"hip":9517,"forordning":9518,"tranat":9519,"redskap":9520,"prestanda":9521,"kontinuerligt":9522,"likationer":9523,"pappers":9524,"report":9525,"numret":9526,"gentemot":9527,"inatt":9528,"specifi":9529,"alternativet":9530,"Fraga":9531,"Knullar":9532,"ua":9533,"Fakt":9534,"AIK":9535,"Pay":9536,"sorters":9537,"kopplad":9538,"robot":9539,"raddning":9540,"synnerhet":9541,"mut":9542,"artister":9543,"Grattis":9544,"overtyg":9545,"OV":9546,"litter":9547,"pancake":9548,"Bot":9549,"smaken":9550,"pes":9551,"placera":9552,"belagen":9553,"barhet":9554,"aro":9555,"konstant":9556,"power":9557,"flygplan":9558,"granskning":9559,"underlatt":9560,"overklag":9561,"korna":9562,"armar":9563,"galleri":9564,"berattelsen":9565,"praktisk":9566,"bakgrunden":9567,"Lof":9568,"personligen":9569,"skyn":9570,"samord":9571,"presenterade":9572,"skadade":9573,"overfor":9574,"krava":9575,"kvm":9576,"DA":9577,"hangde":9578,"Gall":9579,"godkant":9580,"Turki":9581,"sydvastra":9582,"pall":9583,"perioder":9584,"hamnen":9585,"olycka":9586,"ratte":9587,"forhandling":9588,"skamt":9589,"massiga":9590,"tavlings":9591,"flamm":9592,"brudar":9593,"odd":9594,"cykeln":9595,"hoppar":9596,"decenni":9597,"avslutade":9598,"fabrik":9599,"narmar":9600,"firar":9601,"Haller":9602,"soderut":9603,"SF":9604,"agarna":9605,"fixade":9606,"produkterna":9607,"anpassad":9608,"Mest":9609,"oand":9610,"kommuni":9611,"kampen":9612,"puss":9613,"hyf":9614,"Anledningen":9615,"110":9616,"storleken":9617,"vanilj":9618,"bekraft":9619,"Cir":9620,"bg":9621,"minnas":9622,"Kok":9623,"arligt":9624,"tjugo":9625,"ira":9626,"Strand":9627,"studien":9628,"professionella":9629,"kopet":9630,"arten":9631,"zer":9632,"arende":9633,"slakte":9634,"International":9635,"Stad":9636,"kassan":9637,"temper":9638,"hamtar":9639,"trycker":9640,"norrut":9641,"baren":9642,"Happ":9643,"gasterna":9644,"flygplatsen":9645,"terapi":9646,"demokratiska":9647,"Observera":9648,"genomfors":9649,"rn":9650,"nordostra":9651,"breda":9652,"900":9653,"publiceras":9654,"plattor":9655,"96":9656,"mmer":9657,"turer":9658,"skickat":9659,"kontanter":9660,"matare":9661,"grasmarker":9662,"pussy":9663,"Ock":9664,"gavs":9665,"cos":9666,"eleven":9667,"Indone":9668,"parfy":9669,"Rio":9670,"slappt":9671,"langden":9672,"Schweiz":9673,"utfors":9674,"Media":9675,"uppfylla":9676,"forkni":9677,"alisera":9678,"motesplatsen":9679,"stravar":9680,"tvekan":9681,"berattig":9682,"strategier":9683,"kniv":9684,"Dalarna":9685,"musiker":9686,"intensiv":9687,"Trum":9688,"?”":9689,"sektorn":9690,"frid":9691,"mastar":9692,"installningar":9693,"effekten":9694,"beslutar":9695,"onodigt":9696,"dome":9697,"jell":9698,"fixat":9699,"ikali":9700,"anvandarna":9701,"penis":9702,"zen":9703,"ics":9704,"lyckad":9705,"borgen":9706,"bonnemang":9707,"tappa":9708,"ire":9709,"Engel":9710,"Studi":9711,"Skatte":9712,"kollega":9713,"lius":9714,"Senare":9715,"pojke":9716,"Jako":9717,"Sus":9718,"begag":9719,"Europeiska":9720,"sisk":9721,"beskatt":9722,"foralder":9723,"Nytt":9724,"frustr":9725,"grip":9726,"smink":9727,"sjukvarden":9728,"vaskan":9729,"Restau":9730,"Mannen":9731,"Stan":9732,"asyl":9733,"lagare":9734,"Bang":9735,"bile":9736,"forutsattningarna":9737,"vallen":9738,"Kval":9739,"1993":9740,"ited":9741,"elleftea":9742,"sprogrammet":9743,"osi":9744,"sekreterare":9745,"oftare":9746,"italienska":9747,"tax":9748,"Brasilien":9749,"cup":9750,"friska":9751,"samarbetet":9752,"aluminium":9753,"ampi":9754,"blas":9755,"placerade":9756,"verkstad":9757,"beln":9758,"Ph":9759,"Sem":9760,"eh":9761,"lador":9762,"vantan":9763,"virus":9764,"kopplade":9765,"kers":9766,"Holl":9767,"demonstr":9768,"board":9769,"kapit":9770,"tillhorande":9771,"skalbagg":9772,"formiddagen":9773,"overhuvudtaget":9774,"oversikt":9775,"valuta":9776,"arendet":9777,"prylar":9778,"hastarna":9779,"Eskilstuna":9780,"Lun":9781,"dyka":9782,"kvaliteten":9783,"sanka":9784,"thailand":9785,"ingang":9786,"mobila":9787,"bekymmer":9788,"licen":9789,"medborgar":9790,"barnets":9791,"Fyll":9792,"fotbolls":9793,"ama":9794,"Hjar":9795,"menade":9796,"frig":9797,"arrangor":9798,"Alltid":9799,"pisk":9800,"galopp":9801,"atar":9802,"ationella":9803,"Power":9804,"centralt":9805,"].":9806,"skalbaggsart":9807,"exklusiva":9808,"angi":9809,"slagit":9810,"orsaka":9811,"alistiska":9812,"smslan":9813,"kontrollen":9814,"invol":9815,"strumpor":9816,"kriti":9817,"upplagg":9818,"Annu":9819,"Oskar":9820,"jde":9821,"varmare":9822,"kombinera":9823,"NE":9824,"oppettider":9825,"fitt":9826,"ombord":9827,"kommunicera":9828,"entrepren":9829,"Form":9830,"majoritet":9831,"lednings":9832,"Oli":9833,"itets":9834,"individuella":9835,"omgaende":9836,"piska":9837,"problemen":9838,"insektsart":9839,"bemot":9840,"havdar":9841,"Projekt":9842,"ternativ":9843,"tomat":9844,"Cle":9845,"intervjuer":9846,"uppdatering":9847,"tyng":9848,"nyhetsbrev":9849,"arligen":9850,"kryp":9851,"sanger":9852,"Maj":9853,"ffel":9854,"brann":9855,"ofor":9856,"Ida":9857,"jat":9858,"dragit":9859,"tillverkade":9860,"stracka":9861,"halvt":9862,"intell":9863,"feb":9864,"aringen":9865,"........":9866,"stodet":9867,"Jor":9868,"vilt":9869,"borger":9870,"slump":9871,"Rid":9872,"neder":9873,"utbildade":9874,"Jaco":9875,"hanterar":9876,"Gal":9877,"aterkommer":9878,"klaga":9879,"Microsoft":9880,"Hill":9881,"salde":9882,"designer":9883,"undvi":9884,"Klu":9885,"stron":9886,"trotta":9887,"sticker":9888,"soffa":9889,"yal":9890,"uppgiften":9891,"svet":9892,"Dels":9893,"djuren":9894,"verkande":9895,"amin":9896,"kvinnorna":9897,"kirur":9898,"etiskt":9899,"1992":9900,"pekar":9901,"sjong":9902,"orkade":9903,"klocka":9904,"sekret":9905,"forvanad":9906,"yttrande":9907,"panik":9908,"sprin":9909,"sanna":9910,"kanter":9911,"Klockan":9912,"91":9913,"nyanser":9914,"syftet":9915,"ane":9916,"flyga":9917,"well":9918,"skota":9919,"Forsakring":9920,"fader":9921,"specialist":9922,"tankarna":9923,"sparet":9924,"Marcus":9925,"leende":9926,"stjanster":9927,"Bestalla":9928,"sakerheten":9929,"\u0000\u0000\u0000\u0000":9930,"nats":9931,"eland":9932,"Logga":9933,"cial":9934,"cing":9935,"garen":9936,"hallbart":9937,"radande":9938,"principer":9939,"bildar":9940,"boy":9941,"Vuxen":9942,"Tun":9943,"stream":9944,"slas":9945,"provet":9946,"aterkommande":9947,"komsten":9948,"tagning":9949,"Disk":9950,"Artikel":9951,"kot":9952,"privatpersoner":9953,"Club":9954,"skrap":9955,"korkort":9956,"skontroll":9957,"Egentligen":9958,"HE":9959,"elit":9960,"delsen":9961,"finansinstitut":9962,"King":9963,"ous":9964,"kningen":9965,"1950":9966,"bilaga":9967,"toalett":9968,"Brom":9969,"klarat":9970,"panna":9971,"troligtvis":9972,"hemliga":9973,"medicinska":9974,"psykiat":9975,"portratt":9976,"sme":9977,"fotografi":9978,"Johannes":9979,"orsaken":9980,"Vir":9981,"Cup":9982,"fattas":9983,"kea":9984,"Liv":9985,"Nav":9986,"infrastruktur":9987,"vatska":9988,"kock":9989,"utstallningen":9990,"Kali":9991,"Gym":9992,"%,":9993,"nordvastra":9994,"besluta":9995,"upphovs":9996,"utrymmet":9997,"stipen":9998,"180":9999,"Jobb":10000,"analysera":10001,"turen":10002,"investera":10003,"skel":10004,"avsikt":10005,"ljusa":10006,"fft":10007,"flot":10008,"Kvar":10009,"Styrelsen":10010,"Sur":10011,"Speciellt":10012,"fargade":10013,"belag":10014,"aterbetalning":10015,"tomma":10016,"dynami":10017,"Oj":10018,"utvardering":10019,"beslutat":10020,"hustru":10021,"blu":10022,"Andro":10023,"bedoma":10024,"livets":10025,"Even":10026,"skratta":10027,"Will":10028,"lagret":10029,"ords":10030,"preci":10031,"glommer":10032,"uppenbart":10033,"radsla":10034,"ader":10035,"Cro":10036,"livslang":10037,"mejl":10038,"wal":10039,"kontaktannonser":10040,"drig":10041,"orka":10042,"rorande":10043,"tappar":10044,"dottern":10045,"lerna":10046,"cli":10047,"83":10048,"radare":10049,"Villa":10050,"tankande":10051,"lyssnade":10052,"ensamstaende":10053,"negativ":10054,"startat":10055,"godkannande":10056,"varierande":10057,"korg":10058,"ORT":10059,"ktivit":10060,"ftelsen":10061,"Effe":10062,"bekanta":10063,"torget":10064,"infora":10065,"kvitt":10066,"belaget":10067,"Grupp":10068,"MAN":10069,"noggrann":10070,"karton":10071,"Aftonbladet":10072,"kyrko":10073,"resurs":10074,"installera":10075,"nodvandig":10076,"Ox":10077,"lugna":10078,"kling":10079,"okon":10080,"litt":10081,"Cal":10082,"respon":10083,"tiderna":10084,"malar":10085,"missade":10086,"Indonesien":10087,"ograf":10088,"kroppar":10089,"menten":10090,"seras":10091,"Markna":10092,"mynt":10093,"kusin":10094,"Tomas":10095,"DR":10096,"tillgangligt":10097,"flickvan":10098,"cast":10099,"stycke":10100,"relevanta":10101,"vits":10102,"interna":10103,"diabetes":10104,"jarnvag":10105,"luten":10106,"napp":10107,"komna":10108,"ambu":10109,"bevara":10110,"kraften":10111,"rehabili":10112,"kartan":10113,"baksidan":10114,"sydlig":10115,"symtom":10116,"flit":10117,"utsatts":10118,"Ytterligare":10119,"Ahl":10120,"vasteras":10121,"rades":10122,"Afghan":10123,"oten":10124,"...]":10125,"alister":10126,"beredd":10127,"dansa":10128,"Watch":10129,"varon":10130,"fixar":10131,"balkong":10132,"besokt":10133,"likhet":10134,"ursprungligen":10135,"japanska":10136,"visionen":10137,"Mora":10138,"avancerade":10139,"OG":10140,"matlag":10141,"!.":10142,"aterupp":10143,"gandet":10144,"Billig":10145,"reaktion":10146,"avslutas":10147,"inkl":10148,"kedja":10149,"cialis":10150,"allas":10151,"smaker":10152,"Arean":10153,"mjukt":10154,"ekologiska":10155,"storningar":10156,"rakade":10157,"provade":10158,"92":10159,"visnings":10160,"destin":10161,"email":10162,"tiotal":10163,"exponer":10164,"seriost":10165,"servering":10166,"PL":10167,"databas":10168,"USB":10169,"beteck":10170,"Para":10171,"Dahl":10172,"foredrag":10173,"ix":10174,"Coun":10175,"Vagbeskrivning":10176,"bokat":10177,"Tum":10178,"lung":10179,"Nick":10180,"pornogra":10181,"bensin":10182,"brevet":10183,"samarbetar":10184,"vardagsrum":10185,"Ros":10186,"lararna":10187,"hjalpt":10188,"Jamt":10189,"slav":10190,"klasser":10191,"andrar":10192,"emar":10193,"enkat":10194,"arbetsmarknaden":10195,"kontakten":10196,"ulette":10197,"Sas":10198,"dokumentar":10199,"cket":10200,"Julia":10201,"Malm":10202,"Ran":10203,"svin":10204,"vardagsrummet":10205,"diskret":10206,"ggr":10207,"df":10208,"verkningar":10209,"Nic":10210,"pedia":10211,"vastlig":10212,"Kund":10213,"musli":10214,"IA":10215,"Mini":10216,"lasaren":10217,"Kalla":10218,"plugg":10219,"kommentera":10220,"flertalet":10221,"Sarskilt":10222,"Problemet":10223,"Elisa":10224,"viner":10225,"fans":10226,"bedrag":10227,"gissa":10228,"namnd":10229,"IFK":10230,"inkomster":10231,"sexfilm":10232,"torn":10233,"Fel":10234,"kelser":10235,"nant":10236,"underteck":10237,"plet":10238,"tidens":10239,"morfar":10240,"utvecklare":10241,"tjansteman":10242,"ICA":10243,"talare":10244,"Erotik":10245,"forma":10246,"byggas":10247,"ront":10248,"sproblem":10249,"hygien":10250,"ture":10251,"spring":10252,"imponerande":10253,"Helena":10254,"1991":10255,"hing":10256,"Mode":10257,"ursakt":10258,"onskan":10259,"kampanjer":10260,"gata":10261,"kanslig":10262,"cat":10263,"vingar":10264,"synlig":10265,"konton":10266,"fristaende":10267,"byggde":10268,"tillverkad":10269,"UD":10270,"foraldra":10271,"generation":10272,"biten":10273,"skarp":10274,"page":10275,"skatten":10276,"stappklimat":10277,"grafik":10278,"halsan":10279,"konstaterar":10280,"tent":10281,"missbruk":10282,"stationer":10283,"partiets":10284,"Bestall":10285,"bastu":10286,"ligan":10287,"lastbil":10288,"bilda":10289,"lovet":10290,"ffin":10291,"laggare":10292,"iger":10293,"tackar":10294,"Home":10295,"reste":10296,"gator":10297,"beton":10298,"Dejta":10299,"passande":10300,"motes":10301,"tryggt":10302,"flodet":10303,"flam":10304,"Kronika":10305,"befri":10306,"upptackt":10307,"oppnas":10308,"eck":10309,"regionala":10310,"jp":10311,"parter":10312,"Oper":10313,"levnad":10314,"koncern":10315,"ansag":10316,"filen":10317,"Off":10318,"idae":10319,"omy":10320,"ads":10321,"skyr":10322,"bedriva":10323,"behaller":10324,"forberedel":10325,"stov":10326,"Happy":10327,"inflamm":10328,"Rog":10329,"referens":10330,"stangd":10331,"zu":10332,"jerna":10333,"frammande":10334,"specialiser":10335,"forlorat":10336,"\"-":10337,"BK":10338,"laggningen":10339,"Arbetet":10340,"dagslaget":10341,"84":10342,"hyd":10343,"undrade":10344,"forelasning":10345,"ngre":10346,"ween":10347,"bespar":10348,"glatt":10349,"buskland":10350,"Hast":10351,"heltid":10352,"ingens":10353,"dats":10354,"tros":10355,"busklandskap":10356,"borjare":10357,"Tru":10358,"Cra":10359,"Ara":10360,"sanning":10361,"Psy":10362,"granska":10363,"Turkiet":10364,"blr":10365,"marknader":10366,"skym":10367,"Tall":10368,"SR":10369,"Rekommen":10370,"plockade":10371,"tillfalligt":10372,"webblasare":10373,"trend":10374,"jall":10375,"upptacker":10376,"uru":10377,"94":10378,"ssivt":10379,"aspekter":10380,"immun":10381,"utdelning":10382,"huvudvark":10383,"JA":10384,"ping":10385,"aria":10386,"Passar":10387,"bandy":10388,"strad":10389,"ledamoter":10390,"Bast":10391,"Shi":10392,"upplevt":10393,"grupperna":10394,"gui":10395,"bildas":10396,"burk":10397,"malade":10398,"blot":10399,"remiss":10400,"skalen":10401,"brak":10402,"anledningar":10403,"slapps":10404,"medie":10405,"sammanlagt":10406,"kameror":10407,"Dela":10408,"Extra":10409,"schema":10410,"mons":10411,"riksdag":10412,"ester":10413,"Hemma":10414,"mandat":10415,"grannar":10416,"Not":10417,"BM":10418,"yga":10419,"Beskrivning":10420,"Europas":10421,"morkret":10422,"arbetsuppgifter":10423,"skrivande":10424,"Ref":10425,"oarna":10426,"rummen":10427,"rans":10428,"imple":10429,"Jessi":10430,"kaos":10431,"bruket":10432,"rytt":10433,"97":10434,"aliska":10435,"2020":10436,"It":10437,"insk":10438,"intyg":10439,"Abo":10440,"salu":10441,"toner":10442,"renovering":10443,"hundratals":10444,"tittat":10445,"psykolog":10446,"registrerade":10447,"Jatte":10448,"fattade":10449,"bergen":10450,"viks":10451,"merade":10452,"blott":10453,"Ola":10454,"trygga":10455,"studio":10456,"export":10457,"tappat":10458,"segr":10459,"edig":10460,"betraktas":10461,"trist":10462,"inas":10463,"ocke":10464,"HT":10465,"hug":10466,"Direkt":10467,"anonym":10468,"bely":10469,"detsamma":10470,"1700":10471,"Ljus":10472,"was":10473,"undervisningen":10474,"Jean":10475,"Forfatt":10476,"Frank":10477,"Inkop":10478,"kontot":10479,"rider":10480,"garage":10481,"United":10482,"huruvida":10483,"tillbring":10484,"Landst":10485,"vaskor":10486,"ami":10487,"framgangsrika":10488,"raff":10489,"driven":10490,"forekommande":10491,"utoka":10492,"maila":10493,"meric":10494,"!?":10495,"tester":10496,"Troll":10497,"testade":10498,"racka":10499,"Android":10500,"file":10501,"overenskommelse":10502,"hungrig":10503,"kansliga":10504,"ights":10505,"symboler":10506,"tia":10507,"Muse":10508,"nationell":10509,"jak":10510,"Smart":10511,"bjor":10512,"aug":10513,"Medic":10514,"delningar":10515,"besluts":10516,"tvar":10517,"beromda":10518,"forlorar":10519,"bedoms":10520,"skvallen":10521,"trada":10522,"bearbet":10523,"Manniskor":10524,"Utbildning":10525,"KL":10526,"sevard":10527,"hektar":10528,"albumet":10529,"lesbisk":10530,"Lager":10531,"vanor":10532,"kopi":10533,"filosofi":10534,"platserna":10535,"baseras":10536,"julafton":10537,"noveller":10538,"maltid":10539,"tillracklig":10540,"spelades":10541,"Polen":10542,"norge":10543,"Bud":10544,"Vanster":10545,"Pr":10546,"agde":10547,"fatal":10548,"merna":10549,"Boka":10550,"faste":10551,"BT":10552,"narko":10553,"hemska":10554,"missar":10555,"cola":10556,"semestern":10557,"82":10558,"ington":10559,"hool":10560,"anslag":10561,"Juni":10562,"idi":10563,"alisk":10564,"dyrare":10565,"globalt":10566,"kulturen":10567,"mater":10568,"citat":10569,"kreativa":10570,"Neder":10571,"trupp":10572,"Group":10573,"Syda":10574,"kvi":10575,"flyger":10576,"uch":10577,"ekologisk":10578,"olen":10579,"Op":10580,"maken":10581,"ffi":10582,"There":10583,"torra":10584,"forordningen":10585,"forsorjning":10586,"ppan":10587,"anlaggningen":10588,"action":10589,"kraftig":10590,"universitetet":10591,"betting":10592,"sympt":10593,"kjol":10594,"Swe":10595,"division":10596,"smaka":10597,"rotter":10598,"Skill":10599,"hornet":10600,"trav":10601,"flykting":10602,"dansk":10603,"innovation":10604,"legen":10605,"nt":10606,"Vita":10607,"Idrott":10608,"axel":10609,"dult":10610,"fortjanar":10611,"bolags":10612,"markligt":10613,"signer":10614,"ison":10615,"mysiga":10616,"bestallde":10617,"skift":10618,"Polisen":10619,"Fotboll":10620,"Colle":10621,"Datum":10622,"August":10623,"kallades":10624,"persiska":10625,"Beach":10626,"Blog":10627,"oversattning":10628,"pis":10629,"tifran":10630,"Guld":10631,"NU":10632,"Enkel":10633,"kore":10634,"Sky":10635,"Viktor":10636,"producerar":10637,"direktiv":10638,"vaning":10639,"SU":10640,"sjalvklar":10641,"Thor":10642,"diskriminering":10643,"tunna":10644,"ktivitet":10645,"toler":10646,"Farg":10647,"talt":10648,"auf":10649,"uttrycka":10650,"cykli":10651,"stralande":10652,"93":10653,"Afghanistan":10654,"soppa":10655,"skede":10656,"Oh":10657,"komponenter":10658,"geografi":10659,"vap":10660,");":10661,"utna":10662,"ansvariga":10663,"forhallandet":10664,"mossa":10665,"medi":10666,"djupare":10667,"rast":10668,"George":10669,"fattat":10670,"langsiktigt":10671,"arkitekt":10672,"manads":10673,"avla":10674,"psykisk":10675,"talande":10676,"flygplats":10677,"bryn":10678,"130":10679,"deci":10680,"overvakning":10681,"Vegas":10682,"konflikt":10683,"smitt":10684,"!”":10685,"medvetet":10686,"palit":10687,"flest":10688,"vuxit":10689,"synen":10690,"forsaljningen":10691,"stands":10692,"ligaste":10693,"overtygad":10694,"samtalet":10695,"forsvinna":10696,"smakar":10697,"permanent":10698,"bestallt":10699,"vild":10700,"cock":10701,"Skelleftea":10702,"deln":10703,"SJ":10704,"ili":10705,"genu":10706,"Svenskt":10707,"leker":10708,"samarbeta":10709,"inrednings":10710,"delades":10711,"Fan":10712,"sho":10713,"tappade":10714,"home":10715,"ansprak":10716,"minskade":10717,"spolitik":10718,"skassan":10719,"kreati":10720,"mobiltelefon":10721,"Up":10722,"mangfald":10723,"Ladda":10724,"forklarade":10725,"stens":10726,"passion":10727,"stjansten":10728,"lovskog":10729,"good":10730,"njot":10731,"etni":10732,"flag":10733,"synas":10734,"avkastning":10735,"skrattade":10736,"ingers":10737,"uppfyll":10738,"regnet":10739,"dringar":10740,"oratt":10741,"Wiki":10742,"Hjalp":10743,"dioxid":10744,"skostnader":10745,"PM":10746,"serverar":10747,"Word":10748,"tradgardar":10749,"Band":10750,"gods":10751,"forelasningar":10752,"stud":10753,"bt":10754,"ljuv":10755,"High":10756,"cess":10757,"byggs":10758,"Universitet":10759,"Patrik":10760,"jk":10761,"ils":10762,"skontor":10763,"Bostads":10764,"udda":10765,"avslutar":10766,"odds":10767,"bir":10768,"representanter":10769,"inat":10770,"bruna":10771,"tranade":10772,"hardare":10773,"medicinsk":10774,"tuffa":10775,"vasen":10776,"saldern":10777,"87":10778,"Blon":10779,"redog":10780,"Sant":10781,"rantan":10782,"opini":10783,"skommun":10784,"kreditvardighet":10785,"dubbelt":10786,"Barcel":10787,"ansluta":10788,"Dr":10789,"spridning":10790,"tillkommer":10791,"arke":10792,"funderingar":10793,"klund":10794,"Mars":10795,"vde":10796,"sformed":10797,"yer":10798,"vinsten":10799,"skiner":10800,"anklag":10801,"genomsnittet":10802,"Nordic":10803,"nadde":10804,"blyg":10805,"brukare":10806,"University":10807,"fjol":10808,"derad":10809,"uppger":10810,"belagg":10811,"[...]":10812,"kvadratmeter":10813,"finland":10814,"langvar":10815,"javligt":10816,"skep":10817,"pals":10818,"femini":10819,"omgivning":10820,"utvecklade":10821,"Vo":10822,"tolkning":10823,"dukar":10824,"aska":10825,"sparti":10826,"funderat":10827,"DET":10828,"Akademi":10829,"tillatet":10830,"kostade":10831,"Frida":10832,"tipsa":10833,"inc":10834,"passager":10835,"life":10836,"externa":10837,"uppsag":10838,"noggrant":10839,"brud":10840,"Framfor":10841,"Bilden":10842,"muslim":10843,"koder":10844,"beman":10845,"avgor":10846,"Anti":10847,"Blek":10848,"hemifran":10849,"sorgen":10850,"Est":10851,"Arena":10852,"behorighet":10853,"Fortsatt":10854,"Lunds":10855,"skarpa":10856,"iler":10857,"duschen":10858,"berorda":10859,"innefattar":10860,"graden":10861,"flod":10862,"brinner":10863,"okenklimat":10864,"Ret":10865,"stamman":10866,"gifte":10867,"prinse":10868,"140":10869,"killarna":10870,"HP":10871,"Match":10872,"Bos":10873,"vilda":10874,"unionen":10875,"House":10876,"extern":10877,"handtag":10878,"ressen":10879,"tomten":10880,"ilje":10881,"jattem":10882,"heran":10883,"orsakar":10884,"rapporterar":10885,"ikon":10886,"Bag":10887,"nyborjare":10888,"tyckt":10889,"SAM":10890,"typiskt":10891,"Osterrike":10892,"hjarna":10893,"forbattring":10894,"Ocksa":10895,"knep":10896,"berga":10897,"voly":10898,"guiden":10899,"linkoping":10900,"drakt":10901,"sly":10902,"minuten":10903,"forskole":10904,"orgas":10905,"advokat":10906,"ettan":10907,"bonu":10908,"terminen":10909,"sikter":10910,"frisor":10911,"utse":10912,"cted":10913,"jordgubbar":10914,"plag":10915,"bog":10916,"Lyss":10917,"engelsk":10918,"majoriteten":10919,"eringar":10920,"mojliggor":10921,"Central":10922,"hamnat":10923,"entuna":10924,"ljudet":10925,"paj":10926,"cirkul":10927,"kannet":10928,"kyla":10929,"vaggarna":10930,"BN":10931,"stolta":10932,"sparken":10933,"segra":10934,"elegant":10935,"insamling":10936,"samheten":10937,"kunskaps":10938,"farska":10939,"tradande":10940,"aggre":10941,"glomde":10942,"BE":10943,"Projektet":10944,"tillsyn":10945,"Mart":10946,"landsklimat":10947,"Okej":10948,"uppenbarligen":10949,"tradet":10950,"omass":10951,"inven":10952,"falls":10953,"Medelhav":10954,"tull":10955,"begara":10956,"sattes":10957,"Klad":10958,"Solna":10959,"inspirerad":10960,"foretradare":10961,"lektioner":10962,"mmy":10963,"Afrika":10964,"poolen":10965,"osse":10966,"genomforas":10967,"fransk":10968,":.":10969,"skand":10970,"tillslut":10971,"Madrid":10972,"Kopp":10973,"bassa":10974,"isera":10975,"beakta":10976,"high":10977,"forhand":10978,"flaskor":10979,"sul":10980,"Mia":10981,"valdes":10982,"Ned":10983,"hjartan":10984,"specifikt":10985,"rymd":10986,"margin":10987,"natverket":10988,"tavlar":10989,"Borg":10990,"jad":10991,"speglar":10992,"skolorna":10993,"forsvara":10994,"skraddar":10995,"mum":10996,"Chile":10997,"jakten":10998,"Miss":10999,"ummer":11000,"bedomer":11001,"She":11002,"kopare":11003,"involver":11004,"bottens":11005,"omed":11006,"kategoriser":11007,"ption":11008,"iro":11009,"Nas":11010,"blomma":11011,"cri":11012,"skane":11013,"SKA":11014,"Vasa":11015,"matematik":11016,"radets":11017,"stjarnan":11018,"funktionsnedsattning":11019,"Annika":11020,"etisk":11021,"ppad":11022,"psyko":11023,"Ale":11024,"inuti":11025,"Darmed":11026,"minsann":11027,"Europe":11028,"tus":11029,"portion":11030,"Cum":11031,"katastrof":11032,"uppsta":11033,"rester":11034,"observ":11035,"sklader":11036,"matcherna":11037,"anhoriga":11038,"GD":11039,"utbyte":11040,"Victoria":11041,"accepterar":11042,"Kommentar":11043,"lokalen":11044,"besoket":11045,"Mount":11046,"avel":11047,"nackdelar":11048,"tufft":11049,"Teheran":11050,"profiler":11051,"skval":11052,"Amanda":11053,"blandat":11054,"ion":11055,"uppdaterad":11056,"rengoring":11057,"Flo":11058,"redaktor":11059,"benet":11060,"cerat":11061,"forebygga":11062,"agnar":11063,"konkurs":11064,"nedanfor":11065,"partners":11066,"mandags":11067,"bredband":11068,"bakterier":11069,"buk":11070,"???":11071,"berattat":11072,"dokumentation":11073,"kemikali":11074,"bilarna":11075,"Read":11076,"tjocka":11077,"katten":11078,"poly":11079,"emon":11080,"boda":11081,"Kalle":11082,"Fir":11083,"fasa":11084,"snacka":11085,"lotter":11086,"ota":11087,"deg":11088,"genomfordes":11089,"tillverkas":11090,"teringar":11091,"ryss":11092,"Transport":11093,"hanteras":11094,"forvantar":11095,"vandrar":11096,"flyttning":11097,"mammor":11098,"flask":11099,"KOM":11100,"komligt":11101,"Saint":11102,"Pass":11103,"ovanstaende":11104,"innande":11105,"Tech":11106,"BO":11107,"ftade":11108,"journalist":11109,"representerar":11110,"julklappar":11111,"konvention":11112,"Golf":11113,"intag":11114,"sangar":11115,"forbunds":11116,"Lennart":11117,"omgang":11118,"Lant":11119,"vistas":11120,"Feli":11121,"skyldiga":11122,"jamstalldhet":11123,"konsumtion":11124,"mak":11125,"Hittade":11126,"pick":11127,"hotos":11128,"skadad":11129,"adressen":11130,"Fors":11131,"This":11132,"apr":11133,"smidig":11134,"Jakarta":11135,"chel":11136,"varsin":11137,"Tin":11138,"grata":11139,"tillhandahaller":11140,"Richard":11141,"fororen":11142,"Blue":11143,"brukade":11144,"arbetsgivaren":11145,"programvara":11146,"ware":11147,"kvartalet":11148,"Plats":11149,"rekrytering":11150,"fotografering":11151,"mosaik":11152,"sallsyn":11153,"invandrare":11154,"lovat":11155,"inratt":11156,"160":11157,"ance":11158,"trakig":11159,"somras":11160,"siden":11161,"Shar":11162,"vanligare":11163,"chatta":11164,"flackar":11165,"ankny":11166,"HI":11167,"cience":11168,"import":11169,"Jakob":11170,"Sodertalje":11171,"boli":11172,"Svan":11173,"kvallarna":11174,"Befolk":11175,"distan":11176,"univers":11177,"HET":11178,"ops":11179,"Via":11180,"badrummet":11181,"slost":11182,"firade":11183,"vic":11184,"disken":11185,"varat":11186,"And":11187,"tify":11188,"plattan":11189,"visades":11190,"IKEA":11191,"positioner":11192,"kreta":11193,"loper":11194,"kik":11195,"rektor":11196,"elli":11197,"arkitektur":11198,"Erotiska":11199,"spark":11200,"bedriver":11201,"skrivare":11202,"personerna":11203,"ensamma":11204,"doc":11205,"sexuellt":11206,"stangt":11207,"brottet":11208,"Rosa":11209,"underlattar":11210,"kommunfullmaktige":11211,"namnde":11212,"kaff":11213,"moss":11214,"ihjal":11215,"receptet":11216,"gitta":11217,"utbildad":11218,"oroa":11219,"stekel":11220,"Dod":11221,"forvanta":11222,"Pas":11223,"ative":11224,"varning":11225,"historiskt":11226,"ferenser":11227,"dsm":11228,"sorter":11229,"marknadsfor":11230,"brid":11231,"gorna":11232,"kim":11233,"fargerna":11234,"portfolj":11235,"leden":11236,"splaner":11237,"madde":11238,"salen":11239,"HR":11240,"modi":11241,"europe":11242,"tanderna":11243,"</":11244,"vacka":11245,"tillbaks":11246,"magasin":11247,"bagge":11248,"innanfor":11249,"steklar":11250,"overgrepp":11251,"manland":11252,"dda":11253,"begransade":11254,"bloggare":11255,"minnet":11256,"pyssel":11257,"champ":11258,"hallbara":11259,"mellanrum":11260,"alg":11261,"ply":11262,"diameter":11263,"manliga":11264,"Jacob":11265,"begra":11266,"ple":11267,"labor":11268,"BL":11269,"strun":11270,"fattiga":11271,"Industri":11272,"Egy":11273,"hytt":11274,"tabellen":11275,"tackt":11276,"spekt":11277,"stilar":11278,"ssitu":11279,"drabbade":11280,"1930":11281,"affi":11282,"lovade":11283,"isch":11284,"nasan":11285,"omradena":11286,"nude":11287,"Sh":11288,"Rik":11289,"underhallande":11290,"forsiktig":11291,"diagnos":11292,"shoppa":11293,"sjukdomen":11294,"spray":11295,"rations":11296,"staderna":11297,"Sang":11298,"buffe":11299,"1989":11300,"motorer":11301,"rimligt":11302,"hyllan":11303,"orange":11304,"kladda":11305,"Hotellet":11306,"appel":11307,"Pir":11308,"Lotta":11309,"scha":11310,"onger":11311,"kak":11312,"lopning":11313,"corter":11314,"Niklas":11315,"Cit":11316,"varas":11317,"Stock":11318,"Margar":11319,"blaser":11320,"rosor":11321,"ppe":11322,"seled":11323,"Mas":11324,"1600":11325,"degen":11326,"vagrar":11327,"backar":11328,"xy":11329,"81":11330,"Eu":11331,"ologin":11332,"varannan":11333,"ingick":11334,"forbrukning":11335,"Skovde":11336,"ktionerna":11337,"arina":11338,"lila":11339,"Forum":11340,"omet":11341,"timma":11342,"oklipp":11343,"tidpunkt":11344,"forestallningar":11345,"ssas":11346,"sus":11347,"CE":11348,"farlig":11349,"medlet":11350,"steknik":11351,"Karol":11352,"Drag":11353,"tiva":11354,"friheten":11355,"mega":11356,"slat":11357,"tech":11358,"Tiden":11359,"mammas":11360,"forstora":11361,"Alice":11362,"artist":11363,"Kjell":11364,"skriften":11365,"heli":11366,"saa":11367,",\"":11368,"1920":11369,"instruktioner":11370,"blivande":11371,"spis":11372,"allvarlig":11373,"Veck":11374,"korn":11375,"uppdateringar":11376,"misstankt":11377,"olag":11378,"udde":11379,"Dre":11380,"merar":11381,"Foljande":11382,"garderob":11383,"linne":11384,"jader":11385,"Olika":11386,"tabletter":11387,"forskningen":11388,"norrland":11389,"iserad":11390,"arbetssatt":11391,"forestallning":11392,"pur":11393,"Dor":11394,"stein":11395,"chock":11396,"sha":11397,"casinot":11398,"reservat":11399,"Fle":11400,"lid":11401,"swed":11402,"stabilitet":11403,"Borja":11404,"oliv":11405,"vardnads":11406,"kulturella":11407,"Tis":11408,"KR":11409,"Spo":11410,"begrav":11411,"cop":11412,"samarbetspartner":11413,"his":11414,"jazz":11415,"kastar":11416,"bokar":11417,"fordela":11418,"hobby":11419,"etablering":11420,"promenader":11421,"agement":11422,"svarda":11423,"inrikt":11424,"helm":11425,"kanalen":11426,"delser":11427,"anas":11428,"burgare":11429,"iss":11430,"Barcelona":11431,"Cap":11432,"stekelart":11433,"doma":11434,"sektor":11435,"overvag":11436,"smilj":11437,"blandad":11438,"UND":11439,"avancerad":11440,"insidan":11441,"hogkvalit":11442,"esh":11443,"flakt":11444,"Natdejting":11445,"prestation":11446,"sperioden":11447,"blast":11448,"religiosa":11449,"laddar":11450,"vagledning":11451,"uppror":11452,"Girl":11453,"spelande":11454,"Fastighet":11455,"cet":11456,"utformning":11457,"franvaro":11458,"modernt":11459,"overnatt":11460,"rekommendationer":11461,"see":11462,"Show":11463,"okanda":11464,"diskuterar":11465,"godkanda":11466,"hom":11467,"orsaker":11468,"latit":11469,"Lansstyrelsen":11470,"anvandaren":11471,"manaders":11472,"Stati":11473,"zar":11474,"drater":11475,"tummarna":11476,"foga":11477,"onda":11478,"olyckor":11479,"prast":11480,"scener":11481,"skrattar":11482,"White":11483,"knappar":11484,"Falun":11485,"tain":11486,"Mang":11487,"honung":11488,"sku":11489,"ktighet":11490,"halsar":11491,"lasta":11492,"kvalls":11493,"samtycke":11494,"PDF":11495,"agt":11496,"kallare":11497,"alar":11498,"GT":11499,"kide":11500,"altan":11501,"iphone":11502,"Down":11503,"sexy":11504,"forne":11505,"ljust":11506,"ningsmedel":11507,"kompa":11508,"centi":11509,"rymmer":11510,"hs":11511,"stunden":11512,"skyltar":11513,"genomfort":11514,"inci":11515,"Ari":11516,"NO":11517,"koldioxid":11518,"torg":11519,"foreslag":11520,"Sexig":11521,"Tam":11522,"bars":11523,"foss":11524,"fabriken":11525,"sinformation":11526,"Narings":11527,"erfarna":11528,"Mexiko":11529,"janster":11530,"TV4":11531,"Ostra":11532,"inneha":11533,"asiatiska":11534,"aterfinns":11535,"sprider":11536,"formedla":11537,"drommer":11538,"Harligt":11539,"kanned":11540,"Soll":11541,"Leo":11542,"Fyra":11543,"Sl":11544,"slen":11545,"utflykt":11546,"begransningar":11547,"trakt":11548,"forban":11549,"diplom":11550,"pastar":11551,"passerar":11552,"hallon":11553,"gie":11554,"alerna":11555,"overleva":11556,"pasar":11557,"stamp":11558,"utskott":11559,"simma":11560,"nedre":11561,"samhallets":11562,"Wel":11563,"Silver":11564,"marin":11565,"Der":11566,"lekte":11567,"boenden":11568,"kongre":11569,"abonnemang":11570,"forsvaret":11571,"bedomningen":11572,"utnyttjar":11573,"stent":11574,"Namnet":11575,"licens":11576,"kunskapen":11577,"mannens":11578,"samlingar":11579,"verksamhets":11580,"kundtjanst":11581,"cens":11582,"farden":11583,"nyheterna":11584,"forde":11585,"raken":11586,"bbel":11587,"Leon":11588,"stodjer":11589,"Sym":11590,"brada":11591,"bekraftelse":11592,"leksak":11593,"Sat":11594,"ansoker":11595,"grovt":11596,"dumt":11597,"Cast":11598,"rulla":11599,"verksamma":11600,"studenten":11601,"Socialdemokraterna":11602,"kompen":11603,"heim":11604,"fordelning":11605,"astadkomma":11606,"kasino":11607,"prover":11608,"Varmland":11609,"iva":11610,"world":11611,"Oslo":11612,"kartor":11613,"Fisk":11614,"villiga":11615,"Forhopp":11616,"blicken":11617,"Book":11618,"parten":11619,"Priset":11620,"utrikes":11621,"fula":11622,"kottet":11623,"expan":11624,"associ":11625,"middags":11626,"namndens":11627,"kemi":11628,"tekniskt":11629,"bik":11630,"bokade":11631,"etablerade":11632,"herre":11633,"montering":11634,"Skolan":11635,"yll":11636,"kapten":11637,"Justin":11638,"JAG":11639,"kali":11640,"Dia":11641,"fice":11642,"untain":11643,"stressad":11644,"filtr":11645,"alternativa":11646,"1988":11647,"svull":11648,"kakan":11649,"Ganska":11650,"sie":11651,"Vatt":11652,"feed":11653,"elly":11654,"resenarer":11655,"game":11656,"hamtat":11657,"Motesplatsen":11658,"Personalen":11659,"konkret":11660,"konkreta":11661,"klok":11662,"partierna":11663,"dea":11664,"350":11665,"ssin":11666,"bestammelserna":11667,"Skara":11668,"nandet":11669,"representerade":11670,"piller":11671,"read":11672,"dustrin":11673,"etid":11674,"onskat":11675,"peter":11676,"notter":11677,"marg":11678,"skotsel":11679,"valen":11680,"valkanda":11681,"vindkraft":11682,"pdf":11683,"saknade":11684,"langsam":11685,"ansvars":11686,"loj":11687,"Sandra":11688,"bes":11689,"kisk":11690,"vanskap":11691,"djursart":11692,"avsloja":11693,"forfragan":11694,"Livs":11695,"riv":11696,"verifi":11697,"asyster":11698,"ENS":11699,"vagade":11700,"farfar":11701,"tydligare":11702,"behall":11703,"Joa":11704,"trakiga":11705,"motstandare":11706,"strackan":11707,"Fredag":11708,"Tillsatt":11709,"Moderat":11710,"halvtimme":11711,"Cru":11712,"tryckt":11713,"rensa":11714,"magnet":11715,"omgivningen":11716,"introducer":11717,"konflikter":11718,"influen":11719,"Juli":11720,"glans":11721,"progno":11722,"kopplat":11723,"eken":11724,"Best":11725,"klagar":11726,"phon":11727,"MT":11728,"LIG":11729,"sea":11730,"auto":11731,"melodi":11732,"Tit":11733,"eko":11734,"aran":11735,"uran":11736,"nyans":11737,"stur":11738,"une":11739,"Pappa":11740,"tvung":11741,"ties":11742,"Tommy":11743,"360":11744,"forrad":11745,"borr":11746,"ravaror":11747,"UK":11748,"graviditet":11749,"lararen":11750,"teckna":11751,"Medelhavsklimat":11752,"Ak":11753,"stata":11754,"kastru":11755,"virtu":11756,"nice":11757,"vert":11758,"belastning":11759,"call":11760,"merican":11761,"hattan":11762,"qui":11763,"sidig":11764,"ryt":11765,"individuellt":11766,"Leif":11767,"Dil":11768,"forn":11769,"Akt":11770,"kopplas":11771,"bebygg":11772,"krigs":11773,"registret":11774,"Aut":11775,"schemat":11776,"bony":11777,"ystem":11778,"Date":11779,"Bul":11780,"EX":11781,"insikt":11782,"Jessica":11783,"rick":11784,"?.":11785,"avslutning":11786,"bour":11787,"inblandade":11788,"skro":11789,"andning":11790,"debi":11791,"jorde":11792,"ART":11793,"konkurrenskraft":11794,"Huset":11795,"Champi":11796,"oh":11797,"Doku":11798,"genomforande":11799,"utstallningar":11800,"hemsidor":11801,"torsdagen":11802,"universit":11803,"dran":11804,"mals":11805,"scenari":11806,"bien":11807,"Nike":11808,"utrustad":11809,"foranden":11810,"drycker":11811,"narkotika":11812,"pers":11813,"tillforlit":11814,"avrinningsomrade":11815,"oween":11816,"olym":11817,"syre":11818,"flock":11819,"Tol":11820,"skningen":11821,"Fall":11822,"bussar":11823,"Centrum":11824,"grus":11825,"Christer":11826,"dott":11827,"But":11828,"terra":11829,"fasen":11830,"Handels":11831,"pjas":11832,"apel":11833,"uppdateras":11834,"sovrummet":11835,"luktar":11836,"alltmer":11837,"ponny":11838,"ciplin":11839,"ministern":11840,"Bull":11841,"visso":11842,"jobbig":11843,"rita":11844,"utga":11845,"sporten":11846,"triv":11847,"sni":11848,"meddelar":11849,"ohalsa":11850,"betrakt":11851,"helvete":11852,"reagerar":11853,"kostnadsfritt":11854,"kog":11855,"mottagning":11856,"hormon":11857,"FM":11858,"villig":11859,"avsedd":11860,"Last":11861,"Gang":11862,"overforing":11863,"Teen":11864,"Spara":11865,"hp":11866,"snick":11867,"pens":11868,"pastor":11869,"bygget":11870,"hyfsat":11871,"regissor":11872,"sparas":11873,"varst":11874,"konserv":11875,"kommissionen":11876,"alskling":11877,"klubbens":11878,"skytt":11879,"manniskans":11880,"style":11881,"utgors":11882,"flyttas":11883,"cover":11884,"sklu":11885,"skold":11886,"atern":11887,"orkide":11888,"smannen":11889,"radgivare":11890,"DU":11891,"kvist":11892,"slutning":11893,"display":11894,"lags":11895,"spill":11896,"tillhandahalla":11897,"legitim":11898,"sagas":11899,"Forslag":11900,"samnen":11901,"svarde":11902,"nia":11903,"DVD":11904,"Ang":11905,"badet":11906,"auti":11907,"tillata":11908,"regerings":11909,"givit":11910,"Tem":11911,"fornu":11912,"jatteg":11913,"content":11914,"stjal":11915,"bjods":11916,"Naturligtvis":11917,"historisk":11918,"Snygga":11919,"paminn":11920,"1987":11921,"skriker":11922,"sorganis":11923,"domare":11924,"egel":11925,"ningssatt":11926,"rackte":11927,"Skyd":11928,"skida":11929,"tonaringar":11930,"tempererat":11931,"m2":11932,"scher":11933,"kann":11934,"vetenskaplig":11935,"lidande":11936,"kontaktar":11937,"fester":11938,"Forsvarsma":11939,"kreditupplysning":11940,"Mull":11941,"Galler":11942,"Tjeck":11943,"ssade":11944,"arskurs":11945,"konstiga":11946,"roligaste":11947,"diskuteras":11948,"framgangsrik":11949,"brygg":11950,"Youtube":11951,"betyda":11952,"berakna":11953,"mysa":11954,"dahl":11955,"bias":11956,"ugal":11957,"frys":11958,"ese":11959,"inneholl":11960,"islam":11961,"kannedom":11962,"utforas":11963,"bestamd":11964,"forekomma":11965,"snabblan":11966,"darpa":11967,"torrt":11968,"terades":11969,"vackraste":11970,"strander":11971,"EF":11972,"ordentlig":11973,"Inlandsklimat":11974,"SEX":11975,"hamns":11976,"Vinn":11977,"Gull":11978,"civil":11979,"oppning":11980,"bomb":11981,"sjalvstandigt":11982,"omdome":11983,"night":11984,"ckare":11985,"-/":11986,"lysande":11987,"sjut":11988,"depression":11989,"Kristus":11990,"MC":11991,"atervanda":11992,"ensis":11993,"human":11994,"mandagen":11995,"progre":11996,"Mall":11997,"buller":11998,"hemlighet":11999,"matlagning":12000,"svampar":12001,"Medlem":12002,"motverka":12003,"Flickor":12004,"Nan":12005,"Glad":12006,"Colom":12007,"Elekt":12008,"latelse":12009,"feta":12010,"gluten":12011,"drama":12012,"mobl":12013,"regioner":12014,"kraina":12015,"entusia":12016,"Jarn":12017,"agerande":12018,"oi":12019,"naglar":12020,"raning":12021,"kanel":12022,"kondom":12023,"5000":12024,"erska":12025,"stamningen":12026,"smalt":12027,"lanade":12028,"camping":12029,"gavle":12030,"know":12031,"ffen":12032,"seud":12033,"branna":12034,"arena":12035,"klev":12036,"takti":12037,"Business":12038,"absoluta":12039,"sannolikhet":12040,"1986":12041,"klanningar":12042,"engagerade":12043,"overraskning":12044,"alys":12045,"fisken":12046,"konsten":12047,"historik":12048,"stott":12049,"bostaden":12050,"grekiska":12051,"forbundets":12052,"sun":12053,"Later":12054,"stilen":12055,"armarna":12056,"Horn":12057,"gynn":12058,"forluster":12059,"Sep":12060,"Prova":12061,"ask":12062,"Blekinge":12063,"sung":12064,"Tvatt":12065,"stop":12066,"torsdags":12067,"angeli":12068,"begransa":12069,"Videor":12070,"Hug":12071,"maklare":12072,"tvang":12073,"pannan":12074,"timmen":12075,"fysik":12076,"bildade":12077,"Tj":12078,"skrek":12079,"ivna":12080,"Lordag":12081,"ay":12082,"Lek":12083,"hjalpen":12084,"morker":12085,"hyre":12086,"fangar":12087,"resulterade":12088,"staterna":12089,"Holly":12090,"placerad":12091,"synliga":12092,"VR":12093,"Smaland":12094,"Dags":12095,"Tabell":12096,"opposi":12097,"malning":12098,"hojer":12099,"toppar":12100,"Aker":12101,"nig":12102,"genomgang":12103,"arbetarna":12104,"fos":12105,"fickor":12106,"locket":12107,"Maja":12108,"Trump":12109,"regnskog":12110,"kvallens":12111,"Hd":12112,"savann":12113,"Ott":12114,"publicera":12115,"biverkningar":12116,"leds":12117,"Gla":12118,"omer":12119,"sena":12120,"husets":12121,"wan":12122,"karaktarer":12123,"garanterar":12124,"volution":12125,"kick":12126,"xis":12127,"arabiska":12128,"videospel":12129,"segern":12130,"bai":12131,"korgen":12132,"skrammande":12133,"motesplats":12134,"balkongen":12135,"kelsen":12136,"kedjan":12137,"loner":12138,"slet":12139,"hurt":12140,"size":12141,"nationellt":12142,"anlanda":12143,"letade":12144,"kokos":12145,"Avrinningsom":12146,"samrad":12147,"markning":12148,"paras":12149,"Figur":12150,"stalldes":12151,"Affar":12152,"inflammation":12153,"migt":12154,"trakass":12155,"afrikan":12156,"offentligt":12157,"amod":12158,"veder":12159,"feldt":12160,"Sidan":12161,"inlogg":12162,"upphor":12163,"Lov":12164,"Sverigedemokraterna":12165,"stadse":12166,"Ama":12167,"fotografer":12168,"straning":12169,"Olle":12170,"dering":12171,"formularet":12172,"saret":12173,"peln":12174,"Lapp":12175,"aktivera":12176,"uss":12177,"CHF":12178,"olj":12179,"handelsen":12180,"forandrats":12181,"mannisko":12182,"Kristina":12183,"badkar":12184,"fallande":12185,"VC":12186,"jsa":12187,"ovantat":12188,"journalister":12189,"finansiell":12190,"Forsok":12191,"beskrivningar":12192,"ext":12193,"storning":12194,"jour":12195,"Oftast":12196,"kastade":12197,"smala":12198,"Vack":12199,"vetet":12200,"stren":12201,"menings":12202,"Alli":12203,"kolhydrater":12204,"hia":12205,"Asien":12206,"atien":12207,"rukt":12208,"MED":12209,"lurar":12210,"jud":12211,"ew":12212,"studerande":12213,"ALLA":12214,"flyktingar":12215,"sjunker":12216,"lonen":12217,"landsbygden":12218,"andrade":12219,"terri":12220,"langsiktiga":12221,"Kopte":12222,"Baby":12223,"kritisk":12224,"Sjon":12225,"oversatt":12226,"versioner":12227,"global":12228,"sprit":12229,"Lesbisk":12230,"ventilation":12231,"ligg":12232,"Organis":12233,"Smit":12234,"Hang":12235,"effektivi":12236,"parterna":12237,"kamrat":12238,"antog":12239,"1984":12240,"Stig":12241,"1940":12242,"militara":12243,"stningen":12244,"amet":12245,"avgiften":12246,"bemotande":12247,"potentiella":12248,"tug":12249,"framgangar":12250,"Linnea":12251,"iakt":12252,"Chatt":12253,"krypa":12254,"rostade":12255,"bonder":12256,"langtan":12257,"existerar":12258,"turne":12259,"foljs":12260,"Mur":12261,"kontaktuppgifter":12262,"kreativitet":12263,"uppratthalla":12264,"darav":12265,"prop":12266,"jamnt":12267,"Ped":12268,"Matte":12269,"Lasse":12270,"Ov":12271,"neuro":12272,"TILL":12273,"Birgitta":12274,"vantas":12275,"ffande":12276,"civi":12277,"batterier":12278,"oritet":12279,"Elever":12280,"Escorts":12281,"pepp":12282,"flat":12283,"administration":12284,"aden":12285,"marka":12286,"Utred":12287,"varnar":12288,"ated":12289,"forpackning":12290,"andre":12291,"North":12292,"variation":12293,"sey":12294,"verken":12295,"besta":12296,"reglering":12297,"utforande":12298,"meddelade":12299,"deli":12300,"arige":12301,"gern":12302,"SW":12303,"kunnig":12304,"eto":12305,"Kir":12306,"granne":12307,"likadant":12308,"name":12309,"sido":12310,"ст":12311,"forfl":12312,"kord":12313,"bow":12314,"offen":12315,"narliggande":12316,"Open":12317,"myndigheterna":12318,"levnads":12319,"utgora":12320,"Girls":12321,"ambassa":12322,"Lina":12323,"Stod":12324,"saljaren":12325,"Kladogram":12326,"Eti":12327,"nyttigt":12328,"teamet":12329,"vackande":12330,"forsvars":12331,"borden":12332,"Alger":12333,"Egyp":12334,"konstig":12335,"Styr":12336,"frukter":12337,"ruta":12338,"sorer":12339,"Yo":12340,"Solen":12341,"ydde":12342,"drivna":12343,"burit":12344,"slutandan":12345,"klokt":12346,"utstall":12347,"halsade":12348,"premium":12349,"chips":12350,"shemale":12351,"Liber":12352,"testar":12353,"symptom":12354,"Topp":12355,"stotta":12356,"1985":12357,"SH":12358,"fargad":12359,"3000":12360,"Puss":12361,"projektledare":12362,"Oppet":12363,"natterna":12364,"flickan":12365,"enskilt":12366,"avslutades":12367,"komplettera":12368,"ellen":12369,"studerade":12370,"oronen":12371,"konstnarer":12372,"uppmuntra":12373,"boj":12374,"huvudstad":12375,"dimension":12376,"intellig":12377,"More":12378,"jansten":12379,"Profe":12380,"elektronik":12381,"Poker":12382,"videoklipp":12383,"skruv":12384,"slad":12385,"Milj":12386,"vilar":12387,"loste":12388,"effektivitet":12389,"centimeter":12390,"anpassas":12391,"Teknik":12392,"lufts":12393,"dennes":12394,"oke":12395,"foda":12396,"125":12397,"personuppgift":12398,"puls":12399,"skun":12400,"betalningsanmarkningar":12401,"mmare":12402,"Sla":12403,"flog":12404,"stadsegron":12405,"uppskatta":12406,"nedgang":12407,"uppvarmning":12408,"viv":12409,"tarar":12410,"Bog":12411,"South":12412,"Natet":12413,"Rick":12414,"avveck":12415,"Kristianstad":12416,"Hockey":12417,"flack":12418,"Produkt":12419,"ordnar":12420,"fortjust":12421,"wall":12422,"fax":12423,"Forvalt":12424,"konjun":12425,"knu":12426,"tratt":12427,"stadat":12428,"speed":12429,"operativ":12430,"brad":12431,"hallande":12432,"frekven":12433,"oljan":12434,"Varldens":12435,"kyrkans":12436,"forvarv":12437,"rykte":12438,"Ute":12439,"hugg":12440,"stater":12441,"Exempelvis":12442,"Fina":12443,"Skandinavi":12444,"relationen":12445,"bondage":12446,"osterut":12447,"pedagogiska":12448,"bbarna":12449,"karri":12450,"vate":12451,"instagram":12452,"proffs":12453,"Katt":12454,"dolda":12455,"lampan":12456,"justera":12457,"-.":12458,"Karlskrona":12459,"foreslas":12460,"Benny":12461,"Ky":12462,"mamman":12463,"avbrott":12464,"valfard":12465,"fardigheter":12466,"Bjork":12467,"rulle":12468,"utdrag":12469,"Anmalan":12470,"Step":12471,"county":12472,"filt":12473,"Halso":12474,"May":12475,"Singel":12476,"bifog":12477,"generationer":12478,"likasa":12479,"aliskt":12480,"ittar":12481,"1982":12482,"drev":12483,"webbsida":12484,"ISO":12485,"ec":12486,"skarna":12487,"Klart":12488,"bidragit":12489,"shirt":12490,"rumpa":12491,"narmsta":12492,"MAR":12493,"LAG":12494,"forsamlingen":12495,"muslimer":12496,"laggningar":12497,"ito":12498,"spinn":12499,"klagomal":12500,"sax":12501,"STA":12502,"eds":12503,"designen":12504,"slakten":12505,"Bell":12506,"spekul":12507,"mattan":12508,"Undrar":12509,"Koh":12510,"Njut":12511,"sparen":12512,"Hil":12513,"dejten":12514,"jordbruk":12515,"hemmaplan":12516,"atorn":12517,"Mala":12518,"DI":12519,"kterar":12520,"Sop":12521,"inledde":12522,"armband":12523,"forhallningssatt":12524,"onskad":12525,"deltagit":12526,"takter":12527,"what":12528,"inspektionen":12529,"sanda":12530,"Santa":12531,"garantera":12532,"aland":12533,"Sjalva":12534,"teman":12535,"talang":12536,"krona":12537,"Bakgrund":12538,"Dog":12539,"mull":12540,"Rese":12541,"Lycka":12542,"add":12543,"bie":12544,"Cur":12545,"forbattringar":12546,"spolicy":12547,"kroppens":12548,"Syrien":12549,"varia":12550,"glod":12551,"rinner":12552,"Fuck":12553,"uppfo":12554,"figurer":12555,"igg":12556,"signaler":12557,"Sovjet":12558,"beredskap":12559,"atus":12560,"kliva":12561,"behandlings":12562,"field":12563,"Kontrollera":12564,"Spela":12565,"ssp":12566,"kritiker":12567,"Privat":12568,"Givet":12569,"fascin":12570,"sters":12571,"stammar":12572,"tegel":12573,"digitalt":12574,"helger":12575,"dals":12576,"Roda":12577,"hou":12578,"koncernen":12579,"Natt":12580,"lagring":12581,"motivation":12582,"cilia":12583,"byx":12584,"orier":12585,"lasar":12586,"PT":12587,"hogra":12588,"Day":12589,"vasterut":12590,"reaktioner":12591,"juice":12592,"oar":12593,"quist":12594,"revisor":12595,"rada":12596,"drin":12597,"savgiften":12598,"foras":12599,"monstret":12600,"akvar":12601,"1971":12602,"hittas":12603,"talamod":12604,"tankas":12605,"konven":12606,"ssle":12607,"starker":12608,"Carlsson":12609,"vecko":12610,"rattsliga":12611,"haftigt":12612,"LAN":12613,"nyfi":12614,"etts":12615,"aktiebolag":12616,"uthyrning":12617,"ason":12618,"Charlot":12619,"Tyd":12620,"individuell":12621,"sekretess":12622,"omdomen":12623,"kravande":12624,"skoll":12625,"integration":12626,"koordin":12627,"brons":12628,"rehabilitering":12629,"bestaller":12630,"Your":12631,"blandningen":12632,"smo":12633,"Andelen":12634,"Ai":12635,"oplan":12636,"Unge":12637,"ssic":12638,"hava":12639,"runa":12640,"mediciner":12641,"Ill":12642,"hm":12643,"kryddor":12644,"misslyck":12645,"ople":12646,"matningar":12647,"kopia":12648,"Forsakr":12649,"spelautomater":12650,"sjukskoterska":12651,"Kraft":12652,"fingrar":12653,"juter":12654,"kravet":12655,"davarande":12656,"goog":12657,"Hammarby":12658,"cupen":12659,"Charles":12660,"arbetsplatser":12661,"positionen":12662,"universitets":12663,"mottes":12664,"KS":12665,"korea":12666,"planeras":12667,"omhander":12668,"bredare":12669,"Svarta":12670,"vardagar":12671,"Boll":12672,"skjuts":12673,"boendet":12674,"framtidens":12675,"publicerade":12676,"oppnat":12677,"lake":12678,"ataganden":12679,"utmarkta":12680,"utat":12681,"huvudsakliga":12682,"Lamna":12683,"kants":12684,"parlamentet":12685,"nacken":12686,"arbetsloshet":12687,"vikar":12688,"KA":12689,"Stal":12690,"Staden":12691,"Louis":12692,"introduktion":12693,"leveranser":12694,"efterlang":12695,"years":12696,"Gast":12697,"mem":12698,"minimal":12699,"drabbats":12700,"plockar":12701,"kanneteck":12702,"Tour":12703,"grid":12704,"webcam":12705,"Fag":12706,"tenderar":12707,"Annon":12708,"1974":12709,"vans":12710,"Maten":12711,"laggen":12712,"Alm":12713,"skytte":12714,"fjarilar":12715,"plo":12716,"gjut":12717,"anny":12718,"turister":12719,"rabatter":12720,"bortt":12721,"barr":12722,"aaa":12723,"oklart":12724,"funka":12725,"konkurr":12726,"svarat":12727,"manat":12728,"forord":12729,"gavor":12730,"elserna":12731,"loppis":12732,"modifi":12733,"befal":12734,"sjalvfortroende":12735,"Emi":12736,"Cas":12737,"blogginlagg":12738,"melie":12739,"tennis":12740,"rakningen":12741,"kirurgi":12742,"morgas":12743,"Flash":12744,"extrem":12745,"senior":12746,"Dnr":12747,"repet":12748,"byten":12749,"Battre":12750,"hie":12751,"migran":12752,"kvinnors":12753,"irriterad":12754,"grand":12755,"stackars":12756,"Louise":12757,"taren":12758,"framsteg":12759,"slappna":12760,"amens":12761,"fods":12762,"Special":12763,"rys":12764,"Nation":12765,"tisdagen":12766,"UV":12767,"klade":12768,"avi":12769,"kator":12770,"soldater":12771,"Gy":12772,"Litt":12773,"Faktum":12774,"resi":12775,"arbetslosa":12776,"etterna":12777,"Eskorter":12778,"mobb":12779,"diesel":12780,"wards":12781,"hotel":12782,"kriterier":12783,"indiker":12784,"vitra":12785,"statens":12786,"forhor":12787,"rattvisa":12788,"slap":12789,"key":12790,"Halland":12791,"Brit":12792,"utrustade":12793,"Atlan":12794,"Aldrig":12795,"underlaget":12796,"aterna":12797,"air":12798,"summan":12799,"officiellt":12800,"uppgar":12801,"Ej":12802,"stenen":12803,"skyddad":12804,"Pier":12805,"knat":12806,"Trygg":12807,"konso":12808,"ely":12809,"chauf":12810,"Yr":12811,"matcha":12812,"iordning":12813,"River":12814,"patag":12815,"vardena":12816,"orke":12817,"torna":12818,"latarna":12819,"Pettersson":12820,"namner":12821,"cout":12822,"Lid":12823,"PU":12824,"Hum":12825,"LCHF":12826,"onsdagen":12827,"Borjade":12828,"Avrinningsomradet":12829,"alistisk":12830,"komplement":12831,"gatu":12832,"ML":12833,"rapportering":12834,"Za":12835,"betalat":12836,"Filip":12837,"Portugal":12838,"vul":12839,"HC":12840,"Adolf":12841,"OF":12842,"Ford":12843,"omedelbar":12844,"blind":12845,"dion":12846,"mula":12847,"betan":12848,"Generi":12849,"spelning":12850,"ktiviteter":12851,"firande":12852,"swedish":12853,"Ansokan":12854,"Maxi":12855,"ersatts":12856,"behorig":12857,"bege":12858,"strider":12859,"repor":12860,"strukturen":12861,"disciplin":12862,"ckit":12863,"snarast":12864,"aly":12865,"spontan":12866,"Spra":12867,"stok":12868,"vinnande":12869,"alskare":12870,"gos":12871,"ded":12872,"kritiska":12873,"kansli":12874,"upplag":12875,"Host":12876,"fronten":12877,"Drom":12878,"statistiken":12879,"blandar":12880,":/":12881,"trivas":12882,"Gymna":12883,"kretsar":12884,"mobel":12885,"skugga":12886,"pres":12887,"genomsnittliga":12888,"genomforts":12889,"stovlar":12890,"Amerikan":12891,"samvete":12892,"bly":12893,"tvungna":12894,"Fair":12895,"phy":12896,"passform":12897,"skalet":12898,"Street":12899,"monsun":12900,"Christina":12901,"Roger":12902,"ANDE":12903,"umul":12904,"lojal":12905,"strids":12906,"slottet":12907,"amn":12908,"1975":12909,"intensivt":12910,"arbetsplatsen":12911,"Supp":12912,"reportage":12913,"clo":12914,"tolka":12915,"finansiera":12916,"ope":12917,"duscha":12918,"myt":12919,"forse":12920,"infektion":12921,"ulin":12922,"Mega":12923,"skikt":12924,"utspelar":12925,"fingrarna":12926,"Pil":12927,"forbran":12928,"foreligger":12929,"rekta":12930,"gni":12931,"budgeten":12932,"regud":12933,"psykiska":12934,"femin":12935,"satsningar":12936,"string":12937,"rostning":12938,"about":12939,"ategory":12940,"kommand":12941,"kraftiga":12942,"tavlor":12943,"utvardera":12944,"fortsattningen":12945,"behovas":12946,"smitta":12947,"impor":12948,"marknadens":12949,"MO":12950,"Statens":12951,"kylen":12952,"regelbundna":12953,"Omradet":12954,"borsen":12955,"lagade":12956,"tankta":12957,"framgangsrikt":12958,"blomster":12959,"ridor":12960,"resonemang":12961,"ideal":12962,"foraren":12963,"Visby":12964,"styrkan":12965,"ngt":12966,"posit":12967,"aton":12968,"banden":12969,"innes":12970,"juridiska":12971,"presentkort":12972,"ryn":12973,"Camilla":12974,"extrema":12975,"ssyn":12976,"leveran":12977,"retro":12978,"rums":12979,"visande":12980,"jobbiga":12981,"dupp":12982,"synes":12983,"diagram":12984,"intelle":12985,"Nederlanderna":12986,"Student":12987,"utvid":12988,"Jonkopings":12989,"betalningen":12990,"ramar":12991,"blar":12992,"Gunung":12993,"odan":12994,"Dro":12995,"Programmet":12996,"Ifall":12997,"1973":12998,"Personer":12999,"underratt":13000,"utmanande":13001,"valdtakt":13002,"April":13003,"malan":13004,"karlstad":13005,"arden":13006,"engagerad":13007,"Slott":13008,"konserter":13009,"chili":13010,"riksdags":13011,"Finlands":13012,"ekologiskt":13013,"Arbetsformed":13014,"gigan":13015,"Strax":13016,"blandas":13017,"slan":13018,"nazi":13019,"agne":13020,"forlangning":13021,"halvaret":13022,"halsband":13023,"representant":13024,"Gift":13025,"oxi":13026,"......":13027,"tillsatt":13028,"textil":13029,"Tekniska":13030,"Rud":13031,"shamn":13032,"denafil":13033,"kandet":13034,"daglig":13035,"assistans":13036,"kommersiella":13037,"Ekonomi":13038,"Expressen":13039,"Ovrigt":13040,"Clo":13041,"fornuft":13042,"besiktning":13043,"sevardheter":13044,"Fargen":13045,"tarm":13046,"Clar":13047,"poliser":13048,"Porrfilmer":13049,"ends":13050,"legiti":13051,"veterinar":13052,"bbw":13053,"Vaknade":13054,"Fra":13055,"kyrkor":13056,"ALLT":13057,"odde":13058,"Samuel":13059,"malat":13060,"ityd":13061,"direktivet":13062,"gorelse":13063,"vasentligt":13064,"forfarande":13065,"Store":13066,"brant":13067,"schyr":13068,"edd":13069,"Liksom":13070,"pom":13071,"prick":13072,"bevisa":13073,"antas":13074,"vaxjo":13075,"befann":13076,"arsaldern":13077,"taggad":13078,"advent":13079,"intraffar":13080,"tvingades":13081,"resande":13082,"sses":13083,"spekta":13084,"Gabri":13085,"Katarina":13086,"sammanhanget":13087,",.":13088,"cou":13089,"lyd":13090,"1979":13091,"vinet":13092,"badd":13093,"forfar":13094,"ffan":13095,"portioner":13096,"valdig":13097,"inleddes":13098,"fotografera":13099,"Cli":13100,"Kille":13101,"Usch":13102,"individen":13103,"betet":13104,"drink":13105,"talen":13106,"naringslivet":13107,"stegen":13108,"bristen":13109,"Jim":13110,"NHL":13111,"Kust":13112,"ridning":13113,"grot":13114,"Personal":13115,"bygds":13116,"jarvi":13117,"olycks":13118,"uppsattning":13119,"Havet":13120,"klockor":13121,"hopa":13122,"lagst":13123,"kundens":13124,"forfall":13125,"faster":13126,"strateg":13127,"rangor":13128,"produktions":13129,"Belgien":13130,"Champions":13131,"Sm":13132,"mattor":13133,"pos":13134,"other":13135,"utbilda":13136,"lillebror":13137,"kulturell":13138,"betalda":13139,"junior":13140,"apoteket":13141,"flexibel":13142,"fjader":13143,"Kursen":13144,"klor":13145,"fullstandig":13146,"okand":13147,"wh":13148,"sspelare":13149,"oav":13150,"Orig":13151,"pix":13152,"seminarium":13153,"Klassi":13154,"Glas":13155,"GE":13156,"Hz":13157,"1968":13158,"romantisk":13159,"bekrafta":13160,"dejtingsidan":13161,"commun":13162,"pend":13163,"American":13164,"uppvaxt":13165,"skaffat":13166,"alv":13167,"smyg":13168,"utfort":13169,"xD":13170,"iteter":13171,"marginal":13172,"valkomst":13173,"stir":13174,"Laget":13175,"certifikat":13176,"frest":13177,"adel":13178,"tisdags":13179,"!).":13180,"andrat":13181,"oljor":13182,"offr":13183,"Bero":13184,"comments":13185,"terrang":13186,"arrangeras":13187,"utfly":13188,"mastaren":13189,"hemat":13190,"kylan":13191,"misstanker":13192,"lanar":13193,"attityd":13194,"landslag":13195,"svarden":13196,"andro":13197,"lyckliga":13198,"bedrivs":13199,"Finan":13200,"XXX":13201,"forsvunnit":13202,"korrig":13203,"Ovan":13204,"angrepp":13205,"monteras":13206,"diskussionen":13207,"Lyssna":13208,"hord":13209,"klot":13210,"sintress":13211,"popularitet":13212,"Cop":13213,"smeten":13214,"Finansi":13215,"cul":13216,"Forhoppningsvis":13217,"stero":13218,"bileum":13219,"fA":13220,"ages":13221,"NT":13222,"kvarn":13223,"fordelarna":13224,"Borlange":13225,"bakade":13226,"tanda":13227,"kommuns":13228,"blodet":13229,"conta":13230,"Kvinn":13231,"dressen":13232,"yttersta":13233,"antibio":13234,"stitu":13235,"laren":13236,"utreda":13237,"Micke":13238,"roulette":13239,"slip":13240,"Bom":13241,"intraffade":13242,"grava":13243,"graset":13244,"glid":13245,"varens":13246,"Onskar":13247,"Hogskolan":13248,"hahaha":13249,"versi":13250,"Dec":13251,"avslojar":13252,"Nacka":13253,"BI":13254,"onsdags":13255,"overskott":13256,"anmarkning":13257,"narstaende":13258,"cerad":13259,"boxen":13260,"Luft":13261,"Ryska":13262,"Egypten":13263,"Wild":13264,"symboli":13265,"redigera":13266,"quiz":13267,"mir":13268,"Cafe":13269,"Vacker":13270,"forutsatter":13271,"elimin":13272,"husdjur":13273,"mottagare":13274,"itch":13275,"ssnitt":13276,"Fas":13277,"fordonet":13278,"Total":13279,"Call":13280,"forbattras":13281,"Lokal":13282,"login":13283,"utskottet":13284,"Shemale":13285,"ATION":13286,"dete":13287,"postades":13288,"oder":13289,"attar":13290,"dim":13291,"upplaga":13292,"Seba":13293,"ines":13294,"stralar":13295,"row":13296,"lish":13297,"Poj":13298,"formog":13299,"tvivel":13300,"spersonal":13301,"annanstans":13302,"handikapp":13303,"stanser":13304,"monsunklimat":13305,"trojor":13306,"tradar":13307,"ansikts":13308,"produceras":13309,"olo":13310,"Digital":13311,"lugnare":13312,"brollops":13313,"institutioner":13314,"fliken":13315,"forvisso":13316,"meh":13317,"beller":13318,"sovmorgon":13319,"torde":13320,"snas":13321,"tish":13322,"slass":13323,"Mexico":13324,"daribland":13325,"gardagens":13326,"frekvens":13327,"kreativ":13328,"okande":13329,"Brudar":13330,"Pun":13331,"behovt":13332,"rer":13333,"ria":13334,"fastan":13335,"Rein":13336,"droger":13337,"branscher":13338,"montera":13339,"utmaningen":13340,"kakel":13341,"ersatter":13342,"sakerligen":13343,"Spotify":13344,"publicerades":13345,"mente":13346,"apelsin":13347,"chester":13348,"ending":13349,"Parti":13350,"ftt":13351,"dressyr":13352,"bella":13353,"creme":13354,"ofs":13355,"peratur":13356,"studerar":13357,"Senast":13358,"skapades":13359,"ai":13360,"varumarket":13361,"mineral":13362,"Mom":13363,"forestalla":13364,"minskad":13365,"besegra":13366,"...)":13367,"rann":13368,"sallskapet":13369,"Bilaga":13370,"1976":13371,"odla":13372,"dartill":13373,"innovativa":13374,"njutning":13375,"dier":13376,"pyn":13377,"kontors":13378,"uppskattat":13379,"Centr":13380,"EP":13381,"arrangerar":13382,"betalningsanmarkning":13383,"anlita":13384,"kemiska":13385,"word":13386,"sjatte":13387,"kallaren":13388,"Allmanna":13389,"Uppgifter":13390,"klimatet":13391,"spris":13392,"Hardcore":13393,"tyngd":13394,"pay":13395,"verkligt":13396,"bokstaver":13397,"stemen":13398,"madra":13399,"How":13400,"grin":13401,"salong":13402,"nyckeln":13403,"politikerna":13404,"halsosam":13405,"sexualitet":13406,"stravan":13407,"forkylning":13408,"billan":13409,"vardnad":13410,"tits":13411,"Konsu":13412,"Cecilia":13413,"inleds":13414,"sundsvall":13415,"passerat":13416,"hardcore":13417,"landslaget":13418,"jaga":13419,"randet":13420,"shot":13421,"wjob":13422,"Aja":13423,"DC":13424,"Sid":13425,"plockat":13426,"ativen":13427,"Aktie":13428,"broms":13429,"streck":13430,"hane":13431,"inspirera":13432,"valbe":13433,"anknytning":13434,"Jens":13435,"Well":13436,"1200":13437,"Body":13438,"1972":13439,"oben":13440,"Colum":13441,"engagera":13442,"regeln":13443,"Francis":13444,"maximal":13445,"fragat":13446,"1983":13447,"Givetvis":13448,"Game":13449,"isa":13450,"hanteringen":13451,"Knut":13452,"story":13453,"kandis":13454,"forsaljnings":13455,"Sthlm":13456,"arium":13457,"grenar":13458,"inverkan":13459,"attraktiva":13460,"Verksamhet":13461,"veckors":13462,"eda":13463,"keram":13464,"rabattkod":13465,"livslangd":13466,"FT":13467,"syror":13468,"RO":13469,"omgangen":13470,"oter":13471,"tranga":13472,"right":13473,"Sin":13474,"sexfilmer":13475,"Jaja":13476,"Trafikverket":13477,"ways":13478,"avsedda":13479,"anpassat":13480,"packade":13481,"jel":13482,"Vanligen":13483,"skare":13484,"kollektivavtal":13485,"kommunikations":13486,"intellekt":13487,"misslyckas":13488,"she":13489,"Smith":13490,"vaxthus":13491,"avtryck":13492,"gers":13493,"lukt":13494,"Beroende":13495,"llo":13496,"stralning":13497,"cky":13498,"Vinter":13499,"legg":13500,"Elisabeth":13501,"imponerad":13502,"insett":13503,"markta":13504,"gruppens":13505,"likvar":13506,"vackte":13507,"hostas":13508,"Tillgang":13509,"ansokningar":13510,"laborator":13511,"krok":13512,"egenskap":13513,"sspar":13514,"arbetsgivar":13515,"siffrorna":13516,"upphov":13517,"strukturer":13518,"harig":13519,"avli":13520,"pensions":13521,"dopp":13522,"anvisningar":13523,"receptfritt":13524,"Sidor":13525,"uppskattade":13526,"dus":13527,"trettio":13528,"kuddar":13529,"Drott":13530,"traditionellt":13531,"Ler":13532,"kulor":13533,"katol":13534,"elektroniska":13535,"valkomnar":13536,"Synd":13537,"svaren":13538,"sthlm":13539,"femton":13540,"Sammanfattning":13541,"butikerna":13542,"ovanpa":13543,"Stang":13544,"ever":13545,"Provin":13546,"Dick":13547,"jagar":13548,"skadestand":13549,"enklaste":13550,"formaner":13551,"bosatt":13552,"Ungefar":13553,"suck":13554,"prepar":13555,"Chal":13556,"bortom":13557,"Kons":13558,"soldat":13559,"1981":13560,"slatt":13561,"Lit":13562,"nifi":13563,"ов":13564,"dir":13565,"Angeles":13566,"sysselsattning":13567,"Tand":13568,"fortsattning":13569,"cinerande":13570,"forfog":13571,"rostar":13572,"borna":13573,"tantra":13574,"anbud":13575,"bent":13576,"balansen":13577,"betraffande":13578,"Institution":13579,"farenhet":13580,"Hund":13581,"definier":13582,"Test":13583,"Irak":13584,"overvaga":13585,"Stina":13586,"plikt":13587,"poangen":13588,">>":13589,"stoppar":13590,"Made":13591,"skogar":13592,"maximalt":13593,"hentai":13594,"savgifter":13595,"frascha":13596,"skadar":13597,"pryd":13598,"ppat":13599,"HO":13600,"llade":13601,"Enter":13602,"Sot":13603,"kvinnlig":13604,"Massor":13605,"borgerliga":13606,"bh":13607,"hindrade":13608,"kollektion":13609,":).":13610,"fastnade":13611,"Et":13612,"stest":13613,"brostet":13614,"gris":13615,"cts":13616,"resterande":13617,"bankkonto":13618,"ffra":13619,"lyssnat":13620,"Rose":13621,"forb":13622,"fras":13623,"narma":13624,"jattekul":13625,"applicer":13626,"Ner":13627,"nxx":13628,"LRF":13629,"sjalvmord":13630,"forratt":13631,"granserna":13632,"udden":13633,"MI":13634,"Josep":13635,"Vasterbotten":13636,"haromdagen":13637,"ankomst":13638,"alven":13639,"nyttig":13640,"Pot":13641,"varn":13642,"skulden":13643,"tval":13644,"Nina":13645,"Nobel":13646,"lier":13647,"denten":13648,"chan":13649,"kampanjen":13650,"Arvid":13651,"behovdes":13652,"bostadsratts":13653,"skyddade":13654,"avund":13655,"Tonaring":13656,"musklerna":13657,"vakten":13658,"gubbe":13659,"parfym":13660,"foretagande":13661,"packning":13662,"Parker":13663,"helikop":13664,"lagras":13665,"1978":13666,"gardens":13667,"trovar":13668,"tarna":13669,"samsta":13670,"grundade":13671,"skild":13672,"mandel":13673,"angivna":13674,"Gemen":13675,"simul":13676,"schen":13677,"registrerar":13678,"saldes":13679,"ontin":13680,"AF":13681,"Kerstin":13682,"Hollywood":13683,"bostadshus":13684,"ates":13685,"ofog":13686,"Entre":13687,"falska":13688,"staket":13689,"Mandag":13690,"Henry":13691,"lunchen":13692,"Gora":13693,"Steg":13694,"lagts":13695,"atering":13696,"Eri":13697,"magiska":13698,"Tobias":13699,"Skall":13700,"traffades":13701,"darigenom":13702,"sakrare":13703,"provar":13704,"neutr":13705,"Samsung":13706,"uppfattas":13707,"hamtas":13708,"tillampa":13709,"Bort":13710,"omgangar":13711,"ashington":13712,"utova":13713,"mie":13714,"Rov":13715,"VER":13716,"Ske":13717,"touch":13718,"Kin":13719,"producent":13720,"kala":13721,"utbetalning":13722,"Ville":13723,"kunniga":13724,"Aland":13725,"kombinerar":13726,"ark":13727,"GO":13728,"horsel":13729,"tvaa":13730,"kompati":13731,"ledighet":13732,"krisen":13733,"ambition":13734,"setts":13735,"Stam":13736,"kapp":13737,"feedback":13738,"typiska":13739,"Ide":13740,"hlin":13741,"riga":13742,"orp":13743,"Fjar":13744,"regional":13745,"halvan":13746,"Forstar":13747,"sindustrin":13748,"servicen":13749,"Betyg":13750,"Skott":13751,"tankbara":13752,"latsas":13753,"frost":13754,"borgarna":13755,"Norrland":13756,"kemikalier":13757,"Sall":13758,"sik":13759,"avslappnad":13760,"svaga":13761,"arbetstid":13762,"stere":13763,"slagna":13764,"lesbiska":13765,"faktiska":13766,"enastaende":13767,"stockholms":13768,"finare":13769,"registreras":13770,"studion":13771,"spack":13772,"accepta":13773,"rekla":13774,"herrar":13775,"varierad":13776,"nedsatt":13777,"xamen":13778,"Royal":13779,"upplosning":13780,"divisionen":13781,"Blan":13782,"officer":13783,"sistens":13784,"oslo":13785,"fordju":13786,"segel":13787,"limin":13788,"arbetskraft":13789,"LT":13790,"laskigt":13791,"blickar":13792,"lapparna":13793,"Udde":13794,"fastnar":13795,"Joakim":13796,"Migrations":13797,"forbattrar":13798,"Tjansten":13799,"Betal":13800,"judar":13801,"tvinga":13802,"bostadsratt":13803,"emellanat":13804,"inerna":13805,"pussel":13806,"konstaterade":13807,"rr":13808,"intet":13809,"orgasm":13810,"varandras":13811,"Apote":13812,"1969":13813,"kola":13814,"illen":13815,"upplevde":13816,"vardefulla":13817,"ANT":13818,"skulpt":13819,"bitter":13820,"Tok":13821,"Vackra":13822,"mate":13823,"Put":13824,"gladjen":13825,"ENT":13826,"forfattar":13827,"mant":13828,"Pia":13829,"havda":13830,"pedi":13831,"Lot":13832,"Tr":13833,"Tv":13834,"fortiden":13835,"uppstod":13836,"ktas":13837,"umma":13838,"varva":13839,"website":13840,"Detal":13841,"uppsats":13842,"styrkor":13843,"okie":13844,"funderade":13845,"omsorgen":13846,"Historia":13847,"arsmote":13848,"faci":13849,"Antingen":13850,"schar":13851,"Herren":13852,"effekterna":13853,"delaktighet":13854,"1977":13855,"transpor":13856,"bristande":13857,"anstalla":13858,"klippt":13859,"vest":13860,"biologiska":13861,"konferensen":13862,"kis":13863,"skadespel":13864,"FRA":13865,"Testa":13866,"startades":13867,"mell":13868,"Trip":13869,"medverka":13870,"Ostergotland":13871,"stekni":13872,"barnmor":13873,"face":13874,"sommarens":13875,"Bio":13876,"countyt":13877,"ра":13878,"elektronisk":13879,"365":13880,"harifran":13881,"sander":13882,"skadan":13883,"fisket":13884,"skyddas":13885,"AK":13886,"frukosten":13887,"flexibilitet":13888,"erhalla":13889,"japansk":13890,"nedat":13891,"nodvandigtvis":13892,"Sondag":13893,"tillverkaren":13894,"elef":13895,"Kroatien":13896,"Skal":13897,"Charlotte":13898,"term":13899,"roret":13900,"Autom":13901,"naringsliv":13902,"Nr":13903,"avled":13904,"sjalen":13905,"planerad":13906,"kyrkog":13907,"Sanna":13908,"knut":13909,"gentina":13910,"demokratin":13911,"cond":13912,"unna":13913,"utskick":13914,"mentala":13915,"SCB":13916,"\",\"":13917,"jattemycket":13918,"Falken":13919,"Nara":13920,"skoterska":13921,"namnt":13922,"Summa":13923,"Het":13924,"/.":13925,"ljusare":13926,"prakt":13927,"anpassning":13928,"Wen":13929,"Moderaterna":13930,"Arlanda":13931,"Pati":13932,"traningspass":13933,"norsk":13934,"ingaende":13935,"styrs":13936,"rapportera":13937,"agda":13938,"Ekonom":13939,"stallts":13940,"itation":13941,"fasad":13942,"maklar":13943,"MB":13944,"ersattare":13945,"Spann":13946,"klassificer":13947,"ignor":13948,"tangent":13949,"klack":13950,"Jansson":13951,"rip":13952,"Hugo":13953,"DNA":13954,"jattes":13955,"handledning":13956,"amor":13957,"licera":13958,"avsevart":13959,"bekraftar":13960,"kulturer":13961,"tjat":13962,"meddelandet":13963,"ни":13964,"syndrom":13965,"erie":13966,"kontrast":13967,"galna":13968,"Gotaland":13969,"Fet":13970,"iPad":13971,"hogtalare":13972,"regnskogsklimat":13973,"Britt":13974,"kvit":13975,"korridor":13976,"Kredit":13977,"jordens":13978,"Office":13979,"splitt":13980,"hostens":13981,"Kna":13982,"fjad":13983,"blond":13984,"foster":13985,"ficka":13986,"konceptet":13987,"sott":13988,"ush":13989,"teckningar":13990,"fodral":13991,"Plotsligt":13992,"neta":13993,"grundare":13994,"fattande":13995,"cla":13996,"ansags":13997,"gens":13998,"FL":13999,"saljas":14000,"damp":14001,"Forsalj":14002,"medfora":14003,"barndom":14004,"1967":14005,"Lakemedel":14006,"Soft":14007,"lamm":14008,"Gold":14009,"oca":14010,"Time":14011,"koren":14012,"kompon":14013,"Funderar":14014,"SOM":14015,"burkar":14016,"apple":14017,"fuktigt":14018,"Emelie":14019,"passagerare":14020,"skrid":14021,"rord":14022,"bonor":14023,"skalla":14024,"tillhorde":14025,"ktel":14026,"otrolig":14027,"glan":14028,"stagande":14029,"sasen":14030,"administrativ":14031,"Elec":14032,"Pic":14033,"begri":14034,"giss":14035,"Ikea":14036,"popul":14037,"vamp":14038,"familjens":14039,"norrkoping":14040,"ults":14041,"ged":14042,"Nova":14043,"sveriges":14044,"utmana":14045,"kylskap":14046,"CV":14047,"elas":14048,"jackpot":14049,"Spelet":14050,"ody":14051,"на":14052,"stabilt":14053,"hjalte":14054,"Hmm":14055,"komplicerad":14056,"sensu":14057,"zan":14058,"snett":14059,"indlar":14060,"lyder":14061,"manen":14062,"isla":14063,"gle":14064,"njur":14065,"bingo":14066,"Djurgarden":14067,"aku":14068,"sympati":14069,"Dejtingsidor":14070,"producerade":14071,"traditioner":14072,"Sexy":14073,"Antar":14074,"investerings":14075,"experiment":14076,"Forsakringskassan":14077,"Borjar":14078,"Joseph":14079,"Chan":14080,"broschyr":14081,"lav":14082,"krankande":14083,"funkade":14084,"expand":14085,"Ash":14086,"Nyck":14087,"gangna":14088,"sansvarig":14089,"Kand":14090,"suver":14091,"Kent":14092,"flug":14093,"kvarts":14094,"tropiskt":14095,"Holland":14096,"berakning":14097,"tamligen":14098,"exakta":14099,"Donald":14100,"Liten":14101,"tie":14102,"dimensioner":14103,"fient":14104,"brack":14105,"halvlek":14106,"IUC":14107,"SI":14108,"medalj":14109,"bekamp":14110,"GDPR":14111,"redovisa":14112,"beskrivningen":14113,"ule":14114,"GAR":14115,"uli":14116,"ovrig":14117,"ods":14118,"eur":14119,"sinspe":14120,"vidta":14121,"fodelse":14122,"irriterande":14123,"yy":14124,"backe":14125,"forhallandena":14126,"))":14127,"Advisor":14128,"skiten":14129,"pics":14130,"lyst":14131,"undvik":14132,"tyngre":14133,"valds":14134,"fungerat":14135,"HER":14136,"Dju":14137,"bygd":14138,"sokningen":14139,"Mona":14140,"anstallnings":14141,"smorgas":14142,"enterna":14143,"doften":14144,"Sub":14145,"fling":14146,"Poly":14147,"tenta":14148,"070":14149,"trender":14150,"zza":14151,"beck":14152,"sades":14153,"flaskan":14154,"lind":14155,"akademiker":14156,"mator":14157,"fig":14158,"Iden":14159,"firmor":14160,"komplexa":14161,"viga":14162,"dejtar":14163,"Liding":14164,"skjuter":14165,"SMHI":14166,"guver":14167,"iggande":14168,"Pitea":14169,"Ap":14170,"inet":14171,"Ume":14172,"tillfalliga":14173,"fyllning":14174,"salla":14175,"konsol":14176,"place":14177,"klassiskt":14178,"Wh":14179,"Kungliga":14180,"varmer":14181,"laddas":14182,"Analy":14183,"vaxling":14184,"sert":14185,"ulen":14186,"funktionshinder":14187,"HAHA":14188,"begagnade":14189,"kistan":14190,"sammanstallning":14191,"sill":14192,"Administr":14193,"roka":14194,"beta":14195,"user":14196,"mia":14197,"Mos":14198,"normer":14199,"bankerna":14200,"grens":14201,"skrivas":14202,"besvara":14203,"hemsk":14204,"stugor":14205,"matchar":14206,"blodtryck":14207,"psykiskt":14208,"PO":14209,"meta":14210,"gryta":14211,"apparater":14212,"forvantat":14213,"JO":14214,"Taby":14215,"bytet":14216,"Radi":14217,"uttalande":14218,"knan":14219,"Mindre":14220,"DS":14221,"hyper":14222,"dragen":14223,"mordet":14224,"hojning":14225,"Argentina":14226,"vitaminer":14227,"inje":14228,"batteriet":14229,"lulea":14230,"sammanfattning":14231,"energin":14232,"ishockey":14233,"fascinerande":14234,"trotthet":14235,"segrar":14236,"Singlar":14237,"gubb":14238,"Skatteverket":14239,"bokfor":14240,"trappan":14241,"Hogsta":14242,"nagorlunda":14243,"ender":14244,"weeken":14245,"strommen":14246,"flitigt":14247,"angar":14248,"svardet":14249,"hastigheten":14250,"trojan":14251,"inriktad":14252,"Recept":14253,"elen":14254,"Standard":14255,"Redo":14256,"nyfikna":14257,"fallit":14258,"elevernas":14259,"atu":14260,"namnas":14261,"Torn":14262,"felaktigt":14263,"Cri":14264,"Pussy":14265,"skadliga":14266,"sjukvards":14267,"Pon":14268,"omsorgs":14269,"samlades":14270,"ofrukt":14271,"yrken":14272,"MER":14273,"esi":14274,"lagad":14275,"Fragor":14276,"blabar":14277,"Quebec":14278,"Prom":14279,"Tillbaka":14280,"Registrera":14281,"kalk":14282,"tacke":14283,"nyanlanda":14284,"porten":14285,"sekonom":14286,"direkta":14287,"nagel":14288,"bakgrunds":14289,"sortimentet":14290,"Mountain":14291,"halmstad":14292,"kommenterar":14293,"livsmedels":14294,"skyldigheter":14295,"hub":14296,"kriminal":14297,"llene":14298,"Utt":14299,"kristall":14300,"sasonger":14301,"tystnad":14302,"kademin":14303,"tillats":14304,"Gustafsson":14305,"dromma":14306,"mentalt":14307,"Mary":14308,"sammantrade":14309,"ui":14310,"namnen":14311,"koloni":14312,"pott":14313,"blixt":14314,"doman":14315,"Inspir":14316,"etablera":14317,"beredningen":14318,"slutsatser":14319,"gala":14320,"teknologi":14321,"kraftfull":14322,"sittande":14323,"prognos":14324,"gardiner":14325,"blankett":14326,"lyckat":14327,"arbetslivet":14328,"orelse":14329,"Dol":14330,"smuts":14331,"squ":14332,"skarmar":14333,"Mir":14334,"konsolider":14335,"bedomningar":14336,"mmes":14337,"%).":14338,"Servi":14339,"Slutligen":14340,"Mis":14341,"skigt":14342,"Linkopings":14343,"omvarlden":14344,"race":14345,"Hov":14346,"boras":14347,"attacker":14348,"atom":14349,"elt":14350,"valfri":14351,"undviker":14352,"Letar":14353,"kaffet":14354,"ating":14355,"dagbok":14356,"foreslog":14357,"ryttare":14358,"vinnaren":14359,"html":14360,"Ok":14361,"moral":14362,"union":14363,"regnar":14364,"ging":14365,"folks":14366,"punkterna":14367,"Heta":14368,"}.":14369,"fornien":14370,"kostnadseffe":14371,"rorde":14372,"Markus":14373,"VAL":14374,"edda":14375,"solo":14376,"Ingrid":14377,"skningar":14378,"brunt":14379,"siffra":14380,"Klipp":14381,"inlaggen":14382,"Finn":14383,"slaktingar":14384,"Kre":14385,"radion":14386,"omfatta":14387,"begravning":14388,"Bun":14389,"Staffan":14390,"sektion":14391,"maltider":14392,"vettigt":14393,"Viagra":14394,"lampar":14395,"Dire":14396,"afton":14397,"Familjen":14398,"toaletten":14399,"Queen":14400,"kanslomass":14401,"Veten":14402,"IUCN":14403,"forstand":14404,"coll":14405,"Restaurang":14406,"Sakerhet":14407,"istiska":14408,"fargat":14409,"Arne":14410,"gnall":14411,"Chesh":14412,"Generisk":14413,"Gjorde":14414,"siffran":14415,"leverantoren":14416,"Good":14417,"Varen":14418,"biografi":14419,"muffin":14420,"forestallningen":14421,"Leks":14422,"450":14423,"utvecklad":14424,"CR":14425,"Server":14426,"drivet":14427,"ungarna":14428,"EK":14429,"letat":14430,"drommen":14431,"slosningar":14432,"beviljas":14433,"lasas":14434,"Tanker":14435,"barer":14436,"bladen":14437,"Line":14438,"inlar":14439,"upptagen":14440,"Cheshmeh":14441,"vagrade":14442,"garderoben":14443,"reflex":14444,"trenden":14445,"Nog":14446,"Maskin":14447,"chill":14448,"Und":14449,"Institut":14450,"Bakom":14451,"densamma":14452,"tomater":14453,"infordes":14454,"ich":14455,"ockt":14456,"ktad":14457,"predi":14458,"Wien":14459,"koncentration":14460,"marktes":14461,"Jesper":14462,"Ursprung":14463,"Rut":14464,"atervander":14465,"Az":14466,"droppar":14467,"forbjudet":14468,"vra":14469,"attraktiv":14470,"varderas":14471,"kalendern":14472,"etty":14473,"Engelska":14474,"Rapport":14475,"Jun":14476,"sistnamnda":14477,"forsorj":14478,"Slo":14479,"verkning":14480,"beloning":14481,"soner":14482,"ocket":14483,"tysta":14484,"asen":14485,"valpar":14486,"Install":14487,"nyfikenhet":14488,"uppnatt":14489,"exem":14490,"Kors":14491,"buren":14492,"Point":14493,"framtradande":14494,"brygga":14495,"deleg":14496,"utmatt":14497,"Journ":14498,"1945":14499,"Roll":14500,"indik":14501,"Fit":14502,"fullkomligt":14503,"resulterar":14504,"onia":14505,"ampie":14506,"every":14507,"ordnade":14508,"urt":14509,"Samt":14510,"bass":14511,"markera":14512,"uthall":14513,"kompan":14514,"Numera":14515,"arenan":14516,"forandringen":14517,"170":14518,"IGT":14519,"Jaha":14520,"axlar":14521,"sangare":14522,"delnings":14523,"anvandarnamn":14524,"bosatta":14525,"British":14526,"Bern":14527,"robu":14528,"morkare":14529,"komplicerat":14530,"Colombia":14531,"Visser":14532,"Bit":14533,"bladdra":14534,"administrativa":14535,"Little":14536,"medvetenhet":14537,"Dejtingsajter":14538,"kolon":14539,"vetenskapligt":14540,"redovisningen":14541,"stips":14542,"DEN":14543,"smartphone":14544,"pressmeddelande":14545,"Irland":14546,"ktis":14547,"valbefinn":14548,"stic":14549,"tvax":14550,"Resten":14551,"slanger":14552,"barnbarn":14553,"koparen":14554,"svagt":14555,"pter":14556,"angelagen":14557,"Socialstyrelsen":14558,"halet":14559,"FO":14560,"brygger":14561,"bokforing":14562,"Forsvarsmakten":14563,"dricks":14564,"knyta":14565,"hanvisar":14566,"lakemedels":14567,"medium":14568,"sugna":14569,"Wilhelm":14570,"surfa":14571,"beteenden":14572,"hops":14573,"malvakt":14574,"piano":14575,"svenskarna":14576,"Ebba":14577,"andliga":14578,"lysa":14579,"solna":14580,"BAR":14581,"skylla":14582,"lanserades":14583,"naren":14584,"Bertil":14585,"korten":14586,"stoder":14587,"ology":14588,"Care":14589,"behar":14590,"Vikt":14591,"raknade":14592,"rav":14593,"sprungit":14594,"spenderat":14595,"komprom":14596,"snallt":14597,"operator":14598,"dolj":14599,"bratt":14600,"vattent":14601,"Alfred":14602,"Hotels":14603,"If":14604,"skrivningar":14605,"kanterna":14606,"Partner":14607,"uttrycker":14608,"kantonen":14609,"sakrade":14610,"djupet":14611,"Kab":14612,"women":14613,"stadigt":14614,"jorta":14615,"italiensk":14616,"ofruktbar":14617,"idater":14618,"atervinning":14619,"foljare":14620,"Orn":14621,"gult":14622,"Extre":14623,"Valkomna":14624,"Visserligen":14625,"ifragasatt":14626,"frascht":14627,"Lut":14628,"Jamtland":14629,"smalta":14630,"Pont":14631,"splatt":14632,"paminna":14633,"alth":14634,"notera":14635,"Buss":14636,"watch":14637,"varar":14638,"Kans":14639,"Mus":14640,"somnar":14641,"Lady":14642,"flyter":14643,"tripp":14644,"Underbart":14645,"forfrag":14646,"rostfritt":14647,"pumpar":14648,"nulaget":14649,"ception":14650,"alag":14651,"Akte":14652,"intensiva":14653,"horison":14654,"territor":14655,"pant":14656,"strategiska":14657,"insekter":14658,"salternativ":14659,"Sens":14660,"landade":14661,"resta":14662,"UPP":14663,"First":14664,"byar":14665,"pojken":14666,"vaningar":14667,"Ukraina":14668,"ups":14669,"BD":14670,"tvill":14671,"uppdaterade":14672,"cylin":14673,"beslag":14674,"trea":14675,"foresla":14676,"havre":14677,"Veckans":14678,"funda":14679,"menas":14680,"arerna":14681,"hamt":14682,"smakade":14683,"homosexuella":14684,"Pin":14685,"forbattrad":14686,"Gala":14687,"1962":14688,"onodiga":14689,"konvers":14690,"Forut":14691,"bevakning":14692,"bytas":14693,"dren":14694,"standighet":14695,"snackar":14696,"Uppdater":14697,"ocko":14698,"Mans":14699,"presenterades":14700,"strump":14701,"utvecklades":14702,"lum":14703,"linjerna":14704,"Bolag":14705,"tusan":14706,"lines":14707,"modellerna":14708,"utlandsk":14709,"grejen":14710,"vanstra":14711,"innehav":14712,"GP":14713,"yoghurt":14714,"(!)":14715,"ray":14716,"Light":14717,"rosten":14718,"hangt":14719,"nanting":14720,"Ado":14721,"laddat":14722,"Latina":14723,"atiken":14724,"Fire":14725,"Jimmy":14726,"OO":14727,"\").":14728,"betyget":14729,"objektiv":14730,"Sli":14731,"evigt":14732,"LC":14733,"avling":14734,"ackumul":14735,"utnyttjas":14736,"invandring":14737,"Astrid":14738,"onan":14739,"bearbetning":14740,"forste":14741,"bris":14742,"salongen":14743,"viol":14744,"skov":14745,"bistand":14746,"bygge":14747,"tillvaro":14748,"brinnande":14749,"lighetens":14750,"Jenni":14751,"hittades":14752,"tillvaron":14753,"Forskning":14754,"salda":14755,"Airport":14756,"varorna":14757,"enskilde":14758,"hap":14759,"utsidan":14760,"effektivare":14761,"ato":14762,"latin":14763,"skadlig":14764,"forlat":14765,"formiddag":14766,"ør":14767,"visit":14768,"studenterna":14769,"QU":14770,"ordforanden":14771,"lagstiftningen":14772,"drabbar":14773,"overskri":14774,"dofter":14775,"langsta":14776,"differ":14777,"hantverkare":14778,"galden":14779,"regleras":14780,"kravde":14781,"tendens":14782,"adult":14783,"ced":14784,"Text":14785,"Zo":14786,"medverkar":14787,"”-":14788,"Vansterpartiet":14789,
[...]
