{"version":"1.0","truncation":null,"padding":null,"added_tokens":[{"id":0,"special":true,"content":"<unk>","single_word":false,"lstrip":false,"rstrip":false,"normalized":false}],"normalizer":{"type":"Sequence","normalizers":[{"type":"NFD"},{"type":"StripAccents"}]},"pre_tokenizer":{"type":"Whitespace"},"post_processor":null,"decoder":{"type":"Metaspace","replacement":"▁","str_rep":"▁","add_prefix_space":true},"model":{"type":"BPE","dropout":null,"unk_token":null,"continuing_subword_prefix":null,"end_of_word_suffix":null,"fuse_unk":false,"vocab":{"<unk>":0,"\u0000":1,"\u0001":2,"\u0002":3,"\u0003":4,"\u0004":5,"\u0005":6,"\u0006":7,"\u0007":8,"\b":9,"\u0018":10,"\u001f":11,"!":12,"\"":13,"#":14,"$":15,"%":16,"&":17,"'":18,"(":19,")":20,"*":21,"+":22,",":23,"-":24,".":25,"/":26,"0":27,"1":28,"2":29,"3":30,"4":31,"5":32,"6":33,"7":34,"8":35,"9":36,":":37,";":38,"<":39,"=":40,">":41,"?":42,"@":43,"A":44,"B":45,"C":46,"D":47,"E":48,"F":49,"G":50,"H":51,"I":52,"J":53,"K":54,"L":55,"M":56,"N":57,"O":58,"P":59,"Q":60,"R":61,"S":62,"T":63,"U":64,"V":65,"W":66,"X":67,"Y":68,"Z":69,"[":70,"\\":71,"]":72,"^":73,"_":74,"`":75,"a":76,"b":77,"c":78,"d":79,"e":80,"f":81,"g":82,"h":83,"i":84,"j":85,"k":86,"l":87,"m":88,"n":89,"o":90,"p":91,"q":92,"r":93,"s":94,"t":95,"u":96,"v":97,"w":98,"x":99,"y":100,"z":101,"{":102,"|":103,"}":104,"~":105,"":106,"":107,"":108,"":109,"":110,"":111,"":112,"":113,"":114,"":115,"":116,"¡":117,"¢":118,"£":119,"¤":120,"¥":121,"¦":122,"§":123,"¨":124,"©":125,"ª":126,"«":127,"¬":128,"­":129,"®":130,"°":131,"±":132,"²":133,"³":134,"´":135,"µ":136,"¶":137,"·":138,"¸":139,"¹":140,"º":141,"»":142,"¼":143,"½":144,"¾":145,"¿":146,"Æ":147,"×":148,"Ø":149,"Þ":150,"ß":151,"æ":152,"ð":153,"ø":154,"þ":155,"Đ":156,"đ":157,"ı":158,"ł":159,"œ":160,"ſ":161,"ƒ":162,"ɔ":163,"ə":164,"ʹ":165,"ʺ":166,"ʼ":167,"ˆ":168,"ˈ":169,"˚":170,"˜":171,"Α":172,"Δ":173,"Ε":174,"Ι":175,"Κ":176,"Μ":177,"Ο":178,"Π":179,"Σ":180,"Τ":181,"Φ":182,"Ω":183,"α":184,"β":185,"γ":186,"δ":187,"ε":188,"ζ":189,"η":190,"θ":191,"ι":192,"κ":193,"λ":194,"μ":195,"ν":196,"ξ":197,"ο":198,"π":199,"ρ":200,"ς":201,"σ":202,"τ":203,"υ":204,"φ":205,"χ":206,"ω":207,"А":208,"Б":209,"В":210,"Г":211,"Д":212,"Е":213,"Ж":214,"З":215,"И":216,"К":217,"Л":218,"М":219,"Н":220,"О":221,"П":222,"Р":223,"С":224,"Т":225,"У":226,"Ф":227,"Х":228,"Ц":229,"Ч":230,"Ш":231,"Э":232,"Я":233,"а":234,"б":235,"в":236,"г":237,"д":238,"е":239,"ж":240,"з":241,"и":242,"к":243,"л":244,"м":245,"н":246,"о":247,"п":248,"р":249,"с":250,"т":251,"у":252,"ф":253,"х":254,"ц":255,"ч":256,"ш":257,"щ":258,"ъ":259,"ы":260,"ь":261,"э":262,"ю":263,"я":264,"і":265,"Ґ":266,"ա":267,"א":268,"ב":269,"ד":270,"ה":271,"ו":272,"ח":273,"י":274,"כ":275,"ל":276,"ם":277,"מ":278,"נ":279,"ס":280,"ע":281,"פ":282,"ק":283,"ר":284,"ש":285,"ת":286,"،":287,"ء":288,"ا":289,"ب":290,"ة":291,"ت":292,"ث":293,"ج":294,"ح":295,"خ":296,"د":297,"ذ":298,"ر":299,"ز":300,"س":301,"ش":302,"ص":303,"ض":304,"ط":305,"ع":306,"غ":307,"ـ":308,"ف":309,"ق":310,"ك":311,"ل":312,"م":313,"ن":314,"ه":315,"و":316,"ى":317,"ي":318,"پ":319,"ک":320,"گ":321,"ی":322,"क":323,"त":324,"न":325,"प":326,"म":327,"य":328,"र":329,"ल":330,"स":331,"ह":332,"ন":333,"র":334,"ക":335,"ത":336,"ന":337,"യ":338,"ര":339,"ก":340,"ข":341,"ค":342,"ง":343,"จ":344,"ด":345,"ต":346,"ท":347,"น":348,"บ":349,"ป":350,"พ":351,"ม":352,"ย":353,"ร":354,"ล":355,"ว":356,"ส":357,"ห":358,"อ":359,"ะ":360,"า":361,"ำ":362,"เ":363,"แ":364,"ไ":365,"ა":366,"ი":367,"ᄀ":368,"ᄂ":369,"ᄃ":370,"ᄅ":371,"ᄆ":372,"ᄇ":373,"ᄉ":374,"ᄋ":375,"ᄌ":376,"ᄎ":377,"ᄐ":378,"ᄑ":379,"ᄒ":380,"ᅡ":381,"ᅢ":382,"ᅥ":383,"ᅦ":384,"ᅧ":385,"ᅩ":386,"ᅪ":387,"ᅬ":388,"ᅭ":389,"ᅮ":390,"ᅳ":391,"ᅴ":392,"ᅵ":393,"ᆨ":394,"ᆫ":395,"ᆯ":396,"ᆷ":397,"ᆸ":398,"ᆻ":399,"ᆼ":400,"​":401,"‌":402,"‍":403,"‎":404,"‏":405,"‐":406,"‑":407,"‒":408,"–":409,"—":410,"‘":411,"’":412,"‚":413,"“":414,"”":415,"„":416,"†":417,"•":418,"…":419,"‪":420,"′":421,"″":422,"‹":423,"›":424,"⁄":425,"⁣":426,"₂":427,"€":428,"℃":429,"№":430,"™":431,"←":432,"↑":433,"→":434,"⇒":435,"−":436,"∗":437,"∙":438,"√":439,"≥":440,"─":441,"━":442,"■":443,"▪":444,"►":445,"◊":446,"●":447,"☀":448,"★":449,"☆":450,"☎":451,"☕":452,"☺":453,"♀":454,"♂":455,"♡":456,"♥":457,"♦":458,"✅":459,"✌":460,"✓":461,"✔":462,"✨":463,"❑":464,"❗":465,"❤":466,"➔":467,"➤":468,"➧":469,"⠀":470,"⬆":471,"⭐":472,"、":473,"。":474,"「":475,"」":476,"【":477,"】":478,"あ":479,"い":480,"う":481,"え":482,"お":483,"か":484,"き":485,"く":486,"け":487,"こ":488,"さ":489,"し":490,"す":491,"せ":492,"そ":493,"た":494,"ち":495,"っ":496,"つ":497,"て":498,"と":499,"な":500,"に":501,"の":502,"は":503,"ひ":504,"へ":505,"ま":506,"み":507,"め":508,"も":509,"や":510,"よ":511,"ら":512,"り":513,"る":514,"れ":515,"わ":516,"を":517,"ん":518,"ア":519,"ィ":520,"イ":521,"ウ":522,"ェ":523,"エ":524,"オ":525,"カ":526,"キ":527,"ク":528,"ケ":529,"コ":530,"サ":531,"シ":532,"ス":533,"セ":534,"タ":535,"チ":536,"ッ":537,"ツ":538,"テ":539,"ト":540,"ナ":541,"ニ":542,"ネ":543,"ハ":544,"ヒ":545,"フ":546,"ヘ":547,"ホ":548,"マ":549,"ミ":550,"ム":551,"メ":552,"ャ":553,"ュ":554,"ョ":555,"ラ":556,"リ":557,"ル":558,"レ":559,"ロ":560,"ワ":561,"ン":562,"・":563,"ー":564,"一":565,"七":566,"万":567,"三":568,"上":569,"下":570,"不":571,"与":572,"专":573,"世":574,"业":575,"东":576,"两":577,"个":578,"中":579,"为":580,"主":581,"久":582,"么":583,"之":584,"乐":585,"九":586,"也":587,"买":588,"了":589,"争":590,"事":591,"二":592,"于":593,"五":594,"亚":595,"交":596,"产":597,"京":598,"人":599,"什":600,"今":601,"他":602,"代":603,"以":604,"们":605,"件":606,"会":607,"位":608,"体":609,"作":610,"你":611,"使":612,"供":613,"保":614,"信":615,"元":616,"先":617,"光":618,"免":619,"入":620,"全":621,"八":622,"公":623,"六":624,"具":625,"内":626,"円":627,"册":628,"准":629,"出":630,"分":631,"划":632,"利":633,"到":634,"制":635,"前":636,"力":637,"加":638,"务":639,"动":640,"势":641,"動":642,"化":643,"北":644,"区":645,"十":646,"单":647,"南":648,"博":649,"原":650,"县":651,"及":652,"双":653,"发":654,"取":655,"口":656,"可":657,"台":658,"号":659,"司":660,"合":661,"同":662,"名":663,"后":664,"吗":665,"员":666,"和":667,"品":668,"哪":669,"商":670,"器":671,"四":672,"回":673,"国":674,"图":675,"在":676,"地":677,"场":678,"址":679,"坛":680,"城":681,"場":682,"外":683,"多":684,"大":685,"天":686,"太":687,"奖":688,"女":689,"好":690,"如":691,"姐":692,"娱":693,"子":694,"字":695,"学":696,"安":697,"官":698,"定":699,"宝":700,"实":701,"客":702,"家":703,"富":704,"对":705,"将":706,"小":707,"少":708,"就":709,"尾":710,"展":711,"山":712,"島":713,"川":714,"州":715,"工":716,"巧":717,"市":718,"平":719,"年":720,"广":721,"庆":722,"库":723,"店":724,"度":725,"建":726,"开":727,"式":728,"引":729,"当":730,"录":731,"彩":732,"影":733,"律":734,"得":735,"微":736,"心":737,"必":738,"忙":739,"快":740,"怎":741,"思":742,"性":743,"情":744,"意":745,"感":746,"成":747,"我":748,"户":749,"所":750,"手":751,"技":752,"投":753,"报":754,"持":755,"挂":756,"指":757,"排":758,"提":759,"播":760,"教":761,"数":762,"文":763,"料":764,"新":765,"方":766,"无":767,"日":768,"时":769,"明":770,"星":771,"是":772,"時":773,"更":774,"最":775,"月":776,"有":777,"服":778,"期":779,"未":780,"本":781,"机":782,"杀":783,"来":784,"果":785,"格":786,"業":787,"正":788,"比":789,"民":790,"氓":791,"気":792,"水":793,"河":794,"法":795,"波":796,"注":797,"活":798,"流":799,"测":800,"海":801,"港":802,"游":803,"澳":804,"点":805,"然":806,"爱":807,"片":808,"版":809,"牌":810,"物":811,"特":812,"狗":813,"玄":814,"王":815,"玩":816,"现":817,"球":818,"理":819,"生":820,"用":821,"电":822,"町":823,"画":824,"疆":825,"白":826,"百":827,"的":828,"目":829,"直":830,"相":831,"看":832,"県":833,"真":834,"着":835,"知":836,"码":837,"碰":838,"社":839,"神":840,"票":841,"福":842,"科":843,"程":844,"稳":845,"立":846,"站":847,"第":848,"等":849,"算":850,"管":851,"精":852,"系":853,"红":854,"线":855,"经":856,"结":857,"网":858,"美":859,"群":860,"老":861,"者":862,"肖":863,"能":864,"自":865,"色":866,"蛋":867,"行":868,"表":869,"装":870,"西":871,"要":872,"見":873,"规":874,"视":875,"解":876,"计":877,"记":878,"论":879,"设":880,"说":881,"财":882,"费":883,"资":884,"赌":885,"赛":886,"赢":887,"走":888,"超":889,"越":890,"跑":891,"路":892,"身":893,"车":894,"软":895,"载":896,"过":897,"运":898,"这":899,"进":900,"送":901,"选":902,"通":903,"道":904,"部":905,"都":906,"酶":907,"里":908,"重":909,"量":910,"金":911,"钱":912,"长":913,"間":914,"门":915,"阳":916,"际":917,"院":918,"集":919,"霸":920,"青":921,"面":922,"音":923,"频":924,"香":925,"马":926,"高":927,"龙":928,"":929,"":930,"":931,"":932,"":933,"":934,"":935,"":936,"":937,"":938,"":939,"":940,"":941,"":942,"":943,"":944,"":945,"ﬁ":946,"ﬂ":947,"﻿":948,"！":949,"（":950,"）":951,"，":952,"５":953,"：":954,"？":955,"￼":956,"�":957,"🇩":958,"🇰":959,"🌟":960,"🌸":961,"🍀":962,"🎄":963,"🎉":964,"🏻":965,"🏼":966,"🏽":967,"👌":968,"👍":969,"👏":970,"💕":971,"💙":972,"💪":973,"🔻":974,"😀":975,"😁":976,"😂":977,"😃":978,"😄":979,"😅":980,"😆":981,"😉":982,"😊":983,"😋":984,"😍":985,"😎":986,"😘":987,"😛":988,"😜":989,"😱":990,"😳":991,"🙁":992,"🙂":993,"🙈":994,"🙌":995,"🙏":996,"🤔":997,"🤗":998,"🤞":999,"🤩":1000,"er":1001,"en":1002,"de":1003,"an":1004,"or":1005,"et":1006,"in":1007,"ti":1008,"ar":1009,"og":1010,"st":1011,"ig":1012,"el":1013,"ed":1014,"at":1015,"sk":1016,"al":1017,"for":1018,"om":1019,"der":1020,"re":1021,"ing":1022,"le":1023,"til":1024,"vi":1025,"af":1026,"den":1027,"ne":1028,"det":1029,"ag":1030,"on":1031,"pa":1032,"se":1033,"un":1034,"te":1035,"sa":1036,"lig":1037,"kk":1038,"eg":1039,"med":1040,"ter":1041,"ver":1042,"ra":1043,"es":1044,"ler":1045,"ør":1046,"ud":1047,"li":1048,"som":1049,"be":1050,"kke":1051,"ær":1052,"op":1053,"and":1054,"ve":1055,"ol":1056,"ge":1057,"si":1058,"har":1059,"ning":1060,"men":1061,"ri":1062,"du":1063,"kan":1064,"il":1065,"sp":1066,"ser":1067,"ste":1068,"ikke":1069,"dt":1070,"ende":1071,"la":1072,"ere":1073,"var":1074,"ma":1075,"ru":1076,"sen":1077,"æn":1078,"ind":1079,"ro":1080,"hed":1081,"man":1082,"ha":1083,"vor":1084,"ske":1085,"ur":1086,"æl":1087,"del":1088,"tion":1089,"ger":1090,"jeg":1091,"vil":1092,"mm":1093,"sig":1094,"dig":1095,"ræ":1096,"eller":1097,"ul":1098,"lige":1099,"ab":1100,"fra":1101,"di":1102,"over":1103,"væ":1104,"kom":1105,"Det":1106,"kt":1107,"gi":1108,"ved":1109,"else":1110,"vær":1111,"sam":1112,"ef":1113,"gen":1114,"fa":1115,"ven":1116,"vis":1117,"hol":1118,"tet":1119,"læ":1120,"hvor":1121,"skal":1122,"od":1123,"sm":1124,"ang":1125,"je":1126,"age":1127,"erne":1128,"dan":1129,"ad":1130,"ga":1131,"sel":1132,"per":1133,"ok":1134,"kr":1135,"lev":1136,"kun":1137,"mi":1138,"kl":1139,"bej":1140,"sy":1141,"bli":1142,"us":1143,"ret":1144,"arbej":1145,"kon":1146,"mer":1147,"me":1148,"ort":1149,"efter":1150,"han":1151,"bru":1152,"ly":1153,"være":1154,"tig":1155,"by":1156,"fø":1157,"tal":1158,"ogsa":1159,"hel":1160,"øb":1161,"nog":1162,"min":1163,"tid":1164,"dag":1165,"pro":1166,"før":1167,"ny":1168,"rk":1169,"øj":1170,"ek":1171,"ens":1172,"tr":1173,"elig":1174,"mu":1175,"und":1176,"sø":1177,"under":1178,"end":1179,"sl":1180,"ligt":1181,"ho":1182,"inde":1183,"blev":1184,"ster":1185,"20":1186,"ut":1187,"hav":1188,"eget":1189,"Jeg":1190,"æt":1191,"..":1192,"ede":1193,"ten":1194,"øn":1195,"fi":1196,"din":1197,"far":1198,"mp":1199,"bl":1200,"dr":1201,"stor":1202,"kker":1203,"net":1204,"ci":1205,"ta":1206,"ene":1207,"Vi":1208,"br":1209,"nu":1210,"sta":1211,"her":1212,"val":1213,"ss":1214,"bet":1215,"skab":1216,"ark":1217,"ling":1218,"meget":1219,"lan":1220,"go":1221,"jer":1222,"na":1223,"mo":1224,"Der":1225,"alt":1226,"elle":1227,"hand":1228,"selv":1229,"gr":1230,"ds":1231,"nem":1232,"ber":1233,"mere":1234,"ent":1235,"sse":1236,"da":1237,"pp":1238,"let":1239,"sti":1240,"nar":1241,"bar":1242,"ka":1243,"to":1244,"ba":1245,"alle":1246,"gang":1247,"vet":1248,"fre":1249,"virk":1250,"tag":1251,"mme":1252,"lo":1253,"sker":1254,"bil":1255,"eder":1256,"ce":1257,"sæt":1258,"ke":1259,"of":1260,"rig":1261,"ale":1262,"sty":1263,"hver":1264,"00":1265,"brug":1266,"Den":1267,"lighed":1268,"kti":1269,"øre":1270,"yl":1271,"uden":1272,"ner":1273,"des":1274,"po":1275,"føl":1276,"For":1277,"mange":1278,"pr":1279,"ninger":1280,"os":1281,"bed":1282,"ni":1283,"vin":1284,"sin":1285,"hold":1286,"par":1287,"gør":1288,"vad":1289,"ingen":1290,"ød":1291,"fe":1292,"bliver":1293,"æng":1294,"vej":1295,"ch":1296,"land":1297,"son":1298,"elser":1299,"ko":1300,"sten":1301,"havde":1302,"læg":1303,"ord":1304,"mig":1305,"frem":1306,"hvis":1307,"gar":1308,"kunne":1309,"bi":1310,"dem":1311,"yn":1312,"mark":1313,"have":1314,"is":1315,"elsen":1316,"mod":1317,"bes":1318,"jo":1319,"skri":1320,"star":1321,"De":1322,"stil":1323,"godt":1324,"jæl":1325,"vores":1326,"lere":1327,"elt":1328,"ft":1329,"bør":1330,"noget":1331,"delse":1332,"andre":1333,"pri":1334,"sat":1335,"En":1336,"forsk":1337,"bo":1338,"træ":1339,"mal":1340,"beg":1341,"deres":1342,"ty":1343,"am":1344,"inger":1345,"bor":1346,"cer":1347,"str":1348,"hen":1349,"næ":1350,"sammen":1351,"ken":1352,"201":1353,"Dan":1354,"sag":1355,"hun":1356,"høj":1357,"fin":1358,"lu":1359,"ningen":1360,"gt":1361,"dre":1362,"anden":1363,"lag":1364,"helt":1365,"gan":1366,"ktion":1367,"mmer":1368,"hje":1369,"get":1370,"tte":1371,"denne":1372,"Men":1373,"lø":1374,"lidt":1375,"hvad":1376,"pen":1377,"gra":1378,"set":1379,"pla":1380,"ker":1381,"su":1382,"dat":1383,"fri":1384,"sion":1385,"byg":1386,"In":1387,"reg":1388,"spil":1389,"yg":1390,"god":1391,"ej":1392,"tra":1393,"isk":1394,"ation":1395,"vel":1396,"les":1397,"hi":1398,"arbejde":1399,"fal":1400,"sex":1401,"pe":1402,"red":1403,"fter":1404,"lle":1405,"mær":1406,"ellem":1407,"finde":1408,"Og":1409,"gennem":1410,"været":1411,"forskel":1412,"hus":1413,"udvi":1414,"um":1415,"person":1416,"mellem":1417,"Du":1418,"tilb":1419,"hjæl":1420,"nes":1421,"ket":1422,"tigt":1423,"kter":1424,"res":1425,"sid":1426,"fort":1427,"gøre":1428,"ned":1429,"met":1430,"løb":1431,"19":1432,"An":1433,"andet":1434,"nogle":1435,"bade":1436,"atur":1437,"eri":1438,"igen":1439,"hele":1440,"nye":1441,"blive":1442,"tu":1443,"præ":1444,"inter":1445,"no":1446,"inden":1447,"kommer":1448,"sko":1449,"svar":1450,"giver":1451,"it":1452,"ine":1453,"produ":1454,"ide":1455,"flere":1456,"stør":1457,"køb":1458,"led":1459,"Hvis":1460,"ik":1461,"somhed":1462,"Sa":1463,"dette":1464,"dy":1465,"dende":1466,"ænd":1467,"styr":1468,"dere":1469,"bare":1470,"St":1471,"vn":1472,"mind":1473,"ele":1474,"tes":1475,"skul":1476,"iske":1477,"sted":1478,"vig":1479,"lang":1480,"klar":1481,"dk":1482,"grund":1483,"ot":1484,"ful":1485,"fæl":1486,"kal":1487,"samt":1488,"Her":1489,"mulighed":1490,"ssage":1491,"ca":1492,"fun":1493,"mand":1494,"vand":1495,"gerne":1496,"søg":1497,"hvil":1498,"10":1499,"Han":1500,"Pa":1501,"ings":1502,"første":1503,"lever":1504,"ager":1505,"ige":1506,"siden":1507,"store":1508,"...":1509,"sal":1510,"syn":1511,"plan":1512,"forskellige":1513,"mø":1514,"mun":1515,"mid":1516,"tage":1517,"cen":1518,"nings":1519,"mat":1520,"ren":1521,"kken":1522,"ier":1523,"vende":1524,"omra":1525,"spi":1526,"Se":1527,"so":1528,"børn":1529,"kø":1530,"Danmark":1531,"ult":1532,"he":1533,"skulle":1534,"øg":1535,"mt":1536,"dom":1537,"itet":1538,"fol":1539,"ska":1540,"tik":1541,"sikker":1542,"virksomhed":1543,"æg":1544,"ry":1545,"lede":1546,"sser":1547,"væl":1548,"vt":1549,"van":1550,"ble":1551,"ks":1552,"ie":1553,"stra":1554,").":1555,"tel":1556,"valg":1557,"bag":1558,"vinder":1559,"tek":1560,"stand":1561,"kring":1562,"Ma":1563,"forb":1564,"akti":1565,"yder":1566,"fat":1567,"ien":1568,"dog":1569,"fil":1570,"bu":1571,"følg":1572,"hvordan":1573,"ville":1574,"au":1575,"dit":1576,"lys":1577,"borg":1578,"ski":1579,"samme":1580,"fly":1581,"tale":1582,"ære":1583,"hos":1584,"altid":1585,"fik":1586,"eret":1587,"liv":1588,"mor":1589,"havn":1590,"ment":1591,"behand":1592,"øv":1593,"menne":1594,"slag":1595,"id":1596,"forhold":1597,"stru":1598,"andt":1599,"ben":1600,"derfor":1601,"blevet":1602,"tere":1603,"vide":1604,"dann":1605,"hende":1606,"æs":1607,"tige":1608,"natur":1609,"ran":1610,"dens":1611,"spør":1612,"hu":1613,"va":1614,"massage":1615,"ban":1616,"tæn":1617,"derne":1618,"kket":1619,"nok":1620,"art":1621,"udvikl":1622,"række":1623,"ir":1624,"unkt":1625,"tilbage":1626,"aller":1627,"komme":1628,"fær":1629,"ham":1630,"enk":1631,"mel":1632,"spe":1633,"leder":1634,"lille":1635,"kræ":1636,"vid":1637,"len":1638,"ic":1639,"sik":1640,"200":1641,"dine":1642,"mest":1643,"spr":1644,"kar":1645,"kla":1646,"ligere":1647,"rej":1648,"holder":1649,"old":1650,"besk":1651,"nær":1652,"sær":1653,"olog":1654,"Med":1655,"tan":1656,"Al":1657,"18":1658,"aft":1659,"mili":1660,"made":1661,"gj":1662,"as":1663,"hur":1664,"fordi":1665,"fyl":1666,"gode":1667,"stat":1668,"tede":1669,"side":1670,"fan":1671,"bedste":1672,"Til":1673,"øje":1674,"ting":1675,"smal":1676,"kommun":1677,"dte":1678,"giv":1679,"off":1680,"give":1681,"Sk":1682,"sigt":1683,"ses":1684,"gru":1685,"læng":1686,"tager":1687,"eligt":1688,"form":1689,"Er":1690,"ppe":1691,"agt":1692,"ets":1693,"tidig":1694,"Nar":1695,"disse":1696,"tter":1697,"hal":1698,"ører":1699,"smu":1700,"fast":1701,"Kom":1702,"dighed":1703,"mærk":1704,"uddann":1705,"we":1706,"sidste":1707,"yk":1708,"siger":1709,"danske":1710,"mens":1711,"kur":1712,"run":1713,"holde":1714,"tis":1715,"lad":1716,"begyn":1717,"15":1718,"omkring":1719,"Man":1720,"bruger":1721,"Ud":1722,"kort":1723,"ck":1724,"dage":1725,"kval":1726,"kor":1727,"medle":1728,"sige":1729,"dansk":1730,"tioner":1731,"kvinder":1732,"tro":1733,"bog":1734,"bel":1735,"bedre":1736,"elige":1737,"gæl":1738,"Ar":1739,"gener":1740,"lade":1741,"erede":1742,"tre":1743,"slut":1744,"klu":1745,"ars":1746,"mil":1747,"enhavn":1748,"tor":1749,"nyt":1750,"oner":1751,"rigtig":1752,"bruge":1753,"poli":1754,"por":1755,"lin":1756,"kte":1757,"Køb":1758,"gu":1759,"yd":1760,"hjælp":1761,"histor":1762,"proble":1763,"stre":1764,"hans":1765,"mindre":1766,"sc":1767,"dri":1768,"ring":1769,"12":1770,"cial":1771,"lok":1772,"spørg":1773,"sor":1774,"sol":1775,"mad":1776,"tisk":1777,"maske":1778,"aler":1779,"ju":1780,"prø":1781,"edes":1782,"vok":1783,"ces":1784,"viser":1785,"nogen":1786,"vinde":1787,"sadan":1788,"oli":1789,"muligt":1790,"fle":1791,"proje":1792,"sæ":1793,"Dette":1794,"arbejder":1795,"bud":1796,"folk":1797,"famili":1798,"finder":1799,"dæ":1800,"løs":1801,"digt":1802,"gange":1803,"fag":1804,"ener":1805,"behandling":1806,"søger":1807,"pu":1808,"lave":1809,"ofte":1810,"ældre":1811,"lær":1812,"tiv":1813,"mini":1814,"ER":1815,"ges":1816,"lej":1817,"ønsker":1818,"hjemm":1819,"øde":1820,"lov":1821,"forbin":1822,"unge":1823,"ja":1824,"verden":1825,"30":1826,"værk":1827,"ard":1828,"hjem":1829,"stilling":1830,"Be":1831,"oplev":1832,"are":1833,"blandt":1834,"fy":1835,"taget":1836,"mænd":1837,"nor":1838,"hvilket":1839,"tiden":1840,"),":1841,"egen":1842,"iger":1843,"ligger":1844,"ater":1845,"stri":1846,"heden":1847,"stem":1848,"fortæl":1849,"rad":1850,"nød":1851,"pi":1852,"spørgsmal":1853,"heds":1854,"arbejd":1855,"stø":1856,"Da":1857,"kli":1858,"mennesker":1859,"jø":1860,"stu":1861,"tur":1862,"kommen":1863,"line":1864,"følge":1865,"Hvor":1866,"spunkt":1867,"modt":1868,"opga":1869,"ob":1870,"kendt":1871,"konta":1872,"skaber":1873,"sma":1874,"fuld":1875,"hæng":1876,"elses":1877,"kvalitet":1878,"sit":1879,"sætte":1880,"faet":1881,"ff":1882,"hoved":1883,"stadig":1884,"com":1885,"Som":1886,"plads":1887,"vitet":1888,"væg":1889,"oplys":1890,"tiske":1891,"endnu":1892,"io":1893,"ant":1894,"virkelig":1895,"anvende":1896,"pper":1897,"teret":1898,"videre":1899,"Et":1900,"dire":1901,"up":1902,"mit":1903,"Op":1904,"semp":1905,"væk":1906,"cent":1907,"gik":1908,"tog":1909,"Ved":1910,"dej":1911,"betal":1912,"14":1913,"dige":1914,"forbindelse":1915,"Har":1916,"interes":1917,"arbejdet":1918,"ki":1919,"skil":1920,"nede":1921,"hæ":1922,"Ja":1923,"København":1924,"fr":1925,"fald":1926,"aret":1927,"rede":1928,"sla":1929,"svær":1930,"fanta":1931,"stedet":1932,"iser":1933,"50":1934,"hæn":1935,"Kon":1936,"dele":1937,"ktisk":1938,"fek":1939,"Af":1940,"vs":1941,"komp":1942,"lerne":1943,"regi":1944,"Efter":1945,"beste":1946,"bolig":1947,"hør":1948,"penge":1949,"16":1950,"kæ":1951,"stisk":1952,"større":1953,"mon":1954,"sende":1955,"tive":1956,"vist":1957,"17":1958,"Un":1959,"mber":1960,"kra":1961,"gratis":1962,"konom":1963,"kri":1964,"sætter":1965,"foren":1966,"mpe":1967,"krop":1968,"oven":1969,"vat":1970,"styrelsen":1971,"menter":1972,"udvikling":1973,"fred":1974,"længere":1975,"rum":1976,"teg":1977,"præsen":1978,"findes":1979,"uni":1980,"pra":1981,"fo":1982,"lse":1983,"telse":1984,"Fa":1985,"Hun":1986,"hai":1987,"leje":1988,"sket":1989,"em":1990,"eksemp":1991,"dagen":1992,"følgende":1993,"tilfæl":1994,"sni":1995,"ini":1996,"aldr":1997,"bø":1998,"000":1999,"stort":2000,"Denne":2001,"kost":2002,"flo":2003,"skole":2004,"stær":2005,"online":2006,"lut":2007,"gdom":2008,"cep":2009,"mine":2010,"sku":2011,"funktion":2012,"vur":2013,"Sam":2014,"beho":2015,"arbejds":2016,"heder":2017,"11":2018,"synes":2019,"ering":2020,"olle":2021,"kende":2022,"ug":2023,"bry":2024,"fælles":2025,"sek":2026,"lagt":2027,"værdi":2028,"projekt":2029,"olen":2030,"viden":2031,"kør":2032,"først":2033,"ak":2034,"ts":2035,"rundt":2036,"satte":2037,"tidligere":2038,"sine":2039,"piger":2040,"ves":2041,"ogra":2042,"byder":2043,"blik":2044,"langt":2045,"hjemmes":2046,"iden":2047,"stk":2048,"eng":2049,"sport":2050,"aldrig":2051,"ført":2052,"hjælpe":2053,"eks":2054,"vne":2055,"hvert":2056,"hurtigt":2057,"ssi":2058,"læn":2059,"fok":2060,"tilbud":2061,"gende":2062,"billeder":2063,"vælge":2064,"løbet":2065,"timer":2066,"mang":2067,"allerede":2068,"oplysninger":2069,"tæt":2070,"At":2071,"sommer":2072,"gam":2073,"taler":2074,"sene":2075,"ernes":2076,"tionen":2077,"forma":2078,"raf":2079,"13":2080,"rer":2081,"skud":2082,"leve":2083,"gjort":2084,"orden":2085,"kat":2086,"givet":2087,"agen":2088,"møde":2089,"fte":2090,"eneste":2091,"søge":2092,"offent":2093,"kvinde":2094,"hj":2095,"skyl":2096,"minde":2097,"Sex":2098,"servi":2099,"iet":2100,"tab":2101,"klub":2102,"købe":2103,"film":2104,"organ":2105,"enkel":2106,"øm":2107,"Di":2108,"feri":2109,"forsta":2110,"ude":2111,"Ch":2112,"ceret":2113,"betyder":2114,"result":2115,"behov":2116,"rke":2117,"yt":2118,"bro":2119,"nødven":2120,"Sel":2121,"san":2122,"veau":2123,"aget":2124,"skabet":2125,"steder":2126,"Re":2127,"speci":2128,"Sp":2129,"co":2130,"altsa":2131,"ræn":2132,"stæn":2133,"mune":2134,"terne":2135,"gamle":2136,"nr":2137,"udvalg":2138,"ultur":2139,"Pro":2140,"økonom":2141,"hendes":2142,"bred":2143,"foret":2144,"fej":2145,"lyst":2146,"samtidig":2147,"indt":2148,"nation":2149,"ksi":2150,"bal":2151,"25":2152,"sdag":2153,"spæn":2154,"anbe":2155,"sv":2156,"ansvar":2157,"vigtigt":2158,"aften":2159,"saledes":2160,"revet":2161,"perio":2162,"forven":2163,"glæ":2164,"snit":2165,"faktisk":2166,"EN":2167,"web":2168,"uddannelse":2169,"sli":2170,"nemlig":2171,"erfar":2172,"job":2173,"læse":2174,"Mar":2175,"ori":2176,"Derfor":2177,"sh":2178,"video":2179,"ekstra":2180,"produkter":2181,"stan":2182,"næste":2183,"haft":2184,"Alle":2185,"hin":2186,"undersøg":2187,"sund":2188,"føre":2189,"fes":2190,"beslut":2191,"fekt":2192,"desig":2193,"dyr":2194,"Hvad":2195,"vl":2196,"skabe":2197,"delser":2198,"Mo":2199,"omradet":2200,"endom":2201,"varer":2202,"landet":2203,"pris":2204,"varme":2205,"Om":2206,"dør":2207,"holdt":2208,"Li":2209,"bær":2210,"handler":2211,"bestil":2212,"igennem":2213,"hjemme":2214,"fleste":2215,"næsten":2216,"mail":2217,"eren":2218,"Ra":2219,"samling":2220,"midler":2221,"kig":2222,"blot":2223,"ændr":2224,"kning":2225,"ller":2226,"trol":2227,"kamp":2228,"nat":2229,"ade":2230,"Ha":2231,"lavet":2232,"eter":2233,"materi":2234,"kend":2235,"ligvis":2236,"retning":2237,"do":2238,"mindst":2239,"pl":2240,"erhver":2241,"ders":2242,"Jo":2243,"skøn":2244,"hy":2245,"jern":2246,"eksempel":2247,"aktivitet":2248,"mmet":2249,"iner":2250,"bat":2251,"hyg":2252,"jen":2253,"seret":2254,"via":2255,"største":2256,"sikre":2257,"mask":2258,"non":2259,"samarbejde":2260,"kontakt":2261,"privat":2262,"top":2263,"stræ":2264,"nettet":2265,"try":2266,"grun":2267,"rev":2268,"visning":2269,"enkelte":2270,"energi":2271,"IN":2272,"Nu":2273,"udfor":2274,"SA":2275,"virksomheder":2276,"100":2277,"sikkert":2278,"utter":2279,"aut":2280,"stal":2281,"mar":2282,"gul":2283,"besøg":2284,"anlæg":2285,"sej":2286,"ov":2287,"skær":2288,"fundet":2289,"morgen":2290,"barn":2291,"ia":2292,"vejen":2293,"rag":2294,"ledning":2295,"mis":2296,"tran":2297,"prøve":2298,"esc":2299,"beh":2300,"orde":2301,"omrade":2302,"bruges":2303,"ppen":2304,"telef":2305,"øver":2306,"enter":2307,"imod":2308,"Ro":2309,"delsen":2310,"ktor":2311,"størr":2312,"aben":2313,"anal":2314,"even":2315,"skriv":2316,"spro":2317,"drag":2318,"tror":2319,"kret":2320,"tilfælde":2321,"fund":2322,"rør":2323,"vurder":2324,"maned":2325,"ylland":2326,"rejse":2327,"fordel":2328,"rige":2329,"mmel":2330,"udvik":2331,"escort":2332,"holdet":2333,"grad":2334,"tøj":2335,"slet":2336,"smæs":2337,"ky":2338,"alminde":2339,"fører":2340,"porno":2341,"regn":2342,"omfat":2343,"rel":2344,"gaet":2345,"model":2346,"medlem":2347,"hinanden":2348,"ina":2349,"tryk":2350,"ung":2351,"tør":2352,"enkelt":2353,"grøn":2354,"følgelig":2355,"bjer":2356,"alet":2357,"læge":2358,"40":2359,"progra":2360,"heller":2361,"personer":2362,"sning":2363,"livet":2364,"ator":2365,"malt":2366,"uro":2367,"tions":2368,"skrive":2369,"indsat":2370,"niveau":2371,"posi":2372,"sprog":2373,"krav":2374,"sygdom":2375,"kre":2376,"serne":2377,"Le":2378,"især":2379,"pati":2380,"gælder":2381,"værende":2382,"herunder":2383,"bygge":2384,"netop":2385,"muligheder":2386,"støtte":2387,"længe":2388,"skat":2389,"vare":2390,"enten":2391,"antal":2392,"service":2393,"talt":2394,"data":2395,"kunst":2396,"svært":2397,"uge":2398,"rette":2399,"vigtig":2400,"græn":2401,"fla":2402,"skriver":2403,"yde":2404,"kultur":2405,"huset":2406,"passer":2407,"væsen":2408,"pige":2409,"ali":2410,"sagt":2411,"opmærk":2412,"ationer":2413,"dar":2414,"direkte":2415,"søn":2416,"brugt":2417,"Bo":2418,"bla":2419,"sand":2420,"fokus":2421,"Ny":2422,"elever":2423,"stig":2424,"pil":2425,"cyk":2426,"gørelse":2427,"navn":2428,"udover":2429,"sagde":2430,"miljø":2431,"ac":2432,"fod":2433,"oku":2434,"24":2435,"egi":2436,"familie":2437,"syste":2438,"spændende":2439,"problemer":2440,"stet":2441,"adgang":2442,"sna":2443,"spiller":2444,"informa":2445,"Ni":2446,"egne":2447,"stitu":2448,"stille":2449,"senere":2450,"anbefal":2451,"int":2452,"sætning":2453,"deren":2454,"tivt":2455,"masse":2456,"fir":2457,"Dansk":2458,"Selv":2459,"sne":2460,"ht":2461,"øl":2462,"forældre":2463,"salg":2464,"køre":2465,"terer":2466,"Under":2467,"høje":2468,"effek":2469,"tj":2470,"Vor":2471,"klæ":2472,"afdel":2473,"fortæller":2474,"sper":2475,"kommende":2476,"medarbej":2477,"fantastisk":2478,"øge":2479,"ps":2480,"sens":2481,"inge":2482,"EU":2483,"forud":2484,"rik":2485,"selvfølgelig":2486,"Per":2487,"byen":2488,"super":2489,"ou":2490,"gjorde":2491,"maneder":2492,"betaling":2493,"dene":2494,"stod":2495,"fyldt":2496,"pan":2497,"tru":2498,"stop":2499,"mper":2500,"kær":2501,"Ind":2502,"AN":2503,"vise":2504,"sjo":2505,"gruppe":2506,"mener":2507,"halv":2508,"las":2509,"Ka":2510,"medlemmer":2511,"telefon":2512,"stiske":2513,"begge":2514,"forslag":2515,"isa":2516,"nævn":2517,"gene":2518,"hjemmeside":2519,"fx":2520,"els":2521,"Kommune":2522,"virker":2523,"Chri":2524,"sæl":2525,"handling":2526,"smag":2527,"vem":2528,"omrader":2529,"lækker":2530,"skrift":2531,"nø":2532,"ograf":2533,"Læs":2534,"opgaver":2535,"matte":2536,"laver":2537,"ST":2538,"ct":2539,"middel":2540,"dating":2541,"ferie":2542,"anset":2543,"produktion":2544,"hvorfor":2545,"produkt":2546,"psy":2547,"indtil":2548,"disk":2549,"kontrol":2550,"plad":2551,"ww":2552,"mærke":2553,"liges":2554,"cm":2555,"hotel":2556,"tidspunkt":2557,"app":2558,"værelse":2559,"60":2560,"kkes":2561,"hvilke":2562,"staende":2563,"ogle":2564,"løsning":2565,"sme":2566,"elserne":2567,"ellers":2568,"annon":2569,"ress":2570,"kommet":2571,"risi":2572,"løn":2573,"tilbyder":2574,"historie":2575,"Bil":2576,"gave":2577,"værre":2578,"our":2579,"sør":2580,"Fr":2581,"sikr":2582,"højt":2583,"situ":2584,"resultat":2585,"sættes":2586,"fores":2587,"Min":2588,"park":2589,"Mi":2590,"OR":2591,"elsker":2592,"ejendom":2593,"sager":2594,"tv":2595,"ryg":2596,"fru":2597,"system":2598,"tri":2599,"kender":2600,"ktur":2601,"skolen":2602,"uger":2603,"fore":2604,"tom":2605,"ore":2606,"egn":2607,"thai":2608,"Massage":2609,"indeholder":2610,"ønske":2611,"bedst":2612,"Po":2613,"pop":2614,"luft":2615,"orn":2616,"lære":2617,"ytte":2618,"lands":2619,"fysi":2620,"Vil":2621,"doku":2622,"soci":2623,"fire":2624,"kunder":2625,"stede":2626,"indlæg":2627,"rettet":2628,"rigtige":2629,"Vores":2630,"selskab":2631,"lejlighed":2632,"imp":2633,"erer":2634,"fj":2635,"minutter":2636,"begræn":2637,"syge":2638,"ologi":2639,"Nor":2640,"fejl":2641,"est":2642,"Hol":2643,"vægt":2644,"centr":2645,"oplevelse":2646,"nemt":2647,"stik":2648,"Des":2649,"tation":2650,"fød":2651,"alene":2652,"Bru":2653,"indi":2654,"bjerg":2655,"mag":2656,"kendte":2657,"forløb":2658,"ægte":2659,"valgt":2660,"inspi":2661,"dermed":2662,"Pri":2663,"foran":2664,"ften":2665,"børne":2666,"tering":2667,"bur":2668,"gæ":2669,"dø":2670,"ligevel":2671,"ktør":2672,"rapp":2673,"midt":2674,"arhus":2675,"problem":2676,"gte":2677,"affe":2678,"lokale":2679,"køkken":2680,"regler":2681,"udgang":2682,"hund":2683,"ew":2684,"hjer":2685,"jan":2686,"kræver":2687,"La":2688,"afhæng":2689,"valget":2690,"artik":2691,"kil":2692,"vnet":2693,"agra":2694,"22":2695,"masser":2696,"eten":2697,"hurtig":2698,"gift":2699,"formal":2700,"marked":2701,"former":2702,"udfordr":2703,"billede":2704,"tilfred":2705,"jylland":2706,"musik":2707,"spise":2708,"proces":2709,"kkede":2710,"ændre":2711,"gri":2712,"sikkerhed":2713,"anti":2714,"spille":2715,"stud":2716,"tekni":2717,"aftale":2718,"part":2719,"kred":2720,"smukke":2721,"ron":2722,"ganske":2723,"samlet":2724,"vede":2725,"nummer":2726,"konkur":2727,"nen":2728,"dels":2729,"Over":2730,"igt":2731,"maj":2732,"forklar":2733,"gre":2734,"”.":2735,"design":2736,"vest":2737,"Go":2738,"etab":2739,"center":2740,"gav":2741,"profes":2742,"ssen":2743,"sider":2744,"Si":2745,"log":2746,"Su":2747,"mmelse":2748,"sitet":2749,"dyb":2750,"tvi":2751,"skade":2752,"fli":2753,".,":2754,"beret":2755,"tids":2756,"21":2757,"gifter":2758,"hygg":2759,"199":2760,"billig":2761,"fed":2762,"akter":2763,"che":2764,"bold":2765,"forbrug":2766,"høre":2767,"lande":2768,"digheder":2769,"Kan":2770,"blog":2771,"Danmarks":2772,"ejer":2773,"sterne":2774,"opna":2775,"radet":2776,"selvom":2777,"start":2778,"jord":2779,"snar":2780,"analy":2781,"male":2782,"Th":2783,"icin":2784,"føres":2785,"ligesom":2786,"oma":2787,"pik":2788,"Ki":2789,"træn":2790,"ika":2791,"Gr":2792,"repræsen":2793,"simp":2794,"vælger":2795,"lader":2796,"vedet":2797,"egent":2798,"organisa":2799,"vol":2800,"æk":2801,"registr":2802,"politi":2803,"holds":2804,"server":2805,"fl":2806,"ftet":2807,"vidt":2808,"lokal":2809,"øst":2810,"indenfor":2811,"glæde":2812,"lejer":2813,"book":2814,"lægge":2815,"øs":2816,"bestemt":2817,"græ":2818,"samfund":2819,"præci":2820,"staur":2821,"resse":2822,"ydning":2823,"Ty":2824,"sjæl":2825,"erefter":2826,"Te":2827,"kære":2828,"hvilken":2829,"ED":2830,"lide":2831,"rom":2832,"AR":2833,"meter":2834,"sto":2835,"gaard":2836,"skrevet":2837,"strup":2838,"Sy":2839,"løse":2840,"sæson":2841,"deltag":2842,"hovedet":2843,"eksi":2844,"smer":2845,"23":2846,"bin":2847,"undet":2848,"bri":2849,"sere":2850,"farver":2851,"manden":2852,"spor":2853,"gle":2854,"stof":2855,"Par":2856,"Mere":2857,"hjælper":2858,"cere":2859,"smil":2860,"lign":2861,"medarbejdere":2862,"Kun":2863,"2018":2864,"cept":2865,"stol":2866,"edet":2867,"fang":2868,"følger":2869,"uar":2870,"”,":2871,"ET":2872,"alligevel":2873,"baggrund":2874,"EL":2875,"flot":2876,"lat":2877,"Gra":2878,"fem":2879,"slags":2880,"udgangspunkt":2881,"sep":2882,"procent":2883,"So":2884,"ømme":2885,"jeres":2886,"ender":2887,"veje":2888,"firma":2889,"sidder":2890,"træning":2891,"Ho":2892,"bygning":2893,"lende":2894,"Fra":2895,"væsent":2896,"lægger":2897,"Før":2898,"Ca":2899,"elevan":2900,"klasse":2901,"bestyrelsen":2902,"anvendes":2903,"con":2904,"....":2905,"seksu":2906,"Vej":2907,"bol":2908,"tænke":2909,"forening":2910,"ledes":2911,"Gud":2912,"Mu":2913,"blom":2914,"SK":2915,"risiko":2916,"spek":2917,"pap":2918,"foreg":2919,"dition":2920,"tvivl":2921,"særligt":2922,"kant":2923,"højere":2924,"tning":2925,"finan":2926,"afslut":2927,"rent":2928,"kol":2929,"pleje":2930,"seneste":2931,"skov":2932,"derende":2933,"bevæg":2934,"2017":2935,"bad":2936,"fandt":2937,"afgør":2938,"ander":2939,"stoff":2940,"karakter":2941,"رر":2942,"penis":2943,"øren":2944,"80":2945,"ikan":2946,"størrelse":2947,"mør":2948,"gæng":2949,"jul":2950,"\".":2951,"motor":2952,"bøger":2953,"medicin":2954,"relevan":2955,"Fol":2956,"pæ":2957,"lering":2958,"ktu":2959,"qu":2960,"the":2961,"bygger":2962,"ande":2963,"special":2964,"handen":2965,"kolle":2966,"borger":2967,"time":2968,"talte":2969,"Bør":2970,"Esc":2971,"2015":2972,"arran":2973,"kraft":2974,"ræk":2975,"ite":2976,"bygget":2977,"rød":2978,"møder":2979,"AT":2980,"arbejdsp":2981,"fulde":2982,"eventu":2983,"priser":2984,"Freder":2985,"70":2986,"aner":2987,"opmærksom":2988,"enhver":2989,"betale":2990,"nøg":2991,"digvis":2992,"øger":2993,"strat":2994,"beløb":2995,"ktøj":2996,"venner":2997,"bre":2998,"hvem":2999,"bart":3000,"bryster":3001,"sagen":3002,"berg":3003,"farve":3004,"pas":3005,"prin":3006,"mæng":3007,"Alt":3008,"ons":3009,"aktiviteter":3010,"Vær":3011,"fu":3012,"spar":3013,"Escort":3014,"myn":3015,"prakti":3016,"Sko":3017,"popul":3018,"Ju":3019,"mes":3020,"milli":3021,"tak":3022,"profession":3023,"punkt":3024,"politik":3025,"meto":3026,"Ga":3027,"anmel":3028,"26":3029,"jule":3030,"verdens":3031,"ure":3032,"Hu":3033,"vog":3034,"tages":3035,"forp":3036,"periode":3037,"jf":3038,"Ikke":3039,"ppet":3040,"aff":3041,"delen":3042,"indhold":3043,"glad":3044,"ow":3045,"drift":3046,"AL":3047,"tende":3048,"udstyr":3049,"særlig":3050,"krig":3051,"stykke":3052,"rigt":3053,"Thai":3054,"barnet":3055,"kna":3056,"gade":3057,"evt":3058,"æf":3059,"derefter":3060,"vindu":3061,"Ba":3062,"ration":3063,"pat":3064,"Hvordan":3065,"okt":3066,"lar":3067,"teres":3068,"Bi":3069,"restaur":3070,"uren":3071,"port":3072,"grundlag":3073,"Arbej":3074,"utro":3075,"kompeten":3076,"Fri":3077,"lange":3078,"kkende":3079,"2016":3080,"gangen":3081,"rigtigt":3082,"gøres":3083,"sociale":3084,"klart":3085,"leret":3086,"forsøg":3087,"beskyt":3088,"begynder":3089,"28":3090,"compu":3091,"nord":3092,"funger":3093,"hul":3094,"2014":3095,"stian":3096,"lod":3097,"brud":3098,"tyde":3099,"eres":3100,"bestar":3101,"test":3102,"sidst":3103,"alvor":3104,"Na":3105,"Hen":3106,"jæ":3107,"givning":3108,"Nord":3109,"Stk":3110,"The":3111,"pass":3112,"situation":3113,"bereg":3114,"hensyn":3115,"\",":3116,"kæmpe":3117,"erfaring":3118,"vision":3119,"za":3120,"splan":3121,"fug":3122,"køn":3123,"!!":3124,"bord":3125,"Pr":3126,"kærlighed":3127,"27":3128,"opleve":3129,"holm":3130,"Mange":3131,"ktioner":3132,"Side":3133,"pisk":3134,"fuldt":3135,"Euro":3136,"internation":3137,"Ber":3138,"psyk":3139,"alen":3140,"lærer":3141,"juni":3142,"gelse":3143,"inister":3144,"bestille":3145,"hører":3146,"dren":3147,"naturligvis":3148,"mart":3149,"alder":3150,"yderligere":3151,"bus":3152,"deles":3153,"bekendt":3154,"all":3155,"ast":3156,"fint":3157,"regel":3158,"stillet":3159,"Or":3160,"struktur":3161,"vester":3162,"studerende":3163,"fest":3164,"lyd":3165,"Uni":3166,"sæd":3167,"saf":3168,"Lu":3169,"km":3170,"føler":3171,"dense":3172,"konkurren":3173,"grupper":3174,"vendt":3175,"elekt":3176,"tred":3177,"mester":3178,"spillet":3179,"kører":3180,"information":3181,"mæs":3182,"shop":3183,"ordin":3184,"dagog":3185,"buti":3186,"strøm":3187,"opdat":3188,"betydning":3189,"opgave":3190,"Kri":3191,"værktøj":3192,"takt":3193,"merikan":3194,"beting":3195,"klo":3196,"modtager":3197,"urop":3198,"Disse":3199,"olie":3200,"samlede":3201,"Car":3202,"TV":3203,"fro":3204,"Ad":3205,"dejlig":3206,"29":3207,"sendt":3208,"tilling":3209,"alborg":3210,"my":3211,"ryk":3212,"indsats":3213,"social":3214,"bogen":3215,"sundhed":3216,"vækst":3217,"Kar":3218,"ym":3219,"færdig":3220,"udgifter":3221,"udtryk":3222,"ningerne":3223,"virke":3224,"snart":3225,"dato":3226,"Nogle":3227,"egentlig":3228,"ate":3229,"fyr":3230,"To":3231,"tiver":3232,"normalt":3233,"Eller":3234,"gede":3235,"mentar":3236,"Hel":3237,"2013":3238,"nov":3239,"vender":3240,"konkret":3241,"mobil":3242,"arm":3243,"passe":3244,"tvær":3245,"cces":3246,"skel":3247,"institu":3248,"tit":3249,"orten":3250,"begyndte":3251,"nyde":3252,"kroner":3253,"undervisning":3254,"cykel":3255,"desuden":3256,"Peter":3257,"haber":3258,"bon":3259,"bræn":3260,"vandet":3261,"apo":3262,"klassi":3263,"typer":3264,"Br":3265,"mangler":3266,"Ek":3267,"onen":3268,"moderne":3269,"USA":3270,"gammel":3271,"Ste":3272,"iv":3273,"sikring":3274,"januar":3275,"ksis":3276,"ance":3277,"stj":3278,"45":3279,"type":3280,"offentlige":3281,"tilgæng":3282,"inder":3283,"ringer":3284,"vinter":3285,"tilla":3286,"chef":3287,"dustri":3288,"parti":3289,"kroppen":3290,"band":3291,"nøj":3292,"uanset":3293,"ela":3294,"Danske":3295,"​​":3296,"ero":3297,"pag":3298,"ændringer":3299,"igur":3300,"reger":3301,"viste":3302,"huse":3303,"holdes":3304,"intet":3305,"flytte":3306,"inen":3307,"Aarhus":3308,"idet":3309,"hop":3310,"arige":3311,"Hans":3312,"resten":3313,"gere":3314,"fatter":3315,"læser":3316,"færd":3317,"bevar":3318,"ital":3319,"traf":3320,"kunde":3321,"Jes":3322,"kul":3323,"engang":3324,"indre":3325,"ledelse":3326,"versitet":3327,"orien":3328,"løbende":3329,"erstat":3330,"udvikle":3331,"fisk":3332,"oper":3333,"sul":3334,"alog":3335,"Land":3336,"SE":3337,"erhvervs":3338,"byde":3339,"korre":3340,"børnene":3341,"ys":3342,"alitet":3343,"engel":3344,"talen":3345,"ansøg":3346,"styrke":3347,"ober":3348,"kop":3349,"desværre":3350,"tænker":3351,"viagra":3352,"vind":3353,"nødvendigt":3354,"35":3355,"smi":3356,"terede":3357,"litet":3358,"undersøgelse":3359,"særlige":3360,"IL":3361,"vag":3362,"unkter":3363,"cel":3364,"mmelig":3365,"undt":3366,"skol":3367,"lege":3368,"vejledning":3369,"bran":3370,"pal":3371,"effekt":3372,"benytte":3373,"brand":3374,"gæld":3375,"somt":3376,"fortælle":3377,"øget":3378,"beskæf":3379,"hud":3380,"tekn":3381,"Fran":3382,"Mad":3383,"fon":3384,"nuværende":3385,"varm":3386,"admini":3387,"kirk":3388,"sort":3389,"eksp":3390,"opr":3391,"cember":3392,"budget":3393,"urn":3394,"tegn":3395,"By":3396,"lav":3397,"ighed":3398,"Fre":3399,"baseret":3400,"køber":3401,"meste":3402,"undga":3403,"stoffer":3404,"udsel":3405,"abel":3406,"redu":3407,"supp":3408,"El":3409,"frække":3410,"trods":3411,"projekter":3412,"hænger":3413,"Fi":3414,"stærk":3415,"Frederik":3416,"succes":3417,"efterfølgende":3418,"bevid":3419,"sættelse":3420,"tekst":3421,"pril":3422,"hard":3423,"skar":3424,"amerikan":3425,"vurdering":3426,"gennemsnit":3427,"Søn":3428,"IT":3429,"personlige":3430,"week":3431,"Sadan":3432,"kvar":3433,"lignende":3434,"vold":3435,"tilfø":3436,"brød":3437,"bestyr":3438,"fortsat":3439,"behøver":3440,"fer":3441,"velkommen":3442,"detal":3443,"He":3444,"ING":3445,"mentet":3446,"øvrigt":3447,"dræ":3448,"eksister":3449,"placer":3450,"hvid":3451,"abne":3452,"voksne":3453,"sminister":3454,".”":3455,"lykke":3456,"fremme":3457,"højde":3458,"offentlig":3459,"Mil":3460,"videnskab":3461,"vari":3462,"materiale":3463,"syd":3464,"oplevelser":3465,"arrange":3466,"københavn":3467,"tember":3468,"blod":3469,"ages":3470,"pet":3471,"Hos":3472,"ON":3473,"middag":3474,"unde":3475,"frit":3476,"ledet":3477,"sfor":3478,"pædagog":3479,"2012":3480,"Co":3481,"mærker":3482,"private":3483,"datter":3484,"spur":3485,"ttet":3486,"perfekt":3487,"synet":3488,"fjer":3489,"haven":3490,"bebo":3491,"Derudover":3492,"Fo":3493,"uropæ":3494,"Gen":3495,"instru":3496,"Var":3497,"udvalget":3498,"sus":3499,"hverdag":3500,"ugen":3501,"tradition":3502,"ton":3503,"bidr":3504,"frisk":3505,"liste":3506,"jekt":3507,"computer":3508,"vejr":3509,"gældende":3510,"artikel":3511,"fødsel":3512,"pct":3513,"indivi":3514,"forsamling":3515,"dyg":3516,"Dat":3517,"kontor":3518,"spej":3519,"simpelt":3520,"eledes":3521,"fedt":3522,"kaffe":3523,"fungerer":3524,"nævnte":3525,"imellem":3526,"omkost":3527,"bane":3528,"starter":3529,"opret":3530,"gust":3531,"afsnit":3532,"Øn":3533,"anvendelse":3534,"behag":3535,"marts":3536,"delt":3537,"kommunen":3538,"Ti":3539,"virksomheden":3540,"værd":3541,"afil":3542,"finansi":3543,"dets":3544,"december":3545,"partner":3546,"opfyl":3547,"sammenhæng":3548,"markedet":3549,"kontra":3550,"holdelse":3551,"træk":3552,"fine":3553,"tilskud":3554,"fran":3555,"vner":3556,"ette":3557,"sekven":3558,"endelig":3559,"mio":3560,"glas":3561,"ex":3562,"vember":3563,"systemet":3564,"recept":3565,"lads":3566,"paa":3567,"invester":3568,"praksis":3569,"ank":3570,"helst":3571,"minister":3572,"oplever":3573,"forbi":3574,"skyldes":3575,"ressour":3576,"leg":3577,"højre":3578,"medarbejder":3579,"beskriv":3580,"kæreste":3581,"Mic":3582,"sender":3583,"øvrige":3584,"atet":3585,"tredje":3586,"overra":3587,"tera":3588,"Ex":3589,"papir":3590,"flotte":3591,"bund":3592,"Mal":3593,"smæssige":3594,"rammer":3595,"rolle":3596,"førte":3597,"skifte":3598,"regnskab":3599,"kombin":3600,"delu":3601,"svarende":3602,"ines":3603,"stab":3604,"projektet":3605,"stillinger":3606,"hot":3607,"ologiske":3608,"Hot":3609,"skyld":3610,"kendelse":3611,"31":3612,"transport":3613,"osv":3614,"erhverv":3615,"opti":3616,"chat":3617,"familien":3618,"april":3619,"stændig":3620,"oktober":3621,"netværk":3622,"cy":3623,"cirk":3624,"ID":3625,"radi":3626,"gruppen":3627,"porn":3628,"fry":3629,"sad":3630,"Ser":3631,"hardt":3632,"kommunika":3633,"gard":3634,"september":3635,"ider":3636,"vilkar":3637,"frivil":3638,"Bor":3639,"typisk":3640,"døde":3641,"kry":3642,"ologisk":3643,"Hver":3644,"pres":3645,"Maske":3646,"Ta":3647,"komst":3648,"menneske":3649,"pension":3650,"kg":3651,"aktion":3652,"lyder":3653,"Hej":3654,"malet":3655,"mission":3656,"afdeling":3657,"pludsel":3658,"lægges":3659,"nere":3660,"th":3661,"meld":3662,"gaende":3663,"prøver":3664,"kræft":3665,"ogen":3666,"ældende":3667,"fel":3668,"feren":3669,"mader":3670,"general":3671,"specielt":3672,"sammenlig":3673,"DK":3674,"Bar":3675,"Sc":3676,"nærmere":3677,"Poli":3678,"90":3679,"øse":3680,"billed":3681,"valgte":3682,"trække":3683,"interesse":3684,"sil":3685,"hjul":3686,"tighed":3687,"Europa":3688,"Samtidig":3689,"rejser":3690,"Bes":3691,"klare":3692,"møn":3693,"koncer":3694,"IG":3695,"bort":3696,"oft":3697,"biler":3698,"kateg":3699,"dra":3700,"forsvar":3701,"remt":3702,"skæ":3703,"IS":3704,"forskning":3705,"Mat":3706,"borgere":3707,"betyde":3708,"inte":3709,"føde":3710,"tant":3711,"kraf":3712,"moder":3713,"lækre":3714,"ku":3715,"værker":3716,"industri":3717,"belt":3718,"vises":3719,"rim":3720,"Sal":3721,"foto":3722,"reb":3723,"venlig":3724,"gives":3725,"uld":3726,"kap":3727,"Næ":3728,"neden":3729,"flu":3730,"lager":3731,"stærkt":3732,"Jen":3733,"november":3734,"iseret":3735,"terna":3736,"Val":3737,"købt":3738,"team":3739,"sar":3740,"lub":3741,"mening":3742,"prisen":3743,"udviklet":3744,"-)":3745,"ligheder":3746,"almindelige":3747,"resultater":3748,"kæl":3749,"vedlige":3750,"ega":3751,"tifi":3752,"læst":3753,"kro":3754,"2011":3755,"varet":3756,"foræl":3757,"Fin":3758,"ifi":3759,"vigtigste":3760,"automa":3761,"ille":3762,"tenti":3763,"oppe":3764,"skom":3765,"generelt":3766,"muse":3767,"We":3768,"Ver":3769,"ist":3770,"rø":3771,"ørg":3772,"selve":3773,"post":3774,"uddan":3775,"somra":3776,"staet":3777,"dent":3778,"Sund":3779,"styrk":3780,"falder":3781,"Str":3782,"Christian":3783,"ilm":3784,"deltage":3785,"Regi":3786,"dejligt":3787,"plejer":3788,"belig":3789,"bun":3790,"kontakte":3791,"sis":3792,"aby":3793,"cerede":3794,"fjern":3795,"Desuden":3796,"kne":3797,"chen":3798,"handel":3799,"foreningen":3800,"Por":3801,"værelser":3802,"rørende":3803,"søgt":3804,"www":3805,"kog":3806,"ans":3807,"formand":3808,"profil":3809,"anter":3810,"ay":3811,"nødt":3812,"rene":3813,"Læ":3814,"2010":3815,"Odense":3816,"øjne":3817,"tar":3818,"mene":3819,"Net":3820,"drø":3821,"Ri":3822,"udviklingen":3823,"forbed":3824,"udsigt":3825,"Person":3826,"byr":3827,"chan":3828,"retten":3829,"peg":3830,"jorden":3831,"endda":3832,"okol":3833,"udelu":3834,"sove":3835,"klima":3836,"butik":3837,"program":3838,"75":3839,"Res":3840,"Andre":3841,"lægning":3842,"afgørende":3843,"36":3844,"dede":3845,"ørdag":3846,"fodbold":3847,"OL":3848,"aktu":3849,"forel":3850,"Aalborg":3851,"pagældende":3852,"mærket":3853,"hedder":3854,"bestemm":3855,"nene":3856,"konsekven":3857,"temper":3858,"skr":3859,"Syd":3860,"vend":3861,"sidde":3862,"lik":3863,"one":3864,"tilfreds":3865,"død":3866,"Del":3867,"ophold":3868,"skabt":3869,"Søren":3870,"ymna":3871,"egnet":3872,"smark":3873,"burde":3874,"sikrer":3875,"ifølge":3876,"Høj":3877,"smuk":3878,"lider":3879,"starte":3880,"sede":3881,"huske":3882,"agere":3883,"kn":3884,"demok":3885,"venstre":3886,"skrifter":3887,"somme":3888,"debat":3889,"brænd":3890,"lid":3891,"anderledes":3892,"august":3893,"gro":3894,"hvornar":3895,"diske":3896,"jælland":3897,"DR":3898,"dob":3899,"tider":3900,"inklu":3901,"individu":3902,"sing":3903,"skon":3904,"Stor":3905,"gel":3906,"sstil":3907,"nab":3908,"Kommun":3909,"ink":3910,"loven":3911,"tema":3912,"Far":3913,"mød":3914,"pt":3915,"ms":3916,"økonomiske":3917,"cre":3918,"svarer":3919,"hunde":3920,"omfang":3921,"tryg":3922,"bevidst":3923,"maskine":3924,"pladsen":3925,"bruar":3926,"solut":3927,"faglige":3928,"fisse":3929,"Gu":3930,"maden":3931,"skatte":3932,"hvide":3933,"født":3934,"brugte":3935,"konstru":3936,"mennesk":3937,"cebook":3938,"serede":3939,"dning":3940,"dørs":3941,"iso":3942,"pital":3943,"billedet":3944,"IK":3945,"foku":3946,"Inter":3947,"stiller":3948,"Skal":3949,"getøj":3950,"Dag":3951,"glæder":3952,"elset":3953,"folke":3954,"arig":3955,"pul":3956,".\"":3957,"savel":3958,"krea":3959,"tilstræ":3960,"bank":3961,"fremgar":3962,"Lig":3963,"sky":3964,"defin":3965,"sloven":3966,"use":3967,"knyt":3968,"kym":3969,"ktiv":3970,"tand":3971,"bilen":3972,"bekym":3973,"fot":3974,"sandsyn":3975,"mmerne":3976,"bringe":3977,"kommentar":3978,"Bet":3979,"vejs":3980,"out":3981,"perioden":3982,"vikl":3983,"opfat":3984,"OG":3985,"God":3986,"ordning":3987,"blo":3988,"Natur":3989,"bæk":3990,"gæster":3991,"Ingen":3992,"rets":3993,"Gratis":3994,"brev":3995,"patienter":3996,"regu":3997,"ansatte":3998,"liggende":3999,"princi":4000,"smart":4001,"musi":4002,"oprinde":4003,"handle":4004,"øjebli":4005,"tus":4006,"løsninger":4007,"Mor":4008,"skland":4009,"starten":4010,"sken":4011,"cialis":4012,"skin":4013,"hum":4014,"bevæ":4015,"Mon":4016,"kast":4017,"adskil":4018,"befolk":4019,"Ve":4020,"Arhus":4021,"Jør":4022,"ønskede":4023,"Lad":4024,"forstaelse":4025,"tje":4026,"tæ":4027,"spekt":4028,"pol":4029,"US":4030,"adresse":4031,"pladser":4032,"spital":4033,"flade":4034,"hjerte":4035,"stærke":4036,"funktioner":4037,"spon":4038,"drikke":4039,"ligeledes":4040,"blio":4041,"politiske":4042,"løbe":4043,"levering":4044,"frugt":4045,"skoler":4046,"vo":4047,"generisk":4048,"bredt":4049,"deret":4050,"omfatter":4051,"view":4052,"hn":4053,"pakke":4054,"pludselig":4055,"fler":4056,"foregar":4057,"nemm":4058,"udfordringer":4059,"Hi":4060,"Ven":4061,"løber":4062,"sukker":4063,"overfor":4064,"invi":4065,"accep":4066,"sakal":4067,"banen":4068,"senest":4069,"andi":4070,"ænk":4071,"version":4072,"steg":4073,"præcis":4074,"tallet":4075,"prøvet":4076,"spænd":4077,"vedrørende":4078,"udgør":4079,"absolut":4080,"eksempelvis":4081,"haver":4082,"skema":4083,"saa":4084,"nytte":4085,"Hoved":4086,"styret":4087,"potenti":4088,"skader":4089,"ringe":4090,"skrev":4091,"startede":4092,"fab":4093,"Sta":4094,"dækker":4095,"smule":4096,"aktiver":4097,"stue":4098,"dokumen":4099,"ideer":4100,"omo":4101,"instal":4102,"boliger":4103,"valu":4104,"økonomi":4105,"populære":4106,"Byg":4107,"antallet":4108,"skift":4109,"ls":4110,"ændret":4111,"støj":4112,"hor":4113,"søde":4114,"primær":4115,"materialer":4116,"ramme":4117,"letter":4118,"magt":4119,"bered":4120,"skræ":4121,"kommune":4122,"stress":4123,"CO":4124,"skridt":4125,"brugere":4126,"yr":4127,"udby":4128,"dejlige":4129,"danmark":4130,":)":4131,"tjene":4132,"mulige":4133,"gas":4134,"33":4135,"mæl":4136,"skra":4137,"retur":4138,"Sch":4139,"Brug":4140,"direktør":4141,"ins":4142,"gengæld":4143,"virkning":4144,"500":4145,"Nielsen":4146,"overens":4147,"februar":4148,"kryd":4149,"ond":4150,"Jan":4151,"vansk":4152,"besked":4153,"mptom":4154,"ES":4155,"henhold":4156,"itel":4157,"ies":4158,"oply":4159,"Bla":4160,"standard":4161,"Find":4162,"sw":4163,"efterhanden":4164,"koster":4165,"begrænset":4166,"apotek":4167,"udbud":4168,"kredit":4169,"Tor":4170,"isering":4171,"eksisterende":4172,"PR":4173,"spillere":4174,"ændring":4175,"2009":4176,"AG":4177,"Jensen":4178,"tagelse":4179,"kel":4180,"tilsyn":4181,"perfek":4182,"rende":4183,"hil":4184,"kone":4185,"generalforsamling":4186,"vnen":4187,"sendes":4188,"holdning":4189,"sælger":4190,"mmen":4191,"sjovt":4192,"temperatur":4193,"eksper":4194,"konsul":4195,"Selvom":4196,"fræk":4197,"holdsvis":4198,"ærer":4199,"rækker":4200,"simpelthen":4201,"menu":4202,"modtaget":4203,"juli":4204,"stykker":4205,"uddannelsen":4206,"No":4207,"stens":4208,"følelse":4209,"Vel":4210,"rat":4211,"ytter":4212,"Con":4213,"lsen":4214,"mv":4215,"beskyttelse":4216,"administra":4217,"mum":4218,"lerede":4219,"visningen":4220,"garanti":4221,"Kontakt":4222,"forfatter":4223,"station":4224,"personale":4225,"II":4226,"leverand":4227,"nogens":4228,"batter":4229,"ness":4230,"Ski":4231,"historier":4232,"uropæiske":4233,"listen":4234,"Din":4235,"klin":4236,"mmes":4237,"Grøn":4238,"Hansen":4239,"ari":4240,"sive":4241,"spørge":4242,"beskæftig":4243,"rekla":4244,"pæn":4245,"videoer":4246,"skønne":4247,"EM":4248,"sød":4249,"ers":4250,"klage":4251,"Tag":4252,"hjør":4253,"how":4254,"fysisk":4255,"sundheds":4256,"forker":4257,"darlig":4258,".)":4259,"serie":4260,"dyre":4261,"scen":4262,"Sid":4263,"modtage":4264,"tia":4265,"alterna":4266,"cerer":4267,"smus":4268,"deltager":4269,"Ge":4270,"glade":4271,"skede":4272,"smo":4273,"cher":4274,"guide":4275,"roman":4276,"myndighed":4277,"økonomisk":4278,"tanker":4279,"forand":4280,"Ogsa":4281,"Væl":4282,"nævnt":4283,"rapport":4284,"faktor":4285,"piller":4286,"engelsk":4287,"ulti":4288,"UN":4289,"søndag":4290,"xx":4291,"støv":4292,"klen":4293,"kørsel":4294,"aktiv":4295,"inspiration":4296,"meddel":4297,"Københavns":4298,"lip":4299,"ald":4300,"indgar":4301,"forpligt":4302,"DS":4303,"nærmest":4304,"medier":4305,"blomster":4306,"wn":4307,"dialog":4308,"hørt":4309,"hone":4310,"Jørgen":4311,"ungdom":4312,"enor":4313,"nogensinde":4314,"smiljø":4315,"ationen":4316,"huden":4317,"198":4318,"vild":4319,"edyg":4320,"hænge":4321,"Ander":4322,"Super":4323,"eleverne":4324,"hverken":4325,"tyn":4326,"trafik":4327,"tilstrækk":4328,"Porno":4329,",-":4330,"varmt":4331,"Tr":4332,"relevante":4333,"nødvendige":4334,",”":4335,"millioner":4336,"automatisk":4337,"ødel":4338,"dobbelt":4339,"formu":4340,"mus":4341,"møb":4342,"konto":4343,"øk":4344,"vildt":4345,"Thom":4346,"modeller":4347,"Kvinder":4348,"afe":4349,"Hus":4350,"Tan":4351,"værdier":4352,"almindelig":4353,"bemærk":4354,"smæssigt":4355,"figur":4356,"Ben":4357,"æld":4358,"gter":4359,"udstilling":4360,"forret":4361,"Hotel":4362,"opdag":4363,"enhed":4364,"fantastiske":4365,"34":4366,"stæ":4367,"Kat":4368,"slu":4369,"bede":4370,"sven":4371,"tyr":4372,"damer":4373,"internationale":4374,"demokra":4375,"sur":4376,"historien":4377,"udenfor":4378,"mera":4379,"grønne":4380,"fortsætter":4381,"umiddel":4382,"Virk":4383,"døren":4384,"grænse":4385,"buk":4386,"samfundet":4387,"point":4388,"seks":4389,"Hvil":4390,"On":4391,"tilbyde":4392,"32":4393,"stit":4394,"legetøj":4395,"opmærksomhed":4396,"dæk":4397,"betalt":4398,"fotograf":4399,"2008":4400,"Midt":4401,"lettere":4402,"overvej":4403,"kigge":4404,"grader":4405,"korrekt":4406,"kede":4407,"næst":4408,"wor":4409,"venter":4410,"forsøger":4411,"genop":4412,"kød":4413,"forretning":4414,"detaljer":4415,"kursus":4416,"vaske":4417,"grunden":4418,"inten":4419,"indfly":4420,"hvi":4421,"annoncer":4422,"midlertid":4423,"selskabet":4424,"byer":4425,"radighed":4426,"Mand":4427,"Bu":4428,"sind":4429,"skilde":4430,"træder":4431,"opfor":4432,"værelset":4433,"smat":4434,"levende":4435,"orier":4436,"dder":4437,"serer":4438,"grønt":4439,"slen":4440,"tigheder":4441,"turen":4442,"kvalifi":4443,"San":4444,"gaver":4445,"trækker":4446,"sygdomme":4447,"systemer":4448,"sym":4449,"kirke":4450,"dvs":4451,"forsy":4452,"leveret":4453,"perfekte":4454,"region":4455,"erfaringer":4456,"læggende":4457,"overensste":4458,"forsikring":4459,"bok":4460,"gørelsen":4461,"uddannelses":4462,"ansk":4463,"Bade":4464,"primært":4465,"visse":4466,"omgang":4467,"glo":4468,"Nej":4469,"stemme":4470,"bland":4471,"tænkt":4472,"fællesskab":4473,"vente":4474,"indkøb":4475,"New":4476,"straks":4477,"sset":4478,"Hvorfor":4479,"godkendt":4480,"læring":4481,"bøl":4482,"ligge":4483,"ræt":4484,"bærer":4485,"eto":4486,"ditet":4487,"celler":4488,"ilet":4489,"amerikanske":4490,"journ":4491,"ansigt":4492,"hente":4493,"stemning":4494,"kerne":4495,"offi":4496,"kommunikation":4497,"øjen":4498,"hab":4499,"AS":4500,"ierne":4501,"ris":4502,"betaler":4503,"Bag":4504,"entre":4505,"gyl":4506,"løst":4507,"ffer":4508,"Plan":4509,"38":4510,"fale":4511,"selskaber":4512,"Store":4513,"klubben":4514,"lørdag":4515,"planer":4516,"Beg":4517,"sign":4518,"butikker":4519,"ragende":4520,"tydeligt":4521,"AD":4522,"vigtige":4523,"tilstand":4524,"begi":4525,"ep":4526,"symptom":4527,"fredag":4528,"kapital":4529,"undersøgelser":4530,"vogn":4531,"konkrete":4532,"delig":4533,"arets":4534,"denafil":4535,"førelse":4536,"Gener":4537,"bygninger":4538,"deling":4539,"eligi":4540,"Stat":4541,"citet":4542,"hyl":4543,"sætt":4544,"-,":4545,"faldet":4546,"tværs":4547,"lagde":4548,"Tak":4549,"رررر":4550,"olf":4551,"indga":4552,"kræfter":4553,"litter":4554,"betrag":4555,"træner":4556,"faste":4557,"fæ":4558,"henvende":4559,"forbundet":4560,"beslutning":4561,"Erhver":4562,"ations":4563,"givelser":4564,"37":4565,"valitet":4566,"FOR":4567,"fysiske":4568,"analyse":4569,"lf":4570,"digi":4571,"Ener":4572,"fjerne":4573,"nøgen":4574,"jet":4575,"besøge":4576,"arsag":4577,"udgave":4578,"Ci":4579,"seng":4580,"Politi":4581,"værket":4582,"Pen":4583,"nej":4584,"sætninger":4585,"Sønder":4586,"Peder":4587,"blød":4588,"AM":4589,"ica":4590,"drene":4591,"39":4592,"rengør":4593,"AB":4594,"daglige":4595,"udtry":4596,"fortælling":4597,"muligheden":4598,"sang":4599,"standen":4600,"daglig":4601,"vidste":4602,"kommuner":4603,"pig":4604,"fremtiden":4605,"seksuelle":4606,"Rig":4607,"Hand":4608,"rup":4609,"mom":4610,"voksen":4611,"retter":4612,"cha":4613,"anbefale":4614,"last":4615,"Rasmus":4616,"indholdet":4617,"træt":4618,"camp":4619,"Reg":4620,"formid":4621,"røde":4622,"stande":4623,"areal":4624,"studie":4625,"mann":4626,"arkite":4627,"levere":4628,"Ret":4629,"igang":4630,"mødes":4631,"lation":4632,"tilslut":4633,"otte":4634,"ze":4635,"im":4636,"agelse":4637,"ffet":4638,"tidens":4639,"gymna":4640,"kampen":4641,"organisation":4642,"jør":4643,"overensstemmelse":4644,"kompetencer":4645,"sasom":4646,"bring":4647,"Mart":4648,"knæ":4649,"lay":4650,"Com":4651,"pengene":4652,"forhand":4653,"aftaler":4654,"Lars":4655,"neder":4656,"hjemmesiden":4657,"langs":4658,"Kr":4659,"placeret":4660,"siv":4661,"hastig":4662,"hospital":4663,"hyggeligt":4664,"Jens":4665,"48":4666,"væsentlig":4667,"omkostninger":4668,"lyn":4669,"afhængig":4670,"kni":4671,"kalder":4672,"greb":4673,"livs":4674,"forsikr":4675,"anbefaler":4676,"ell":4677,"kkerne":4678,"landbrug":4679,"trodu":4680,"vider":4681,"vandt":4682,"radgivning":4683,"zz":4684,"landske":4685,"overblik":4686,"ktivitet":4687,"tidige":4688,"kaldes":4689,"Dog":4690,"Es":4691,"uly":4692,"cam":4693,"lukket":4694,"vilde":4695,"ydelser":4696,"køle":4697,"tyske":4698,"opstar":4699,"ture":4700,"bordet":4701,"lækkert":4702,"Inden":4703,"fart":4704,"strateg":4705,"Tek":4706,":-)":4707,"behør":4708,"herefter":4709,"vendte":4710,"ligheden":4711,"Lige":4712,"Sen":4713,"Sil":4714,"baby":4715,"grunde":4716,"skærm":4717,"skende":4718,"2007":4719,"vedr":4720,"maler":4721,"55":4722,"Nør":4723,"sagtens":4724,"Kor":4725,"forbedre":4726,"OM":4727,"ordent":4728,"overhovedet":4729,"endte":4730,"elektron":4731,"fæng":4732,"Ly":4733,"navnet":4734,"soft":4735,"stin":4736,"løg":4737,"hænder":4738,"Tyskland":4739,"Lang":4740,"elementer":4741,"ansvarlig":4742,"Facebook":4743,"henblik":4744,"Porn":4745,"Siden":4746,"deler":4747,"hundrede":4748,"fors":4749,"presse":4750,"sorte":4751,"trin":4752,"Eng":4753,"kasse":4754,"Henrik":4755,"ægt":4756,"højeste":4757,"Gar":4758,"olding":4759,"punkter":4760,"skru":4761,"ue":4762,"sorg":4763,"Gi":4764,"begyndt":4765,"salt":4766,"Frederiks":4767,"føle":4768,"bidrag":4769,"døg":4770,"ody":4771,"religi":4772,"turi":4773,"afstand":4774,"??":4775,"site":4776,"frokost":4777,"lim":4778,"forh":4779,"skj":4780,"spare":4781,"vik":4782,"føring":4783,"sikkerheds":4784,"bra":4785,"nega":4786,"verse":4787,"Ko":4788,"eksk":4789,"arti":4790,"stant":4791,"alko":4792,"slaet":4793,"kes":4794,"real":4795,"komfort":4796,"Me":4797,"biblio":4798,"rol":4799,"ægter":4800,"udelukkende":4801,"Sammen":4802,"bunden":4803,"onne":4804,"tival":4805,"Vest":4806,"slin":4807,"læder":4808,"reglerne":4809,"naturen":4810,"politisk":4811,"sant":4812,"evne":4813,"Au":4814,"kage":4815,"lom":4816,"sino":4817,"indflydelse":4818,"inspir":4819,"viditet":4820,"omfattet":4821,"Foto":4822,"live":4823,"betjen":4824,"Husk":4825,"fron":4826,"guld":4827,"forstar":4828,"chokol":4829,"virkeligheden":4830,"natten":4831,"tin":4832,"begynde":4833,"andidat":4834,"sioner":4835,"strategi":4836,"End":4837,"havet":4838,"grundlæggende":4839,"Mø":4840,"mulig":4841,"knap":4842,"læs":4843,"imidlertid":4844,"sjov":4845,"rund":4846,"arbejdsplad":4847,"kron":4848,"tjeneste":4849,"Bed":4850,"Sø":4851,"status":4852,"fylde":4853,"Tid":4854,"Gennem":4855,"udført":4856,"bom":4857,"Sver":4858,"vore":4859,"fantasi":4860,"prote":4861,"leres":4862,"begiven":4863,"praktisk":4864,"drenge":4865,"tat":4866,"beskrivelse":4867,"fremragende":4868,"jævn":4869,"65":4870,"nemmere":4871,"manglende":4872,"Spe":4873,"vene":4874,"Cla":4875,"websted":4876,"vitra":4877,"Dy":4878,"vir":4879,"færre":4880,"ld":4881,"ild":4882,"Lok":4883,"elighed":4884,"vice":4885,"fuldstændig":4886,"initia":4887,"teknologi":4888,"mødet":4889,"personlig":4890,"internet":4891,"Sol":4892,"bage":4893,"attra":4894,"Fyn":4895,"sler":4896,"tanke":4897,"æd":4898,"kation":4899,"stilles":4900,"stats":4901,"faldt":4902,"bilag":4903,"visor":4904,"vejled":4905,"støtter":4906,"forval":4907,"spoli":4908,"frihed":4909,"klager":4910,"ansat":4911,"Vælg":4912,"stensen":4913,"ktionen":4914,"stral":4915,"spa":4916,"stigende":4917,"forventes":4918,"drer":4919,"99":4920,"gulv":4921,"markeds":4922,"maskiner":4923,"faci":4924,"kørte":4925,"Præ":4926,"affald":4927,"Ring":4928,"skes":4929,"//":4930,"vejret":4931,"arter":4932,"afsla":4933,"renover":4934,"konkurrence":4935,"Region":4936,"sproces":4937,"naturlige":4938,"spurgte":4939,"Fæl":4940,"trad":4941,"IV":4942,"misk":4943,"ium":4944,"lie":4945,"enden":4946,"Social":4947,"yng":4948,"\u0000\u0000":4949,"sommeren":4950,"smukt":4951,"kob":4952,"ced":4953,"Flere":4954,"ært":4955,"gennemført":4956,"seri":4957,"Bemærk":4958,"givelse":4959,"Mag":4960,"mode":4961,"weekend":4962,"arbejdes":4963,"dækket":4964,"atri":4965,"relevant":4966,"grænser":4967,"Ifølge":4968,"kæmp":4969,"mindste":4970,"plade":4971,"Ej":4972,"jagt":4973,"aktive":4974,"ordre":4975,"syg":4976,"byens":4977,"mængde":4978,"ktive":4979,"stjerne":4980,"erio":4981,"Andersen":4982,"Universitet":4983,"Am":4984,"naturligt":4985,"Mark":4986,"levitra":4987,"ondt":4988,"køret":4989,"ola":4990,"tidligt":4991,"utrolig":4992,"planter":4993,"Uanset":4994,"interessant":4995,"iværk":4996,"ægge":4997,"sland":4998,"eksa":4999,"stitut":5000,"smid":5001,"sjældent":5002,"nabo":5003,"App":5004,"pre":5005,"skrives":5006,"syntes":5007,"uddannelser":5008,"spiser":5009,"tillæg":5010,"univer":5011,"fit":5012,"anske":5013,"temp":5014,"chi":5015,"Jylland":5016,"heldigvis":5017,"ware":5018,"konfli":5019,"spo":5020,"følelser":5021,"lykkedes":5022,"LE":5023,"44":5024,"stati":5025,"regne":5026,"opbevar":5027,"kontrakt":5028,"foretaget":5029,"AF":5030,"fleksi":5031,"bevægelse":5032,"can":5033,"kamera":5034,"Frem":5035,"num":5036,"kade":5037,"annoncen":5038,"tilladelse":5039,"sprøj":5040,"styre":5041,"ister":5042,"RE":5043,"ingerne":5044,"lot":5045,"aen":5046,"Hal":5047,"stige":5048,"toilet":5049,"Først":5050,"vinden":5051,"eu":5052,"aly":5053,"abner":5054,"Ran":5055,"patient":5056,"Mit":5057,"samtale":5058,"programmer":5059,"Johan":5060,"adfærd":5061,"artikler":5062,"lane":5063,"hvorefter":5064,"Miljø":5065,"hotellet":5066,"fortalte":5067,"runde":5068,"afgørelse":5069,"aktuelle":5070,"samle":5071,"fødselsdag":5072,"priori":5073,"rela":5074,"orte":5075,"behandlingen":5076,"197":5077,"300":5078,"overskud":5079,"interview":5080,"fisker":5081,"safremt":5082,"agte":5083,"anbefales":5084,"Tu":5085,"spørger":5086,"Lar":5087,"atte":5088,"tninger":5089,"kasser":5090,"vit":5091,"terra":5092,"planen":5093,"minimum":5094,"udvikler":5095,"serien":5096,"kortet":5097,"back":5098,"restaurant":5099,"kunstner":5100,"betingelser":5101,"fortsætte":5102,"Bro":5103,"--":5104,"lægen":5105,"stad":5106,"gud":5107,"radgiver":5108,"Cop":5109,"aftalen":5110,"smuligheder":5111,"Is":5112,"eventuelle":5113,"mund":5114,"tantra":5115,"Meget":5116,"afsl":5117,"klog":5118,"metoder":5119,"Tra":5120,"lette":5121,"umiddelbart":5122,"Hor":5123,"overord":5124,"mente":5125,"filer":5126,"politiet":5127,"bæredyg":5128,"søvn":5129,"programmet":5130,"Niels":5131,"teen":5132,"effektiv":5133,"ish":5134,"øjer":5135,"handlinger":5136,"darligt":5137,"42":5138,"hl":5139,"oo":5140,"ise":5141,"rummet":5142,"ange":5143,"kammer":5144,"lene":5145,"emner":5146,"rettigheder":5147,"laget":5148,"evalu":5149,"mte":5150,"fas":5151,"vokat":5152,"ala":5153,"mmede":5154,"lavere":5155,"interesseret":5156,"overveje":5157,"designet":5158,"somradet":5159,"drømme":5160,"ffe":5161,"Uden":5162,"favor":5163,"læger":5164,"tim":5165,"tilknyt":5166,"slutningen":5167,"itter":5168,"rek":5169,"kampe":5170,"navne":5171,"derimod":5172,"centrum":5173,"abent":5174,"Produ":5175,"lyse":5176,"danskere":5177,"skete":5178,"øjet":5179,"fordele":5180,"Sjælland":5181,"ach":5182,"mur":5183,"publik":5184,"lavede":5185,"arbejdsmark":5186,"oftest":5187,"udarbejdet":5188,"eventuelt":5189,"bevis":5190,"Hje":5191,"maksi":5192,"vning":5193,"volver":5194,"pga":5195,"orig":5196,"tysk":5197,"bestyrelse":5198,"Thomas":5199,"arrangementer":5200,"afhængigt":5201,"mpen":5202,"prøv":5203,"sælge":5204,"smerter":5205,"bragt":5206,"national":5207,"eden":5208,"arsager":5209,"Projekt":5210,"brun":5211,"sadanne":5212,"tegne":5213,"Tri":5214,"kationer":5215,"Bel":5216,"betales":5217,"enige":5218,"forløbet":5219,"iP":5220,"velse":5221,"alkohol":5222,"ekstre":5223,"dis":5224,"kvalitets":5225,"2000":5226,"normal":5227,"dagens":5228,"dyrk":5229,"Sverige":5230,"hjemmet":5231,"tilsvarende":5232,"enheder":5233,"char":5234,"sger":5235,"Fort":5236,"opgaven":5237,"øjnene":5238,"garden":5239,"fornøj":5240,"skib":5241,"yllu":5242,"branchen":5243,"leveres":5244,"mandag":5245,"nøgne":5246,"DE":5247,"hygge":5248,"vedkommende":5249,"leverer":5250,"atter":5251,"karri":5252,"cook":5253,"placering":5254,"solgt":5255,"strand":5256,"tænder":5257,"tænkte":5258,"bryst":5259,"01":5260,"rang":5261,"præmi":5262,"fornu":5263,"Dom":5264,"hyggelig":5265,"eringen":5266,"oplevet":5267,"toppen":5268,"fylder":5269,"journali":5270,"bygningen":5271,"familier":5272,"forne":5273,"IF":5274,"billige":5275,"regering":5276,"chokolade":5277,"John":5278,"korte":5279,"førende":5280,"forkert":5281,"ressourcer":5282,"hid":5283,"Energi":5284,"svin":5285,"lagte":5286,"udstyret":5287,"virkninger":5288,"sigtet":5289,"put":5290,"introdu":5291,"link":5292,"dengang":5293,"tilmel":5294,"bange":5295,"tningen":5296,"involver":5297,"elev":5298,"spen":5299,"Kvinde":5300,"kendskab":5301,"metode":5302,"2006":5303,"havnen":5304,"rappor":5305,"Google":5306,"udlandet":5307,"konstat":5308,"bespar":5309,"byggelse":5310,"origin":5311,"søgning":5312,"sia":5313,"krist":5314,"agno":5315,"klær":5316,"resultatet":5317,"Vand":5318,"gtning":5319,"ofilm":5320,".:":5321,"varier":5322,"nyder":5323,"tæl":5324,"miner":5325,"landets":5326,"klassiske":5327,"Vide":5328,"sørger":5329,"Hil":5330,"internettet":5331,"46":5332,"PS":5333,"forlæng":5334,"tillid":5335,"metal":5336,"vanza":5337,"kandidat":5338,"position":5339,"Lo":5340,"car":5341,"tiltag":5342,"49":5343,"Kort":5344,"kurser":5345,"modne":5346,"beskrevet":5347,"tingene":5348,"matisk":5349,"ætter":5350,"Ønske":5351,"Anders":5352,"muligvis":5353,"ordningen":5354,"tykke":5355,"bul":5356,"stalt":5357,"maling":5358,"tekniske":5359,"Park":5360,"foretage":5361,"hensigt":5362,"vita":5363,"stranden":5364,"komple":5365,"venlige":5366,"skabs":5367,"Ab":5368,"sakaldte":5369,"disku":5370,"skiftet":5371,"ior":5372,"konstant":5373,"mos":5374,"vivanza":5375,"forsøge":5376,"ani":5377,"erings":5378,"date":5379,"institutioner":5380,"afdelingen":5381,"Roskilde":5382,"ligner":5383,"frivillige":5384,"jy":5385,"bh":5386,"offici":5387,"arder":5388,"…]":5389,"foretages":5390,"kode":5391,"overnat":5392,"rens":5393,"oni":5394,"seende":5395,"stole":5396,"bukser":5397,"kalde":5398,"Bland":5399,"stere":5400,"læsning":5401,"sektor":5402,"Sw":5403,"endvidere":5404,"ovre":5405,"levet":5406,"stuen":5407,"arbejdsgiver":5408,"informationer":5409,"dokumenter":5410,"down":5411,"Micha":5412,"vejer":5413,"personligt":5414,"tilbehør":5415,"optaget":5416,"begyndelsen":5417,"finger":5418,"prop":5419,"Bri":5420,"dreng":5421,"processen":5422,"sent":5423,"smæssig":5424,"BR":5425,"vinduer":5426,"sports":5427,"undersøge":5428,"[…]":5429,"straf":5430,"sjove":5431,"indsigt":5432,"dagligt":5433,"Tran":5434,"øjeblikket":5435,"miske":5436,"Ele":5437,"udlej":5438,"hø":5439,"syv":5440,"praktiske":5441,"SM":5442,"omfattende":5443,"ilde":5444,"publi":5445,"ceres":5446,"kaldt":5447,"manu":5448,"prog":5449,"vedligeholdelse":5450,"angreb":5451,"nerne":5452,"foreninger":5453,"ledige":5454,"sædvan":5455,"alderen":5456,"parkering":5457,"Skole":5458,"cks":5459,"tø":5460,"beliggende":5461,"lem":5462,"kigger":5463,"positiv":5464,"kanten":5465,"mangel":5466,"kjo":5467,"hoteller":5468,"atør":5469,"FC":5470,"anten":5471,",«":5472,"Bolig":5473,"Leg":5474,"balance":5475,",\"":5476,"Føl":5477,"Spørg":5478,"bestilling":5479,"fing":5480,"moden":5481,"situationer":5482,"ledere":5483,"elef":5484,"styring":5485,"Kn":5486,"hh":5487,"ony":5488,"Morten":5489,"47":5490,"Børn":5491,"formen":5492,"nationale":5493,"slar":5494,"sperio":5495,"gravid":5496,"falde":5497,"oprette":5498,"opfattelse":5499,"universitet":5500,"skort":5501,"enig":5502,"hær":5503,"behandler":5504,"udføre":5505,"tivitet":5506,"professionelle":5507,"ventil":5508,"Erik":5509,"diverse":5510,"undervisningen":5511,"irri":5512,"digitale":5513,"anledning":5514,"arligt":5515,"rebet":5516,"ara":5517,"dybt":5518,"omstæn":5519,"købte":5520,"graviditet":5521,"hurtigere":5522,"lit":5523,"sva":5524,"institution":5525,"bryllu":5526,"bestemmelser":5527,"aktivt":5528,"agne":5529,"dags":5530,"tir":5531,"stemmer":5532,"hverdagen":5533,"forestil":5534,"varen":5535,"andel":5536,"distri":5537,"ftede":5538,"udføres":5539,"keborg":5540,"eli":5541,"kald":5542,"Skri":5543,"lært":5544,"brow":5545,"sering":5546,"selvstæn":5547,"mæn":5548,"ball":5549,"Opfyldt":5550,"symptomer":5551,"lerød":5552,"Foren":5553,"Kultur":5554,"yderst":5555,"terape":5556,"htt":5557,"Saf":5558,"plus":5559,"smerte":5560,"bladet":5561,"oversigt":5562,"Vejle":5563,"Ne":5564,"historiske":5565,"organisationer":5566,"ventet":5567,"sørge":5568,"uhel":5569,"aftenen":5570,"felt":5571,"perspek":5572,"mørke":5573,"frygt":5574,"repar":5575,"galt":5576,"sorden":5577,"bure":5578,"stiger":5579,"dækning":5580,"forholdet":5581,"bøn":5582,"ansøgning":5583,"refle":5584,"facilitet":5585,"196":5586,"spring":5587,"graf":5588,"nyeste":5589,"Ital":5590,"Træ":5591,"OS":5592,"Kur":5593,"Rom":5594,"kørt":5595,"juster":5596,"forbud":5597,"torsdag":5598,"brede":5599,"feltet":5600,"uddannet":5601,"Ole":5602,"særdeles":5603,"Kirke":5604,"asin":5605,"Ru":5606,"ylling":5607,"95":5608,"nyheds":5609,"stemte":5610,"info":5611,"opskrifter":5612,"fælle":5613,"stoppe":5614,"smy":5615,"naede":5616,"swinger":5617,"overfla":5618,"Randers":5619,"Fred":5620,"skolens":5621,"Jac":5622,"OK":5623,"omgivelser":5624,"bidrage":5625,"rengøring":5626,"fugle":5627,"43":5628,"Michael":5629,"av":5630,"cirka":5631,"plat":5632,"kommunens":5633,"nedenfor":5634,"cafe":5635,"nul":5636,"stret":5637,"skriften":5638,"IP":5639,"henholdsvis":5640,"org":5641,"stjer":5642,"fyn":5643,"godkendelse":5644,"forstyr":5645,"respekt":5646,"plej":5647,"drejer":5648,"bas":5649,"øret":5650,"DF":5651,"arbejdsmiljø":5652,"herre":5653,"ll":5654,"koordin":5655,"diskus":5656,"kommunal":5657,"find":5658,"Martin":5659,"dal":5660,"abonne":5661,"samarbejdet":5662,"udgivet":5663,"bili":5664,"drage":5665,"sigten":5666,"nærheden":5667,"præsiden":5668,"akt":5669,"dannelse":5670,"shi":5671,"skoven":5672,"Fælles":5673,"deltagere":5674,"europæiske":5675,"cu":5676,"øve":5677,"bringer":5678,"ferien":5679,"vagt":5680,"beskriver":5681,"heste":5682,"Jesus":5683,"øjeblik":5684,"kvaliteten":5685,"eksempler":5686,"imøde":5687,"behandlet":5688,"cia":5689,"travl":5690,"tun":5691,"undervejs":5692,"Øst":5693,"forklarer":5694,"egenskaber":5695,"Result":5696,"tilgængelige":5697,"skues":5698,"skrig":5699,"lerer":5700,"Virksomhed":5701,"heraf":5702,"filmen":5703,"hon":5704,"diagno":5705,"EF":5706,"modu":5707,"Klik":5708,"minder":5709,"melding":5710,"specifi":5711,"afhænger":5712,"fransk":5713,"sendte":5714,"Bra":5715,"links":5716,"2005":5717,"vaben":5718,"ometer":5719,"vurdere":5720,"bio":5721,"wer":5722,"kunden":5723,"arealer":5724,"roligt":5725,"eksklu":5726,"frie":5727,"Extra":5728,"morgenmad":5729,"indstilling":5730,"anvendt":5731,"slog":5732,"midten":5733,"Rus":5734,"elektri":5735,"afsted":5736,"plante":5737,"dygtige":5738,"Svend":5739,"sløs":5740,"føles":5741,"imple":5742,"ftes":5743,"forvejen":5744,"hr":5745,"førsel":5746,"mæssige":5747,"sprogra":5748,"registreret":5749,"glat":5750,"publikum":5751,"ase":5752,"problemet":5753,"undersøgelsen":5754,"yngre":5755,"pyn":5756,"ørende":5757,"afgift":5758,"Ren":5759,"DM":5760,"opdateret":5761,"hagen":5762,"mødt":5763,"Arbejds":5764,"ick":5765,"stød":5766,"skur":5767,"unikke":5768,"emne":5769,"bære":5770,"Red":5771,"istiske":5772,"nærmeste":5773,"brugerne":5774,"Folke":5775,"identifi":5776,"appar":5777,"skyg":5778,"Gre":5779,"pacitet":5780,"41":5781,"lex":5782,"Grund":5783,"Esbjerg":5784,"KE":5785,"udsat":5786,"centrale":5787,"illu":5788,"ana":5789,"ambi":5790,"handværk":5791,"rabat":5792,"kkel":5793,"radio":5794,"delses":5795,"Herefter":5796,"forplig":5797,"mæssigt":5798,"bureau":5799,"mate":5800,"efteraret":5801,"udendørs":5802,"naturlig":5803,"ramt":5804,"værktøjer":5805,"motiver":5806,"vek":5807,"tanter":5808,"udvalgte":5809,"stillede":5810,"ong":5811,"Ul":5812,"visen":5813,"klikke":5814,"igh":5815,"almindeligt":5816,"stav":5817,"fulgt":5818,"OP":5819,"praktik":5820,"deltagelse":5821,"passende":5822,"størrelser":5823,"Mid":5824,"fabri":5825,"camping":5826,"foraret":5827,"forny":5828,"motion":5829,"dygtig":5830,"møbler":5831,"prom":5832,"gla":5833,"spørgsmalet":5834,"beskytte":5835,"but":5836,"Vin":5837,"præget":5838,"litteratur":5839,"bely":5840,"arene":5841,"ya":5842,"central":5843,"Tru":5844,"handica":5845,"integr":5846,"Anne":5847,"sions":5848,"edrag":5849,"enes":5850,"Mod":5851,"derved":5852,"langsomt":5853,"revision":5854,"wa":5855,"købes":5856,"lser":5857,"homo":5858,"150":5859,"længde":5860,"endt":5861,"mikro":5862,"effektivt":5863,"gens":5864,"kryds":5865,"Tro":5866,"dokumentation":5867,"drøm":5868,"mede":5869,"konklu":5870,"folket":5871,"udviklings":5872,"kab":5873,"foruren":5874,"musk":5875,"karto":5876,"jær":5877,"mælk":5878,"tilhør":5879,"look":5880,"://":5881,"Fal":5882,"boede":5883,"eleg":5884,"gymnasi":5885,"Poul":5886,"sags":5887,"hæl":5888,"hvorvidt":5889,"villing":5890,"billet":5891,"onsdag":5892,"UD":5893,"oprindelige":5894,"smør":5895,"dybe":5896,"spunkter":5897,"venligst":5898,"Øster":5899,"Ønsker":5900,"forventer":5901,"regning":5902,"eventyr":5903,"kaldet":5904,"mængder":5905,"Deres":5906,"svare":5907,"gevin":5908,"dages":5909,"Fan":5910,"fremmest":5911,"angar":5912,"biograf":5913,"ryd":5914,"kommunale":5915,"konsekvenser":5916,"Rad":5917,"Char":5918,"relation":5919,"ikken":5920,"forbe":5921,"fortj":5922,"rettel":5923,"Pu":5924,"iz":5925,"kund":5926,"inst":5927,"udnytte":5928,"SP":5929,"professionel":5930,"positive":5931,"linje":5932,"digital":5933,"tilfældet":5934,"Hvem":5935,"kilde":5936,"vask":5937,"forestilling":5938,"forsig":5939,"fiske":5940,"somrader":5941,"balan":5942,"festival":5943,"sætningen":5944,"besluttet":5945,"blok":5946,"pænt":5947,"gulvet":5948,"italien":5949,"Hold":5950,"lænd":5951,"blad":5952,"Fe":5953,"danne":5954,"Dig":5955,"ragt":5956,"press":5957,"Center":5958,"Frankrig":5959,"spillede":5960,"lyset":5961,"byggeri":5962,"show":5963,"ynd":5964,"spid":5965,"tips":5966,"Mænd":5967,"Søger":5968,"assi":5969,"smø":5970,"søges":5971,"Sundheds":5972,"orga":5973,"kirken":5974,"gy":5975,"Vester":5976,"TR":5977,"hat":5978,"\":":5979,"stel":5980,"forega":5981,"pperne":5982,"bonus":5983,"Lou":5984,"able":5985,"Udover":5986,"dække":5987,"indtryk":5988,"harde":5989,"friske":5990,"56":5991,"sub":5992,"anvender":5993,"Thor":5994,"foder":5995,"gennemføre":5996,"flygtning":5997,"vens":5998,"medarbejderne":5999,"Hele":6000,"rid":6001,"sation":6002,"plig":6003,"svig":6004,"Hav":6005,"etableret":6006,"creme":6007,"Jacob":6008,"maskinen":6009,"Indi":6010,"lovgivning":6011,"medlems":6012,"lytte":6013,"ovn":6014,"afholdt":6015,"vidunder":6016,"Mens":6017,"søl":6018,"karriere":6019,"troede":6020,"Bestyrelsen":6021,"røv":6022,"Kla":6023,"kraftig":6024,"nødvendigvis":6025,"tilgang":6026,"pligt":6027,"Børne":6028,"pool":6029,"AND":6030,"ome":6031,"VM":6032,"bryg":6033,"Folket":6034,"udfordring":6035,"enhagen":6036,"Piger":6037,"tilfredsstil":6038,"Derefter":6039,"format":6040,"AC":6041,"næv":6042,"opskrift":6043,"søster":6044,"cookies":6045,"ssel":6046,"fordelt":6047,"varende":6048,"ail":6049,"anne":6050,"virksomhedens":6051,"restauranter":6052,"klokken":6053,"billigt":6054,"sn":6055,"færdige":6056,"produktet":6057,"ændres":6058,"love":6059,"pede":6060,"400":6061,"snakke":6062,"anmeldelser":6063,"imm":6064,"ph":6065,"benytter":6066,"arden":6067,"Dis":6068,"snak":6069,"orer":6070,"Inds":6071,"oret":6072,"øen":6073,"bryder":6074,"flø":6075,"foranstalt":6076,"ryggen":6077,"casino":6078,"planlægning":6079,"mands":6080,"slan":6081,"søen":6082,"parter":6083,"bløde":6084,"wi":6085,"bler":6086,"brænde":6087,"pkt":6088,"blade":6089,"kompli":6090,"Sag":6091,"vsel":6092,"røg":6093,"Wil":6094,"dru":6095,"sæsonen":6096,"rester":6097,"væsentligt":6098,"Histor":6099,"tirsdag":6100,"haret":6101,"følte":6102,"træer":6103,"hæve":6104,"tilføje":6105,"tol":6106,"forældrene":6107,"Lille":6108,"somrade":6109,"juri":6110,"tabel":6111,"blanding":6112,"aa":6113,"vurderer":6114,"iserede":6115,"SF":6116,".«":6117,"Jer":6118,"kollega":6119,"smøde":6120,"konferen":6121,"fremstillet":6122,"Wor":6123,"Sand":6124,"foreningens":6125,"personalet":6126,"Jesper":6127,"Skov":6128,"forslaget":6129,"græs":6130,"spri":6131,"85":6132,"garn":6133,"Guds":6134,"kompetence":6135,"betæn":6136,"sog":6137,"ønsket":6138,"TER":6139,"sionen":6140,"traditionelle":6141,"rus":6142,"reser":6143,"ejendommen":6144,"Pedersen":6145,"helbred":6146,"Kolding":6147,"markant":6148,"tilrettel":6149,"mødte":6150,"faglig":6151,"tens":6152,"tunge":6153,"hjertet":6154,"splad":6155,"Larsen":6156,"belast":6157,"Første":6158,"sorti":6159,"kombination":6160,"Dem":6161,"givende":6162,"interesser":6163,"tilpasse":6164,"døre":6165,"skærmen":6166,"tær":6167,"stigning":6168,"Lands":6169,"lejligheder":6170,"kus":6171,"skønt":6172,"faciliteter":6173,"lukke":6174,"plader":6175,"mave":6176,"gaden":6177,"inkl":6178,"agement":6179,"naet":6180,"endes":6181,"hval":6182,"hvoraf":6183,"TIL":6184,"Sto":6185,"2004":6186,"trænings":6187,"rente":6188,"handtere":6189,"bum":6190,"webshop":6191,"afsk":6192,"besøger":6193,"pause":6194,"meddelelse":6195,"ign":6196,"**":6197,"Lov":6198,"afholdes":6199,"cering":6200,"matik":6201,"fungere":6202,"titet":6203,"varsel":6204,"myndigheder":6205,"klassen":6206,"oversku":6207,"overflade":6208,"besluttede":6209,"ked":6210,"bind":6211,"ladt":6212,"komm":6213,"pavirk":6214,"ctor":6215,"arlige":6216,"samler":6217,"eksamen":6218,"Mari":6219,"fremtid":6220,"smand":6221,"sving":6222,"Viborg":6223,"relat":6224,"bror":6225,"forbruger":6226,"tilgængelig":6227,"Kl":6228,"beskæftigelse":6229,"nøgle":6230,"sofa":6231,"sælges":6232,"skilt":6233,"oget":6234,"benyttes":6235,"teket":6236,"behandles":6237,"Rej":6238,"vælges":6239,"kilometer":6240,"rart":6241,"DKK":6242,"forventninger":6243,"positivt":6244,"krops":6245,"Udvikl":6246,"kiatri":6247,"demokrati":6248,"argu":6249,"fede":6250,"munden":6251,"tidlig":6252,"sejr":6253,"svære":6254,"kiggede":6255,"mati":6256,"husker":6257,"lus":6258,"max":6259,"klik":6260,"generelle":6261,"tekster":6262,"ungdoms":6263,"dam":6264,"komne":6265,"ordet":6266,"total":6267,"krimin":6268,"fikke":6269,"jekter":6270,"berør":6271,"svaret":6272,"downlo":6273,"solen":6274,"halvdelen":6275,"Spil":6276,"lavt":6277,"Can":6278,"garan":6279,"avan":6280,"Nation":6281,"Muse":6282,"isere":6283,"mende":6284,"ævnet":6285,"52":6286,"enskom":6287,"ost":6288,"don":6289,"kerer":6290,"anlægget":6291,"Lær":6292,"opdage":6293,"lund":6294,"ømte":6295,"spark":6296,"dring":6297,"gardin":6298,"IM":6299,"Aut":6300,"EG":6301,"faktorer":6302,"godkende":6303,"UR":6304,"IC":6305,"agerer":6306,"formation":6307,"parat":6308,"Famili":6309,"Fly":6310,"frø":6311,"Figur":6312,"Tantra":6313,"laves":6314,"erende":6315,"endelige":6316,"kapitel":6317,"fili":6318,"Tryk":6319,"produktionen":6320,"Tre":6321,"kræves":6322,"ingred":6323,"utroligt":6324,"besæt":6325,"pornofilm":6326,"maven":6327,"amatør":6328,"rapporten":6329,"Blandt":6330,"arbejdede":6331,"cens":6332,"køkkenet":6333,"fornuf":6334,"AK":6335,"Bogen":6336,"moms":6337,"Brøn":6338,"Italien":6339,"fløj":6340,"nyheder":6341,"bakter":6342,"fremover":6343,"Mette":6344,"stammer":6345,"hest":6346,"hyggelige":6347,"svej":6348,"edag":6349,"Arbejd":6350,"butikken":6351,"eksperi":6352,"fornøjelse":6353,"Ter":6354,"cykler":6355,"præsident":6356,"darlige":6357,"Ke":6358,"abet":6359,"blø":6360,"hørte":6361,"skifter":6362,"gebyr":6363,"risikoen":6364,"58":6365,"kle":6366,"bestemte":6367,"berettig":6368,"cc":6369,"lerende":6370,"vokser":6371,"Marie":6372,"advokat":6373,"Norge":6374,"smartp":6375,"døgn":6376,"regeringen":6377,"genhed":6378,"EC":6379,"dame":6380,"hypp":6381,"grav":6382,"oplæg":6383,"kræve":6384,"Born":6385,"besvær":6386,"parørende":6387,"terapi":6388,"borgerne":6389,"sj":6390,"teknisk":6391,"evig":6392,"kkelse":6393,"spred":6394,"abning":6395,"telefoner":6396,"vurderes":6397,"befinder":6398,"Web":6399,"uret":6400,"Hør":6401,"øvelser":6402,"brugs":6403,"foredrag":6404,"Folk":6405,"Nat":6406,"betragt":6407,"chance":6408,"skam":6409,"opper":6410,"bydes":6411,"Je":6412,"franske":6413,"smar":6414,"veninde":6415,"trukket":6416,"bekendtgørelse":6417,"Bus":6418,"bevare":6419,"Dating":6420,"samtaler":6421,"samtlige":6422,"rea":6423,"Privat":6424,"akut":6425,"steret":6426,"adres":6427,"relativt":6428,"retningslin":6429,"Helt":6430,"kok":6431,"illa":6432,"forum":6433,"siges":6434,"gavn":6435,"rest":6436,"angst":6437,"Kirk":6438,"specifikke":6439,"dio":6440,"relationer":6441,"smateri":6442,"utal":6443,"teknik":6444,"beslutninger":6445,"bragte":6446,"ældste":6447,"klini":6448,"fakt":6449,"eld":6450,"forment":6451,"eftermiddag":6452,"maleri":6453,"sengen":6454,"smeto":6455,"udseende":6456,"ressource":6457,"frist":6458,"døds":6459,"sølv":6460,"kong":6461,"klæde":6462,"NING":6463,"olu":6464,"kreative":6465,"resul":6466,"Safremt":6467,"Kø":6468,"hjel":6469,"aktisk":6470,"tendens":6471,"1000":6472,"abonnement":6473,"oritet":6474,"kommentarer":6475,"aber":6476,"ligeg":6477,"Tom":6478,"perioder":6479,"Ekstra":6480,"57":6481,"bæl":6482,"06":6483,"%.":6484,"telefonen":6485,"omstændigheder":6486,"Bank":6487,"værksted":6488,"erotiske":6489,"Især":6490,"«.":6491,"Ark":6492,"jernen":6493,"medfører":6494,"underviser":6495,"Cam":6496,"pigerne":6497,"sygeplejer":6498,"indret":6499,"staten":6500,"kategori":6501,"cip":6502,"etræ":6503,"nysger":6504,"Spørgsmal":6505,"gl":6506,"sekret":6507,"træde":6508,"rab":6509,"kompon":6510,"akk":6511,"pad":6512,"ætte":6513,"88":6514,"overbe":6515,"kapacitet":6516,"kommunerne":6517,"stimu":6518,"kalender":6519,"indgaet":6520,"udenlandske":6521,"fortr":6522,"læste":6523,"66":6524,"væsentlige":6525,"motiv":6526,"brem":6527,"afslutning":6528,"ppede":6529,"cker":6530,"inspireret":6531,"bygnings":6532,"bert":6533,"etter":6534,"spurgt":6535,"Bir":6536,"medie":6537,"oprettet":6538,"fagligt":6539,"miljøet":6540,"spær":6541,"pavirker":6542,"svenske":6543,"stræk":6544,"fremtidige":6545,"tjener":6546,"Nørre":6547,"besøgende":6548,"rimelig":6549,"seksuel":6550,"’,":6551,"infek":6552,"ændrer":6553,"you":6554,"kkelig":6555,"maskin":6556,"lærere":6557,"kassen":6558,"AV":6559,"kritik":6560,"arv":6561,"regnes":6562,"forskellig":6563,"Silkeborg":6564,"Faktisk":6565,"AP":6566,"medi":6567,"Em":6568,"egner":6569,"Sær":6570,"klubber":6571,"LED":6572,"indeholde":6573,"hastighed":6574,"individuelle":6575,"59":6576,"dragelse":6577,"brugen":6578,"stjerner":6579,"Gru":6580,"vilje":6581,"hertil":6582,"Desværre":6583,"visu":6584,"ledelsen":6585,"09":6586,"Erhvervs":6587,"Bek":6588,"nøjag":6589,"konsulent":6590,"Nye":6591,"Pris":6592,"sili":6593,"kontant":6594,"tørre":6595,"grænsen":6596,"Sommer":6597,"Kap":6598,"nis":6599,"sendelse":6600,"adal":6601,"08":6602,"missionen":6603,"Lø":6604,"huller":6605,"gumm":6606,"Ero":6607,"forelig":6608,"Christensen":6609,"erstatning":6610,"ill":6611,"repræsentant":6612,"gent":6613,"Godt":6614,"situationen":6615,"fødevarer":6616,"stabi":6617,"alternativ":6618,"burg":6619,"holdene":6620,"produceret":6621,"museum":6622,"medmindre":6623,"favorit":6624,"hellere":6625,"passet":6626,"afdelinger":6627,"ØR":6628,"handtering":6629,"bedø":6630,"ap":6631,"forretnings":6632,"bisk":6633,"skraft":6634,"kylling":6635,"revisor":6636,"overenskom":6637,"Bog":6638,"vanskelig":6639,"bens":6640,"sprodu":6641,"flyttet":6642,"inget":6643,"indkomst":6644,"klassisk":6645,"værdig":6646,"badeværelse":6647,"pren":6648,"ino":6649,"købet":6650,"kvartal":6651,"barnets":6652,"overordnede":6653,"OD":6654,"fare":6655,"dne":6656,"danner":6657,"billederne":6658,"dagsorden":6659,"lykkes":6660,"rulle":6661,"behagelig":6662,"begrun":6663,"klasser":6664,"vang":6665,"Mer":6666,"mørk":6667,"Rasmussen":6668,"Bud":6669,"samarbejdsp":6670,"multi":6671,"historisk":6672,"færdigheder":6673,"PC":6674,"Dej":6675,"indled":6676,"konflikt":6677,"Ban":6678,"fremad":6679,"deltagerne":6680,"bekræ":6681,"):":6682,"Nordjylland":6683,"Film":6684,"hemmelig":6685,"bloggen":6686,"indretning":6687,"Bornholm":6688,"bæ":6689,"basis":6690,"nødvendig":6691,"Rød":6692,"Met":6693,"hjerne":6694,"Horsens":6695,"Lej":6696,"Menne":6697,"indrettet":6698,"oblig":6699,"ards":6700,"klip":6701,"redskaber":6702,"vægge":6703,"artner":6704,"Lau":6705,"bidrager":6706,"adskillige":6707,"bygges":6708,"billigere":6709,"kug":6710,"jor":6711,"liter":6712,"Eksemp":6713,"omsorg":6714,"helhed":6715,"effektive":6716,"maneden":6717,"opfylder":6718,"bestyrelses":6719,"reali":6720,"øverste":6721,"Velkommen":6722,"humør":6723,"mekan":6724,"leverandør":6725,"baner":6726,"arrangement":6727,"hunden":6728,"lings":6729,".-":6730,"tanken":6731,"Ref":6732,"Pla":6733,"kunderne":6734,"modstand":6735,"OB":6736,"uf":6737,"hjørne":6738,"Fil":6739,"m2":6740,"bile":6741,"urer":6742,"spra":6743,"studier":6744,"tlf":6745,"England":6746,"fræ":6747,"Ejendom":6748,"Forslag":6749,"FR":6750,"54":6751,"Pre":6752,"pes":6753,"træne":6754,"kademi":6755,"Undersøg":6756,"edi":6757,"Dermed":6758,"gangs":6759,"Sikker":6760,"gal":6761,"oso":6762,"Bal":6763,"fryg":6764,"opført":6765,"frig":6766,"socialt":6767,"befolkning":6768,"trivsel":6769,"terr":6770,"mg":6771,"hals":6772,"højst":6773,"nemme":6774,"holdende":6775,"sch":6776,"serveret":6777,"betalings":6778,"føj":6779,"07":6780,"tic":6781,"sigter":6782,"panel":6783,"beregnet":6784,"slovens":6785,"tilstede":6786,"angivet":6787,"landskab":6788,"Mine":6789,"Kal":6790,"forskelligt":6791,"vokset":6792,"telsen":6793,"grundigt":6794,"Endelig":6795,"normale":6796,"cla":6797,"Port":6798,"opfyldt":6799,"onde":6800,"2003":6801,"vundet":6802,"Hels":6803,"givne":6804,"esel":6805,"ith":6806,"sikret":6807,"Gam":6808,"afri":6809,"fortalt":6810,"Mang":6811,"Sæ":6812,"05":6813,"tilfredse":6814,"una":6815,"lukkede":6816,"peger":6817,"KL":6818,"tilladt":6819,"way":6820,"odense":6821,"vestlige":6822,"foreløb":6823,"aren":6824,"ydelse":6825,"tales":6826,"turner":6827,"rummer":6828,"datab":6829,"64":6830,"Service":6831,"kines":6832,"købing":6833,"pakker":6834,"numre":6835,"fæn":6836,"byggede":6837,"opfylde":6838,"erotisk":6839,"reaktion":6840,"Nic":6841,"administr":6842,"ovenstaende":6843,"tz":6844,"udbyder":6845,"Pi":6846,"erklær":6847,"’.":6848,"varmen":6849,"Fær":6850,"Krist":6851,"derer":6852,"iness":6853,"forsin":6854,"hjemmesider":6855,"dyna":6856,"forhandler":6857,"iets":6858,"anses":6859,"sikkerheden":6860,"pens":6861,"mulighederne":6862,"russi":6863,"Lin":6864,"Formalet":6865,"anmeldelse":6866,"kager":6867,"ye":6868,"omen":6869,"indberet":6870,"timers":6871,"formentlig":6872,"Økonom":6873,"trak":6874,"personen":6875,"berettiget":6876,"hail":6877,"nedsat":6878,"kopi":6879,"DB":6880,"arbejdsplads":6881,"etc":6882,"parken":6883,"kæmper":6884,"forfat":6885,"begej":6886,"Strand":6887,"løfte":6888,"glob":6889,"rul":6890,"serende":6891,"virkede":6892,"noveller":6893,"afspej":6894,"atmos":6895,"ford":6896,"teksten":6897,"53":6898,"body":6899,"respek":6900,"kemi":6901,"Knud":6902,"lyde":6903,"bryde":6904,"værste":6905,"størrelsen":6906,"skub":6907,"smager":6908,"Sport":6909,"flyve":6910,"que":6911,"foranstaltninger":6912,"http":6913,"kse":6914,"Ham":6915,"kir":6916,"bilitet":6917,"visnings":6918,"jun":6919,"Hvid":6920,"anien":6921,"sites":6922,"51":6923,"indsatsen":6924,"skor":6925,"elske":6926,"right":6927,"adalafil":6928,"iør":6929,"lister":6930,"modsætning":6931,"Top":6932,"veksl":6933,"Do":6934,"Herning":6935,"dekor":6936,"PA":6937,"salat":6938,"sildenafil":6939,"Nøg":6940,"Ofte":6941,"styrker":6942,"ksus":6943,"Maria":6944,"ringen":6945,"psykisk":6946,"indebærer":6947,"kolde":6948,"værdien":6949,"præcist":6950,"stabil":6951,"mister":6952,"planlagt":6953,"spænding":6954,"forsyning":6955,"koldt":6956,"behandle":6957,"imponer":6958,"vent":6959,"stration":6960,"svæ":6961,"Finan":6962,"forar":6963,"understre":6964,"beliggenhed":6965,"vention":6966,"mæg":6967,"ktivt":6968,"Sundhed":6969,"luften":6970,"bagefter":6971,"Dri":6972,"Besk":6973,"ondon":6974,"oplyst":6975,"proced":6976,"beton":6977,"browser":6978,"Kunst":6979,"ule":6980,"lun":6981,"specielle":6982,"sministeriet":6983,"trænger":6984,"identitet":6985,"udi":6986,"SU":6987,"ansvaret":6988,"bestemme":6989,"kriter":6990,"tral":6991,"koncert":6992,"Blu":6993,"funda":6994,"løser":6995,"TE":6996,"You":6997,"fyldte":6998,"medlemmerne":6999,"drej":7000,"fortol":7001,"lokaler":7002,"Kina":7003,"fornemmelse":7004,"teori":7005,"ovens":7006,"unik":7007,"kunnet":7008,"imens":7009,"Video":7010,"udkig":7011,"02":7012,"svag":7013,"forhandling":7014,"medføre":7015,"hæv":7016,"soldat":7017,"«,":7018,"ros":7019,"knappen":7020,"pande":7021,"næppe":7022,"malrettet":7023,"VI":7024,"match":7025,"gelsen":7026,"sagn":7027,"oga":7028,"tadalafil":7029,"Mads":7030,"forsikrings":7031,"mæssig":7032,"Col":7033,"entlig":7034,"Air":7035,"lyser":7036,"ryt":7037,"if":7038,"alvorligt":7039,"behageligt":7040,"fortsatte":7041,"jyske":7042,"vle":7043,"stolen":7044,"slippe":7045,"ingredien":7046,"væske":7047,"engelske":7048,"demon":7049,"Sidst":7050,"rut":7051,"lens":7052,"tilstrækkelig":7053,"jerne":7054,"halvt":7055,"centret":7056,"kold":7057,"fængsel":7058,"terende":7059,"trykke":7060,"kendet":7061,"duft":7062,"givningen":7063,"vejleder":7064,"stopper":7065,"udnyt":7066,"stationer":7067,"arkitekt":7068,"free":7069,"gyn":7070,"Valg":7071,"gir":7072,"magasin":7073,"sevær":7074,"andres":7075,"beder":7076,"skyde":7077,"ork":7078,"arbejdspladser":7079,"ovnen":7080,"politikere":7081,"befolkningen":7082,"isme":7083,"betjening":7084,"hailand":7085,"eladende":7086,"Dr":7087,"skrivning":7088,"opsta":7089,"uter":7090,"betændelse":7091,"flugt":7092,"wo":7093,"ora":7094,"munes":7095,"flytter":7096,"pin":7097,"novation":7098,"Begge":7099,"driv":7100,"andina":7101,"billetter":7102,"pus":7103,"ose":7104,"DC":7105,"flad":7106,"Sig":7107,"hug":7108,"vegne":7109,"umuligt":7110,"ovenfor":7111,"klinik":7112,"fjerde":7113,"element":7114,"flygtninge":7115,"vardenafil":7116,"hidtil":7117,"ulle":7118,"Paris":7119,"stider":7120,"Star":7121,"vative":7122,"tilhørende":7123,"mas":7124,"kkens":7125,"vært":7126,"asy":7127,"forklare":7128,"herom":7129,"selvstændig":7130,"samtidigt":7131,"tusind":7132,"blan":7133,"BE":7134,"belæg":7135,"sien":7136,"Antal":7137,"fyre":7138,"ction":7139,"aftalt":7140,"dec":7141,"regnet":7142,"udbytte":7143,"Dit":7144,"Tekni":7145,"væggen":7146,"Xtra":7147,"hentet":7148,"Sæt":7149,"besid":7150,"regner":7151,"deltog":7152,"sninger":7153,"bevæger":7154,"Eli":7155,"slæ":7156,"stolt":7157,"ION":7158,"weekenden":7159,"fremstilling":7160,"installer":7161,"diskret":7162,"firmaet":7163,"tyder":7164,"banken":7165,"pavirke":7166,"As":7167,"virkelighed":7168,"heldig":7169,"tank":7170,"forbered":7171,"rejsen":7172,"Jakob":7173,"istisk":7174,"low":7175,"træng":7176,"als":7177,"Lokal":7178,"abnede":7179,"My":7180,"dertil":7181,"tidspunktet":7182,"visninger":7183,"sommerhus":7184,"gin":7185,"tilsynet":7186,"svarede":7187,"Jon":7188,"Kong":7189,"dsjælland":7190,"sunde":7191,"bega":7192,"bevæge":7193,"kshop":7194,"Altsa":7195,"brænder":7196,"euro":7197,"ikere":7198,"mia":7199,"evner":7200,"havne":7201,"slutter":7202,"Nyt":7203,"Frederiksberg":7204,"skidt":7205,"bt":7206,"processer":7207,"Endvidere":7208,"unget":7209,"smidler":7210,"prim":7211,"enkle":7212,"vinteren":7213,"nøje":7214,"eringer":7215,"optimer":7216,"forskere":7217,"Job":7218,"68":7219,"optag":7220,"arbejdsmarkedet":7221,"psykolog":7222,"69":7223,"sandsynligvis":7224,"pædagogiske":7225,"drive":7226,"67":7227,"knu":7228,"tilbydes":7229,"Forsk":7230,"kaste":7231,"sniveau":7232,"forvente":7233,"rere":7234,"Helsing":7235,"kkere":7236,"agram":7237,"styrelsens":7238,"pot":7239,"die":7240,"Wind":7241,"værks":7242,"stiden":7243,"foretrækker":7244,"boligen":7245,"forandring":7246,"forsøgt":7247,"falds":7248,"kjole":7249,"teater":7250,".[":7251,"fet":7252,"amet":7253,"dukker":7254,"præsentere":7255,"Kra":7256,"investering":7257,"ægteskab":7258,"hvori":7259,"Klub":7260,"videnskabelige":7261,"250":7262,"fulgte":7263,"London":7264,"afhængige":7265,"kyst":7266,"alu":7267,"forars":7268,"Bilag":7269,"draget":7270,"betegn":7271,"TS":7272,"allergi":7273,"menuen":7274,"box":7275,"dimen":7276,"Stør":7277,"ancer":7278,"600":7279,"indvand":7280,"forudsætning":7281,"husk":7282,"Unge":7283,"arrang":7284,"Lever":7285,"Kir":7286,"klæder":7287,"henvendelse":7288,"komplet":7289,"finansiering":7290,"sekunder":7291,"blow":7292,"generalforsamlingen":7293,"recep":7294,"koncentr":7295,"trans":7296,"installa":7297,"fotos":7298,"gennemføres":7299,"rust":7300,"arranger":7301,"vands":7302,"spolitik":7303,"aktør":7304,"taske":7305,"beboere":7306,"sau":7307,"opnaet":7308,"fritid":7309,"forbere":7310,"oplysning":7311,"fødder":7312,"ping":7313,"konge":7314,"Post":7315,"muskel":7316,"ktions":7317,"fastsat":7318,"tjenester":7319,"Verden":7320,"Tal":7321,"fugt":7322,"integra":7323,"Ellers":7324,"abnet":7325,"Midtjylland":7326,"ref":7327,"imponerende":7328,"fordeling":7329,"iPhone":7330,"feb":7331,"udtal":7332,"Cha":7333,"fanget":7334,"enormt":7335,"modning":7336,"Hendes":7337,"98":7338,"lærte":7339,"aftens":7340,"registrering":7341,"Næste":7342,"venligt":7343,"mængden":7344,"ice":7345,"signal":7346,"træffe":7347,"faca":7348,"abenbart":7349,"ordentligt":7350,"Prøv":7351,"Møller":7352,"operation":7353,"Qu":7354,"terrasse":7355,"startet":7356,"perspektiv":7357,"xi":7358,"Pe":7359,"sprojekt":7360,"industrien":7361,"Wi":7362,"paf":7363,"vine":7364,"tivet":7365,"uta":7366,"gran":7367,"skaffe":7368,"travlt":7369,"mass":7370,"lunde":7371,"overalt":7372,"kraftigt":7373,"svø":7374,"maltid":7375,"villa":7376,"ulov":7377,"rur":7378,"bevægelser":7379,"77":7380,"iker":7381,"fange":7382,"førelsen":7383,"Noget":7384,"konver":7385,"leverandører":7386,"afsluttet":7387,"offentligt":7388,"slot":7389,"lam":7390,"sson":7391,"volu":7392,"oplagt":7393,"para":7394,"aug":7395,"tryghed":7396,"lød":7397,"søgte":7398,"senge":7399,"orgasme":7400,"Mun":7401,"Fag":7402,"indtægter":7403,"peber":7404,"vitamin":7405,"tilsyneladende":7406,"PL":7407,"fradrag":7408,"Gør":7409,"رررررررر":7410,"begra":7411,"understøtte":7412,"aktier":7413,"nævnes":7414,"ving":7415,"organisationen":7416,"virksomhederne":7417,"tjekke":7418,"livsstil":7419,"Hvilke":7420,"meg":7421,"himmel":7422,"Gro":7423,"kvindelige":7424,"ml":7425,"sæde":7426,"Slag":7427,"rt":7428,"international":7429,"tøjet":7430,"vindue":7431,"slappe":7432,"drevet":7433,"Psy":7434,"skønhed":7435,"tide":7436,"Tabel":7437,"benene":7438,"Chi":7439,"HD":7440,"Heldigvis":7441,"pasning":7442,"Log":7443,"niveauer":7444,"front":7445,"mønster":7446,"tellig":7447,"kvinden":7448,"drifts":7449,"nel":7450,"elskede":7451,"forsøgte":7452,"primære":7453,"senior":7454,"sproble":7455,"tænk":7456,"pud":7457,"Bare":7458,"øvelse":7459,"tættere":7460,"Data":7461,"etablering":7462,"priserne":7463,"kortere":7464,"eksperter":7465,"udvalgt":7466,"stern":7467,"forhøj":7468,"2002":7469,"tabt":7470,"arhundrede":7471,"uafhængigt":7472,"Isra":7473,"Kim":7474,"jede":7475,"driver":7476,"barhed":7477,"ona":7478,"celle":7479,"Mellem":7480,"Lyng":7481,"Lund":7482,"skære":7483,"ip":7484,"defini":7485,"opslag":7486,"markeder":7487,"reducere":7488,"zza":7489,"selskabets":7490,"Va":7491,"beklæ":7492,"Sti":7493,"Hjæl":7494,"brudt":7495,"Bruger":7496,"Lan":7497,"03":7498,"jur":7499,"støt":7500,"dret":7501,"hverdage":7502,"berømte":7503,"icia":7504,"skrav":7505,"seres":7506,"opbevaring":7507,"sle":7508,"emnet":7509,"GE":7510,"Lind":7511,"teknolog":7512,"koncent":7513,"2001":7514,"forhab":7515,"ney":7516,"reelt":7517,"zone":7518,"luk":7519,"kategorier":7520,"overvag":7521,"fase":7522,"spilde":7523,"Sørensen":7524,"temmelig":7525,"rod":7526,"behandlinger":7527,"krigen":7528,"morgenen":7529,"sut":7530,"atorer":7531,"ligesa":7532,"smodel":7533,"software":7534,"Ger":7535,"funktionen":7536,"virksomheds":7537,"\u0000\u0000\u0000\u0000":7538,"Pra":7539,"mændene":7540,"bibliotek":7541,"stent":7542,"japan":7543,"hallen":7544,"opholds":7545,"GR":7546,"Pal":7547,"begivenheder":7548,"prøvede":7549,"golf":7550,"splads":7551,"make":7552,"andinavi":7553,"beløbet":7554,"Don":7555,"Ord":7556,"nytter":7557,"bringes":7558,"forme":7559,"xe":7560,"Jørgensen":7561,"yst":7562,"samtykke":7563,"National":7564,"eds":7565,"Camp":7566,"slid":7567,"sakaldt":7568,"præg":7569,"administration":7570,"dejen":7571,"fragt":7572,"skibe":7573,"stærkere":7574,"bandet":7575,"sange":7576,"ows":7577,"Æn":7578,"brugeren":7579,"forklaring":7580,"ube":7581,"rader":7582,"tablet":7583,"04":7584,"kvarter":7585,"NE":7586,"lokalt":7587,"aalborg":7588,"Glo":7589,"ethvert":7590,"hænderne":7591,"ansøger":7592,"flyttede":7593,"CD":7594,"tilstrækkeligt":7595,"ismen":7596,"misbrug":7597,"aterne":7598,"opnar":7599,"udt":7600,"udfører":7601,"tvang":7602,"single":7603,"kyn":7604,"ns":7605,"repræsentanter":7606,"verne":7607,"imer":7608,"bolden":7609,"Ken":7610,"handicap":7611,"farvet":7612,"72":7613,"modellen":7614,"Syge":7615,"rolig":7616,"kolleger":7617,"dommer":7618,"køns":7619,"Liges":7620,"Yder":7621,"cro":7622,"hjemmela":7623,"kobl":7624,"anbefalinger":7625,"skrivelse":7626,"Sten":7627,"bryllup":7628,"tiger":7629,"boet":7630,"staden":7631,"yer":7632,"lovens":7633,"betragtes":7634,"IKKE":7635,"kreds":7636,"slæg":7637,"implementer":7638,"Proble":7639,"Stud":7640,"talent":7641,"sortiment":7642,"hurtige":7643,"Start":7644,"alvorlige":7645,"depres":7646,"Morgen":7647,"revolu":7648,"ventede":7649,"aktører":7650,"forhind":7651,"kilder":7652,"CV":7653,"ktiske":7654,"oplyser":7655,"ænke":7656,"flaske":7657,"firmaer":7658,"OT":7659,"producenter":7660,"vaner":7661,"personlighed":7662,"Saledes":7663,"cal":7664,"forskelle":7665,"samarbejder":7666,"samlinger":7667,"barndom":7668,"fig":7669,"forpligtende":7670,"'.":7671,"bestaende":7672,"idag":7673,"pasta":7674,"mølle":7675,"protein":7676,"indstillinger":7677,"Sidste":7678,"ideen":7679,"krydder":7680,"cover":7681,"ildo":7682,"præst":7683,"bedt":7684,"jser":7685,"luksus":7686,"pumpe":7687,"ash":7688,"diskussion":7689,"DER":7690,"ley":7691,"følgning":7692,"Grønland":7693,"nyere":7694,"koge":7695,"vokse":7696,"damp":7697,"oren":7698,"skan":7699,"….":7700,"glemt":7701,"kontakter":7702,"gram":7703,"nedenstaende":7704,"seværdigheder":7705,"danskerne":7706,"Bre":7707,"vanskeligt":7708,"hermed":7709,"sante":7710,"gider":7711,"grøntsager":7712,"understøtter":7713,"scan":7714,"Bjer":7715,"forlængelse":7716,"initiativ":7717,"speciel":7718,"opgør":7719,"andels":7720,"forstaet":7721,"mmende":7722,"Helsingør":7723,"sundt":7724,"fjernet":7725,"fære":7726,"Telef":7727,"skum":7728,"bytte":7729,"etablere":7730,"bevilling":7731,"Sty":7732,"holdninger":7733,"Fordi":7734,"udsatte":7735,"',":7736,"Analy":7737,"elektronisk":7738,"begrebet":7739,"ekstremt":7740,"lejligheden":7741,"ordninger":7742,"verdenen":7743,"fremhæ":7744,"bakke":7745,"optagelse":7746,"Anna":7747,"behovet":7748,"behandlings":7749,"alders":7750,"certifi":7751,"formanden":7752,"potentiale":7753,"centre":7754,"mmelige":7755,"armen":7756,"kristne":7757,"ankom":7758,"ansætt":7759,"col":7760,"interne":7761,"Vol":7762,"pc":7763,"vedtaget":7764,"gennemgang":7765,"CH":7766,"gers":7767,"gli":7768,"Øv":7769,"matiske":7770,"flertal":7771,"overraskende":7772,"forpligtelser":7773,"synlig":7774,"!!!":7775,"ena":7776,"Apple":7777,"flest":7778,"markedsføring":7779,"snakker":7780,"galler":7781,"Næst":7782,"forholdsvis":7783,"monteret":7784,"ansættelse":7785,"Dire":7786,"UL":7787,"dans":7788,"forventet":7789,"auto":7790,"løsningen":7791,"nævne":7792,"officielle":7793,"tæller":7794,"forbruget":7795,"foresla":7796,"fravær":7797,"besøgte":7798,"grill":7799,"intern":7800,"siddende":7801,"ædvan":7802,"udlænd":7803,"veks":7804,"muskler":7805,"barne":7806,"krise":7807,"Uddann":7808,"Fun":7809,"atom":7810,"Swinger":7811,"bestemmer":7812,"referen":7813,"syre":7814,"Frække":7815,"regnskabet":7816,"kurs":7817,"rute":7818,"Fanta":7819,"breve":7820,"oplysningerne":7821,"forskellen":7822,"grundlaget":7823,"præsenteret":7824,"udlejning":7825,"ganisa":7826,"dia":7827,"Klin":7828,"herhjemme":7829,"smel":7830,"120":7831,"well":7832,"rade":7833,"opkald":7834,"inerende":7835,"ramte":7836,"indven":7837,"modstan":7838,"blandet":7839,"resultaterne":7840,"borgmester":7841,"City":7842,"OV":7843,"studiet":7844,"And":7845,"ødelæg":7846,"interesserede":7847,"klagen":7848,"patienten":7849,"beholder":7850,"reklame":7851,"forventning":7852,"air":7853,"Rusland":7854,"centralt":7855,"skriftlig":7856,"bekendtgørelsen":7857,"plast":7858,"skuff":7859,"institut":7860,"samles":7861,"forandringer":7862,"Græ":7863,"konstruktion":7864,"pigen":7865,"bræ":7866,"stebro":7867,"fattig":7868,"forudsætninger":7869,"regionen":7870,"giften":7871,"symbol":7872,"tto":7873,"Fy":7874,"Føde":7875,"afklar":7876,"fremmed":7877,"tradi":7878,"Fle":7879,"regulering":7880,"udgift":7881,"Free":7882,"læsere":7883,"Bestil":7884,"tigede":7885,"sejl":7886,"fingre":7887,"ppes":7888,"Berlin":7889,"alerne":7890,"invest":7891,"lukker":7892,"Claus":7893,"samfunds":7894,"gmail":7895,"bestemmelse":7896,"efterspørg":7897,"omsætning":7898,"niveauet":7899,"Ide":7900,"MS":7901,"tilpas":7902,"ordentlig":7903,"boks":7904,"pon":7905,"Off":7906,"sikrede":7907,"Island":7908,"Erhverv":7909,"Mot":7910,"siske":7911,"Spi":7912,"78":7913,"Spanien":7914,"DAN":7915,"køl":7916,"Bedste":7917,"videok":7918,"finansielle":7919,"eting":7920,"terapeut":7921,"ejendomme":7922,"følges":7923,"strid":7924,"dyrt":7925,"berne":7926,"rejste":7927,"Inde":7928,"workshop":7929,"kulturelle":7930,"Borger":7931,"skode":7932,"melde":7933,"Bry":7934,"biner":7935,"arki":7936,"løses":7937,"Eg":7938,"fonden":7939,"skriftligt":7940,"mennesket":7941,"ryger":7942,"interessante":7943,"ordinære":7944,"hormon":7945,"tempo":7946,"levede":7947,"Klo":7948,"minut":7949,"forestille":7950,"ønskes":7951,"tone":7952,"renovering":7953,"entrepren":7954,"overrask":7955,"sso":7956,"oplevelsen":7957,"modtag":7958,"gummi":7959,"Læg":7960,"onom":7961,"vant":7962,"hjernen":7963,"jag":7964,"Søg":7965,"nien":7966,"mmelt":7967,"midlertidig":7968,"tilknyttet":7969,"batteri":7970,"Kommunes":7971,"strækning":7972,"62":7973,"ÆR":7974,"liver":7975,"album":7976,"Fru":7977,"klogere":7978,"vogne":7979,"modsatte":7980,"forbund":7981,"Prisen":7982,"Regn":7983,"tillader":7984,"snor":7985,"ats":7986,"ano":7987,"menneskelige":7988,"bevidsthed":7989,"pakken":7990,"udvidet":7991,"betyd":7992,"derhjemme":7993,"Thi":7994,"dannet":7995,"Let":7996,"York":7997,"univers":7998,"massi":7999,"Ap":8000,"forsker":8001,"erie":8002,"kastet":8003,"æren":8004,"Æl":8005,"negative":8006,"flag":8007,"eventuel":8008,"tron":8009,"skabte":8010,"Helle":8011,"hurtigst":8012,"farligt":8013,"discip":8014,"Skriv":8015,"studen":8016,"nylig":8017,"arch":8018,"rin":8019,"Middel":8020,"sved":8021,"partier":8022,"merne":8023,"benyt":8024,"MED":8025,"katte":8026,"erfarne":8027,"alp":8028,"desto":8029,"trop":8030,"middagen":8031,"sponsor":8032,"Vig":8033,"Oplys":8034,"CE":8035,"Elever":8036,"supple":8037,"Paul":8038,"æst":8039,"vælg":8040,"kriti":8041,"reder":8042,"Kære":8043,"beregning":8044,"tain":8045,"straff":8046,"ii":8047,"usen":8048,"forsvinder":8049,"Løn":8050,"kanter":8051,"kurset":8052,"forsknings":8053,"kontoret":8054,"email":8055,"skarp":8056,"Even":8057,"sammenhænge":8058,"dum":8059,"billigste":8060,"forholde":8061,"beskrive":8062,"indblik":8063,"fiskeri":8064,"plet":8065,"briller":8066,"vandre":8067,"Speci":8068,"inno":8069,"bop":8070,"sov":8071,"kabel":8072,"luder":8073,"Lidt":8074,"frika":8075,"usædvan":8076,"redskab":8077,"Generelt":8078,"mani":8079,"king":8080,"næring":8081,"SL":8082,"yright":8083,"kanaler":8084,"øres":8085,"Køge":8086,"udskift":8087,"HER":8088,"scene":8089,"oprindeligt":8090,"uer":8091,"forhindre":8092,"cykl":8093,"saktivitet":8094,"betydelig":8095,"svømme":8096,"sed":8097,"inspirer":8098,"umper":8099,"musikken":8100,"rejst":8101,"pok":8102,"handels":8103,"somkost":8104,"Spar":8105,"borde":8106,"Nem":8107,"børns":8108,"Pol":8109,"bivirkninger":8110,"pose":8111,"overtræ":8112,"Copenhagen":8113,"nærværende":8114,"gear":8115,"Sor":8116,"gemme":8117,"filoso":8118,"Smu":8119,"liden":8120,"faktu":8121,"besvar":8122,"intellig":8123,"steget":8124,"høring":8125,"meldt":8126,"læses":8127,"revne":8128,"tung":8129,"ums":8130,"Black":8131,"Led":8132,"harmon":8133,"overfladen":8134,"bredde":8135,"ligefrem":8136,"scenen":8137,"?\"":8138,"held":8139,"korn":8140,"keret":8141,"disp":8142,"sigelse":8143,"psykiatri":8144,"Leder":8145,"underholdning":8146,"tegnet":8147,"Ligesom":8148,"Simon":8149,"spændt":8150,"svensk":8151,"pizza":8152,"placeres":8153,"strø":8154,"sivt":8155,"museet":8156,"tilfredshed":8157,"ante":8158,"iel":8159,"fokusere":8160,"logo":8161,"generation":8162,"dol":8163,"2019":8164,"kondom":8165,"ansvarlige":8166,"inse":8167,"initiativer":8168,"tradte":8169,"retningslinjer":8170,"opvarm":8171,"mandens":8172,"ikon":8173,"snu":8174,"FN":8175,"velegnet":8176,"cca":8177,"herfra":8178,"ministeren":8179,"pir":8180,"sammenligne":8181,"Brand":8182,"titel":8183,"opfordre":8184,"artnere":8185,"sms":8186,"Svendborg":8187,"teoret":8188,"bilæ":8189,"tilknytning":8190,"gennemsnitlige":8191,"voldsomt":8192,"producere":8193,"Sort":8194,"zo":8195,"betød":8196,"vade":8197,"undgar":8198,"originale":8199,"smarte":8200,"sover":8201,"million":8202,"landsk":8203,"Fu":8204,"spligt":8205,"CO2":8206,"gule":8207,"IR":8208,"legen":8209,"bundet":8210,"hit":8211,"arbejdere":8212,"Ah":8213,"forlade":8214,"Sus":8215,"vurderet":8216,"hospitalet":8217,"æble":8218,"skuespiller":8219,"stance":8220,"gten":8221,"autom":8222,"etage":8223,"servere":8224,"neu":8225,"betragtning":8226,"63":8227,"fyld":8228,"kvad":8229,"oplevede":8230,"skla":8231,"personoplysninger":8232,"Stil":8233,"Hotellet":8234,"planlægge":8235,"800":8236,"principper":8237,"ingredienser":8238,"Mac":8239,"Kilde":8240,"Luft":8241,"artiklen":8242,"zin":8243,"Alex":8244,"klubbens":8245,"hones":8246,"internationalt":8247,"mega":8248,"IB":8249,"ansigtet":8250,"glemme":8251,"fuck":8252,"forvir":8253,"Trump":8254,"urin":8255,"Online":8256,"overvejelser":8257,"nysgerrig":8258,"loft":8259,"kritisk":8260,"derslev":8261,"him":8262,"repræsenterer":8263,"skabel":8264,"not":8265,"jakke":8266,"bevægelsen":8267,"fødte":8268,"indsatser":8269,"NY":8270,"ydre":8271,"miste":8272,"ight":8273,"ængde":8274,"modtog":8275,"cop":8276,"skibet":8277,"kunstnere":8278,"idræt":8279,"beskat":8280,"lingen":8281,"forsø":8282,"Kli":8283,"seg":8284,"lægningen":8285,"økologisk":8286,"Real":8287,"terings":8288,"fusion":8289,"vedrører":8290,"vestor":8291,"standarder":8292,"merende":8293,"flyver":8294,"dyrke":8295,"formul":8296,"slipper":8297,"kæde":8298,"øbt":8299,"Stand":8300,"61":8301,"forstand":8302,"Nov":8303,"Japan":8304,"presset":8305,"nordiske":8306,"frækt":8307,"ejl":8308,"ineret":8309,"ah":8310,"overvejer":8311,"terræn":8312,"frat":8313,"stren":8314,"beretning":8315,"stitution":8316,"Gul":8317,"forbindelser":8318,"Fjern":8319,"angiver":8320,"profiler":8321,"vedt":8322,"danse":8323,"cht":8324,"Bl":8325,"blande":8326,"fond":8327,"Skan":8328,"udpeg":8329,"bning":8330,"undersøgt":8331,"færdigt":8332,"trend":8333,"ego":8334,"væv":8335,"mik":8336,"baserede":8337,"skudt":8338,"ral":8339,"levetid":8340,"perman":8341,"statistik":8342,"nogenlunde":8343,"mord":8344,"computere":8345,"Tje":8346,"innovation":8347,"Mini":8348,"henvender":8349,"begreb":8350,"produktions":8351,"megen":8352,"spiste":8353,"ministeriet":8354,"skolerne":8355,"afvikl":8356,"smæg":8357,"henvisning":8358,"offentliggjort":8359,"producerer":8360,"Stu":8361,"Liv":8362,"begivenhed":8363,"Allerede":8364,"kampag":8365,"Plus":8366,"own":8367,"sekund":8368,"Lis":8369,"forpligtet":8370,"koncept":8371,"smykker":8372,"grin":8373,"jobbet":8374,"HT":8375,"sperson":8376,"fitness":8377,"sleder":8378,"værdige":8379,"fasc":8380,"alvorlig":8381,"sløb":8382,"investeringer":8383,"trom":8384,"gæst":8385,"gammelt":8386,"serier":8387,"bekæmp":8388,"medlemskab":8389,"atmosfære":8390,",,":8391,"Cat":8392,"Amager":8393,"79":8394,"arsagen":8395,"giej":8396,"amerikansk":8397,"tabe":8398,"professor":8399,"hvorfra":8400,"kkeligt":8401,"sproget":8402,"analyser":8403,"Eksempel":8404,"tillige":8405,"DV":8406,"borgeren":8407,"færdighed":8408,"chel":8409,"inci":8410,"indendørs":8411,"Tlf":8412,"leverings":8413,"ELSE":8414,"stillingen":8415,"skop":8416,"delte":8417,"knyttet":8418,"forvaltning":8419,"betydeligt":8420,"Institut":8421,"undervisnings":8422,"Windows":8423,"scre":8424,"lagen":8425,"udarbej":8426,"Skær":8427,"tilfredsstillende":8428,"gardiner":8429,"arme":8430,"nerv":8431,"derudover":8432,"sprøjte":8433,"edyr":8434,"psykiske":8435,"rettede":8436,"indta":8437,"halsen":8438,"ekspert":8439,"89":8440,"Kvalitet":8441,"smænd":8442,"mental":8443,"stikker":8444,"Nr":8445,"Næstved":8446,"ejere":8447,"drømmer":8448,"eksterne":8449,"premi":8450,"uddannede":8451,"seren":8452,"kælder":8453,"bekræft":8454,"destin":8455,"fans":8456,"kvi":8457,"slev":8458,"udvide":8459,"Fon":8460,"økologiske":8461,"sprogram":8462,"times":8463,"risik":8464,"mandlige":8465,"installation":8466,"tationen":8467,"Design":8468,"Viden":8469,"autor":8470,"Besøg":8471,"Rigtig":8472,"Und":8473,"essen":8474,"mistet":8475,"eksport":8476,"optimale":8477,"menstru":8478,"71":8479,"præsenterer":8480,"landsby":8481,"designer":8482,"hind":8483,"farlige":8484,"Of":8485,"forbedring":8486,"?”":8487,"fænomen":8488,"hej":8489,"grundet":8490,"frek":8491,"mønstre":8492,"ging":8493,"branche":8494,"mentere":8495,"støvler":8496,"hovedsag":8497,"dræt":8498,"stemp":8499,"vognen":8500,"udløb":8501,"bid":8502,"titlen":8503,"træff":8504,"kontin":8505,"Cen":8506,"atoriske":8507,";)":8508,"øverst":8509,"sexet":8510,"refer":8511,"rak":8512,"samvær":8513,"piske":8514,"ufor":8515,"valuta":8516,"dækkende":8517,"ameter":8518,"opnas":8519,"tydelig":8520,"svamp":8521,"minutters":8522,"handlede":8523,"jørn":8524,"dtryk":8525,"DI":8526,"send":8527,"Bon":8528,"skæl":8529,"ada":8530,"Play":8531,"Kunne":8532,"tyk":8533,"acceptere":8534,"74":8535,"omvendt":8536,"møller":8537,"krævet":8538,"belysning":8539,"David":8540,"zon":8541,"-/":8542,"mpi":8543,"festen":8544,"Madsen":8545,"ænder":8546,"egang":8547,"populær":8548,"linjer":8549,"datoer":8550,"sidig":8551,"BL":8552,"poster":8553,"skilte":8554,"inviteret":8555,"overskri":8556,"evaluering":8557,"fortry":8558,"opløsning":8559,"rimeligt":8560,"urt":8561,"males":8562,"bek":8563,"hent":8564,"Copyright":8565,"forekommer":8566,"grø":8567,"ritu":8568,"cit":8569,"eland":8570,"rurgi":8571,"indsamling":8572,"globale":8573,"Projektet":8574,"ple":8575,"klø":8576,"husets":8577,"formalet":8578,"bemærkninger":8579,"læne":8580,"opgørelse":8581,"ente":8582,"fuldstæn":8583,"genstande":8584,"Mær":8585,"Ry":8586,"sammenhængende":8587,"Tidligere":8588,"sled":8589,"gren":8590,"navig":8591,"annonce":8592,"rutter":8593,"Hvert":8594,"fiber":8595,"brø":8596,"leger":8597,"Personalet":8598,"nie":8599,"sevne":8600,"derfra":8601,"investere":8602,"forstær":8603,"fen":8604,"instruktør":8605,"dby":8606,"telses":8607,"Tilbud":8608,"trygt":8609,"Samlet":8610,"omhandler":8611,"dokument":8612,"sygdommen":8613,"besø":8614,"Uds":8615,"samleje":8616,"Lav":8617,"drager":8618,"Mel":8619,"overrasket":8620,"rykket":8621,"spot":8622,"linger":8623,"isolering":8624,"hydr":8625,"udviklede":8626,"Opret":8627,"base":8628,"kaldte":8629,"eta":8630,"sels":8631,"ærlig":8632,"indes":8633,"sgu":8634,"næse":8635,"komprom":8636,"fjernes":8637,"stadigvæk":8638,"Huset":8639,"abetes":8640,"sluttede":8641,"simpel":8642,"bende":8643,"ura":8644,"almen":8645,"udbetaling":8646,"geograf":8647,"trækkes":8648,"enighed":8649,"bs":8650,"militær":8651,"muslim":8652,"sministeren":8653,"rukne":8654,"DU":8655,"arkitektur":8656,"engagement":8657,"foretager":8658,"86":8659,"væn":8660,"Model":8661,"henvises":8662,"fløde":8663,"with":8664,"kru":8665,"ads":8666,"størst":8667,"etisk":8668,"kombineret":8669,"92":8670,"forventede":8671,"dybde":8672,"forebyggelse":8673,"ændrede":8674,"koncep":8675,"sprocessen":8676,"lægemidler":8677,"stationen":8678,"Hy":8679,"mærkede":8680,"kostu":8681,"gaven":8682,"Hillerød":8683,"affili":8684,"tilføj":8685,"sædvanlige":8686,"Pati":8687,"foreligger":8688,"smage":8689,"uforpligtende":8690,"planlægger":8691,"Max":8692,"hukomm":8693,"Museum":8694,"nus":8695,"idræ":8696,"nærings":8697,"klag":8698,"computeren":8699,";-)":8700,"jubilæ":8701,"DA":8702,"begrænsninger":8703,"skyn":8704,"bakterier":8705,"villig":8706,"Gri":8707,"kompen":8708,"flydende":8709,"vinduet":8710,"ride":8711,"bøj":8712,"endeligt":8713,"stemningen":8714,"bøsse":8715,"færds":8716,"læber":8717,"freder":8718,"Stort":8719,"princippet":8720,"filter":8721,"Tænk":8722,"gig":8723,"transpor":8724,"Kristian":8725,"Venstre":8726,"klædt":8727,"ogn":8728,"typen":8729,"skjul":8730,"alli":8731,"synlige":8732,"cerne":8733,"kusse":8734,"trakt":8735,"genkende":8736,"heri":8737,"sværdi":8738,"Micro":8739,"drages":8740,"Kommissionen":8741,"arbejdskraft":8742,"symbo":8743,"website":8744,"scor":8745,"velfærd":8746,"Cor":8747,"skabes":8748,"stiv":8749,"sisk":8750,"effektivitet":8751,"87":8752,"fremmede":8753,"pakket":8754,"pensions":8755,"bordel":8756,"visi":8757,"ønne":8758,"egaende":8759,"anført":8760,"præsentation":8761,"Spr":8762,"stoffet":8763,"udfol":8764,"udsalg":8765,"zi":8766,"gæsterne":8767,"kontrollere":8768,"udform":8769,"spin":8770,"gevinst":8771,"sele":8772,"leringen":8773,"farvel":8774,"mobile":8775,"integreret":8776,"kombiner":8777,"Vis":8778,"orienteret":8779,"hjulpet":8780,"kkon":8781,"opskriften":8782,"Christ":8783,"opstaet":8784,"Juli":8785,"UT":8786,"opmærksomme":8787,"foreløbig":8788,"solgte":8789,"Telefon":8790,"lotte":8791,"koste":8792,"forsigtigt":8793,"indgang":8794,"Team":8795,"etid":8796,"arbejdspladsen":8797,"sha":8798,"enterne":8799,"blowjob":8800,"beskrives":8801,"enestaende":8802,"yal":8803,"træden":8804,"hvorledes":8805,"96":8806,"stilbud":8807,"opdaget":8808,"fastsættes":8809,"testet":8810,"elegant":8811,"Fod":8812,"okay":8813,"hvidt":8814,"ægges":8815,"geby":8816,"tilføjer":8817,"ApS":8818,"bopæl":8819,"klarer":8820,"totalt":8821,"hustru":8822,"Fredericia":8823,"Ungdom":8824,"Kj":8825,"igheds":8826,"betj":8827,"idræts":8828,"holdte":8829,"udarbejde":8830,"derude":8831,"bestilt":8832,"spist":8833,"integration":8834,"Lyngby":8835,"sikres":8836,"etableres":8837,"ift":8838,"ydes":8839,"undtagelse":8840,"Gamle":8841,"æstet":8842,"overgang":8843,"aten":8844,"fastholde":8845,"apr":8846,"pavirket":8847,"korrekte":8848,"HV":8849,"pædagogisk":8850,"Høje":8851,"avis":8852,"skør":8853,"master":8854,"Tilføj":8855,"afvig":8856,"UM":8857,"afgræn":8858,"Væk":8859,"skulder":8860,"mming":8861,"optage":8862,"etiske":8863,"sner":8864,"Carl":8865,"Stri":8866,"73":8867,"afgang":8868,"mundt":8869,"grupp":8870,"Alligevel":8871,"kanal":8872,"eleven":8873,"sandt":8874,"krog":8875,"splanen":8876,"chauf":8877,"gemmer":8878,"Senere":8879,"trag":8880,"simple":8881,"ffel":8882,"Nik":8883,"maneders":8884,"Behandling":8885,"forholdene":8886,"længst":8887,"Skulle":8888,"bussen":8889,"Grun":8890,"forfær":8891,"indr":8892,"XX":8893,"unikt":8894,"materialet":8895,"Materi":8896,"pine":8897,"lover":8898,"ryge":8899,"smide":8900,"digheden":8901,"redde":8902,"beskyttet":8903,"Kontrol":8904,"slank":8905,"holt":8906,"Louise":8907,"Gent":8908,"Fer":8909,"øerne":8910,"tagen":8911,"spladsen":8912,"vinkel":8913,"effekter":8914,"nøjes":8915,"FA":8916,"Anden":8917,"lak":8918,"hhv":8919,"Sven":8920,"kartofler":8921,"hentes":8922,"delige":8923,"forurening":8924,"yo":8925,"Il":8926,"gær":8927,"Arets":8928,"!\"":8929,"Progra":8930,"fos":8931,"Rør":8932,"jordbær":8933,"betingelserne":8934,"tegner":8935,"slutning":8936,"salget":8937,"avisen":8938,"kniv":8939,"sting":8940,"anlægs":8941,"døgnet":8942,"aktie":8943,"sammenlignet":8944,"udp":8945,"læggelse":8946,"olland":8947,"KR":8948,"Thailand":8949,"aga":8950,"vacc":8951,"betinget":8952,"gemt":8953,"Sørg":8954,"udbredt":8955,"religion":8956,"Nær":8957,"fabrik":8958,"uropæisk":8959,"eka":8960,"kilo":8961,"human":8962,"forbedringer":8963,"Karen":8964,"speriode":8965,"tilpasset":8966,"madra":8967,"hylde":8968,"stemm":8969,"flytning":8970,"string":8971,"russiske":8972,"Annon":8973,"børnehave":8974,"øster":8975,"skiftes":8976,"Hj":8977,"kvinderne":8978,"deligt":8979,"fremstar":8980,"hjalp":8981,"1999":8982,"individuelt":8983,"peratur":8984,"stadi":8985,"boy":8986,"iens":8987,"professionelt":8988,"astro":8989,"bab":8990,"hvile":8991,"Petersen":8992,"Ligeledes":8993,"bager":8994,"hygiej":8995,"intim":8996,"rapporter":8997,"Ir":8998,"spekter":8999,"knytte":9000,"Europæiske":9001,"singler":9002,"produkterne":9003,"MA":9004,"oplyse":9005,"Van":9006,"ophæ":9007,"fødevare":9008,"kravene":9009,"support":9010,"pulver":9011,"uri":9012,"køretøjer":9013,"moral":9014,"best":9015,"cke":9016,"baggrunden":9017,"lids":9018,"iler":9019,"medvirk":9020,"kørende":9021,"disciplin":9022,"Kapitel":9023,"afslappet":9024,"investor":9025,"opbygning":9026,"hilsen":9027,"fanger":9028,"problemstillinger":9029,"døden":9030,"tidlige":9031,"cig":9032,"kødet":9033,"bby":9034,"kampagne":9035,"smukkeste":9036,"syet":9037,"Ung":9038,"Cyk":9039,"lyden":9040,"rejsende":9041,"sproblemer":9042,"76":9043,"ssede":9044,"Herudover":9045,"diff":9046,"Sara":9047,"kbh":9048,"day":9049,"teste":9050,"%,":9051,"beskytter":9052,"spilles":9053,"nør":9054,"domme":9055,"evnen":9056,"mdr":9057,"labor":9058,"angri":9059,"opfølgning":9060,"Indtil":9061,"konflikter":9062,"opp":9063,"storm":9064,"ambul":9065,"Fir":9066,"indført":9067,"strikke":9068,"anmodning":9069,"Chat":9070,"børnenes":9071,"ments":9072,"involveret":9073,"cs":9074,"reflek":9075,"Selvfølgelig":9076,"forstas":9077,"reber":9078,"desser":9079,"versi":9080,"slap":9081,"indik":9082,"skemaet":9083,"arer":9084,"Sofi":9085,"Mc":9086,"ligegyl":9087,"Neden":9088,"oda":9089,"tons":9090,"Syn":9091,"Nøgne":9092,"82":9093,"forberedt":9094,"offer":9095,"salgs":9096,"iværksætter":9097,"illustr":9098,"flok":9099,"DEN":9100,"Pige":9101,"cet":9102,"halvdel":9103,"henter":9104,"potentielle":9105,"udstillingen":9106,"UC":9107,"ding":9108,"frugter":9109,"VE":9110,"henviser":9111,"centen":9112,"forekomme":9113,"dagpenge":9114,"populært":9115,"besparelser":9116,"bot":9117,"samarbejdspartnere":9118,"streng":9119,"DN":9120,"veksling":9121,"att":9122,"Hur":9123,"spidsen":9124,"nære":9125,"farven":9126,"delvist":9127,"bevidste":9128,"forkerte":9129,"alarm":9130,"klat":9131,"interessen":9132,"bortset":9133,"obser":9134,"øges":9135,"rense":9136,"tokol":9137,"Indt":9138,"opfordrer":9139,"nograf":9140,"fjerner":9141,"VS":9142,"optimalt":9143,"suger":9144,"gennemgaet":9145,"Have":9146,"brevet":9147,"ledningen":9148,"liderlig":9149,"Folketinget":9150,"cien":9151,"pladen":9152,"individuel":9153,"facebook":9154,"patter":9155,"tilbag":9156,"Anvende":9157,"besøgt":9158,"skarpe":9159,"rigeligt":9160,"Maj":9161,"Havde":9162,"nyhed":9163,"ssag":9164,"skaret":9165,"udbydere":9166,"skrædder":9167,"overenskomst":9168,"blæ":9169,"eksplo":9170,"vr":9171,"ugent":9172,"Udvikling":9173,"fortællinger":9174,"sprodukter":9175,"Israel":9176,"mangfol":9177,"dildo":9178,"indbyg":9179,"passion":9180,"nævner":9181,"forordning":9182,"forstyrr":9183,"rock":9184,"faget":9185,"ire":9186,"eftersom":9187,"beslutter":9188,"springer":9189,"83":9190,"Musik":9191,"kriterier":9192,"frivillig":9193,"husene":9194,"odi":9195,"Holbæk":9196,"sparer":9197,"italienske":9198,"konkurrencen":9199,"opdagede":9200,"medlemsstat":9201,"Selve":9202,"Information":9203,"porte":9204,"træningen":9205,"parret":9206,"afholder":9207,"broen":9208,"Tar":9209,"røre":9210,"Frank":9211,"Endnu":9212,"frivilligt":9213,"reklamer":9214,"stram":9215,"selvstændigt":9216,"kommerci":9217,"ømt":9218,"agtig":9219,"rafik":9220,"forbehold":9221,"repræsenteret":9222,"savner":9223,"Olsen":9224,"beboerne":9225,"temaer":9226,"Ska":9227,"thi":9228,"direktiv":9229,"Big":9230,"SS":9231,"partnere":9232,"jævnligt":9233,"Brøndby":9234,"Ed":9235,"sjælland":9236,"skiver":9237,"bedes":9238,"ffen":9239,"riske":9240,"beska":9241,"moderen":9242,"sværere":9243,"stream":9244,"specifikt":9245,"Skive":9246,"betalinger":9247,"lampe":9248,"belastning":9249,"afsæt":9250,"KT":9251,"matematik":9252,"figurer":9253,"lejr":9254,"anen":9255,"Hjer":9256,"dæmp":9257,"strande":9258,"faktura":9259,"Giv":9260,"posten":9261,"nom":9262,"bety":9263,"Kommunen":9264,"bestyrelsens":9265,"varighed":9266,"fokuserer":9267,"indbygget":9268,"glemmer":9269,"fremgang":9270,"passi":9271,"Skrevet":9272,"britiske":9273,"frastruktur":9274,"udgangen":9275,"videns":9276,"Steen":9277,"ordnet":9278,"banker":9279,"modtagelse":9280,"pille":9281,"Stati":9282,"DT":9283,"baden":9284,"One":9285,"øns":9286,"peten":9287,"Amt":9288,"hellig":9289,"luf":9290,"voksende":9291,"Gymna":9292,"tegninger":9293,"forvand":9294,"hjemmefra":9295,"vægten":9296,"værdigt":9297,"risikerer":9298,"opvarmning":9299,"!)":9300,"vifte":9301,"melder":9302,"smagen":9303,"gød":9304,"blødt":9305,"ummer":9306,"Sm":9307,"oen":9308,"HED":9309,"befal":9310,"__":9311,"resterende":9312,"platform":9313,"enheden":9314,"OF":9315,"xy":9316,"Bang":9317,"Bur":9318,"Billeder":9319,"trygge":9320,"vandløb":9321,"opdager":9322,"Line":9323,"varierer":9324,"feed":9325,"Malet":9326,"skygge":9327,"tynde":9328,"begreber":9329,"mails":9330,"milliarder":9331,"ekstern":9332,"lytter":9333,"Holstebro":9334,"præmie":9335,"truffet":9336,"elektroniske":9337,"nap":9338,"dennes":9339,"Aa":9340,"respon":9341,"fysio":9342,"reduktion":9343,"stoppede":9344,"aspekter":9345,"udfylde":9346,"sprojekter":9347,"overvagning":9348,"behagelige":9349,"fødslen":9350,"medal":9351,"atorisk":9352,"webcam":9353,"llen":9354,"obje":9355,"xxx":9356,"varig":9357,"bit":9358,"tilslutning":9359,"93":9360,"fritids":9361,"charmerende":9362,"byggende":9363,"betalte":9364,"timod":9365,"temperaturen":9366,"ulære":9367,"Fast":9368,"terror":9369,"pilot":9370,"now":9371,"træffes":9372,"uheld":9373,"iks":9374,"1990":9375,"drikker":9376,"formidling":9377,"hyppig":9378,"tjen":9379,"sydlige":9380,"Foreningen":9381,"Ned":9382,"teren":9383,"indtægt":9384,"dirig":9385,"Ældre":9386,"legi":9387,"strategier":9388,"forbrænd":9389,"bestræ":9390,"Gode":9391,"halve":9392,"udarbejdes":9393,"afgørelsen":9394,"accepterer":9395,"infektion":9396,"gentag":9397,"virkelige":9398,"ORT":9399,"Out":9400,"sønder":9401,"97":9402,"Kommunal":9403,"veget":9404,"kontanthjælp":9405,"egnede":9406,"Aar":9407,"biblioteket":9408,"faldende":9409,"opba":9410,"Økonomi":9411,"negativ":9412,"Herunder":9413,"afgifter":9414,"budskab":9415,"Afrika":9416,"Rapp":9417,"bistand":9418,"boller":9419,"sure":9420,"økonomien":9421,"gay":9422,"gulve":9423,"sensor":9424,"oth":9425,"foretrukne":9426,"udgifterne":9427,"bebyggelse":9428,"forlader":9429,"smartphones":9430,"ods":9431,"84":9432,"kaster":9433,"Slagelse":9434,"Medle":9435,"robu":9436,"slik":9437,"skaff":9438,"Forskel":9439,"kkelsen":9440,"Legal":9441,"Mikkel":9442,"byggeriet":9443,"dommen":9444,"optimal":9445,"sperioden":9446,"oke":9447,"undskyld":9448,"Jule":9449,"skolel":9450,"soldater":9451,"søkonom":9452,"samarbejds":9453,"overnatning":9454,"gader":9455,"eti":9456,"beboer":9457,"matcher":9458,"jæle":9459,"forman":9460,"hegn":9461,"itz":9462,"musikal":9463,"BM":9464,"forebygge":9465,"æne":9466,"talmo":9467,"turister":9468,"spension":9469,"regionale":9470,"Hou":9471,"urder":9472,"beth":9473,"somkostninger":9474,"World":9475,"].":9476,"vort":9477,"udvidelse":9478,"fremm":9479,"væld":9480,"depression":9481,"fjen":9482,"optræder":9483,"vedvarende":9484,"siderne":9485,"edig":9486,"Sæl":9487,"ensar":9488,"flit":9489,"smægler":9490,"Amat":9491,"ico":9492,"claimer":9493,"tip":9494,"selvstændige":9495,"chok":9496,"skuespil":9497,"guit":9498,"Jul":9499,"ejet":9500,"Igen":9501,"parterne":9502,"orientering":9503,"kin":9504,"Inst":9505,"hovedstad":9506,"Disclaimer":9507,"ita":9508,"biske":9509,"garde":9510,"Book":9511,"opstod":9512,"klas":9513,"skind":9514,"Musi":9515,"forenings":9516,"elevernes":9517,"kundeservice":9518,"skvalitet":9519,"wh":9520,"MEN":9521,"pæne":9522,"printer":9523,"vane":9524,"SR":9525,"maa":9526,"norske":9527,"fødsels":9528,"Tur":9529,"besta":9530,"Hvilken":9531,"habili":9532,"nende":9533,"nisk":9534,"reduceret":9535,"Sing":9536,"kler":9537,"Resultatet":9538,"Bent":9539,"yoga":9540,"ugers":9541,"udforske":9542,"eksklusive":9543,"Maden":9544,"esbjerg":9545,"medierne":9546,"tegning":9547,"følelsen":9548,"øgede":9549,"sret":9550,"Bø":9551,"sofaen":9552,"print":9553,"voldt":9554,"funktions":9555,"stjene":9556,"skred":9557,"utallige":9558,"kalen":9559,"sygehus":9560,"eksisterer":9561,"spis":9562,"Undervisning":9563,"katastro":9564,"herrer":9565,"dosis":9566,"opsætning":9567,"installeret":9568,"sammensætning":9569,"kvadrat":9570,"enting":9571,"arab":9572,"brune":9573,"genbrug":9574,"overordnet":9575,"fad":9576,"sammenligning":9577,"Svar":9578,"Kær":9579,"eksemplar":9580,"bølge":9581,"skæb":9582,"affilierede":9583,"skit":9584,"lokalplan":9585,"lamper":9586,"Servi":9587,"afspejler":9588,"diabetes":9589,"Ting":9590,"udefra":9591,"teknikker":9592,"Bj":9593,"tynd":9594,"koncerter":9595,"rammerne":9596,"nordlige":9597,"papeg":9598,"!”":9599,"fællesskabet":9600,"Amer":9601,"tilføjet":9602,"debatten":9603,"netværket":9604,"træet":9605,"kys":9606,"stjeneste":9607,"kanske":9608,"derede":9609,"snarere":9610,"Kol":9611,"anvendte":9612,"tilbudt":9613,"sørg":9614,"bød":9615,"Kræ":9616,"glip":9617,"pning":9618,"trykker":9619,"glide":9620,"konser":9621,"Special":9622,"tene":9623,"Hæ":9624,"Les":9625,"beskæftiger":9626,"opleves":9627,"bestand":9628,"keren":9629,"pli":9630,"formar":9631,"spillerne":9632,"slip":9633,"virus":9634,"fortjener":9635,"ejeren":9636,"læseren":9637,"nævnet":9638,"betalingen":9639,"Club":9640,"4for":9641,"tro4for":9642,"Sha":9643,"dul":9644,"signaler":9645,"vejle":9646,"Lørdag":9647,"bæredygtig":9648,"kategorien":9649,"vaskemaskine":9650,"Beskrivelse":9651,"revolution":9652,"spild":9653,"mul":9654,"faktiske":9655,"bogstav":9656,"sigtede":9657,"stes":9658,"skulp":9659,"omraderne":9660,"abnes":9661,"liderlige":9662,"forhabentlig":9663,"dress":9664,"bliv":9665,"Johannes":9666,"Sprog":9667,"introduktion":9668,"Dam":9669,"ønder":9670,"generel":9671,"score":9672,"slo":9673,"GB":9674,"lamentet":9675,"room":9676,"nødder":9677,"input":9678,"søgende":9679,"flasker":9680,"deci":9681,"dry":9682,"GO":9683,"chancen":9684,"plastik":9685,"punktet":9686,"fungerende":9687,"dron":9688,"hjemmelavet":9689,"trafikken":9690,"SMS":9691,"SKAT":9692,"turist":9693,"Ac":9694,"begrænse":9695,"rings":9696,"leverede":9697,"udvikles":9698,"returner":9699,"udmærket":9700,"tændt":9701,"videregaende":9702,"Haber":9703,"opbygget":9704,"load":9705,"spris":9706,"opgaverne":9707,"linjen":9708,"stier":9709,"kosm":9710,"udsende":9711,"marketing":9712,"svage":9713,"stævne":9714,"tabte":9715,"udven":9716,"beregnes":9717,"pornograf":9718,"Byen":9719,"noter":9720,"ckt":9721,"formue":9722,"aer":9723,"konference":9724,"tøm":9725,"forsikringen":9726,"tationer":9727,"check":9728,"dansker":9729,"ledende":9730,"tilhører":9731,"dybere":9732,"streg":9733,"tube":9734,"risk":9735,"producent":9736,"Verdens":9737,"dimension":9738,"stang":9739,"dømt":9740,"enorme":9741,"........":9742,"takket":9743,"lanet":9744,"rødt":9745,"cle":9746,"1800":9747,"salen":9748,"afsløre":9749,"Rosen":9750,"immun":9751,"angive":9752,"inkluderet":9753,"klippe":9754,"high":9755,"inspirerende":9756,"Business":9757,"sadant":9758,"ophi":9759,"stro":9760,"kejser":9761,"kærligheden":9762,"700":9763,"rykker":9764,"dero":9765,"himlen":9766,"stolte":9767,"Tilbage":9768,"politikerne":9769,"slette":9770,"diskutere":9771,"cat":9772,"ktiver":9773,"grundig":9774,"kraftige":9775,"rollen":9776,"mmere":9777,"Anlæg":9778,"vægttab":9779,"impon":9780,"hede":9781,"langsom":9782,"livets":9783,"budgettet":9784,"termin":9785,"efterar":9786,"indehaver":9787,"medicinsk":9788,"given":9789,"fester":9790,"binde":9791,"unges":9792,"Mis":9793,"videregi":9794,"Minister":9795,"cl":9796,"smetoder":9797,"vejledningen":9798,"1998":9799,"søer":9800,"een":9801,"hoppe":9802,"domin":9803,"renter":9804,"Sky":9805,"ravarer":9806,"ække":9807,"menstruation":9808,"Havn":9809,"Ol":9810,"modsat":9811,"forlod":9812,"het":9813,"Tube":9814,"sanger":9815,"debut":9816,"ingenting":9817,"redning":9818,"hvorpa":9819,"abri":9820,"ægtefælle":9821,"core":9822,"oprør":9823,"mistæn":9824,"ktik":9825,"katalog":9826,"yndlings":9827,"Biblio":9828,"Tel":9829,"tent":9830,"linket":9831,"ktivet":9832,"rads":9833,"filen":9834,"deltaget":9835,"øer":9836,"informer":9837,"global":9838,"ordene":9839,"ovennævnte":9840,"Hvilket":9841,"rekord":9842,"tildelt":9843,"loftet":9844,"aende":9845,"more":9846,"Herre":9847,"heldige":9848,"udskiftning":9849,"grave":9850,"Cu":9851,"dannes":9852,"stykket":9853,"Moden":9854,"skriftlige":9855,"ogsaa":9856,"lidelser":9857,"modul":9858,"fejre":9859,"tilmelde":9860,"flow":9861,"udsigten":9862,"bass":9863,"Hvornar":9864,"palide":9865,"cyklen":9866,"definition":9867,"Cy":9868,"spejl":9869,"nyd":9870,"Guld":9871,"fælge":9872,"81":9873,"taller":9874,"fremtidens":9875,"Austral":9876,"pørg":9877,"Tyrk":9878,"Vok":9879,"rettes":9880,"94":9881,"ellerup":9882,"rolige":9883,"HR":9884,"effekten":9885,"Dine":9886,"display":9887,"psyko":9888,"permanent":9889,"egru":9890,"forbedret":9891,"tillade":9892,"moner":9893,"Digital":9894,"reflekter":9895,"affalds":9896,"kran":9897,"felter":9898,"ilt":9899,"dræbt":9900,"delingen":9901,"sav":9902,"klagede":9903,"niske":9904,"Tir":9905,"hjælpemidler":9906,"arlig":9907,"opbygge":9908,"isen":9909,"Ku":9910,"vanskeligheder":9911,"horn":9912,"Kron":9913,"udsted":9914,"indby":9915,"græsk":9916,"faktum":9917,"blodet":9918,"mellemrum":9919,"velkomne":9920,"Dato":9921,"trækning":9922,"sløse":9923,"Ejer":9924,"køleskab":9925,"mors":9926,"Nogen":9927,"smødet":9928,"Eleverne":9929,"ader":9930,"Ak":9931,"tilbuddet":9932,"sperm":9933,"liber":9934,"appli":9935,"stam":9936,"vers":9937,"saktiviteter":9938,"Fredag":9939,"Admini":9940,"tax":9941,"tifik":9942,"Anal":9943,"tilgængeligt":9944,"holdere":9945,"eje":9946,"tegnede":9947,"see":9948,"sædet":9949,"overførsel":9950,"lovgivningen":9951,"Selskab":9952,"beholde":9953,"Bran":9954,"sædceller":9955,"Gucca":9956,"veninder":9957,"opdatering":9958,"bestod":9959,"journalist":9960,"blu":9961,"pavirkning":9962,"alm":9963,"barns":9964,"tnings":9965,"nydt":9966,"hang":9967,"Fug":9968,"Sæson":9969,"samtalen":9970,"udfordre":9971,"telser":9972,"3D":9973,"lighederne":9974,"udbetalt":9975,"traditionel":9976,"filosofi":9977,"visende":9978,"geni":9979,"1970":9980,"opbakning":9981,"eftermiddagen":9982,"beviser":9983,"passager":9984,"zen":9985,"ladet":9986,"91":9987,"new":9988,"Kæ":9989,"ppende":9990,"britan":9991,"andelen":9992,"vurderingen":9993,"tingent":9994,"ødelægge":9995,"Master":9996,"seksuelt":9997,"distribu":9998,"fortid":9999,"bestilte":10000,"nummeret":10001,"forrige":10002,"180":10003,"opretholde":10004,"kloak":10005,"Hjælp":10006,"smit":10007,"SEX":10008,"anelse":10009,"hvorved":10010,"trives":10011,"defineret":10012,"Uddannelse":10013,"esi":10014,"Microsoft":10015,"Omradet":10016,"retninger":10017,"cor":10018,"indvi":10019,"centeret":10020,"sygeplejerske":10021,"forkæ":10022,".....":10023,"Beskæf":10024,"stur":10025,"Fro":10026,"formere":10027,"tætte":10028,"badet":10029,"forberede":10030,"estival":10031,"lans":10032,"medfør":10033,"synligt":10034,"undersøger":10035,"Søndag":10036,"herred":10037,"deri":10038,"asia":10039,"agtige":10040,"ovenpa":10041,"tiltrække":10042,"tilmelding":10043,"skontrol":10044,"Tour":10045,"Thy":10046,"tusindvis":10047,"assen":10048,"Holm":10049,"ænker":10050,"roid":10051,"Pil":10052,"redaktør":10053,"krigs":10054,"parten":10055,"krævede":10056,"Restaur":10057,"Mandag":10058,"ji":10059,"smateriale":10060,"relateret":10061,"monteres":10062,"ingeniør":10063,"apps":10064,"administrative":10065,"lugt":10066,"play":10067,"samvit":10068,"identificere":10069,"udfordrende":10070,"sanlæg":10071,"Hjør":10072,"linge":10073,"mistede":10074,"ledig":10075,"regnskabs":10076,"lug":10077,"search":10078,"leden":10079,"von":10080,"opdelt":10081,"kroppens":10082,"frost":10083,"Nordi":10084,"længden":10085,"montering":10086,"papirer":10087,"toget":10088,"foruden":10089,"overraskelse":10090,"iseres":10091,"bøgerne":10092,"manglede":10093,"tt":10094,"%)":10095,"ageret":10096,"lufthavnen":10097,"General":10098,"grene":10099,"vug":10100,"negle":10101,"appel":10102,"nætter":10103,"kravet":10104,"fair":10105,"Mol":10106,"floden":10107,"begær":10108,"arbejderne":10109,"drev":10110,"forfatteren":10111,"handbold":10112,"bakken":10113,"strej":10114,"svi":10115,"paske":10116,"Virksomheden":10117,"unt":10118,"ram":10119,"placere":10120,"mærkning":10121,"infrastruktur":10122,"smartphone":10123,"almene":10124,"Andet":10125,"kvalificeret":10126,"Ør":10127,"driften":10128,"IDE":10129,"gryde":10130,"humor":10131,"Kjær":10132,"dragt":10133,"understreger":10134,"gerede":10135,"kendes":10136,"farvede":10137,"stund":10138,"Brun":10139,"stemet":10140,"underligt":10141,"magten":10142,"citat":10143,"aftensmad":10144,"seksualitet":10145,"konvention":10146,"reserve":10147,"bbe":10148,"Wa":10149,"110":10150,"Motor":10151,"modtagere":10152,"baren":10153,"Mennesker":10154,"fraf":10155,"sholm":10156,"forarsage":10157,"maet":10158,"homoseksuelle":10159,"boksen":10160,"bere":10161,"kj":10162,"atoren":10163,"supplerende":10164,"ulation":10165,"ønt":10166,"telt":10167,"flod":10168,"coach":10169,"Alterna":10170,"smut":10171,"Profes":10172,"finalen":10173,"delvis":10174,"iseringen":10175,"løft":10176,"løfter":10177,"voksede":10178,"aftal":10179,"Fø":10180,"sandsynlighed":10181,"indbyggere":10182,"dreje":10183,"motivation":10184,"adgangskode":10185,"inspirere":10186,"folkeskolen":10187,"afsnittet":10188,"seriøst":10189,"she":10190,"tidspunkter":10191,"agg":10192,"søskende":10193,"Pet":10194,"Politiet":10195,"bron":10196,"partiet":10197,"rug":10198,"dyrere":10199,"funktionalitet":10200,"drejning":10201,"GL":10202,"Karl":10203,"formet":10204,"varianter":10205,"tankerne":10206,"reaktioner":10207,"raa":10208,"orison":10209,"Fisse":10210,"Mangler":10211,"afkast":10212,"Produkt":10213,"win":10214,"Storbritan":10215,"Gran":10216,"club":10217,"zy":10218,"gennemførelse":10219,"varmet":10220,"foreslar":10221,"hjørnet":10222,"indstillet":10223,"bestiller":10224,"weiz":10225,"ventilation":10226,"slø":10227,"datoen":10228,"ulykker":10229,"religiøse":10230,"kommunikations":10231,"indrømme":10232,"ringede":10233,"givelserne":10234,"tigelse":10235,"Løb":10236,"Juni":10237,"maksimalt":10238,"Journ":10239,"lades":10240,"prøven":10241,"Mobil":10242,"godkendte":10243,"tillids":10244,"tum":10245,"stanke":10246,"mærkeligt":10247,"præsenteres":10248,"fyldes":10249,"tvunget":10250,"bero":10251,"vation":10252,",.":10253,"nærmer":10254,"Fla":10255,"Home":10256,"eki":10257,"tele":10258,"nyhedsbrev":10259,"lufthavn":10260,"brog":10261,"skabende":10262,"fastsætte":10263,"strækker":10264,"Industri":10265,"scener":10266,"detail":10267,"brændstof":10268,"oprin":10269,"hensigtsmæssigt":10270,"inet":10271,"Bliv":10272,"Drag":10273,"veder":10274,"skæring":10275,"Smart":10276,"værds":10277,"dømme":10278,"fattige":10279,"onym":10280,"indkom":10281,"sandsynligt":10282,"III":10283,"bekymret":10284,"tenden":10285,"sium":10286,"Power":10287,"Vo":10288,"unger":10289,"Stru":10290,"usikkerhed":10291,"studenter":10292,"systematisk":10293,"relaterede":10294,"præstation":10295,"Vækst":10296,"veg":10297,"vidunderlige":10298,"hviler":10299,"Fantastisk":10300,"dresse":10301,"tusinde":10302,"afhængighed":10303,"omet":10304,"kursi":10305,"springe":10306,"kommunikere":10307,"tænd":10308,"menneskets":10309,"Instagram":10310,"bogsta":10311,"skala":10312,"Kirsten":10313,"Birgi":10314,"kysten":10315,"fordr":10316,"cigaret":10317,"varerne":10318,"abelt":10319,"væksten":10320,"Hanne":10321,"Offi":10322,"ella":10323,"irriterende":10324,"køleskabet":10325,"roller":10326,"ædagog":10327,"HF":10328,"regioner":10329,"mentale":10330,"Pia":10331,"Varme":10332,"Green":10333,"dedi":10334,"Lolland":10335,"Skolen":10336,"ledelses":10337,"varieret":10338,"Dagen":10339,"pynt":10340,"træffer":10341,"afgørelser":10342,"lap":10343,"fader":10344,"Ag":10345,"afstemning":10346,"mix":10347,"stak":10348,"apos":10349,"svampe":10350,"veri":10351,"installationer":10352,"omegn":10353,"Stra":10354,"mestre":10355,"rammen":10356,"plejen":10357,"DJ":10358,"indbrud":10359,"inviterer":10360,"skræn":10361,"liga":10362,"Bul":10363,"toner":10364,"spunktet":10365,"rien":10366,"tandlæge":10367,"Down":10368,"Engel":10369,"investerings":10370,"Live":10371,"dl":10372,"farlig":10373,"Cro":10374,"ng":10375,"Billed":10376,"imødekommende":10377,"reparation":10378,"Golf":10379,"rist":10380,"kandidater":10381,"Ur":10382,"barsel":10383,"Aben":10384,"arrække":10385,"ALT":10386,"SEN":10387,"Body":10388,"bak":10389,"anda":10390,"gad":10391,"væsenet":10392,"farten":10393,"komponenter":10394,"beskrivelser":10395,"henvendelser":10396,"mmeligt":10397,"vidner":10398,"samspil":10399,"Oplev":10400,"Kro":10401,"Bekendt":10402,"erklæring":10403,"kalk":10404,"ulykke":10405,"Ali":10406,"maneds":10407,"Polen":10408,"grundlagt":10409,"foden":10410,"embed":10411,"Ce":10412,"marker":10413,"Blom":10414,"wellness":10415,"ula":10416,"itler":10417,"sogne":10418,"Carsten":10419,"skuffet":10420,"lil":10421,"fuldstændigt":10422,"Christians":10423,"nette":10424,"stoppet":10425,"ansøgninger":10426,"Sagen":10427,"kale":10428,"forsink":10429,"bekæmpelse":10430,"egard":10431,"Manden":10432,"ansættelses":10433,"universet":10434,"kkene":10435,"meldte":10436,"pligtige":10437,"forbudt":10438,"koden":10439,"begrænsning":10440,"optimere":10441,"slok":10442,"Wal":10443,"argumenter":10444,"Problemet":10445,".).":10446,"mose":10447,"elovens":10448,"International":10449,"forsiden":10450,"!.":10451,"modet":10452,"Lene":10453,"gennemga":10454,"alting":10455,"anerkendt":10456,"erotik":10457,"Rejse":10458,"mørkt":10459,"fantasier":10460,"Dren":10461,"Gyl":10462,"civi":10463,"virkeligt":10464,"Festival":10465,"ftelse":10466,"chancer":10467,"mødre":10468,"alternative":10469,"1980":10470,"variere":10471,"cho":10472,"bræt":10473,"BS":10474,"uges":10475,"formiddag":10476,"shopping":10477,"bagt":10478,"handværker":10479,"afvik":10480,"Pat":10481,"kliniske":10482,"beløn":10483,"fleksibel":10484,"redaktion":10485,"jobs":10486,"gennemsig":10487,"Tj":10488,"demokratiske":10489,"iveau":10490,"kkelige":10491,"rigs":10492,"kommand":10493,"ørerne":10494,"auten":10495,"rækken":10496,"kongen":10497,"kammerater":10498,"aarhus":10499,"videoklip":10500,"kers":10501,"FO":10502,"glim":10503,"allerup":10504,"Blo":10505,"racer":10506,"Tilsæt":10507,"kneppe":10508,"etager":10509,"sjældne":10510,"Følg":10511,"netto":10512,"Politiken":10513,"Intet":10514,"vasket":10515,"nytar":10516,"Eva":10517,"udarbejdelse":10518,"tørt":10519,"rap":10520,"Amatør":10521,"udførelse":10522,"Sma":10523,"anony":10524,"egnes":10525,"ummet":10526,"gravide":10527,"Jack":10528,"screen":10529,"anvendelsen":10530,"dukke":10531,"Doku":10532,"smagende":10533,"instrumenter":10534,"spildevand":10535,"speciale":10536,"Navn":10537,"risici":10538,"byerne":10539,"forberedelse":10540,"kosten":10541,"kjoler":10542,"Fire":10543,"TDC":10544,"talere":10545,"trænet":10546,"varetage":10547,"godkendes":10548,"forkæl":10549,"Tør":10550,"uddannelserne":10551,"Word":10552,"restauranten":10553,"marken":10554,"soveværelse":10555,"AA":10556,"Mør":10557,"søj":10558,"udnyttelse":10559,"sexlegetøj":10560,"mation":10561,"ledsag":10562,"cd":10563,"Ze":10564,"teringen":10565,"lederen":10566,"sejler":10567,"udsagn":10568,"europæisk":10569,"fand":10570,"underskud":10571,"sserne":10572,"astrup":10573,"ffek":10574,"bachel":10575,"Teater":10576,"hukommelse":10577,"ligget":10578,"udstillinger":10579,"straler":10580,"tillinger":10581,"eliv":10582,"ordinær":10583,"tasker":10584,"køretøj":10585,"Familie":10586,"rem":10587,"mpagne":10588,"Damer":10589,"slas":10590,"BY":10591,"Aktivitet":10592,"forbliver":10593,"domstol":10594,"tilmeldt":10595,"meret":10596,"tex":10597,"brændt":10598,"overvæl":10599,"drivende":10600,"urter":10601,"sung":10602,"kurren":10603,"komplekse":10604,"mobiltelefon":10605,"Mind":10606,"adi":10607,"arbejdsløs":10608,"chauffør":10609,"parfu":10610,"cool":10611,"serveres":10612,"vler":10613,"ledninger":10614,"kinesiske":10615,"Indien":10616,"had":10617,"beskeder":10618,"anerkendelse":10619,"juridiske":10620,"Dertil":10621,"Betal":10622,"ærligt":10623,"HK":10624,"semin":10625,"DVD":10626,"sandheden":10627,"medvirke":10628,"Lækker":10629,"ankomst":10630,"orts":10631,"vere":10632,"optimering":10633,"efterløn":10634,"pej":10635,"LIG":10636,"sem":10637,"list":10638,"bøde":10639,"realitet":10640,"tika":10641,"støttet":10642,"dyrker":10643,"kompromis":10644,"fleksibilitet":10645,"vidde":10646,"beskadig":10647,"omfatte":10648,"ligne":10649,"lon":10650,"kritiske":10651,"kundens":10652,"indire":10653,"arealet":10654,"Udvalget":10655,"præcise":10656,"sporet":10657,"gennemgar":10658,"skulptur":10659,"Politik":10660,"Wo":10661,"blind":10662,"skærme":10663,"tikken":10664,"lærings":10665,"Forening":10666,"Jord":10667,"dispen":10668,"oversættelse":10669,"digitalt":10670,"race":10671,"kopier":10672,"Art":10673,"attraktive":10674,"Sønderborg":10675,"Skander":10676,"medarbejderen":10677,"kreativ":10678,"spænder":10679,"sandhed":10680,"Holland":10681,"prostitu":10682,"Nordisk":10683,"virtu":10684,"teker":10685,"reagerer":10686,"mærkes":10687,"Enhver":10688,"Budget":10689,"anskaff":10690,"efterspørgsel":10691,"makeup":10692,"berettigede":10693,"artier":10694,"IST":10695,"egentlige":10696,"efterars":10697,"Che":10698,"board":10699,"HP":10700,"sult":10701,"hjælpsomme":10702,"sekretari":10703,"Kbh":10704,"eksperimenter":10705,"gifte":10706,"drengene":10707,"Michel":10708,"ødelagt":10709,"adressen":10710,"besvare":10711,"Fortæl":10712,"pornostjerne":10713,"resund":10714,"ejendoms":10715,"Rigs":10716,"latter":10717,"forfattere":10718,"indtræ":10719,"klinikker":10720,"ion":10721,"ruten":10722,"idi":10723,"aviser":10724,"Eventu":10725,"SER":10726,"argang":10727,"princip":10728,"opdagelse":10729,"spørgeskema":10730,"ofre":10731,"Indhold":10732,"konsekvens":10733,"albu":10734,"Supp":10735,"kolding":10736,"inddragelse":10737,"afslører":10738,"laveste":10739,"tænkning":10740,"beslutte":10741,"myg":10742,"rken":10743,"sammensat":10744,"kollegaer":10745,");":10746,"rekrutter":10747,"opera":10748,"Radio":10749,"cast":10750,"licens":10751,"papi":10752,"interval":10753,"barber":10754,"sættelsen":10755,"femte":10756,"smøder":10757,"vns":10758,"smyn":10759,"Emil":10760,"Normalt":10761,"chefen":10762,"nederst":10763,"forvaltningen":10764,"varmer":10765,"handlet":10766,"boende":10767,"poser":10768,"herfor":10769,"styrken":10770,"gribe":10771,"BN":10772,"følsomme":10773,"cket":10774,"bremse":10775,"asing":10776,"lysten":10777,"Shop":10778,"hvidløg":10779,"klap":10780,"thaimassage":10781,"styrer":10782,"nydelse":10783,"Soci":10784,"lum":10785,"begyndelse":10786,"ihjel":10787,"forbrugere":10788,"svagt":10789,"syns":10790,"Pik":10791,"rask":10792,"cing":10793,"solid":10794,"smiddel":10795,"maltider":10796,"afgjort":10797,"hinandens":10798,"sum":10799,"swingerklub":10800,"vul":10801,"Berling":10802,"badeværelset":10803,"tikel":10804,"blikket":10805,"musli":10806,"udtaler":10807,"italiensk":10808,"familiens":10809,"kera":10810,"kaja":10811,"bos":10812,"tilmeld":10813,"generationer":10814,"panden":10815,"værelsen":10816,"teknologier":10817,"Hjemme":10818,"Cent":10819,"lase":10820,"upunkt":10821,"Stø":10822,"ktører":10823,"citron":10824,"klassifi":10825,"downloade":10826,"rækkefølge":10827,"lant":10828,"fristen":10829,"arrangementet":10830,"dyrene":10831,"vindues":10832,"fingrene":10833,"meningen":10834,"erstatte":10835,"Indledning":10836,"Ob":10837,"venskab":10838,"IND":10839,"Internet":10840,"Nordsjælland":10841,"BB":10842,"isla":10843,"Hospital":10844,"overholde":10845,"daværende":10846,"gni":10847,"opdatere":10848,"Villa":10849,"gennemsnittet":10850,"ogens":10851,"Hertil":10852,"Andreas":10853,"rytter":10854,"beskyttelses":10855,"sposi":10856,"arbejdsmarked":10857,"stabilitet":10858,"skerne":10859,"formidle":10860,"magnet":10861,"indirekte":10862,"opspar":10863,"belægning":10864,"undere":10865,"strer":10866,"overgreb":10867,"habet":10868,"Thaimassage":10869,"tilsku":10870,"randers":10871,"Særligt":10872,"Forældre":10873,"højest":10874,"Harry":10875,"ophør":10876,"Mød":10877,"innovative":10878,"Cre":10879,"lykkelig":10880,"Modne":10881,"sagens":10882,"skille":10883,"pude":10884,"ane":10885,"Undersøgelsen":10886,"alumini":10887,"forsynet":10888,"adop":10889,"division":10890,"Slot":10891,"udgøre":10892,"slaget":10893,"asen":10894,"vitaminer":10895,"koncern":10896,"Jy":10897,"cktail":10898,"godtgørelse":10899,"kreativitet":10900,"bidraget":10901,"1997":10902,"Gal":10903,"Slo":10904,"udpeget":10905,"orter":10906,"Fl":10907,"gardero":10908,"hængende":10909,"USB":10910,"Onsdag":10911,"skrue":10912,"orium":10913,"benzin":10914,"enorm":10915,"taber":10916,"Antallet":10917,"klinikken":10918,"olien":10919,"2020":10920,"Sønderjylland":10921,"kirurgi":10922,"lovet":10923,"Phi":10924,"rehabili":10925,"beslag":10926,"feber":10927,"HA":10928,"udlejer":10929,"milit":10930,"trist":10931,"portion":10932,"afholde":10933,"Vinter":10934,"jysk":10935,"paramet":10936,"Nok":10937,"velsmagende":10938,"kameraet":10939,"pletter":10940,"egning":10941,"kagen":10942,"vrede":10943,"lelse":10944,"bakker":10945,"ballage":10946,"LÆ":10947,"velly":10948,"genstand":10949,"Bad":10950,"Forfatter":10951,"Skanderborg":10952,"milf":10953,"drop":10954,"wood":10955,"opad":10956,"videoen":10957,"PDF":10958,"malerier":10959,"villige":10960,"parall":10961,"oplyste":10962,"Kristus":10963,"kolon":10964,"mild":10965,"benet":10966,"Ker":10967,"nederste":10968,"dækkes":10969,"Uge":10970,"das":10971,"mindske":10972,"forsv":10973,"OC":10974,"tyrk":10975,"Læge":10976,"fastsætter":10977,"Torsdag":10978,"Specielt":10979,"mæt":10980,"serverer":10981,"busser":10982,"Tvær":10983,"ikk":10984,"inddrage":10985,"ansøgningen":10986,"Stre":10987,"DG":10988,"domæn":10989,"bachelor":10990,"Torben":10991,"rose":10992,"ambas":10993,"madlav":10994,"Penis":10995,"Vejledning":10996,"episo":10997,"ukendt":10998,"Transport":10999,"kombinere":11000,"fakta":11001,"SV":11002,"1960":11003,"jazz":11004,"femin":11005,"vikar":11006,"agerede":11007,"bam":11008,"?.":11009,"alg":11010,"Send":11011,"abningstider":11012,"ands":11013,"radets":11014,"sparring":11015,"menteret":11016,"smodt":11017,"Trafik":11018,"arbejdstid":11019,"August":11020,"fugl":11021,"kedeligt":11022,"demonstr":11023,"certifik":11024,"tillingen":11025,"strik":11026,"samlingen":11027,"institutionen":11028,"kælderen":11029,"skjult":11030,"Willi":11031,"beregninger":11032,"benyttet":11033,"afgøre":11034,"Kasper":11035,"skive":11036,"planlagte":11037,"cus":11038,"realistisk":11039,"aftalte":11040,"mistanke":11041,"tilbered":11042,"sæbe":11043,"big":11044,"Cafe":11045,"dernes":11046,"forebyggende":11047,"bekymring":11048,"Oper":11049,"VVS":11050,"stiftet":11051,"skulde":11052,"kommunalbestyrelsen":11053,"informations":11054,"kunsten":11055,"vamp":11056,"infla":11057,"hændelser":11058,"original":11059,"forestillinger":11060,"forsvandt":11061,"blin":11062,"Tus":11063,"prædi":11064,"vasker":11065,"beredskab":11066,"hemmelighed":11067,"opretter":11068,"rich":11069,"ata":11070,"gæste":11071,"forespørg":11072,"etablerede":11073,"pic":11074,"tjek":11075,"forelsket":11076,"tørret":11077,"udleveret":11078,"iagt":11079,"bug":11080,"blodtryk":11081,"opbevares":11082,"Vejen":11083,"Radi":11084,"sno":11085,"Homo":11086,"omradets":11087,"regelmæssigt":11088,"gebyrer":11089,"oste":11090,"Værdi":11091,"batterier":11092,"hule":11093,"DET":11094,"Nø":11095,"graden":11096,"gelser":11097,"Sep":11098,"vedtægter":11099,"straffes":11100,"angiv":11101,"blomst":11102,"aktuelt":11103,"værelserne":11104,"Næsten":11105,"beklædning":11106,"Falster":11107,"Link":11108,"krævende":11109,"nett":11110,"Omkring":11111,"Tirsdag":11112,"udbre":11113,"avl":11114,"MP":11115,"bredere":11116,"Rek":11117,"forarsag":11118,"skadelige":11119,"fliser":11120,"underholdende":11121,"besparelse":11122,"registrerede":11123,"tilfældigt":11124,"problemerne":11125,"jubilæum":11126,"fur":11127,"services":11128,"ærger":11129,"stej":11130,"fjorden":11131,"sviger":11132,"omfru":11133,"indføre":11134,"iserer":11135,"Sofie":11136,"inkluderer":11137,"Børnene":11138,"Dron":11139,"kvaliteter":11140,"begrænsede":11141,"sektion":11142,"demokratiet":11143,"scenar":11144,"tyskland":11145,"onering":11146,"malinger":11147,"sagerne":11148,"udlændinge":11149,"nærliggende":11150,"strømmen":11151,"All":11152,"udtrykke":11153,"husdyr":11154,"Test":11155,"mælke":11156,"voldsom":11157,"dagene":11158,"ensartet":11159,"dagtilbud":11160,"zu":11161,"your":11162,"hovedsageligt":11163,"feedback":11164,"journalister":11165,"Charlotte":11166,"metoden":11167,"markeret":11168,"fornuftigt":11169,"ringet":11170,"Grand":11171,"juridisk":11172,"klasses":11173,"Has":11174,"hjælpen":11175,"trætte":11176,"synge":11177,"head":11178,"landskabet":11179,"Kig":11180,"FL":11181,"Bio":11182,"Dal":11183,"stikken":11184,"befri":11185,"stegn":11186,"Vid":11187,"omgivet":11188,"copenhagen":11189,"smed":11190,"slidt":11191,"130":11192,"konstatere":11193,"klikker":11194,"portal":11195,"Køkken":11196,"skarpt":11197,"Danish":11198,"tomme":11199,"work":11200,"barri":11201,"Hovedstaden":11202,"isoleret":11203,"Total":11204,"toler":11205,"patienterne":11206,"atch":11207,"Salg":11208,"hverdags":11209,"fasen":11210,"okus":11211,"Storbritannien":11212,"gørende":11213,"lovligt":11214,"Gammel":11215,"trøje":11216,"revi":11217,"indende":11218,"NB":11219,"Syg":11220,"foregik":11221,"import":11222,"registrere":11223,"arne":11224,"koloni":11225,"anlagt":11226,"Yderligere":11227,"teamet":11228,"splaner":11229,"efterlader":11230,"udøver":11231,"ffekt":11232,"juletræ":11233,"næsen":11234,"Bliver":11235,"synd":11236,"vred":11237,"bekymringer":11238,"apparatet":11239,"bredband":11240,"Mølle":11241,"reglen":11242,"kriminalitet":11243,"abi":11244,"skiller":11245,"Daniel":11246,"byrdes":11247,"Samsung":11248,"malgruppe":11249,"modtageren":11250,"HUS":11251,"turde":11252,"ted":11253,"passede":11254,"event":11255,"Henning":11256,"Poulsen":11257,"Hjem":11258,"overvejende":11259,"adresser":11260,"Oven":11261,"omkostningerne":11262,"indeholdt":11263,"Via":11264,"its":11265,"Skatte":11266,"smilede":11267,"ladning":11268,"egentligt":11269,"Bygge":11270,"Son":11271,"Langt":11272,"must":11273,"Dejligt":11274,"afsluttes":11275,"vidst":11276,"span":11277,"tradt":11278,"kosttilskud":11279,"from":11280,"Røde":11281,"kæledyr":11282,"adskiller":11283,"tabletter":11284,"sejle":11285,"girl":11286,"Tw":11287,"Fræk":11288,"konsi":11289,"tæppe":11290,"kalorier":11291,"hellige":11292,"kore":11293,"aldre":11294,"dræts":11295,"veter":11296,"oliven":11297,"menings":11298,"gart":11299,"taj":11300,"voks":11301,"drama":11302,"900":11303,"differen":11304,"forudgaende":11305,"ævn":11306,"Pern":11307,"menneskers":11308,"indledende":11309,"ague":11310,"satser":11311,"forinden":11312,"arrangeret":11313,"gards":11314,"sutte":11315,"kvadratmeter":11316,"indbydende":11317,"overbevist":11318,"affen":11319,"beskæftigelses":11320,"Netop":11321,"Flemming":11322,"udtalelse":11323,"rumme":11324,"kristendom":11325,"pædagoger":11326,"drikkevarer":11327,"logge":11328,"trekant":11329,"kærlig":11330,"forudsætter":11331,"Fyr":11332,"bestemmelserne":11333,"versioner":11334,"glimrende":11335,"kugle":11336,"diagnose":11337,"spredt":11338,"apparat":11339,"ppy":11340,"bomuld":11341,"ismer":11342,"Stig":11343,"pind":11344,"stres":11345,"størstedelen":11346,"yderste":11347,"strationer":11348,"kontakten":11349,"brøn":11350,"nd":11351,"jerede":11352,"hævet":11353,"Auto":11354,"officielt":11355,"oprindelse":11356,"separat":11357,"landsdækkende":11358,"wich":11359,"nederlag":11360,"ssoci":11361,"betegnelse":11362,"kompetente":11363,"bly":11364,"ames":11365,"lærerne":11366,"zer":11367,"trykt":11368,"Eleven":11369,"clo":11370,"skyder":11371,"samvittighed":11372,"julen":11373,"distrikt":11374,"hader":11375,"udsættes":11376,"rødder":11377,"fjernvarme":11378,"blon":11379,"spladser":11380,"overe":11381,"latin":11382,"sforval":11383,"detaljeret":11384,"dkvalitet":11385,"vugge":11386,"kompliceret":11387,"Afdeling":11388,"Australien":11389,"moderni":11390,"klagenævnet":11391,"rykke":11392,"Beslut":11393,"orange":11394,"usikker":11395,"spilleren":11396,"Tjek":11397,"kirker":11398,"positioner":11399,"stramme":11400,"hom":11401,"udveksling":11402,"Jor":11403,"fars":11404,"stein":11405,"kere":11406,"TV2":11407,"skræmmende":11408,"adet":11409,"højden":11410,"rethe":11411,"tilpasning":11412,"koder":11413,"udad":11414,"dokumentere":11415,"Tyrkiet":11416,"Rum":11417,"undtag":11418,"parts":11419,"Herren":11420,"Øvrige":11421,"chili":11422,"Mes":11423,"implementering":11424,"spræ":11425,"hesten":11426,"Samme":11427,"perspektiver":11428,"140":11429,"redegørelse":11430,"tekstil":11431,"Fødevare":11432,"kørekort":11433,"vangel":11434,"ktoren":11435,"udkom":11436,"vinen":11437,"DAG":11438,"henne":11439,"oral":11440,"habe":11441,"hovedpine":11442,"uen":11443,"Ars":11444,"flyttes":11445,"lidelse":11446,"ÆN":11447,"fællesskaber":11448,"perle":11449,"tallerken":11450,"rimelige":11451,"kterne":11452,"Drift":11453,"Hjørring":11454,"kammerat":11455,"grebet":11456,"skue":11457,"smisse":11458,"ænket":11459,"ustit":11460,"lægemiddel":11461,"Mogens":11462,"fødderne":11463,"avancerede":11464,"KOM":11465,"opgørelsen":11466,"Hob":11467,"solidt":11468,"yngste":11469,"laser":11470,"regeringens":11471,"runder":11472,"værdighed":11473,"Jorden":11474,"særskilt":11475,"strategisk":11476,"optager":11477,"omgivelserne":11478,"løbs":11479,"lses":11480,"vidende":11481,"møbel":11482,"brygger":11483,"volumen":11484,"fortegn":11485,"UG":11486,"lander":11487,"ankommer":11488,"Arbejdet":11489,"Kunden":11490,"kontingent":11491,"anerkendte":11492,"gavekort":11493,"Cup":11494,"kemikal":11495,"bber":11496,"græske":11497,"Mail":11498,"undborg":11499,"reel":11500,"provin":11501,"Pan":11502,"myndighederne":11503,"æde":11504,"Note":11505,"kante":11506,"klet":11507,"dnings":11508,"spanske":11509,"sande":11510,"light":11511,"kronisk":11512,"api":11513,"balancen":11514,"egler":11515,"bærende":11516,"forbry":11517,"smidt":11518,"hygiejne":11519,"ererer":11520,"vejene":11521,"vanvit":11522,"fornemm":11523,"udvæl":11524,"kigget":11525,"praktiserende":11526,"kningen":11527,"Skat":11528,"Synes":11529,"burger":11530,"Bjørn":11531,"erkende":11532,"koncentration":11533,"velfungerende":11534,"bod":11535,"suppe":11536,"rift":11537,"attraktiv":11538,"stikke":11539,"minimal":11540,"ræning":11541,"Denmark":11542,"malsætning":11543,"Station":11544,"ænger":11545,"Perfekt":11546,"fælde":11547,"Regeringen":11548,"vidne":11549,"medfølger":11550,"database":11551,"klinisk":11552,"Bladet":11553,"skjulte":11554,"østlige":11555,"bekræftelse":11556,"bitter":11557,"gevinster":11558,"halvar":11559,"ultima":11560,"afslappende":11561,"gødning":11562,"konklusion":11563,"LL":11564,"arkiv":11565,"overtog":11566,"forhandlinger":11567,"barer":11568,"kreditkort":11569,"aktiveret":11570,"portræt":11571,"børste":11572,"denes":11573,"agerne":11574,"Hede":11575,"Folkeparti":11576,"Victor":11577,"https":11578,"Ville":11579,"transa":11580,"HOL":11581,"indgangen":11582,"edal":11583,"Lab":11584,"oline":11585,"Modt":11586,"Jonas":11587,"entu":11588,"knog":11589,"forholder":11590,"ogne":11591,"konceptet":11592,"etik":11593,"\u0000\u0000\u0000\u0000\u0000\u0000\u0000\u0000":11594,"System":11595,"Fore":11596,"Fjord":11597,"agtigt":11598,"genre":11599,"Plads":11600,"iste":11601,"ambiti":11602,"velkendte":11603,"Kommunika":11604,"CP":11605,"traditioner":11606,"Royal":11607,"UP":11608,"pump":11609,"See":11610,"sexy":11611,"stry":11612,"angivelse":11613,"hobby":11614,"intens":11615,"fog":11616,"aggres":11617,"romantisk":11618,"hens":11619,"tyve":11620,"drives":11621,"ketter":11622,"Read":11623,"reagere":11624,"Sjæl":11625,"Omrade":11626,"just":11627,"Dre":11628,"kvitter":11629,"Bryg":11630,"lage":11631,"pumper":11632,"inklusive":11633,"absor":11634,"1996":11635,"Hvidovre":11636,"telefonnummer":11637,"stenen":11638,"folks":11639,"Ringsted":11640,"guitar":11641,"uch":11642,"buffet":11643,"bekræfter":11644,"Frederikshavn":11645,"prioritet":11646,"iPad":11647,"tænde":11648,"pun":11649,"mødtes":11650,"bela":11651,"mier":11652,"brystet":11653,"filtr":11654,"grus":11655,"overstaet":11656,"glæden":11657,"ruter":11658,"tilsammen":11659,"konstateret":11660,"ensborg":11661,"./":11662,"digte":11663,"tiviser":11664,"hs":11665,"semi":11666,"ernæring":11667,"unden":11668,"gry":11669,"variation":11670,"power":11671,"suge":11672,"sinstitu":11673,"BO":11674,"opfyldelse":11675,"tilgode":11676,"installere":11677,"sauce":11678,"fungerede":11679,"vandret":11680,"user":11681,"kemiske":11682,"tilrettelæg":11683,"begaet":11684,"slikke":11685,"muslimer":11686,"betingelse":11687,"ologien":11688,"dipl":11689,"klipper":11690,"ters":11691,"personal":11692,"elite":11693,"LG":11694,"garanteret":11695,"iki":11696,"brændende":11697,"Retten":11698,"Følgende":11699,"Slut":11700,"forsynings":11701,"fremga":11702,"ado":11703,"øvede":11704,"Forsikr":11705,"forlænge":11706,"Casino":11707,"afsat":11708,"slim":11709,"anna":11710,"ruder":11711,"Berlingske":11712,"Scan":11713,"house":11714,"trappe":11715,"hite":11716,"oprettelse":11717,"gtede":11718,"begejstret":11719,"sides":11720,"indbyrdes":11721,"Cle":11722,"Geor":11723,"Tab":11724,"toft":11725,"næs":11726,"gymnastik":11727,"honning":11728,"UK":11729,"æbler":11730,"levelse":11731,"Livet":11732,"traditionelt":11733,"velvære":11734,"Android":11735,"alisme":11736,"sour":11737,"synger":11738,"sco":11739,"Vurder":11740,"Imp":11741,"Fuld":11742,"Valby":11743,"oppen":11744,"Barnet":11745,"besiddelse":11746,"overføres":11747,"cocktail":11748,"statslige":11749,"smester":11750,"hæfter":11751,"snakkede":11752,"frigi":11753,"endet":11754,"skinner":11755,"tise":11756,"ination":11757,"udgaver":11758,"fyret":11759,"depo":11760,"prise":11761,"fladen":11762,"refunder":11763,"elektrisk":11764,"arhund":11765,"udsendt":11766,"koncentra":11767,"forhøjet":11768,"fokuseret":11769,"kontrakten":11770,"bæredygtighed":11771,"sinds":11772,"160":11773,"war":11774,"sættere":11775,"sætnings":11776,"fornyelse":11777,"nyligt":11778,"sgaard":11779,"reelle":11780,"verdenskrig":11781,"indtjen":11782,"DSB":11783,"forbinder":11784,"suver":11785,"stemt":11786,"forretninger":11787,"dun":11788,"velfærds":11789,"125":11790,"redig":11791,"hylder":11792,"medens":11793,"orke":11794,"forbrugerne":11795,"autoriseret":11796,"William":11797,"fordelingen":11798,"events":11799,"bagud":11800,"handværkere":11801,"dagsordenen":11802,"flix":11803,"fornuftig":11804,"horison":11805,"værn":11806,"flader":11807,"værelses":11808,"Uddannelses":11809,"købs":11810,"Baby":11811,"foregaende":11812,"snakket":11813,"entreprenør":11814,"redi":11815,"opstilling":11816,"kontak":11817,"nervøs":11818,"Europas":11819,"bonde":11820,"Dyr":11821,"Seri":11822,"Psyk":11823,"røven":11824,"forarsaget":11825,"nøjagtig":11826,"IA":11827,"Ram":11828,"typiske":11829,"essenti":11830,"Statistik":11831,"ynder":11832,"hvertfald":11833,"Spa":11834,"Tand":11835,"skatter":11836,"voldsomme":11837,"Pernille":11838,"syl":11839,"romer":11840,"anbefaling":11841,"organer":11842,"trusser":11843,"CVR":11844,"efterfulgt":11845,"hyre":11846,"mørket":11847,"gods":11848,"Undga":11849,"slutte":11850,"She":11851,"lignede":11852,"skandinavi":11853,"appet":11854,"salderen":11855,"undertøj":11856,"Hø":11857,"bjæl":11858,"hængen":11859,"tyndt":11860,"omtalte":11861,"basi":11862,"erhvervslivet":11863,"sjælden":11864,"regelmæssig":11865,"bolle":11866,"mager":11867,"tungt":11868,"grov":11869,"formo":11870,"indtag":11871,"sejlads":11872,"Elekt":11873,"''":11874,"sekretær":11875,"timi":11876,"forholds":11877,"Nedenfor":11878,"uafhængige":11879,"olier":11880,"lysende":11881,"Kamp":11882,"booke":11883,"specialiseret":11884,"kedelig":11885,"ENT":11886,"It":11887,"Barcel":11888,"tets":11889,"roser":11890,"spriser":11891,"this":11892,"tænkes":11893,"medicinske":11894,"Deltag":11895,"will":11896,"Nyborg":11897,"bevarer":11898,"udenrig":11899,"naboer":11900,"ux":11901,"ophæng":11902,"bagsiden":11903,"bagage":11904,"ME":11905,"Styr":11906,"samfundets":11907,"japanske":11908,"skove":11909,"sommerferien":11910,"Pl":11911,"Spørgsmalet":11912,"dynamisk":11913,"parametre":11914,"Gang":11915,"kvin":11916,"gøring":11917,"terrassen":11918,"mentalt":11919,"meddelt":11920,"gif":11921,"egarden":11922,"servicen":11923,"Fit":11924,"sgade":11925,"strategiske":11926,"klædning":11927,"lukkes":11928,"analysen":11929,"Bibel":11930,"dessert":11931,"stater":11932,"analysere":11933,"bekymre":11934,"fundament":11935,"indstille":11936,"Nykøbing":11937,"...]":11938,"Alder":11939,"istand":11940,"uafhængig":11941,"Camping":11942,"ssan":11943,"provok":11944,"aske":11945,"Tror":11946,"karakterer":11947,"ai":11948,"vie":11949,"detalje":11950,"Ferie":11951,"Parlamentet":11952,"kationen":11953,"nationalt":11954,"dernæst":11955,"overholder":11956,"færreste":11957,"erektion":11958,"kup":11959,"kredsen":11960,"hek":11961,"puder":11962,"formulering":11963,"udbetales":11964,"SC":11965,"forhindrer":11966,"stilstand":11967,"myndigheden":11968,"jack":11969,"tten":11970,"motoren":11971,"Udgivet":11972,"nyttige":11973,"logi":11974,"smis":11975,"designs":11976,"elej":11977,"døbt":11978,"nedad":11979,"Fx":11980,"hullet":11981,"redet":11982,"forudsig":11983,"netværks":11984,"ophav":11985,"deraf":11986,"seje":11987,"kompet":11988,"Haderslev":11989,"udtrykker":11990,"skilsmisse":11991,"tast":11992,"siddet":11993,"spansk":11994,"radgivere":11995,"forælder":11996,"falske":11997,"Meto":11998,"afslapning":11999,"frisør":12000,"returret":12001,"selskabs":12002,"ødven":12003,"ged":12004,"Camilla":12005,"Træn":12006,"tileg":12007,"fjord":12008,"ligning":12009,"Klar":12010,"forhandlere":12011,"League":12012,"condition":12013,"kontrast":12014,"oftere":12015,"køres":12016,"registreres":12017,"længer":12018,"inddrages":12019,"takke":12020,"Okt":12021,"børnet":12022,"wal":12023,"deløb":12024,"organis":12025,"dominerende":12026,"aftales":12027,"1995":12028,"Bol":12029,"udstedt":12030,"Historien":12031,"vedligeholde":12032,"falsk":12033,"Turen":12034,"elen":12035,"stekn":12036,"LA":12037,"naar":12038,"return":12039,"fandtes":12040,"konsulenter":12041,"informere":12042,"indskud":12043,"lomme":12044,"Birk":12045,"brændte":12046,"sexede":12047,"hjerter":12048,"værge":12049,"skjold":12050,"mht":12051,"gennemsnitlig":12052,"robust":12053,"Press":12054,"Sundhedsstyrelsen":12055,"drog":12056,"produktivitet":12057,"tarn":12058,"tilpasses":12059,"forstyrrelser":12060,"elektriske":12061,"bekve":12062,"klyn":12063,"NOR":12064,"forlig":12065,"kæden":12066,"højskole":12067,"minus":12068,"1900":12069,"udste":12070,"affære":12071,"Statens":12072,"udstrækning":12073,"trent":12074,"Jacobsen":12075,"gning":12076,"vage":12077,"blid":12078,"Møde":12079,"kao":12080,"strikket":12081,"Billig":12082,"fabrikken":12083,"ago":12084,"Erotisk":12085,"gien":12086,"givelsen":12087,"handsker":12088,"trau":12089,"shirt":12090,"Trods":12091,"kæresten":12092,"has":12093,"vald":12094,"poly":12095,"hing":12096,"ventar":12097,"førtid":12098,"Teen":12099,"nakke":12100,"skran":12101,"Ryg":12102,"herinde":12103,"Ændr":12104,"ISK":12105,"udvalgets":12106,"Dyre":12107,"livskvalitet":12108,"udkast":12109,"indlagt":12110,"neret":12111,"Moder":12112,"kastede":12113,"bekræftet":12114,"blogger":12115,"overstiger":12116,"erfaren":12117,"ory":12118,"udgivelse":12119,"ssund":12120,"Ang":12121,"cking":12122,"fleksible":12123,"Kristensen":12124,"stabilt":12125,"centi":12126,"kvæl":12127,"Lys":12128,"Ron":12129,"isten":12130,"varigt":12131,"1950":12132,"facade":12133,"omkringliggende":12134,"rydde":12135,"Ric":12136,"Julie":12137,"kryp":12138,"Thomsen":12139,"trænge":12140,"teknologiske":12141,"Anmel":12142,"skæg":12143,"anser":12144,"beund":12145,"frag":12146,"gensidig":12147,"indeks":12148,"trup":12149,"dokumentar":12150,"aden":12151,"budt":12152,"jurs":12153,"Syddanmark":12154,"stift":12155,"Set":12156,"prinse":12157,"Flot":12158,"yper":12159,"specifik":12160,"agent":12161,"bang":12162,"auti":12163,"pel":12164,"armene":12165,"forladt":12166,"smær":12167,"medbringe":12168,"receptionen":12169,"Inge":12170,"Bred":12171,"Marianne":12172,"væsentligste":12173,"Vend":12174,"overtage":12175,"tallene":12176,"midlertidigt":12177,"fæst":12178,"tations":12179,"Forsikring":12180,"Sags":12181,"støder":12182,"farverne":12183,"graviditeten":12184,"faglighed":12185,"holdbarhed":12186,"rensning":12187,"trænere":12188,"hjælpere":12189,"tilværelse":12190,"bjerge":12191,"FE":12192,"varetager":12193,"meddelelser":12194,"dateret":12195,"ivoli":12196,"nuancer":12197,"hip":12198,"nakken":12199,"gammeldags":12200,"Standard":12201,"spektør":12202,"brands":12203,"Finn":12204,"forstod":12205,"Selskabet":12206,"ward":12207,"sigte":12208,"ideelle":12209,"sidstnævnte":12210,"Kateg":12211,"udbrud":12212,"tigheds":12213,"skrevne":12214,"booking":12215,"olin":12216,"appetit":12217,"handtag":12218,"teat":12219,"fineste":12220,"bækken":12221,"kostumer":12222,"ruller":12223,"uth":12224,"stien":12225,"islam":12226,"Gir":12227,"Evalu":12228,"landbrugs":12229,"Dvs":12230,"smetode":12231,"Efterfølgende":12232,"parforhold":12233,"omtalt":12234,"overleve":12235,"gennemførte":12236,"zoner":12237,"OBS":12238,"MT":12239,"angives":12240,"organiseret":12241,"optages":12242,"Tivoli":12243,"etten":12244,"Bekendtgørelse":12245,"kvinders":12246,"Elsker":12247,"range":12248,"Fed":12249,"dighederne":12250,"normer":12251,"lejen":12252,"klippet":12253,"assistent":12254,"direktor":12255,"steds":12256,"kors":12257,"kulhydr":12258,"orienterede":12259,"angrebet":12260,"spray":12261,"UV":12262,"hemmelige":12263,"kvo":12264,"Robert":12265,"nærvær":12266,"beslutningen":12267,"fastlagt":12268,"350":12269,"Mig":12270,"sklasse":12271,"bekæmpe":12272,"Medicin":12273,"register":12274,"fartøj":12275,"negativt":12276,"Konge":12277,"cand":12278,"herved":12279,"aroma":12280,"diameter":12281,"projektets":12282,"Tech":12283,"LER":12284,"kling":12285,"siko":12286,"sprocesser":12287,"House":12288,"Norden":12289,"bolde":12290,"udflugt":12291,"formel":12292,"omtale":12293,"helte":12294,"reduceres":12295,"sier":12296,"nøglen":12297,"Græken":12298,"Øl":12299,"tilitet":12300,"deg":12301,"indvandrere":12302,"ox":12303,"MAR":12304,"fix":12305,"dokumenteret":12306,"emperatur":12307,"erind":12308,"mmelighed":12309,"etil":12310,"ege":12311,"justere":12312,"vlen":12313,"overskueligt":12314,"Tysk":12315,"hoto":12316,"onsul":12317,"skiftede":12318,"Titel":12319,"vederlag":12320,"High":12321,"business":12322,"skep":12323,"vande":12324,"demokratisk":12325,"indslag":12326,"seriøse":12327,"sorganisa":12328,"ægterne":12329,"offentligheden":12330,"bagte":12331,"Trip":12332,"fremskridt":12333,"regle":12334,"Brian":12335,"TA":12336,"flet":12337,"forbindelsen":12338,"lekti":12339,"Egen":12340,"tterne":12341,"Enheds":12342,"ror":12343,"Nordic":12344,"arbejdning":12345,"ografi":12346,"Fores":12347,"Eksempelvis":12348,"høf":12349,"procedurer":12350,"Vind":12351,"Nyheder":12352,"usse":12353,"arkæ":12354,"miss":12355,"materiel":12356,"præster":12357,"kompleks":12358,"Disk":12359,"holden":12360,"Horn":12361,"aktivere":12362,"parkerings":12363,"Adam":12364,"hospi":12365,"cykle":12366,"temperaturer":12367,"arbejdsopgaver":12368,"lets":12369,"stive":12370,"SFO":12371,"citater":12372,"spids":12373,"vd":12374,"kærligheds":12375,"LP":12376,"IGT":12377,"ee":12378,"kulturer":12379,"bour":12380,"overført":12381,"tæpper":12382,"prøves":12383,"afrika":12384,"stog":12385,"Alminde":12386,"Videos":12387,"vibr":12388,"1500":12389,"BIL":12390,"spraksis":12391,"afsluttende":12392,"anere":12393,"separ":12394,"kredsløb":12395,"stok":12396,"bevaret":12397,"Idræts":12398,"ole":12399,"børnehaven":12400,"groft":12401,"velkomst":12402,"Hard":12403,"lars":12404,"supplement":12405,"Jern":12406,"anbefalet":12407,"fortolkning":12408,"omer":12409,"udgiver":12410,"juice":12411,"vækker":12412,"kalenderen":12413,"bogstaver":12414,"effektiviser":12415,"fordybe":12416,"handlen":12417,"Pension":12418,"tle":12419,"strede":12420,"evigt":12421,"food":12422,"ulær":12423,"centimeter":12424,"PO":12425,"summer":12426,"abenraa":12427,"ich":12428,"skyldig":12429,"Europ":12430,"plejehjem":12431,"nøgler":12432,"kompetent":12433,"Bryster":12434,"indfri":12435,"tarm":12436,"hvortil":12437,"Pop":12438,"sorter":12439,"smitte":12440,"bredte":12441,"internt":12442,"kv":12443,"forkæle":12444,"Def":12445,"leasing":12446,"berørte":12447,"KUN":12448,"Erfar":12449,"profi":12450,"ghan":12451,"Kred":12452,"websteder":12453,"hale":12454,"Strat":12455,"rive":12456,"silke":12457,"West":12458,"teligt":12459,"ignor":12460,"konkurs":12461,"Sov":12462,"høst":12463,"formular":12464,"anbefalede":12465,"?!":12466,"aldrende":12467,"Marg":12468,"ML":12469,"tainer":12470,"Adresse":12471,"Tillæg":12472,"kartoffel":12473,"Færøerne":12474,"lips":12475,"Allan":12476,"nik":12477,"skriter":12478,"BA":12479,"Landbrug":12480,"Cykel":12481,"Ori":12482,"knytter":12483,"alisering":12484,"ungerne":12485,"udarbejder":12486,"bedømmelse":12487,"ænge":12488,"laks":12489,"drengen":12490,"miljøer":12491,"malene":12492,"eksam":12493,"Tryg":12494,":.":12495,"Fokus":12496,"stifter":12497,"Arbejde":12498,"Størr":12499,"træl":12500,"spul":12501,"blidt":12502,"blet":12503,"bydel":12504,"Nicola":12505,"pels":12506,"menes":12507,"forlag":12508,"bestemmelsen":12509,"talende":12510,"vigtigere":12511,"værne":12512,"jeans":12513,"lia":12514,"skaden":12515,"sættelser":12516,"ording":12517,"præmier":12518,"kollektion":12519,"sødt":12520,"sgiver":12521,"Glad":12522,"case":12523,"sats":12524,"afprøve":12525,"Cal":12526,"galleri":12527,"tidigt":12528,"Oversigt":12529,"fremfor":12530,"Værelset":12531,"hvalp":12532,"afslag":12533,"statens":12534,"sygedag":12535,"----":12536,"øbet":12537,"flugter":12538,"civil":12539,"ligestilling":12540,"forretningen":12541,"Fig":12542,"tiet":12543,"servering":12544,"stekni":12545,"sutter":12546,"overtaget":12547,"kobber":12548,"smilende":12549,"Susanne":12550,"akademi":12551,"æstinen":12552,"BT":12553,"finale":12554,"esen":12555,"stævner":12556,"smagte":12557,"blandingen":12558,"Jean":12559,"solskin":12560,"afgrø":12561,"sauna":12562,"Køber":12563,"ambassa":12564,"smalle":12565,"ature":12566,"skabelon":12567,"atlet":12568,"Nørrebro":12569,"ukr":12570,"perler":12571,"ombord":12572,"eloven":12573,"handlingen":12574,"ati":12575,"faa":12576,"krone":12577,"Netflix":12578,"butikkerne":12579,"Refer":12580,"kendetegnet":12581,"aluminium":12582,"KON":12583,"stager":12584,"overvejet":12585,"action":12586,"NO":12587,"dørene":12588,"tilstedeværelse":12589,"aflevere":12590,"krydret":12591,"gymnasiet":12592,"afdøde":12593,"Anbefal":12594,"ologer":12595,"ekspertise":12596,"diesel":12597,"NET":12598,"universitetet":12599,"lanceret":12600,"SEO":12601,"korrig":12602,"ENS":12603,"omme":12604,"visuelle":12605,"kuffer":12606,"BH":12607,"skærer":12608,"tilmed":12609,"Glæ":12610,"varede":12611,"CC":12612,"vandring":12613,".),":12614,"bte":12615,"kka":12616,"Norde":12617,"olet":12618,"elsk":12619,"Group":12620,"lejet":12621,"Stock":12622,"brancher":12623,"emballage":12624,"engageret":12625,"rine":12626,"mmelser":12627,"Pædagog":12628,"opgra":12629,"Entre":12630,"indgreb":12631,"overtrædelse":12632,"loy":12633,"lægerne":12634,"Forside":12635,"glatte":12636,"underlag":12637,"Ringkøbing":12638,"undvære":12639,"kvæ":12640,"komsten":12641,"accept":12642,"orth":12643,"Dejlig":12644,"Lyn":12645,"?)":12646,"Ani":12647,"reducerer":12648,"vurderinger":12649,"vindmøller":12650,"strakt":12651,"Fonden":12652,"fængslet":12653,"altan":12654,"yog":12655,"urs":12656,"pikken":12657,"trussel":12658,"formance":12659,"inklusiv":12660,"strategien":12661,"arde":12662,"kontrollen":12663,"pix":12664,"bjergene":12665,"underlagt":12666,"erhvervet":12667,"fronten":12668,"beskrivelsen":12669,"betydningen":12670,"1992":12671,"mænds":12672,"plakat":12673,"Multi":12674,"avanceret":12675,"Kør":12676,"ligegyldigt":12677,"bønner":12678,"egaard":12679,"Barcelona":12680,"hd":12681,"passagerer":12682,"Dagens":12683,"nark":12684,"Pas":12685,"bredden":12686,"EA":12687,"abnings":12688,"Rab":12689,"aud":12690,"ylle":12691,"sundere":12692,"pulje":12693,"Ida":12694,"offen":12695,"nordjylland":12696,"oer":12697,"udløbet":12698,"ript":12699,"produceres":12700,"frustr":12701,"tilsendt":12702,"soli":12703,"menneskeret":12704,"Virkelig":12705,"mmets":12706,"troen":12707,"rts":12708,"melodi":12709,"attraktivt":12710,"indtage":12711,"etna":12712,"omhyggeligt":12713,"selskaberne":12714,"masker":12715,"syrer":12716,"retningen":12717,"Angel":12718,"bemærkes":12719,"los":12720,"Colle":12721,"sigende":12722,"drenes":12723,"kvan":12724,"midter":12725,"opføre":12726,"kser":12727,"Fem":12728,"Partner":12729,"Væ":12730,"holdnings":12731,"ledt":12732,"Download":12733,"sejendom":12734,"slov":12735,"gennemfører":12736,"Nikola":12737,"tægt":12738,"sim":12739,"Arne":12740,"indlægget":12741,"udløsning":12742,"vække":12743,"esult":12744,"oler":12745,"King":12746,"perne":12747,"respektive":12748,"strip":12749,"slange":12750,"Lil":12751,"betydelige":12752,"bibel":12753,"ssager":12754,"spræng":12755,"risikere":12756,"moduler":12757,"deli":12758,"fortjent":12759,"pant":12760,"GPS":12761,"andene":12762,"videnskabelig":12763,"[...]":12764,"skonsul":12765,"erklæ":12766,"strømper":12767,"NAT":12768,"Stal":12769,"udformning":12770,"halvleg":12771,"lidenskab":12772,"opnaede":12773,"Arkite":12774,"Step":12775,"omkostning":12776,"operationen":12777,"telig":12778,"kompa":12779,"iført":12780,"indtager":12781,"teorier":12782,"roen":12783,"Albert":12784,"FT":12785,"Herlev":12786,"præsenterede":12787,"symboler":12788,"jakker":12789,"Interes":12790,"Rene":12791,"sogn":12792,"Aften":12793,"forbrænding":12794,"dagligdagen":12795,"bænk":12796,"ligaen":12797,"sned":12798,"rygsæ":12799,"brid":12800,"Ten":12801,"arn":12802,"1994":12803,"Østrig":12804,"Lokala":12805,"Gun":12806,"Ske":12807,"Nyd":12808,"forsendelse":12809,"uk":12810,"Advisor":12811,"Inte":12812,"ekso":12813,"pod":12814,"Kommer":12815,"James":12816,"Tønder":12817,"protokol":12818,"Skagen":12819,"faser":12820,"trang":12821,"darligere":12822,"etooth":12823,"begrundet":12824,"rutine":12825,"VAR":12826,"tilgængelighed":12827,"gyldne":12828,"turnering":12829,"enty":12830,"sprede":12831,"tilsluttet":12832,"Oplysninger":12833,"sejre":12834,"kater":12835,"anmeldt":12836,"titler":12837,"trusler":12838,"fornemme":12839,"Amal":12840,"forblive":12841,"Gren":12842,"omtrent":12843,"maksimale":12844,"Len":12845,"slund":12846,"Canada":12847,"lesvig":12848,"indtaste":12849,"alde":12850,"Thisted":12851,"Hjemmes":12852,"konkurrenc":12853,"yld":12854,"saft":12855,"forsvaret":12856,"Gentofte":12857,"batteriet":12858,"nit":12859,"gatur":12860,"SØ":12861,"Samt":12862,"Cirk":12863,"Lise":12864,"procedure":12865,"Radets":12866,"Kræft":12867,"værkstedet":12868,"Central":12869,"Kommunalbestyrelsen":12870,"teoretisk":12871,"Pludsel":12872,"opdateringer":12873,"bemærket":12874,"eksamens":12875,"oprettes":12876,"EK":12877,"tisse":12878,"navnlig":12879,"destination":12880,"nordisk":12881,"teenager":12882,"maksimal":12883,"gruppens":12884,"kredse":12885,"museer":12886,"tikler":12887,"skeden":12888,"afdelings":12889,"bestyrelsesmedlemmer":12890,"vejledende":12891,"fordøj":12892,"afbrudt":12893,"laborator":12894,"bue":12895,"glans":12896,"røret":12897,"hersker":12898,"sammenhængen":12899,"ændringen":12900,"cirkel":12901,"formelle":12902,"hentning":12903,"indhente":12904,"standar":12905,"fysik":12906,"Bedre":12907,"sprisen":12908,"legeplads":12909,"intelle":12910,"Dernæst":12911,"Resultat":12912,"word":12913,"fac":12914,"CR":12915,"grimme":12916,"Gay":12917,"Tit":12918,"lesbisk":12919,"interviews":12920,"kæmpede":12921,"Formal":12922,"sænke":12923,"Rikke":12924,"versity":12925,"STR":12926,"Up":12927,"nært":12928,"ventetid":12929,"Magnus":12930,"Arbejdsmark":12931,"Kog":12932,"militære":12933,"Lasse":12934,"fastsatte":12935,"Konkurren":12936,"uenig":12937,"tilbøj":12938,"Rock":12939,"knapper":12940,"Forud":12941,"forsøget":12942,"sproglige":12943,"Varde":12944,"præferen":12945,"vivl":12946,"LO":12947,"seriøs":12948,"celæn":12949,"straling":12950,"jævne":12951,"pastand":12952,"girls":12953,"komfortable":12954,"førtidspension":12955,"fremadrettet":12956,"syr":12957,"smider":12958,"organisering":12959,"nikke":12960,"رررررررررررررررر":12961,"udtalelser":12962,"Grækenland":12963,"DEL":12964,":-":12965,"Nøgen":12966,"talerne":12967,"beskæftiget":12968,"forsikringer":12969,"tapet":12970,"Dol":12971,"trykket":12972,"tørrer":12973,"1993":12974,"affel":12975,"renoveret":12976,"erstattet":12977,"Gade":12978,"forskningen":12979,"Køn":12980,"Gitte":12981,"varige":12982,"undersøges":12983,"flæ":12984,"rejsning":12985,"Grunden":12986,"udenom":12987,"Mathi":12988,"Hammer":12989,"Gl":12990,"tavs":12991,"ideel":12992,"færdes":12993,"ulovligt":12994,"arrangere":12995,"Dra":12996,"hyd":12997,"Skandinavi":12998,"lovede":12999,"Cook":13000,"frygter":13001,"studere":13002,"ceringen":13003,"Altid":13004,"pærer":13005,"begravet":13006,"varmes":13007,"kæder":13008,"udledning":13009,"amt":13010,"kontaktet":13011,"middelalder":13012,"havende":13013,"opstillet":13014,"betragter":13015,"menigheds":13016,"afbry":13017,"margin":13018,"bygg":13019,"væggene":13020,"skød":13021,"ope":13022,"leren":13023,"udgav":13024,"ther":13025,"Asien":13026,"blæser":13027,"musikere":13028,"Bibliotek":13029,"tykt":13030,"glasset":13031,"SY":13032,"sklub":13033,"fremmer":13034,"berig":13035,"smykke":13036,"vator":13037,"gradvist":13038,"BER":13039,"Lærer":13040,"sygeplejersker":13041,"objekt":13042,"afholdelse":13043,"aland":13044,"skruer":13045,"slettet":13046,"kombinerer":13047,"Schweiz":13048,"viborg":13049,"fascinerende":13050,"bryllups":13051,"begrundelse":13052,"tui":13053,"indrø":13054,"konkurrencer":13055,"bjerget":13056,"sektoren":13057,"Tekn":13058,"Hæld":13059,"jung":13060,"uropa":13061,"hastigheden":13062,"Koncer":13063,"hyper":13064,"besøget":13065,"muslimske":13066,"Point":13067,"\",\"":13068,"bien":13069,"syning":13070,"overflader":13071,"minton":13072,"ÆRK":13073,"planlægningen":13074,"tilsat":13075,"styper":13076,"Kommentar":13077,"vellykket":13078,"ont":13079,"ugens":13080,"konfirma":13081,"Blog":13082,"ledte":13083,"hæfte":13084,"udgjorde":13085,"unst":13086,"mentor":13087,"nytars":13088,"Bebo":13089,"Lokalavisen":13090,"dræn":13091,"rediger":13092,"afrikanske":13093,"gui":13094,"undgas":13095,"Organisa":13096,"Sygehus":13097,"frederiks":13098,"duer":13099,"spændings":13100,"Borg":13101,"Samfund":13102,"ugh":13103,"Tina":13104,"lokalitet":13105,"grupperne":13106,"tillykke":13107,"Dø":13108,"slagsen":13109,"soveværelset":13110,",...":13111,"EV":13112,"angivne":13113,"EP":13114,"favoritter":13115,"guider":13116,"hensigtsmæssig":13117,"kørslen":13118,"University":13119,"Isa":13120,"vidunderlig":13121,"stænger":13122,"cis":13123,"medtage":13124,"Flens":13125,"GT":13126,"Verdenskrig":13127,"bevares":13128,"læreren":13129,"Gla":13130,"amp":13131,"tomat":13132,"dykker":13133,"farverige":13134,"aktuel":13135,"Skjern":13136,"Lut":13137,"gyp":13138,"sygdoms":13139,"spejder":13140,"tendenser":13141,"pile":13142,"invitere":13143,"beskatning":13144,"Opr":13145,"regru":13146,"Foruden":13147,"testen":13148,"kostede":13149,"skattel":13150,"kit":13151,"præsten":13152,"opstart":13153,"højttaler":13154,"Rol":13155,"Fog":13156,"ølse":13157,"ømning":13158,"foreslas":13159,"Anton":13160,"AaB":13161,"Christina":13162,"medvirkende":13163,"demens":13164,"hvalpe":13165,"forsvundet":13166,"Mex":13167,"forklarede":13168,"decideret":13169,"advarsel":13170,"Sikkerheds":13171,"Ægte":13172,"ansigts":13173,"key":13174,"Masser":13175,"Gruppe":13176,"udsty":13177,"edr":13178,"tænderne":13179,"fremhæver":13180,"sommerferie":13181,"fluen":13182,"inal":13183,"vesy":13184,"baret":13185,"stronom":13186,"city":13187,"indeklima":13188,"odil":13189,"brødre":13190,"sværd":13191,"styrket":13192,"amme":13193,"trædende":13194,"Ribe":13195,"tilkende":13196,"selvværd":13197,"Netto":13198,"Andel":13199,"objekter":13200,"trailer":13201,"Finland":13202,"soda":13203,"koncentrere":13204,"flittigt":13205,"skjule":13206,"udtalt":13207,"menneskelig":13208,"Klima":13209,"myndig":13210,"udenlandsk":13211,"rengørings":13212,"friheden":13213,"mentation":13214,"nas":13215,"born":13216,"porteføl":13217,"ligste":13218,"Udlænd":13219,"Fik":13220,"Kender":13221,"kvalifikationer":13222,"ression":13223,"selvtillid":13224,"længste":13225,"uli":13226,"tatover":13227,"Ansøg":13228,"timerne":13229,"omi":13230,"sas":13231,"sløn":13232,"selig":13233,"vejledninger":13234,"dab":13235,"persondata":13236,"direktivet":13237,"skjorte":13238,"Hunde":13239,"kugler":13240,"nose":13241,"abon":13242,"overvældende":13243,"afdrag":13244,"overskuelig":13245,"Lone":13246,"selvmord":13247,"PER":13248,"specialister":13249,"Luder":13250,"hm":13251,"Anti":13252,"motorvejen":13253,"tov":13254,"Office":13255,"synspunkter":13256,"ultimative":13257,"Dk":13258,"hytte":13259,"erhvervsdrivende":13260,"folder":13261,"kirt":13262,"skæbne":13263,"RK":13264,"glimt":13265,"demokrat":13266,"itor":13267,"Kurset":13268,"Mest":13269,"høn":13270,"udkommer":13271,"konen":13272,"Gruppen":13273,"skæres":13274,"tydelige":13275,"appelsin":13276,"kset":13277,"kampagner":13278,"undtagen":13279,"esti":13280,"az":13281,"stegt":13282,"interesserer":13283,"optagelser":13284,"rækkevidde":13285,"ART":13286,"afgive":13287,"vanil":13288,"Nil":13289,"massen":13290,"bureauer":13291,"Hr":13292,"kas":13293,"prins":13294,"saret":13295,"Trine":13296,"come":13297,"Fisk":13298,"content":13299,"amel":13300,"annul":13301,"missionens":13302,"arre":13303,"opgjort":13304,"cur":13305,"læben":13306,"BI":13307,"erstatnings":13308,"ukendte":13309,"Resten":13310,"forpligtelse":13311,"vert":13312,"Ris":13313,"ejendomsmægler":13314,"poolen":13315,"skrivninger":13316,"ytr":13317,"landene":13318,"Chan":13319,"bindende":13320,"forudsat":13321,"tern":13322,"fornuft":13323,"download":13324,"Sports":13325,"instrument":13326,"Well":13327,"jagten":13328,"overføre":13329,"ryn":13330,"robot":13331,"konstruktioner":13332,"silkeborg":13333,"sans":13334,"klaret":13335,"DNA":13336,"handfuld":13337,"veret":13338,"Værelserne":13339,"elektronik":13340,"junior":13341,"marat":13342,"that":13343,"afvist":13344,"politiker":13345,"kontekst":13346,"Stop":13347,"sporten":13348,"imødekomme":13349,"køer":13350,"Pig":13351,"bestaet":13352,"hjulet":13353,"talmodighed":13354,"Lauri":13355,"Isla":13356,"sministeriets":13357,"skabelse":13358,"skaberne":13359,"overbevis":13360,"guiden":13361,"linie":13362,"drede":13363,"holdbar":13364,"madlavning":13365,"pligtig":13366,"potentielt":13367,"Forum":13368,"zonen":13369,"jævnt":13370,"isra":13371,"BU":13372,"herning":13373,"opsat":13374,"lyng":13375,"world":13376,"fryse":13377,"aldeles":13378,"kanon":13379,"redes":13380,"pikke":13381,"Sv":13382,"papiret":13383,"oprindelig":13384,"aftener":13385,"strukturer":13386,"pragt":13387,"stuer":13388,"støb":13389,"Shi":13390,"kulturen":13391,"hæk":13392,"slagter":13393,"ints":13394,"skyldige":13395,"sebær":13396,"tværtimod":13397,"Vægt":13398,"bekræfte":13399,"regerings":13400,"Best":13401,"opsparing":13402,"honor":13403,"told":13404,"insi":13405,"kont":13406,"tiderne":13407,"nægter":13408,"Syrien":13409,"pit":13410,"Ful":13411,"røver":13412,"apoteket":13413,"hæftet":13414,"borgerlige":13415,"garderobe":13416,"Middelfart":13417,"SEL":13418,"alar":13419,"katol":13420,"pressen":13421,"træthed":13422,"Pleje":13423,"rand":13424,"kontrakter":13425,"bagved":13426,"Medlem":13427,"Schmidt":13428,"appen":13429,"Forbruger":13430,"fibre":13431,"skamp":13432,"ateri":13433,"intensitet":13434,"uddanne":13435,"sydelse":13436,"kontinuer":13437,"bæredygtige":13438,"opsigelse":13439,"blinde":13440,"Aller":13441,"kulde":13442,"enlige":13443,"formidler":13444,"krydderier":13445,"genrer":13446,"Glostrup":13447,"festivalen":13448,"kurv":13449,"bryn":13450,"touch":13451,"fornyet":13452,"udtale":13453,"speku":13454,"produktioner":13455,"ype":13456,"Patient":13457,"Tiden":13458,"betegnes":13459,"Radet":13460,"inerne":13461,"Handels":13462,"sie":13463,"Blue":13464,"antages":13465,"notat":13466,"følt":13467,"palæstinen":13468,"forarsager":13469,"ric":13470,"smagt":13471,"hopper":13472,"unø":13473,"Mia":13474,"Mindre":13475,"frekven":13476,"psykologi":13477,"Senior":13478,"Rødovre":13479,"ændene":13480,"Klaus":13481,"ordrer":13482,"trade":13483,"teknologien":13484,"slave":13485,"Union":13486,"musklerne":13487,"skaf":13488,"streaming":13489,"Time":13490,"kæmpet":13491,"sløj":13492,"sprang":13493,"ummen":13494,"udgivelser":13495,"mineral":13496,"Ungdoms":13497,"kærester":13498,"kobling":13499,"berømt":13500,"apparater":13501,"reformen":13502,"tw":13503,"elsens":13504,"bogens":13505,"ape":13506,"Skol":13507,"tilbageven":13508,"anvisninger":13509,"Pludselig":13510,"bb":13511,"Louis":13512,"War":13513,"Irak":13514,"Derimod":13515,"opfatter":13516,"overholdes":13517,"baller":13518,"Oli":13519,"dsm":13520,"Taastrup":13521,"reference":13522,"gerning":13523,"plantet":13524,"Hurtig":13525,"garanterer":13526,"funktionelle":13527,"pakning":13528,"kedelige":13529,"semester":13530,"oversvø":13531,"Støv":13532,"asiatiske":13533,"mineraler":13534,"Ax":13535,"mole":13536,"strakte":13537,"kabler":13538,"Twitter":13539,"spore":13540,"rop":13541,"ktorer":13542,"efteruddannelse":13543,"montere":13544,"istedet":13545,"indsættes":13546,"Tusind":13547,"milde":13548,"ATION":13549,"Sun":13550,"privatliv":13551,"fjernelse":13552,"MC":13553,"nerve":13554,"palæg":13555,"black":13556,"lunge":13557,"nødne":13558,"inventar":13559,"roskilde":13560,"cience":13561,"ansøgnings":13562,"Bjarne":13563,"ledighed":13564,"cykelt":13565,"Stift":13566,"mande":13567,"plasti":13568,"Cit":13569,"samarbejdspartner":13570,"NU":13571,"Dengang":13572,"erstatus":13573,"debu":13574,"Introdu":13575,"hængt":13576,"Arbejder":13577,"gentagne":13578,"østen":13579,"dukkede":13580,"Artikel":13581,"stjalet":13582,"Filmen":13583,"beklager":13584,"Brasili":13585,"prioritere":13586,"øvet":13587,"Knudsen":13588,"hentede":13589,"Hvide":13590,"tricks":13591,"opry":13592,"horsens":13593,"forleden":13594,"angaende":13595,"hyp":13596,"sforvaltningen":13597,"hjelm":13598,"stærkeste":13599,"stadigt":13600,"sandwich":13601,"kirkens":13602,"snarest":13603,"hormoner":13604,"Anvendelse":13605,"omdrejning":13606,"næstformand":13607,"oker":13608,"imponeret":13609,"fonde":13610,"df":13611,"Kæmpe":13612,"egu":13613,"Sikkerhed":13614,"mpoo":13615,"markante":13616,"asyl":13617,"lejemal":13618,"parker":13619,"Derved":13620,"Dronning":13621,"fantasien":13622,"Udbud":13623,"oversky":13624,"blæk":13625,"afslutte":13626,"udgiften":13627,"glemte":13628,"entusia":13629,"maer":13630,"Udviklingen":13631,"fornødne":13632,"allermest":13633,"kogni":13634,"karet":13635,"MAS":13636,"falt":13637,"arsregnskab":13638,"øvre":13639,"Sur":13640,"efær":13641,"unødven":13642,"ægtefæl":13643,"andens":13644,"Donald":13645,"Billund":13646,"Fodbold":13647,"madras":13648,"ikraft":13649,"merede":13650,"certificeret":13651,"Bay":13652,"pabegyndt":13653,"forskerne":13654,"gennemgaende":13655,"sæder":13656,"russisk":13657,"tjent":13658,"kunstneriske":13659,"optimi":13660,"lagerstatus":13661,"ix":13662,"sassi":13663,"djurs":13664,"ligeglad":13665,"steron":13666,"meldinger":13667,"like":13668,"novelle":13669,"ott":13670,"vagner":13671,"skiftende":13672,"manuelt":13673,"vækkende":13674,"helvede":13675,"alifor":13676,"util":13677,"blæst":13678,"gets":13679,"cafeer":13680,"Ejendommen":13681,"KV":13682,"Sku":13683,"infektioner":13684,"hash":13685,"haller":13686,"træerne":13687,"ærgerligt":13688,"accepteret":13689,"Lider":13690,"pom":13691,"bælte":13692,"parla":13693,"workshops":13694,"kemikalier":13695,"PE":13696,"bruse":13697,"betydet":13698,"Lufthavn":13699,"ydelsen":13700,"krænk":13701,"Smukke":13702,"poker":13703,"anførte":13704,"bemærke":13705,"Sovjet":13706,"indstilles":13707,"eksistens":13708,"Dels":13709,"Generalforsamling":13710,"biologiske":13711,"elsket":13712,"anken":13713,"Holdet":13714,"deller":13715,"edage":13716,"fleks":13717,"Kle":13718,"tech":13719,"gæves":13720,"Pul":13721,"cra":13722,"Billedet":13723,"forestiller":13724,"pøl":13725,"silikone":13726,"suveræn":13727,"rygning":13728,"planerne":13729,"petence":13730,"afslutningen":13731,"alternativer":13732,"Skøn":13733,"Shar":13734,"lejren":13735,"squ":13736,"skruet":13737,"angriber":13738,"hammer":13739,"rerne":13740,"førsteklasses":13741,"rednings":13742,"akade":13743,"neutral":13744,"Kry":13745,"vinding":13746,"skibs":13747,"Sogn":13748,"ligende":13749,"røget":13750,"Ballerup":13751,"Lotte":13752,"toilettet":13753,"tilbringe":13754,"lokalet":13755,"usædvanligt":13756,"stralende":13757,"Fakt":13758,"formede":13759,"retnings":13760,"nement":13761,"cyklus":13762,"nifi":13763,"sulten":13764,"gyldigt":13765,"impor":13766,"temaet":13767,"sejren":13768,"fremstille":13769,"sensu":13770,"Smer":13771,"Stedet":13772,"spiritu":13773,"kontoen":13774,"arbejdsgiveren":13775,"strenge":13776,"teoretiske":13777,"kvæg":13778,"escortpiger":13779,"opgrader":13780,"fortiden":13781,"sho":13782,"udgangspunktet":13783,"efør":13784,"alsi":13785,"kvælstof":13786,"sangen":13787,"heriblandt":13788,"Forskning":13789,"neth":13790,"kninger":13791,"Ib":13792,"afvikling":13793,"forsvare":13794,"shøj":13795,"render":13796,"Java":13797,"udførte":13798,"pinde":13799,"malsætninger":13800,"kloge":13801,"udveks":13802,"Trans":13803,"Slet":13804,"udfordret":13805,"Rø":13806,"beski":13807,"lednings":13808,"Not":13809,"udsendelse":13810,"Type":13811,"Sjo":13812,"Kalundborg":13813,"bevil":13814,"faktur":13815,"maks":13816,"Sexy":13817,"kinesisk":13818,"smøn":13819,"Evt":13820,"Bestille":13821,"Rud":13822,"skatten":13823,"Lem":13824,"stræning":13825,"ekspedi":13826,"øves":13827,"pausen":13828,"drup":13829,"MER":13830,"Clo":13831,"regions":13832,"jorde":13833,"bølger":13834,"overnatnings":13835,"anholdt":13836,"outube":13837,"read":13838,"rar":13839,"æson":13840,"forsigtig":13841,"ekstrem":13842,"Mai":13843,"Skift":13844,"TH":13845,"buske":13846,"Hørsholm":13847,"resulterer":13848,"lukning":13849,"Udt":13850,"Scho":13851,"modstander":13852,"malgruppen":13853,"kontrolleret":13854,"neutr":13855,"efri":13856,"blodsukker":13857,"fædre":13858,"Open":13859,"sinstitutioner":13860,"dybden":13861,"pse":13862,"tydeligvis":13863,"fratræ":13864,"takne":13865,"borgernes":13866,"forhandlingerne":13867,"dug":13868,"Jesu":13869,"borgerskab":13870,"malede":13871,"ængden":13872,"ORG":13873,"edan":13874,"spærre":13875,"sons":13876,"dækkede":13877,"byggelsen":13878,"tennis":13879,"endog":13880,"omfanget":13881,"Lim":13882,"afvise":13883,"lesbiske":13884,"tegl":13885,"otter":13886,"kollektive":13887,"Herfra":13888,"indrette":13889,"EUR":13890,"erg":13891,"henvise":13892,"formaet":13893,"ISO":13894,"bacon":13895,"undervisere":13896,"lilla":13897,"sjovere":13898,"opfordring":13899,"login":13900,"krimi":13901,"Fisker":13902,"Ene":13903,"olde":13904,"vilkarene":13905,"Januar":13906,"parfume":13907,"meta":13908,"stave":13909,"rib":13910,"straffe":13911,"konkurrencedyg":13912,"Greve":13913,"turisme":13914,"farts":13915,"Møn":13916,"stata":13917,"raber":13918,"politikken":13919,"Las":13920,"],":13921,"plakater":13922,"plantning":13923,"sygt":13924,"prinsesse":13925,"Bygger":13926,"klient":13927,"Væg":13928,"lommer":13929,"ст":13930,"gigt":13931,"SH":13932,"ættet":13933,"instin":13934,"vaskes":13935,"messe":13936,"branch":13937,"MR":13938,"forklaringer":13939,"Ford":13940,"retfærdighed":13941,"pur":13942,"ferier":13943,"???":13944,"krydser":13945,"lovlig":13946,"disposi":13947,"1920":13948,"angiveligt":13949,"Udgifter":13950,"cap":13951,"Trin":13952,"meninger":13953,"sprogrammer":13954,"deltagende":13955,"forbeholder":13956,"vic":13957,"Afhæng":13958,"ysten":13959,"here":13960,"pend":13961,"Tilmeld":13962,"fortegnelse":13963,"henover":13964,"Sene":13965,"afsender":13966,"allerbedste":13967,"ordren":13968,"lind":13969,"afstanden":13970,"luksu":13971,"tagelsen":13972,"forbedrer":13973,"vævet":13974,"ary":13975,"okse":13976,"tjenesten":13977,"terapeu":13978,"udlan":13979,"nedgang":13980,"Organ":13981,"pludseligt":13982,"slemt":13983,"kommercielle":13984,"gemmes":13985,"klassiker":13986,"Risiko":13987,"forgæves":13988,"landbruget":13989,"derover":13990,"danmarks":13991,"hve":13992,"anmelder":13993,"smiler":13994,"112":13995,"udnyttet":13996,"ordbog":13997,"kriminelle":13998,"stest":13999,"midlertidige":14000,"365":14001,"reform":14002,"bronze":14003,"luten":14004,"midlet":14005,"entligt":14006,"kvindelig":14007,"realkredit":14008,"lerings":14009,"forlænget":14010,"Private":14011,"Olie":14012,"indsamlet":14013,"visit":14014,"ile":14015,"betragte":14016,"stadion":14017,"forsør":14018,"omstilling":14019,"Birgitte":14020,"Sikke":14021,"Landet":14022,"mari":14023,"allesammen":14024,"opfattes":14025,"Krav":14026,"stamente":14027,"Love":14028,"HEL":14029,"vennerne":14030,"fremhæve":14031,"færen":14032,"bukserne":14033,"stødt":14034,"benyttede":14035,"indtast":14036,"alyse":14037,"Folketing":14038,"ass":14039,"videres":14040,"ston":14041,"May":14042,"anfald":14043,"Tids":14044,"Leverand":14045,"style":14046,"rødvin":14047,"oversat":14048,"tømmer":14049,"besidder":14050,"sorien":14051,"TripAdvisor":14052,"indbetaling":14053,"Finansi":14054,"Penge":14055,"rygende":14056,"Status":14057,"musikalske":14058,"pointer":14059,"klud":14060,"bemærkelses":14061,"hvorimod":14062,"aritet":14063,"ryddet":14064,"skrævende":14065,"FM":14066,"ssalt":14067,"armband":14068,"ae":14069,"fordeles":14070,"agter":14071,"Mom":14072,"havre":14073,"jødiske":14074,"vorter":14075,"føreren":14076,"grød":14077,"sygepleje":14078,"abenhed":14079,"fjernsyn":14080,"kreativt":14081,"justeres":14082,"Enkel":14083,"rækning":14084,"bedring":14085,"knogle":14086,"griner":14087,"Gymnasium":14088,"forsvinde":14089,"fuldkommen":14090,"platforme":14091,"personerne":14092,"rot":14093,"Ideen":14094,"sættet":14095,"reception":14096,"konger":14097,"overskriften":14098,"dannelsen":14099,"naturens":14100,"afgiften":14101,"rører":14102,"Dort":14103,"stilsynet":14104,"Teknik":14105,"Veg":14106,"Hum":14107,"Østjylland":14108,"evangel":14109,"Mikkelsen":14110,"Fas":14111,"rabte":14112,"BD":14113,"udnytter":14114,"frekvens":14115,"Jun":14116,"klod":14117,"Sorø":14118,"Aabenraa":14119,"manager":14120,"Krig":14121,"Temp":14122,"iss":14123,"inva":14124,"Instru":14125,"bilens":14126,"Galler":14127,"Græn":14128,"ancen":14129,"binder":14130,"intui":14131,"tømrer":14132,"stype":14133,"renten":14134,"sammenlignes":14135,"delene":14136,"afløb":14137,"opdaterede":14138,"teenage":14139,"hoveder":14140,"hundred":14141,"timen":14142,"erstattes":14143,"size":14144,"sses":14145,"ity":14146,"sensi":14147,"tour":14148,"søm":14149,"stævnet":14150,"vationer":14151,"investorer":14152,"analsex":14153,"……":14154,"kvarteret":14155,"strale":14156,"Kors":14157,"dronning":14158,"tilværelsen":14159,"Personer":14160,"yen":14161,"terri":14162,"væd":14163,"energien":14164,"øgelse":14165,"afgøres":14166,"udbuddet":14167,"stans":14168,"spisning":14169,"indeni":14170,"intellektu":14171,"3000":14172,"Sat":14173,"tredjedel":14174,"Akti":14175,"ways":14176,"dannede":14177,"swe":14178,"eftersyn":14179,"Sne":14180,"indsætte":14181,"ækker":14182,"ulemper":14183,"løj":14184,"spejle":14185,"Analyse":14186,"Otto":14187,"Smag":14188,"oks":14189,"Odder":14190,"pressemeddelelse":14191,"fortællingen":14192,"Løg":14193,"odds":14194,"Viagra":14195,"freds":14196,"organisations":14197,"manedlige":14198,"stitutter":14199,"Dyb":14200,"strukturen":14201,"mattet":14202,"Kommunikation":14203,"følsomhed":14204,"1930":14205,"vanskelige":14206,"opholdet":14207,"tagelser":14208,"bekendtskab":14209,"stabili":14210,"mormor":14211,"forsikrede":14212,"gynge":14213,"udmøn":14214,"Excel":14215,"Jeres":14216,"ideelt":14217,"Øresund":14218,"pusle":14219,"konfir":14220,"drab":14221,"ween":14222,"radgive":14223,"uforgle":14224,"ladelse":14225,"regningen":14226,"alis":14227,"terapeuter":14228,"indede":14229,"overvæg":14230,"oman":14231,"drig":14232,"differenti":14233,"fodbol":14234,"fugtig":14235,"Zo":14236,"sædvanlig":14237,"talenter":14238,"Sted":14239,"Ara":14240,"folkene":14241,"tajn":14242,"Vild":14243,"jour":14244,"operationer":14245,"Formanden":14246,"kollektiv":14247,"Kil":14248,"krisen":14249,"gypten":14250,"stribe":14251,"konsekvenserne":14252,"kko":14253,"ægløsning":14254,"Tøj":14255,"direktoratet":14256,"Sophi":14257,"mud":14258,"frug":14259,"brugernavn":14260,"føltes":14261,"ørken":14262,"Berg":14263,"skæve":14264,"agende":14265,"slukke":14266,"indikator":14267,"Vist":14268,"manipu":14269,"spejlet":14270,"kollegi":14271,"Guide":14272,"Pornofilm":14273,"Særlige":14274,"Ros":14275,"fordyb":14276,"bladene":14277,"ambitioner":14278,"Kru":14279,"gun":14280,"amager":14281,"brusk":14282,"bruser":14283,"andelige":14284,"modstands":14285,"storby":14286,"manuskri":14287,"meddele":14288,"natte":14289,"sexliv":14290,"definere":14291,"vard":14292,"pier":14293,"py":14294,"igheden":14295,"udtalte":14296,"oveni":14297,"AAR":14298,"skæde":14299,"underskrevet":14300,"DANSK":14301,"portræ":14302,"inks":14303,"mægtig":14304,"aktiviteterne":14305,"Arsagen":14306,"eksisteret":14307,"stald":14308,"Mus":14309,"Tv":14310,"holdenhed":14311,"broder":14312,"direktøren":14313,"fordring":14314,"fortryde":14315,"bie":14316,"studerendes":14317,"gælde":14318,"overflø":14319,"hardere":14320,"koblet":14321,"koncernen":14322,"kanin":14323,"nedlagt":14324,"mejer":14325,"forstaeligt":14326,"1940":14327,"smyk":14328,"motorcykel":14329,"charme":14330,"Sh":14331,"ambition":14332,"beregne":14333,"aser":14334,"aktivering":14335,"informeret":14336,"iværksættere":14337,"ups":14338,"kvalme":14339,"tilsyns":14340,"ics":14341,"holi":14342,"container":14343,"refleksion":14344,"oplag":14345,"kaffen":14346,"administrationen":14347,"uder":14348,"stemnings":14349,"genoptræning":14350,"gørelser":14351,"Pay":14352,"desper":14353,"blogs":14354,"tradløse":14355,"løgn":14356,"landsbyen":14357,"symptomerne":14358,"erhvervsliv":14359,"drink":14360,"græsp":14361,"bevist":14362,"tiltrækker":14363,"kristen":14364,"drivhus":14365,"blære":14366,"1991":14367,"forstærker":14368,"betegnelsen":14369,"Die":14370,"fødselsdags":14371,"xen":14372,"Bos":14373,"posen":14374,"blødning":14375,"kanalen":14376,"skimmel":14377,"Baggrund":14378,"Advokat":14379,"SKR":14380,"stamme":14381,"lovforslag":14382,"færdsel":14383,"presser":14384,"Jamen":14385,"hævder":14386,"Kop":14387,"nydes":14388,"doser":14389,"tyveri":14390,"Mr":14391,"Posted":14392,"letal":14393,"gænger":14394,"websites":14395,"priss":14396,"gravet":14397,"Indsat":14398,"sodavand":14399,"skontor":14400,"undvær":14401,"Personligt":14402,"KØ":14403,"Vording":14404,"face":14405,"raft":14406,"strøg":14407,"Portug":14408,"webstedet":14409,"kretari":14410,"olo":14411,"shirts":14412,"assistance":14413,"XL":14414,"Bestemm":14415,"berørt":14416,"untain":14417,"styrelse":14418,"skommun":14419,"Funktion":14420,"indbyggede":14421,"blogindlæg":14422,"planet":14423,"opfører":14424,"videnskabeligt":14425,"betjent":14426,"associ":14427,"ogs":14428,"Vordingborg":14429,"folketings":14430,"ansøgeren":14431,"note":14432,"udflugter":14433,"dollars":14434,"skultur":14435,"cken":14436,"uændret":14437,"synder":14438,"DBA":14439,"Week":14440,"tasken":14441,"nedsættelse":14442,"abningen":14443,"sorgan":14444,"knyttede":14445,"Samsø":14446,"komfortabel":14447,"mangfoldighed":14448,"sanse":14449,"sengetøj":14450,"bæredygtigt":14451,"Gylden":14452,"lakri":14453,"mile":14454,"mobilen":14455,"1700":14456,"grænserne":14457,"sian":14458,"spredning":14459,"Handi":14460,"forsinket":14461,"Neder":14462,"Dahl":14463,"indikerer":14464,"Hon":14465,"vativ":14466,"retro":14467,"markere":14468,"Vesterbro":14469,"kontorer":14470,"indvendig":14471,"blander":14472,"beslutnings":14473,"saxe":14474,"tests":14475,"Belig":14476,"beskeden":14477,"ælk":14478,"udfør":14479,"spørgsmalene":14480,"selige":14481,"ubegrænset":14482,"udnyttes":14483,"pitalen":14484,"Videnskab":14485,"vokater":14486,"menneskes":14487,"smile":14488,"etagen":14489,"incl":14490,"udformet":14491,"Gæ":14492,"Revision":14493,"hjørner":14494,"1989":14495,"ytten":14496,"værdifulde":14497,"utroskab":14498,"Hau":14499,"speed":14500,"orm":14501,"uddy":14502,"værksteder":14503,"besværligt":14504,"rehabilitering":14505,"nøjagtigt":14506,"Nex":14507,"inje":14508,"pabud":14509,"sforhold":14510,"kommunernes":14511,"hænde":14512,"karakteristiske":14513,"skø":14514,"indgik":14515,"tilsættes":14516,"Proces":14517,"Jose":14518,"portalen":14519,"Halv":14520,"alverdens":14521,"handklæder":14522,"forsvarligt":14523,"længerevarende":14524,"instruktion":14525,"Løkke":14526,"nelse":14527,"livmoder":14528,"sarbare":14529,"kneppet":14530,"cin":14531,"stilarter":14532,"stederne":14533,"vas":14534,"lør":14535,"strene":14536,"ey":14537,"arevis":14538,"engagerede":14539,"smuse":14540,"Tex":14541,"udløber":14542,"Restaurant":14543,"cyl":14544,"atten":14545,"talrige":14546,"sagar":14547,"efterskole":14548,"EØ":14549,"overfør":14550,"sættende":14551,"hovedstaden":14552,"pressede":14553,"norsk":14554,"gartner":14555,"henvist":14556,"Gala":14557,"sygehuset":14558,"delserne":14559,"Kontor":14560,"klienter":14561,"dobbel":14562,"dimensioner":14563,"Inger":14564,"tvilling":14565,"flyder":14566,"party":14567,"Laur":14568,"rog":14569,"Form":14570,"Street":14571,"pasform":14572,"STE":14573,"ræd":14574,"arve":14575,"besvaret":14576,"jomfru":14577,"tastatur":14578,"rd":14579,"tilsagn":14580,"begejstring":14581,"Mobile":14582,"stir":14583,"konfron":14584,"tyg":14585,"hæld":14586,"vaku":14587,"shorts":14588,"Internettet":14589,"Være":14590,"Arkiv":14591,"Kirken":14592,"Bort":14593,"fattigdom":14594,"Stockholm":14595,"modtages":14596,"oi":14597,"globalt":14598,"tjekker":14599,"certifikat":14600,"grine":14601,"signifi":14602,"øjeblikke":14603,"ælder":14604,"indsamle":14605,"spal":14606,"kam":14607,"fejrer":14608,"Jyllands":14609,"bilerne":14610,"nyttigt":14611,"tomater":14612,"udskiftes":14613,"offentliggøres":14614,"Tog":14615,"5000":14616,"kombineres":14617,"porten":14618,"HU":14619,"koncerten":14620,"pynte":14621,"ili":14622,"katten":14623,"trængt":14624,"Desig":14625,"efterretning":14626,"aktivitets":14627,"porcelæn":14628,"reste":14629,"ansøgere":14630,"Senest":14631,"Lange":14632,"Skj":14633,"pakrævet":14634,"kvm":14635,"Sla":14636,"løshed":14637,
[...]
